#version: 0.2
Ġ Ð
Ð ¾
Ð µ
Ð °
Ñ Ĥ
Ð ¸
Ñ ģ
Ð¾ Ð
Ð ½
Ð »
Ñ Ģ
Ñ ĥ
Ð° Ð
Ñ ı
Ñ ĭ
Ðµ Ð
Ñ Į
Ġ Ñģ
ĠÐ ¿
ĠÐ ½
Ñ ĩ
Ð º
ĠÐ ²
ĠÐ ¸
Ð ²
ĠÐ ¾
Ð ´
Ð° Ð»
Ð ¼
ÑĤ Ð¾
Ñ ħ
ĠÐ º
Ð¾Ð ²
Ñ Ī
Ñģ ÑĤ
Ðµ Ð½
ĠÐ ±
Ġ ÑĤ
ĠÐ ´
Ðµ Ð»
Ð¾Ð »
³ Ð¾
Ðµ ÑĢ
ĠÐ ¼
Ñ İ
Ð½ Ð¾
Ð¾Ð ¼
Ðµ ÑĤ
Ð°Ð º
Ð¸ Ð»
Ġ Ñĩ
Ñĥ Ð
ĠÐ ·
ĠÐ¿ ÑĢ
Ð¾Ð ¹
Ð¾Ð ´
ĠÐ½ Ðµ
Ð° ÑĤ
Ñģ Ñı
Ġ ÑĢ
â Ģ
Ð¸ Ð
Ð½ Ñĭ
Ġ âĢ
ĠâĢ ĵ
Ð¸ ÑĤ
ĠÐ ³
ĠÐ µ
Ð°Ð ·
ĠÐ½ Ð°
Ð¾ Ñģ
ÐµÐ ¼
Ð¾ ÑĢ
Ð° Ñģ
Ð°Ð ²
Ð ¿
Ð½ Ð¸
Ð°Ð ¼
Ñ ī
Ġ Ñĥ
ĠÐ± Ñĭ
ĠÐ »
Ñ Ĩ
Ð ±
Ð¾ ÑĤ
Ð½ Ð°
Ð¾Ð ³
Ð¸ Ð²
ĠÐ ¶
Ð ·
ÐµÐ ´
Ð¾Ð ½
ĠÐ¾ ÑĤ
Ð¾Ð ³Ð¾
Ð° Ð½
Ġ Ñ
ĠÑģ ÑĤ
ĠÑĩ ÑĤÐ¾
Ð ¹
Ð¾Ð º
Ñģ Ðº
ĠÐ¾ Ð½
ĠÐ±Ñĭ Ð»
Ð¸ Ð¼
Ð´ Ð°
Ð¸ Ð½
ÐµÐ ¹
ĠÐ Ł
Ð°Ð ´
Ġ Ñı
ĠÐº Ð°Ðº
Ð ³Ð¾
Ð¸ Ñģ
ĠÐ Ŀ
Ð ³
ÑĤÐ¾ ÑĢ
ĠÑ į
Ð°ÑĤ ÑĮ
Ð° ÑĢ
Ð° Ñı
Ð¾Ð ±
ĠÐ¿ Ð¾
Ð¾Ð ¶
ÐµÐ ²
ĠÐ² Ñģ
Ð¾Ð» ÑĮ
Ðµ Ñģ
ĠÐ Ĵ
Ð¸ Ñĩ
Ð½ Ñĥ
ĠÐ ĺ
ÐµÐ ·
Ð¸ Ñħ
Ð¸ Ðº
ĠÐµ Ð³Ð¾
Ġ Ñħ
ĠÑģ Ð²
ÑģÑĤ Ð²
Ð¸ Ðµ
ÑĥÐ ¶
ĠÐ °
Ñĥ Ð´
Ðº Ð¾
ĠÐ² Ñĭ
Ð¸Ð ¹
ĠÑĤ Ð°Ðº
Ġ -
Ð» Ð¸
Ðº Ð°
Ð» Ñı
ÐµÐ º
ĠÐ Ĳ
ÐµÐ» ÑĮ
Ð ¶
Ðµ Ñĩ
ÑĢ Ð°
Ð°Ð ¶
Ð¸ Ð´
ÐµÐ ³Ð¾
ĠÐ¾ Ð±
Ð¾Ð ·
ÐµÐ ¿
Â Ń
ĠÐ ¡
Ñı ÑĤ
ÑĥÐ ³
ĠÑģ Ð»
ÐµÐ ±
Ðµ Ñħ
ĠÐ ŀ
Ð¾Ð³ Ð´Ð°
ĠÐº Ð¾
ĠÐ½ Ð¾
Ð¸Ñģ ÑĮ
Ð°Ð» Ð¸
ÐµÐ½ ÑĮ
ĠÐ¿ Ð¾Ð´
Ð¸ÑĤ ÑĮ
Ðº Ð¸
ĠÐ· Ð°
ĠÐ¸ Ð·
Ð°Ð» Ð°
Ð½Ñĭ Ð¹
Ð¸Ð ·
ĠÑģ Ðº
ĠÐº ÑĢ
Ñĥ ÑĤ
Ð°Ð¼ Ð¸
Ñĭ Ð¹
ĠÐ ļ
Ð½ Ðµ
ĠÑĢ Ð°Ð·
Ñĭ Ð²
Ġ ÑĤÐ¾
ÐµÐ½ Ð¸
Ð½ Ð¾Ð¹
ÑģÑĤ ÑĮ
ĠÐºÐ¾ ÑĤÐ¾ÑĢ
Ð½Ñĭ Ð¼
. .
ĠÑį ÑĤÐ¾
ĠÐ±ÑĭÐ» Ð¾
Ñĥ Ñİ
ĠÐ §
ĠÐ ¢
ĠÐ ľ
Ñĥ Ð¼
ĠÐ²Ñģ Ðµ
Ð» Ð°
Ñĥ Ñĩ
Ñī Ðµ
ĠÐ¾ Ð´
Ð¾Ð ¿
Ð½ Ð¾Ð³Ð¾
Ð¾Ñģ ÑĮ
ĠÑį ÑĤ
ĠÐ¶ Ðµ
Ð¾ Ñĩ
Ð°Ð ¿
Ðº Ñĥ
Ġ ÑĪ
ÐµÐ ³
Ñĭ Ð¼
Ðµ ÑĪ
Ð°Ð ±
Ð¾ Ðµ
Ð½Ñĭ Ðµ
ĠÑģ Ð¼
ĠÐ¿ ÐµÑĢ
ÐµÐ ¶
ĠÐ³ Ð»
ĠÐ´ ÑĢ
Ð¾Ð»ÑĮ ÐºÐ¾
Ñĥ ÑĪ
Ñĭ Ðµ
Ð°Ñģ ÑĮ
Ð° ÐµÑĤ
ÐµÐ½ Ð½Ð¾
Ð°Ð» ÑģÑı
ÑĥÐ ±
Ð¾ ÑģÑĤ
Ð¾Ð² Ð°
Ðµ ÑģÑĤ
ĠÐ» Ñİ
ĠÑģ Ð¿
Ð¾Ð² Ð¾ÑĢ
ÑĥÐ ¿
ĠÐ ³Ð¾
Ð°Ð ¹
Ð¸ ÑĢ
Ñĭ Ñħ
Ñı Ð»
ĠÐ Ķ
Ð¾ ÑĪ
Ñĥ ÑĢ
ĠÑģÐ² Ð¾
Ġ ÑĥÐ¶
Ð° Ñİ
Ð°Ð» ÑĮ
ĠÐ» Ð¸
Ð°Ð ³
Ð¾Ð¼ Ñĥ
Ġ "
ĠÑĢ Ð°Ñģ
ĠÐ´ Ð²
ĠÐ³ ÑĢ
ĠÐ ¯
Ð¾Ð² Ð¸Ñĩ
Ð½Ñĥ Ð»
ĠÐ¿ Ð¾Ð»
ĠÐ¿ Ð¾Ñģ
ÐµÐ½ Ñı
ĠÐ³ Ð¾Ð»
ĠÐº Ð¾Ð³Ð´Ð°
ĠÐ¿ÑĢ Ð¸
ĠÐ§ ÐµÑħ
Ð½Ð° Ñı
ĠÑģ Ð°Ð¼
ĠÑĤ ÑĢ
Ð¸Ð» Ð°
Ð¸Ð» ÑģÑı
ĠÑĢ Ñĥ
Ð½Ñĭ Ñħ
ĠÐ¼ ÐµÐ½Ñı
Ñħ Ð¾Ð´
Ð¼ Ñĥ
Ð¸ÑĤ ÐµÐ»ÑĮ
ĠÐ¾ Ð½Ð°
ÑĪ Ðµ
ÑģÑĤ ÑĢ
Ð° Ñħ
Ð½Ð¾ Ðµ
ĠÐ± ÑĥÐ´
Ð¸Ð» Ð¸
ĠÐĿ Ð¾
ĠÐ¼ Ð½Ðµ
ĠÐ± Ð¾Ð»ÑĮ
Ð°Ð· Ð°Ð»
ÑĤ ÑĮ
ĠÑĤ Ð¾Ð»ÑĮÐºÐ¾
ĠÐ¿ Ð¾Ðº
ĠÐµ ÑīÐµ
ĠÐµ Ðµ
ĠÐ³ Ð¾Ð²Ð¾ÑĢ
ĠÐ´ÑĢ ÑĥÐ³
ĠÐ¿ Ð»
ĠÐ² Ð¸Ð´
ĠÑĥÐ¶ Ðµ
ĠÐŁ Ð°Ð²
ÐµÐ» Ð¾Ð²
ĠÐ² Ð·
ĠÐ³Ð¾ ÑĢ
Ð°Ð» Ð¾
ĠÐ ķ
ĠÐ ĳ
ĠÑĩ ÐµÑĢ
ÑĤ Ð¸
Ð¸Ð ³
ĠÐ³Ð» Ð°Ð·
Ð¾ÑĤ ÑĢ
ĠÐµ Ð¼Ñĥ
ÐµÐ½ Ð¸Ðµ
ĠÐ± ÐµÐ·
ĠÐ¾ Ñĩ
Ñ Ħ
Ðº Ð¾Ð²
Ð° Ð½Ð¸
ÐµÑĢ ÑĮ
ÑĢ Ð¾Ñģ
Ġ ÑĨ
ĠÐ¼ Ð¾Ð»
Ð¸Ð ±
.. .
Ðµ ÑģÐº
ÑģÑĤ Ð¸
Ñĥ Ð²
ĠÐ¾ Ð½Ð¸
ĠÑĤ Ñĭ
ĠÐŀ Ð½
ÐµÐ½Ð¸ Ñı
ĠÐ»Ñİ Ð±
ÐµÐ¼ Ñĥ
Ð» Ð¸Ð²
Ñģ Ð¿
ĠÐ½ Ð¸
Ñģ ÑĮ
ÑģÑĤ Ð°Ð²
ÐµÐ» Ð¸
Ð´ Ðµ
ĠÑģÑĤ ÑĢ
Ðº Ðµ
ĠÐ¼ Ñĭ
ĠÐ½ ÐµÐ³Ð¾
Ð¸Ð¼ Ð¸
ĠÐ½ Ð°Ð´
Ð¸Ð ¶
Ñĥ Ñħ
ĠÐ¶ Ð¸Ð·
ĠÑ Ħ
Ð² ÐµÑĢ
ÐµÐ± Ñı
ĠÐ± Ð»
Ð¾Ð¼ Ð½
ĠÐ¿ Ð¾ÑĤ
Ð½Ñĥ Ñİ
Ð¸ Ð½Ð°
ĠÐ ĵ
ĠÐ¾ Ðº
Ðµ ÑĨ
ĠÐ² ÑĢ
Ð½Ð¸ Ð¼
ĠÐĲ Ð½
ĠÐ¾ Ð¿
ÑıÑĤ ÑĮ
ĠÐ² Ð¾Ð·
Ð¸ ÑĪ
ĠÐ¼ Ð¾Ð³
ĠÐ¿ÑĢ Ð¾
ÑĢ Ð°Ð²
âĢ ¦
ĠÐ¸ Ñħ
Ð¾Ð± Ñĭ
ĠÐ§ÐµÑħ Ð¾Ð²
ÑĮ Ñı
ĠÑĩ ÐµÐ»Ð¾Ð²
ĠÐ¾ÑĤ Ð²
ĠÐ»Ð¸ ÑĨ
Ð¸ ÑģÑĤ
ĠÐ¼ Ð¾
ĠÐ¸ Ð¼
Ñĩ Ð°
ĠÐ´ Ð»Ñı
ĠÐ¾Ñĩ ÐµÐ½ÑĮ
ĠÐ¾ Ñģ
Ð½ Ñı
Ð» Ð¾
Ð» Ðµ
ĠÑĤ ÐµÐ¼
ĠÐ±ÑĭÐ» Ð°
Ð°Ð» Ð¸ÑģÑĮ
ÐµÑĤ ÑģÑı
ĠÐ² ÐµÑģ
ÐµÐ½ÑĮ Ðº
Ñĥ ÑģÑĤ
ÐµÐ» Ð°
Ñģ Ð»Ð¸
Ñĭ ÑĪ
ÐµÐ» Ð¾
ĠÐ· Ð½
ĠÑģÑĤ ÑĢÐ°
Ð° Ñĩ
ĠÐ¶ ÐµÐ½
ÑĢ Ñĭ
ĠÐ Ľ
ĠÐ½Ð° Ñĩ
Ð°Ð² ÑĪ
ĠÐ´ Ð¾Ð»
ÐµÑĤ ÑĮ
ĠÐ· Ð½Ð°
ĠÐ±ÑĭÐ» Ð¸
ĠÑģ Ð¾Ð²
ÑĢ Ð°Ð·
ĠÑĥ Ð¼
ĠÐ»Ñİ Ð´
ĠÐ Ĺ
ĠÐ¿Ð¾ Ñĩ
ĠÑģ Ð¾Ð±
ĠÑħ Ð¾ÑĤ
Ð°Ð¶ Ðµ
Ñı Ð¼
ÑĥÐ² ÑģÑĤÐ²
ĠÑĩÐµÐ»Ð¾Ð² ÐµÐº
ĠÐ½ Ð°Ð¿
Ð½ Ð¾Ð¼
Ðº Ð¾Ð¹
ĠÐ¼ Ð¾Ð¶
Ð°ÑĤ ÐµÐ»ÑĮ
Ð´ ÑĢ
ĠÐ½ ÐµÐ¿
Ð» Ñİ
Ð¾ Ñħ
ĠÐ £
ĠÐ½ Ð¸Ðº
ĠÐº Ð¾Ð½
Ð° ÑĪ
ĠÐ¿ Ð¾Ð½
ĠÐ± ÐµÑģ
ĠÐ· Ð²
Ð»Ñı Ð´
ĠÐ´ Ð¾Ð¼
ÑĥÐ ·
Ð¾ÑĢ Ð¾ÑĪ
ÐµÑĪ ÑĮ
ĠÐ¿ÑĢ ÐµÐ´
ĠÐ²ÑĢ ÐµÐ¼
Ð¸Ð» ÑĮ
ĠÑģÑĤ Ð°ÑĢ
ĠÐŁ ÐµÑĤ
Â «
Ġ Â«
Ñģ Ð»
ĠÐ¸ Ð»Ð¸
ĠÐ´ Ð¾
Â »
ÐµÐ± Ðµ
Ð°Ð½ Ð¾Ð²
Ð½ ÑĮ
ÑĤ Ðµ
ĠÐ´ Ð°Ð¶Ðµ
Ð¸ÑĤÐµÐ»ÑĮ Ð½Ð¾
ĠÐ ł
Ð½ÑĭÐ¼ Ð¸
ĠÐ Ń
ÑĨ Ð°
ÑĥÐ´ ÑĮ
ĠÐ³Ð¾Ð» Ð¾Ð²
ĠÐ± ÑĢ
ĠÑĩ ÑĤ
Ð°Ñİ ÑĤ
Ð¾Ð² Ð°Ð»
ĠÑģ Ð¾
Ð¸Ð² ÑĪ
Ñĥ Ð»
ĠÑģÐº Ð°Ð·Ð°Ð»
Ðµ ÑģÑĤÐ²
ĠÐŁ ÑĢ
ĠÐ´ ÑĥÐ¼
ĠÑģ ÐµÑĢ
ĠÑĤ ÐµÐ¿
ÑĨ Ðµ
ĠÐ² ÐµÑĢ
Ð¸ÑĤ Ðµ
Ð°Ð¶ Ð´
Ðµ Ðµ
Ð½ Ð¾Ð²
ĠÐ½ ÐµÐ¼
Ð¸Ð» Ð¾ÑģÑĮ
ĠÑĩÑĤ Ð¾Ð±Ñĭ
Ðº Ð¾Ð¼
Ð¸ Ñı
Ð´ Ñĥ
Ð¸ Ð¸
ĠÐ³ Ð´Ðµ
ĠÐ¿ Ð¾Ð²
ĠÐŁÐ°Ð² Ð»
Ð¾ Ñİ
Ð» ÐµÐ½
Ð°ÑĤÑĮ ÑģÑı
ĠÐ¾Ð´ Ð¸Ð½
Ñĥ Ð´Ð°
Ð¸Ð ¿
Ñĥ Ñģ
ÑĤ Ð¾Ð½
Ð°Ð» Ð°ÑģÑĮ
ĠÐ¾ Ð³
ĠÐ¿ Ð¾ÑĢ
ÑģÐº Ð°Ð·
ĠÐĿ Ðµ
ĠÑģÐ² ÐµÑĤ
ĠÐ· Ð°Ð¿
ĠÐºÑĢ Ð°Ñģ
ÑĢ ÐµÐ´
ĠÐ¿ Ð¸Ñģ
ÑĢ Ð¾Ð²Ð¸Ñĩ
ĠÐ±Ð¾Ð»ÑĮ ÑĪ
ĠÑģÐ¼ Ð¾ÑĤÑĢ
ÑĤÐ¾ Ñı
ĠÐº Ð¾Ð»
ĠÐ¿ Ð¾Ð¿
ĠÑħ Ð¾ÑĢÐ¾ÑĪ
Ñı Ð¶
ĠÐ· Ð°Ð¼
ĠÐ´ ÐµÐ»
ĠÐļ Ð°Ðº
ĠÑģ ÐµÐ±Ñı
ĠÐ² Ð¾Ð»
ÑĭÐ¼ Ð¸
Ñı Ð·
Ð½Ð¾ ÑģÑĤÑĮ
ĠÑĩ ÑĥÐ²ÑģÑĤÐ²
Ð°Ð» Ð¾ÑģÑĮ
ĠÐ± Ð¾Ð»
ĠÐ§ÐµÑħ Ð¾Ð²Ð°
ĠÑģ Ð½
ĠÐ³Ð»Ð°Ð· Ð°
ĠÐĲÐ½ ÑĤÐ¾Ð½
ĠÐ² Ð¾
Ð¸Ð» Ð¸ÑģÑĮ
ĠÑĥ Ð´
ĠÐ½Ð° Ñģ
Ð¾Ð± ÑĢ
ĠÐ½Ð¾ Ñĩ
ĠÐĶ Ð°
ĠÐ¾ ÑģÑĤ
ĠÐ· Ð°Ðº
_ _
Ð» ÐµÐ´
Ð» Ñĭ
Ð¾Ð´ Ð°
ĠÐ¿ÐµÑĢ ÐµÐ´
Ð°ÐµÑĤ ÑģÑı
Ð¸Ð» Ð°ÑģÑĮ
ÑĤ ÑĢ
ĠÐ² Ð¿
ĠÑĢÐ°Ñģ ÑģÐºÐ°Ð·
Ð½Ð¸ Ðº
Ð¸ÑĤÑĮ ÑģÑı
Ð°Ð± Ð¾ÑĤ
ĠÐŃ ÑĤÐ¾
ĠÐ¼ Ð°Ð»
ĠÐ±Ñĭ ÑĤÑĮ
ĠÐŁÐ°Ð²Ð» Ð¾Ð²Ð¸Ñĩ
ÑĢ Ð°Ñģ
Ð°Ðº Ð¾Ð¼
ĠÐ¾ÑĤÐ² ÐµÑĤ
ĠÐ²ÑĢÐµÐ¼ Ñı
ĠÐ¿ Ð¾Ð·
ĠÑĩ Ð°Ñģ
Ð¾Ðº Ð¾Ð¹
Ð°Ñİ Ñī
ÑĪ ÐµÐ»
Ð´ ÐµÐ»
ĠÑĤÐµÐ¿ ÐµÑĢÑĮ
Ðµ Ñī
ÐµÑĢ ÑĤ
ĠÐ² Ð¾Ñģ
Ð°Ñı ÑģÑĮ
ÐµÐ½ Ð½ÑĭÐ¹
ĠÑĩ ÐµÐ¼
ĠÐĿ Ð°
ĠÑģÐº Ð°Ð·
ĠÐ¢ Ð°Ðº
ĠÐ½ ÐµÑĤ
Ġ /
ĠÐ¿ÑĢ Ð¾Ñģ
ÑģÑĤÑĢ Ð¾
ĠÐ¶Ð¸Ð· Ð½ÑĮ
ĠÐ´ ÐµÑĢ
ÑĤ ÐµÑĢ
ĠÐĿ Ð¸Ðº
Ð¾Ð» Ð¾Ð´
ĠÑģÑĤÑĢÐ° ÑĪ
ĠÐ³Ð¾Ð» Ð¾Ñģ
Ñģ Ðµ
ĠÑĢ Ð°Ð´
Ð½Ð¸ Ðµ
ĠÐ½ ÐµÐ´
Ðº Ð°Ð¼Ð¸
ĠÑģÐ» Ð¾Ð²
Ġ ÑĥÐ³
Ñĩ Ð½Ð¾
ĠÐ¸ Ð½
ĠÐ±ÑĥÐ´ ÑĤÐ¾
ĠÐ¼ Ð½Ð¾Ð³Ð¾
Ð½ ÐµÐ¹
Ð½ Ð¸Ð±
Ñĥ Ñī
ĠÐ± ÐµÐ»
ĠÑĥ Ð²
ĠÐ¾ÑĤ Ðº
Ð½Ð¸Ð± ÑĥÐ´ÑĮ
Ð½Ð¾ ÑģÑĤÐ¸
ĠÐ½ Ð¸Ñĩ
ĠÐ´ ÑĥÑĪ
ÐµÑģ ÑĮ
ĠÑįÑĤ Ð¾Ð³Ð¾
ĠÑĤ Ð¸Ñħ
ĠÐ¶Ð¸Ð· Ð½Ð¸
Ð Ł
ĠÐ¶ ÐµÐ»
Ð½ÑĥÐ» ÑģÑı
Ð» Ð°Ð´
ĠÐĿ Ñĥ
ÑĮ Ñİ
ĠÐĴ Ñĭ
ÑĭÐ² Ð°Ð»
ĠÐ² Ð¾ÑĤ
Ð¸Ð» Ð¾
ĠÑģÑĤ Ð¾Ð»
ĠÐ¼Ð¾Ð¶ ÐµÑĤ
ÑĤ Ð°
ĠÐ¿ÑĢ Ð°Ð²
ĠÐ¿ÑĢ Ð¾ÑĤ
Ð¾Ð¶ Ðµ
ĠÐ½ Ð¾Ð³
Ð² Ð°Ð½
Ð¸ÑĤ ÑģÑı
ĠÐµ ÑģÐ»Ð¸
Ð¸Ð½ Ñĥ
ĠÑģ ÑĤÐ¾ÑĢ
Ð½Ðµ Ðµ
Ðº Ð²
Ñı Ð´
Ðº Ð¸Ð¹
ÐµÐ³ Ð´Ð°
Ð¾ÑģÑĤ Ð¸
Ð» ÐµÐº
Ð»Ñĭ Ð±
Ñĭ Ð»
ĠÐŁÐ°Ð² ÐµÐ»
ĠÐ½ ÐµÐ²
ĠÐ±ÑĥÐ´ ÐµÑĤ
ÑĢ Ð¸
ĠÐº ÑĤÐ¾
Ð¾Ð» Ð½
ĠÑĤ Ð°Ð¼
ĠÑĤ ÑıÐ¶
ĠÑĥ Ð»ÑĭÐ±
Ġ ÑĥÐ¿
Ñĩ Ð¸Ðº
ĠÐ· Ð°Ð±
ĠÐ´ ÐµÐ½ÑĮ
ĠÐ¶ Ð¸Ð²
Ð¸Ñĩ ÐµÑģÐº
ĠÐ½ Ð¸Ð¼
ÐµÐ´ ÑĮ
ÑıÐ» ÑģÑı
Ñģ ÐµÐ¼
ĠÐ½ Ð¾Ð²
ĠÐ´ ÐµÑĤ
ÑĨ Ñĭ
ĠÐº Ð¾ÑĢ
ĠÐ ¥
Ñı Ñī
ĠÐ§ ÑĤÐ¾
Ð¾Ð¼Ð½ Ð°ÑĤ
ĠÐ½ ÑĥÐ¶
ĠÐ· Ð°Ð´
ÐµÐ² Ð¸Ñĩ
ĠÐ¶ÐµÐ½ Ñī
ĠÐķ Ð³Ð¾
ĠÐ½ Ð¸Ñħ
Ð² ÑĪ
ĠÑģÐµÑĢ Ð´
Ð¸Ð² Ð°Ð»
ĠÐº Ð¾Ð¼Ð½Ð°ÑĤ
ÑģÑĤÑĮ Ñİ
ĠÐ½ Ð°Ð·
Ð¾Ð² Ð°ÑĢ
ÐµÑĢ Ð³
ĠÐ¿ Ð¾Ð¼
ĠÐ²Ñĭ Ñģ
ĠÐĴ Ð¾ÑĤ
Ñİ ÑĤ
ĠÐ¿ÐµÑĢ Ð²
Ġ ÑĥÐ±
ĠÐ´ Ð°
Ð¸ Ñī
ĠÑģ ÐµÐ±Ðµ
ĠÑĤ Ð¾Ð»
ĠÐ²Ð· Ð³
ĠÐ»Ð¸ÑĨ Ð¾
" .
ÑĢ Ð¾Ð²
ĠÑįÑĤÐ¾ ÑĤ
ĠÑģ Ð¸Ð´
ĠÐ² Ð°Ñģ
ĠÐ· Ð°Ð²
Ñ Ĭ
ĠÑĤ Ð¾Ð³Ð¾
ĠÑĤ ÐµÐ±Ñı
ĠÐ» ÐµÑĤ
Ð¸Ð¼ Ð¾
ĠÐ¼Ð°Ð» ÐµÐ½ÑĮÐº
ÑĩÐ° ÑģÑĤ
Ñĭ ÑĤ
ÑģÐº Ð¾Ð¹
ĠÐºÐ¾ÑĤÐ¾ÑĢ ÑĭÐ¹
ĠÑģÐ²Ð¾ ÐµÐ¹
ĠÐ² ÑģÑı
ĠÑĤ Ð¾Ð³Ð´Ð°
ĠÐ¿ Ð¾Ð³
Ñĩ Ð°Ñģ
ĠÐ¸ ÑģÐ¿
ĠÐ¿Ð¾ÑĤ Ð¾Ð¼
ĠÑģÐ¾Ð² ÑģÐµÐ¼
" ,
ÑĢ Ð¾Ð¼
Ð¼ Ð¸
ĠÐ· Ð´
ÐµÐ½Ð¸ ÐµÐ¼
ĠÐ³Ð¾Ð²Ð¾ÑĢ Ð¸Ð»
ĠÐ½Ð¸Ñĩ ÐµÐ³Ð¾
ÑģÑĤ ÑĥÐ¿
ÐµÑĤ Ðµ
Ð°Ð·Ð°Ð» Ð¾ÑģÑĮ
ĠÐ² ÐµÑĩ
ĠÑħ Ð¾Ð»Ð¾Ð´
ĠÐ¼Ð¾Ð» Ñĩ
ĠÑĤ Ðµ
ĠÐ³ Ð¾Ð´
ĠÑģÑĤÑĢ Ð°Ð½
ĠÐº Ð°Ð¶Ð´
ĠÐĿÐ¸Ðº Ð¾Ð»
ĠÐº Ð°ÑĢ
ÐµÐ½ Ð½ÑĭÐµ
ĠÑħ Ð¾Ñĩ
ĠÐŀ ÑĤ
Ñĥ Ðº
ĠÐ² ÐµÐ»
ĠÑĢ Ð°Ð±Ð¾ÑĤ
ÑĢÐ¾Ñģ Ð¸Ð»
Ð¼ Ð¾ÑĤÑĢ
ĠÐ²Ñģ ÐµÐ³Ð´Ð°
ĠÑģÑĤÐ¾ÑĢ Ð¾Ð½
ĠÑģ ÑĤÐ¾
ĠÐ²Ñģ ÐµÑħ
ĠÑģÐ» ÑĥÑĩ
ĠÐº Ð½
ĠÑĤ Ð¾Ð¼
ĠÐ² Ð¾Ð´
ĠÐ½Ðµ Ñģ
ĠÑĢÑĥ ÐºÐ¸
ĠÐŁÐµÑĤ ÑĢÐ¾Ð²Ð¸Ñĩ
ÐµÐ½ ÑĤ
ĠÐ¶ Ð°Ð»
ĠÐ³Ð» ÑĥÐ±
Ð°Ð½Ð¸ Ðµ
ĠÐ¼Ð¾Ð» Ð¾Ð´
ĠÐ½ ÐµÐ±
ĠÐ· Ð°Ð³
ĠÐ»ÑİÐ´ ÐµÐ¹
ÑĢ ÑĭÐ²
ĠÐ² ÑģÑĤÑĢ
ĠÐ¸ ÑģÐº
Ð² Ð°
ĠÐ´ Ð¾Ðº
ĠÑĤÐ°Ðº Ð¾Ð¹
ĠÑįÑĤ Ð¾Ð¼
ĠÑģÐ¼ Ðµ
Ð² Ð¾ÑĢ
Ñİ Ñī
ĠÑĢ ÐµÑĪ
ĠÐĿ ÐµÑĤ
ĠÑĤÐ¾ ÑĤ
Ñĭ ÑĢ
Ñĩ Ð¸Ð²
ĠÐ¿ Ð¾Ð¶
ĠÐ· ÐµÐ¼
ĠÐ¿ÑĢ Ð¸Ð²
ĠÑĥ Ñģ
Ð¸Ð½ ÑĥÑĤ
ÑģÑĤÐ² Ð¾
ĠÑĢÐ°Ð· Ð³
ĠÐºÐ¾ÑĤÐ¾ÑĢ ÑĭÐµ
ĠÐ¢ Ñĭ
Ñĩ Ð¸ÑĤ
ÐµÑĢ Ð¸
Ð½Ð¸ Ñı
ÐºÐ° Ñħ
ĠÐ· Ð°Ñģ
ĠÐ» ÐµÐ³
ÑĨ Ñĥ
ÐµÐ½ Ð°
Ð»Ñı Ð»
Ð»Ð¸Ð² Ð¾
ĠÐ´Ð¾Ð» Ð³Ð¾
Ð½ Ð¾Ð¼Ñĥ
ĠÐ¿ ÐµÑĩ
ĠÐ´ Ð¾ÑĢ
ĠÐ´ ÐµÐ²
ĠÐµ ÑģÑĤÑĮ
ÑıÑĤ Ð½Ð¾
ÑģÐº Ð¾Ð»ÑĮÐºÐ¾
ĠÐļ Ð¾Ð³Ð´Ð°
ĠÑģ Ð´ÐµÐ»
ÑģÑĤÐ² Ð°
ĠÐ¾ÑĤ Ð´
Ð¾Ðº Ð¾
ĠÐ²Ñģ Ð¿
ĠÐ¡ ÐµÑĢÐ³
Ġ ÑĤÐ¾ÑĢ
Ġ ÑĥÐ·
ĠÐ¸ Ð³
ĠÐ´ Ð°Ð²
ÐµÑĢ ÑĪ
ĠÑĥÐ¶ Ð°Ñģ
Ð° ÑģÑĤ
Ð°Ð½Ð¸ Ñı
Ñĭ Ðº
ĠÑħÐ¾ÑĤ ÐµÐ»
ÐµÑĢ Ð°
ĠÐ¿ÑĢ Ð¸Ñħ
ĠÐ¿Ð¾Ñģ Ð»ÐµÐ´
Ð¼ Ðµ
ÑĢÐ° Ñī
ĠÑĤÐ¾ ÑĩÐ½Ð¾
ĠÐ±Ð¾Ð»ÑĮ ÑĪÐµ
Ñİ Ð±
Ð°ÑĤ ÐµÐ»
ÐµÐº Ð¾
ĠÑĢÑĥ ÐºÑĥ
ĠÐ½Ð¸Ðº Ð¾Ð³Ð´Ð°
ÑĢ Ð°ÑĤ
ĠÐ¿ÑĢ Ð¾Ð´
ĠÐ½Ð° ÑĪ
ĠÐ¿Ð¾ Ñħ
Ñı Ð³
ĠÐĴ Ð°Ñģ
Ðµ ÑģÑı
Ð» Ð¾Ð²
Ð¸ Ð½Ñĭ
Ð¸ ÑĨ
ĠÐ¸ Ð´
ĠÐº Ð»
ÐµÐ½Ð¸ Ð¸
Ð¸ÑĪ ÑĮ
ĠÐ½Ðµ Ðµ
ĠÐ» ÐµÐ¶
ĠÐ¡ ÑĤ
ĠÐ¾Ð¿ ÑıÑĤÑĮ
ĠÐ¿ ÑĥÑģÑĤ
ĠÑĤ ÑĥÑĤ
Ð½Ð¸ Ñĩ
ĠÐĺ Ð²Ð°Ð½
ĠÐ±ÐµÑģ Ð¿
ĠÐ´Ð¾Ð» Ð¶
Ð ¡
Ð¾ Ñī
ÑĢ Ð°Ð¶
Ð² ÐµÑĤ
Ð² Ð°ÑĤ
ĠÐ²Ñģ ÐµÐ¼
ĠÑģÐ» ÐµÐ´
ĠÐľ Ð¾Ñģ
Ġ Ñī
ĠÑĤ Ð¾Ð¶Ðµ
ĠÐ³ÑĢ Ð¾Ð¼
Ġ 1
Ð» ÐµÐ½Ð½Ð¾
Ð½Ð¸ ÐºÐ¾Ð²
Ð°Ð½ ÑĮ
ÑĢ Ð¾Ð´
ĠÐ¼ Ð¸Ð»
ĠÐ¿Ð¾Ð½ Ð¸Ð¼
ĠÑħ Ð¾Ð´
ĠÐ¸Ð· Ð²
ĠÐ²ÐµÑģ ÑĮ
Ð´ÑĢ ÑĥÐ³
ĠÑĥÐ² Ð¸Ð´
Ð°ÑĤ ÑĢ
Ð¾ÑĤ Ð¾Ð¼
ĠÑģÐ½ Ð¾Ð²Ð°
ÐµÑĢ Ð¶
ĠÑģÑĤ Ð°Ð»
ĠÑģÐ²Ð¾ Ñİ
Ð½Ð¾ Ñģ
ÑģÐº Ð¸Ð¹
Ð¶ Ðµ
ĠÑĢ Ð°Ð²
Ð½Ñĥ Ð»Ð°
ĠÑģÐ» ÑĭÑĪ
ĠÑĢÐ°Ð· Ð²
ĠÐºÐ½ Ð¸Ð³
ĠÐ¾ ÑģÑĤÐ°Ð²
ÐµÐ½ Ð½Ð¾Ð¹
ĠÐ¼ ÐµÐ´
ÐµÐ¹ ÑģÑĤÐ²
ĠÐºÐ°Ðº Ð¾Ð¹
ĠÐºÐ¾ÑĤÐ¾ÑĢ Ð¾Ð¹
ĠÑĢÐ°Ñģ Ñģ
ĠÐ½ ÐµÐ¹
ĠÐ»ÑİÐ´ Ð¸
ĠÑħÐ¾ÑĢÐ¾ÑĪ Ð¾
ĠÐ½ÑĥÐ¶ Ð½Ð¾
Ð¼ Ð°
ĠÐ½Ð°Ð´ Ð¾
ĠÑģ ÑĢÐµÐ´
ĠÐ¿ Ð°Ð»ÑĮ
ĠÐ¾Ñģ Ð¾Ð±
ÑĥÐ ¹
ÐµÐ² ÑĪ
ĠÐŀ Ð´
ĠÐ¿Ð¾Ñģ Ð»Ðµ
ÑĢÐ° Ñĩ
ĠÐ½ Ð¾Ñģ
ÐµÑģÑĤ Ðµ
ĠÐ²Ð¸Ð´ ÐµÐ»
ĠÐ½Ðµ ÑģÐºÐ¾Ð»ÑĮÐºÐ¾
ĠÐŀ Ð½Ð°
ĠÐ·Ð½ Ð°ÐºÐ¾Ð¼
ĠÑģ Ð¸Ð»
ĠÐ´ Ð°Ð»
ĠÐ» ÑĥÑĩ
ĠÑĩÐµÑĢ ÑĤ
ĠÐ¼Ð¾Ð¶ Ð½Ð¾
ĠÐ¼ Ð¾ÑĢ
ĠÐ¿Ð¾ ÑģÑĤ
ÑıÐ¼ Ð¸
ĠÑĥÐ´ Ð¸Ð²
ĠÐ¼ Ð¸Ð½ÑĥÑĤ
ĠÑģÑĤ Ð°Ð½Ð¾Ð²
ÑĢÐ° ÑĪ
Ð¾Ð¶ Ð½Ð¾
ĠÑģÐ¿ Ð¾ÐºÐ¾Ð¹
ĠÐ¿ÑĢÐ¸Ñħ Ð¾Ð´
ĠÐ¿ÑĢ Ð¸Ð½
ÑģÐº Ð¾Ð³Ð¾
ĠÑįÑĤ Ð¾Ð¹
Ñĥ ÑģÐº
ĠÐ² Ð¼
ÐµÑĢ ÐµÐ´
ĠÐ¿ÑĢ Ð¾ÑģÑĤ
ĠÐ²Ñĭ Ð¿
ÐµÑĩ Ð½Ð¾
ĠÑĨ ÐµÐ»
ÑĤ Ð¾Ð²
ĠÐ³Ð¾ÑĢ Ð¾Ð´
ĠÐ´Ð¾Ðº ÑĤÐ¾ÑĢ
ĠÐľÐ¾Ñģ ÐºÐ²
Ñı Ð½
ĠÐĲ Ð»ÐµÐº
ĠÑģ Ð¾Ð»Ð½
ĠÐ² Ð½
Ð°ÑĤ ÑĥÑĢ
ĠÐ·Ð½ Ð°Ð»
ĠÐ¿Ð¾Ñĩ ÑĤÐ¸
ĠÐ½ Ð°Ð²
ĠÐ´ Ð¾Ð±ÑĢ
ĠÐ¿ÑĢ Ð¾ÑĪ
Ð¾Ð´ ÑĥÑĪ
ÐµÐ¹ ÑĩÐ°Ñģ
ĠÑįÑĤ Ð¸
Ðº Ð¸Ðµ
ĠÑĥ ÑģÑĤ
ĠÑĥ Ð»Ð¸
ĠÐŁ Ð¾
ĠÐ ¨
ĠÐ¸ Ñģ
Ð¾Ð² Ð¾Ð»ÑĮ
ĠÑģÐº Ð¾ÑĢ
Ġ (
Ñı Ñģ
ĠÑģ Ð¸Ð»ÑĮ
Ð¾ÑĢ Ð¾Ð²
ĠÑģÑĤ Ð°Ð»Ð¾
ĠÐ²Ñģ Ñİ
ĠÐ·Ð½Ð° Ñİ
Ñı Ð²
ĠÑģ Ð¾Ñģ
Ð¾Ð» Ð¶
ĠÑģÑĤ ÐµÐ½
ĠÐĴ ÑģÐµ
Ð½Ñĥ ÑĤÑĮ
Ð¸Ðº Ð°
ĠÑģÐ» Ð¾Ð²Ð°
ĠÐ¿ÑĢ Ð¸Ñģ
ĠÐ» Ð¸ÑĤ
ĠÐ´ÑĥÐ¼ Ð°Ð»
ĠÐ½ Ð°Ðº
__ __
ĠÑĤÑıÐ¶ ÐµÐ»
ĠÐº Ð°Ð¼
ĠÐ±Ñĭ Ð²
ĠÐºÐ¾ÑĤÐ¾ÑĢ Ð¾Ð³Ð¾
ÑĤÐµÑĢ ÐµÑģ
ĠÐ¾ÑĤ Ñĩ
ĠÐ´Ð² Ð°
ĠÐ´ÑĢÑĥÐ³ Ð¾Ð¹
ĠÐ³Ð»Ð°Ð· Ð°Ð¼Ð¸
Ð¸ Ñİ
ĠÑĥ ÑĤ
ĠÑĥ ÑģÐ¿
Ð¸Ð½ Ðµ
ĠÑģÐ¼ ÐµÑĢ
ĠÐ²Ð¾Ð· Ð´
ĠÐ³Ð¾Ð»Ð¾Ð² Ñĥ
ĠÑĤ ÐµÐ±Ðµ
ĠÑı ÑĢ
ĠÐ¿ Ð¸ÑģÑĮ
ÑĤÐ¾ Ñĩ
ĠÐ¼ ÑĥÐ¶
ĠÐ±Ñĭ ÑģÑĤÑĢÐ¾
Ð¸Ð² Ð°Ñı
ĠÐ¾ÑĤ ÐµÑĨ
ĠÑĢÐ°Ñģ Ð¿
ĠÐ¿ Ð°ÑĢ
ĠÐ¿ Ð¾Ð±
ĠÐ² Ð´ÑĢÑĥÐ³
ĠÐµ Ð´
ÐµÐ¼ ÐµÐ½
ĠÐ¿ÑĢÐ¾ Ð¸Ð·
ĠÑĩÐµÐ»Ð¾Ð²ÐµÐº Ð°
ĠÐµ Ð¹
ÐµÐ· Ð´
ÑīÐµ ÑģÑĤÐ²
ÐµÐ½Ð½Ð¾ Ðµ
ÐµÐ½ Ð½ÑĭÑħ
Ð· Ñı
ĠÑģÐ¿ ÑĢÐ¾ÑģÐ¸Ð»
ĠÐ²ÐµÑģ ÐµÐ»
ĠÐ´Ð¾ÑĢ Ð¾Ð³
ĠÐ² Ð°Ð¼
ĠÐ²ÐµÑĩ ÐµÑĢ
ĠÑģ Ð°Ð´
ĠÐ± Ð¾ÑĢ
ĠÑĪ Ð¸ÑĢ
ĠÐ¾ÑĤÐ²ÐµÑĤ Ð¸Ð»
Ð½ ÐµÐ²
ĠÑĤÐ¸Ñħ Ð¾
ĠÐ¿ÑĢÐ¾ÑĤ Ð¸Ð²
ĠÐº ÑĥÐ´Ð°
ĠÐ¼ Ð½
ĠÑĥ Ð´Ð°
Ð°Ð ³Ð¾
ĠÐº Ð°Ð·Ð°Ð»Ð¾ÑģÑĮ
Ð¾Ð¹ Ð´
ĠÑĪ Ð°Ð³
ĠÐ¿ÑĢÐµÐ´ ÑģÑĤÐ°Ð²
ĠÐ²ÑĭÑģ Ð¾Ðº
Ñĥ ÐµÑĤ
Ñı Ñĩ
ĠÐ· Ð°ÑĤ
ĠÐ³ Ð»ÑıÐ´
Ð½Ð¾ Ñİ
ĠÑĢ Ð¾Ð´
ĠÐŁ Ð¾Ñģ
ĠÐ´ÐµÑĢ ÐµÐ²
Ñĥ Ð½
ĠÐ² Ð¾Ð¿
Ð¼ ÐµÐ½
Ð°Ð¶ ÐµÑĤÑģÑı
Ð°Ñģ Ñģ
Ð½Ð¸ ÐºÐ°
Ð°Ð½ ÑĤ
ÑĢ ÑĥÐ³
Ñı ÑģÑĮ
ĠÐ´ ÐµÐ¹ÑģÑĤÐ²
Ð¾Ð± Ð¾Ð´
Ð» Ð¾Ð½
Ñĭ Ñĩ
ĠÑģ Ð¾Ð·
ĠÑĩÐµÑĢ ÐµÐ·
Ð½ Ð¸Ð¹
ĠÑģ ÐµÐ¹ÑĩÐ°Ñģ
ÐµÑĢ Ð°ÑĤÑĥÑĢ
ĠÐ¼ Ð¾Ð¹
ÐµÑģ ÑĤÐ¾
ĠÐ¿Ð» Ð°Ðº
ĠÐ¾ÑĤÐº ÑĢÑĭ
ĠÐ²Ð¾Ð·Ð´ ÑĥÑħ
ÑĢ Ð¾
ĠÐ¾ Ð½Ð¾
ĠÑĩ ÐµÐ³Ð¾
ĠÑģÐ² Ð¾Ðµ
ĠÐºÑĢ Ð¾Ð²
ĠÐºÑĢ Ð¸Ðº
Ð°Ð¹ ÑĤÐµ
ĠÑĤ Ð¾Ð½
ÐµÐ»ÑĮ Ð·Ñı
ĠÐ±Ð¾Ð» ÐµÐµ
ĠÑģÐºÐ°Ð· Ð°Ð»Ð°
Ð» ÐµÑĤ
Ð¾Ð¼ Ð¸Ð½Ð°
ĠÑģÐ²Ð¾ Ð¸Ñħ
ĠÐ³ÑĢ ÑıÐ·
ĠÐ ®
Ñĩ Ðµ
ĠÑģÐ» ÐµÐ·
ĠÑįÑĤ Ñĥ
Ð°ÑĤÐµÐ»ÑĮ Ð½Ð¾
ĠÐ¿ÑĢÐ¾Ð´ Ð¾Ð»Ð¶
Ð» Ð¸Ð½
ÑĢ ÑĥÐ¶
ĠÐ± ÐµÑĢ
ĠÐ´Ð¾Ð¼ Ð°
ĠÐ· Ð»
ĠÐ¿Ð¾Ð´ ÑĥÐ¼
ÑĢÐ°Ð· Ñĥ
ĠÐķÐ³Ð¾ ÑĢÐ¾Ð²Ð¸Ñĩ
ĠÐ² Ð½Ð¸Ð¼
ĠÑĤ Ð¾Ð²Ð°ÑĢ
ĠÐ³Ð¾Ð²Ð¾ÑĢ Ð¸ÑĤ
ĠÐł Ð°Ð·
ĠÐ±ÑĢ Ð°ÑĤ
ĠÐº Ð¾Ð¼
ĠÐºÐ¾ÑĤÐ¾ÑĢ Ð°Ñı
ÐµÑĢÑĤ Ð²
ĠÐ²ÐµÐ» Ð¸Ðº
ÑĤ Ñĭ
ĠÑĩ Ð¸ÑĤ
ĠÐºÐ¾ÑĤÐ¾ÑĢ ÑĭÑħ
ÐµÐ¶ Ð´Ñĥ
ĠÐ ¤
ĠÑģ ÐµÐ¼
ÐµÐ½ Ð½Ð¾Ð³Ð¾
ĠÐ¼ Ð¸ÑĢ
Ð°Ð½ ÑĨ
ÐºÐ¾ Ðµ
ĠÐ³Ð¾ ÑģÐ¿
ĠÑģÐ¾Ð² ÐµÑĢÑĪ
ĠÑħÐ¾ÑĤ Ñı
ĠÐĲÐ»ÐµÐº Ñģ
Ñħ Ð²Ð°ÑĤ
ÐµÐ½ Ð½ÑĭÐ¼
ĠÑĤ Ð°
ĠÐ¿Ð¾ÑĤ Ð¾Ð¼Ñĥ
ĠÐ½Ð°Ñĩ Ð°Ð»
Â» ,
ĠÐ¸Ð³ ÑĢ
Ð¾ ÑģÑĤÑĮ
ĠÐ½ ÐµÐ·
Ðº Ð¸Ð¼
ĠÐ² ÐµÐ´ÑĮ
ĠÐ± Ð¾
ĠÐ¿ÑĢ ÑıÐ¼
ĠÑı Ð²
ÑħÐ¾Ð´ Ð¸Ð»
ĠÑģÐ¼Ð¾ÑĤÑĢ ÐµÐ»
ĠÐ¸Ð½ ÑĤÐµÑĢÐµÑģ
ĠÐ·Ð´ ÐµÑģÑĮ
Ð¸ ÑĢÐ°
Ñİ Ð¼
Ð°Ðº Ð°
Ð°Ðº Ð¸
ĠÐ¿ÑĢ Ð¸Ð´
Ð¾Ð¶ Ð´
ÐµÐº ÑĢÐ°Ñģ
ĠÐ²Ð¾Ñģ Ð¿
ĠÐ»Ð¸ÑĤ ÐµÑĢÐ°ÑĤÑĥÑĢ
Ð Ŀ
ĠÐ¿ÑĢÐ¸ ÑĪ
Ð Ĵ
ĠÐ² Ð¾ÑĢ
ÑĥÑĤ ÑĮ
ÑĥÑĪ ÐºÐ°
ĠÐ¡ÐµÑĢÐ³ ÐµÐ¹
ĠÐ ĸ
ĠÑģ ÑĤÐ¾Ñı
ĠÐ½ ÐµÐ»ÑĮÐ·Ñı
Ðº ÑĢ
ĠÐ¼ Ð°ÑĤ
ĠÐ³ ÑĥÐ±
ĠÐ¿Ð¾Ðº Ð°
ĠÑģÑĤÑĢÐ°ÑĪ Ð½Ð¾
ĠÐ²Ð·Ð³ Ð»ÑıÐ´
Ð¸ Ð½Ð¾
Ð½ Ñİ
ĠÑĩ ÑĥÐ¶
Ð°Ð¼ Ð°
ÐµÐ½Ð¸ Ñİ
ĠÑģÐ²Ð¾ Ð¸
ĠÑĤÑĢ ÑĥÐ´
ĠÐ¼Ð¾ Ñı
ĠÐ±ÐµÑģ Ñģ
Ðµ ÑģÑĤÑĮ
ĠÐ½ Ð°Ð¼
Ð² Ð°Ð»
ĠÐ¾ÑĤ ÑĤ
ĠÑģÐ² Ð¾Ð¹
ÐµÐ³ Ð¾Ð´
ĠÐ¿Ð» ÐµÑĩ
ĠÐ¼Ñĭ ÑģÐ»
ĠÐ±Ð¾Ð»ÑĮÑĪ Ð¾Ð¹
Ð» ÐµÐ½Ð¸Ðµ
ĠÐ½ ÐµÐ¶
Ð¼ Ñĭ
ÑĤÐ¾ ÑĪ
ĠÑĩ ÐµÑĤ
ĠÐ» ÐµÑģ
ĠÑħ ÑĥÐ´
ÐµÑĩ Ð°ÑĤ
ĠÐ¿Ð¾Ñĩ ÐµÐ¼Ñĥ
! ..
Ð° ÐµÐ¼
Ð» ÑĥÑĪ
ĠÐ¿ Ð»Ð°
ĠÐ½ ÐµÐ¼Ñĥ
Ð´ Ð½Ð¾
ĠÐĺ Ð·
ĠÐºÑĢ Ð¸Ñĩ
ÑĥÑİ Ñī
Ð² Ð¾Ð»
ÐµÐ½ Ð½Ð°Ñı
ĠÐ» Ð°Ð²
ĠÐľ Ñĭ
ĠÐĿÐ¸ÐºÐ¾Ð» Ð°Ð¹
ĠÐ²ÑģÑĤÑĢ ÐµÑĩ
Ð¾Ð´ Ð²
ĠÐŀ Ð½Ð¸
ĠÑĢÐ°Ð· Ð±
ĠÐ¾Ð´ Ð½Ð¾Ð¹
ĠÐ·Ð°Ð¼ ÐµÑĤ
ĠÑĩÐ°Ñģ ÑĤÐ¾
Ð² Ð¾
ÐµÑĢ Ð±
Ð½Ð¾ ÑĪ
ĠÐ¿ÑĢ Ð¸Ðº
Â» .
ĠÐºÑĢÐ°Ñģ Ð¸Ð²
Ñı Ñħ
ĠÐ¾ Ð¶
ÑģÑĤ Ð°
Ð¾Ð» Ð¾
ĠÐ²Ñģ ÐµÐ³Ð¾
ĠÐ´Ð² ÐµÑĢÑĮ
ĠÐ½ÐµÐ¿ ÑĢ
ĠÐ½Ð¾Ñĩ ÑĮ
ĠÐĴÐ°Ñģ Ð¸Ð»ÑĮ
ĠÐ½ ÐµÐ½
Ð´ Ð°Ð»
ĠÐ¿ÑĢ Ð¸Ð·
Ð°Ð´ ÑĨ
ÑĥÑĢ Ð³
ĠÐ¿Ð¾Ð» ÑĥÑĩ
ÐµÑĢÑĮ ÐµÐ·
ĠÐ±Ð» Ð¸Ð·
ĠÐ²Ð·Ð³ Ð»Ñı
Ð½ Ð¾Ð´ÑĥÑĪ
ĠÑĤÐ°Ðº Ð¾Ðµ
ÑĥÐ± Ð»
ĠÐ¿Ð¾Ð² ÐµÑĢ
ĠÐ¿ÑĢ Ð¾Ñĩ
Ð°ÑĢ Ð°
Ð²ÐµÑĢ Ð´
ĠÑģ ÑĢÐ°Ð·Ñĥ
ÑĪ Ð¸Ð¹
ĠÐŁ Ð¾ÑĤÐ¾Ð¼
ĠÐ¾Ð± ÑĢÐ°Ð·
Ð¾ÑĪ ÐµÐ»
ĠÐ±Ð» Ð°Ð³
ĠÐ½ÐµÐ¼ Ð½Ð¾Ð³Ð¾
ĠÑģÑĢÐµÐ´ Ð¸
Ð §
Ð½ ÐµÐ¼
ÑıÐ» Ð¸ÑģÑĮ
ĠÑģÑĤÑĢÐ° Ñħ
Ð¾Ñħ Ð¾ÑĤ
Ð½ Ð°Ð·
ÑĢ Ð°Ð½
ĠÐ¿ Ð¾Ð¼Ð½
ĠÐ´ ÑĮÑı
Ð½Ñĥ Ð²ÑĪ
ÐµÐ· Ð¶
ĠÑģÐ² ÐµÑĢ
ĠÑģÐ» Ð°Ð±
ĠÑģÐºÐ°Ð· Ð°ÑĤÑĮ
ĠÑĢÐ°Ð·Ð³ Ð¾Ð²Ð¾ÑĢ
ĠÐ²Ð¼ ÐµÑģÑĤÐµ
Ðº Ð¾Ð³Ð¾
ĠÐº Ð°Ð¶ÐµÑĤÑģÑı
ĠÐ± ÑĢÐ¾Ñģ
ĠÐ¼ ÐµÑģÑĤ
ĠÐ½Ð° ÑħÐ¾Ð´
ĠÐ¼Ñĭ ÑģÐ»Ð¸
Ñĭ Ð³
ĠÑģ ÐµÑĢÑĮÐµÐ·
ĠÐ² Ð°ÑĪ
ĠÑĤ ÐµÑħ
Ð¸Ð² Ð°ÐµÑĤ
Ġ I
Ð´ ÐµÐ½
ĠÐ´ÑĢ Ð¾Ð¶
ĠÐ²Ð· Ð´
ĠÑĨ ÐµÑĢ
ĠÐ»Ð¸ÑĨ Ð°
ĠÑĢÐ°Ð² Ð½Ð¾Ð´ÑĥÑĪ
Ð½ Ð°ÐºÐ¾Ð¼
Ð¼ ÐµÑĢ
ĠÐ³ Ð¾Ð´Ð°
Ð°Ð· Ð´
ĠÑĥ Ñĩ
Ð½Ñĥ ÑĤ
ĠÐºÑĢ ÑĥÐ³
Ð¾Ñĩ ÐºÐ°
ĠÑģÐ²Ð¾ Ð¸Ð¼
ĠÐ¿Ð¾Ð» Ð¾Ð¶
ĠÐ³Ð¾Ð²Ð¾ÑĢ Ð¸ÑĤÑĮ
ĠÐ¿Ð¾Ð¶ Ð°Ð»
Ð ĳ
Ð» Ð°Ñģ
Ñĩ ÐµÑĤ
ĠÐ´ Ð¾ÑģÑĤ
Ð°Ð· ÑĭÐ²
ĠÑĤÐ¾ ÑģÐº
ĠÑģÐ¼ ÐµÑĪ
ĠÐĺÐ²Ð°Ð½ Ð¾Ð²Ð¸Ñĩ
ĠÐ²Ð¾Ð¿ ÑĢÐ¾Ñģ
ĠÐ½ Ð°Ð±
ĠÑĤ ÐµÐ»
ĠÐ´ Ð°Ð»ÑĮ
ĠÐ¿ÑĢ Ð¾Ð²
Ð½Ð¸ Ð¸
ĠÑı Ñģ
ĠÐ¿Ð¾Ð´ Ð½
ĠÐºÑĢ ÐµÐ¿
ĠÐ´Ð² Ðµ
ĠÐ»ÑİÐ± Ð¸Ð»
ÐµÑĢÐ± ÑĥÑĢÐ³
Ð½ Ð°Ð»
ÑĢ Ð°Ð¼
ĠÐ¿ ÑĮÑı
ĠÐ¼ ÐµÐ¶Ð´Ñĥ
ĠÐ½Ð°Ð¿ Ð¸Ñģ
ĠÐ¾Ð³ ÑĢÐ¾Ð¼
ĠÐ´ÐµÑĢ Ð¶
ĠÐ¿ÐµÑĩ Ð°Ð»ÑĮ
ÐµÐºÐ¾ ÑĤÐ¾ÑĢ
ĠÑģ Ñĥ
ÐµÐ½ Ñĭ
ĠÑĤ ÐµÑĢ
ĠÐ¼ ÐµÐ»
ĠÑĩ Ð¸ÑģÑĤ
ĠÐ¿ÑĢ Ð¸Ð±
Ð¾Ð½ ÑĮ
Ð¸Ð¼ Ð½Ð°Ð·
ÑīÐµ Ðµ
ĠÑįÑĤ Ð°
Ðµ Ñı
Ð¸ ÑģÐº
ĠÑģ ÑĥÐ´
Ðº Ð°Ñı
ĠÐº Ð°Ð¿
ÑĪ ÑĮ
ĠÐ· Ð°Ð»
ĠÐ¿ÑĢ ÐµÐºÑĢÐ°Ñģ
Ð¸Ð² Ð°ÑĤÑĮ
ÑģÐº Ð¸Ñħ
ĠÐºÐ°Ðº Ð¸Ðµ
ĠÐºÐ¾Ð½ Ñĩ
ĠÑħÐ¾ÑĤÐµÐ» Ð¾ÑģÑĮ
ĠÑģÑĤ ÑĥÐ´
ĠÐ¡ Ðº
ĠÐľ Ð¸ÑĪ
ĠÑįÑĤ Ð¸Ñħ
ĠÑĪ ÐµÐ¿
ĠÐ´Ð² Ð¸Ð¶
ĠÐķ ÑģÐ»Ð¸
ĠÐ½Ð¸Ðº ÑĤÐ¾
ĠÐ·Ð² Ð¾Ð½
Ð°ÑİÑĤ ÑģÑı
Ð½Ð¾ÑģÑĤÑĮ Ñİ
Ðº Ð¸Ñħ
ĠÐ± Ð¾Ð³
ĠÐ¼ ÐµÑĢÑĤÐ²
Ð¿ ÑĢ
ĠÐ¿Ð¾Ð´ Ð½Ð¸Ð¼
ĠÐĳ Ñĭ
ĠÐ½Ð°Ñĩ Ð¸Ð½
ĠÐ¿Ð¾Ð² ÑĤÐ¾ÑĢ
ĠÐ²Ð¿ ÐµÑĢÐµÐ´
Ðµ Ñİ
ĠÐº ÑĥÐ¿
Ð¸Ð½ ÑģÑĤÐ²
Ð¸Ðº Ð¸
ĠÐºÐ¾ÑĤÐ¾ÑĢ Ð¾Ð¼
ĠÐ¿ÑĢÐ¾Ñģ ÑĤÐ¾
ĠÐ´Ð°Ð² Ð½Ð¾
Ñĥ ÐºÐ¸
Ðº Ð¾Ð½
ĠÑĩ ÑĥÐ´
ĠÐ» Ð°Ñģ
ĠÐĴ ÐµÐ´ÑĮ
ĠÑģÐ² Ð¾Ð±Ð¾Ð´
Ð¸Ð¹ ÑģÑı
ĠÐ¾Ð± ÑĬ
ĠÐ¼Ð¾Ð»Ñĩ Ð°Ð»
ĠÑĥÐ´Ð° ÑĢ
Ð¾Ð´Ð² Ð¸Ð¶
Ñ į
Ð¿ Ð¾Ð´
ĠÐ²Ñĭ ÑĢÐ°Ð¶
ĠÐ¾Ð± ÐµÐ´
ĠÐ³Ð¾ÑĢ ÑıÑĩ
ĠÐĵ ÑĢ
ĠÐ²Ð¾Ð» Ð¾Ñģ
ĠÐ»ÑĥÑĩ ÑĪÐµ
ĠÑĤÐ¾Ð²Ð°ÑĢ Ð¸Ñī
Ð ŀ
Ñĭ Ñģ
ĠÐ¾ ÑģÑĤÑĢ
ĠÐ´ ÐµÐ»Ð¾
ĠÐ¼ Ð°Ð»ÑĮ
ĠÐ²Ñĭ ÑħÐ¾Ð´
ĠÐľ Ð½Ðµ
ÐµÐ½ÑĮÐº Ð¸Ð¹
ĠÐ¼ÐµÐ´ Ð»ÐµÐ½Ð½Ð¾
ĠÑģ Ñĭ
Ð¾Ð² Ð¾Ð¹
ĠÐ¿ÑĢ Ð¾Ð¿
Ð¸Ñģ ÑĤÐ¾
ĠÐ²Ð¾Ð· Ð²
ĠÑĥÐ¼ ÐµÑĢ
ĠÐ¿Ð¸Ñģ Ð°ÑĤÐµÐ»
ĠÐ¿Ð¾Ñħ Ð¾Ð¶
ĠÐ½ ÐµÑĢ
ĠÐ½ ÐµÐºÐ¾ÑĤÐ¾ÑĢ
ĠÐ´ Ð»Ð¸Ð½
Ð¾Ð± ÑĢÐ°Ð·
ĠÑĤÑĢ Ð¸
ĠÐ´ÑĢÑĥÐ³ Ð¸Ñħ
ĠÐ½ÐµÐ¿ Ð¾Ð´Ð²Ð¸Ð¶
ĠÐ½Ð¾Ñĩ Ð¸
ĠÑĤÐ¾Ð» ÑģÑĤ
ÑĩÐ°ÑģÑĤ Ð»Ð¸Ð²
ĠÐ³Ð¾ÑģÐ¿ Ð¾Ð´
Ð° ÐµÑĪÑĮ
Ð¸ ÐµÐ¼
Ð¸ Ð¾Ð½
Ð¸ Ð´Ð°
ĠÑģ Ð´
ĠÐ¿ ÑıÑĤ
Ð¸Ð ³Ð¾
ĠÐ³ Ð¸Ð¼Ð½Ð°Ð·
ĠÐ» Ð¾Ð¶
ĠÐ¡ Ð°ÑĪ
ĠÐºÐ¾ÑĤÐ¾ÑĢ ÑĥÑİ
ĠÐ¾Ð´ Ð½Ð¾
ĠÑģÐ¼ ÐµÑħ
ĠÑĢÑĥ ÐºÐ°Ð¼Ð¸
ĠÑģÐ²ÐµÑĤ Ð»
ĠÑĩÑĥÐ²ÑģÑĤÐ² Ð¾Ð²Ð°Ð»
ĠÐ´ÐµÐ¹ÑģÑĤÐ² Ð¸ÑĤÐµÐ»ÑĮÐ½Ð¾
ÑĤ Ñĥ
ĠÐ¿ÑĢ Ð¾Ðº
ĠÐ½Ð° ÑĢ
Ð½ÑĥÐ» Ð°ÑģÑĮ
ĠÐĲÐ½ ÑĤÐ¾ÑĪ
ĠÐĽ ÑİÐ±
ĠÐĹ Ð°
ĠÐ¾ÑģÑĤ Ð°Ð½Ð¾Ð²
ĠÐº ÑĥÑĢ
ĠÐ¸Ð½ Ð¾Ð³Ð´Ð°
ĠÑģÐµÑĢÐ´ ÑĨÐµ
ĠÐ± ÑĥÐ¼
ĠÐ´ Ð½Ñı
Ñİ ÑĪ
Ð¸Ð½ Ð¾Ð¹
ĠÐ¿Ð¾ ÑĪ
Ð¾Ð¶ ÐµÑģÑĤÐ²
ĠÐ¶ÐµÐ» ÐµÐ·
ĠÑĢ ÑıÐ´
Ð¸ÑĤ ÐµÐ»
ĠÑĥ ÑĤÑĢ
ÐºÐ¾ Ñİ
ĠÑĢÐ°Ð· Ð´
ĠÐ¿Ð» Ð°ÑĤ
Ð»ÑıÐ´ ÑĭÐ²
ĠÐ½Ð¾Ð³ Ð¸
ĠÐºÐ¾ÑĢ Ð¾ÑĤ
ĠÐ± Ð°ÑĢ
ĠÑĩ Ð°
ĠÐ³ Ð°Ð·
ĠÐ¶ ÑĥÑĢ
Ð¾Ð½ Ñĩ
ĠÐ¢ Ð¾Ð»
ĠÐ¾Ð´ Ð½Ð°
ĠÑģÐ²Ð¾ ÐµÐ³Ð¾
ĠÐ²Ð½ Ð¸Ð·
Ð¸Ð½Ð¾ Ñĩ
} .
ĠÑģ Ð¾Ð³
ĠÐ¼ ÑĥÑĩ
ÑĥÐ ³Ð¾
ĠÑĢ ÐµÐ´
ĠÑĢ ÐµÐ±
Ð½Ð¸ ÐºÐ¸
ĠÐ³Ð» ÑĥÐ¿
ĠÐ·Ð°Ð¼ ÐµÑĩ
ÐµÐ³Ð¾Ð´ Ð½Ñı
ĠÐĴÐ°ÑģÐ¸Ð»ÑĮ ÐµÐ²Ð¸Ñĩ
ĠÑģ ÑĥÐ¼
Ð´ Ñĭ
ĠÐº Ð°Ð±
Ð¾Ð² Ð°ÑĤÑĮ
ĠÐ¿ÑĢ Ð°Ð·Ð´
Ð¸ÑĤ Ð°Ð½
Ð°Ð² ÑĢ
Ð°Ð¼ Ð¿
ÑģÐº Ð°Ñı
ĠÐĿ Ð°Ð´
Ð¸Ðµ ÑģÑı
ĠÑĪ ÐµÐ»
ĠÐ³ÑĢ ÑĥÐ´
ĠÑģÐ°Ð¼ Ð¾Ð³Ð¾
ĠÐ²ÐµÑģ ÐµÐ»Ð¾
ĠÐ¶ÐµÐ½Ñī Ð¸Ð½Ð°
ĠÑģÐ¸Ð´ ÐµÐ»
Ð» ÐµÐ½Ð¸Ñı
ĠÑģ Ð±
Ð² Ðµ
Ð¼ Ð¾
ĠÐº Ð¾Ð³Ð¾
ĠÐ· Ð°Ð½
ĠÑĢ ÐµÑĩ
ĠÐ¾ÑĤ Ð¿
ĠÑģÐ» ÑĥÐ¶
ĠÐ»ÑİÐ± Ð¾Ð²
ĠÐ±Ð» ÐµÐ´
ĠÐ±Ð¾Ð» ÐµÐ·
ĠÐ¿ÑĢÑıÐ¼ Ð¾
ÑĢ Ð°Ð´
ĠÐ¿ Ð¾Ð¹
ĠÐ² ÑģÐº
ĠÐ¿Ð¾ ÑıÐ²
ĠÐ° Ð½
ÐµÑĩ ÐµÑģÐº
ĠÑģÐ» ÑĥÑĪ
ĠÐĲÐ½ Ð´ÑĢ
ĠÐ¾ÑĤÐ² ÐµÑĩ
ĠÐ³Ð»ÑĥÐ± Ð¾Ðº
Ð ĺ
ĠÑĤ Ð²ÐµÑĢÐ´
ĠÐ· ÑĥÐ±
ĠÐ½Ðµ Ð¾Ð±Ñĭ
Ð½Ð° Ñĩ
Ð¸Ð½ Ð¾Ð²
ĠÑģÐº ÑĥÑĩ
ĠÐ¾Ð´ Ð½Ð¾Ð³Ð¾
ĠÑģÐ¿ ÑĢÐ°ÑĪ
ĠÐ¼Ð¾Ð³ Ñĥ
ĠÑĤÐµÐ¼ Ð½Ð¾
ĠÐ·Ð½Ð° ÐµÑĤ
ĠÐŁÐµÑĤ ÑĢÐ¾Ð²
ĠÐĲÐ½ÑĤÐ¾Ð½ Ð°
ĠÑħÐ¾Ñĩ Ñĥ
Ð½ ÐµÐ³Ð¾
ĠÐ¿ Ð°Ð»
ĠÐ¿ Ð°Ð´
ĠÐ¿ Ð°Ð¿
ĠÐ¾ ÑĢ
ĠÑĤ Ð¾Ð¹
Ð¾Ð» Ð¾Ñģ
ĠÐ° Ðº
ĠÐ²Ñĭ Ð±
Ð¾Ð· Ñı
ĠÐľ Ð°ÑĢ
ĠÐ¾Ð´ Ð½Ñĥ
ÑıÐ» Ð°ÑģÑĮ
ĠÐ¼Ð¾Ð» ÑĩÐ°
ĠÐ³Ð¾Ð»Ð¾Ð² Ð¾Ð¹
ĠÐ·Ð´ Ð¾ÑĢÐ¾Ð²
Ð Ĳ
Ñĭ Ð¿
ĠÐ¼ ÑıÐ³
ĠÐ· Ð°ÑĢ
Ð¾ÑĢ Ð°
ĠÑĥ ÑģÐ»
ĠÐ²Ñĭ Ð·
ÐµÑģÑĤ Ð¸
ĠÐ»ÑİÐ± Ð»Ñİ
ĠÐ¼Ð¾ Ð¸
ĠÐ¾ÑģÐ¾Ð± ÐµÐ½Ð½Ð¾
ĠÐ²Ð¾ÑģÐ¿ Ð¾Ð¼Ð¸Ð½Ð°
Ð» Ð¾Ð¶
Ð² Ð¸
ĠÐ´ ÑĥÑĢ
ĠÐ¼ Ð¾Ðµ
ĠÐŁ Ð°ÑĢ
Ð¸Ñħ ÑģÑı
Ð¾Ñĩ Ð½Ð¾
ĠÑĢÐ°Ñģ Ðº
ÑĩÐ° ÑģÑĤÑĮ
ĠÐ¿Ð¸Ñģ Ð°Ð»
ĠÑģÑĤÐ¾ ÑıÐ»
ÑĭÐº Ð½Ð¾Ð²
Ð ļ
ĠÐ¿ ÑĥÑĤ
Ð² Ð¾Ð·
ĠÐ´ ÐµÑģÑı
ĠÐ½Ðµ Ð¸Ð·
ÑģÐº Ð¸Ðµ
ĠÐ¡ ÐµÐ¼ÐµÐ½
ĠÐ±ÑĥÐ´ Ñĥ
ĠÐ¾Ðº Ð¾Ð»Ð¾
ĠÐ¼Ð¾ ÐµÐ¹
ĠÐ·Ð°Ð´ ÑĥÐ¼
! Â»
Ð» Ð¸Ñĩ
ĠÑģ ÑĩÐ¸ÑĤ
Ð² Ð°ÑĢ
ĠÐ´ Ð¸Ðº
ĠÐ¼ ÐµÑģÑĤÐ¾
ĠÐ¿ÑĢ Ð¸Ð¿
Ð¸ÑĤ Ð°
Ð½Ð¸ ÑĨ
ĠÐŁ Ð¾Ð´
ĠÑı Ð·
Ð³ Ð¸
ĠÐ²ÑĢÐµÐ¼ ÐµÐ½Ð¸
ĠÐŁÐµÑĤ ÐµÑĢÐ±ÑĥÑĢÐ³
ĠÑģÐ»Ð¾Ð² Ð½Ð¾
ĠÐ½Ð°Ð· Ð°Ð´
Ġ1 8
ĠÑģÐ¾Ð»Ð½ ÑĨÐµ
ĠÐ¾ÑĤÑĩ Ð°Ñı
ĠÑĪÐ¸ÑĢ Ð¾Ðº
ĠÑģÐ¾Ð²ÐµÑĢÑĪ ÐµÐ½Ð½Ð¾
ĠÑģ ÑĩÐ°ÑģÑĤÐ»Ð¸Ð²
Ð¾Ð² Ð°Ð»ÑģÑı
ĠÑĤ Ð¾Ð¼Ñĥ
ĠÐ¿ÑĢ Ð¸Ð³
ĠÑĢ Ñĭ
ĠÐºÐ¾ÑĤÐ¾ÑĢ ÑĭÐ¼
ĠÑģÑĤÑĢ Ð°Ð´
ĠÐ²Ð¾Ð· Ð¼
ĠÐ¸ÑģÐ¿ ÑĥÐ³
ĠÐ¸Ð·Ð² ÐµÑģÑĤ
ĠÑģÐºÐ¾ÑĢ Ð¾
ĠÑģÐ¼ÐµÑĢ ÑĤÐ¸
Ð» ÑĮ
Ð» Ð¾ÑģÑĮ
ÐµÐ½ Ð¸Ð¹
ĠÑĤ Ð°Ð»
ĠÐ´ Ð¾Ð±
ĠÐ½Ð° ÑģÑĤ
Ð¾ÑĢ Ðµ
ÑĭÐ² Ð°ÐµÑĤ
ĠÐºÐ¾ÑĤÐ¾ÑĢ Ð¾Ðµ
ĠÐ³Ð¾ ÑģÑĤ
ĠÐ´Ð² ÐµÑĢÐ¸
ÑĩÐ¸Ð² Ð¾
ĠÐ²ÑģÐ¿ Ð¾Ð¼Ð½
ÑĢ ÐµÐ·
ĠÐ² ÐµÑĤ
ĠÐ² Ð°Ð¶
ĠÑĢ ÐµÐ·
ĠÑĥ Ðº
ĠÐ¶ Ð´
ĠÐºÐ°Ðº Ð°Ñı
Ð³ Ð½
Ð½Ñĥ Ð²
ĠÐ¾Ð± ÑĭÐºÐ½Ð¾Ð²
ĠÑĪ ÑĥÑĤ
ĠÐ´ÑĢ ÑĥÐ¶
ĠÐ´ÑĢÑĥÐ³ Ð°
ĠÐ´ÑĢÑĥÐ³ Ð¸Ðµ
ĠÐ¿Ð¾Ñĩ ÑĥÐ²ÑģÑĤÐ²
Ð°Ð¶Ð´ Ñĭ
ĠÑģÐ»Ð¾Ð² Ð¾
ĠÑģÑĤÐ¾ Ð¸ÑĤ
Ð°Ð½ÑĮ ÑĪÐµ
ĠÑĥÐ²Ð¸Ð´ ÐµÐ»
ĠÑģÐ¿Ð¾ÐºÐ¾Ð¹ Ð½Ð¾
ÑıÑģ Ð½
ĠÐ¼Ð½ Ð¾Ð³
Ð¾ ÑıÑĤÐ½Ð¾
ĠÐ¿ ÑĮ
Ð½Ð¸ Ñħ
Ð¾Ð½ ÐµÑĨ
Ð¾Ð½ ÐµÑĩÐ½Ð¾
Ð°Ð½ Ð½ÑĭÐ¹
ĠÐ³Ð» ÑĥÑħ
ĠÐ³Ð¾Ð²Ð¾ÑĢ Ð¸Ð»Ð¸
ĠÑĦ Ð¾Ð½
ÑĤÐ¾Ñı Ð½
ĠÐ³ÑĢÐ¾Ð¼ ÐºÐ¾
ĠÐ¿Ð°Ð»ÑĮ ÑĨ
Ð ľ
Ñħ Ñĥ
Ð°ÑĤ Ð¸
ĠÑĥ ÑĪ
ĠÐ¶ Ð¸Ð»
ĠÐ¶ Ð¸ÑĤÑĮ
ĠÐ¾ÑĤ Ð½Ð¾ÑĪ
ÐµÐ² Ð½Ð°
ĠÐĴ ÐµÑĢ
ĠÐ° Ð²
ĠÑĤÐ°Ðº Ð°Ñı
ĠÑĪ ÑĥÐ¼
ÑĢÑĭ ÑĤ
ÑĥÐ» ÑĮ
ÑĤÐ¾Ñı Ñī
ĠÑģÐ½ ÐµÐ³
ĠÑģÑĤÐ¾ÑĢÐ¾Ð½ Ñĥ
ÑĤ ÑĢÐ°
ĠÐ² Ð¾Ðº
Ð½Ð¸ ÑĨÐ°
Ð¾Ð»ÑĮ Ð·
Ð¸Ðº Ð¾Ð²
ĠÐŀ Ð±
ĠÐ¶Ðµ ÑģÑĤ
ĠÐ¿Ð¾Ñģ Ð»
ÑĪÐµ Ðµ
ĠÐ²Ð· ÑıÐ»
ĠÐ¼Ð°Ð»ÑĮ ÑĩÐ¸Ðº
ÑĢ Ð°Ðº
ĠÑĤ Ð²Ð¾ÑĢ
ĠÐ¼ Ð°Ñģ
ĠÐ¼ Ð°ÑĤÑĮ
ĠÐ¿ÑĢ Ð¾Ð½
Ð¾Ð´ Ð°ÑĢ
Ð°Ð· Ð°Ð»ÑģÑı
Ð¸Ð² Ð°Ð»Ð¸
ĠÐ²Ñģ ÐµÐ¹
ĠÑĤÐ°Ðº Ð¸Ð¼
Ð»Ð¸ ÑĪ
ÑıÑĤ ÐµÐ»ÑĮ
ĠÐŁÐ°Ð² Ð»Ð°
ĠÐ±Ð» Ð°Ð³Ð¾
ĠÐ¾Ðº Ð½Ð°
Ð°Ð²ÑĪ Ð¸Ð¹
ĠÐ¿Ð¾Ð´ÑĥÐ¼ Ð°Ð»
Ð ¢
ÑĢ Ð¾Ð³
ĠÑģ ÐµÐ³Ð¾Ð´Ð½Ñı
ĠÐ¿ Ð¸ÑĪ
ĠÐ¾ Ñī
ĠÑĤ ÐµÐ»Ð¾
Ð¾Ð» Ñĩ
ĠÑģÑĤ Ð°Ð»Ð¸
Ð¾Ð± Ð½Ð¾
ĠÑģÐ» ÐµÐ³
ĠÐ³ÑĢ Ð¾Ð·
ĠÐ¿Ð¾Ñģ ÑĤÐ¾ÑıÐ½
ÑıÑĤÑĮ ÑģÑı
ĠÐ¾Ñģ ÑĤÐ¾ÑĢ
ĠÐ·Ð½Ð° Ñĩ
ĠÐ²ÑģÑĤÑĢ ÐµÑĤ
ĠÐ¼ÑĭÑģÐ» ÑĮ
Ð° Ñī
Ñĥ ÐºÑĥ
ĠÐ² ÑĤÐ¾ÑĢ
ÐµÐ½ Ð½ÑĥÑİ
ĠÐ± ÐµÑģÐº
ĠÐ¼ Ð°Ð»Ð¾
ĠÑĢ ÐµÐº
ĠÑĥ Ð²ÐµÑĢ
Ð¸Ð² Ð¾
Ð¸Ðµ Ñħ
ĠÐ¿Ð¾Ñģ Ð¼Ð¾ÑĤÑĢ
ĠÑĨ Ð²ÐµÑĤ
ĠÐ´Ð¾Ð¼ Ðµ
ĠÑĢÐ°Ð´ Ð¾ÑģÑĤ
ĠÐºÐ¾Ð¼Ð½Ð°ÑĤ Ðµ
ĠÐºÐ°Ð¶Ð´ ÑĭÐ¹
ĠÐ¼Ð¸Ð½ÑĥÑĤ Ñĥ
ĠÑģÐ»ÐµÐ³ ÐºÐ°
Ð» Ð°Ðº
ĠÑģ Ñİ
ĠÐ¿ ÐµÑģ
ĠÐ² ÑģÑĤ
Ð°Ð» Ñı
ĠÑĤ Ñĥ
ÑģÑı Ñĩ
ĠÑĢ ÐµÐ²
ĠÑĢ Ð°Ð½ÑĮÑĪÐµ
ĠÐ¿Ð¾ ÑĨ
ĠÑħ Ð¾Ð·Ñı
ĠÐ²Ð¸Ð´ ÐµÑĤÑĮ
Ð»Ñİ Ñĩ
ĠÐ¿Ð¾Ð½ ÑıÐ»
Ð¸Ð²ÑĪ Ð¸ÑģÑĮ
ĠÐºÐ¾Ð» Ð¾Ðº
ĠÐ¿ÑĢÐ¾Ð¸Ð· Ð²
Ð° Ð½Ð¾
Ð½ Ð°Ð¶Ð´Ñĭ
Ð» Ð¾Ð¼
ÑĢ Ð¸Ð¿
Ð¼ Ð°Ð½
ĠÐ´ Ð¾Ñģ
ĠÑģÑĤ Ð°Ð»Ð°
ĠÐ²Ñĭ ÑĪ
ÑĢÐ° ÑĦ
ÐµÑħ Ð¾Ð²
ĠÐ·Ð° Ñħ
ÑĭÐ² Ð°ÑĤÑĮ
ÐºÑĥ Ð´Ð°
ĠÐķ Ð»Ðµ
ÑĦ Ðµ
ĠÐºÐ¾Ð½ ÐµÑĩÐ½Ð¾
ÑĢÐµÐ´ ÐµÐ»
ĠÑģÑĥ ÑīÐµÑģÑĤÐ²
ĠÑģÑĤÑĥÐ´ ÐµÐ½ÑĤ
Ðº Ð½Ð¾Ð²
ĠÐ¿ÑĢ Ð¾Ð±
ĠÑģÑĤ Ñĭ
ĠÑģÑĤ ÐµÐ¿
ĠÑħ Ð»
ĠÑģÐº Ð°Ð¶
ĠÑįÑĤ Ð¸Ð¼
ĠÑĤÑĢ ÐµÐ±
ĠÐ¿Ð» Ð°ÑĤÑĮ
ĠÐ½ÐµÐ¿ ÑĢÐ¸
ĠÐŁÐ°Ð²Ð»Ð¾Ð²Ð¸Ñĩ Ð°
ĠÐ´ÐµÑĤ Ð¸
ĠÑģÑĤÑĢÐ°Ð½ Ð½Ð¾
ĠÐ½ÐµÐ± Ð¾
ĠÐĲÐ»ÐµÐºÑģ Ð°Ð½
ĠÐ¼Ð°ÑĤ ÐµÑĢÐ¸
Ð°Ð´ÑĨ Ð°ÑĤÑĮ
ĠÑģ Ð»Ð¸ÑĪ
Ð°Ð½ Ð½ÑĭÐµ
ÐµÐ¹ ÑģÑı
Ð¾Ð»ÑĮ ÑĪ
Ð»Ñı ÑĤÑĮ
ĠÐľ ÐµÑĢ
ĠÐľ Ð¸ÑĤ
Ð°ÐµÑĤ Ðµ
ĠÑģÐ²Ð¾ ÐµÐ¼
ĠÐĵ Ð¾ÑĢ
ĠÐ´ÐµÐ» Ð°ÑĤÑĮ
ĠÑĤÐ¾Ð» Ð¿
ĠÐ¸Ñģ Ñĩ
Ð ķ
ÑĤ Ð¸ÑĢ
ÑĢ Ð¸ÑģÑĤ
ÐµÑĢ Ð²
Ð· Ð°
Ð°Ð´ Ð¸
ÐµÐ² Ð°
ĠÐ²Ñĭ Ð´
ÐµÐ¿ ÐµÑĢÑĮ
ĠÐ¸Ð· Ð´
ĠÐ¢ Ð¾Ð»ÑĮÐºÐ¾
ĠÐľ Ð¸Ñħ
ĠÐ¿Ð» Ð¾Ñħ
ĠÐ¾Ð´Ð¸Ð½ Ð¾Ðº
ĠÑĥÐ³ ÑĢ
ĠÐľÐ¾ÑģÐºÐ² Ðµ
ĠÐķÐ»Ðµ Ð°Ð·
Ð½ ÐµÑĤ
Ñĥ Ñı
ĠÑģ ÑĩÐ°ÑģÑĤÑĮ
Ð² Ð¸Ð´
ÑĤÐ¾ Ðµ
ĠÑĤ ÑĮ
ĠÑĢ Ð°ÑģÑĤ
Ð½Ð¸ ÑĨÑĥ
ĠÑħ Ð°ÑĢ
Ð¾ÑģÑĤ Ð°Ð²
ĠÐ¼Ð¾Ð³ Ð»Ð°
ĠÐ½ÐµÑģ ÑĩÐ°ÑģÑĤ
ÑĤ Ð°Ð»
Ðº Ð¸Ð¼Ð¸
ÐµÑĢ Ðº
Ð¾Ð¼ Ð¸Ð½
ĠÐ» Ð°Ð¼Ð¿
ÑģÐº Ð¾Ð¼
Ð¸Ð½ ÑĥÐ»
ÑģÑĤÐ² Ð¾Ð¼
ĠÐ¡ Ð»
ĠÐ¿ÐµÑĢ ÐµÑģÑĤ
ĠÑģÐ²Ð¾ Ð¸Ð¼Ð¸
ĠÑĤÑĭ ÑģÑıÑĩ
ĠÐ»Ð¸ÑĨ Ð¾Ð¼
ĠÐ½Ð¸Ðº Ð°Ðº
Ð¾Ð±ÑĢ Ð°Ð¶
ĠÐ´ÐµÐ² ÑĥÑĪÐºÐ°
ĠÐ´Ð¾Ð»Ð¶ ÐµÐ½
ĠÐĲÐ½ÑĤÐ¾ÑĪ Ð°
Ñĩ ÐµÑģÐº
Ð¾Ð² Ð¾
ĠÐ´ Ð°Ñĩ
ĠÐ¿ÑĢ Ð¸Ð»
Ð°Ð½ Ð½Ð¾
ĠÐĿ Ð¾ÑĢ
ĠÑģÐº Ð¾Ð»ÑĮÐºÐ¾
ĠÐ³Ð¾ ÑģÑĤÐ¸
ĠÐ±ÐµÐ· ÑĥÐ¼
ĠÐ¾Ñģ Ð²
ĠÐ²Ð¿ ÐµÑĩÐ°ÑĤ
ĠÑĤÑıÐ¶ ÐµÐ»Ð¾
ĠÐ¶ÐµÐ½Ñī Ð¸Ð½Ñĭ
ĠÐ·Ð°Ð³ Ð°Ð´
ĠÑī ÐµÐº
ĠÐ²Ð¾Ð·Ð² ÑĢÐ°Ñī
ĠÐ½ÐµÐ¾Ð±Ñĭ ÐºÐ½Ð¾Ð²
ĠÑģÐ»Ð¸ÑĪ ÐºÐ¾Ð¼
Ð ł
Ġ Ñİ
ĠÐ¿ Ð°Ð¼
ĠÐ² ÐµÑī
Ð² Ð¾ÑģÑĤ
ĠÐ¼ ÑĥÐ·
ĠÑĩ ÑĥÑĤÑĮ
ĠÐ¿ÑĢ Ð¸ÐµÑħ
ĠÐ½Ðµ Ñĩ
ĠÑĥ ÑħÐ¾Ð´
Ð¸Ð² Ð°Ð»ÑģÑı
ÐµÐ´ Ð¾Ð¼
ÑģÐº ÑĥÑİ
ĠÐŁ Ð¾Ñĩ
ÐµÐ· Ð°Ð¿
ĠÐ° ÑĢ
ĠÐĲ Ñħ
ĠÐºÑĢ ÑĥÐ¶
ĠÐ¢ ÐµÐ¿ÐµÑĢÑĮ
ĠÑĢÑĥ Ðº
ĠÐ³Ð¾ÑĢ Ð´
ĠÐĳ Ð°ÑĢ
ĠÐ´Ð¾Ð» Ð³
ĠÐ´Ð¾Ð¼ Ð¾Ð¹
ĠÐºÐ¾Ð¼Ð½Ð°ÑĤ Ñĥ
ĠÑģÑĤÐ¾ÑĢÐ¾Ð½ Ñĭ
ĠÐ¸Ð´ ÐµÑĤ
ĠÑĢÐ°Ð·Ð² Ðµ
ĠÐ´Ð°Ð» ÐµÐºÐ¾
Ñĥ ÑģÑĤÑĮ
Ðº Ð¸Ð½
ĠÐ± Ð°Ð±
ĠÐ¿ÑĢ Ð¸Ñĩ
ĠÑģÐ² ÑıÑĤ
ÑıÐ» Ð¾
ĠÐ¿ÑĢÐ¸ Ð½Ð¸Ð¼
ĠÐ¿Ð¾Ðº Ð¾Ð¹
ĠÐ·Ð°Ñģ Ð¼Ðµ
ĠÑģÐ¼ÐµÑĢ ÑĤÑĮ
ĠÐłÐ°Ð· Ð²Ðµ
ĠÑģÐµÐ¼ ÑĮ
Ð Ķ
Ð» Ð°Ð³
ĠÐ½ Ð°Ð¹
Ð² ÐµÑģÑĤ
ĠÐ´ Ð¾Ð²Ð¾Ð»ÑĮ
ĠÐ· ÐµÐ»
Ð± Ñĥ
ÑĤÐ¾ÑĢ Ð°
ĠÐ¿Ð¾ ÑĪÐµÐ»
ĠÐ·Ð° Ð½Ð¸Ð¼
ÐµÐ¶ Ð°Ð»
ĠÐ¿Ð¸Ñģ Ð°ÑĤÑĮ
ĠÐ¾ÑģÑĤ Ð°Ð½
ĠÐ´ÐµÑĤ ÐµÐ¹
ĠÐľÐµÑĢ ÐºÑĥ
ÑĤ Ð°ÐºÐ¸
ĠÐ½ ÐµÐ»
ĠÐ¼ ÐµÑĢ
ĠÐ¼ ÐµÑĩ
ÑĨ Ð¸Ð¸
ĠÑĤÐ°Ðº Ð¶Ðµ
ĠÐ·Ð° ÑģÑĤ
ĠÐ¿ÑĢÐ¸ ÑĪÐµÐ»
ĠÐ¿Ð¾Ðº Ð¾ÑĢ
ĠÐ¼Ð¾ Ñİ
ĠÐ´ÑĥÐ¼ Ð°ÑĤÑĮ
ĠÐ¿Ð¾Ð¶Ð°Ð» ÑĥÐ¹
ĠÐ³Ð°Ð· ÐµÑĤ
ĠÐ°Ð½ Ð³
" {
ÑĢ Ð¸Ñĩ
Ñı Ð»Ð¸
ĠÑģ ÑĨ
ĠÐ½ Ð¸Ð¼Ð¸
Ðº ÑĥÑİ
Ð¼ ÐµÑĤ
Ð¼ ÑĥÑĢ
ĠÐ¿ÑĢ Ð¾Ð·
ĠÐĺ Ð³Ð½
ĠÐ¾Ð± ÑĢÐ°Ñī
ĠÐ·Ð° Ñĩ
ÑĭÐ² Ð°Ð»Ð¸
ĠÐ¾Ð´ Ð½Ð¾Ð¼
ĠÐ¿ÐµÑĢ ÐµÐ¿
ĠÑģÐ°Ð¼ Ð°
ĠÑģÐ°Ð¼ Ð¾Ð¹
ĠÑĢÑĥ Ñģ
ĠÑĦ Ð¾ÑĢ
ĠÑĩÐµÐ»Ð¾Ð² ÐµÑĩÐµÑģÐº
ĠÑģÐ¾Ð± Ð¾Ñİ
ĠÐ½Ð°Ð¿ ÑĢ
ĠÐºÐ°ÑĢ ÑĤ
ĠÐ³ÑĢÑĥÐ´ Ð¸
Ð¼ Ð°ÑĤÑĢ
ĠÐ¿ÑĢ ÐµÐ¶
ĠÐ³ Ð½ÐµÐ²
Ð± Ñĭ
ĠÑĤÐ°Ðº Ð¸Ðµ
ÐµÑĩ ÐºÐ°
ÑĢÐ° ÑģÑĤ
ÑĥÑİ ÑĤ
ĠÐ³ÑĢ ÑĥÐ´ÑĮ
ĠÐ½Ð¾Ñĩ ÑĮÑİ
ĠÐ¿ÐµÑĢÐ² ÑĭÐ¹
ĠÐĲÐ»ÐµÐºÑģÐ°Ð½ Ð´ÑĢ
ĠÐĺÐ³Ð½ Ð°ÑĤ
ĠÑģ ÐµÐ»
ÐµÐ½ Ð¾
Ð¾Ð» Ð³Ð¾
ĠÑĢ Ð¸Ñģ
Ð¿ ÐµÐ½
ÐµÐ¿ ÐµÑĤ
ÑĥÑĤ ÑģÑĤÐ²
ĠÑģÐ¼ ÑĥÑĤ
ĠÐ³Ð» Ð°Ð²
ÑĦ Ð¸ÑĨ
ĠÐ¿Ð¾ÑĤ ÐµÑĢ
ÑĢÑĭ Ð»
ĠÑģÐ¾Ð± Ð¾Ð¹
ĠÐ·Ð² ÑĥÑĩ
ĠÐ³Ð¾Ð»Ð¾Ñģ Ð°
ĠÑĩÐµÑĤ Ð²ÐµÑĢ
ĠÐ±ÑĥÐ¼ Ð°Ð³
ĠÑĢÐµÐ± ÐµÐ½
ĠÑĤÐ°Ð» Ð°Ð½ÑĤ
ĠÐ¿ÑĮ ÐµÑģ
ĠÐ¸ÑģÑĩ ÐµÐ·
Ð» Ñĥ
ĠÑģ Ð¾Ð»
ĠÑģ ÑĥÑħ
ĠÐ¿ Ð°Ñħ
ĠÐ½ Ð°Ð»
ĠÐ² Ð´
ĠÐ´ Ð¾Ð²
ĠÐ¼ Ð½Ð¾Ð¹
ĠÐ¿ÑĢ Ð¸ÑĤ
ĠÐ¿ÑĢ ÐµÐ²
ĠÐ¿ÑĢ Ð¸Ð¶
ĠÑĢ Ð¾ÑĤ
ĠÐºÐ°Ðº Ð¾Ðµ
ĠÐ²Ñĭ ÑĪÐµÐ»
ĠÐ¾Ð± Ñī
ĠÐļ Ð°ÑĤ
ĠÐ´Ð² Ð¸Ð³
Ð°Ð½Ð¸ ÐµÐ¼
ĠÐ»ÑİÐ± Ð²Ð¸
ĠÐ§ÐµÑħÐ¾Ð² ÑĭÐ¼
ĠÑħÐ¾ÑĤ ÑĮ
ĠÐ³Ð¾Ð»Ð¾Ð² Ðµ
ĠÐ½Ð°Ðº Ð¾Ð½ÐµÑĨ
ĠÐ¿Ð¸ÑģÑĮ Ð¼Ð¾
ÑĢÐ¾ ÑĦ
ĠÐ´ÑĮÑı ÐºÐ¾Ð½
ĠÑĢÑıÐ´ Ð¾Ð¼
Ð» ÐµÑĩ
ÑĢ Ñı
ĠÐ½ ÑĢÐ°Ð²
ĠÐ¾ Ñħ
ĠÑĥ Ñħ
ÑģÑĤÐ² Ðµ
Ð¶ ÐµÑģÑĤÐ²
ĠÐ¢ Ð°Ð¼
Ð°Ð³ Ð¾Ð½
Ð¸ÑĤÐµÐ»ÑĮ Ð½ÑĭÐ¹
ĠÑģÐ¼Ð¾ÑĤÑĢ ÐµÑĤÑĮ
ĠÑĤÐ¾ÑĢ Ð¾Ð¿
ĠÐ²Ð½ ÐµÐ·Ð°Ð¿
ÐºÑĢ ÐµÑģ
ĠÐ½ÐµÐ½ Ð°Ð²
ĠÐ¿Ð¾Ð¼Ð½ Ñİ
ĠÐ´Ð°Ð»ÑĮ ÑĪÐµ
Ñį ÑĤ
Ġ Ġ
ÐµÐ½ ÐºÐ¾
ĠÐ± ÐµÐ³
ĠÑĤ Ð¸ÑĪ
Ð¾Ð¼ ÐµÑĢ
ÐµÑĤ ÐµÐ»ÑĮ
Ð°Ðº ÑĤÐµÑĢ
Ð°ÑĤ Ð°
ĠÑĢ ÑĥÐ±
ĠÐ½Ð° ÑĢÐ¾Ð´
Ð°Ð² Ð¸Ð»
Ð°Ð² Ð»Ð¸Ð²
ĠÐ¾ÑĤ Ñģ
Ð³ Ñĥ
ĠÐ¾Ð± Ð¸Ð´
ĠÑģÐº Ð²Ð¾Ð·
ÐµÐ¶ Ð´
ĠÐ¿Ð¾Ðº ÑĥÐ¿
ĠÐĳ Ð¾Ð³
ĠÐ¶ÐµÐ½ Ð°
ĠÐĽ Ð°Ð²ÑĢ
ĠÑģÐ¾Ð± ÑģÑĤÐ²
ĠÑĩÑĥÐ²ÑģÑĤÐ² Ð¾
ĠÑģÐ»ÑĥÑĩ Ð°Ð¹
ĠÐ´Ð°Ð» ÐµÐº
ĠÑĥÑģÑĤ Ð°Ð»
ĠÐ±ÐµÑĢ ÐµÐ³
ĠÐľÐ¸ÑĪ Ð°
ĠÐĽÑİÐ± Ð°
Ñı Ð½ÑĥÐ»
ĠÐº Ð¾Ð¿
Ð¾Ð² Ð°Ð»Ð¸
ĠÐ´ Ð½Ð¸
ĠÐ· Ð¸Ð¼
ÑģÐº Ð¸Ð¼
ĠÐĿ ÐµÐ¼
Ð³ Ð°Ð¼
ĠÐ¾Ð± Ð°
ĠÐ¾Ð± ÑĢÐ°ÑĤ
ĠÐļ ÑĤÐ¾
ĠÑįÑĤ Ð¾Ð¼Ñĥ
ĠÐ³Ð¾Ð» ÑĥÐ±
ĠÐ¿Ð¾Ðº Ð°Ñĩ
ĠÑĦ Ð¸Ð³
ĠÐ¸Ð¼ ÐµÐ½Ð½Ð¾
ĠÐ´ÑĥÑĪ Ñĥ
ĠÐ¿ÑĢÐ°Ð² Ð´Ð°
ĠÐ³Ð¾Ð´ Ñĥ
ĠÐºÐ» Ð°ÑģÑģ
ĠÐľÐ¸ÑĤ ÑĢÐ¾ÑĦ
Ðµ ÐµÑĤ
ÑĤ Ð¾Ð¼
Ð½ ÐµÑģ
ĠÑģ Ð¾Ñĩ
Ð¼ Ð°Ñħ
Ð¾Ð² Ð°Ð»Ð°
ĠÑĤ Ð²Ð¾
ĠÐ´ ÐµÐ½
ĠÐ´ Ð¾Ð³
Ð½Ð¸ ÑĨÐµ
Ð¾ÑĤ Ñĥ
ĠÐ¾ÑĤ ÐºÑĥÐ´Ð°
ĠÑħ Ð²Ð¾ÑģÑĤ
ĠÑĤÐ°Ðº Ð¸Ñħ
ĠÐ·Ð° Ñī
ĠÐ³Ð¾ ÑĤÐ¾Ð²
ĠÑĨ Ð°ÑĢ
ĠÐŁÑĢ Ð¸
ÑĥÑģ ÑĤÐ¾
ĠÑĥÐ¿ ÑĢ
ĠÑĤÐµ Ð°ÑĤÑĢ
ĠÐ¸ÑģÐº ÑĥÑģ
ĠÐ¡ÑĤ ÐµÐ¿
ĠÑıÑģ Ð½Ð¾
ĠÐºÐ°Ð± Ð¸Ð½
ĠÐ¿Ð¾ÑĩÑĥÐ²ÑģÑĤÐ² Ð¾Ð²Ð°Ð»
ĠÐ·Ð°Ñĩ ÐµÐ¼
Ð» ÑĭÐ¹
ĠÑģ Ð¾Ð½
ĠÑģ ÐµÑģÑĤ
ÑĪ ÐµÐ³Ð¾
ĠÑĤ ÑĥÐ´Ð°
ĠÐ´ Ð½ÐµÐ¹
Ð¾ÑĤ Ð°
Ð°Ð½ Ð¸Ð¹
ĠÑģÑĤ ÐµÐº
ĠÐļ Ð¾Ð½ÐµÑĩÐ½Ð¾
Ð°Ð»ÑĮ Ð½Ð¾
ĠÑģÐ°Ð¼ Ð¾Ð¼
Ð°Ð½Ð¸ Ð¸
Ð¸Ð¶ Ñĥ
Ð»Ñİ Ð±
ĠÐ½Ð°Ñģ ÑĤÐ¾ÑıÑī
ĠÐ¿ÑĥÑģÑĤ Ñĭ
ĠÐ±ÐµÑģÐ¿ Ð¾ÐºÐ¾Ð¹
ĠÑģÑĤÐ°Ð½Ð¾Ð² Ð¸Ð»Ð¾ÑģÑĮ
ĠÐ® ÑĢÐ°Ñģ
ĠÐ±Ð»Ð°Ð³ Ð¾Ð´Ð°ÑĢ
ĠÐĵÑĢ Ð¸Ð³Ð¾
ĠÑģÐ¾Ð³ Ð»Ð°Ñģ
ÑĢ Ñĥ
ÑĢ Ð¸Ðº
Ð² Ð¸Ð³
Ð¼ Ð¾Ð»
ÑĪ Ð¸Ðµ
ÐµÐ½ Ð½ÑĭÐ¼Ð¸
ĠÑĢ ÑĥÑĩ
ĠÐ³ Ð°Ð»
ĠÐ¾ÑĤ ÑĨÐ°
Ð³Ð¾ ÑĢ
ĠÐ¿Ð¾ ÐµÐ·Ð´
ÑĭÐ² Ð°Ñı
ĠÐ´Ð² ÑĥÑħ
ĠÐ³ÑĢ ÑĥÐ±
ĠÐ³Ð¾Ð» Ð¾Ð²Ð°
ĠÐ²Ð¸Ð´ Ð½Ð¾
ĠÐ³Ð»Ð°Ð· Ð°Ñħ
ĠÐ±Ð» ÐµÑģÑĤ
ĠÐĵ Ð¾Ñģ
ĠÐĽ ÐµÐ²
ÑİÑĤ ÑģÑı
Ð»ÑıÐ» ÑģÑı
ĠÑģÐ´ÐµÐ» Ð°Ð»
ĠÑĤÐ¾ÑĢ Ð³
ĠÑĥÐ· Ð½
ĠÐ±ÑĭÐ² Ð°ÐµÑĤ
ĠI I
ĠÐ²Ð¾Ðº ÑĢÑĥÐ³
ĠÐŁÐ¾Ñĩ ÐµÐ¼Ñĥ
ÑĢ ÑĮ
Ñı Ð»Ð°
ĠÐ¿ Ð¾ÑĤÑĢ
ĠÐ½ Ð¸Ð·
ĠÐ² Ð½Ñĥ
ĠÐ² Ð°Ð³Ð¾Ð½
ĠÐº Ð°Ñĩ
ÑĪ Ð¸Ñħ
ĠÐ± ÐµÐ´
Ð¾Ð» Ð¾Ð¶
ÐµÑĢ Ð¿
Ð¾Ð´ Ðµ
ĠÐĴ Ð¾
ÑĭÐ² Ð°Ð»Ð°
ĠÑĢÑĥ ÐºÐ¾Ð¹
ĠÐ¿ÑĢÐ¾ ÑħÐ¾Ð´
ĠÑģÐ¾Ð± Ð¸ÑĢ
ĠÑĨÐµÑĢ ÐºÐ¾Ð²
ĠÐ»Ð°Ñģ ÐºÐ¾Ð²
ĠÐľÐµÑĢÐºÑĥ Ð»Ð¾Ð²
ĠÐ¾ ÑģÐº
ĠÐº Ð¾Ñģ
ĠÐ± Ð¾Ðº
ĠÐ´ ÑĥÑħ
ÐµÐ» Ñı
ÐµÐ» ÑģÑı
ĠÑĢ Ð¾Ð²
ĠÐºÐ°Ðº Ð¸Ð¼
Ð¾Ð± ÑīÐµ
ÑĥÐ¶ Ð´
ĠÐ²Ñĭ Ð³
ĠÑģÐ¿ Ð°ÑĤÑĮ
ĠÑģÐ¿ ÑĢÐ¾Ñģ
ĠÐ½ÐµÐ¿ Ð¾Ð½
ĠÐ¿ÑĢÐµÐ´ Ñģ
ĠÐ²Ð¾Ð» Ðº
ĠÐ·ÐµÐ¼ Ð»Ðµ
ĠÑĤÐ¾ÑĢ Ð¶ÐµÑģÑĤÐ²
ĠÑħÐ¾Ð´ Ð¸Ð»
ĠÐºÐ½Ð¸Ð³ Ð¸
Ð¾Ð²Ð¾Ð»ÑĮ ÑģÑĤÐ²
ĠÐ¢Ð¾Ð» Ð¿ÐµÐ½
ĠÑħÐ°ÑĢ Ð°ÐºÑĤÐµÑĢ
ĠÐ¿ÑĢ Ð¾Ð³
ĠÐ½Ðµ Ð¾Ð±
Ð½Ð¸ ÑĨÑĭ
ĠÐ» Ð¾ÑĪ
ĠÐ¶ Ð°ÑĢ
ĠÐ¿Ð¾ ÑģÑĤÑĥÐ¿
ĠÑģÐ² Ð¸Ð´
ĠÑģÐ² ÐµÐ¶
ĠÐ¡ Ð¿
ĠÐ¸Ð· Ð±
ÑĭÐ² Ð°Ð»ÑģÑı
ĠÐ¾Ð´ Ð½Ð¸Ð¼
ĠÐ±ÑĥÐ´ ÑĥÑĤ
ĠÐ¿ÑĢÐ¾ Ð¸Ñģ
ĠÐ£ Ð¶Ðµ
ĠÑħÐ¾Ñĩ ÐµÑĤ
ĠÑģÑĤÐ¾Ñı Ð»Ð°
Ð½ÑĥÐ²ÑĪ Ð¸ÑģÑĮ
ĠÐ½ Ð°Ð³
ĠÑĤ ÐµÑĤ
ĠÐ¼ ÐµÐ»ÑĮ
ÐµÑĤ Ð°
ÐµÐ² Ð°Ð»
ĠÐĲ Ð²
ĠÐ¢ Ð¾Ð³Ð´Ð°
Ð°Ð³ Ð°Ð½
ĠÐ§ÐµÑħÐ¾Ð² Ñĥ
Ð°Ð²ÑĪ Ð¸Ðµ
ĠÐ²ÐµÑĢ Ð¾ÑıÑĤÐ½Ð¾
ĠÐ´ÐµÐ² ÑĥÑĪ
ĠÐ¿Ð¸ÑģÐ°ÑĤÐµÐ» Ñı
ĠÐŁÐ°ÑĢ Ð¼ÐµÐ½
ĠÐ¼ÑĥÐ· Ñĭ
ĠÑģÐºÐ²Ð¾Ð· ÑĮ
ĠÐľÐ¸ÑĤÑĢÐ¾ÑĦ Ð°Ð½
. ,
ÑĢ ÐµÐ¼
ĠÑģ ÐµÐ´
ĠÑģ Ð¾ÑģÑĤÐ°Ð²
ĠÐ± ÑĥÑĢ
ĠÐ¼ Ð¾Ð½
ĠÐ½Ðµ Ð¾Ð¶
ĠÐ½Ð° ÑģÑĤÑĢÐ¾
Ð½Ð¸ ÐºÐ¾Ð¼
ĠÐ» Ð¸Ñĩ
Ð± Ð°
Ð¾ÑĤ Ñĭ
ĠÑģÑĤ ÑĥÑĩ
Ð¸Ð¼ ÑģÑı
ĠÐĿ Ð¾Ð²
Ð°ÑĢ ÑĭÐ³
ĠÐºÑĢ ÑĭÑĪ
ĠÐļ Ð°Ñĩ
ĠÐ´ÑĢ ÑĥÐ³Ð¾
ĠÐķ Ð²
ĠÐ½Ð°Ñĩ Ð¸Ð½Ð°
ĠÐ·Ð°Ð¿ Ð°Ñħ
ĠÐŁÐµÑĤÑĢÐ¾Ð²Ð¸Ñĩ Ð°
ĠÐĲÐ»ÐµÐºÑģ ÐµÐ¹
ĠÑĩÐµÑĤ ÑĭÑĢ
ĠÐ¿Ð»Ð° Ñĩ
ĠÐ¾Ð±ÑĬ ÑıÑģÐ½
ÑİÑĪ ÐºÐ°
Ð½ Ð°Ðº
Ð» Ð¸ÑģÑĮ
ĠÑģ ÑĥÑĢ
Ñĩ Ð°ÑĤ
ĠÐº Ð°Ð·Ð°Ð»
ÑĪ Ð¸Ð±
ĠÐ´ ÐµÐ»Ð°
ĠÐ¼ ÐµÑĪ
ĠÐ¿ÑĢ Ð¸Ð¼
Ð¾Ð´ Ð¸Ð»
ĠÐµ Ñħ
ĠÑĥ ÑĩÐ°ÑģÑĤ
ĠÐ±Ñĭ ÑģÑĤÑĢ
ĠÐ» Ð¾Ð²
Ð¸Ð² Ð°Ð»Ð°
ĠÑį Ðº
ÐµÐ³Ð¾ ÑģÑı
ĠÑĪ Ð¿
Ð¾Ð²Ð¾ÑĢ Ð¸Ð»
ĠÐ³ÑĢ ÑĥÑģÑĤ
ÑĥÐ² Ð¾ÑĢ
ĠÐ±Ð» Ð¸Ð¶
ĠÐ»Ð¸ÑĨ Ðµ
ĠÐ½Ð°Ð¿ ÑĢÐ°Ð²
ĠÐ¿Ð¾Ð· Ð´Ð½Ð¾
ĠÐ·Ð°Ð² ÑĤÑĢÐ°
ĠÐĿÐ¸ÐºÐ¾Ð» Ð°
ĠÐ»ÐµÐ³ ÐºÐ¾
ĠÐ¨ Ð°ÑĢÑĭÐ³
____ ____
ĠÑģÐ¾Ð· Ð½Ð°
ĠÐ½ÐµÐ· Ð½Ð°ÐºÐ¾Ð¼
ĠÑħÑĥÐ´ Ð¾Ð¶
ĠÐ¾ÑģÑĤÐ¾ÑĢ Ð¾Ð¶Ð½Ð¾
ĠÐĿÐ¾ÑĢ Ð´ÐµÐ½
ĠÐ½ÐµÐ¾Ð¶ Ð¸Ð´
Ð¾ ÑģÑĤÑĮÑİ
ÑĮ Ðµ
ĠÐ¾ ÑĦÐ¸ÑĨ
Ð¼ Ð¸ÑĤ
Ð¾Ð² Ð¸
ÐµÐ» Ñİ
ĠÐ¼ Ð°Ð¼Ð°
ĠÑĢ ÑĥÐ³
ĠÐ³ ÑĥÑģÑĤ
Ð¾ÑĤ Ðµ
Ð°Ð½ Ð¾Ð²Ð¸Ñĩ
ĠÐĴ Ð°Ð»Ñı
ÑıÑĤ ÑģÑı
ĠÐ¿Ð¾Ð´ ÑĢ
ĠÐ§ Ð¸ÑģÑĤ
ĠÐ¿ÐµÑĢ ÐµÐ²
ÑĭÑħ Ð°Ð»
Ð¾ÑĪ Ð»Ð°
ĠÐ¿ÑĢÐ¸ ÑıÑĤ
ĠÑģÐ°Ð¼ Ð¾Ðµ
ĠÑĤÑĢ ÐµÐ²
ĠÐ¾Ðº Ð¾Ð½Ñĩ
ÐµÑģÑĤÐ² Ð°
ĠÐ¿Ð¸Ñģ Ð°ÑĤÐµÐ»ÑĮ
ĠÑĩÐ°Ñģ Ð¾Ð²
ĠÑģÐ»ÑĥÑĩ Ð°
ĠÐ·ÐµÐ¼ Ð»Ñİ
Ð¾Ñī Ð°Ð´
ĠÑģÐ¸Ð» Ñĭ
ĠÑģÐ¸Ð»ÑĮ Ð½Ð¾
ĠÐ·Ð°Ð¼ÐµÑĤ Ð¸Ð»
ĠÐ²Ð·Ð´ Ð¾Ñħ
ĠÑĦÐ¾Ð½ Ð°ÑĢ
ĠÐ¿Ð»Ð°ÑĤÑĮ Ðµ
Ð ¯
Ð» Ð¸Ðº
ĠÐ¿ ÑĥÐ³
Ñĩ ÐµÑĢÐ°
ĠÐ´ Ð¾Ð¶Ð´
ĠÑĩ Ð°Ð¹
ĠÐ· Ð¾Ð»
ĠÐ· Ð°Ð¶
ÑĨ ÐµÐ¼
Ð¾Ð½ ÐµÑĩ
Ð½Ñĥ Ð»Ð¸
ÐµÑħ Ð°Ð»
ĠÑĢÐ°Ð· ÑĢ
ĠÐ¢ Ð¸Ð¼Ð¾
Ð»Ð° ÑĪ
ĠÐ¾Ð´ Ð½Ð¸
Ð¾Ð¿ ÑĭÑĤ
Ð¸ÑĢ Ð¾Ñģ
ĠÐ»Ð¸ ÑĪ
ĠÐ´Ð² ÐµÑĢ
ĠÑĤÑĢ Ð°Ð²
ĠÑĩÐµÑĢ Ð½ÑĭÐµ
ÑĦ Ð¾ÑĢ
ĠÐĵ Ð°ÑĢ
ĠÐĹ Ð½Ð°
ĠÐ³Ð¾Ð»Ð¾Ð² Ñĭ
ĠÐ²Ð¾Ð» Ð½
ĠÑĥÐ´ Ð¾Ð²Ð¾Ð»ÑĮÑģÑĤÐ²
ĠÑĢÐ°ÑģÑģÐºÐ°Ð· ÑĭÐ²Ð°Ð»
ĠÐ´ÑĥÑĪ Ðµ
ĠÐ¸Ð´ ÑĤÐ¸
ĠÐ»ÐµÐ¶ Ð°Ð»
ĠÐŀÐ´ Ð¸Ð½
ĠÑĥÐ»Ð¸ ÑĨÐµ
ĠÑĤÑĢÑĥÐ´ Ð½Ð¾
ĠÐķÐ»ÐµÐ°Ð· Ð°ÑĢ
ĠÐ½ÐµÐ» ÐµÐ¿
ĠÐĵÐ¾Ñģ Ð¿Ð¾Ð´
ĠÐļÐ°Ñĩ ÐµÑĢ
Ð ĵ
Ð° ÑĪÐµ
ĠÐ¿ Ð¾Ð¹Ð´
ĠÐ½ ÐµÐ³
Ð°Ð» Ðµ
ĠÑĤ ÑĥÐ¼
Ð¾Ð» Ðº
ÐµÑĢ Ð²Ð°
ĠÐ¼ ÐµÑĤ
ĠÐ¼ Ð½Ð¾Ñİ
Ð¾Ð³ ÑĢÐ°ÑĦ
Ð°Ð½ Ðµ
Ð¾Ðº Ð°
ĠÑģÐ² ÐµÑĩ
ĠÐºÑĢ ÑĥÐ¿
ÐµÐ½Ð½Ð¾ ÑģÑĤÑĮ
ĠÐ¯ ÐºÐ¾Ð²
ĠÑģÐ°Ð¼ ÑĭÐ¹
ĠÑĢÑĥ ÐºÐ°
ĠÐ¾Ðº ÑĢÑĥÐ¶
ĠÐ¾Ð¿ ÑĥÑģÑĤ
Ð°Ñĩ ÐµÐ¼
ĠÐ·Ð² ÑĥÐº
ĠÐ¥ Ð¾ÑĢÐ¾ÑĪ
ĠÐ¸ÑģÐº ÑĢ
ĠÐ¸Ñģ ÑĤÐ¾ÑĢ
ĠÐ±Ð¾ÑĢ Ð¾Ð´
ĠÐ·Ð°ÑĤ ÐµÐ¼
ĠÐĳÐ°ÑĢ Ð³Ð°Ð¼
ÑĤ Ñı
ĠÑģ Ð¶
ĠÑģ Ð°Ð¼Ð¸
ĠÐ¾ Ð²
ĠÐ¼ ÐµÑģÑĤÐµ
Ð¾Ð¼ Ðµ
ĠÐ· Ð¾Ð²
ĠÐ» ÐµÑģÑĤ
ĠÑģÑĤ Ð¾Ð½
Ð³ Ð°
ĠÐ¿Ð¾ ÑģÑĤÐ°Ð²
ÐµÑģ Ñģ
ĠÐ¾Ð± ÑıÐ·
ĠÐ¡ Ð°Ð¼
ĠÑģÐ» Ð°Ð²
ÐºÐ¸ Ð½Ð°
ĠÐ¢ ÑĥÑĤ
ĠÐ¯ Ð»
ĠÑĨ ÐµÐ»Ð¾Ð²
ĠÑģÑĤÑĢ Ð¾Ð³Ð¾
ĠÐ¾Ðº Ð½Ð¾
ĠÐ¼Ð¾ ÐµÐ³Ð¾
ĠÐ·Ð² ÑĥÐºÐ¸
ĠÐ¾ÑĤÐ²ÐµÑĤ Ð¸Ð»Ð°
ĠÐ¼Ð°Ð»ÐµÐ½ÑĮÐº Ð¸Ð¹
ĠÐ¼Ð¾Ð»Ð¾Ð´ Ð¾Ð¹
ĠÑģÐ¾Ñģ ÐµÐ´
ĠÐ¾ÑĤÑĤ Ð¾Ð³Ð¾
ĠÑĨÐµÑĢ ÐºÐ²
ĠÐ¡Ð°ÑĪ ÐºÐ°
ĠÐ¿Ð°Ð¿ Ð¸ÑĢÐ¾Ñģ
ÑĦÐµ ÐµÐ²Ð¸Ñĩ
ĠÐľÐ¸Ñħ Ð°Ð¹
ĠÐ®ÑĢÐ°Ñģ Ð¾Ð²
Ð°Ð³Ð°Ð½ ÑĢÐ¾Ð³
) ,
Ð¾ Ñı
Ð¸ ÑĤÐ¾
ĠÑģ ÑĥÐ´ÑĮ
ĠÐ¿ ÑıÑĤÑĮ
ĠÐ¿ ÑĥÐ±Ð»
ĠÐ² Ð²ÐµÑĢ
ÐµÐ½ ÑĤÐ°
ÐµÑĢ Ð´
Ð¾ÑĢ Ð±
Ð°Ð½ Ð½ÑĭÑħ
Ð¾Ðº ÑĢ
ĠÐĴ Ð°Ð¼
ÐµÐ¶ Ð½Ð¾
ĠÑĢÑĥ ÐºÐ°Ñħ
ĠÐ±Ð¾Ð»ÑĮ Ð½Ð¾
ĠÐ±ÐµÐ· Ð·
Ð»Ð¸Ð² ÑĭÐ¹
ĠÑĦ Ð°Ðº
ĠÐ¾Ð¿ ÑĢÐµÐ´ÐµÐ»
ÐµÑģÑĤÐ² Ð¾
ĠÐ·Ð°Ðº ÑĢÐ¸Ñĩ
ĠÐ¶ÐµÐ» ÑĤ
ĠÐ·Ð°Ð± ÑĭÐ»
ĠÐºÐ¾ÑĢ Ð¸Ð´
ĠÐºÑĢÐ¸Ðº Ð½ÑĥÐ»
ĠÑģÐ»ÐµÐ· Ñĭ
ĠÐ³Ð¾ÑģÐ¿Ð¾Ð´ Ð¸Ð½
ĠÐ¿Ð¾ÑģÑĤÐ¾ÑıÐ½ Ð½Ð¾
ÑĥÐºÑĥ ÑĪ
ĠÑĥÐ³ÑĢ ÑİÐ¼
ĠÐ´ÑĢÑĥÐ³Ð¾ Ðµ
Ġ *
Ð° Ð½Ð°
Ð» Ð°Ð²
ÑĮ Ð¼Ð¸
Ð¼ ÐµÑĪ
ĠÐ¼ Ð¸Ð¼Ð¾
Ð½Ð¸ ÐµÐ¼
ĠÐ¾ÑĤ Ð½Ð¾Ñģ
ĠÐŁ Ð¾Ð»
Ð¾Ð± Ñī
ĠÑĤÐ°Ðº Ð¾Ð³Ð¾
ÐµÐº Ð°
ĠÐ¾Ð± Ð²
ĠÐľ ÐµÐ»
ĠÑĪ Ð»Ð¸
ĠÐ¿ÑĢÐ¸ ÑģÑĤÐ°Ð²
ĠÐ¼Ð¾ Ð¸Ñħ
ĠÐ·Ð½Ð° ÑĩÐ¸ÑĤ
ĠÐĹ Ð°ÑĩÐµÐ¼
Ð¸Ð²ÑĪ Ð¸Ð¹
ĠÐ¾Ð³ Ð¾Ð½ÑĮ
ĠÐ¿Ð¾ÑĢ ÑıÐ´
ĠÐ²Ð¾Ñģ ÑĤÐ¾ÑĢ
ĠÑģÐ¼Ðµ ÑıÐ»ÑģÑı
ĠÐľÐ¾ÑģÐºÐ² Ñĥ
ĠÐµÐ´ Ð²Ð°
ĠÐ¿Ð»Ð°Ðº Ð°Ð»
ĠÐ¿ÑĢÐ¾Ð´Ð¾Ð»Ð¶ Ð°Ð»
Ð½Ñİ Ñİ
ĠÐ¾Ð¶ Ð¸Ð´Ð°
ĠÐ½ÐµÐ¸Ð· Ð²ÐµÑģÑĤ
ĠÐ´Ð¾Ð²Ð¾Ð»ÑĮ Ð½Ð¾
ĠÐ·ÐµÐ» ÐµÐ½
ĠÐ§Ð¸ÑģÑĤ Ñı
Ð° Ð½Ñĭ
Ð» Ð¸Ð·
ĠÐ¿ ÑĥÑģÑĤÐ¾
ĠÐ½ Ð¾Ð¶
ĠÐ¾ Ð·
Ð´ Ð¸
ĠÑĤ Ð²
ĠÐ¼ ÐµÐ½
ÑģÑı ÑĤ
Ð¾Ñģ Ñģ
Ð°Ð² Ð°Ð»
Ð¸Ð² Ð°Ð»Ð¸ÑģÑĮ
Ð· Ð´
ĠÐ¾ÑĤ Ð²ÐµÑĢ
ĠÑħ ÑĢ
ĠÑħ Ð¾ÑħÐ¾ÑĤ
ĠÐŀ Ñĩ
ĠÐ·Ð° ÑģÑĤÐ°Ð²
ĠÐļ ÑĥÐºÑĥÑĪ
ĠÐ¿Ð¾Ð» Ñĥ
ĠÐ¿ÑĢÐ¸ ÑıÑĤÐ½Ð¾
ĠÐ»ÑİÐ± Ð¸ÑĤ
ĠÐ¸Ð¼ ÐµÐ»
ĠÐ¿Ð¾Ð½ ÑıÑĤÑĮ
ĠÐ²Ð¾Ñģ ÐºÑĢÐµÑģ
ĠÑģÐ´ÐµÐ» Ð°ÑĤÑĮ
ĠÐ¡ÐµÑĢÐ³ ÐµÑı
ĠÐ³ÑĥÐ± Ñĭ
ĠÐ²Ð·Ð³Ð»Ñı Ð½ÑĥÐ»
ĠÑĢÐ°Ð²Ð½Ð¾Ð´ÑĥÑĪ Ð½Ð¾
ĠÐĳÑĭ Ð»Ð¾
ĠÐĺÐ³Ð½Ð°ÑĤ Ð¸Ð¹
ĠÐ¡ÑĤÐµÐ¿ Ð°Ð½Ð¾Ð²Ð¸Ñĩ
ĠÐ½ÐµÐ¾Ð± ÑħÐ¾Ð´
ĠÐľÐµÐ» Ð¸Ñħ
- -
9 0
Ð Ľ
ĠÐ² ÑħÐ¾Ð´
ĠÐ¾ ÑĪÐ¸Ð±
ÑĪ ÐµÐ¹
ĠÐ± Ð¸Ð»
ĠÐ´ Ð¾Ð¿
ĠÐ¼ Ð¾Ð·
ĠÑĢ Ð°Ð±
ĠÑĢ ÑĥÐ±Ð»
Ð½Ð¸ ÐºÐµ
ĠÑĥ ÑĪÐµÐ»
Ð¾ÑĤ ÐµÐ»
ĠÐ¾ÑĤ Ð´ÐµÐ»
Ð°Ð½ Ð½Ð¾Ðµ
ĠÐŁ ÐµÑĤÑĮ
ĠÑħ Ð¾Ð»
Ð¾Ð· Ð¼
ĠÐºÑĢ Ð°Ð¹
ĠÐºÐ¾ÑĤÐ¾ÑĢ Ð¾Ð¼Ñĥ
Ð¾Ñĩ ÐºÑĥ
Ð¸ÑĤÐµÐ»ÑĮ Ð½ÑĭÐ¼
ĠÑģÑĤÑĢ Ð¾Ð³
ĠÐ·Ð½ Ð°ÑĤÑĮ
ĠÐºÐ¾Ð» ÐµÐ½Ð¸
ĠÐ³Ð¾Ð»Ð¾Ñģ Ð¾Ð¼
ĠÑĢÐ°Ð´ Ð¾ÑģÑĤÐ¸
ĠÑĥÐ»ÑĭÐ± Ð½ÑĥÐ»ÑģÑı
ĠÐ´ÐµÐ½ÑĮ Ð³Ð¸
ĠÐķÐ³Ð¾ ÑĢ
ĠÐ¿ÑĢÐ¸Ð² ÑĭÑĩ
ĠÐºÑĢÐ¸Ñĩ Ð°Ð»
ĠÐ·Ð°Ð½ ÑıÑĤ
ĠÐ·ÑĥÐ± Ñĭ
ĠÐ·Ð°Ð³Ð°Ð´ Ð¾Ñĩ
ĠÐ¿Ð°Ð¼ ÑıÑĤ
ĠÑĦÐ¸Ð³ ÑĥÑĢ
ĠÐ»Ð¾ÑĪ Ð°Ð´
ĠÐ¢Ð¸Ð¼Ð¾ ÑĦÐµÐµÐ²Ð¸Ñĩ
Ġ 2
Ñģ ÐµÐ³Ð´Ð°
ĠÐ¾ ÑħÐ²Ð°ÑĤ
ĠÐ± ÐµÐ¶
ĠÑĤ Ð¾Ð±
ĠÑĤ Ð°Ð¹
ĠÐ´ Ð¸Ð²
ĠÑĥ ÑĢ
Ð± Ðµ
Ð¾ÑĤ ÑĮ
Ð¸Ð² Ð°ÐµÑĤÑģÑı
Ð¸Ð² Ð°ÑıÑģÑĮ
ĠÑħ Ð²Ð°ÑĤ
ĠÑģÐ² ÑıÐ·
Ð°Ð¶ Ð¸
ĠÐ¾Ð± Ð¾ÑĢ
ĠÐ¡ Ð¼Ð¾ÑĤÑĢ
ĠÐºÑĢ Ð¾Ð¼Ðµ
ĠÐ³Ð¾ÑĢ Ð¾Ð´Ð°
ĠÐĳ ÑĥÐ´
ĠÐ¼Ð¾Ð³ Ð»Ð¸
ĠÐ·Ð½ Ð°Ð»Ð°
Ð°Ð²ÑĪ Ð°Ñı
ĠÐ±Ð¾Ð»ÑĮÑĪ Ð¸Ðµ
ĠÐ´ÐµÐ» Ð°Ð»
ĠÐ¿Ð¾Ð· Ð½Ð°ÐºÐ¾Ð¼
ĠÐ½ÐµÐ´ Ð¾
ĠÐ¶ÐµÐ½Ñī Ð¸Ð½
ĠÑĤÐ¾ÑĤ ÑĩÐ°Ñģ
ĠÐ·ÐµÐ¼ Ð»Ð¸
ĠÐ½Ð°Ð² ÐµÑĢ
ĠÐ²Ð·Ð³Ð»ÑıÐ´ Ð¾Ð¼
ĠÐĲÐ½Ð´ÑĢ Ðµ
ĠÐ½ÐµÐ¿ÑĢÐ¸ ÑıÑĤ
ĠÐ¿Ð¾Ð¶Ð°Ð»ÑĥÐ¹ ÑģÑĤÐ°
ĠÐĵÐ°ÑĢ Ð°ÑģÑĮ
ĠÑģ ÐµÐº
ĠÑģ ÑħÐ²Ð°ÑĤ
ĠÐ¸ ÑģÑĤ
ĠÐº ÑĥÑħ
ĠÑĤ ÐµÐ½Ð¸
ĠÐ´ ÑĭÑĪ
Ð¾Ð¹ ÑĤÐ¸
ĠÐ³ Ñĥ
Ð°Ð² Ð½Ð¾
ÐµÐ´ Ñĥ
ĠÐºÐ°Ðº Ð¾Ð³Ð¾
ĠÐºÐ°Ðº ÑĥÑİ
ĠÐ¾Ð± ÑĭÑĩ
ĠÑĤÐ¾ Ñĩ
ĠÐ¿ÐµÑĢ Ðµ
ĠÐ´ÑĢ ÑĥÐ·
ĠÐĶ Ð¼Ð¸ÑĤ
ĠÐ»Ð¸ ÑĪÑĮ
ĠÑģÐ°Ð¼ Ð¾Ð¼Ñĥ
ĠÐ³Ð¾ÑĢ ÑĮ
ĠÐķ ÑīÐµ
ĠÐķ Ð¼Ñĥ
Ð½Ñı Ñı
ĠÐ·Ð² Ñĥ
ĠÑģÐ²ÐµÑĤ Ðµ
ĠÑħÐ¾ÑĢÐ¾ÑĪ Ð¸Ð¹
ĠÐ²Ð¾ Ð¾Ð±ÑīÐµ
ĠÐ¾ÑģÑĤ Ð°Ð»ÑģÑı
ÑĤÑĢ Ð¸
ĠÐ´ÑĥÑĪ Ð¸
ĠÐŀÑĤ ÐµÑĨ
ĠÑģÐ¼Ðµ ÑıÐ»Ð¸ÑģÑĮ
ĠÑģÑĤÐµÐ½ Ñĭ
ĠÐ¼ÑĥÐ¶ Ñĩ
ĠÐ³Ð»ÑıÐ´ Ñı
ĠÐŁÐ¾Ñģ Ð»Ðµ
ĠÐ¿Ð»Ð°Ðº Ð°ÑĤÑĮ
ĠÑģÑĤÑĢÐ°Ñħ Ð°
ĠÐ¶ÑĥÑĢ Ð½
ĠÐ¾ÑĤÐ¿ ÑĢÐ°Ð²
ĠÐ²Ð¾ÑģÐ¿Ð¾Ð¼Ð¸Ð½Ð° Ð½Ð¸Ñı
ĠÐ²ÑģÐ¿Ð¾Ð¼Ð½ Ð¸Ð»
ĠÐ¾Ñī ÑĥÑī
ĠÐ¾ÑģÐ² ÐµÑī
ĠÐ²Ð½ÐµÐ·Ð°Ð¿ Ð½Ð¾
ĠÐ´Ð¾Ð³ Ð°Ð´
ĠÐ¢Ð¾Ð»Ð¿ÐµÐ½ Ð½Ð¸ÐºÐ¾Ð²
Ð½Ð°Ðº Ð¾
Ñı Ð½ÑĮ
Ñĭ ÑģÐº
ÑĮ Ð¸
ĠÑģ Ð¾Ð´
ĠÑģ Ð°Ð¿
ĠÐ½ ÐµÐº
ĠÐº ÑĥÐ»
ĠÐ´ ÑĭÑħ
Ð¾ÑĢ Ñĭ
ÑĨ Ð¾Ð²
Ð¾Ð³ Ð¸
ĠÐ¶ Ð°Ð´
Ð°ÑĢ Ð¾Ð²
ÑĥÐ¶ Ðµ
ĠÐĲ Ð»
ĠÐ¢ Ð¾
Ð¾Ñĩ ÑĮ
Ð¾Ñĩ ÐºÐ¸
ÐºÑĥ Ñģ
ĠÐ¿Ð¾Ðº Ð°Ð·Ð°Ð»Ð¾ÑģÑĮ
ĠÑĨ ÐµÐ½
ĠÑģÑĤÑĢ ÐµÐ¼
ĠÐ²Ð¾Ð· Ð»Ðµ
ÐµÐ½ÑĮÐº Ð°Ñı
ÐµÐ½ÑĮÐº Ð¸Ðµ
ĠÑģÐ¾Ð± ÑĢ
ĠÐ½Ð¸Ðº Ð¾Ð³Ð¾
ĠÐ¿ÑĢÐµÐ´ Ð»Ð¾Ð¶
ĠÑģÐ²ÐµÑĤ Ð°
ĠÐ·Ð°Ð¿ Ð»Ð°Ðº
ĠÐ¿Ð¾Ð· Ð´
ĠÐ´ÑĥÑĪ Ð°
ĠÐ½Ð¾Ð³ Ð°Ð¼Ð¸
ÑĭÐ» ÑĮ
ĠÐ¿Ð¾Ð¼ Ð¾Ð³
ĠÐ¸ÑģÐ¿ ÑĭÑĤ
ĠÑħÐ¾Ð»Ð¾Ð´ Ð½Ð¾
ĠÑĥÐ· Ð½Ð°Ð»
ĠÐ¿Ð°Ð»ÑĮ ÑĤÐ¾
Ð½ÑĥÑĤÑĮ ÑģÑı
ĠÐ²ÐµÑĩÐµÑĢ Ð¾Ð¼
ĠÐ¿Ð¾Ð»ÑĥÑĩ Ð¸Ð»
ĠÐ¾ÑģÑĤÐ°Ð½Ð¾Ð² Ð¸Ð»ÑģÑı
ĠÐºÐ¾Ð»Ð¾Ðº Ð¾Ð»
ĠÐ¿Ð»Ð¾Ñħ Ð¾
ĠÑģÑĩÐ°ÑģÑĤÑĮ Ðµ
ĠÑĤÐ¾ÑĢÐ³ Ð¾Ð²
? ..
ĠÑģ Ð¸Ñı
ĠÐ² Ð°Ð¼Ð¸
ÑĤÐ¾ ÑıÑĤÐµÐ»ÑĮ
ĠÑĤ Ð°Ð½ÑĨ
ĠÐ¼ ÐµÑģÑı
ĠÐ· Ð²ÐµÑĢ
ĠÐ¿ÑĢ ÐµÐ·
ĠÐ½Ðµ Ñİ
Ð¾Ñģ Ð¾Ð±
Ð¾ÑĢ Ð¾Ð½
Ð¿ Ð°ÑĤ
ÑĨ ÐµÐ²
Ð½Ð° ÑĩÐµ
ĠÐ¾ÑĤ Ð±
Ð°Ð½ Ð½Ð°Ñı
ÐµÐ· Ð´Ð°
Ð¸Ðº Ð¾Ð¼
ÐµÐº Ð¸
Ð¾Ð· Ð¾Ð²
ĠÐ¡ ÑĥÐ²Ð¾ÑĢ
ĠÐ¿Ð¾Ð´ Ð»
ĠÑģÐº ÑĢÐ¸Ð¿
ĠÐºÑĢ ÐµÑģÑĤ
ÑĭÐ² Ð°ÐµÑĤÑģÑı
ĠÐ¾Ð´ Ð½Ð°Ð¶Ð´Ñĭ
Ð¾Ð²Ð° Ð½Ð¸Ðµ
ĠÐ³Ð¾Ð» Ð¾Ð´
ĠÐ¿ÑĢÐ¸ ÑģÑı
Ð¸ÑĤÐµÐ»ÑĮ Ð½Ð¾Ð¹
Ð¸ÑĤÐµÐ»ÑĮ Ð½Ð¾Ðµ
ĠÐ¿Ð¾Ðº Ð°Ð·
ĠÐ³Ð¾Ð²Ð¾ÑĢ ÑıÑĤ
ĠÐ¾Ð¿ Ð°Ñģ
ĠÐ¿ÑĢÐ¾ Ñī
ĠÐ·Ð½Ð° ÐµÑĪÑĮ
ĠÑĢÐ°ÑģÑģÐºÐ°Ð· Ð¾Ð²
ĠÐ¿Ð¾Ð· Ð²Ð¾Ð»
ĠÑģÑĤÐ¾ÑĢ Ð¾Ð¶
ĠÐ½Ð¾Ð² ÑĭÐµ
ĠÐ¿ÑĢÐ¸ÑħÐ¾Ð´ Ð¸Ð»Ð¾ÑģÑĮ
ĠÑĤÐ° Ð¸Ð½ÑģÑĤÐ²
ĠÐ¾ÑĤÑĤ ÑĥÐ´Ð°
ĠÐ¿Ð¾Ð²ÑĤÐ¾ÑĢ Ð¸Ð»
ĠÐ½ÐµÐ¿Ð¾Ð´Ð²Ð¸Ð¶ Ð½Ð¾
ĠÐ²Ð½Ð¸Ð· Ñĥ
ĠÐ»ÑİÐ±Ð¾Ð² ÑĮ
ĠÐ½Ð°ÑģÑĤ Ð¾Ð¹
ĠÐ±ÐµÑģÐº Ð¾Ð½ÐµÑĩ
Ð¼Ð¾Ð» Ð²
} ,
Ð½ Ð°Ð´
Ñĥ ÑĢÐ°
ĠÑģ Ð¸Ð½
ĠÑģ ÑĬ
ĠÐ¿ ÐµÐ»
ĠÐ² Ð¾Ð²
ĠÐº Ð°Ñģ
ĠÐº Ð²Ð°ÑĢ
Ð¾Ð² Ð°ÑĤÑĮÑģÑı
ÐµÐ½ Ðµ
ĠÑĤ ÑĥÑģÐº
ĠÐ´ Ð¾Ð½
ĠÐ´ Ð¾Ð¼Ñĥ
ĠÐ¼ Ð³
Ð°ÑĤ ÑĭÐ¹
ĠÐ½Ð° ÑĪÐµÐ»
ĠÐ½Ð° ÑģÑĤÑĥÐ¿
ĠÐ¾ÑĤ ÑĢÑĭÐ²
Ð¸Ñģ Ñģ
ĠÐĿ Ð¸Ñĩ
Ð¾Ð¶ Ð°Ð»
ĠÑĤÐ°Ðº ÑĥÑİ
ĠÐ¾Ð± Ð»
Ð¾Ð· Ð²
ĠÐŀ Ñģ
ĠÐļ Ð¾ÑĢ
Ð¸ÑĢ Ð°Ð»
ĠÐ¿ÑĢÐ¸ ÑģÑĤ
ĠÐ»ÑİÐ± Ð¾Ð¿ÑĭÑĤ
ĠÐ¿Ð¾ÑĤ Ð¾Ð»
ĠÐ½Ð°Ñĩ Ð°Ð»Ð°
ĠÐĹ Ð´
ĠÑģÐ¾Ð± Ð°ÐºÐ°
ĠÑĩÐµÐ»Ð¾Ð²ÐµÐº Ð¾Ð¼
ĠÑĤÐµÐ¿ Ð»
ĠÐ¿Ð¾Ð¿ Ð¸Ðº
ĠÐºÐ¾Ð¼Ð½Ð°ÑĤ Ñĭ
ĠÐ³Ð¾Ð´ Ñĭ
ĠÑħÐ¾Ñĩ ÐµÑĤÑģÑı
ĠÑģÐ»ÐµÐ´ ÑĥÑİÑī
ĠÐ¿Ð¾Ð½Ð¸Ð¼ Ð°Ð»
ĠÐ¿Ð¾ÑģÑĤ ÐµÐ»Ð¸
ĠÐ²ÑĭÑģÐ¾Ðº Ð¸Ð¹
ĠÐ±Ð¾ ÑıÐ»ÑģÑı
ĠÑĤÐµÐ» ÐµÐ³
ĠÐ½Ð°ÑĩÐ¸Ð½ Ð°Ð»
ĠÑıÐ· Ñĭ
ĠÑģÑİ Ð´Ð°
ĠÑħÐ» Ð¾Ð¿
ĠÐ²Ð¿ÐµÑĩÐ°ÑĤ Ð»ÐµÐ½Ð¸Ðµ
ĠÐ°Ð½Ð³ ÐµÐ»
ĠÐ¾ÑĦÐ¸ÑĨ ÐµÑĢ
ĠÐĶÐ¼Ð¸ÑĤ ÑĢÐ¸
Ð» Ð°ÑģÑĮ
ÑĢ ÐµÐ¼ÐµÐ½
ĠÐ¸ Ð½Ð°ÑĩÐµ
Ð² ÐµÐ¹
Ð² Ð°Ð½Ð¾Ð²
ĠÐ´ Ð½ÐµÐ¼
ĠÑĩ ÐµÑģÑĤ
ĠÐ¿ÑĢ Ð¾Ð¼
Ð°ÑĤ ÐµÐ»Ð¸
ĠÑĢ ÐµÑģ
ĠÐ» ÐµÑĩ
Ð¸Ð¼ ÑĭÐ¹
ÑĤÐ¾ÑĢ Ð¾Ð½
ĠÐĺ Ð²Ð°
ĠÐ¿Ð¾Ð´ Ð²
ÑĥÑİ ÑģÑı
ĠÐ¾Ð´ Ð¸Ð½Ð¾Ñĩ
ĠÐ¿ÐµÑĢ ÐµÐ±
Ð¾ÑĪ Ð»Ð¾
ĠÐ´Ð² Ð¾ÑĢ
ĠÐ¿Ð¾Ðº Ð°Ð·ÑĭÐ²
ĠÐ³Ð¾Ð²Ð¾ÑĢ Ñİ
ÑĤÐ¸ Ñı
ĠÐ±ÐµÐ· Ð´
ĠÐ±ÐµÐ· Ð½Ð°Ð´
Ð°ÑİÑī Ð¸Ñħ
Ð°ÑİÑī Ð¸Ð¹
ĠÑĥÐ³ Ð¾Ð»
ĠÐ¾ÑĤÐº ÑĢÑĭÐ²
ĠÑħÐ¾Ñĩ ÐµÑĪÑĮ
ĠÑĢÐ°Ð±Ð¾ÑĤ Ñĭ
Ð¼Ð¾ÑĤÑĢ Ñı
ĠÐ½ÐµÐ± Ð¾Ð»ÑĮÑĪ
ĠÑĢÐµÑĪ Ð¸Ð»
ĠÑĢÐµÑĪ Ð¸ÑĤÐµÐ»ÑĮÐ½Ð¾
ĠÐ¸Ð·Ð² Ð¾Ð·
ĠÐºÐ½Ð¸Ð³ Ñĥ
ÐµÐ²ÑĪ Ð¸Ð¹
ĠÑģÐ¸Ð» Ñĥ
ĠÐ¿ÑĢÐ¸ÑĪ Ð»Ð¾ÑģÑĮ
ĠÐ±Ð»Ð¸Ð· ÐºÐ¾
ĠÐºÑĢÐµÐ¿ ÐºÐ¾
ĠÐ¶ÑĥÑĢ Ð½Ð°Ð»
ĠÐ·Ð°ÑģÐ¼Ðµ ÑıÐ»ÑģÑı
ĠÐ§Ð¸ÑģÑĤÑı ÐºÐ¾Ð²
Ð½ ÐµÐ»
ÑĢ Ð¸ÑĤ
ĠÐ² ÑĢÐ°Ñĩ
ĠÐ² ÑĩÐµÑĢÐ°
Ð² Ñĭ
ĠÐº Ð°Ð·
ĠÐº Ð¾Ð¼Ñĥ
ÐµÐ½ Ð½Ð¾Ð¼
ĠÑĤ ÑĥÑĩ
ĠÑĤ ÑĥÐ¿
ĠÐ´ Ðµ
ĠÐ¼ Ð¾ÐºÑĢ
Ð°ÑĤ Ñĭ
ĠÑĢ Ð¾Ð¼
Ð°Ð· Ð¾Ð½
ÑģÐº Ð¾Ðµ
Ð¸Ð¼ Ð¾Ð¼Ñĥ
ĠÐŁ ÑĢÐ°Ð²
ĠÐ¾Ð± ÑīÐµÑģÑĤÐ²
ĠÐºÐ¾ ÑģÑĤ
ĠÐ¸Ð· ÑĥÐ¼
ĠÐ¢ Ð°Ð³Ð°Ð½ÑĢÐ¾Ð³
ĠÐľ Ð¾Ð¶
ÐµÐ¶ Ð´Ð°
Ð¸ÑĢ Ð¾Ð²
ĠÐ¿Ð¾Ð» Ð¾Ð²
Ð¸Ð¼Ð¸ ÑģÑı
ÐµÑĨ ÐºÐ¸Ð¹
ĠÐ²ÐµÑĢ Ð½ÑĥÐ»ÑģÑı
Ð»ÐµÐ½ Ð½ÑĭÐµ
ĠÐļÐ°Ðº Ð¾Ð¹
ĠÐ·Ð°Ð´ ÑĭÑħ
ĠÑģÐ»ÑĥÑĩ Ð¸Ð»Ð¾ÑģÑĮ
ĠÐ¿ÑĢÐ¸Ð² ÑĭÐº
ĠÐ¸Ð³ ÑĢÐ°
ĠÐ±ÐµÑģÑģ Ð¸Ð»ÑĮ
ĠÑģÐ´ ÐµÑĢÐ¶
ĠÐ³Ð¸Ð¼Ð½Ð°Ð· Ð¸Ð¸
Ġ18 8
ĠÐ°Ð² ÑĤÐ¾ÑĢ
ĠÑĤÐ²Ð¾ÑĢ Ñĩ
ĠÐ¿Ð¸ÑĪ ÐµÑĤ
ĠÐ¿Ð¾ÑĨ ÐµÐ»Ð¾Ð²
ĠÑģÑĤÑĭ Ð´Ð½Ð¾
Ðł ÑĥÑģ
ĠÐ¿ÑĢÐ¸ÐµÑħ Ð°Ð»
ĠÐ±Ð»ÐµÑģÑĤ ÑıÑī
ĠÐ¾ÑģÐº Ð¾ÑĢÐ±
ĠÐ¿ÑĢÐ¾Ð¸Ñģ ÑħÐ¾Ð´
ĠÑģÐ»ÑĥÑĩÐ° Ðµ
Ð¸ ÑīÐµ
ÑĢ Ðµ
Ñı Ñı
Ðº Ð°Ð¼
ĠÐ² Ð»Ð°
ĠÑĤ Ð¾Ð¿
ĠÐ¼ Ð¾ÑģÑĤ
ĠÑĩ Ð¸ÑģÑĤÐ¾
Ð¾Ð³ Ñĥ
Ð¸Ð² Ð°ÑİÑĤ
ĠÐ¶ Ð°Ð»ÑĮ
ĠÑģÑĤ ÑĥÐ¿
Ð¸Ð¼ Ð°Ñı
Ð¸Ð½ ÐºÐ¸
ĠÐºÐ°Ðº Ð¸Ñħ
ĠÐĺ Ð½
ĠÑģÐ² Ð¸ÑģÑĤ
ĠÐ²Ñĭ Ð²
ĠÐ¾Ð± Ñģ
ĠÐ¿Ð¾Ð´ Ð¾Ð±
Ð°Ð»ÑĮ Ð½ÑĭÐµ
ĠÐ»Ð¸ ÑģÑĤ
Ð¸Ð± Ð¾
ĠÐ»Ð¸ÑĨ Ñĥ
Ð°Ð²ÑĪ Ð¸Ñħ
ĠÑģÐ¾Ð± Ð°Ðº
ĠÑĢÐ°ÑģÑģÐºÐ°Ð· Ñĭ
ĠÐĿÐ° ÑģÑĤ
ĠÐ¶Ð¸Ð·Ð½ÑĮ Ñİ
ĠÐ¿Ð¾Ð¼ Ð¾Ñī
ĠÐ¼Ð°Ð»ÐµÐ½ÑĮÐº Ð°Ñı
ĠÐ²ÑģÑı ÐºÐ¸Ð¹
ÑİÑī Ð¸Ð¹
ĠÐ»ÐµÐ¶ Ð°Ð»Ð°
ĠÑģÐ»ÑĭÑĪ Ð°Ð»
ĠÐ²Ð¼ ÐµÑģÑĤÐ¾
ĠÐ³Ð»ÑıÐ´ ÐµÐ»
Ð¼Ñĭ ÑģÐ»
ĠÐ´ÐµÑģÑı ÑĤÑĮ
ĠÐ¿Ð°Ð»ÑĮÑĨ Ð°Ð¼Ð¸
ĠÐĵÐ¾ÑĢ ÑĮ
ĠÑģÐ¿ÑĢÐ¾Ñģ Ð¸Ð»Ð°
ĠÐ½ÐµÐ¿Ð¾Ð½ ÑıÑĤ
ĠÐ¨Ð°ÑĢÑĭÐ³ Ð¸Ð½
ĠÐ·Ð¾Ð» Ð¾ÑĤ
ĠÑĨÐµÑĢÐºÐ² Ð¸
ĠÐ¸Ð·Ð²Ð¾Ð· ÑĩÐ¸Ðº
Ñģ Ð¸ÑĤ
Ð» Ð°Ð·
Ñı Ð²ÑĪ
ĠÐ½ ÐµÐ»Ð¾Ð²
Ðº Ð½ÑĥÐ»
Ð² ÑĥÑĩ
ĠÐº Ð°ÑĤ
ĠÑĤ ÐµÑģ
ĠÑĤ ÐµÐ½ÑĮ
ĠÑĤ ÐµÐ»Ð°
ĠÐ¼ ÑĢÐ°Ñĩ
ĠÐ· ÐµÑĢÐº
ĠÐ¿ÑĢ Ð¸ÑĢ
ĠÐ½Ðµ ÑĥÐ´
ĠÑĢ Ð°Ð½
Ð½Ð¸ Ð²ÐµÑĢ
ĠÑĥ Ð½Ð¸Ð²ÐµÑĢ
Ð¾ÑĤ Ð½Ð¾
Ð°Ð½ Ð½Ð¾Ð¹
ÐµÐ² ÐµÐ»
Ð¸Ðº Ðµ
ĠÑħ ÑĥÐ¶Ðµ
Ð¸Ð´ Ð½Ð¾
ĠÐ¾Ð± Ð¾
ĠÐ¡ Ð°Ð·Ð¾Ð½
ÐµÐ½ÑĮ ÐºÐ°
ĠÐ¿Ð¾Ð´ Ð¿
ĠÐ¸Ð· Ð¼ÐµÐ½
ĠÐ¿ÐµÑĢ Ð¸
ÐµÑģÑĤ ÑĢ
ĠÑģÐ¿ Ð°Ð»
ĠÑģÐ¿ Ð°Ñģ
ĠÐ¿Ð¾Ð» Ð¾Ñģ
ĠÐ³Ð¾Ð²Ð¾ÑĢ Ð¸Ð»Ð°
ĠÑģÑĤÑĢÐ° ÑģÑĤ
ĠÐ·Ð½Ð° ÐµÑĤÐµ
ĠÐ½Ð°Ð¿ ÐµÑĩÐ°ÑĤ
Ð°ÑĪ Ð°
ĠÑģÐ¾ Ð¾Ð±Ñī
ÐµÑģÑĤÐ² Ðµ
ĠÑģÐ¼Ð¾ÑĤÑĢ ÐµÐ»Ð¸
ĠÐ±ÐµÐ» ÑĭÐµ
ĠÐ½ÐµÐ² ÐµÐ´Ð¾Ð¼
ĠÐ²ÐµÐ» Ð¸Ñĩ
ĠÑĢÐ°Ð±Ð¾ÑĤ Ñĥ
ĠÑĢÐ°Ð·Ð³ Ð¾Ð²Ð°ÑĢ
ĠÐ´Ð¾Ð»Ð¶ Ð½Ð¾
ĠÑĢÐ°Ð² Ð½Ð¾
ĠÑģÐºÐ¾ÑĢ ÐµÐµ
ĠÑĥÑĤ Ð¾Ð¼
ĠÑĥÑģÐ¿ Ð¾ÐºÐ¾
ĠÐ¿Ð¸ÑģÑĮ Ð¼Ð°
ĠÐ¾ÑĤÐºÑĢÑĭ ÑĤ
ĠÐ¾Ð±ÑĢÐ°Ð· Ð¾Ð¼
ĠÐ¼ÐµÑģÑĤ Ð°
Ð²Ð¸Ð´ Ð¸Ð¼Ð¾Ð¼Ñĥ
ĠÐļÐ°ÑĩÐµÑĢ Ð¸Ð½
) .
1 4
ÑĤ ÐµÑģÑĮ
Ð» ÐµÐ¶
ĠÐ² Ð¸Ð¶Ñĥ
ÐµÐ½ Ð¾Ðº
ÐµÑĢ ÑĭÐ²
ĠÐ¼ ÐµÐ½ÑĮ
ĠÑĩ Ð°ÑģÑĤ
Ð¸ÑĤ ÐµÑģÑĮ
ĠÑĥ ÑģÑĤÑĢÐ¾
ĠÐ» ÐµÐ½
ÑĨ Ð¸
ĠÐ¶ Ð¸Ð»Ð¸
ÑģÐº Ð¸
ÐµÐ² ÑĭÑĢ
ĠÑģÐ¼ ÐµÐ»
ĠÑģÐ°Ð¼ ÑĭÑħ
ĠÐ´ÑĢÑĥÐ³ Ð¾Ð³Ð¾
ĠÐĳ Ð°Ð±
ĠÐ±ÐµÐ· Ð¼Ð¾Ð»Ð²
ÐµÐ½Ð¸Ñı Ñħ
Ð°Ð²ÑĪ ÐµÐ³Ð¾
ĠÐºÐ¾Ð½ ÑĨÐ°
ĠÐ¿ÑĢÐµÐ´ Ð¿
Ð¸Ð²ÑĪ Ð¸Ð¹ÑģÑı
ĠÐ½ÐµÐ² Ð¸Ð´
ĠÐ¿Ð¾Ð¼ ÐµÑī
ĠÐ¼Ð°Ð»ÐµÐ½ÑĮÐº Ð¸Ðµ
ĠÐ¿Ð¾Ð³ Ð¾Ð²Ð¾ÑĢ
ĠÐºÐ½ Ð¸Ð¶
ĠÐ²Ð¾Ð´ ÐºÐ¸
ĠÐ²ÑģÐµÐ¼ Ð¸
ĠÐ´Ð¾ÐºÑĤÐ¾ÑĢ Ð°
ĠÐ¨ ÐµÐ²ÑĭÑĢ
ĠÐºÐ¾Ð¼ Ð¿
ĠÑģÑĤÐ¾Ñı Ð»Ð¸
ĠÑģÐµÑĢÑĮÐµÐ· Ð½Ð¾
ĠÐ½Ð°Ð¿Ð¸Ñģ Ð°Ð»
ĠÑĢÐµÑĩ Ð¸
ĠÐ²Ð¾Ð·Ð¼ Ð¾Ð¶
ĠÑģÐ²Ð¸Ð´ ÐµÑĤÐµÐ»ÑĮ
ĠÐ¼ÐµÐ½ ÐµÐµ
ĠÐŀÑĩ ÐµÐ½ÑĮ
ĠÐ½ÐµÐ´Ð¾ ÑĥÐ¼
ĠÐºÐ²Ð°ÑĢ ÑĤÐ¸ÑĢ
ĠÐĶÐ¼Ð¸ÑĤÑĢÐ¸ ÐµÐ²Ð¸Ñĩ
ĠÑĥÐ½Ð¸Ð²ÐµÑĢ ÑģÐ¸ÑĤ
ÑĢ ÐµÑĤ
ĠÑģ Ð¾Ð¼Ð½
ĠÑģ Ð¾Ñħ
ĠÐº Ð°
Ð¾Ð² ÑĥÑİ
ĠÐ´ Ð°ÑĤÑĮ
ĠÐ· Ð°Ð±Ð¾ÑĤ
Ð°Ð¼ ÐµÐ½
ĠÐ» Ð¾Ð¼
ĠÐ» Ð°Ð´
ĠÐ¶ Ð´Ð°Ð»
ĠÑģÑĤ Ð¸Ñħ
ĠÐŁ Ð¾Ð¹Ð´
ĠÐ²Ñģ ÐµÐ¼Ñĥ
Ð»Ñı Ñı
ĠÐĲ Ð±
ĠÐ¾Ð± ÐµÑĢ
Ð¾Ð· ÑĢ
ÐµÐ¿ ÐµÐ½Ð½Ð¾
ĠÑģÐ» Ð¾Ð¶
ĠÐ¿Ð¾Ð´ Ð´
ĠÐ§ ÐµÑĢÑĤ
Ð¾Ñĩ ÐµÐº
ĠÐĶ Ð»Ñı
Ð°Ñİ ÑģÑĮ
ĠÐ´Ð² Ð°Ð´ÑĨÐ°ÑĤÑĮ
ĠÐ´ÑĢÑĥÐ³ ÑĥÑİ
ĠÐ¾Ð¿ ÑĢÐ°Ð²
ĠÐ¸Ð¼ Ñı
ĠÐºÐ¾Ð½ ÑĨÐµ
ĠÑģÐ¼Ð¾ÑĤÑĢ Ð¸ÑĤ
Ð»ÐµÐ´ ÑģÑĤÐ²
ĠÑģÐµÑĢÐ´ Ð¸ÑĤÐ¾
ĠÐ²Ð¾Ð´ Ñĭ
ĠÐ´Ð¾Ð»Ð¶ Ð½Ñĭ
ĠÐ¼Ð¾ÑĢ Ðµ
ĠÑĨÐµÐ» ÑĭÐ¹
ĠÐ¿ÑĢÐ¸Ñģ Ð»
ĠÑĩÐ¸ÑĤ Ð°ÑĤÑĮ
ĠÐ¿Ð¾Ð´Ð½ ÑıÐ»
ĠÑĢÐµÐ´ Ð°Ðº
ĠÐ±Ð¾Ð»ÐµÐ· Ð½Ð¸
ĠÐ¿ÑĢÐ¸Ð³ Ð»Ð°ÑĪ
Ð¾Ð·Ð¼ Ð¾Ð¶Ð½Ð¾
ĠÐĲÐ½Ð´ÑĢÐµ Ð¸Ñĩ
ĠÐĿÐ¸Ñĩ ÐµÐ³Ð¾
Ð» Ð¸Ð¶
Ñĥ ÑģÑĮ
Ñĥ ÐµÑĤÑģÑı
ĠÐ¿ Ð¸ÑĤÑĮ
ĠÐ² Ð¸Ð½
Ð¾Ð² Ðµ
ĠÐµ Ð¶
ĠÐ½Ð° Ñħ
Ð¾ÑĢ Ð¾Ð´
ĠÐ» ÐµÐº
Ð¾ÑĤ Ð¸Ð²
ÐµÐ² Ð°ÑĤÑĮ
ÐµÐ· Ð´Ðµ
Ð»Ñı ÐµÑĤ
ĠÑģÐº ÑĢÐ¾Ð¼
ÑĥÑĤ ÑģÑı
ĠÐļ ÑĢ
ĠÑĢÐ°Ð· Ð¼
ÐµÑĪ Ð½Ð¾
ĠÐ¿ÐµÑĢ ÐµÑħ
ĠÐĶ ÑĢÑĥÐ³
Ð½ÑĥÐ» Ð¸ÑģÑĮ
ĠÑĤÑĢ Ð¾Ð³
ĠÐ´ÑĢÑĥÐ³ Ñĥ
Ð¸Ð³ ÑĢ
... "
ĠÐ§ÐµÑħÐ¾Ð² Ðµ
ĠÐ±ÐµÑģ ÐµÐ´
ĠÑģÑĤÐ°ÑĢ Ð¸Ðº
Ð¸Ñı Ñħ
Ð»ÐµÐ½ Ð°
Ð»ÐµÐ½ Ð½ÑĭÐ¹
Ð¸Ð¿ Ð¿
ĠÐ±Ð¾Ð»ÑĮÑĪ Ð¸Ð¼
ĠÐ·Ð°Ð¼ ÐµÑĢ
ĠÐ±Ð¾Ð» Ð¸
ĠÑĢÐ°Ð´ Ð¾ÑģÑĤÑĮ
ĠÐ½ÐµÐ´ Ð¾ÑģÑĤ
ĠÑģÑĤÐ¾Ð» Ð°
ĠÑĥÐ»ÑĭÐ± Ð°Ð»ÑģÑı
ĠÑĥÐ¿ Ð¾ÑĢ
ĠÐ·Ð°Ð± Ñĭ
ĠÑģÐµÑĢÐ´ ÑĨÐ°
ĠÑĥÐ± Ð¸Ð¹
ĠÐ·ÐµÐ¼ Ð»Ñı
ĠÐ²ÑģÐ¿ Ð¾Ð¼Ð¸Ð½
ĠÐ¿Ð¾ÑģÐ»ÐµÐ´ Ð½Ð¸Ð¹
ĠÐ¼Ð¸Ð» ÑĭÐ¹
ĠÐ¼Ð¸Ð» ÐµÐ½ÑĮÐºÐ¸Ð¹
ĠÐ¿ÑĢÐ¸Ð½ Ð°Ð´
ĠÑĥÐ»Ð¸ ÑĨÑĭ
ĠÑģÐ¾Ñģ ÑĤÐ¾Ñı
ĠÑģÐ°Ð´ Ñĥ
ĠÐ¾ÑĤÐºÑĢÑĭ Ð»
ĠÐ²Ð½Ð¸Ð¼ Ð°ÑĤÐµÐ»ÑĮÐ½Ð¾
ĠÐ¤ Ð¸Ð»
ĠÐ»ÐµÑģ Ñĥ
ĠÐ¿Ð¾Ð²ÐµÑĢ Ñħ
Ð§ ÐµÑħÐ¾Ð²
ĠÐ¼Ð¾Ð»ÑĩÐ°Ð» Ð¸Ð²
ĠÑģÑĭ Ð½
ĠÐĿÐ°Ð´ Ð¾
Ð½Ð¸ÑĨ ÐµÐ¹
ĠÐŁÐµÑĤÐµÑĢÐ±ÑĥÑĢÐ³ Ðµ
ĠÐ±Ð»Ð°Ð³Ð¾ ÑĢÐ¾Ð´
ĠÐ¿Ð¾ÑĨ ÐµÐ»
ĠÑħÐ¾Ð·Ñı Ð¹
ĠÑģÐ²ÑıÑĤ Ð¾Ð¹
ĠÑĨÐµÑĢÐºÐ¾Ð² ÑĮ
ĠÐ¿ÑĢÐµÐ´Ñģ ÐµÐ´
ĠÐ±Ð»Ð¸Ð¶ Ðµ
ĠÐĵÐ¾ÑģÐ¿Ð¾Ð´ Ð¸
ĠÐľÐ¾Ð¶ ÐµÑĤ
Ġ ÑĥÐ¹
Ġ ÑİÐ¼
Ð° ÑĤÐ¾
Ð» Ð°ÑĤ
Ð» ÐµÐ½Ð¸Ð¸
ÑĢ Ð¸Ð¹
Ñĭ ÑģÐ»
ĠÑģ ÑħÐ¾Ð´
ĠÐ¿ ÐµÑĤ
ĠÐ¿ Ð¸Ð»
ĠÐ¿ Ð¾Ð²Ð¾ÑĢ
ĠÐ² Ð¸Ð·
ĠÐ² ÑģÑĤÐ°Ð²
ĠÐ² Ð¾Ð´Ð°
ĠÐ² Ð¾ÑĪÐµÐ»
Ð² Ð°ÑĤÑĮ
Ð´ ÐµÑĤ
ÑĪ ÐµÐ´
ĠÐ± Ñĥ
ÐµÐ» ÐµÐ¹
ÐµÑĢ Ð¾
Ð¸Ð» Ñı
ĠÐ½Ðµ Ñħ
ĠÑĢ Ð¾Ñģ
Ð¸ÑĤ ÑĭÐ¹
ĠÐ½Ð° Ð¸Ð²
Ð½Ð¸ ÐºÑĥ
ĠÐ» Ð¾Ð´
Ð¾Ð½ Ð°
Ð°Ð½ Ð½ÑĭÐ¼
ÑģÐº Ð¾Ð¼Ñĥ
ĠÐŁ Ð¾Ðº
ĠÐŁ Ð¾Ð¿
ÑĥÐ¶ Ð½Ð¾
ĠÐ²Ñĭ ÑģÑĤÑĥÐ¿
ÐµÐ»ÑĮ Ð½Ð¾
ĠÐ¾Ð± ÑĢ
ĠÐ¡ ÑĤÑĢ
ĠÑģÐ» Ð°Ð´
ĠÐ¿Ð¾Ð´ Ð±
ĠÐ·Ð° ÑĪ
ÑĥÑĤ ÑĭÐ»
ĠÐļ Ð°ÑĢÐ°
ĠÐļ Ð¾Ð»Ð¾Ñģ
ĠÐ³Ð» Ð°Ð´
ĠÑģÐ°Ð¼ Ð¾
ĠÐ²Ð¸Ð´ ÐµÐ»Ð¸
ĠÐ²Ð· Ð´ÑĢ
ĠÑģÐ¾Ð² ÑĢÐµÐ¼ÐµÐ½
ĠÐ´ÑĥÐ¼ Ð°Ð»Ð°
ĠÐ¿Ð¾Ð¿ ÑĢÐ°Ð²
ĠÑģÑĤÐ¾Ð» Ðµ
ĠÐ½Ð¾Ð² ÑĭÐ¹
ĠÑĥÐ± ÐµÐ´
ĠÑĤÐµ Ð°ÑĤ
ÐµÐ½ÑĤ Ð¸Ð¹
ĠÐ¿ÐµÑĩ Ð°ÑĤ
ĠÑĥÐ· Ð½Ð°
ĠÑĥÐ¶Ð°Ñģ Ð½Ð¾
ĠÐ¿Ð¾ÑģÐ»ÐµÐ´ Ð½Ð¸Ðµ
ĠÐ³ÑĢÐ¾Ð¼ Ð°Ð´
ĠÐ¿Ð°Ð»ÑĮ ÑĨÑĭ
ĠÐŁÐ¾Ñģ Ð»ÑĥÑĪ
ĠÐ¿ÑĢÐ¸ÑĪ Ð»Ð°
ĠÐ¿ÑĢÐ¸Ðº Ð°Ð·
ĠÐ¾Ð¶ Ð¸Ð´
ĠÐ´ÑĮÑı Ð²Ð¾Ð»
ĠÐºÑĢÑĥÐ³ Ð¾Ð¼
ĠÐ±Ð¾Ð³ Ð°ÑĤ
ĠÑģÐºÑĥÑĩ Ð½Ð¾
ĠÑĥÑģÐ» ÑĭÑĪ
ĠÑĢÐµÐ² Ð¾Ð»ÑĮ
ĠÐ´Ð¾Ñģ ÑĤÐ¾
ĠÐ½Ð°Ð¹ ÑĤÐ¸
ĠÐĽÐ°Ð²ÑĢ ÐµÐ½ÑĤÐ¸Ð¹
ĠÐ´ÐµÐ½ ÐµÐ³
ĠÐĳÐ°ÑĢÐ³Ð°Ð¼ Ð¾ÑĤ
ĠÐ²Ð²ÐµÑĢ Ñħ
ĠÐ·Ð°ÐºÑĢÐ¸Ñĩ Ð°Ð»
Ð Ĺ
ÑĤ Ð¾Ð¶
Ð¸ ÑĦ
Ð» ÐµÐ¿
ĠÑģ Ð³
ĠÑģ Ð¸Ñħ
ĠÑģ ÑĥÐ´Ð°
ĠÐ² Ð¸Ð½Ð°
Ð¾Ð² Ð½Ð°
ĠÑĤ Ð°Ð½
ĠÐ´ Ð°Ð¼
ĠÐ¼ Ð¾Ð¼
Ñİ Ñĩ
ÐµÑĤ Ð½Ð¾
Ð°ÑĤ Ðµ
ĠÐ³ ÑĢÐ°
Ð¾ÑĢ Ð¸ÑģÑĤ
ÑĨ Ð¾Ð¼
ĠÐ¾ÑĤ ÑĢÐ°Ð¶
ĠÑģÑĤ Ð°Ð²
ĠÐŁ Ð¾ÑĤ
ĠÐ²Ñĭ ÑĤ
ĠÐ²Ñĭ ÑĪÐµ
Ð»Ñı Ð¿
Ð»Ñı ÐµÑĤÑģÑı
Ð¾Ð· Ð´
ĠÐŀ Ð¿
ĠÐľ Ð¾Ð»Ñĩ
ĠÐ¾Ð´ ÐµÑĤ
ĠÑĪ ÐµÑģÑĤÑĮ
ĠÐ¿ÐµÑĢ ÐµÐº
ÐµÐ½Ð½Ð¾ ÑģÑĤÐ¸
Ð¾Ð²Ð° Ð½Ð¸Ñı
Ð°Ð¹ ÐºÐ¾
ĠÐ¿Ð¾Ñģ Ð¿
ĠÐ¿Ð¾Ñģ ÐµÑī
ĠÑĢÑĥ ÐºÐ¾Ñİ
ĠÐ¿Ð» Ð¾ÑīÐ°Ð´
ĠÐ²Ð¸Ð´ Ñĥ
ÑĤÐ¸ ÑģÑĤ
ĠÑĦ Ð°Ð¼
ĠÐ¼Ð¾Ð³ ÑĥÑĤ
ĠÐ¿ÑĢÐ¾ Ñħ
Ð°Ð²ÑĪ Ð¸ÑģÑĮ
ĠÑĥÐ¼ Ð¸ÑĢÐ°
ĠÐ»ÑİÐ´ ÑıÐ¼
ĠÐ»ÑİÐ´ ÑĮÐ¼Ð¸
ĠÐ¿Ð¾Ñĩ ÑĤ
ĠÐ±ÑĢ Ð°ÑĤÑĮ
Ð°ÑİÑī Ð¸Ð¼
Ð°ÑİÑī Ð¸Ðµ
ĠÑĥÐ»ÑĭÐ± ÐºÐ¾Ð¹
ĠÑĥÐ¿ Ð°Ð»
ĠÐ½ÐµÐ± Ð°
ĠÐ´Ð¾Ð»Ð¶ Ð½Ð°
Ð°Ð½ÑĮ ÐºÐ°
ĠÐŀÐ´ Ð½Ð°Ð¶Ð´Ñĭ
ĠÐ¿ÑĢÐ¸Ð½ ÐµÑģ
ĠÐ¿ÑĢÐ¸Ñģ ÑĥÑĤÑģÑĤÐ²
ĠÐ¼Ð½ Ð¾Ð¶ÐµÑģÑĤÐ²
ĠÐºÑĢÐ¾Ð² ÑĮ
ĠÐķÐ³Ð¾ÑĢÐ¾Ð²Ð¸Ñĩ Ð°
ĠÐ±ÑĢÐ°ÑĤ Ð°
ĠÐ²Ð¾ÑĢ Ð¾ÑĤ
ĠÐ¿Ð»Ð° ÑĩÐµÑĤ
ĠÐ´Ð²Ð¸Ð¶ ÐµÐ½Ð¸Ñı
ĠÑĤÐ²ÐµÑĢÐ´ Ð¾
ĠÐ´ÐµÑģÑı ÑĤ
Ġ18 9
ĠÐ¿Ð¾ÑģÐ¼Ð¾ÑĤÑĢ ÐµÐ»
ĠÐºÐ¾Ð»Ð¾Ðº Ð¾Ð»ÑĮ
ĠÐ½ÐµÐ¾Ð±ÑĭÐºÐ½Ð¾Ð² ÐµÐ½Ð½Ð¾
ĠÐ¾ÑģÑĤÐ°Ð½ Ð°Ð²Ð»Ð¸Ð²
ĠÐ±ÑĥÐ¼Ð°Ð³ Ð¸
ĠÐ·Ð°Ñī Ð¸ÑĤ
ĠÐŁÐ¾Ð¹Ð´ ÐµÐ¼
ĠÑĢÐµÐ²Ð¾Ð»ÑĮ Ð²ÐµÑĢ
Ð ¥
Ðµ Ð¾Ð´
Ð¸ ÑĪÐµ
Ð½ ÐµÐ¼Ñĥ
Ð» ÐµÐ½Ð¸ÐµÐ¼
ÑĢ Ð¸Ð½
ÑĮ ÐµÐ²
ĠÑģ Ð¾Ð¿
ĠÐ¿ ÑĭÑĤ
ĠÐ½ Ð¾Ð¼ÐµÑĢ
ĠÐ² ÐµÐ¶
ĠÐº ÑĥÑģ
ĠÐº Ð°Ð·Ð°Ð»ÑģÑı
ĠÐ¼ Ð°Ð¼
ĠÐ³ Ð¾Ð½
Ð¾Ñģ Ð»ÐµÐ´ÑģÑĤÐ²
ĠÑģÑĤ ÑĥÐº
Ð¾Ðº Ð¸
ĠÐŁ ÑĥÑģÑĤÑĮ
ĠÐĴ Ð»Ð°Ð´
ÑģÑĤÐ² Ñĥ
ĠÐ° Ð´
Ð»Ñı ÑĤ
ĠÐ¾Ð± Ð½
ĠÐ¾Ð± Ð¼Ð°Ð½
ÐµÐ½ÑĮ ÐºÐ¾Ðµ
ĠÑĢÐ°Ð· Ð°
ĠÑĢÐ°Ð· ÑĥÐ¼
ĠÑĢÐ°Ð· Ð´ÑĢ
ĠÑģÐ¿ ÑĢ
ĠÑģÐ¿ ÐµÑĢÐ²Ð°
ĠÐ¿Ð¾Ð» Ðµ
ĠÑģÐ°Ð¼ ÑĭÐ¼
ĠÐ²Ð¸Ð´ Ð¸Ð¼Ð¾
ĠÑĦ ÑĢÐ°Ð·
ĠÐĽ ÐµÐ¹
ĠÐ£ Ð¶
ĠÑģÑĤÐ°ÑĢ ÑĭÐ¹
ĠÑģÑĤÐ°ÑĢ Ð°Ð»ÑģÑı
ĠÐł Ð°Ñģ
ĠÐł Ð°Ð¹ÐºÐ¾
ĠÐŁÑĢ Ð¸ÑĪ
ĠÐ´ÐµÐ» Ðµ
ĠÑĩÐ°Ñģ Ñĭ
ĠÑĥÐ³ Ð»Ñĥ
ĠÑĤÐ¾Ð» Ðº
ĠÐ³Ð»ÑĥÐ± Ð¾ÐºÐ¾
ÐµÑĢÐ° ÑĤÐ¾ÑĢ
ĠÐ¿ÑĢÐ¾ÑģÑĤ ÑĢÐ°Ð½
ĠÐ±Ð¾ÑĢ ÑĮ
ĠÑģÐ¾Ð· Ð´
ĠÑħÑĥÐ´ Ð¾Ð¶ÐµÑģÑĤÐ²
ÐµÐ·Ð¶ Ð°Ð»
ĠÑĩÐ° ÑģÑĤÐ¸
ĠÐ¼Ð½Ð¾Ð³ Ð¸Ðµ
ĠÐ¿ÑĢÐµÐ¶ Ð´Ðµ
ĠÐĿÐµÐ¼ Ð¾Ð²
ĠÐºÐ°Ð·Ð°Ð» Ð¸ÑģÑĮ
ĠÑĪÐ¿ Ð¸Ð¾Ð½
ĠÐĿÐ¸ÐºÐ¾Ð»Ð° ÐµÐ²Ð¸Ñĩ
ĠÐľÐ¸ÑħÐ°Ð¹ Ð»
ĠÑĢÑĥÐ±Ð» ÐµÐ¹
ĠÐĺÐ½ Ð¾Ð³Ð´Ð°
ĠÐ¼ÐµÐ½ÑĮ ÑĪÐµ
Ð¾ÑģÐ»ÐµÐ´ÑģÑĤÐ² Ð¸Ð¸
Ġ ÑİÐ±
ĠÐ½ Ñĥ
ĠÐ½ Ð°ÑĤ
ĠÐ² Ð¸Ð½Ð¾Ð²
ĠÐ² Ð°ÑĪÐµ
ĠÐº Ð»Ð°Ð´
ÑĪ Ð¸Ð¼
ÑĪ Ð°Ñı
ĠÐµ ÑģÑĤ
Ð¾ÑĢ Ð¾Ð¼
Ð°Ð² Ð°Ð»Ð¸
Ð± Ð¾
Ð· Ð°Ð´Ð¸
ÐµÐ´ Ð¸Ð½
Ð°Ð½ Ð½Ð¾Ð³Ð¾
ĠÑģÑĤ Ð°ÑĤÑĮ
Ð¸Ð¼ ÑĭÐ¼
ÐµÑģ ÐµÐ»
Ð¸Ðº Ñĥ
ÐµÑħ Ð°Ð»Ð¸
ĠÐŀ ÑģÑĤ
ĠÐ³ÑĢ Ð¾Ð±
ÑĪÐµ ÐµÑģÑı
ĠÐ¿Ð¾Ðº Ð°Ð·Ð°Ð»
ĠÐ²Ð¸Ð´ Ðµ
ĠÑĩÐµÑĢ Ð½Ð°Ñı
ÑĢÐ°Ð² ÐµÐ´
ĠÐ½Ð°Ð¿ Ð¾Ð»Ð½
ĠÐ²ÐµÑĢ Ñħ
ĠÐ·Ð°Ð¿ Ð¸Ñģ
ĠÐ½Ð°Ñģ Ð¼ÐµÑĪ
ĠÐ½ÐµÐ´ ÐµÐ»Ñİ
ĠÑģÐ¸Ð´ ÐµÐ»Ð¸
Ġ1 90
ĠÑĢÐ°ÑģÑģ Ð¼Ð°ÑĤÑĢ
ĠÐ·Ð½Ð°ÐºÐ¾Ð¼ ÑĭÑħ
ĠÐ¿Ð¾ÑģÑĤ ÐµÐ»ÑĮ
ĠÑģÑĤÐ°Ð½Ð¾Ð² Ð¸ÑĤÑģÑı
ĠÐĲÐ»ÐµÐº ÑģÐµ
ĠÐ½Ð°Ð² ÑģÐµÐ³Ð´Ð°
ĠÑĥÐ»Ð¸ ÑĨÑĥ
ĠÐ¾ÑĤÑĩ ÐµÐ³Ð¾
ĠÐµÐ´ Ð¸Ð½ÑģÑĤÐ²
ĠÐ´Ð¾ÑĢÐ¾Ð³ Ðµ
ĠÐ¿ÑĢÐµÐ´ÑģÑĤÐ°Ð² Ð»ÑıÐ»
ĠÐ²Ð½Ð¸Ð¼ Ð°Ð½Ð¸Ðµ
ĠÐ¿ÑĢÐ¸Ð· Ð½
ĠÐ½Ð°Ð± Ð»Ñİ
ĠÐºÐ°Ð¿ Ð¸ÑĤÐ°Ð½
ĠÐ²Ð¾Ð»Ð¾Ñģ Ñĭ
ĠÐ³Ð¸Ð¼Ð½Ð°Ð· Ð¸ÑģÑĤ
ĠÐ»Ð¾Ð¶ ÑĮ
ĠÐ½Ð°ÑĢ Ð¾ÑĩÐ½Ð¾
Ð¸Ð½Ð¾Ñĩ ÐºÐ°
ĠÐ±Ð¾Ð»ÐµÐ· Ð½ÑĮ
ĠÑĤÐµÐ¼Ð½Ð¾ ÑĤÐµ
ĠÐ¿ÑĥÑĤ Ð¸
ĠÐ¿ÑĢÐ¸Ð¿ Ð¾Ð´
ĠÐ¾ÑĤÑĩÐ°Ñı Ð½
ĠÐ²ÐµÑĤ ÐµÑĢ
ĠÐ¶ÐµÑģÑĤ Ð¾Ðº
ĠÐ¿ÑĢÐ¾Ð½ Ð¸Ðº
ĠÑĢÑĥÐº Ð¾Ð¿
ĠÐ¿Ð¾ÐºÐ¾ÑĢ Ð½Ð¾
ĠÐ½Ð°Ð¿ÑĢ ÑıÐ¶
ĠÑĢÐµÐ±ÐµÐ½ ÐºÐ°
ĠÑĥÐ¿ÑĢ ÐµÐº
ĠÐ»Ð°ÑģÐºÐ¾Ð² Ð¾
ĠÐĿÐ¾Ð² Ð¸ÐºÐ¾Ð²
ĠÐ¥Ð¾ÑĢÐ¾ÑĪ Ð¾
ĠÐļÑĥÐºÑĥÑĪ ÐºÐ¸Ð½
ĠÐŁÐµÑĤÑĮ ÐºÐ°
ĠÑģÐµÐº ÑĥÐ½
ĠÐ½ÐµÐ»Ð¾Ð² ÐºÐ¾
ĠÐļÐ°ÑĢÐ° ÑĥÐ»
ĠÐļÐ¾Ð»Ð¾Ñģ Ð¾Ð²
ĠÑĢÐ°Ð·Ð´ÑĢ Ð°Ð¶
ĠÐľÐ¸ÑħÐ°Ð¹Ð» Ð¾Ð²Ð¸Ñĩ
3 0
ĠÐ ¦
Ñģ Ñİ
Ð» ÑĭÐµ
ĠÑģ Ð¸Ð»Ð°
ĠÐ¸ Ñī
ÑĪ ÐµÐ¼
ĠÐ´ ÑĭÐ¼
Ð¾Ð» Ð¸
ĠÑĩ ÐµÑħÐ¾Ð²
ĠÐ· Ð»Ð¾Ð²
ĠÐµ Ð·Ð´
Ð¾Ñģ ÐºÐ¾Ð²
ĠÑĥ ÑħÐ¾Ð´Ð¸Ð»
ÑĨ Ð°ÑĢ
Ð¾Ð½ Ð¸
Ð¾Ð½ ÑĤÐµ
ĠÐĿ Ð¸
ĠÐ¿Ð¾ ÑįÑĤ
ÐµÑģ Ð¿
ĠÑħ Ð¼ÑĥÑĢ
ĠÐ²Ñĭ ÑĢÐ°Ð·
ÐµÐº ÑĤ
ÑĢÐ° ÑĩÐ½Ð¾
ĠÐŀ Ðº
ĠÐ¿Ð¾Ð´ ÑĤ
ĠÐ¿Ð¾Ð´ Ð¾Ð·ÑĢ
ĠÐ¸Ð· Ð¼
ÑĭÐ² Ð°ÑİÑĤ
ĠÑĪ Ð»Ð°
ĠÑĪ ÐµÑİ
ĠÑĢÐ°Ñģ ÑģÐº
ĠÐ´Ð² ÑĥÐ¼
ĠÐ´ÑĢÑĥÐ³ Ð¸Ð¼
ĠÐ»ÑİÐ± ÐµÐ·
ĠÑĦ Ð¸Ð·
ĠÐ¼Ð¾Ð³ Ð¸Ð»
ĠÐ¸Ð¼ ÐµÐ½Ð¸
ĠÐ·Ð½ Ð°Ð»Ð¸
ĠÑģÐ¾Ð² ÐµÑĤ
ĠÑħÐ¾ÑĤ ÐµÐ»Ð°
Ð¸Ð²ÑĪ Ð°Ñı
ĠÐ²Ð¿ Ð¾Ð»
ÑĢÐ¸ ÑģÑĤÐ¸
Ð¸ÑĩÐµÑģÐº Ð¸Ðµ
ĠÐ½ÐµÑģ Ð¼Ð¾ÑĤÑĢÑı
ĠÑĥÑģ Ð¸Ð»
ĠÐ¾ÑĤÐ´ ÑĭÑħ
ĠÑħÐ¾Ð´ Ð¸ÑĤÑĮ
ĠÐ¼Ð¾ÑĢ Ñī
ĠÑĥÑĤ ÑĢÐ°
Ð»ÐµÑĤ ÑĢÐ¸ÑģÑĤ
ĠÐ·Ð» Ð¾Ð±
ĠÐ²Ð½Ð¸Ð¼ Ð°Ð½Ð¸Ñı
ĠÐ½ÐµÐ¶ Ð½Ð¾
ĠÐ»Ð°Ð² ÐºÐµ
ĠÑĤÐµÑĢ Ð¿
Ð¸ÑĤÐµÐ» ÐµÐ¹
ĠÐ¿ÑĢÐ°Ð·Ð´ Ð½Ð¸Ðº
ĠÑģÐ¿ÑĢÐ°ÑĪ Ð¸Ð²Ð°Ð»
ĠÐ²ÑĤÐ¾ÑĢ Ð¾Ð¹
ĠÑĨÐ²ÐµÑĤ Ñĭ
ĠÐ¿ÑĢÐ¾Ð¸Ð·Ð² ÐµÐ´
ĠÑħÐ» ÐµÐ±
ÐµÑĢÐ² ÑĭÐµ
ĠÐ´Ð¾Ð² ÐµÑĢ
ĠÑĤÐ¸ÑĪ Ð¸Ð½Ð°
ĠÐºÐ°Ð±Ð¸Ð½ ÐµÑĤ
ĠÐĲÐ» ÐµÑĪ
ĠÐ¿ÑĢÐµÐ· ÑĢ
ĠÐŁÑĢÐ°Ð² Ð´Ð°
Ð¸ Ð½Ð°Ñı
Ñı Ð±
ÑĮ ÑĤÐµ
ĠÐ¿ ÑĥÑĪ
ĠÐ¿ Ð¾Ð»ÑĮÐ·
ĠÐ² Ð½Ðµ
ĠÐº ÑĢÐ°
Ð¾Ð² Ð¸Ñī
ĠÐ± ÑĥÑĤÑĭÐ»
ĠÑĤ Ñı
ĠÑĤ Ñī
ĠÑĤ Ð°Ð±
ÐµÐ» Ðµ
ĠÐ¼ Ð¸Ð³
ĠÐ¿ÑĢ Ð¾Ð²Ð°Ð»
ĠâĢ ¦
ĠÐ» Ð¶
ĠÑģÑĤ Ð°Ð½
ĠÐºÐ°Ðº Ð¾Ð¼
ÐµÐ² Ð¸Ð´Ð½Ð¾
ĠÐĴ Ð¸Ð´
ĠÐĺ Ð²Ð°Ð½Ð¾Ð²
ĠÑĤÐ°Ðº Ð¸Ð¼Ð¸
ĠÐ¾Ð± ÐµÑī
ĠÑģÐ» ÐµÐ¿
Ð°Ð»Ð¸ ÑģÑĤ
ĠÐ¸Ð· Ð´Ð°
Ð¸Ð· Ñĥ
ĠÐ§ ÐµÑĢ
ĠÐĶ Ð°Ð¶Ðµ
ĠÑģÐ²Ð¾ ÐµÐ¼Ñĥ
ĠÐ¿Ð¾Ñģ ÐµÑĤ
ĠÑģÐ°Ð¼ Ð°Ñı
ĠÐ²Ð¸Ð´ Ð¸ÑĤ
ĠÐ¾Ñĩ ÐµÑĢ
ĠÐ¶ÐµÐ½ Ñĭ
ĠÐ³Ð¾Ð»Ð¾Ð² Ð¾Ñİ
ĠÐŁÑĢ Ð¾
ĠÐ´ÑĥÐ¼ Ð°ÐµÑĤ
Ð»ÐµÐ½ Ð½ÑĭÑħ
ĠÐ¿Ð¾ÑĢ ÑĤ
ĠÑģÐ¼Ð¾ÑĤÑĢ ÐµÐ»Ð°
ĠÐ¿Ð¾Ð¿ Ð°Ð´
ĠÑģÑĤÐ¾Ð» Ð¾Ð¼
ĠÐ¿ÑĢÐ¾ÑĤ ÑıÐ³
Ð¸ÑĩÐµÑģÐº Ð¸Ñħ
ĠÐ½Ð¾Ð² Ð¾Ðµ
ĠÐ²ÐµÑĩ ÐµÑĢÐ°
ĠÐºÐ°ÑĢ Ð¼Ð°Ð½
ĠÐ¸ÑģÐº Ð°Ð»
ĠÐ´Ð¾ÑĢ Ð¾Ð¶
ĠÑģÑĤÐ°Ð½Ð¾Ð² Ð¸Ð»ÑģÑı
ĠÐ´ÐµÑĢÐµÐ² ÑĮÑı
ĠÐ® ÑĢÐ°
ĠÑĩÐ¸ÑĤ Ð°Ð»
ĠÐ½ÐµÐ· Ð°Ð¼
ĠÑĤÑĢÑĥÐ´ Ð¾Ð¼
Ð¾Ð½ÑĮ ÐºÐ¾
ĠÑģÐ± Ð¾ÑĢ
ĠÑıÐ· ÑĭÐº
ĠÐ¿Ð°Ð»ÑĮÑĨ ÐµÐ¼
ĠÑĢÐ°Ð´Ð¾ÑģÑĤ Ð½Ð¾
ĠÐ¼ÐµÑĢ Ðµ
ĠÐ¿ÑĢÐ¸Ð¶ Ð¸Ð¼
ĠÐ´Ð²ÐµÑĢ ÐµÐ¹
ĠÐĿÐ°ÑģÑĤ Ð°ÑģÑĮ
ĠÐ¿ÐµÑĢÐ¸ Ð¾Ð´
1 5
Ġ H
Ð» ÐµÐ²
ÑĢ ÐµÐ±
Ñı ÐµÑĤ
ĠÑģ Ð¸
ĠÑģ Ð¾ÑĢ
ĠÐ¿ ÐµÐ²
ĠÐ½ Ñĭ
Ñĩ ÐµÐ³Ð¾
Ðº Ð°Ð»Ð¸
ĠÐº Ð°Ð»
Ð¾Ð² Ð°Ð»Ð¾
ÑĪ ÑĥÐ¼
ĠÐ± ÑĢÐ¾ÑģÐ¸Ð»
ĠÐ´ Ð°Ð¼Ð°
Ð¾Ð» Ñı
ĠÐ¼ Ð°ÑģÑĤ
ĠÐ¿ÑĢ ÐµÑģ
ĠÑĢ Ð¾Ð¶
ĠÐµ Ð»
ĠÑĥ ÑģÑĤÑĢ
Ð¸Ð² Ð°Ð»Ð°ÑģÑĮ
ĠÐ¶ Ð³
ĠÐ¾ÑĤ Ð·
Ð°Ð½ ÑĤÐ°
ĠÑģÑĤ Ð°Ð½ÑĨ
Ð¸Ð¼ Ð¾Ð¹
Ð´Ð° Ñı
Ð´Ð° ÑİÑī
ĠÐŁ Ð¾Ð¼Ð½
ĠÐ²Ñĭ Ð¹
ĠÐ¿Ð¾Ð´ ÑħÐ¾Ð´
ĠÐļ Ð°Ð¶Ð´
ĠÐľ Ð¸Ð»
Ð¾Ñĩ ÐµÐ¼
ĠÑĪ Ð»ÑıÐ¿
ĠÐ¿Ð¾Ñģ Ð»ÑĥÑĪ
ĠÑĤÑĢ ÐµÐ¿ÐµÑĤ
ĠÐ´ÑĢÑĥÐ³ Ð¾Ð¼
ĠÐ¿Ð» Ð¾Ñģ
ĠÑĩÐµÑĢ Ð½ÑĭÐ¹
ĠÑĩÐµÑĢ Ð½ÑĥÑİ
ĠÐ»ÑİÐ± Ð¸ÑĤÑĮ
ĠÐºÐ¾Ð½ ÐµÑĨ
ĠÐł Ð¾ÑģÑģ
ĠÑģÐµÑĢ ÐµÐ±
Ð»ÐµÐ½ Ð½Ð°Ñı
ĠÐºÐ¾Ð» ÐµÑģ
ĠÐ·Ð°Ðº Ð»ÑİÑĩ
Ð°ÑİÑī ÐµÐ¹
ĠÐ¿ÑĢÐ¾Ñģ Ð¸Ð»
Ð¸ÑĩÐµÑģÐº Ð¾Ð¹
ĠÐ¸ÑģÐ¿ Ð¾Ð»Ð½
ĠÐ¿Ð¾Ð½Ð¸Ð¼ Ð°Ñİ
ĠÐľÐ¾ÑģÐºÐ² Ñĭ
ĠÐ´Ð¾Ð±ÑĢ Ð¾
ĠÐ½Ð°Ðº Ð»Ð¾Ð½
ĠÐ´Ð¾ÑĢÐ¾Ð³ Ñĥ
ĠÑĪÐ¸ÑĢ Ð¾ÐºÐ¾
ĠÑģÐ¾Ð· Ð½
ĠÐ²Ð¾Ð·Ð´ÑĥÑħ Ðµ
ĠÑĩÑĥÐ¶ Ð´
Ð§ Ð°Ð¹
ĠÐ±ÑĥÐ¼ Ð°Ð¶
ĠÐ¾ÑĤÐ²ÐµÑĩ Ð°Ð»
ĠÐ¾Ð±ÑĭÐºÐ½Ð¾Ð² ÐµÐ½Ð½Ð¾
ĠÐ¿Ð¾ÑģÐ» ÑĭÑĪ
ĠÐ²ÑģÑĤ Ð°Ð»
ĠÑĢÐ°ÑģÑĤ ÐµÑĢ
ĠÑĤÑĭÑģÑıÑĩ Ð¸
ĠÐ¿ÑĢÐ¾Ð· ÑĢÐ°Ñĩ
ĠÑĢÑĥÐ± Ð°ÑĪ
ĠÐ±ÐµÑĢÐµÐ³ Ñĥ
ĠÐ¼ÑĥÐ·Ñĭ ÐºÐ°
ĠÑģÑĥÑĢ Ð¾Ð²
ĠÐĵÐ°ÑĢÐ°ÑģÑĮ ÐºÐ°
ĠÐ¼Ð³ Ð½Ð¾Ð²
ÑĢÐ¸ÑĤ ÑıÐ½
ĠÐ¨ÐµÐ²ÑĭÑĢ ÐµÐ²
Ð°ÑĤÐ¾ ÑĩÐ½Ð¾
ĠÐĴÐ»Ð°Ð´ Ð¸Ð¼
Ð¸ Ð½Ð¸
Ð½ ÐµÑĢ
ĠÑģ Ð°Ð½Ð¾Ð²
ĠÑģ Ð·Ð°Ð´Ð¸
ĠÐ¿ Ñģ
ĠÐ² ÐºÑĥÑģ
ĠÐ¾ Ð³Ð¾ÑĢ
ÑĪ Ð¸Ð½
ÑĪ ÑĥÑİ
ÐµÐ½ Ñĥ
ÐµÐ½ Ð½Ð¾Ð¼Ñĥ
ĠÐ± Ð°Ñģ
ĠÑĤ ÐµÐ½
ĠÑĤ ÐµÑĩ
Ð¾Ð» Ð·
ĠÐ¼ Ð°ÑģÑģ
Ð¾Ð´ Ð½Ð¾
ĠÑĢ Ð¾ÑģÑĤ
ÐµÐ¼ ÐµÐ½Ð½Ð¾
Ð°Ð² Ð°ÑĤÑĮ
ĠÐ¾ÑĤ ÑĨÑĥ
Ð¾Ðº Ð¾Ð²
Ð°Ñı Ð²
ĠÐĺ Ð»Ð¸
ĠÑħ ÑĢÐ¸Ð¿
ĠÐ²Ñĭ ÑĢ
ĠÐ¾Ð± Ð¸Ð¶
ĠÐļ ÑĥÑģ
ĠÐºÐ¾ÑĤÐ¾ÑĢ ÑĭÐ¼Ð¸
ĠÐ§ ÐµÐ³Ð¾
ĠÐ¢ ÐµÐ±Ðµ
ÑīÐµ ÑģÑĤÐ²Ð°
ĠÑĪ Ð²ÐµÐ¹
ĠÐ¿ÐµÑĢ ÐµÑĪ
ÑĥÑĪ ÐºÑĥ
ĠÑģÐ¿ Ð¾ÑģÐ¾Ð±
ĠÐ¿Ð¾Ð» ÐµÐ·
ĠÑĤÑĢ ÐµÑĤ
ĠÑĢÑĥ ÐºÐµ
Ð¼Ñĥ Ñī
ĠÐ±Ð¾Ð»ÑĮ Ð½Ð¾Ð¹
Ð»Ð¸Ð² Ð¾Ð¹
ĠÐĵ Ð°Ð²ÑĢ
ĠÐ²Ð¾Ð· Ð±
ĠÑĤÐµÐ¼ Ð½Ð¾Ð¹
ĠÑģÐ¾Ð± Ð°ÐºÐ¸
ĠÐ·Ð² ÐµÐ·Ð´
ĠÐ´ÑĥÐ¼ Ð°Ñİ
ĠÐ±Ð¾Ð»ÑĮÑĪ Ð°Ñı
ĠÐ±Ð¾Ð»ÑĮÑĪ Ð¾Ðµ
ĠÐ¿ÑĢÐ¾ÑĤ Ñı
Ð¸ÑĩÐµÑģÐº Ð¸
ĠÐ½Ð°Ð· Ð½Ð°Ñĩ
ĠÑģÐ¸Ð´ Ð¸ÑĤ
ĠÑģÑĤÐ¾ÑĢÐ¾Ð½ Ðµ
ĠÐ¶Ð°Ð» ÐºÐ¾
ĠÑģÐ¼Ðµ ÑıÑĤÑĮÑģÑı
Ð»ÑıÐ» Ð¸ÑģÑĮ
ĠÐ¾ÑĤÐ´ Ð°Ð»
Ð°ÑĤÐµÐ» Ñı
ĠÐ½Ð°ÑĪ Ð¸
ĠÐ¸Ð´ Ð¸
ĠÑĥÐ´Ð¸Ð² Ð¸Ð»ÑģÑı
ĠÐ¼Ð¸Ð½ÑĥÑĤ Ñĭ
ĠÐ¿ÑĢÐ¾ÑĪ ÐµÐ»
ĠÑĥÐ»Ð¸ ÑĨ
ĠÑģÑĤÐµÐ½ Ðµ
ĠÑıÑĢ ÐºÐ¾
Ð¾Ð¹Ð´ ÐµÑĤ
ĠÐ¿Ð»Ð°Ðº Ð°Ð»Ð°
ĠÐ¾Ð¶ Ð¸Ð²
ĠÐ´ÑĢÐ¾Ð¶ Ð°Ñī
ĠÑĥÑĩ ÐµÐ½
ĠÐ²Ð¿ÐµÑĢÐµÐ´ Ð¸
ĠÐ½ÐµÑĢ ÐµÑĪ
ĠÐ½ÐµÐºÐ¾ÑĤÐ¾ÑĢ ÑĭÐµ
ĠÐ¿Ð¾Ð¹ Ð´Ñĥ
ĠÐ°Ðº ÑĤÐµÑĢ
ĠÐ´ÑĢÑĥÐ¶ ÐµÑģÐº
ÑĥÐ»ÑĮ ÑĤ
Ðķ Ð¶
ĠÐ²ÐµÑī Ð¸
ĠÑģÐ¼ÑĥÑĤ Ð½Ð¾
ĠÐ¿ÑĥÑģÑĤÑĭ Ð½
ĠÐ¿Ð°Ð¼ÑıÑĤ Ð¸
ĠÑĤÐ¾Ð± Ð¾Ð¹
ĠÐ½Ð°ÑģÑĤÐ¾Ð¹ ÑĩÐ¸Ð²Ð¾
ĠÐ²Ð¾Ð² ÑģÐµ
ĠÐĹÐ´ ÐµÑģÑĮ
ĠÐ¡Ð°Ð·Ð¾Ð½ ÐºÐ°
ĠÐĲÐ± ÑĢÐ°Ð¼
ĠÐ¿ÑĢÐ¸Ð½Ð°Ð´ Ð»ÐµÐ¶
ĠÑģÐ¾Ð²ÑĢÐµÐ¼ÐµÐ½ Ð½Ð¸ÐºÐ¾Ð²
Ñĥ ÐºÐ°
ĠÑģ Ð¾ÑĤ
ĠÐ¿ ÐµÑĤÑĮ
ĠÐ¿ ÑĥÑģÑĤÑĮ
ĠÐ½ Ð°Ð¼Ð¸
ĠÐ½ ÐµÐ³Ð¾Ð´
ĠÐ² Ð¸Ñģ
ÑĤÐ¾ Ñİ
ÑĪ Ð¸ÑĢ
Ð¾Ð» Ð¾Ð²
ĠÐ¼ ÑĢÐ°Ðº
ĠÑĩ ÐµÐ¼Ñĥ
ĠÐ· ÑĢ
ĠÐ· Ð°ÑıÐ²
ĠÐ¿ÑĢ Ð¸Ð³Ð¾
Ð¾Ð´ Ñĭ
ĠÐ½Ðµ ÑģÐº
ĠÑĢ Ð¾Ð±
ĠÐ³ Ð½
Ð½Ð¸ Ð½
Ð¾Ð³ Ð°
Ð¸Ð² ÑĭÐ¹
ĠÐ¶ ÑĥÑĤ
ĠÐĿ Ð°Ð¿
ĠÑį Ð¿
ĠÑģÐ² Ð¸Ð½
Ð»Ñı Ð½
Ð»Ñı Ð»Ð¸
ĠÐ¾Ð± ÑĢÐ°Ð´
ĠÐ¡ Ð¾
ĠÑģÐº Ð²ÐµÑĢ
ĠÐºÑĢ Ð¸ÑĤ
ĠÐºÑĢ Ð¸Ð²
ĠÐºÑĢ ÑĭÐ»
ĠÐ¾Ð´ Ð½Ð°ÐºÐ¾
Ð¾Ð¿ Ð¾Ð»
ÐµÐ¶ Ð´Ñĭ
ĠÑģÐ¿ Ð¸Ð½Ñĥ
ĠÐ¿Ð¾Ð» Ñı
ĠÐ¿Ð¾Ñģ ÑĤÐ¾ÑĢÐ¾Ð½
ĠÑĩÐµÑĢ Ð½
ĠÐ¼Ð¾Ð» Ð¸ÑĤ
Ð¸Ð± Ð»Ð¸
ĠÐ»ÑİÐ± Ð¸Ð»Ð°
ĠÐ¾ÑĤÐ² ÑĢÐ°Ñī
Ð½Ñı Ð»Ð¸
ĠÑĤÐµÐ¼ Ð½ÑĭÐµ
ĠÑĥÐ¼ Ð¸ÑĢ
ĠÐ·Ð² Ð°Ð»Ð¸
ĠÐ¾Ð³ Ð½
ĠÐ¾Ð³ Ð»ÑıÐ´ÑĭÐ²
ĠÐ¿Ð¾Ð¿ ÑĭÑĤ
ĠÑĩÑĥÐ²ÑģÑĤÐ² Ð°
ĠÐ¾ÑĤÐ²ÐµÑĤ Ð°
ĠÑĩÐ°Ñģ Ð°
ĠÐ²Ð¾Ñģ Ðº
ĠÐ±ÐµÐ» Ð»ÐµÑĤÑĢÐ¸ÑģÑĤ
ĠÑĥÐ² Ð»ÐµÐº
ĠÐ¿ÑĢÐ°Ð² Ð´Ñĥ
ĠÐ½ÐµÐ² Ð¾Ð»ÑĮ
ĠÐ½Ð¾Ð² Ð¾Ð¹
ĠÐ»ÐµÑĤ Ð¾Ð¼
ĠÐĿÐ¸ÐºÐ¾Ð» Ð°Ñı
ĠÐ¾ÑĤÐ´ ÐµÐ»ÑĮ
Ð°ÑĤÐµÐ» ÐµÐ¹
ĠÐ»ÐµÐ¶ Ð°Ð»Ð¸
ĠÐ²ÐµÑģÑĮ Ð¼Ð°
ĠÑģÐ»ÑĭÑĪ Ð½Ð¾
ĠÑģÐ¾Ð»Ð½ ÑĨÐ°
ĠÐ¿ÑĢÐ¸Ñģ Ð»ÑĥÑĪ
ĠÑĥÑģÐ¿ ÐµÐ»
ĠÐ²ÐµÑģÐµÐ» ÑĭÐ¹
ĠÐ±ÐµÑģÑģ Ð¼ÑĭÑģÐ»
ĠÐ¿Ð»ÐµÑĩ Ð°Ð¼Ð¸
ĠÐ½ÐµÐ¿ÑĢ ÐµÐ¼ÐµÐ½Ð½Ð¾
ĠÑĤÐµÐ» Ð¾Ð¼
ĠÑĥÐ´Ð°ÑĢ Ð¸Ð»
ĠÐ²ÑĭÑĢÐ°Ð¶ ÐµÐ½Ð¸Ðµ
ĠÐ´ÐµÐ¹ÑģÑĤÐ²Ð¸ÑĤÐµÐ»ÑĮÐ½Ð¾ ÑģÑĤÐ¸
ĠÑĩÐ° ÑīÐµ
ĠÑĢÐµÐ´ ÐºÐ¾
ĠÐ»ÑİÐ±Ð¾Ð² ÑĮÑİ
ĠÑģÐ»ÑĥÑĪ Ð°Ð»
Ð¸ÑĤÐ° Ð½Ð°
ĠÐ²Ð¾Ð·Ð¼ Ð¾Ð¶Ð½Ð¾
ĠÑĢÐµÐ· ÐºÐ¾
ĠÐ¼Ð°Ð»ÑĮÑĩÐ¸Ðº Ð°
ĠÐ´Ð°Ñĩ Ñĥ
ĠÑİ Ð½Ð¾ÑĪ
ĠÐ°ÑĢ ÑĤÐ¸ÑģÑĤ
ĠÐ¿ÑĢÐ¸ÑĤ Ð²Ð¾ÑĢ
ĠÐ¿ÑĢÐµÐ² Ð¾Ñģ
ĠÐ½ÐµÐ½Ð°Ð² Ð¸
ĠÐºÐ»Ð°ÑģÑģ Ð°
ĠÑĩÐµÑĤÑĭÑĢ Ðµ
ĠÐµÑħ Ð°ÑĤÑĮ
ĠÐ½ÐµÐ³ ÑĢÐ¸ÑĤÑıÐ½
ĠÐºÐ¾ÑĢÐ¸Ð´ Ð¾ÑĢ
ĠÐ¾Ð±Ñģ ÑĤÐ¾ÑıÑĤÐµÐ»ÑĮ
1 7
Ġ ________
Ðµ ÑıÐ»Ð¾
Ð° ÑģÑĤÑĮ
ÑĢ ÐµÐ¶
ĠÑģ Ð¸Ð¼
ĠÐ¿ ÑĤÐ¸
Ñĩ Ð¸Ñģ
Ðº Ð¾ÑĢ
ĠÐ² Ð¾ÑģÑĮ
ĠÐ² ÑģÑĤÑĥÐ¿
Ð² Ð¾Ð»ÑĮ
ĠÐº ÐµÐ¼
ĠÐº Ð¸Ñģ
ĠÐº Ð»Ð¸
ĠÐº Ð°Ð¶
Ð¾Ð² Ñĥ
ÑģÑĤ ÐµÐ¹
ÐµÐ½ ÐµÑĢ
ĠÐ´ ÑıÐ´
ĠÐ¼ ÐµÐ¼Ñĥ
Ñİ ÑģÑĮ
ĠÐ· Ð°Ð¼Ð¸
ĠÐ· Ð°Ð³Ð¾
Ð¾Ð´ Ñĥ
Ð¾Ð´ Ñı
ĠÑĢ ÑİÐ¼
ĠÐ» ÑĮ
ĠÐ» ÐµÐ´
ĠÐ» ÐµÐ²
ĠÐ» ÑĭÑģ
Ð¾ÑĤ Ð°Ð»
Ð°Ð½ Ñı
Ð³ Ð»ÑıÐ´ÑĭÐ²
ĠÐĴ Ð°ÑĪ
ĠÑħ ÑĢÐ¸ÑģÑĤÐ¸
ÐºÐ° Ñĩ
ĠÐ¡ Ð²
ĠÐ¡ ÐµÐ¼
ĠÑģÐº Ð»Ð¾Ð½
ĠÐ¿ÐµÑĢ ÐµÐ¶
ÑĥÑĪ ÐºÐ¸
ĠÐ¿ÑĢÐ¸ Ð¾Ð±ÑĢ
ĠÑĤÑĢ ÐµÑĤÑĮ
ĠÐ±ÑĥÐ´ ÑĥÑī
ĠÐĳ ÐµÐ·
ĠÐ¾Ñĩ Ð°ÑĢÐ¾Ð²
Ð²ÐµÑĢ Ð¶
Ð½Ñı Ð¼Ð¸
ĠÑĥÐ¼ ÐµÑĢÑĪ
ĠÑĩÐµÐ»Ð¾Ð²ÐµÐº Ñĥ
Ð°ÑĤÐµÐ»ÑĮ Ð½ÑĭÐ¹
ĠÐ¿Ð¾Ð½ ÑĢÐ°Ð²
ĠÐ²ÐµÑĢ ÑģÑĤ
ĠÐ¿Ð¾Ð¿ ÑĢÐ¾ÑģÐ¸Ð»
ĠÑĩÑĥÐ²ÑģÑĤÐ² ÑĥÑı
ĠÐ·Ð°Ðº Ð¾Ð½
ĠÐ²Ð¿ ÐµÑĢÐ²ÑĭÐµ
ĠÑĤÐ¸Ñħ Ð¸Ð¹
ĠÑĥÐ± ÐµÐ¶Ð´
ĠÐ¼Ð°Ð»ÐµÐ½ÑĮÐº Ð¾Ð¹
ĠÐ¼Ð¾Ð»Ñĩ Ð°Ð»Ð¸
ĠÐŀÑĤ ÑĩÐµÐ³Ð¾
ĠÑĢÐ°Ð±Ð¾ÑĤ Ð°Ð»
ĠÐ²Ð¾Ð´ Ñĥ
ĠÐ½ÐµÑģ Ð¾Ð¼Ð½
ĠÐ¿ÑĥÑģÑĤ Ñı
Ð»ÐµÐ½Ð½Ð¾ Ðµ
ĠÑģÐ¸Ð» Ð¾Ð¹
ĠÐ¼Ð¾ÑĢ Ð¾Ð·
ĠÑģÐ¾Ð»Ð½ ÐµÑĩ
____ __
ĠÑĥÑĤ ÐµÑĪ
ĠÑģÐ»ÐµÐ· Ð°Ð¼Ð¸
ĠÐ±ÐµÑĢ ÐµÐ·
ĠÐ»Ð°Ð² ÐºÑĥ
ĠÐ¿Ð¾Ð»Ð¾Ð¶ Ð¸Ð»
ĠÑĪÐµÐ¿ ÑĤÐ°Ð»
ĠÑĩÑĥÐ´ ÐµÑģ
ĠÐ¿Ð¾ÑĪ Ð»Ð°
ĠÑĥÑĤÑĢ Ð¾
ĠÑĢÐµÑĩ ÑĮ
ĠÑģÑĩÐ¸ÑĤ Ð°Ð»
ĠÐ¾ÑĤÑģ ÑĥÑĤÑģÑĤÐ²
ĠÑįÐº Ð·
ĠÐ²Ð¾ÑģÑĤÐ¾ÑĢ Ð³
ĠÑĢÐ°Ð·Ð¼ ÑĭÑĪ
ĠÑĤÐµÐ°ÑĤ ÑĢÐ°
ĠÐ¼Ð°ÑģÑĤ ÐµÑĢ
ĠÐ¾Ð³Ð¾ÑĢ Ñĩ
ĠÐ¿ÑĢÐµÐ²Ð¾Ñģ ÑħÐ¾Ð´
Ġ________ ______
! "
1 6
1 8
ÑĤ ÐµÐ»
ÑĤ Ð¾Ð³Ð¾
Ð» ÐµÐ¼
Ð» Ð°Ð¶
Ð» ÐµÑģÐº
ÑĢ Ð¾Ð±
ĠÐ² ÐµÐ´
ĠÐ¸ Ð´Ñĥ
ĠÐº ÑĥÑĩ
ÑĪ Ð°
ĠÐ± Ð°Ð»
ĠÐ± Ð¾Ð´
ĠÐ± ÑĥÐ»ÑĮ
ĠÐ¿ÑĢ Ð¾Ð»
Ð¾Ð´ Ð¸
Ð¾Ñģ Ð½Ð¾Ð²
Ð¾ÑĢ ÐµÑĩ
Ñī Ð¸Ðº
ĠÑģÑĤ Ð¾Ð»ÑĮÐºÐ¾
Ð¸Ð½ ÑĥÐ²
Ð°ÑĢ Ð¾Ð¼
ĠÐĴ ÐµÑĢÐ°
ĠÐ²Ñĭ ÑģÐ»
ÑĭÐ² Ð°Ð»Ð¾
ÑĭÐ² Ð°Ð»Ð¸ÑģÑĮ
ĠÐľ ÐµÐ½Ñı
ÐµÑģÑĤ Ð½Ð¾
ĠÑģÐ¿ Ð¾ÑĢ
ĠÑģÐ¿ ÑĥÑģÑĤ
Ð°Ð»ÑĮ Ð½Ð¾Ð¹
Ð°Ð»ÑĮ Ð½Ð¾Ðµ
ĠÐ³ÑĢ ÐµÑħ
ĠÑĤÑĢ Ð¾Ð½
ĠÐ²Ð· ÑıÑĤÑĮ
ĠÐ³Ð¾ÑĢ Ðµ
ĠÐĳ Ð¾Ð¶Ðµ
ĠÑĩÐµÑĢ Ð½Ð¾Ð¹
Ð¸Ð³ Ð¸Ð½
ĠÑĨ ÐµÐ¿
ĠÐ²ÑĢ Ð°Ð¶Ð´
ĠÐ²ÑĢ Ð¾Ð´Ðµ
ĠÐ²Ð¾Ð· Ð¼ÑĥÑī
ĠÐ¼Ð¾Ð³ ÑĥÑĩ
ÐµÐ½ÑĮÐº Ð¾Ð¹
ĠÑĥÐ¼ Ð°
ĠÑħÐ¾ÑĤ Ð¸ÑĤÐµ
ĠÐ±ÐµÑģ ÑĪÑĥÐ¼
ĠÐ´Ð¾Ð¼ Ð¾Ð²
Ð¸Ð²ÑĪ Ð¸Ðµ
ĠÐ¾Ð³ Ð»Ñı
ĠÑģÐ²ÐµÑĤ Ð¾Ð¼
ĠÐºÑĢÐ°Ñģ Ð¸Ð²Ð°Ñı
ĠÐ´ÐµÐ» Ð°ÐµÑĤ
ĠÐĲÐ½ÑĤÐ¾Ð½ Ñĥ
ĠÐ·Ð°Ðº ÑĢÑĭÐ²
ĠÑģÐ»Ð¾Ð² Ð°Ð¼Ð¸
ĠÐ½ÐµÐ² Ð¾Ð·Ð¼Ð¾Ð¶Ð½Ð¾
ĠÐ¶Ð¸Ð² Ð¾Ð¹
ĠÐ²ÑĭÑģ Ð¾ÐºÐ¾
ĠÐ¿ÐµÑĢÐ² Ð¾Ðµ
ĠÐºÐ°Ð¶Ð´ ÑĥÑİ
ĠÑĢÐ°Ð±Ð¾ÑĤ Ð°
ĠÐ½Ð°ÑĪ ÐµÐ¹
ĠÐ¸Ð´ ÑĥÑĤ
ĠÑĢÐ°ÑģÑģ Ð¼Ðµ
ÐµÐ²ÑĪ Ð¸Ðµ
ĠÐŀÐ´ Ð½Ð°
ĠÐ±ÑĭÐ² Ð°Ð»
ĠÑĥÑģÐ¿ ÐµÑħ
ĠÐ´Ð¾ÑĢÐ¾Ð³ Ð¸
ĠÑĪÐ°Ð³ Ð¸
ĠÐºÑĢÐ¾Ð² Ð°ÑĤÑĮ
ĠÐ½Ð°ÑĩÐ°Ð» Ðµ
Ð°Ð´ÑĨ Ð°ÑĤÐ¸
ĠÐ´ÐµÑĢÐ¶ Ð°Ð»
ĠÐ¿ÑĢÐµÐºÑĢÐ°Ñģ Ð½Ð¾
ĠÐĳÑĭ ÑĤÑĮ
ĠÐ¿Ð¸ÑģÐ°ÑĤÐµÐ» ÐµÐ¹
ĠÑģÐ¼ÐµÑħ Ð¾Ð¼
ĠÑĥÑĤÑĢ Ð¾Ð¼
ĠÐ¿Ð»Ð°ÑĤ Ð¾Ðº
ĠÐĲÐ½Ð´ÑĢ ÑİÑĪÐºÐ°
ĠÐ²ÑĭÑĪ Ð»Ð°
ĠÐ·Ð°Ñħ Ð¾ÑĤÐµÐ»
ĠÐ²Ð¾Ð·Ð²ÑĢÐ°Ñī Ð°Ð»ÑģÑı
ĠÐ½ÐµÑĩ ÑĤÐ¾
ĠÐ¼ÐµÑĩ ÑĤ
ĠÑĢÐ¸Ñģ ÑĥÐ½
ĠÐĽÐµÐ² Ð¸ÑĤÐ°Ð½
ĠÐ½Ð°ÑģÑĤÑĢÐ¾ ÐµÐ½Ð¸Ðµ
ĠÑģÐ¾Ð·Ð½Ð° Ð½Ð¸Ðµ
ĠÑĤÐ² Ð¾Ð¹
ĠÑĢÐ°Ð± Ð¾Ñĩ
ĠÐ´ÑĭÑħ Ð°Ð½Ð¸Ðµ
ĠÐ¿ÑĢÐ¸ÑģÑı Ð¶
ĠÐ±Ñĥ ÐºÐ²
ĠÐ½ÐµÑģÐº Ð¾Ð»ÑĮ
Ð» ÑĭÐ¼
ÑĢ Ð¾ÑģÑĤ
ÑĢ Ð¾ÑĪ
Ñĥ Ð»Ð°
ĠÑģ ÑĥÐ±
ĠÐ¿ Ð¸ÑĢ
ĠÐ² Ð¾ÑĪ
ĠÐ² Ð½Ð¾Ð²
Ð¼ Ð¾Ð½
ĠÐ± Ð°ÑĤ
Ð¾Ð» ÐµÐ¿
ĠÐ¼ ÑĢÐ°ÑĩÐ½Ð¾
Ð°Ðº Ñģ
ĠÐ¿ÑĢ ÑıÑĤ
ĠÐ¿ÑĢ ÑĭÐ³
Ð¾Ð´ Ð¸ÑĤ
Ð°ÑĤ ÑĭÐµ
ĠÑĢ Ðµ
ĠÐ³ Ð¸Ð±
Ð¾ÑĢ Ð¾
ĠÑĥ Ð»
ÑĨ Ð²ÐµÑĤ
Ð¸Ð² Ð°
Ð¸Ð² Ð°ÑĤÑĮÑģÑı
Ð°Ð½ Ð´Ð°
Ð°Ð½ ÐºÐ°
Ð°Ð½ ÑĮÑı
Ð¸Ð¼ ÐµÑĢ
ĠÐŁ ÐµÑĢÐµÐ´
ĠÐĿ ÑĥÐ¶Ð½Ð¾
ĠÐĴ Ð¾Ð½
ĠÐĴ ÐµÑģÑĮ
ĠÑģÐ² ÑıÑī
ĠÐ° Ð»
ÑĥÐ´ ÑĢ
ĠÐ¡ Ð¾Ð²
ĠÐ¡ ÐµÐ½Ð¸
ĠÑģÐ» ÑĭÑħÐ°Ð»
ĠÐ¿Ð¾Ð´ Ð¾ÑĪÐµÐ»
ÑĥÑĤ Ð¸Ð»
ĠÐļ Ð¾ÑģÑĤ
ĠÐļ ÑĥÐ´Ð°
ĠÑĢÐ°Ð· Ñĥ
ĠÐ¢ ÑĢ
ÐµÐ³ Ð°Ð»
ĠÑĤÑĢ ÑĥÐ¿
Ð¸ÑĤÐµÐ»ÑĮ Ð½ÑĭÐµ
ĠÐ±ÑĥÐ´ ÐµÐ¼
ĠÐ±Ð¾Ð»ÑĮ Ð½ÑĭÑħ
ĠÐ¿Ð¾Ðº Ð»Ð¾Ð½
ÑĦ Ð¾Ð½
Ð´Ðµ ÑģÑıÑĤ
ĠÑĦ Ð°Ð»ÑĮ
ĠÐ¾Ð¿ Ð¸Ñģ
ĠÐ¼Ð¾Ð³ Ð»Ð¾
ĠÐ¾ÑĤÐ² ÑĢÐ°ÑĤ
Ð°Ð²ÑĪ ÐµÐ¹
ĠÐĹ Ð°Ð²
ĠÐ¿Ð¾Ð½ ÑıÑĤ
Ð»ÑıÐ´ ÐµÐ»
ĠÐŁÐµÑĤ ÑĢ
ÑĢÐµÐ´ ÐºÐ°
ĠÐ²Ð¾ Ð¾Ð±ÑĢÐ°Ð¶
ĠÐ²Ð¿ Ð¾ÑģÐ»ÐµÐ´ÑģÑĤÐ²Ð¸Ð¸
ĠÐŁÐ°Ð²Ð»Ð¾Ð²Ð¸Ñĩ Ñĥ
ĠÐ½ÐµÑĤ ÐµÑĢÐ¿
ĠÑģÑĤÑĢÐ°ÑĪ Ð½Ð¾Ðµ
ĠÐ½Ð¾Ð³ Ñĥ
ĠÑģÐ¸Ð´ ÐµÐ»Ð°
ĠÐ¼Ð°Ð»ÐµÐ½ÑĮÐº Ð¸Ñħ
ĠÑħÐ¾Ð»Ð¾Ð´ Ð½Ð¾Ð¹
ĠÐºÐ°Ð¶Ð´ ÑĭÐ¼
ĠÑĢÐ°Ð±Ð¾ÑĤ Ð°ÑĤÑĮ
ĠÐ³Ð»ÑĥÐ± Ð¾ÐºÐ¾Ð¹
ĠÐºÐ» ÐµÑĤ
ĠÐ¡ÑĤ Ð°ÑĢ
ĠÐ¸Ð·Ð² Ð¸Ð½
ĠÐ¼Ð¾ÑĢ Ñı
ĠÐ´Ð¾Ð±ÑĢ Ð¾Ð´ÑĥÑĪ
ĠÐ¿ÑĢÐ¾ÑĤÐ¸Ð² Ð¾ÑĢÐµÑĩ
ĠÐ¼Ð¸ÑĢ Ðµ
ĠÐ¿Ð»ÐµÑĩ Ð¾
ĠÐ¿Ð»ÐµÑĩ Ð¸
ĠÑĤÐ¾ÑģÐº Ð¸
ĠÐ¼ÑıÐ³ ÐºÐ¾
ĠÐ¾ÑģÑĤÐ¾ÑĢ Ð¾Ð¶
ĠÐ½ÐµÐ¿ÑĢÐ¸ ÑıÑĤÐ½Ð¾
ĠÐ²ÑĭÐ´ ÐµÑĢÐ¶
ĠÑĤÑĮ Ð¼Ð°
ĠÐ¿ÐµÑĢÐµÑģÑĤ Ð°Ð»
ĠÐ½ÑĢÐ°Ð² Ð¸ÑĤÑģÑı
ĠÑĤÐ¾ÑĢÐ¾Ð¿ Ð»Ð¸Ð²Ð¾
ĠÐ½ÐµÐ½Ð°Ð² Ð¸Ð´
ĠII I
ĠÐ½Ð°ÑĩÐ¸Ð½Ð° ÐµÑĤ
ĠÑĤÑĢÐµÐ² Ð¾Ð¶
ĠÑĤÑĥÐ¼ Ð°Ð½
ĠÐ¸ÑģÐºÑĢ ÐµÐ½
ĠÐ¶ÑĥÑĢÐ½ Ð°Ð»Ð°
ĠÐ½ÐµÑħ Ð¾ÑĢÐ¾ÑĪ
ĠÐ´Ð²ÑĥÐ¼ Ñı
ĠÐ²Ð¿Ð¾Ð» Ð½Ðµ
ĠÐ§ÐµÑĢ ÐµÐ·
ĠÑĢÐ°ÑģÑĤÐµÑĢ ÑıÐ½
ĠÐ²Ð½Ð¾Ð² ÑĮ
1 9
? !
Ð ¤
Ġ V
ĠÐ ©
Ð¾ Ð¸
ÑĤ ÐµÐ¿
Ð» ÐµÐ·
ĠÑģ Ð½Ð°
ĠÑģ ÑĢÐ°Ð²
ĠÑģ ÑĭÑĢ
ĠÐ¿ Ð°Ñģ
Ð¼ ÐµÑħ
Ð¾Ð² ÐµÑĢ
ÑĪ Ð¸ÑģÑĮ
ÐµÐ½ Ð¾Ð³
ÐµÐ½ ÐºÐ°
ÐµÐ½ ÐºÐ¸
Ð¾Ð» ÐµÐ½
ĠÐ¼ Ð°Ð³
Ñİ Ð´Ð°
ÐµÑĤ Ñĭ
ĠÑĩ ÑĢÐµÐ·
ĠÐ¿ÑĢ Ðµ
ĠÐ½Ðµ Ð¾Ð¿
ĠÐ½Ðµ ÑģÐ»
ĠÑĢ Ð°
ĠÑĢ Ð¾Ð»ÑĮ
ĠÑĢ ÐµÐ¿
Ð¸ÑĤ ÑĢ
Ð¸ÑĤ Ð°Ð»
Ð¸ÑĤ ÑĥÑĤ
ĠÐ³ Ð°ÑĢ
ĠÐ³ ÐµÑĢÐ¾
Ð¾ÑĢ ÑıÐ´
ĠÑĥ Ð½Ñĭ
ĠÐ» Ðµ
ÑĨ Ð¸Ñı
Ð± Ð¾Ð¹
Ð°Ð½ Ð½ÑĭÐ¼Ð¸
Ð¸Ð¼ Ð¾Ðµ
Ð¸Ð½ ÑĤÐµÑĢÐµÑģ
ĠÐŁ Ð¾ÑģÑĤ
ĠÐŁ ÐµÑĢÐ²
ĠÐĿ Ð°Ðº
ĠÐ¿Ð¾ ÑħÐ¾Ð´
ÐµÐ² Ð¾
ÐµÐ² ÐµÑĢ
ĠÐĴ Ð´ÑĢÑĥÐ³
ĠÑħ Ð¾Ñħ
ĠÑģÐ² Ð¸Ð´Ð°
ÑģÑĤÐ² ÐµÐ½Ð½Ð¾
ĠÐ²Ñĭ Ðº
Ð»Ñı Ð»Ð°
Ð»Ñı Ð½ÑĥÐ»
Ð»Ñı Ð²ÑĪ
Ð°Ð¶ Ñĥ
Ð¾Ð· Ð½
ĠÑģÐº ÑĢÑĭÐ»
ĠÑĢÐ°Ð· Ð½Ð¾
ÐµÐ³ Ð°Ð»Ð¸
ĠÑģÐ¼ ÐµÑĢÑĤ
ĠÑģÐ¼ ÑĥÑī
Ð¸ÑĢ ÐµÐº
ĠÑĢÐ°Ñģ ÑģÑĤ
ĠÐ´Ð² Ð¾Ðµ
ĠÑĤÑĢ ÑĥÐ±
Ð¸ÑĤÐµÐ»ÑĮ Ð½Ð¾Ð³Ð¾
ĠÐ²Ð· ÑĢÐ¾Ñģ
ĠÐ³Ð¾ÑĢ Ð½Ð¸Ñĩ
ĠÐĳ Ð¾Ð»ÑĮÑĪ
ĠÐĵ Ð¾Ð²Ð¾ÑĢ
ĠÐ²ÑĢ Ð°Ð³
ĠÐ¾ÑĤÐ² Ð¾ÑĢ
ĠÐ²ÐµÑģ ÐµÐ»ÑĮ
ĠÐ½Ð°Ð¿ Ð¾Ð¼Ð¸Ð½
ĠÐ½Ð¸Ðº Ð¾Ð¼Ñĥ
ÐµÑĪÑĮ ÑģÑı
ĠÐ±ÑĢ Ð¾Ð²Ð¸
Ð¸Ð²ÑĪ ÐµÐ³Ð¾
ĠÐ´ÑĥÐ¼ Ð°Ð»Ð¸
ĠÐŁÐ°Ð²Ð» Ñĥ
ĠÑģÐ½ ÐµÐ¶
Ð°ÑİÑī Ð°Ñı
ĠÐ½ÐµÐ´ ÐµÐ»Ð¸
ĠÑĥÐ³ Ð»Ð°
ĠÐ±ÐµÐ» ÑĭÐ¹
ĠÑĥÐ² Ð°Ð¶
ĠÑĤÐ¸Ñħ Ð¾Ð½ÑĮÐºÐ¾
Ð¸ÑĩÐµÑģÐº Ð¾Ð³Ð¾
Ð¸ÑĩÐµÑģÐº Ð¸Ð¹
ĠÐºÐ°Ð¶Ð´ Ð¾Ð¼
ĠÐºÐ°ÑĢ ÑĤÐ¸
ĠÐ·Ð°Ð³ Ð¾Ð²Ð¾ÑĢÐ¸Ð»
ĠÐ²ÑģÐ¿ Ð¾Ð¼Ð¸Ð½Ð°
ĠÑģÐ»ÐµÐ´ Ñĭ
ĠÐ¼Ð¸Ð» Ð»Ð¸
ĠÐ¾ÑģÑĤÐ°Ð² Ð°Ð»Ð¾ÑģÑĮ
ĠÐ·Ð½Ð°ÐºÐ¾Ð¼ ÑĭÐµ
ĠÐ¿Ð¾ÑģÑĤ ÐµÐ¿ÐµÐ½Ð½Ð¾
ĠÐ³Ð¾ÑĢÐ¾Ð´ Ðµ
ĠÐ¿ÑĢÐ¾ÑĪ Ð»Ð¾
ĠÑģÑĤÐµÐ½ Ñĥ
ĠÐ»Ð¸ÑĤ ÐµÑĢÐ°ÑĤÐ¾ÑĢ
ĠÑĤÑıÐ¶ÐµÐ» ÑĭÐ¹
ĠÐºÐ°Ð¼ ÐµÐ½ÑĮ
ĠÐ¤ ÐµÐ½Ð¾Ð³
ĠÐ¸Ð³ÑĢ Ð°ÑĤÑĮ
ĠÑıÐ² Ð¸Ð»ÑģÑı
ĠÐ»Ð¸ÑĤÐµÑĢÐ°ÑĤÑĥÑĢ Ð½Ð¾Ð¹
ĠÐ¿ÑĢÐ¸ÑĪ Ð»Ð¸
ĠÐ½ÐµÐ½ ÑĥÐ¶
ĠÑģÐ²ÐµÑĢ ÑħÑĥ
ĠÑĢÐ°Ð·Ð³Ð¾Ð²Ð¾ÑĢ Ð°
ĠÐ¼ÑĥÑĩ Ð¸ÑĤÐµÐ»ÑĮÐ½Ð¾
ĠÑĢÐµÐ± ÑıÑĤ
ĠÑģÑĥÐ¼ Ð°Ñģ
ĠÐ¾ÐºÐ¾Ð»Ð¾ ÑĤÐ¾Ñĩ
ĠÐ´Ð¾Ð± ÑĢÐ°
ĠÐ½Ð°ÑģÑĤ Ð¾Ð»ÑĮÐºÐ¾
ĠÑģÑĤÑĭ Ð´
Ð»ÑıÑĤÑĮ ÑģÑı
ĠÑĤÐ¾Ð»Ð¿ Ð°
ĠÐľÐ¸Ñħ Ð°
ĠÑģÑĩÐ°ÑģÑĤÑĮ Ñı
ĠÐĽÐ°Ð²ÑĢ ÐµÐ½
ĠÑģÐ»ÑĥÑĩÐ°Ð¹ Ð½Ð¾
ĠÑģÐµÑģÑĤ ÑĢÐ°
ĠÐ±ÐµÑģÐ¿Ð¾ÐºÐ¾Ð¹ Ð½Ð¾
ĠÑĥÐ·Ð½ Ð°ÑĤÑĮ
ĠÐ²Ð½Ñĥ ÑĤÑĢ
ĠÐĲÐ² ÑĢÐ°Ð¼
ĠÐ³ÑĢÑĥÑģÑĤ Ð½Ð¾
ĠÐĹÐ½Ð° ÑĩÐ¸ÑĤ
ĠÐ¾Ð² Ð»Ð°Ð´
ĠÑĥÐ³ÑĢÑİÐ¼ Ð¾
ĠÐ½ÐµÐ¾Ð±ÑħÐ¾Ð´ Ð¸Ð¼Ð¾
ĠÐ¿Ð¾Ð´Ð» ÐµÑĨ
ĠÐ¿Ð¾Ð³Ð¾Ð²Ð¾ÑĢ Ð¸ÑĤÑĮ
ĠÑģÐ¾Ñħ ÑĢÐ°Ð½
ĠÑİÐ¼ Ð¾ÑĢÐ¸ÑģÑĤ
ĠÑĦÐ°Ð¼ Ð¸Ð»Ð¸
ĠÑģÐ¿ÑĢ ÑıÑĤ
ĠÐĿÐµÐ¼Ð¾Ð² ÐµÑĨÐºÐ¸Ð¹
ĠÐµÑģÑĤ ÐµÑģÑĤÐ²
ĠÐŁÐ¾Ð¼Ð½ Ñİ
ĠÐ²ÑĢÐ°Ð¶Ð´ ÐµÐ±
" ...
1 0
Ġ 8
Ð½ Ð¾Ð³
Ð» ÐµÐ¹
ÑĢ Ð¾Ð½
ÑĮ ÐµÑĤ
ĠÐ¿ ÑĭÐ»ÑĮ
ĠÐ½ Ð¸Ð¶
ĠÐ½ ÑıÐ½ÑĮ
Ðº Ð°ÑĢ
Ðº Ð¾Ð¼Ñĥ
ĠÐ¸ Ñİ
ĠÐ¾ ÑģÑĤÑĢÐ¾
ÑĪ Ð¸Ð¼Ð¸
ĠÐ´ ÐµÐº
ÐµÑĢ Ñĭ
ĠÐ¼ ÑĥÑħ
Ð°Ðº Ð°Ð½
ĠÑĩ Ð¸Ð½Ð¾Ð²
ĠÐ¿ÑĢ ÐµÑģÑĤ
Ð°ÑĤ Ð¾Ð¹
ĠÑĢ Ð¾Ð·Ð¾Ð²
Ð¾ÑĢ Ñī
Ð°Ð² Ð°Ñı
Ð½Ð¸ Ñİ
Ñī Ð¸ÐºÐ°
ÑĨ Ð¸Ñİ
ĠÐŁ Ð¾Ð¼
ĠÐŁ Ð¾Ð½
Ð°ÑĢ ÑĤ
ĠÐĴ Ð¾Ñģ
ĠÐĴ Ð·
ĠÐĴ Ð¾Ð·
Ð¸Ñĩ Ð½Ð¾
ĠÐ° Ð¿
ĠÐ²Ñĭ Ð¶
ĠÐ¡ Ð»Ð¾Ð²
ÐµÑħ Ð°ÑĤÑĮ
ĠÐºÐ¾ ÑĪ
ÐµÐ½ÑĮ Ðµ
ĠÐ¿Ð¾Ð´ Ð¼
ĠÐ¿Ð¾Ð´ ÑĭÐ¼
ĠÐ¸Ð· ÑĢÐµÐ´ÐºÐ°
ĠÑģÐº Ð¾Ð»ÑĮÐ·
Ð»Ð° Ñĩ
Ð¾Ñĩ Ð¸Ð»
ĠÐĶ Ð¾
ĠÐĶ Ð¾Ðº
ĠÐ¿Ð¾Ð» Ð½Ð¾
ĠÐ¿Ð¾Ð» Ð·
ĠÐ¿Ð¾Ð» Ð¸ÑĨ
ĠÑģÐ°Ð¼ ÑĭÐµ
ĠÐ¿Ð¾Ðº Ð¾Ñı
ĠÐ³Ð¾Ð²Ð¾ÑĢ Ð¸ÑĪÑĮ
ĠÑĩÐµÑĢ ÑĤÐ°
ĠÐ¾Ñĩ ÐµÐ²Ð¸Ð´Ð½Ð¾
Ð°Ð½Ð¸ Ñİ
ĠÐĵ Ð»
ÑĮÑı Ð¼Ð¸
ĠÐ¸Ð¼ ÐµÑĤÑĮ
ĠÑģÑĤÐ°ÑĢ Ð¸Ñĩ
Ð¾Ð²Ð°Ð» Ð°ÑģÑĮ
ĠÑħÐ¾ÑĢÐ¾ÑĪ ÐµÐ³Ð¾
ĠÑĩÑĥÐ²ÑģÑĤÐ² Ð¾Ð¼
ĠÐ±Ð¾Ð» ÐµÐ½
ĠÑĥÐ´ Ð°Ð»Ð¾ÑģÑĮ
ĠÐ¾ÑģÑĤ Ð°Ð»Ð¾ÑģÑĮ
ĠÐ·Ð°Ðº ÑĢÑĭ
ĠÐ¿ÑĢÐ¾Ñģ ÑĤÐ¾ÑĢ
ĠÐ³Ð¾Ð»Ð¾Ñģ Ðµ
ĠÐ¿ÑĢÐ°Ð² Ð¾
ĠÐ¿ÑĢÐ°Ð² Ð´
ĠÐ½Ð¾Ð³ Ð¾Ð¹
ĠÐ½ÐµÐ² Ð¸Ð½
ĠÐ¿ÐµÑĢÐ² Ð¾Ð³Ð¾
ĠÑĥÐ± ÐµÐ¶
ĠÐ¿Ð¾Ð³ Ð°Ñģ
ĠÐ¼Ð¾Ð»Ñĩ Ð°Ð»Ð°
ĠÑģÑĤÑĢÐ°Ð½ Ð½Ð¾Ðµ
ĠÐ·Ð°Ñģ ÐµÐ´
ĠÑĥÐ¶Ð°Ñģ Ð°
Ð°ÑģÑĤ ÑĭÑĢ
Ð°Ð½ÑĮ Ðµ
Ð½Ð¾Ñģ Ð¸Ð»
ĠÐ²ÑģÑİ Ð´Ñĥ
ĠÐ±ÑĭÐ² Ð°Ð»Ð¾
ĠÐ¾ÑĤÑĩ ÐµÑĤ
ĠÐ·Ð°ÑĤ ÑĭÐ»
ĠÐ²Ð¾Ð·Ð´ÑĥÑħ Ð°
ĠÐ³ÑĥÐ± Ð°Ð¼Ð¸
ĠÑģÐ»Ð°Ð± Ð¾
ĠÐ½Ð°ÑħÐ¾Ð´ Ð¸Ð»ÑģÑı
ĠÐ´Ð¾ÑģÑĤ Ð°ÑĤÐ¾ÑĩÐ½Ð¾
ĠÐ´Ð°Ð»ÑĮ Ð½ÐµÐ¹
ĠÐ¿ÑĢÐ¸Ð± Ð»Ð¸Ð¶
ĠÐ¼ÐµÑĢÑĤÐ² ÐµÑĨ
ĠÑģÑĭ Ð½Ð°
ĠÐ½ÐµÑĢ Ð°Ð·
ĠÑģÐ¼ÐµÑħ Ð°
ĠÐºÑĥÑĢ Ñģ
ĠÐºÐ¾ÑĢÐ¾ÑĤ ÐºÐ¾
ĠÑģÑĥÐ¼ ÐµÑĢ
ĠÐ¿Ð¾Ð¹ Ð¼
ĠÐ·Ð°Ð´ÑĥÐ¼ ÑĩÐ¸Ð²Ð¾
ĠÑĢÑĭ Ð¶
ĠÑģÑİ ÑĢ
ĠÐ½Ð¸ÐºÐ°Ðº Ð¾Ð³Ð¾
ĠÑģÐµÐ¼ÑĮ Ð¸
ĠÑĤÐµÐ°ÑĤÑĢ Ðµ
ĠÐĵÑĢÐ¸Ð³Ð¾ ÑĢÐ¸Ð¹
ÑĢÐµÐ¼ ÐµÐ½Ð½Ð¾
ĠÐķÐ² Ð³
ĠÑĩÐµÑĤÑĭÑĢ ÐµÑħ
ĠÐ±ÐµÐ·Ð· Ð°Ð±Ð¾ÑĤ
ĠÐľÐµÐ»Ð¸Ñħ Ð¾Ð²Ðµ
ĠÐ¿ÐµÑĢÐµ ÑĥÐ»
ĠÐ´Ðµ ÑıÑĤÐµÐ»ÑĮ
ĠÐ¤Ð¸Ð» Ð¸Ð¿Ð¿
ĠÐŀÐ¿ ÑıÑĤÑĮ
ĠÐ¿ÑĢÐ¸Ð¿Ð¾Ð´ Ð½
ĠÑģÐµÐºÑĥÐ½ Ð´Ñĥ
ĠÐ¿ÑĢÐµÑģ Ð»ÐµÐ´
ĠÐ¶Ð³ ÑĥÑĩ
ĠÑĤÑĢÐµÑĤ Ð¸Ð¹
ĠÐ¿ÑĢÐ¸Ð³Ð¾ ÑĤÐ¾Ð²
Ð¾Ð¿Ð¾Ð» ÑĥÑĩ
ĠÐ¼ÐµÐ¼Ñĥ Ð°ÑĢ
Ð¸ ÑĨÐ°
Ñģ ÐµÐ³
Ð» ÐµÐ½Ð¸Ñİ
ÑĢ ÐµÑĪ
ÑĢ ÐµÑģÑĤ
Ñĭ Ð»Ð¸
Ðº Ð°Ð»
ĠÐ² Ð»ÑİÐ±
ĠÐ¸ Ð±Ð¾
Ð² Ð°Ð»Ð°
ĠÐº Ð°ÑĪ
Ð¾Ð² ÐµÐ´
ĠÐ± Ð¾Ð¹
ĠÐ± Ð¸Ð±Ð»Ð¸
ÐµÐ» Ð¸Ð²Ð¾
Ð¾Ð» ÐºÐ¾Ð²
Ð¾Ð» ÑİÐ±
Ð¾Ð» ÐµÐ½ÐºÐ¾
ĠÐ¼ Ð¸ÑĢÐ°
ĠÐ¼ Ð¾ÑģÐºÐ¾Ð²
ĠÐ· Ð½Ð°Ñı
Ð¾Ð´ Ð¸ÑĤÑĮ
Ð¾Ð´ Ð¸Ð»Ð¸
ĠÐ½Ðµ ÑĥÐ¼
ĠÐ½Ðµ Ð¾ÑħÐ¾ÑĤ
Ð°ÑĤ Ñĥ
ĠÑĢ ÐµÐ¿ÐµÑĤ
ĠÐ³ Ð°Ð´
ĠÐ³ ÐµÐ½ÐµÑĢ
Ñī Ð¸Ñħ
ĠÑĥ ÑģÑĤÐ°Ð²
ÑĨ Ð°Ð¼Ð¸
Ð½Ð° Ð½
Ð°Ð½ Ð½ÑĥÑİ
ÑģÐº Ð¸Ð¼Ð¸
Ð¸Ð¼ Ð¾Ð³Ð¾
Ð¸Ð¼ Ð¾ÑģÑĤÐ¸
Ð°Ð´ ÑĮ
ÑĥÐ¶ ÐµÐ»Ð¸
ÑĢÐ° Ð½Ð¸Ñĩ
ĠÐ¿Ð¾Ð´ Ñģ
ĠÐļ Ð°ÑĢ
ĠÐļ Ð°Ð¶ÐµÑĤÑģÑı
ĠÐ¢ Ð¾ÑĩÐ½Ð¾
ĠÐľ Ð°Ð»
ÑĥÑĩ Ð¸
ĠÐ¾Ð´ Ð½Ð¾Ð¼Ñĥ
ĠÑģÐ¼ ÑĭÑģ
ĠÐ´ÑĢ Ð°Ð¼
ĠÐĶ Ð¾Ð¼
ĠÐĶ Ð°Ð²
ĠÐĶ ÐµÐ»Ð¾
ĠÐ´Ð² ÐµÐ½
ĠÐ¿Ð¾Ð» ÑİÐ±
ĠÐ¿ÑĢÐ¸ ÐµÐ¼
ĠÑĤÑĢ Ð°Ðº
ĠÐ²Ð¸Ð´ Ð¾Ð¼
ĠÐĳ ÑĭÐ»
ĠÐĵ Ð´Ðµ
ĠÐ¾Ð¿ ÑĥÑģÐº
ĠÐ¸Ð¼ Ðµ
Ð°Ð²ÑĪ ÑĥÑİ
Ð°Ð²ÑĪ Ð¸Ð¹ÑģÑı
Ð°Ð²ÑĪ Ð¸ÐµÑģÑı
ĠÑĥÐ¼ Ð½ÑĭÐ¹
ĠÐ£ Ð¼ÐµÑĢ
ÑģÐ» Ð¾Ð²
Ð¾Ñİ ÑģÑĮ
Ð»ÐµÐ½ Ñĭ
ĠÐ·Ð°Ð¿ ÐµÑĢÑĤ
ĠÐ±Ð¾Ð»ÑĮÑĪ ÑĥÑİ
ĠÐºÐ¾Ð» ÐµÐ±
ĠÑģÐ½ ÑıÐ»
ĠÑĢÐ°Ð´ Ð¾ÑģÑĤÑĮÑİ
ĠÐĴÑĭ Ñģ
ĠÑģÑĤÐ¾Ð» Ð¾Ð²Ð¾Ð¹
ĠÐ¿ÑĢÐ¾ÑĤ ÑıÐ½ÑĥÐ»
ĠÐ½ÐµÐ² Ñĭ
ĠÑĥÐ»ÑĭÐ± ÐºÐ°
ĠÐ¶Ð¸Ð² Ð¾ÑĤ
Ð¸ÑĩÐµÑģÐº Ð¾Ðµ
ÑıÑī Ð¸Ñħ
ÑıÑī Ð¸Ð¹
ĠÐ¿ÐµÑĢÐ² ÑĭÐµ
ĠÐºÐ°Ð¶Ð´ Ð¾Ð³Ð¾
ĠÐºÐ°Ð¶Ð´ Ð¾Ðµ
ĠÐ¸ÑģÐº Ð»ÑİÑĩ
ĠÐ¿ÑĢÐ¸Ð² ÐµÑĤ
ĠÐ±ÐµÑģÐ¿ Ð¾ÑĢÑıÐ´
ĠÐ¿Ð¾Ð½Ð¸Ð¼ Ð°ÐµÑĤ
ĠÑĤÑıÐ¶ÐµÐ» Ð¾Ð¹
ĠÑĪÐ°Ð³ Ð¾Ð²
ĠÐ³Ð¾ÑģÐ¿ Ð¾Ð´Ð°
ĠÐ¸Ð³ÑĢ Ð°Ð»Ð¸
ĠÐ±Ð¾ ÑıÐ·
ĠÐ½ÐµÐ¿ÑĢ ÐµÑĢÑĭÐ²
ĠÐ¿ÑĢÐ¾Ñĩ Ð¸Ð¼
Ð§ ÐµÑħ
ĠÑģÐ²ÐµÑĢ ÐºÐ°
ĠÑģÐ¼ÐµÑĪ Ð½Ð¾Ð¹
ĠÐ¿ÑĮÑı Ð½
ĠÐ¿ÑĢÐ¸Ð± Ð°Ð²
ĠÑģÐ²Ð¾Ð±Ð¾Ð´ Ð½Ð¾
ĠÐ½ÐµÐºÐ¾ÑĤÐ¾ÑĢ Ð¾Ðµ
ĠÐ²ÑģÐº Ð¾ÑĢÐµ
ĠÑĥÑģÐ» Ð¾Ð²
ĠÐ¶Ð´ ÐµÑĤ
ĠÐ³Ð»ÑĥÑħ Ð¾
ĠÐĴÐµÑĢ Ð¾ÑıÑĤÐ½Ð¾
ĠÐ²Ð¾Ðº Ð·
ĠÐķÐ»ÐµÐ°Ð· Ð°ÑĢÐ°
ĠÐ¿Ð°Ð¼ ÑıÑĤÑĮ
ĠÐ½Ð°Ð¿ÑĢ Ð¸Ð¼ÐµÑĢ
ĠÐ³Ð»Ð°Ð² Ð½Ð¾Ðµ
ĠÐ¿Ð°Ñħ Ð»Ð¾
ĠÑĥÑħ Ð¾
ĠÑģÐ¾Ñĩ Ð¸Ð½
ĠÐºÐ°Ð±Ð¸Ð½ ÐµÑĤÐµ
ĠÐ¿Ð¾ÑĤÑĢ ÐµÐ±
ĠÑĢÐ¾Ð² Ð½Ð¾
ĠÐ¼Ð¾Ð½ Ð°ÑģÑĤÑĭÑĢ
ĠÐ´Ð¾Ð¶Ð´ ÑĮ
ĠÑĥÐ´Ð¾Ð²Ð¾Ð»ÑĮÑģÑĤÐ² Ð¸ÐµÐ¼
ĠÐ·Ð¾Ð² ÑĥÑĤ
ĠÐ¯Ð» ÑĤÐµ
ĠÐ¡Ð¼Ð¾ÑĤÑĢ Ð¸
ĠÐ¾ÑĤÐ¿ÑĢÐ°Ð² Ð¸Ð»ÑģÑı
ĠÐĺÐ²Ð° Ð½Ñĭ
ĠÐ±ÐµÐ·Ð½Ð°Ð´ ÐµÐ¶Ð½Ð¾
ĠÑĥÐ½Ð¸Ð²ÐµÑĢÑģÐ¸ÑĤ ÐµÑĤ
ĠÐ¾Ð¿ÑĢÐ°Ð² Ð´
ĠÐ¸Ð·Ð¼ ÑĥÑĩ
ĠÑĢÐ°ÑģÑģÐº Ð°Ð·Ð°Ð»
ĠÐĴÐ»Ð°Ð´Ð¸Ð¼ Ð¸ÑĢ
ĠÑĪÐ²ÐµÐ¹ ÑĨÐ°ÑĢ
ĠÐ·Ð°ÑħÐ¾ÑĤÐµÐ» Ð¾ÑģÑĮ
ĠÐ»Ðµ ÑĤÐ¾
ÑģÐµÐ³ Ð´
1 3
2 2
Ð Ń
Ð¾ ÑĤÐ¾Ñĩ
Ð¸ Ð½ÑĭÐ¼
Ð» Ð°Ñı
Ð» ÑĭÐ¼Ð¸
Ñĥ ÑīÐµÑģÑĤÐ²
ÑĮ ÑģÑı
ĠÑģ ÑĩÐµÑĤ
ĠÑĤ Ñİ
ĠÐ´ Ð¾Ñĩ
ĠÐ´ ÐµÑĪ
ĠÐ´ Ð½ÐµÐ²
Ð¾Ð» Ñİ
ÐµÑĢ Ð¾Ð¼
ĠÐ¼ ÐµÐ±
Ð°Ðº Ð¾Ð²
ĠÐ¿ÑĢ ÐµÐ»
ĠÑĢ Ð¾Ð¶Ð´
ĠÑĢ Ð°Ð½Ð¾
ĠÐ³ ÑĥÐ»
Ð¾ÑĢ Ð¾Ð¶
ĠÐ» Ð°Ðº
Ð± Ð¾Ð¼
Ð¸Ð² Ð°Ð»Ð¾ÑģÑĮ
ÐµÐ´ Ð»ÐµÐ½Ð½Ð¾
ĠÑı Ð´
ĠÐĿ Ð¸ÑĨ
Ð³ ÑĥÑģÑĤ
ĠÐ¿Ð¾ ÐµÑħÐ°Ð»
ĠÐĴ Ð¿
ĠÐĺ Ñħ
ÐµÐ· Ð³
ÑģÑĤÐ² ÐµÐ½
ĠÐ²Ñĭ ÑĢÐ°ÑģÑĤ
Ð»Ñı Ð»Ð¾
Ð¶ Ð°Ð»
ÐµÑĩ Ñĥ
Ð°Ð¶ Ð°
ĠÐŀ ÑģÑĤÐ°Ð²
ĠÐ¿Ð¾Ð´ Ð°Ð²
ĠÐ¿Ð¾Ð´ ÑĬ
ÑĭÐ² Ð°Ñİ
ĠÐľ Ð¾Ð»
ĠÑĪ Ð°Ð¿
ÐµÑĪ ÐµÑģÑĤÐ²
ĠÐ¿ÐµÑĢ ÐµÐ³
ĠÐ´ÑĢ Ð°Ð³Ð¾
Ð¾Ð²Ð° ÑĤÐ¾
Ð°Ð¹ Ð½Ð¾
Ð°Ð¹ ÑģÑı
ĠÐĶ ÐµÐ²
ĠÐĶ Ð¾Ð»Ð³Ð¾
Ð°Ð»ÑĮ Ð½ÑĭÐ¹
Ð°Ð»ÑĮ Ð½ÑĭÑħ
ĠÐ³ÑĢ Ñĥ
Ð½ÑĥÐ» Ð¾
ĠÑĤÑĢ Ð¾Ðµ
Ð¸ÑĤÐµÐ»ÑĮ Ð½ÑĭÑħ
ÑģÑĤÑĢ ÐµÐ»
ĠÐ¿Ð¾Ðº ÑĢÐ°Ñģ
ĠÐ´ÑĢÑĥÐ³ Ð¸Ð¼Ð¸
ĠÐ²Ð· Ð¾ÑĢ
ĠÐ³Ð¾ÑĢ Ñı
ÐµÐ½Ð¸Ñı Ð¼Ð¸
ĠÑĦ ÐµÐ»ÑĮ
ĠÐ¿ÑĢÐ¾ ÑĦ
ĠÐ¸Ð¼ Ð¿
ĠÐ²ÐµÑģ ÐµÐ½
ĠÐ¶ÐµÐ½ Ñĥ
ÑĢÑĭ Ð·
ĠÐĽ Ð¸Ð»
ĠÐ½Ð°Ñĩ Ð°Ð»ÑĮ
ĠÐĹ Ð²
Ð´ÑĢ ÐµÑģ
ĠÑģÑĤÐ°ÑĢ Ð°ÑıÑģÑĮ
ĠÑĤÐµÐ¿ Ð»Ð¾
Ð»ÐµÐ½ Ð¸Ð¹
ĠÐ¿Ð¾ÑĢ ÑĭÐ²
ĠÐ±Ð¾Ð»ÑĮÑĪ Ð¾Ð³Ð¾
ĠÑģÑĤÑĢÐ°ÑĪ Ð½ÑĭÐ¹
ĠÑĥÐ¿ ÑĢÐ°Ð²
ĠÐ½Ð¾Ð² Ð¾Ð³Ð¾
ĠÐ½Ð°Ð· Ð²
ĠÐ¿ÐµÑĢÐ² ÑĭÑħ
ĠÐ²ÑģÑı ÐºÐ¾Ð³Ð¾
ĠÐ³Ð¾Ð´ Ð¾Ð²
ĠÐºÐ°ÑĢ ÑĤÑĭ
ĠÑģÐ»ÑĥÑĩ Ð°Ñı
ĠÐ·Ð°Ð³ Ð¾Ð²Ð¾ÑĢ
ĠÐ´Ð¾Ðº Ð°Ð·
ĠÑĥÑģ Ð¼ÐµÑħ
ĠÐ²ÑģÐ¿ ÑĭÑħ
ĠÐ¿Ð¾Ñħ Ð¾ÑĢÐ¾Ð½
ĠÐ»ÐµÐ¶ Ð¸ÑĤ
ĠÐ¿ÑĥÑģÑĤ Ð¾Ð¹
ĠÑģÐ»ÐµÐ´ ÑĥÐµÑĤ
ĠÐľÐ¾Ñģ ÐºÐ¾Ð²
ĠÐ³ÑĢÐ¾Ð¼ ÑĩÐµ
Ð¼Ð° Ð½Ñĭ
ĠÐ´Ð¾Ð±ÑĢ ÑĭÐ¹
ĠÑıÑĢ Ð¾ÑģÑĤ
ĠÐ¿Ð¸ÑģÑĮ Ð¼Ðµ
ĠÐ²ÐµÑģÐµÐ» ÑĭÐµ
ĠÐŁÐ¾Ñģ Ð»ÐµÐ´
ÐĴ Ð¾ÑĤ
ĠÐ¼ÑĭÑģÐ» ÐµÐ¹
ĠÐ¿Ð¾Ð²ÐµÑĢ Ð½ÑĥÐ»ÑģÑı
ĠÑģÐ¼ÐµÑĪ Ð½Ð¾
ĠÐ¿ÐµÑĩÐ°Ð»ÑĮ Ð½Ð¾
ĠÑĤÐ¾Ð²Ð°ÑĢÐ¸Ñī ÐµÐ¹
Ðŀ ÑģÐº
ĠÑģÐ»ÑĥÑĪ Ð°ÑĤÑĮ
Ð½Ð°Ñĩ Ð°Ð»Ðµ
ĠÐ¾ÑĢ Ð¸Ð³Ð¸Ð½
ĠÐ·Ð°Ð´ÑĥÐ¼ ÑĩÐ¸Ð²
ĠÐ¸Ð·Ð²ÐµÑģÑĤ Ð½Ð¾
ĠÐ²ÑĭÑĪ Ð»Ð¾
ĠÐºÐ°ÑĢÑĤ Ð¸Ð½
ĠÑĤÐµÑĤ ÑĢÐ°Ð´
ĠÐ½ÐµÐ¾Ð¶Ð¸Ð´ Ð°Ð½Ð½Ð¾
Ð»Ð¸Ðº Ð½ÑĥÐ»
ĠÐ»ÐµÑģÑĤ Ð½Ð¸ÑĨÐµ
ĠÑĦÐ°Ðº ÑĤ
-- --
ĠÐ´ÑĢÑĥÐ· ÐµÐ¹
ĠÐ¼ÐµÑģÑı ÑĨ
ĠÐ¿ÑĢÐ¾Ð¸ÑģÑħÐ¾Ð´ Ð¸Ð»Ð¾
ĠÐ¿ÑĢÐµÐ´ÑģÐµÐ´ Ð°ÑĤÐµÐ»ÑĮ
ĠÑĥÐ¹ ÑĤÐ¸
ĠÐºÐ»Ð°Ð´ Ð±
ĠÐļÐ°ÑĢÐ°ÑĥÐ» Ð¾Ð²Ð°
ĠÐĿÐ°ÑģÑĤÐ°ÑģÑĮ Ñı
ĠÑĥÑģÑĤÑĢ ÐµÐ¼
ĠÐ¼Ð¸Ð»Ð»Ð¸ Ð¾Ð½
ĠÐ½ÐµÐ¾ÑħÐ¾ÑĤ Ð½Ð¾
ĠÐ´ÑĢÐ°Ð³Ð¾ ÑĨ
Ð½ Ð°Ð¼Ð¸
Ð» Ð¾Ð¿
Ð» Ð¾Ðµ
ÑĢ Ð°Ð»
ÑĢ ÑĭÐ²Ð°Ð»
ĠÑģ Ð¾ÑĤÑĢ
ĠÐ¿ Ð°
ĠÐ¿ Ð¸Ð»Ð¸
ĠÐ¿ ÐµÐ»Ð¸
Ñĩ ÐµÑĢ
Ñĩ Ð¸Ð½
Ðº Ð°Ð·
ĠÐ² Ð¸Ð½Ð¾
ĠÐ² Ð³Ð»ÑıÐ´ÑĭÐ²
ÑĤÐ¾ Ð¸ÑĤ
ĠÐº ÑĥÑģÑĤ
ĠÐ± Ð¸ÑĤÑĮ
ĠÐ± ÐµÑĪ
ĠÐ´ Ð°ÑİÑĤ
Ð¸Ð» ÐµÑĤ
ĠÐ¿ÑĢ Ð¾ÑģÑĮ
Ð¸ÑĤ Ð¾Ð¹
Ð¸ÑĤ ÐµÐ»Ð¸
ĠÐ³ Ð½Ñĥ
ĠÐ½Ð° ÑĥÑĩ
ĠÐ½Ð° ÑģÐ»
ĠÑĥ ÑİÑĤ
ĠÐ» Ð¾Ðº
ĠÐ» Ð¾Ð±
ĠÐ¾ÑĤ Ð»Ð¸Ñĩ
ĠÑģÑĤ ÑĥÐ»
ĠÐŁ ÐµÑĢ
ĠÐĿ ÐµÑģ
Ð¾Ð¶ Ð°
Ð¾Ð»ÑĮ ÑĪÐµ
ĠÐĴ Ð°Ð»
ĠÐĺ Ð¿Ð°ÑĤ
ĠÐ²Ñĭ Ð´ÐµÐ»
ÐµÐº Ðµ
Ð¶ Ñĥ
ĠÐ·Ð° ÑħÐ¾Ð´
ĠÐ·Ð° ÑħÐ²Ð°ÑĤ
ĠÐºÑĢ Ð¾ÑĤ
ĠÐļ Ð¾Ð½
ĠÑĢÐ°Ð· Ð¾ÑĢ
ĠÑĢÐ°Ð· ÑĬ
ĠÐ¢ Ð¾ÑĤ
ĠÐľ Ð¾Ð»Ð¾Ð´
ÐµÐ¶ Ð´Ðµ
ÑıÐ» Ð¾ÑģÑĮ
ĠÐĶ Ð²
ĠÐ»Ð¸ ÑģÑĤÑĮ
ĠÐ²Ð¸Ð´ Ð¸ÑĪÑĮ
ĠÑĩÐµÑĢ Ð½Ð¾Ðµ
ĠÐ±ÐµÐ· Ð³
ÑĥÐ² ÐµÑĢ
Ð»Ð¸Ð² ÑĭÐ¼
ĠÑģÑĤÑĢ Ð¾Ð¹
ĠÑĦ Ð¾ÑĤ
ĠÐ¾Ðº Ð¾Ð½
ĠÐ¸Ð¼ Ð¸
ĠÐ¸Ð¼ ÐµÐ½
ĠÐ¾Ñģ ÐµÐ½
Ð½Ñı Ð»Ð°
ÑĥÑģÑĤ Ð¸Ð»
ĠÐ±ÑĢ Ð°Ð½
ĠÐ±ÑĢ ÐµÐ·Ð³
ĠÑģÐ²ÐµÑĤ Ð»Ð¾
ĠÐļÐ°Ðº Ð°Ñı
ĠÐ½Ð¾Ñĩ Ð°Ð¼
ĠÐŃÑĤÐ¾ ÑĤ
ĠÐ¼Ð°Ð» ÐµÐ½ÑĮÐºÐ¾Ðµ
ĠÐ¿Ð¾Ð· Ð°Ð±
ĠÑģÐ»Ð¾Ð² Ð¾Ð¼
ĠÐ½Ð¾Ð² ÑĥÑİ
ĠÐ¶ÐµÐ½Ñī Ð¸Ð½Ñĥ
ĠÐ¼Ð°Ð»ÐµÐ½ÑĮÐº ÑĥÑİ
ĠÐ¿Ð¾Ð³ Ð¸Ð±
ĠÐ²ÐµÑĩ Ð½Ð¾
ĠÐºÐ°Ð¶Ð´ Ð¾Ð¹
ÑİÑī Ð¸Ñħ
ĠÐºÐ» ÑĥÐ±
ĠÑħÐ¾Ð´ Ð¸Ð»Ð¸
ĠÐ¾ÑģÑĤÐ°Ð² Ð°Ð»ÑģÑı
ĠÑģÑĤÐ°Ð½Ð¾Ð² Ð¸Ð»Ð¸ÑģÑĮ
ĠÐ´Ð¾ÐºÑĤÐ¾ÑĢ Ñĥ
ĠÐ±ÑĭÐ² Ð°ÑİÑĤ
ĠÐ¿Ð¾Ð± Ð»ÐµÐ´
ĠÐ³ÑĢÑıÐ· Ð¸
ĠÐ²ÐµÐ»Ð¸Ðº Ð°Ð½
ĠÐ¸Ð½ÑĤÐµÑĢÐµÑģ Ð½Ð¾
ĠÐ¿ÑĢÐ¸Ð´ ÐµÑĤ
ĠÐ¿ÑĢÐ¾Ñĩ ÐµÐ»
ĠÑģÑĤÑĢÐ°Ñħ Ð¾Ð¼
ĠÑĪÐµÐ¿ Ð¾ÑĤÐ¾Ð¼
ĠÑĩÑĥÐ´ Ð¾Ð²Ð¸Ñī
ĠÑĥÐ¼ÐµÑĢ ÐµÑĤÑĮ
ĠÐ¿Ð¾ÑħÐ¾Ð¶ Ð¸Ð¹
ĠÑĤÐ¾Ð»ÑģÑĤ ÑĭÐµ
ĠÐ¿ÑĢÐ¾Ðº ÑĥÑĢ
ĠÐ½Ð°ÑĢ ÑĥÑĪ
ĠÐ¿ÑĢÐ°Ð·Ð´ Ð½Ð¸Ñĩ
ĠÐ·ÑĥÐ± Ð°Ð¼Ð¸
ĠÐ¿Ð°Ð´ Ð°Ð»
ĠÐ·Ð´Ð¾ÑĢÐ¾Ð² ÑĮÐµ
ĠÐ¿ÑĥÑĤ ÐµÑĪÐµÑģÑĤÐ²
ĠÐ³Ð¾ÑģÑĤ Ð¸Ð½
ĠÐ¾ÑĤÐ½Ð¾ÑĪ ÐµÐ½Ð¸Ðµ
ĠÑĥÐ²ÐµÑĢ ÐµÐ½
ĠÐ²ÐµÑī ÑĮ
ĠÐ¾ÑģÑĤÐ°Ð½ ÐµÑĤÑģÑı
ĠÑĢÐµÐ±ÐµÐ½ Ð¾Ðº
ĠÑĤÐ²Ð¾ Ñı
ĠÐ¶Ð°ÑĢ ÐºÐ¾
ĠÐ´ÐµÐ²ÑĥÑĪ ÐºÐ¸
ĠÐºÐ°Ð·Ð°Ð» Ð°ÑģÑĮ
ĠÐ¿Ð¾Ð´ÑĢ Ð¾Ð±Ð½Ð¾
ĠÑĢÐ°Ð·ÑĢ ÐµÑĪ
ĠÐ¾ÑĤÐ½Ð¾Ñģ Ð¸Ð»ÑģÑı
ĠÐ¶Ð°Ð´ Ð½Ð¾
ĠÐ»ÑİÐ±Ð¾Ð¿ÑĭÑĤ ÑģÑĤÐ²Ð¾Ð¼
ĠÐ¿Ð¾ÑĤÐ¾Ð» Ð¾Ðº
ĠÑĢÐ¾Ð¼ Ð°Ð½
ĠÐ¢Ð°Ð³Ð°Ð½ÑĢÐ¾Ð³ Ðµ
ĠÑĤÐ²Ð¾ÑĢÑĩ ÐµÑģÑĤÐ²Ð°
ĠÐ½Ð°Ñħ Ð¼ÑĥÑĢ
ĠÑĥÐ¿Ð¾ÑĢ Ð½Ð¾
ĠÐ¿Ð¾ÑĨÐµÐ» Ñĥ
ĠÐ¿Ð¾Ð´Ð± Ð¾ÑĢÐ¾Ð´
ÐµÐ¾Ð´ Ð¾Ñģ
ĠÐ¿Ð¾ÑģÐ»ÑĭÑĪ Ð°Ð»ÑģÑı
ĠÑģÐ°Ð½Ð¾Ð² Ð½Ð¸Ðº
ĠÑĤÐµÑĩ ÐµÐ½Ð¸Ðµ
ĠÐ²Ð¾ÑģÑĮ Ð¼
ĠÐ½ÐµÑģÐ¾Ð¼Ð½ ÐµÐ½Ð½Ð¾
ĠÑģÑĥÐ± Ð±
ĠÐ½ÐµÐ¾Ð¿ ÑĢÐµÐ´ÐµÐ»
ĠÐĶÐ¾Ðº ÑĤÐ¾ÑĢ
ĠÐ±Ð¸Ð±Ð»Ð¸ Ð¾ÑĤ
ĠÐ½ÐµÐ²Ñĭ Ð½Ð¾Ñģ
? "
Ðµ Ð¸
ÑĤ Ð°Ðº
Ð¸ Ð¾Ð³ÑĢÐ°ÑĦ
Ð» ÑĭÑħ
Ñı ÑıÑģÑĮ
Ñĭ Ð»Ð°
ĠÑģ Ñģ
ĠÑģ Ð°Ð½
ĠÑģ ÑĥÑī
Ñĩ Ð¸
Ðº Ð¾Ð²Ð°
ĠÐ² Ð»Ð¸
ĠÐ² ÑıÐ»
ĠÐ² Ð»Ð°Ð´
Ð´ ÐµÐ½Ð°
Ð¼ Ð°ÑĤ
Ð¾Ð² Ð°Ð»Ð¸ÑģÑĮ
ÐµÐ½ Ñī
ĠÑĤ ÑıÐ½ÑĥÐ»
ĠÐ´ Ð°Ð»Ð¸
ĠÐ´ Ð°Ð»Ð°
ÐµÐ» Ð¸ÑģÑĮ
ÐµÐ» Ð°Ð³
ĠÐ¼ Ð°Ð½
ĠÐ¼ Ð°ÑĢ
Ð¾Ð¼ Ð¾Ñī
ĠÐ¿ÑĢ Ð¾Ð¶
ĠÑĢ Ð°Ð¼
ÐµÐ¼ Ð½
Ñī Ð¸Ð¼
ĠÑĥ ÑĩÐ°
ĠÑĥ ÑĩÐ¸ÑĤ
ĠÐ» ÐµÐ·
ĠÐ» Ð¸Ð¿
ÑĨ Ð¸Ð¾Ð½
Ð¾ÑĤ Ñı
Ð½Ð° Ñħ
ĠÐ¾ÑĤ ÑģÑĤÑĥÐ¿
ĠÑģÑĤ Ð°ÐºÐ°Ð½
Ð¾Ðº Ñĥ
Ð¾Ðº Ð¾Ð»
Ð¸Ð½ Ð¾Ð¼
ĠÐŁ Ð¾Ð³
ĠÐŁ ÐµÐ»Ð°Ð³
Ð¾Ð¶ Ñĥ
ĠÐ° Ð´ÑĢÐµÑģ
Ð»Ñı Ð²
ĠÐĲ ÑĢ
Ð°Ð¶ Ð¸ÑĤÐµ
ĠÐ¾Ð± Ðµ
ĠÐ¾Ð± Ð»Ð°Ð´
ĠÐŀ Ð½Ð¾
ĠÐ¿Ð¾Ð´ Ð¶
ĠÐ¸Ð· ÑĥÑĩ
ĠÐ¸Ð· Ð¾Ð±ÑĢÐ°Ð¶
ĠÑĪ ÐµÐµ
ĠÑĪ ÐµÐ²ÐµÐ»
ĠÑĢÐ°Ñģ ÑħÐ¾Ð´
ĠÑĢÐ°Ñģ ÑĩÐµÑĤ
ĠÑĤÑĢ ÐµÑħ
ĠÐ±ÑĥÐ´ ÐµÑĪÑĮ
ĠÐ³Ð¾Ð²Ð¾ÑĢ Ñı
ĠÐ´ÑĢÑĥÐ³ Ð°Ñı
ĠÐ»ÑİÐ± Ð¸Ð»Ð¸
Ð»Ð¸Ð² ÑĭÐµ
ĠÑģÑĤÑĢ Ð¾ÐºÐ¸
ĠÑĦ ÑĢÐ°Ðº
ĠÐ±Ð» Ð°Ð¶
ĠÐ²Ð¾Ð· ÑĢÐ°Ð¶
ĠÐ§ÐµÑħÐ¾Ð² ÑĭÑħ
ĠÐ¸Ð¼ ÐµÐµÑĤ
ĠÐ¾Ñģ Ð»ÐµÐ¿
ĠÑĤÐµÐ¼ Ð½ÑĭÑħ
ĠÑĤÐµÐ¼ Ð½Ð¾Ðµ
ĠÐ¶ÐµÐ½ Ðµ
ÑĢÑĭ Ð³
ĠÐ½Ð°Ñĩ Ð°Ð»Ð¸
ÐµÑĤÑĮ ÑģÑı
ĠÐ½ÐµÐ¿ ÑĢÐ°Ð²
ĠÐ£ Ð±
Ð»ÑıÐ´ ÑĭÐ²Ð°Ð»
ĠÐ²ÑĢÐµÐ¼ ÐµÐ½Ð°
Ð¸Ð»ÑĮ Ð½Ð¾
ĠÐŃ ÑĤÐ°
ĠÑģÐ¾ Ð¾Ð±ÑĢÐ°Ð¶
Ð¸Ð²ÑĪ ÐµÐ³Ð¾ÑģÑı
ĠÐŁÑĢ Ð¾ÑģÑĤ
ĠÐ´ÑĥÐ¼ Ð°ÐµÑĪÑĮ
ĠÐ¾Ð´Ð¸Ð½ Ð¾ÐºÐ¾
ĠÐļÐ°Ðº Ð¸Ðµ
ĠÑĥÐ´ ÐµÑĢÐ¶
ĠÐ·Ð°Ðº ÑĢÑĭÑĤ
ĠÐ¿Ð¾Ð· Ð¶Ðµ
Ð°ÑİÑī ÐµÐ³Ð¾
ĠÐ´ÐµÑĢ Ð·
ĠÐ±ÐµÐ» ÑĭÐ¼Ð¸
Ð»ÐµÐº ÑĤÑĢ
ĠÐ±ÑĥÐ´ÐµÑĤ Ðµ
ÑĩÐ¸Ðº Ð¸
Ð¸ÑĩÐµÑģÐº Ð°Ñı
ĠÐ½Ð¾Ð² ÑĭÐ¼
ĠÐ·Ð°Ð´ Ð°Ñĩ
ĠÐ¼Ð¾Ð»Ñĩ Ð°Ð½Ð¸Ðµ
ĠÐ²Ð¾Ð´ Ð¾Ð¹
ĠÐ³Ð»ÑĥÐ± Ð¸Ð½Ðµ
ÑİÑī Ð¸Ð¼
ĠÐ·Ð°Ñģ ÑĭÐ¿
ÑĢÐ°ÑĤ Ð½Ð¾
ĠÐ¿Ð¾Ñħ Ð²Ð°Ð»
ĠÐĴÐ°Ñģ Ð¸Ð»
ĠÐ±ÐµÑģÐ¿ Ð¾Ð¼Ð¾Ñī
ĠÑī ÐµÐ½Ð¾Ðº
Ġ1 2
ĠÐ¿Ð¾Ð½Ð¸Ð¼ Ð°ÐµÑĤÐµ
ĠÑģÑĤÐ°Ð½Ð¾Ð² Ð¸Ð»Ð°ÑģÑĮ
ĠÐ¿ÑĢÐ¸ÑħÐ¾Ð´ Ð¸ÑĤ
ĠÐ¿ÑĢÐ¾ÑĪ ÐµÐ¿
ĠÐ¿ÑĢÐ¾ÑĪ Ð»Ð°
ĠÑģÐ¾Ñģ ÑĢÐµÐ´
ĠÐ¼ÑĥÐ¶ Ð°
ĠÐ¿Ð¾Ð± ÐµÐ´
ĠÐ¿ÑĢÐ¾Ð¸Ð· Ð½ÐµÑģ
ĠÐ´ÐµÑĢÐµÐ² ÑıÐ½
ĠÐ´ÐµÑĢÐµÐ² ÑĮÐµÐ²
ĠÐ²ÐµÐ»Ð¸Ðº Ð¾Ð»ÐµÐ¿
ĠÐ»Ð¸ÑĤÐµÑĢÐ°ÑĤÑĥÑĢ Ðµ
ĠÐ¼Ð°ÑĤ ÐµÑĢ
ĠÐ³ÑĥÐ± ÐµÑĢ
ĠÐ´Ð²ÐµÑĢÑĮ Ñİ
ĠÐ¿ÑĢÐ¸Ð· ÑĢÐ°Ðº
ĠÐ±Ð»Ð°Ð³ Ð¾Ð¿Ð¾Ð»ÑĥÑĩ
Ð½ÑĥÑĤ ÑĭÐ¹
ĠÐ½Ð°Ð¿Ð¸Ñģ Ð°ÑĤÑĮ
Ð¸ÑģÐº Ñĥ
ĠÐ·Ð°Ð» Ðµ
ĠÐ¿Ð¾Ð²ÑĤÐ¾ÑĢ ÑıÐ»
ĠÐ³Ð¾ÑĢÑıÑĩ Ð¾
ĠÑĤÐ¾Ð²Ð°ÑĢÐ¸Ñī Ð¸
ĠÐ¼Ð°Ð»ÑĮ Ñĩ
ĠÐ´Ð»Ð¸Ð½ Ð½ÑĭÐ¹
ĠÑģÐ²ÐµÑĤÐ» ÑĭÐµ
ĠÐ¿Ð»Ð°ÑĤ ÑĦÐ¾ÑĢ
ĠÐ³Ð°Ð· ÐµÑĤÐµ
ĠÐ³Ð»ÑĥÐ¿ Ð¾
ĠÑģÐ¿ÑĢÐ°ÑĪ Ð¸Ð²Ð°ÐµÑĤ
ĠÐ³Ð»ÑĥÑħ Ð¾Ð¹
ĠÑĥÑĪ Ð»Ð°
ĠÐ¾ÑĤÐ½Ð¾ÑĪ ÐµÐ½Ð¸Ñı
ĠÐ±ÐµÑģÐº Ð¾Ð½ÐµÑĩÐ½Ð¾
ĠÑģÐºÐ°Ð¶ Ð¸
ĠÑģÐºÐ°Ð¶ Ñĥ
ĠÐ½ÐµÑģÑĩÐ°ÑģÑĤ Ð½ÑĭÐ¹
ĠÑīÐµÐº Ðµ
Ð»Ð°Ð³ Ð¾Ð´Ð°ÑĢ
ĠÑģÑĨ ÐµÐ½Ñĭ
ĠÑģÑĥÑħ Ð¾Ð¹
ĠÐļÐ°ÑĤ Ñı
ĠÐ¾Ñħ Ð¾ÑĤÐ½Ð¾
ĠÑĥÑģÑĤÐ°Ð» Ð¾ÑģÑĤÐ¸
ĠÐ¸ÑģÐºÑĥÑģ ÑģÑĤÐ²Ð°
ĠÐ´ÑĥÑħ Ð¾Ð²
ĠÑĥÑĩÐ°ÑģÑĤ Ð¸Ðµ
ĠÑįÐº Ð¸Ð¿
ĠÑħÑĥÐ´Ð¾Ð¶ Ð½Ð¸Ðº
ĠÐ¯ÐºÐ¾Ð² Ð»
ĠÐ¼Ð¾Ð· Ð³
ĠÐ²Ð¾ÑģÐ¿Ð¾Ð¼Ð¸Ð½Ð°Ð½Ð¸Ñı Ñħ
ĠÐļÐ¾ÑĢ Ð¾Ð»ÐµÐ½ÐºÐ¾
ĠÐ°Ð½Ð³ÐµÐ» Ð¾ÑĩÐºÐ°
ĠÐŁÐ¾ÑģÐ»ÑĥÑĪ Ð°Ð¹ÑĤÐµ
ĠÐ½Ð°Ð±Ð»Ñİ Ð´
ĠÐ·Ð»Ð¾Ð² ÐµÑī
ĠÐ½ÐµÐ·Ð°Ð¼ ÐµÑĤÐ½Ð¾
ĠÐ´ÑıÐ´ Ñı
ĠÐ¤ÐµÐ½Ð¾Ð³ ÐµÐ½
ĠÐ³Ð½Ñĥ Ñģ
ĠÑĦÐ¾ÑĤ Ð¾Ð³ÑĢÐ°ÑĦ
* .
2 7
3 3
Ġ ÑĥÐ³Ð¾
Ñģ Ñĭ
Ð» Ð¾ÑĤ
Ð» Ð¾Ð²Ð°
Ð» Ð¸Ð±Ð¾
ÑĢ ÐµÐ¹
Ñı Ð¹
ĠÑģ Ð½Ð¸Ð¼
ĠÑģ Ð¾ÑĪÐµÐ»
ĠÐ¿ Ð°ÑģÑģ
ĠÐ² ÑħÐ¾Ð´Ð¸Ð»
Ð² Ð¸Ð½
Ð² Ð°Ð»ÑģÑı
Ð² ÑĭÑĩ
Ñħ Ð¾
Ñħ Ð°
ĠÐº Ð¾ÑĤ
Ð¾Ð² Ð¸ÑĤ
Ð¾Ð² Ð¾Ð³Ð¾
Ð¾Ð² Ð»ÐµÑĤ
ĠÐ± Ð¾ÑİÑģÑĮ
ĠÑĤ ÐµÐº
ĠÐ´ Ð¸ÑĢÐµÐº
ÐµÐ» Ð¸Ð³
ĠÐ¼ Ð°Ñħ
ĠÑĩ Ð»ÐµÐ½
ĠÐ· Ð°ÑĤÑĢ
ĠÐ¿ÑĢ Ð¾ÑĢ
ĠÐ½Ðµ Ð¾Ñģ
ĠÐ½Ðµ ÑģÐ¿
Ñī Ð¸Ð¹
ĠÑĥ ÐµÐ·Ð¶
ĠÐ» Ð°Ð¿
ĠÐ¾ÑĤ Ð¼
ĠÐ¾ÑĤ ÑħÐ¾Ð´
ĠÐ¾ÑĤ Ð¾Ð·Ð²
Ð¾Ðº Ð¸Ð¹
Ð°Ð´ Ð¾ÑģÑĤ
Ð°ÑĢ ÑĮ
ĠÐ¿Ð¾ ÐµÐ·Ð´Ð°
ÐµÐ² Ð°Ð»Ð°
ĠÐĴ ÑģÑı
ĠÐĴ Ð¿ÑĢ
ĠÐ²Ñĭ ÑģÑĤÐ°Ð²
ÑĢÐ° Ñħ
ÑĢÐ° Ð½Ð¸
ĠÐ¡ ÐµÐ¹ÑĩÐ°Ñģ
ĠÐ¡ Ð°Ð½ÑĮÐºÐ°
ÑĥÐ³ Ð°
ĠÐ¿Ð¾Ð´ Ðº
ĠÐ¿Ð¾Ð´ Ð°ÑĢ
ĠÐ¸Ð· Ð³
ĠÑģÐº Ð»Ð°Ð´
ĠÑģÐº ÑĢÑĭÑĤ
ĠÐļ ÑĢÐ°Ñģ
ÑĭÐ² Ð°ÑıÑģÑĮ
ĠÑĪ Ðº
ĠÐ¿ÐµÑĢ ÐµÐ¼ÐµÐ½
ÐµÐ½Ð½Ð¾ ÑģÑĤÑĮÑİ
Ð¾ÑģÑĤ ÐµÐ¹
ĠÑģÐ¿ Ð°Ð»ÑĮ
Ð¸ÑĢ Ð°Ñı
ĠÐĶ ÑĥÐ¼
ĠÑĢÐ°Ñģ ÑģÐµ
ĠÐ³ÑĢ Ð¾ÑħÐ¾ÑĤ
ĠÑģÐ°Ð¼ Ð¾Ð²Ð°ÑĢ
ĠÐ¿Ð» Ð°Ð²
ĠÐ²Ð· Ð²Ð¾Ð»
Ð°Ð»Ð¾ ÑģÑĤÑĮ
ĠÐķ Ðµ
ĠÐķ Ð¹
ĠÐĳ ÐµÐ½
ĠÑĩÐµÑĢ ÐµÐ¿
Ð»Ð¸Ð² ÑĭÑħ
ĠÐ¼Ñĭ Ñģ
ĠÐ¼Ñĭ ÑĪ
ĠÐ¾Ðº Ð°Ð·
ĠÐ¾Ðº Ð°Ð·ÑĭÐ²
ĠÐ¼Ð¾ ÐµÐ¼
ĠÐĽ Ð¸ÑĨ
Ð°Ð²ÑĪ Ð¸Ð¼
ĠÑĥÐ¼ Ð¸Ð»
ĠÑĥÐ¼ Ð¾Ð»Ðº
Ð°ÑĤÐµÐ»ÑĮ Ð½ÑĭÐ¼
ĠÐ¿Ð¾Ð½ ÐµÑģ
ĠÐ·Ð² Ð°Ð»
ĠÐ²ÑĢÐµÐ¼ ÐµÐ½
Ð¸Ð²ÑĪ ÐµÐ¹
Ð¸Ð²ÑĪ ÐµÐ¹ÑģÑı
ĠÐ²ÐµÑĢ Ð½Ð¾
Ð»ÐµÐ½ Ð½Ð¾Ð¹
ĠÐ¿Ð¾ÑĢ Ð°Ð·
ĠÐ¿Ð¾ÑĢ ÑĤÑĢ
ĠÐ±Ð¾Ð»ÑĮÑĪ Ð¸Ð¼Ð¸
ĠÐºÐ¾Ð» ÐµÐ½
ĠÐ¿Ð¾Ð¿ Ð°Ð»
ĠÑħÐ¾ÑĢÐ¾ÑĪ Ð¸Ð¼
ĠÐ´ÐµÐ» Ñĥ
ĠÐ±Ð¾Ð» ÑĤ
ĠÑĢÐ°ÑģÑģÐºÐ°Ð· Ð°
ĠÑģÑĤÑĢÐ°ÑĪ Ð½Ð¾Ð¹
ĠÐ½ÐµÐ´ Ð°Ð²Ð½Ð¾
ĠÑĥÐ² Ð»ÐµÑĩ
ĠÐ½Ð¾Ð³ Ð°Ñħ
ĠÐ·Ð°Ð± Ð¾Ð»
ĠÐ·Ð°Ð± Ð°Ð²
ĠÐ¶Ð¸Ð² ÑĥÑĤ
ĠÐ¥ ÑĥÐ´
ĠÐ¥ Ð¾Ñĩ
ÑıÑī ÐµÐ³Ð¾
ĠÐ·Ð°Ð² ÑģÐµÐ³Ð´
ĠÑħÐ¾Ð»Ð¾Ð´ Ð½ÑĭÐ¹
ĠÐ¶Ð°Ð» Ð¾Ð²Ð°Ð»ÑģÑı
ĠÐ¿ÑĢÐ¸Ð² ÐµÐ·
ĠÐ±ÐµÑģÐ¿ Ð¾ÑīÐ°Ð´
ĠÑĢÐ°ÑģÑģ Ð¼Ð¾ÑĤÑĢ
ĠÐ¿ÑĢÐ¸ÑħÐ¾Ð´ Ð¸Ð»
ĠÑģÐ¾Ð»Ð½ ÑĨÐµÐ¼
ĠÑģÐºÐ¾ÑĢ Ð±
ĠÑģÐ¸Ð»ÑĮ Ð½ÑĭÐ¹
ĠÑĤÑıÐ¶ÐµÐ» Ð¾Ðµ
ĠÐ¿ÑĢÐ¾Ð¸Ð· Ð¾ÑĪÐ»Ð¾
ĠÐºÑĢÐ¾Ð² Ð°ÑĤÐ¸
ĠÑĤÐ¾Ð½ ÐºÐ¸Ðµ
ĠÐ¤ ÐµÐ´
ĠÐ²Ð·Ð³Ð»Ñı Ð´Ð°
ĠÐ²Ð°ÑĪ Ð¸
Ðĳ Ð¾Ð³Ñĥ
ĠÑģÑĥÐ´ Ð¾ÑĢ
Ð¿ÑĢ Ð°ÐºÑģ
ĠÐ¾Ð±ÑĬ ÑıÑĤ
ĠÐ¾Ð±ÐµÐ´ Ð°
ĠÐ²Ð¾Ð»Ð¾Ñģ Ð°Ð¼Ð¸
ĠÑĤÐ¾Ð»ÑģÑĤ Ð°Ñı
ĠÑĤÐ¾Ð»ÑģÑĤ ÑĭÐ¹
Ð¸Ð¾Ð½ Ð¾Ð¼
Ð¸ÑĤÐµÐ» Ñı
ĠÐĿÐ°Ð´ Ñı
ĠÐ²ÑģÐº ÑĢÐ¸Ðº
ĠÐ³Ð»ÑĥÐ±Ð¾Ðº Ð¸Ðµ
ĠÐ¿Ð°Ð¿ Ð°
ĠÐľÐ°ÑĢ Ð¸Ñı
ĠÐ´ÑĥÑĢ Ð°Ðº
ĠÐ²Ð¾Ð·Ð¼ ÑĥÑĤ
ĠÐ²ÑģÐ¿Ð¾Ð¼Ð½ Ð¸ÑĤÑĮ
ĠÐ¶Ð´ Ð°ÑĤÑĮ
ĠÐ³ÑĢÐ¾Ð· Ð½Ð¾
ĠÐ²ÑģÑĤÑĢÐµÑĤ Ð¸Ð»
ĠÑģÑĤÐµÐ¿ Ð¸
ĠÑĤÑĢÐµÐ± Ð¾Ð²Ð°Ð»
ĠÐ¼Ð°ÑĤÐµÑĢÐ¸ Ð°Ð»
ĠÐ²ÑĭÐ´ ÑĥÐ¼
ĠÑĤÑĮ Ð¼Ñĥ
Ð¸Ð½ÑĥÐ» ÑģÑı
ĠÐ¡Ð» ÑĭÑĪ
ĠÐ½Ð¸ÐºÐ°Ðº Ð¸Ñħ
ĠÐ´Ð°Ñĩ Ðµ
ĠÐ±ÐµÐ·ÑĥÐ¼ Ð½Ð¾
ĠÐ½ÐµÑĩ ÐµÐ³Ð¾
ĠÐ¿ÑĢÐ¸Ð½Ð¸Ð¼ Ð°Ð»
ĠÐºÐ°ÑĢÑĤ Ð¸Ð½Ñĥ
ĠÐ¿ÑĮÐµÑģ Ñĥ
ĠÐ·Ð°Ñī Ð¸Ñī
ĠÐ±Ð»Ð°Ð³Ð¾Ð´Ð°ÑĢ Ñı
ĠÐķÐ² Ð¿ÑĢÐ°ÐºÑģ
ĠÑģÑĥÑĢ Ð¾Ð²Ð¾
ĠÑĢÐ°Ð·ÑĢ ÑĥÑĪ
ĠÐ¾Ð±ÑıÐ· Ð°Ð½
ĠÑħÐ¾Ð» Ð¾Ð´Ð°
ĠÑģÐ¾Ð´ ÑĢÐ¾Ð³
ĠÐĺÐ²Ð° Ð½Ð°
ĠÐ±ÐµÐ·Ð½Ð°Ð´ ÐµÐ¶
ĠÐ²Ð¾Ð·Ð¼Ð¾Ð¶ Ð½Ð¾ÑģÑĤÐ¸
ĠÐ¾Ð±ÐµÑĢ Ð½ÑĥÐ»ÑģÑı
ĠÐ¾Ð¶Ð¸Ð´ Ð°Ð»
ĠÐ´Ð¾ÑģÑĤÐ¾ Ð¸Ð½
ĠÐ¼Ð¾Ð¼ ÐµÐ½ÑĤ
ĠÐ¿Ð¾ÑģÐ¿ ÐµÑĪÐ½Ð¾
ĠÐ²ÐµÐ¶ Ð»Ð¸Ð²Ð¾
ĠÐ¾Ð±Ð½ Ð°Ð¶
ÑĢÐ°Ð²ÐµÐ´ Ð»Ð¸Ð²Ð¾
ĠÐ¿Ð¾ÑįÑĤ Ð¾Ð¼Ñĥ
ĠÐĲÐ»ÐµÑĪ Ð°
ĠÐłÐ¾ÑģÑģ Ð¸Ð¸
ĠÑģÐµÑĢÐµÐ± ÑĢÑı
ĠÐ²Ð¾Ð·Ð± ÑĥÐ¶Ð´
ĠÐ½ÐµÐ²Ð¾Ð»ÑĮ Ð½Ð¾
ÐºÐ¾ÑĢ ÐµÐµ
ĠÐ±ÑĥÐ»ÑĮ Ð²Ð°ÑĢ
ĠÐ²ÑĭÑģÐ» ÑĥÑĪ
ĠÐ¼Ð°Ð³ Ð°Ð·
ĠÐĽÐ°Ð²ÑĢÐµÐ½ ÑĤÐ¸Ñı
ĠÐ¾ÑģÑĤÑĢÐ¾ ÑĥÐ¼
ĠÐĺÐ²Ð°Ð½Ñĭ Ñĩ
Ð¾Ð²Ð»ÐµÑĤ Ð²Ð¾ÑĢ
ĠÐĴÐ¿ÑĢ Ð¾ÑĩÐµÐ¼
ĠÐĽÐ¸ÑĨ Ð¾
" ?
2 0
2 4
Ġ 3
Ġ 5
ÑĤ ÐµÐ»ÑĮ
Ð» Ð¸Ð³
Ñı ÑĤÐ¾
ĠÐ¿ Ð»Ñı
ĠÐ¿ ÑĥÑĤÑĮ
Ñĩ ÐµÐ½ÐºÐ¾
ĠÐ² Ð¾Ð½
ĠÐ² ÐµÐ´Ð¾Ð¼
Ð² Ñĥ
ĠÐ¾ ÑĤÐ¾
Ð¼ ÐµÐ½Ð°
ĠÐ± ÐµÐ¶Ð°Ð»
ĠÐ´ ÐµÑĤÑĮ
ÐµÑĢ Ñĥ
ĠÐ¼ Ð»Ð°Ð´
Ð°Ðº ÑĤ
ĠÑĩ Ð¸Ñģ
ĠÑĩ ÑĥÑĤ
ĠÐ¿ÑĢ Ð¸Ð¹
ĠÐ³ ÑĥÐ´
ĠÐµ Ñİ
Ð°Ð² Ð°ÐµÐ¼
ÑĨ ÐµÐ½
Ð¸Ð² ÑĭÐµ
ĠÐ¾ÑĤ Ð½ÐµÑģ
Ð°Ð½ Ð´
ĠÑģÑĤ ÐµÐ½Ð°
Ð¸Ð½ ÑģÐºÐ¾Ð³Ð¾
ĠÐŁ Ð¸ÑģÑĮ
Ð¸Ñģ Ð¸
Ð³ Ðµ
Ð³ Ð°Ð»
ÑĤÐ¾ÑĢ Ð¾Ð¶
ÐµÐ² Ð°Ñı
ÐµÐ² Ð°ÐµÑĤ
ĠÐĴ Ð¼
Ð¸Ñĩ Ð½ÑĭÐ¹
ĠÐ²Ñĭ ÑģÐº
ĠÐ²Ñĭ ÑģÐºÐ°Ð·
ĠÑģÐ» ÑĥÑħ
ÐµÑħ Ð°Ð»Ð°
ĠÐļ ÑĢÐ¾Ð¼
ĠÑĢÐ°Ð· Ð²ÐµÑĢ
ĠÑĢÐ°Ð· Ð»Ð¸Ñĩ
ĠÑĢÐ°Ð· Ð¼Ð°Ñħ
ÑĭÐ² Ð°ÑĤÑĮÑģÑı
ĠÐľ Ð°Ð¼Ð°
Ð¾Ñĩ ÐºÐµ
ĠÑĪ Ð°ÑĢ
ĠÐ¿ÐµÑĢ ÐµÐ»
ĠÐ¿ÐµÑĢ ÐµÑģ
ÐµÐ¶ Ð°Ð»Ð°
ĠÐ´ÑĢ ÑıÐ½ÑĮ
Ð¸ÑĢ ÐµÐ¿
Ð°Ñİ ÑīÐµÐµ
ĠÑĢÐ°Ñģ ÑģÐ¿
ĠÐ´Ð² Ð¾ÑĢÐµ
ĠÐ¿Ð¾Ñģ ÑĭÐ»
ĠÑĤÑĢ Ñı
Ð¸ÑĤÐµÐ»ÑĮ Ð½Ð°Ñı
ĠÐ±Ð¾Ð»ÑĮ Ð½ÑĭÐµ
ĠÐ²Ð¸Ð´ ÐµÐ»Ð°
ĠÐ³Ð¾ÑĢ Ñĭ
ĠÐķ ÑģÑĤÑĮ
ĠÐĳ ÐµÐ´
ĠÑĩÐµÑĢ Ð½ÑĭÐ¼Ð¸
ÑĥÐ² ÑĪÐ¸Ð½
ĠÑģÑĤÑĢ Ð¾
ĠÐ½Ð°Ð´ Ð²Ð¸Ð³
ĠÐĵ Ð¸Ð»Ñı
ĠÐ¾Ðº Ð°Ð·Ð°Ð»Ð¾ÑģÑĮ
ĠÐ¾Ðº Ð°Ð·Ð°Ð»ÑģÑı
ĠÐ²ÑĢ ÐµÐ´
Ð½Ð¸Ð¼ Ð¸
ĠÐ²Ð¾Ð· Ð»ÑİÐ±
âĢ¦ Â»
ĠÐ¼Ð¾ ÐµÐ¼Ñĥ
ĠÐ¾Ñģ Ð½Ð¾Ð²
ĠÑĤÐµÐ¼ Ð½ÑĭÐ¹
ÑĥÑģÑĤ Ð¸ÑĤÑĮ
ÐµÐ»Ð° ÐµÑĪÑĮ
Ð°Ð²ÑĪ ÐµÐ¼Ñĥ
ĠÐ¼Ð¾Ð¶ ÐµÑĪÑĮ
ĠÐ¿ÑĢÐµÐ´ ÑĥÐ¿
ĠÑģÑĤÐ°ÑĢ ÑĥÑħ
ÐµÑģÑĤÐ² Ñĥ
ĠÐŁÑĢ Ð¾Ðº
ĠÑģÐµÑĢ ÐµÐ´
ĠÐ²ÐµÑĢ ÐµÐ²
ĠÐ¿Ð¾ÑĢ Ð°
ĠÐ¿Ð¸Ñģ ÐµÐ¼
ĠÐºÐ¾Ð» ÐµÐ½Ñı
ĠÐ´ÐµÐ» Ð°Ð»Ð¸
ĠÐ¾ÑģÑĤ Ð°Ð»Ð¸ÑģÑĮ
ĠÐ¾ÑģÑĤ Ð°Ð»Ð°ÑģÑĮ
ÑĤÑĢ Ð¸Ñģ
Ð½Ð¸Ðº Ð¾Ð²Ð°
ĠÐ¢Ð°Ðº Ð¾Ð¹
ĠÐ±ÐµÐ» Ð°Ñı
ĠÐ±ÐµÐ» ÑĭÑħ
ĠÐ½Ð¸Ñĩ ÑĤÐ¾Ð¶
ÐŁ ÐµÑĤ
ĠÐ¶ÐµÐ» Ð°Ð½Ð¸Ñı
ĠÐ¶Ð¸Ð² Ð¾Ð³Ð¾
ĠÐ´ÐµÑĤ ÑģÑĤÐ²Ðµ
Ð¾Ð²Ð°ÑĢ Ð¸Ð²Ð°Ð»
ĠÑģÐ¸Ð´ ÐµÑĤÑĮ
ĠÐ²ÑģÑı ÐºÐ¸Ñħ
ĠÑĤÐ¾Ð³Ð´Ð° ÑĪ
ĠÑģÑĤÑĢÐ°Ð½ Ð½ÑĭÐ¹
ĠÑģÑĤÑĢÐ°Ð½ Ð½ÑĭÐ¼
ĠÑģÑĤÐ¾ÑĢÐ¾Ð½ Ð°Ð¼
ĠÐ²Ð¾Ð´ Ðµ
ĠÐ²Ð¾Ð´ ÐºÑĥ
ĠÐ³Ð»ÑĥÐ± Ð¸Ð½Ñĥ
ĠÐ¼Ð¾Ð»Ð¾Ð´ Ð°Ñı
ĠÑģÐ¼Ðµ ÑıÑģÑĮ
ÑİÑī ÐµÐ¹
ÑİÑī Ð¸Ðµ
ÑĩÐ¸Ð² ÑĭÐ¹
ĠÑģÐ´ÐµÐ» Ð°Ð»Ð°
ĠÐ¿ÑĢÐ¸Ñħ Ð¾Ð¶
ĠÐ½Ð°ÑĪ ÐµÐ³Ð¾
ĠÐ¿Ð¾Ñħ Ð¾Ð¶Ðµ
Ð¸ÑĪÑĮ ÑģÑı
Ð¡ ÑĤÐµÐ¿
ĠÑĥÐ²Ð¸Ð´ ÐµÐ»Ð°
ĠÑģÐ»ÑĭÑĪ Ð¸ÑĤ
ĠÐºÐ½Ð¸Ð³ Ð°
ĠÐ¼ÐµÐ´ Ð¸ÑĨ
ĠÑĢÐ°ÑģÑģ ÐµÑĢÐ´
ĠÐ½Ð¾Ñģ Ð¾Ð¼
ĠÐ²ÑĭÐ¿ Ð¸Ð»
ĠÐºÐ°Ð¼ Ð½Ð¸
ĠÐ±ÑĭÐ² Ð°Ð»Ð¸
ĠÑĥÑĤ Ð²ÐµÑĢÐ¶
ĠÑĥÑģÐ¿ Ð¾ÐºÐ°
ĠÑĢÐ°ÑģÐ¿ ÑĢÐ¾ÑģÑĤ
ĠÑģÐµÐ¼ ÑĮÑı
ĠÐ¸Ð³ÑĢ Ð°Ð»Ð°
ĠÑĩÑĥÐ¶ Ð¾Ð¹
ĠÐ»ÐµÑģ Ð°
ÑĥÑİÑī Ð¸Ðµ
ĠÑĢÐ°Ð·Ð± ÑĥÐ´
ĠI V
ĠÑĤÐ¾ÑģÐº Ð°
ĠÐĺÐ²Ð°Ð½Ð¾Ð²Ð¸Ñĩ Ð°
ĠÐ¿ÑĢÐ¸Ð± Ð»Ð¸Ð·
ĠÐ±Ð¾Ð³ Ñĥ
Ð¿ÑĢ ÐµÐ¶
ĠÐ½Ð°ÑĩÐ¸Ð½ Ð°Ð»Ð¸
ĠÑĩÑĥÐ´ Ð¸Ð»Ð¾ÑģÑĮ
ĠÑĩÑĥÐ²ÑģÑĤÐ²Ð¾Ð²Ð°Ð» Ð¾ÑģÑĮ
ĠÐ¿ÑĢÐ¾Ðº Ð»Ñı
ĠÐ±Ð°ÑĢ ÑĭÑĪ
ĠÐ³Ð»ÑĥÐ¿ ÑĭÐ¹
ĠÐĴÐ°ÑģÐ¸Ð»ÑĮÐµÐ²Ð¸Ñĩ Ð°
Ð°Ð¼Ð¿ Ð°Ð½
ĠÐ°Ðº ÑĤÑĢÐ¸Ñģ
ĠÐ²Ð¾ÑģÐ¿Ð¾Ð¼Ð¸Ð½Ð° Ð½Ð¸Ð¹
ĠÐ¼Ð°Ñģ Ð»Ð¾
ĠÐ¿ÑĢÐ¾Ð½ ÐµÑģ
ĠÐ²Ð¿ÐµÑĩÐ°ÑĤ Ð»ÐµÐ½Ð¸Ñı
ĠÐ½Ð°Ð¹ Ð´
ĠÐ¿ÑĢÐ¾Ð· Ð²ÑĥÑĩ
ĠÑĩÐµÑĤÐ²ÐµÑĢ ÑĤ
ĠÐ¿ÑĮÐµÑģ Ñĭ
ĠÐļÐ°ÑĤ ÐµÑĩÐºÐ°
ĠÑĥÑħ Ð°Ð¶
ĠÐºÐ¾Ð¿ ÐµÐ¹
ĠÑģÐ¾Ñĩ ÑĥÐ²ÑģÑĤÐ²
ĠÐ³ÑĢÑĥÐ± Ð¾
ĠÐ³ÑĥÑģÑĤ Ð¾Ð¹
ĠÐ²Ð·Ð´Ð¾Ñħ Ð½ÑĥÐ»
ĠÐ±Ð¾ÑĢÐ¾Ð´ Ñĥ
ĠÐľÐµÐ»Ð¸Ñħ Ð¾Ð²Ð¾
ĠÑĦÐ¸Ð³ÑĥÑĢ Ñĭ
ĠÐ»Ð¾ÑĪÐ°Ð´ ÑĮ
ĠÐ¡Ð¼Ð¾ÑĤÑĢ Ð¸ÑĤÐµ
ĠÑĨÐµÐ½ Ð·
ĠÐ¿ÑĢÐµÐ´Ð»Ð¾Ð¶ Ð¸Ð»
ĠÐ·Ð°Ð¿Ð»Ð°Ðº Ð°Ð»
ĠÐ¿Ð¾ÐºÐ°Ð· Ð°ÑĤÑĮ
ĠÐŀÑģ Ð¾Ð±
ĠÐ¿Ð¾ÑĨÐµÐ»Ð¾Ð² Ð°Ð»
ÐłÑĥÑģ ÑģÐºÐ¾Ð¹
ĠÐ²Ð·Ð´ÑĢ Ð°Ð³
ĠÑģÐ³ Ð¸Ð±
ĠÐ¿Ð»Ð¾ÑīÐ°Ð´ ÐºÐµ
ĠÑĦÐ¸Ð· Ð¸Ð¾Ð½Ð¾Ð¼
ĠÐ½ÐµÑĢÐµÑĪ Ð¸ÑĤÐµÐ»ÑĮÐ½Ð¾
ÐķÐ¶ Ð¾Ð²
ĠÐ½ÐµÐ³ÑĢÐ¸ÑĤÑıÐ½ Ð¾Ðº
ĠÑģÐ¸Ð¼ Ð¿Ð°ÑĤ
ĠÐ±ÐµÑģÑĪÑĥÐ¼ Ð½Ð¾
ĠÑĢÐ°ÑģÑģÐ¼Ðµ ÑıÐ»ÑģÑı
ĠÐŁÐµÑĤÑĢ Ð¾Ð²Ð°
ĠÑĩÑĢÐµÐ· Ð²ÑĭÑĩ
ĠÐ³Ð°ÑĢ Ð¼Ð¾Ð½
ĠÐ´ÐµÑĤÑĮ Ð¼Ð¸
ĠÐļÑĢÐ¾Ð¼ Ðµ
2 6
2 9
3 4
? Â»
Ð £
Ð½ ÐµÐ»Ð¸
Ð½ ÐµÑĢÐ³
Ð» Ð¾Ð¹
Ð» Ð¾Ð³Ð¾
Ð» Ð¾Ð±
ÑĢ ÑıÐ¼
Ñĭ Ð´
Ñĭ Ð¶
ĠÑģ Ð¾Ð¶Ð°Ð»
ĠÐ¿ ÐµÑģÑĤÑĢ
Ñĩ Ð°Ð»
ĠÐ² Ðº
ĠÐ² ÐµÐº
Ð² ÐµÐ´
Ð°Ð» ÐµÐºÐ¾
Ð¼ ÐµÐ½Ð½Ð¾
Ð¼ ÐµÑĢÑĤ
Ð¾Ð² ÑĭÑħ
ÑĪ ÐµÐ¼Ñĥ
ĠÑĤ ÐµÐ¼Ñĥ
ĠÐ¼ Ð°ÑĪ
ĠÐ¼ ÑĥÐ´ÑĢ
ÐµÑĤ Ð¸
ĠÑĩ Ð°Ñİ
Ð¾Ð´ Ð¸Ð»Ð°
ĠÐ½Ðµ Ð¾Ð´
ĠÑĢ Ð¾
Ð¸ÑĤ ÑĭÐ¼
Ð°Ð· Ð°ÑĢ
ĠÐ½Ð° ÑĢÑĥÐ¶
Ð½Ð¸ ÑĪÑĮ
ĠÑĥ Ð½Ð¸Ñĩ
ĠÑĥ ÐµÑħÐ°Ð»
ĠÐ» Ñĥ
ĠÐ» Ð¾Ð³
ĠÐ¶ Ð¸Ð»Ð°
Ð¸Ð¼ ÑĭÑħ
Ð´Ð° Ð½Ð¸Ñı
ÐµÐ¹ Ð¼ÐµÑĢ
ĠÐŁ Ð¸Ñģ
ĠÐŁ Ð¾Ð·
ĠÐŁ ÑĥÑĪ
ĠÐŁ Ð¾Ð¶Ð°Ð»
Ð°Ð´ Ñĭ
Ð°Ð´ Ð°Ð»
ĠÐºÐ°Ðº Ð¸Ð¼Ð¸
ĠÐĿ Ð¾Ñģ
ĠÑį Ð»ÐµÐºÑĤÑĢ
Ð°ÑĢ Ñħ
ĠÐ¿Ð¾ ÑİÑĤ
Ð¾Ð¶ Ð¸Ð»
Ð¾Ð¶ Ð´Ðµ
ĠÐ²Ñģ Ð»ÐµÐ´
ĠÐĴ Ñģ
ĠÐĺ Ð´Ð¸
Ð¸Ñħ Ð°
Ð¸Ðº Ð¾Ð¹
ÑģÑĤÐ² Ð¾Ð²Ð°Ð»
ÑĥÐ¶ Ð´ÐµÐ½
ÐµÑĩ ÑĮ
Ð¸Ð· Ð°
ĠÑģÐº ÑĢÑĭÐ²
ĠÐºÑĢ ÐµÑģ
ÑĭÐ² Ð°Ð»Ð°ÑģÑĮ
ĠÑĤÐ¾ ÑģÐºÐ¾Ð¹
ĠÐ§ Ð°Ñģ
ĠÐ¢ Ð°Ð½Ñı
Ð¾Ð¿ Ð¾Ð»Ð¾Ð¶
ĠÑĪ ÑĤ
ĠÑĪ Ð°Ð¼Ð¿Ð°Ð½
ĠÐ¿ÐµÑĢ ÐµÐ½
Ð¾Ð²Ð° Ð½Ð¸Ð¸
Ð¸ÑĢ Ð°ÑĤÑĮ
ĠÐĶ Ñĥ
Ð¾ÑĪ Ð»Ð¸ÑģÑĮ
ĠÐ³ÑĢ ÐµÑĪ
ĠÐ³ÑĢ Ð°Ð±
ĠÐ¿Ð¾Ð» Ð½Ð¾Ð¹
ĠÐ¿Ð¾Ð» ÑĩÐ°Ñģ
ĠÐ¿ÑĢÐ¸ ÐµÐ·Ð¶
ĠÑĤÑĢ ÑĥÑģ
ĠÐ¿Ð¾Ðº ÑĢÐ¾Ð²
ĠÐ¿Ð» Ð°Ð¼
ĠÐ²Ð¸Ð´ Ð°Ð»
ĠÐĳ ÑĥÐ´ÑĮ
ĠÑĩÐµÑĢ Ð½ÑĭÐ¼
ĠÑĩÐµÑĢ Ð½ÑĭÑħ
ĠÐ±ÐµÐ· ÑĢÐ°Ð·
ĠÑĨ ÐµÐ»ÑĮ
ĠÐ½Ð°Ð´ ÐµÐ¶Ð´Ñĭ
Ð¸Ð¶ Ð½Ñı
ĠÑĦ ÑĢ
Ð²ÐµÑĢ ÑħÑĥ
ĠÐ±Ð» ÐµÑģ
ĠÐĵ Ð¾Ð»
ĠÐ¾Ðº Ð½Ð¾Ð¼
ĠÐ²Ð¾Ð· ÑĮ
ĠÐ¿ÑĢÐ¾ ÑĨ
ĠÐ¼Ð¾ Ð¸Ð¼
ÑĩÐ° ÑģÑĤÑĮÑİ
ĠÑĤÐµÐ¼ Ð½ÑĥÑİ
ÐµÐ½ÑĮÐº ÑĥÑİ
Ð°Ð²ÑĪ Ð¸ÑħÑģÑı
Ð°Ð²ÑĪ ÐµÐ¹ÑģÑı
ĠÐ·Ð½Ð° ÑİÑĤ
ĠÑĥÐ¼ ÐµÑİ
ĠÐ½Ð°Ð¿ Ð¾Ð»
ĠÐ¿ÑĢÐµÐ´ Ð»Ð°Ð³
ĠÑģÑĤÐ°ÑĢ Ð°Ñı
ĠÑģÑĤÐ°ÑĢ ÑĭÐµ
ĠÐł ÐµÐ¹Ð¼ÐµÑĢ
ĠÐ±ÑĢ Ð¾ÑĪ
Ð¸Ð²ÑĪ Ð¸ÑħÑģÑı
ĠÐŁÑĢ ÐµÐ´
ĠÐŁÑĢ Ð¸Ð´
ĠÐ¾Ð³ Ð½Ð¸
ĠÐ¿Ð¾ÑĢ ÑĥÑĩ
ĠÑģÐ¼Ð¾ÑĤÑĢ Ð¸
ĠÑģÐ¼Ð¾ÑĤÑĢ ÑıÑĤ
ĠÐºÐ¾Ð» ÑĭÑħ
ĠÑħÐ¾ÑĢÐ¾ÑĪ Ð¸Ðµ
ĠÐ·Ð°Ð¼ ÑĥÐ¶
ĠÑĩÑĥÐ²ÑģÑĤÐ² ÑĥÑİ
ĠÐ·Ð°Ðº ÑĢÑĭÐ»
ĠÑĢÐ°ÑģÑģÐºÐ°Ð· Ð°ÑĤÑĮ
ĠÐĿÐ¸Ðº Ð¾Ð³Ð´Ð°
ÑĥÑī Ð¸Ñħ
ĠÐ±ÐµÐ» Ð¾Ð¹
ĠÐ´ÑĥÑĪ ÐµÐ²
ĠÑĤÐ¸Ñħ Ð¸Ðµ
ĠÐ¿ÑĢÐ°Ð² Ð´Ñĭ
Ð¸ÑĩÐµÑģÐº ÑĥÑİ
ĠÐ¥ Ð¸Ð¶Ð½Ñı
ÑıÑī Ð¸Ð¼
ÑıÑī Ð¸Ðµ
ĠÐ¿ÐµÑĢÐ² Ð¾Ð¹
ĠÐ¿ÐµÑĢÐ² ÑĥÑİ
ĠÐ¸ÑģÐ¿ Ð¾ÑĢ
ĠÑģÑĤÑĢÐ°Ð½ Ð½Ð¾Ð¹
ĠÑģÑĤÑĢÐ°Ð½ Ð½Ð°Ñı
ĠÑĢÐ°Ð±Ð¾ÑĤ Ðµ
ĠÑĥÑģ Ð¸Ð»Ð¸
ĠÐ´Ð¾ÑĢ Ð¾Ð³Ð¾
ĠÐ´Ð°Ð² Ð°Ð»
ĠÑĥÐ¶Ð°Ñģ Ð¾Ð¼
ĠÐºÐ» Ð°Ð½
ÑĥÐ¹ ÑĤÐµ
ÐµÐ²ÑĪ ÐµÐ¹
ĠÑģÐ¸Ð» Ð¾Ñİ
ĠÑĩÐµÑĢÑĤ Ñĥ
ĠÐ¿ÑĢÐ¸ÑħÐ¾Ð´ Ð¸Ð»Ð°
ĠÐ¿ÑĢÐ¸ÑħÐ¾Ð´ Ð¸Ð»Ð¸
ĠÑĨÐµÐ» ÑĭÐµ
ĠÑģÐ¸Ð»ÑĮ Ð½ÐµÐµ
ĠÐ±Ð¾ÑĢ Ð¼
ĠÐ¿Ð¾Ð´ÑĥÐ¼ Ð°ÑĤÑĮ
ĠÐ¿ÑĢÐ¸Ð´ ÐµÑĤÑģÑı
ÐĿ Ðµ
ĠÐºÑĢÐ¸Ñĩ Ð°ÑĤÑĮ
ĠÐºÑĢÐ¸Ñĩ Ð°Ð»Ð¸
ĠÐ²ÑģÑĤÑĢÐµÑĩ Ðµ
ĠÐºÑĢÐ°ÑģÐ¸Ð² Ð¾Ðµ
Ð°Ð´ÑĨ Ð°ÑĤ
ĠÐ¿Ð¾Ð¼Ð½ Ð¸Ð»
ĠÐ½Ð°ÑħÐ¾Ð´ Ð¸ÑĤÑģÑı
ĠÐ²Ð°ÑĪ ÐµÐ¹
Ðĳ ÑĢÐµÐ·
ĠÐ´Ð¾ÑģÑĤ Ð°Ð²
ĠÑĤÐ¾ÑģÐº Ð¾Ñİ
ĠÐ¿ÑĮÑı Ð½ÑĭÐ¹
ĠÐ¾Ð³ÑĢÐ¾Ð¼ Ð½ÑĭÐµ
ĠÐ´Ð²Ð¸Ð¶ ÐµÐ½Ð¸ÐµÐ¼
Ðŀ ÐĴ
ĠÐ²ÑĭÑħÐ¾Ð´ Ð¸ÑĤ
ĠÐ²ÑĭÑħÐ¾Ð´ Ð¸Ð»Ð¾
ĠÐ¡Ð°ÑĪ Ð°
ĠÐ¿ÑĢÐ¾Ðº Ð°Ð¶
ĠÑĩÐ° ÑģÑĤÑĮÑİ
ĠÐ±Ð»ÐµÐ´ Ð½ÑĭÐ¹
ĠÐ±Ð¾Ð»ÐµÐ· Ð½
ĠÐľÐ°ÑĢ ÑĮÑı
ĠÐ·Ð°ÑĢ Ð°Ð±Ð¾ÑĤ
ĠÑĢÐ°ÑģÐº ÑĢÑĭÐ²
ĠÐ¡ÐµÐ¼ÐµÐ½ Ð¾Ð²Ð¸Ñĩ
ĠÐ¶Ð´ Ð°Ð»Ð°
ĠÐ°Ð² ÑĤÐ¾ÑĢÐ°
ĠÐ·Ð½Ð°Ñĩ ÐµÐ½Ð¸Ðµ
ĠÐ·Ð½Ð°Ñĩ Ð¸ÑĤÐµÐ»ÑĮÐ½Ð¾
ĠÐ¿Ð¾ÑģÐ¼Ð¾ÑĤÑĢ ÐµÑĤÑĮ
ĠÐ²ÑģÑĤ Ð°Ð»Ð°
ĠÑģÑĤÑĥÐ´ÐµÐ½ÑĤ Ñĭ
ĠÐĿÐ¾ÑĢ Ð´ÐµÐ½Ð°
ĠÑīÐµÐº Ð¸
ĠÐ·Ð°ÑģÐ¼Ðµ ÑıÐ»Ð°ÑģÑĮ
ĠÑģÑĨ ÐµÐ½Ðµ
ĠÑĢÑĥÑģ ÑģÐºÐ¾Ð¹
ĠÐ¿Ð¾ÑĤÐµÑĢ ÑıÐ»
ĠÐ¿ÑĢÐµÐ² ÑĢÐ°Ñī
ĠÐ½Ð°ÑĢÐ¾Ð´ Ñĥ
ĠÐ¾Ð±ÑĢÐ°ÑĤ Ð½Ð¾
ĠÐ²Ð½Ñĥ ÑĤÑĢÐ¸
ĠÐ¿Ð¾Ð¹Ð´ ÐµÑĤ
ĠÑģÐ²ÐµÑĩ Ð¸
ĠÑģÐ¶ Ð¸Ð¼
ĠÐ¿Ð°Ð¿Ð¸ÑĢÐ¾Ñģ Ñĥ
ĠÐ½ÐµÐ¸Ð·Ð²ÐµÑģÑĤ Ð½Ð¾
ĠÑħÑĢ ÑĥÑģÑĤ
ĠÐ¼Ð¾Ð· Ð³Ñĥ
ĠÑĤÐ¾Ð± Ð¾Ñİ
ĠÑģÐ°Ð¿ Ð¾Ð³
ĠÐ±ÐµÑģÑģÐ¸Ð»ÑĮ Ð½Ð¾
ĠÐ²Ð»Ð° ÑģÑĤ
ĠÑģÐ¾Ð±Ð°Ðº Ñĥ
ĠÐĵÐ¾ÑĢÑĮ ÐºÐ¸Ð¹
ĠÐļÑĢ ÑĭÐ¼
ĠÐ²ÑģÐ¿Ð¾Ð¼Ð¸Ð½ Ð°Ð»
ĠÐ»Ð¾Ð´ ÐºÑĥ
ĠÐ´ÑĮÑıÐ²Ð¾Ð» Ð°
ĠÐ¼Ð½Ð¾Ð¶ÐµÑģÑĤÐ² Ð¾
ĠÐºÐ°ÑĢÐ¼Ð°Ð½ Ðµ
ĠÐ½ÐµÐ½Ð°Ð²Ð¸ ÑģÑĤÑĮÑİ
ĠÐ»ÐµÐ´ Ñı
ĠÐĿÐ°Ðº Ð¾Ð½ÐµÑĨ
ĠÑģÑĥÐ¼Ð°Ñģ ÑĪÐµÐ´
Ð§ÐµÑħ Ð¾Ð²Ð°
ĠÑģÐ¾ÑģÑĢÐµÐ´ Ð¾ÑĤÐ¾Ñĩ
ĠÐ¯ÐºÐ¾Ð²Ð» ÐµÐ²Ð½Ð°
ĠÐ²Ð·Ð²Ð¾Ð» Ð½Ð¾Ð²
ĠÐ¿ÑĢÐ¸Ð¹ ÑĤÐ¸
Ð¿ÑĢÐµÐ¶ Ð½ÐµÐ¼Ñĥ
2 8
Ðµ ÑģÑĤÑĮÑİ
ÑĤ Ð¾Ð¹
Ð½ ÑĩÐµ
Ð» Ð°Ð±
Ð» Ð¸Ð¿
ÑĢ Ð°Ð³
ÑĢ Ð¾ÑĤÐ¸Ð²
ĠÑģ Ð¾Ðº
ĠÑģ ÐµÐ»Ð°
ĠÐ½ Ð¾ÑĤ
Ñĩ Ð¾Ð½
ĠÐ² Ð¾Ð¹
Ð² Ð°Ñĩ
Ð´ ÑĪ
Ð´ Ð¸Ð½
Ñħ Ð»Ð¸Ð¿
ĠÐº Ð¾Ð²
ÑģÑĤ Ð°Ð½Ð¾Ð²
ÐµÐ½ ÑģÐº
ĠÐ± Ð°Ð³
ĠÑĤ Ð°ÑĢ
ĠÐ´ Ñĥ
ĠÐ´ Ð°ÐµÑĤ
Ð¾Ð» Ð¾Ð³
ÐµÑĢ Ð½Ð¾
ÐµÑĢ ÐµÐ¶
ÐµÑĢ Ð½ÑĥÐ»
ĠÐ¼ Ñĥ
Ð°Ðº Ðµ
ĠÐ¿ÑĢ ÑıÑĩ
ĠÐ½Ðµ ÑĥÐº
Ð°ÑĤ ÐµÐ¼
ĠÑĢ ÐµÐ»ÑĮ
ĠÑĢ ÐµÐ»Ð¸Ð³
Ð¸ÑĤ Ñĥ
Ð¸ÑĤ Ð°Ñı
ÐµÐ¼ ÑĮ
Ð¾ÑĢ ÑĤÐµÑĢ
Ð°Ð² ÑĪÐµÐµ
ĠÐ» ÐµÐ¿
Ð¾Ð³ Ð»Ð°Ñģ
Ð¸Ð² Ð°Ð»Ð¾
ĠÐ¶ ÐµÑĢÑĤÐ²
Ð· Ð°Ð²
ĠÐŁ ÑĢÐ¾Ñģ
ĠÐĿ Ð°Ñģ
ĠÐĿ ÐµÐ¿
ĠÐĿ Ð¸Ð½Ð¾ÑĩÐºÐ°
Ð³ Ð°Ð½
ĠÑį Ð½ÐµÑĢÐ³
ÐµÐ² Ñĥ
ĠÐ²Ñģ ÑħÐ»Ð¸Ð¿
ĠÑħ Ð°
ĠÑħ Ð¾ÑĢ
ĠÑģÐ² Ð°Ð»
ĠÐ° ÑĤ
Ð»Ñı Ñħ
Ð¸Ð´ ÐµÑģÑı
ĠÐ¾Ð± Ð½Ð¸Ð¼
ĠÐ¾Ð± Ð»Ð°Ðº
ĠÐ¡ Ð²Ð¸Ð´
ĠÐºÐ¾ Ðµ
Ð¸Ð· Ð¼
ĠÑģÐº Ð°ÑĤ
ĠÐºÑĢ Ð°Ñı
ĠÐļ ÑĥÐ²ÑĪÐ¸Ð½
ÑĥÑİ ÑīÐµÐµ
ĠÐľ Ð¾Ð¶Ð½Ð¾
Ð¾Ñĩ ÐµÑĤ
ĠÑĪ Ð°Ð»
ĠÑģÐ¼ ÑĭÑģÐ»
ĠÐ¿ÐµÑĢ ÐµÑĩ
ĠÐ³Ð» Ð¾ÑĤ
ĠÑģÐ¿ Ð¸ÑĤ
ĠÐĶ Ð°Ð¹
ĠÐ³ÑĢ Ð¾Ñħ
ĠÐ¿Ð¾Ð» ÐµÑĤ
ĠÐ¿Ð¾Ñģ ÐºÐ¾ÑĢÐµÐµ
ĠÐ§ÐµÑħ Ð¾Ð½ÑĤÐµ
ĠÑĤÑĢ ÐµÐ·
ĠÐ±ÑĥÐ´ ÑĥÑĩÐ¸
ĠÐ²Ð¸Ð´ Ð¸ÑĤÐµ
ĠÐ²Ð· Ð²
ĠÐ³Ð¾ÑĢ ÐµÐ»Ð°
ĠÐķ Ð´
Ð»Ð¸Ð² Ð¾Ðµ
ĠÐ½Ð°Ð´ Ð¾Ð»Ð³Ð¾
ĠÐ¾Ðº Ð½Ñĥ
ĠÐ¼Ð¾ Ñī
ĠÐ¾Ñģ Ð½
Ð½Ñı Ð²ÑĪ
ĠÐ½Ð°Ñĩ Ð°Ð»Ð¾
ĠÐĹ Ð¸Ð½Ð¾ÑĩÐºÐ°
ĠÑģÐ¾Ð± Ð»Ð°Ð·
ĠÑħÐ¾ÑĤ ÐµÐ»Ð¸
ĠÐ½Ð°Ð¿ Ð¸ÑĪ
ĠÐ£ ÑģÐ¿
ÑģÐ» ÐµÐ´
Ð¸Ð²ÑĪ Ð¸ÐµÑģÑı
ĠÐ²ÐµÑĢ Ð¸Ð»
ĠÐ¿Ð¾Ð² ÐµÐ»
ĠÐ¾Ð³ Ð½ÐµÐ¼
ĠÐºÐ¾Ð» ÑİÑĩ
ĠÐ´ÐµÐ» Ð¾Ð¼
ĠÐ½Ð°Ñģ ÑĤÐ¾Ñı
ÑĢÐ°Ñģ Ð½Ð¾
ĠÑģÐºÐ°Ð· Ð°Ð»Ð¸
ĠÐĿÐ¸Ðº Ð¸ÑĤÐ°
ĠÐ±ÐµÐ» ÑĭÐ¼
ĠÐ¿ÑĢÐ¾ÑĤ ÑıÐ¶
ÑĩÐ¸Ðº Ð°
Ð¸ÑĩÐµÑģÐº Ð¸Ð¼
ĠÐ½Ð¾Ð² ÑĭÑħ
ĠÐ´ÐµÑĤ ÑģÑĤÐ²Ð°
ĠÐ½Ð°Ð· Ð²Ð°Ð»
ĠÐ¿ÐµÑĢÐ² ÑĭÐ¼
ĠÐ·Ð°Ð² ÐµÐ´
ĠÐ²ÑģÑı ÐºÐ¾Ð¼
ĠÑħÐ¾Ð»Ð¾Ð´ Ð½ÑĥÑİ
ĠÑģÐ¼Ðµ ÐµÑĤÑģÑı
ĠÐ¿Ð¾Ð¶ Ð¸Ð»
ĠÑĥÑģ Ñĭ
ĠÐ»ÐµÐ³ ÑĩÐµ
ĠÐ»ÐµÐ³ ÐºÐ¸Ð¼
ĠÐ´ÐµÐ² Ð¾ÑĩÐºÐ°
Ð°Ð½Ð¸Ñı Ñħ
ĠÐ¿Ð¾ÑģÐ»ÐµÐ´ Ð½Ð¸Ð¼
ĠÐ¿Ð¾ÑģÐ»ÐµÐ´ Ð½ÐµÐµ
ĠÑģÐ»ÐµÐ´ Ð¾Ð²
ĠÑī ÐµÐ»
ĠÑĥÐ²Ð¸Ð´ ÐµÑĤÑĮ
ĠÐ·Ð½Ð°ÐºÐ¾Ð¼ ÑģÑĤÐ²Ð°
ĠÑĩÐµÑĢÑĤ Ñĭ
ĠÐ²ÑĭÐ¿ Ð¸ÑĤÑĮ
ĠÐ³Ð¾ÑĢÐ¾Ð´ Ð¾Ð²Ð¾Ð¹
ĠÑĥÑģÑĤ Ð°
ĠÑĤÑıÐ¶ÐµÐ» ÑĭÐµ
ĠÑĢÐ°ÑģÐ¿ Ð¾Ð»Ð¾Ð¶
ĠÐµÐ´ Ð¸Ð½
ĠÐ´Ð¾ÑĢÐ¾Ð³ Ð°Ñı
ĠÑĪÐ¸ÑĢ Ð¾ÐºÐ¾Ð¹
ĠÐ¿ÑĢÐ¾ÑĤÐ¸Ð² Ð¾Ð¿Ð¾Ð»Ð¾Ð¶
ĠÑĪÐ°Ð³ Ð°Ð¼Ð¸
ĠÐ²ÑĭÑģÐ¾Ðº Ð°Ñı
ĠÑĢÐ¾Ð´ Ð¸Ð»ÑģÑı
ĠÐŁÐ¾Ñģ Ð¼Ð¾ÑĤÑĢ
ĠÑģÐ²Ð¾Ðµ Ñİ
ĠÐºÑĢÐ¾Ð² ÑĮÑİ
ĠÐ»Ð¸ÑĤÐµÑĢÐ°ÑĤÑĥÑĢ Ð½ÑĭÑħ
ÐºÑĢ Ð°Ð´
ĠÐ»Ð°Ð² ÐºÐ¸
ĠÐ¿ÑĢÐ¸Ðº Ð¾ÑģÐ½Ð¾Ð²
ĠÐºÑĢÐ°ÑģÐ¸Ð² Ð¾
ĠÐĴÐ°ÑģÐ¸Ð»ÑĮ ÐµÐ²Ð½Ð°
ĠÐ²Ð·Ð³Ð»Ñı Ð½ÑĥÐ»Ð°
ĠÐ¾Ð±ÑĢÐ°Ð· Ð¾Ð²
ĠÑģÐ²ÐµÑĢ Ðº
ĠÐ²Ð·Ð´ Ð¾ÑĢ
ĠÐ¿Ð¾Ð´Ð½ ÑıÐ»ÑģÑı
ĠÐ´ÐµÑĢÐ¶ Ð°ÑĤÑĮ
ĠÐ¿ÐµÑĩÐ°Ð»ÑĮ Ð½ÑĭÐ¹
ĠÑģÐ²ÐµÑĤÐ» Ð¾Ðµ
ĠÐ±Ð°ÑĢ Ð¸Ð½
ĠÐ½ÐµÐ¾Ð±Ñĭ Ñĩ
ĠÐ¿Ð°Ð´ Ð°Ð»Ð¸
ĠÐ°Ðº ÐºÑĥ
ĠÐ·Ð°Ð´ÑĥÐ¼ Ð°Ð»ÑģÑı
ĠÑĤÐ°Ð» Ð°Ð½ÑĤÐ°
ĠÐ´Ð¾Ð± Ð°Ð²Ð¸Ð»
ĠÐ³Ð¾ÑģÑĤ ÐµÐ¹
ĠÑĥÑĪ Ð°Ñħ
Ð¾Ð»Ñĩ Ð°Ð»
ĠÑħÐ¾Ð·Ñı Ð¸Ð½Ð°
ĠÐĵÐ¾ÑĢ Ð¾Ð´
ĠÑĤÐ¾Ð»Ð¿ Ñĭ
ĠÐ¡Ð» ÑĥÑĩ
ĠÐ³Ð°Ð·ÐµÑĤ Ñĭ
ĠÑĦÐ¾ÑĢ Ð¼
ĠÐ´Ð²Ð¸Ð³ Ð°Ð»ÑģÑı
ĠÑĥÐ¿ÑĢ ÑıÐ¼
ĠÑģÐ¾Ð³Ð»Ð°Ñģ Ð¸Ð»ÑģÑı
ĠÐ½Ð¸Ð· ÐºÐ¾
ĠÐºÐ°Ñĩ ÐµÑģÑĤÐ²Ðµ
ĠÐ¼Ð¾Ð½ Ð°Ñħ
ĠÐ¸ÑģÑĤÐ¾ÑĢ Ð¸Ñı
ĠÐľÐ¸ÑħÐ°Ð¹ Ð»Ð¾Ð²
ĠÐ¾Ð¶Ð¸Ð´Ð° Ð½Ð¸Ñı
ĠÐ¾Ð· Ð°ÑĢ
ĠÐ¾Ð±Ð¾ÑĢ Ð°Ñĩ
ĠÐ¼ÑĥÐ¶Ñĩ Ð¸Ð½
ĠÑģÐ¾Ð´ ÐµÑĢÐ¶
ĠÑģÐ°Ð¿ Ð¾Ð³Ð¸
ĠÑĢÐµÑģ ÑĤÐ¾ÑĢ
ĠÐ¾Ð´Ð¸Ð½Ð¾Ñĩ ÐµÑģÑĤÐ²Ð°
ĠÐ½ÐµÐ±Ð¾Ð»ÑĮÑĪ Ð¾Ð¹
ĠÑĥÑģÑĤÑĢÐ¾ Ð¸ÑĤÑĮ
ĠÐ·Ð°Ð¼ÐµÑĢ Ð·
ĠÐ¿Ð¾Ð²Ð¾ÑĢ Ð°Ñĩ
ĠÐ²Ð¸Ð· Ð³
ĠÐ½Ð°Ð¸Ð² Ð½Ð¾
ĠÐ²Ð·Ð´ÑĢ Ð¾Ð³
ĠÐ´Ð¾ÑģÑĤÐ¾ Ð¸Ð½ÑģÑĤÐ²
ĠÐ³Ð¾Ð½ Ð¾ÑĢ
ĠÑĢÑĥÐºÐ¾Ð¿ Ð¸ÑģÑĮ
ĠÐºÐ°Ð» Ð¾ÑĪ
ĠÐ±Ð¾Ð´ ÑĢ
ĠÑģÐ²ÑıÑī ÐµÐ½
ĠÐļÐ¾ÑģÑĤ Ñİ
ĠÐľÐ¸ÑħÐ° Ð¸Ð»
ĠÐ¿ÑĢÐµÑģÑĤ ÑĥÐ¿
ĠÑģÑĤÐ°ÑĢÐ¸Ñĩ Ð¾Ðº
ĠÐķÐ²Ð³ ÐµÐ½Ð¸Ñı
ĠÐ³ÐµÐ½ÐµÑĢ Ð°Ð»
ĠÑĤÑİ ÑĢÑĮ
ÐµÐ¾Ð´Ð¾Ñģ Ð¸Ð¹
ĠÐ¿ÑĢÐµÐ´ÑĥÐ¿ ÑĢÐµÐ´
ĠÑĩÑĢÐµÐ·Ð²ÑĭÑĩ Ð°Ð¹Ð½Ð¾
ĠÑĥÐ½Ð¸Ñĩ ÑĤÐ¾Ð¶
ÐĳÑĢÐµÐ· Ðµ
. )
Ð ĸ
Ð¾ ÑĦ
Ð° ÑģÑĤÐ¸
Ð¸ ÑĨÑĭ
Ð¸ Ð½Ð¾Ñİ
Ð» ÐµÑģ
Ð» ÑĭÐ²
Ð» ÑĥÐ±
ÑĢ Ð¾Ðº
ÑĢ Ð°ÑĤÑĮ
ÑĢ Ð°Ð»Ð°
ÑĢ Ð¾Ð¿
ÑĢ ÑĥÐ·
ÑĢ Ð¸ÑģÑĤÐ¾
Ñĥ ÑıÑģÑĮ
ĠÑģ Ð¾Ð±Ñĭ
ĠÑģ Ð³Ð¾ÑĢ
ĠÐ¿ ÑĭÑĪ
ĠÐ¿ Ð°ÑĤÑĢ
ĠÐ½ ÐµÐºÑĢÐ°Ñģ
Ðº ÑĢÐ°Ñģ
ĠÐ² ÐµÑģÑĤ
ĠÐ² ÐµÐ·Ð´Ðµ
ÑĤÐ¾ ÑıÐ»
ĠÐº Ð¾Ð»ÑĮ
ÑģÑĤ Ð°Ð»
ÐµÐ½ ÑĭÐ¹
ĠÐ± ÐµÐ»ÑĮ
ĠÐ± Ð¸Ð»Ð¸
ĠÐ± Ð¸Ð¾Ð³ÑĢÐ°ÑĦ
ĠÐ´ Ð°ÑĢ
ĠÐ´ ÐµÐ»Ð¾Ð²
ÐµÐ» ÐµÑĨ
ĠÐ¼ ÑĢ
Ð¾Ð¼ ÐµÐ½
Ð¸Ð» Ð¸Ð½
ĠÐ· Ð°Ð·
ĠÐ½Ðµ ÑģÑĤ
ĠÑĢ ÐµÐ¼
ĠÐ³ Ð¸Ð³
ĠÐ½Ð° ÑĪÐµ
Ð¾ÑĢ Ð¾ÑĤ
Ð°Ð² Ð°
Ð½Ð¸ Ñģ
ĠÐ¶ Ð¸Ð´
ÐµÐ´ ÐµÑĤ
Ð¾Ð½ ÐµÐº
ĠÐ¾ÑĤ ÑĭÑģÐº
ĠÐ¾ÑĤ ÑĨÐ¾Ð¼
ĠÐŁ Ð¾Ð¼ÐµÑĢ
ĠÐĿ ÐµÐ²
ĠÐĿ Ð°Ñĩ
Ð¾Ð± ÐµÐ´
ĠÐĴ ÐµÑĩ
ĠÐĴ Ð¾Ð»Ð¾Ð´
Ð¸Ðº Ð°Ð¼Ð¸
ĠÐ° Ñģ
ĠÐ° Ð»ÑĮ
Ð»Ñı ÑĢ
Ð»Ñı ÑİÑĤÑģÑı
ÐµÑĩ ÐºÐ¸
ĠÐ¡ Ð¾Ð±
ĠÐ¡ ÐµÐ³Ð¾Ð´Ð½Ñı
ĠÐ¿Ð¾Ð´ Ð¾Ð»
Ð¸Ð· Ð½
ĠÑģÐº Ð°Ð»
ĠÐºÑĢ ÐµÑģÑĤÑĮ
ĠÐļ Ð½
ĠÑĢÐ°Ð· Ð½ÑĭÐµ
ĠÑĢÐ°Ð· Ð½ÑĭÑħ
ĠÑĢÐ°Ð· Ð´ÐµÐ»
ÑīÐµ ÑģÑĤÐ²Ð¾
Ð¾Ð¿ ÑĢÑĭ
ĠÑĪ Ð»ÐµÐ¼
ĠÐ´ÑĢ ÐµÐ¼
ÐµÑģÑĤ Ð°
ĠÑģÐ¿ Ð¸Ñĩ
ĠÑģÐ¿ Ð°Ð»Ð¸
Ð°Ð¹ ÑĤÐµÑģÑĮ
Ð¸ÑĢ Ð°Ð»ÑģÑı
Ð¸ÑĢ Ð¾Ð²Ð°Ð»
ĠÐĶ ÑĥÑĢ
Ð°Ð³ Ð°Ð»
ĠÑĤÑĢ ÐµÐ¿
ĠÑĤÑĢ Ð¾Ð¿
Ð¸ÑĤÐµÐ»ÑĮ ÑģÑĤÐ²Ð¾
ÑģÑĤÑĢ ÐµÑĩÑĥ
ĠÐ±Ð¾Ð»ÑĮ Ð½Ð¾Ð³Ð¾
ĠÐ¿Ð¾Ðº ÑĢÑĭÑĤ
ĠÐ¿Ð¾Ðº Ð°Ð·Ð°Ð»ÑģÑı
ĠÐ³Ð¾ÑĢ Ð°Ð·Ð´
ĠÐ±ÐµÐ· Ð¾Ð±ÑĢÐ°Ð·
ĠÑĨ ÑĭÐ¿
ÐµÑģÐº Ñĥ
ĠÐ½Ð¸ ÑģÐºÐ¾Ð»ÑĮÐºÐ¾
ĠÐ½Ð°Ð´ ÐµÐ¶Ð´
Ð¾Ð¼Ð½ Ð¸ÑĤÑĮ
ĠÐ¿ÑĢÐ¾ ÑıÐ²
ĠÐ¾Ñģ ÐµÐ½ÑĮ
Ð½Ñı Ð²
ĠÑĤÐµÐ¼ Ð½Ð°Ñı
ĠÐ·Ð½ Ð°Ð¼ÐµÐ½
ĠÐ½Ð°Ñĩ Ð°Ð»Ð¾ÑģÑĮ
ĠÑĥÐ¼ ÐµÐ»
ĠÐĹ Ð°Ð¿
ĠÐĹ Ð°ÑĤÐµÐ¼
ĠÐ½ÐµÐ¿ Ð¾Ñģ
ĠÐºÐ¾Ð½ ÑĦ
ĠÐºÐ¾Ð½ ÑĨÑĥ
ĠÐ¿ÑĢÐµÐ´ Ð¼ÐµÑĤ
ĠÑģÑĤÐ°ÑĢ Ð¾Ð³Ð¾
ĠÑģÑĤÐ°ÑĢ Ð¸ÐºÐ°
Ð¸ÑĤÐµÐ»ÑĮÐ½Ð¾ ÑģÑĤÑĮÑİ
Ð¸Ð²ÑĪ Ð¸Ñħ
ĠÐ²ÐµÑĢ ÑĤ
ĠÐ½ÐµÐ¼ ÐµÐ´Ð»ÐµÐ½Ð½Ð¾
Ð»ÐµÐ½ Ð½ÑĭÐ¼
ĠÐĿÐµ ÑĥÐ¶ÐµÐ»Ð¸
ĠÐ²Ð¾Ð» Ð½Ð¾Ð²
ĠÑĩÑĥÐ²ÑģÑĤÐ² ÑĥÐµÑĤ
ĠÑģÐ½ Ð¸Ð·Ñĥ
ĠÐ¾ÑģÑĤ Ð°ÑĤÑĮÑģÑı
ĠÐ¿ÐµÑĢÐµÐ´ Ð¾
Ð½Ð¸Ðº Ð°Ð¼Ð¸
ĠÐ¼Ð°Ð» ÑĭÐ¹
Ð°ÑİÑī Ð¸Ð¹ÑģÑı
ĠÑģÑĤÑĢÐ°ÑĪ Ð½Ð°Ñı
ĠÐ½ÐµÐ´ Ð¾Ð²Ð¾Ð»ÑĮ
ĠÑĥÐ³ Ð¾Ð´Ð½Ð¾
ĠÐ±ÐµÐ» Ð¾Ð³Ð¾
ĠÐ¾ÑĤÐº ÑĢÐ¾Ð²
ĠÐ¶ÐµÐ» Ð°Ñı
ĠÑģÑĤÐ¾Ð» Ñĥ
ĠÑģÑĤÐ¾Ð» Ð¾Ð²ÑĥÑİ
ĠÑĥÐ»ÑĭÐ± Ð½ÑĥÐ»Ð°ÑģÑĮ
ĠÐ¶ÐµÐ½Ñī Ð¸Ð½Ðµ
ĠÐºÐ¾Ð¼Ð½Ð°ÑĤ Ð°
ĠÐ½Ð°Ð· ÑĭÐ²Ð°ÐµÑĤÑģÑı
Ð¾Ð²Ð°ÑĢ Ð¸Ñī
ĠÐ¼Ð°Ð»ÐµÐ½ÑĮÐº Ð¾Ð³Ð¾
ĠÐ¸ÑģÐ¿ ÑĢÐ°Ð²
ĠÐ³Ð»ÑĥÐ± Ð¶Ðµ
ĠÑĢÐµÑĪ ÐµÑĤ
ĠÐ»ÐµÐ³ Ð»Ð°
ĠÑĥÐ¶Ð°Ñģ Ð½Ð¾Ðµ
ĠÐ¿Ð¾Ð½Ð¸Ð¼ Ð°ÐµÑĪÑĮ
ĠÑģÐ»ÑĭÑĪ Ð°ÑĤÑĮ
ĠÐŀÐ´ Ð½Ð¾
ĠÐ¿Ð¾ÑģÑĤ Ð°Ð½Ð¾Ð²
ĠÑģÐ¿Ð¾ÐºÐ¾Ð¹ Ð½ÑĭÐ¹
ĠÐ¿ÑĢÐ¸Ð½ ÑıÑĤÑĮ
ĠÑĨÐµÐ» ÑĥÑİ
ĠÐ½Ð°Ð² ÑģÑĤÑĢÐµÑĩÑĥ
Ġ( "
ĠÐ¿Ð°ÑĢ Ð¸Ðº
ĠÑģÐ°Ð´ Ð°
ĠÑģÐ°Ð´ Ð¸Ð»ÑģÑı
ĠÐ¿Ð»Ð°Ðº Ð°Ð»Ð¸
ĠÐºÑĢÐ¾Ð² Ð¸
ĠÐºÑĢÐ¾Ð² Ð°Ð²
ĠÐ²Ð½Ð¸Ð¼ Ð°ÑĤÐµÐ»ÑĮ
ĠÑģÐµÐ¼ ÐµÐ¹
ÐĿ Ð¾Ð²
ĠÐ²Ð¾ÑĢ Ð¾Ñĩ
ĠÐĸ ÐµÐ½Ñī
ĠÑģÑĤÐ¾Ñı Ð²ÑĪ
ĠÐ¿Ð»ÐµÑĩ Ñĥ
ĠÐ·Ð°Ð¼ÐµÑĤ Ð¸Ð»Ð¸
Ð´Ð°Ð» ÐµÐºÐ°
ĠÐ¾Ð±ÑĢÐ°Ð· Ñĭ
ĠÐ´ÑĢÐ¾Ð¶ Ð°Ð»
ĠÐ´ÑĢÐ¾Ð¶ Ð°Ð»Ð¸
Ð½ÑĥÑĤ Ð¾Ð¹
ĠÑĩÐ¸ÑģÑĤ ÑĭÐ¹
ĠÐ´Ð²Ð¸Ð¶ ÐµÐ½Ð¸Ðµ
ĠÐºÑĥÐ¿ Ð¸ÑĤÑĮ
ĠÐ¿Ð¾ÑħÐ¾Ð¶ Ð¸
ĠÐ½ÐµÐºÐ¾ÑĤÐ¾ÑĢ ÑĭÑħ
ĠÐ¿Ð¾ÑĪ Ð»Ð¸
ĠÐ·Ð°Ð½ Ð°Ð²
ĠÑģÐ»ÑĥÐ¶ Ð±Ñĭ
ĠÐ¿Ð¾Ð¹ ÑĤÐ¸
ĠÐ¾ÑĤÐ²ÐµÑĩ Ð°ÐµÑĤ
ĠÐ¿Ð°Ð» ÐµÑĨ
ĠÐ¿Ð°Ð» ÐºÐ¾Ð¹
ĠÐ½ÐµÐ¸Ð· Ð±
ĠÐ¾ÑĤÑĩÐ°Ñı Ð½Ð¸Ñı
ĠÐ¿ÑĢÐ¸Ð³ Ð»Ð°Ñģ
ĠÐ¸ÑģÐ¿ÑĥÐ³ Ð°Ð½Ð½Ð¾
ĠÐ¶Ð´ Ð°Ð»Ð¸
ĠÑģÐ½ÐµÐ³ Ð¾Ð¼
ĠÐ¿Ð¾ÑģÐ» Ð°Ð»
Ð¢ Ð¾Ð²Ð¸ÑĤ
ĠÑĢÐµÐº Ðµ
ĠÑĢÐµÐº Ð¸
ĠÐ¿ÐµÑģ Ð½Ð¸
ĠÐ²ÑĭÑĪ Ð»Ð¸
ĠÑĤÑĢÐµÐ± Ð¾Ð²
ĠÐ³Ð°Ð·ÐµÑĤ Ñĥ
ĠÑģÐ¾Ð» Ð¸Ð´
Ð³Ñĥ Ð½ÑĮ
ĠÐĳÐ¾Ð³ Ñĥ
ĠÐ·Ð¸Ð¼ Ñĥ
ĠÑħÐ²Ð¾ÑģÑĤ Ð°
ĠÐ½Ð°ÑģÑĤÐ¾ÑıÑī ÐµÐ³Ð¾
ĠÐĵÑĢÐ¸Ð³Ð¾ ÑĢÑĮ
ĠÐ¿ÑĢÐ¾ÑħÐ¾Ð´ Ð¸Ð»Ð¸
ĠÑģÐ¾Ð±Ð¸ÑĢ Ð°Ð»Ð¸ÑģÑĮ
ĠÑĤÐ¾ÑĢÐ¶ÐµÑģÑĤÐ² ÐµÐ½Ð½Ð¾
ĠÑģÐ²Ð¸Ð´ ÐµÑĤ
ĠÐ´ÐµÐ²ÑĥÑĪ ÐºÑĥ
ĠÐ¿ÑĢÐ¸Ð¼ Ð¸ÑĢ
ĠÐµÑħ Ð°Ð»
ĠÑĥÑĩÐ°ÑģÑĤ Ð¾Ðº
ĠÐ¿Ð¾Ð´ÑĢ Ð¾Ð±
ĠÐ¾ÐºÐ¾Ð½Ñĩ Ð°ÑĤÐµÐ»ÑĮÐ½Ð¾
ĠÑĥÐ´Ð¾Ð²Ð¾Ð»ÑĮÑģÑĤÐ² Ð¸Ðµ
ĠÐ±ÐµÐ¶ Ð°ÑĤÑĮ
ĠÑģÑħÐ²Ð°ÑĤ Ð¸Ð»
ĠÐºÐ¾Ð»Ð¾ÐºÐ¾Ð» Ð°
ĠÐ´Ð¾Ð½ Ð¾Ñģ
ĠÐ¿ÑĢÐ¸ÑģÑĤ Ð°Ð»ÑĮÐ½Ð¾
ĠÐ¸Ð³ÑĢÐ° ÐµÑĤ
ĠÐ»ÐµÐ½ Ð¸Ð²Ð¾
ĠÐºÐ° ÑĦ
ĠÐ»ÐµÐº Ð°ÑĢ
ĠÑĤÑĢÐ¾Ð³ Ð°ÑĤÐµÐ»ÑĮ
ĠÐ¿ÐµÑĤ ÐµÑĢÐ±ÑĥÑĢÐ³
ĠÐ¼Ð¾Ð¼ ÐµÐ½ÑĤÐ°
ĠÐ²ÑĭÑĤ ÑıÐ³
ĠÐ¾ÑĤÑĩÐ°ÑıÐ½ Ð½Ð¾
ÑģÑİ Ð´Ñĥ
ĠÐŀÐº Ð¾Ð»Ð¾
ĠÐ¿Ð¾Ð´ÑĤ Ð²ÐµÑĢÐ´
ĠÐ¿ÑĢÐµÐ·ÑĢ Ð¸ÑĤÐµÐ»ÑĮÐ½Ð¾
ĠÐ²Ð½Ðµ ÑĪ
ĠÑģÑĤÐ°Ð½ÑĨ Ð¸Ð¸
Ð½ÐµÑĢ Ð°Ð´Ð¾ÑģÑĤ
ĠÐ´ÑĢÑĥÐ¶ÐµÑģÐº Ð¸
ĠÑĤÑĢÐ¾Ð½ ÑĥÐ»
ĠÑĦÐ°Ð»ÑĮ ÑĪ
ĠÐĹÐ°Ð² ÑĤÑĢÐ°
ĠÑģÑĢÐ°Ð² Ð½
ĠÑģÐ¼ÐµÑĢÑĤ ÐµÐ»ÑĮ
ĠÐ´ÐµÑĪ ÐµÐ²
ĠÐ¼ÐµÐ± ÐµÐ»ÑĮ
ĠÑģÐ¾ÑĤÑĢ ÑĥÐ´
ĠÐ¿ÑĢÐ¾ÑĪÐµÐ¿ ÑĤÐ°Ð»
ĠÐ¿Ð°ÑģÑģ Ð°Ð¶
ĠÐºÐ¾Ð»ÐµÐ½Ñı Ñħ
ĠÐ¿Ð¾Ð»ÑĩÐ°Ñģ Ð°
ĠÐ±ÐµÐ·ÑĢÐ°Ð· Ð»Ð¸Ñĩ
Ð¾Ð¿ÑĢÑĭ Ð³ÑĥÐ½ÑĮ
ĠÐ³Ð¾ÑĢÐ°Ð·Ð´ Ð¾
â Ħ
Ðµ ÐµÑĤÑģÑı
ÑĤ ÐµÐ¼
ÑĤ Ð¸ÑģÑĮ
Ð¸ ÑĤÐ¾ÑĢ
Ñģ Ð°
Ð» Ð¸Ð»
Ð» ÑĥÐ¶
Ð» ÐµÐ±
Ð» Ð°Ð¼Ð¸
Ñĭ Ð±
Ñĭ ÑĤÐ°
ĠÑģ Ð¸Ð³
ĠÑģ Ð½Ð¾Ð¼
ĠÐ¿ ÑĥÑħ
ĠÐ¿ ÑıÑĤÐ½Ð¾
ĠÐ¿ ÑĥÑģÐº
Ñĩ ÑĥÐ²ÑģÑĤÐ²
ĠÐ² Ð»Ð°Ð¶
ĠÐ¸ ÐºÐ¾Ð½
ĠÐ¸ ÑĢÐ¾Ð½
Ð² Ð°Ð»Ð¸
ĠÐº Ð°Ð½
ĠÐº Ð¸ÑĢ
ĠÐº ÑĥÐ·
ĠÐº ÑĥÐº
ĠÐº Ð²ÐµÑĢÑħÑĥ
Ð¾Ð² ÐµÑĤ
ĠÐ± Ð°Ð½
ĠÑĤ Ð¸Ð¿
ÐµÐ» Ð°ÑģÑĮ
ÐµÑĢ Ðµ
ĠÐ¼ Ð¾Ð»ÑĮ
ĠÐ¼ ÑĢÐ°Ð¼
ĠÐ¼ Ð¸ÑģÑģ
ĠÐ· Ð°Ð¹
ĠÐ· Ð¼Ðµ
ĠÐ¿ÑĢ ÐµÐ¿
ĠÐ³ ÑĢÐ°ÑĦ
ÐµÐ¼ ÑģÑı
Ð¾ÑĢ Ð³
Ð°Ð² Ð°Ð»Ð¾ÑģÑĮ
Ð½Ð¸ ÑģÑĤ
ĠÐ±Ñĭ Ð²ÑĪ
ĠÐ» Ð¸Ðº
ĠÐ» Ð¾Ñħ
ÑĨ Ð°ÑĤÑĮ
ÑĨ ÐµÐ¿
Ð¾Ð³ Ðµ
Ð¸Ð² ÑĭÐ¼
ĠÐ¾ÑĤ ÑĬ
Ð°Ð½ Ñģ
ĠÑģÑĤ Ñĥ
ĠÑģÑĤ Ð°Ð²Ð¸Ð»
Ð¸Ð¼ ÑĥÑİ
ĠÐĿ ÐµÐ´
ĠÐ²Ñģ ÐµÐ½
ĠÐĴ ÑģÐ¿
ĠÐĺ Ð´
ĠÑħ Ð¸ÑĤÑĢ
ĠÑģÐ² Ð¸ÑĢÐµÐ¿
ĠÐ° Ð¿ÑĢ
ĠÑĤÐ°Ðº ÑĤ
ĠÐ¾Ð± Ñĭ
ĠÐ¾Ð± Ð½Ð°
ĠÐ¾Ð± ÑīÐµÑģÑĤÐ²Ð°
ĠÐ¾Ð± Ð¼Ð°Ð½Ñĭ
ĠÑģÐ» Ð¾Ð±Ð¾Ð´
ĠÐ¿Ð¾Ð´ ÐµÐ»Ð°ÐµÑĪÑĮ
ĠÐļ ÑĥÐ¿
ĠÐ§ ÑĤ
ĠÐ¢ ÐµÐ¼
ĠÐ¢ Ð°Ð½ÑĨ
ĠÐ¢ Ð¾Ð²Ð°ÑĢÐ¸Ñī
ÑĥÑĩ ÐºÐ°
ĠÐ¾Ð´ Ð¾Ð±ÑĢ
Ð¾Ñĩ ÐºÐ°Ñħ
ĠÑĪ ÐµÑĢ
ĠÑĪ Ð°ÑĤ
ĠÐ´ÑĢ Ð¾Ð³
ÑĥÑĪ ÐºÐµ
ĠÑģÐ¿ ÑĥÑģÐº
ÑĥÐ¿ Ð°Ð¹
ĠÐĶ Ð°Ð¹ÑĤÐµ
Ð°Ð»ÑĮ Ð½Ð¾Ð³Ð¾
ĠÑĢÐ°Ñģ ÑĪÐ¸ÑĢ
ĠÐ³ÑĢ ÐµÑĩÐµÑģÐº
ĠÐ¿Ð¾Ð» Ð½ÑĭÐ¹
ĠÑģÐ°Ð¼ ÑĥÑİ
ĠÑĤÑĢ ÑĥÐ´Ð°
ÑģÑĤÑĢ Ð°Ð½
ĠÐ¿Ð» Ñİ
ĠÐ¿Ð» Ð¾ÑĤ
ĠÐ²Ð· Ð±
ÑĤÐ¸ ÑĢÐ°
ÑĦ Ð°Ð»ÑĮ
ÐµÑĢÑĮ Ñİ
ĠÑĨ ÐµÐ»Ð¸
ĠÐ»ÑİÐ± Ð¸ÑĤÐµ
ĠÑģÑĤÑĢ ÐµÐ»ÑĮ
ĠÐ½Ð°Ð´ ÐµÐ¶Ð´Ð°
ĠÐ¶Ð¸Ð· Ð½ÐµÑĢÐ°Ð´Ð¾ÑģÑĤ
ĠÐ¿Ð¾ÑĤ ÑĥÑħ
ĠÐĵ Ð»Ð°Ð·
ĠÐ¾Ðº Ð°Ð·Ð°Ð»
ĠÐ¿ÑĢÐ¾ ÑħÐ¾Ð´Ð¸Ð»
ĠÐ¸Ð¼ ÐµÐ»Ð¸
ĠÑĤÐµÐ¼ Ñĭ
ĠÐ¶ÐµÐ½ Ð¸Ð»ÑģÑı
ĠÑģÐ¾Ð² ÐµÑģÑĤÐ½Ð¾
ĠÑħÐ¾ÑĤ ÑıÑĤ
ĠÐ·Ð² ÐµÐ½
ĠÐł Ð¾Ð¶Ð´Ðµ
ĠÐŃ Ñħ
ĠÐ±ÑĢ ÐµÐ´
ĠÐŁÑĢ Ð¸Ñħ
ĠÐ´ÑĥÐ¼ Ð°Ñı
ĠÐ¾Ð´Ð¸Ð½ Ð½
ĠÐ¾Ð³ Ð¾Ð½ÐµÐº
ĠÐ¿Ð¾ÑĢ Ñĥ
ĠÑģÐ²ÐµÑĤ Ñĥ
ĠÐ±Ð¾Ð»ÑĮÑĪ Ð¸Ñħ
ĠÐºÐ¾Ð» Ð¸Ñĩ
ĠÐ¿Ð¾Ð¿ ÑĢÐ¾Ð±
ĠÐ´ÐµÐ» Ð°Ð»Ð¾
ĠÐ´ÐµÐ» Ð°ÑİÑĤ
ĠÑģÐ½ ÑıÑĤÑĮ
ĠÐĲÐ½ÑĤÐ¾Ð½ Ð¾Ð²Ð¸Ñĩ
ÑĤÑĢ Ð°Ðº
ĠÑĢÐ°ÑģÑģÐºÐ°Ð· Ðµ
ĠÐ¿ÑĢÐ¾Ñģ Ð½ÑĥÐ»ÑģÑı
ĠÐ³Ð¾Ð»Ð¾Ñģ Ð¾Ð²
ĠÑĢÐ°Ð´ Ð¸
ĠÐ½ÐµÐ´ Ð°Ð²
ĠÐ¼Ð½Ð¾Ð³Ð¾ ÑĩÐ¸Ñģ
ÑĥÑī Ð¸Ð¹
ÑĢÐ¸ ÑıÑĤ
ĠÐ¶Ð¸Ð² ÑĭÑħ
ĠÐ½ÑĥÐ¶ ÐµÐ½
ĠÐ·Ð°Ð´ ÐµÑĢÐ¶
ĠÐºÐ¾Ð¼Ð½Ð°ÑĤ Ð°Ñħ
ĠÐ½Ð°Ð· ÑĭÐ²Ð°Ð»Ð¸
ĠÑģÐ¸Ð´ Ñı
ĠÐ·Ð°Ð² ÑıÐ·
ĠÐ³Ð¾Ð´ Ð°Ñħ
ĠÑģÑĤÐ¾ Ð¸Ð»Ð¾
ĠÑģÐ»ÑĥÑĩ Ð°Ð»Ð¾ÑģÑĮ
ĠÐŁÐµÑĤÑĢÐ¾Ð²Ð¸Ñĩ Ñĥ
ÐµÐ½ÑĤ Ñĭ
ĠÐ¶Ð°Ð» ÐµÐ»
ĠÐ¶Ð°Ð» Ð¾Ð±
ĠÐ¶Ð°Ð» Ð¾Ð±Ð½Ð¾
ĠÐ¼Ð¾Ð»Ð¾Ð´ Ð¾Ð³Ð¾
ĠÑģÐ¼Ðµ ÑıÐ»Ð°ÑģÑĮ
ĠÑĢÐµÑĪ Ð¸Ð»Ð°
ĠÐ¿Ð¾Ð¶ ÐµÐ»
Ð»ÑıÐ» Ð°ÑģÑĮ
ĠÐ¿Ð¾ÑģÐ»ÐµÐ´ Ð½ÐµÐ¹
ĠÐ¿Ð¾ÑģÐ»ÐµÐ´ Ð½ÐµÐ³Ð¾
ĠÐ½Ð°ÑĪ Ð°
ÑıÐ³ Ñĩ
ĠÐ¼Ð¸Ð» ÑĥÑİ
ĠÑĢÐ°Ð·Ð² ÑĢÐ°ÑĤ
ĠÐ¾ÑģÑĤÐ°Ð² Ð¸Ð»
ĠÐ·Ð½Ð°ÐºÐ¾Ð¼ ÑĭÐ¼
ĠÑĥÑģÑĤ Ð°Ð½Ð¾Ð²
ĠÑĥÐ»Ð¸ ÑĨÐ°
ĠÐºÐ°Ð¼ Ð½Ñı
ĠÐ¿Ð¾Ð± ÐµÐ¶Ð°Ð»
ĠÐ´Ð¾ÑĢÐ¾Ð³ Ð¾Ð¹
ĠÐ¿ÑĢÐ¾ÑĤÐ¸Ð² Ð½Ð¾
Ð¾Ð¹Ð´ Ñı
ĠÐ¿ÑĢÐµÐ´ÑģÑĤÐ°Ð² Ð¸ÑĤÑĮ
ĠÐ·Ð°ÑĤ Ð¸Ñħ
ĠÐ³Ð»ÑıÐ´ ÐµÐ»Ð¸
ĠÐ´ÐµÑĢÐµÐ² Ð½Ðµ
ĠÐºÑĢÐ¸Ðº Ð½ÑĥÐ»Ð°
ĠÐ¸Ð³ÑĢ Ð°Ð»
ĠÑĩÑĥÐ¶ Ð¸Ðµ
ĠÐ½Ð°Ð¼ ÐµÑĢ
ĠÐ²ÑģÑĤÑĢÐµÑĩ Ð°Ð»
ĠÑĢÐ°Ð·Ð± Ð¾Ð¹
ĠÑĢÐ°Ð·Ð± ÑĢÐ¾Ñģ
ĠÐºÑĢÐ°ÑģÐ¸Ð² ÑĭÐ¹
ĠÐ½ÐµÐ¿ÑĢ Ð¸Ð²
ĠÐ²Ð·Ð³Ð»Ñı Ð½ÑĥÑĤÑĮ
ĠÑĥÑĩ Ð¸ÑĤÐµÐ»ÑĮ
ĠÐ¿Ð¾Ð»Ð¾Ð¶ ÐµÐ½Ð¸Ðµ
ĠÑĤÐ¾ÑģÐº Ñĥ
ĠÐ²Ð¾Ð¿ÑĢÐ¾Ñģ Ñĭ
ĠÐ¿Ð¾Ð´Ð½ ÑıÑĤ
ĠÑĤÐµÑĢ ÑĢÐ°Ñģ
ĠÑģÑĤÑĥÐ´ ÐµÐ½
ĠÑģÑĤÑĥÐ´ ÐµÐ½ÑĤÐ°
ĠÐ¡Ðº Ð¾ÑĢÐ¾
ĠÑĪÐµÐ¿ Ð¾ÑĤ
ĠÐ¿Ð¾Ð´Ð½Ð¸Ð¼ Ð°ÐµÑĤÑģÑı
ĠÐ²ÑĭÑĢÐ°Ð¶ ÐµÐ½Ð¸ÐµÐ¼
ĠÐ²Ð¾Ð·Ð² ÑĢÐ°ÑĤ
ĠÐ½ÐµÑĢ Ð²
ĠÐ½ÐµÐºÐ¾ÑĤÐ¾ÑĢ ÑĭÐ¼
ĠÐ´Ð»Ð¸Ð½ Ð½ÑĭÐµ
ĠÐ¿ÑıÑĤ Ð½Ð°
ĠÐ¿ÑĢÐ¾Ðº Ð»ÑıÑĤ
ĠÐĲÐ½ÑĤÐ¾ÑĪ Ð¸
ĠÐ¾ÑģÑĤÐ°Ð½Ð¾Ð² Ð¸Ð»Ð°ÑģÑĮ
ĠÐ¶ÐµÐ»ÐµÐ· Ð½Ð¾Ð¹
ĠÐ¶ÐµÐ»ÐµÐ· Ð½ÑĭÐµ
ĠÑĢÐ°Ð·Ð´ ÑĥÐ¼
ĠÐ²ÑģÐº Ð¾ÑĩÐ¸Ð»
ĠÐ¿Ð°Ð» Ð°ÑĤÐµ
ĠÐ¾ÑĢ Ð³Ð°Ð½
ĠÐ²ÑĭÐ· Ð´
ĠÐ´ÑĥÑĢ Ð½Ð¾
ĠÐŁÐ°ÑĢ Ð¼ÐµÐ½Ð°
ĠÐŁÐµÑĤÐµÑĢÐ±ÑĥÑĢÐ³ Ð°
ĠÐ´Ð¾Ð± Ð°Ð²
ĠÐ²ÐµÑĤ ÑĢÐ°
ĠÐ²Ð°Ð¶ Ð½Ð¾
ĠÐ¾ÑĤÐ½Ð¾ÑĪ ÐµÐ½Ð¸Ð¸
ĠÐ¿Ð¸ÑĪ Ñĥ
ĠÑĢÐµÐº Ñĥ
ĠÐ¿ÐµÑģ Ð½Ñı
ĠÑĢÐµÐ² Ð¾Ð»Ñİ
ĠÑģÑĤÐµÐ¿ ÑĮ
ĠÑģÑĤÐµÐ¿ ÐµÐ½Ð¸
ĠÐ¿Ð»Ð°ÑĤÑĮ Ñı
ĠÑĤÑĭÑģÑıÑĩ Ñĥ
ĠÐ¼ÑĥÐ· ÑĭÐº
ĠÐ¿ÑĢÐ¸ÐµÑħ Ð°Ð»Ð¸
ĠÐ·Ð°ÑģÑĤ ÑĭÐ²
ĠÐ¿Ð°Ñħ Ð½ÐµÑĤ
ĠÐ¿ÑĢÐµÐ² ÑĢÐ°ÑĤ
ĠÐ¾Ð±Ð¸Ð´ Ð½Ð¾
ĠÐ¾Ð±ÑĢÐ°ÑĤ Ð¸Ð»ÑģÑı
ĠÐ¿Ð¾ÐºÐ°Ñĩ Ð°Ð»
ĠÑĦÐ¸Ð³ ÑĥÑĢÐ°
ĠÑģÑĤÐµÐº Ð»ÑıÐ½
ĠÑģÐ¾Ð³Ð»Ð°Ñģ Ð½Ñĭ
ĠÑĢÑĥÑĩ ÐºÑĥ
ĠÐ¿Ð¾ÑĤÑĢ ÑıÑģ
ĠÐ²Ð½Ñĥ ÑĪ
ĠÐ²Ð°Ð³Ð¾Ð½ Ð°
ĠÐ½ÐµÐ¿Ð¾Ð½ ÑıÑĤÐ½Ð¾
ĠÑħÑĥÐ´Ð¾Ð¶ Ð½Ð¸ÐºÐ°
ĠÑĦÐ¾Ð½Ð°ÑĢ ÑĮ
ĠÐ´Ð¾Ð¶Ð´ Ñı
ĠÐ´Ð²ÐµÑĢ ÑıÑħ
ĠÐ²Ð¾Ð»Ð½ ÐµÐ½Ð¸Ñı
ĠÐ¸ÑģÑĤÐ¾ÑĢ Ð¸Ñİ
ĠÐ¾Ð±Ð² Ð¸Ð½
ĠÐ¿Ð¾ÑĢÑıÐ´ ÐºÐµ
ĠÑĤÐ² Ð¾Ðµ
ĠÐ²Ð¾ÑģÐºÑĢÐµÑģ ÐµÐ½ÑĮÐµ
ĠÐ¿Ð¾Ð·Ð½Ð°ÐºÐ¾Ð¼ Ð¸Ð»ÑģÑı
ĠÐ´ÑĢÑĥÐ· ÑĮÑı
ĠÐ¶ÑĥÑĢÐ½ Ð°Ð»Ð¸ÑģÑĤ
ĠÐ¾ÑīÑĥÑī ÐµÐ½Ð¸Ðµ
ĠÑĤÑĥÑģÐº Ð»Ð¾
ĠÐ¾Ð±Ð» ÐµÐ³
ĠÑıÐ·Ñĭ ÐºÐ¾Ð¼
ĠÐºÐ²Ð°ÑĢÑĤÐ¸ÑĢ Ðµ
ĠÐ¿Ð¾Ð´Ð´ ÐµÑĢÐ¶
ĠÐ·Ð°Ð±Ñĭ ÑĤÑĮ
ĠÑģÐ¾ÑģÑĤÐ¾Ñı Ð½Ð¸Ð¸
ĠÐ¿ÑĢÐ¾ÑģÑĤÑĢÐ°Ð½ ÑģÑĤÐ²Ð¾
ĠÐ½Ð°ÑģÐ¼ÐµÑĪ Ð»Ð¸Ð²Ð¾
ĠÐºÑĢÐ° Ñİ
ĠÐ½Ñĭ Ð½ÑĩÐµ
ĠÐ±Ð°Ñģ Ð¾Ð¼
ĠÐ·Ð²ÐµÐ·Ð´ Ñĭ
ĠÐ·Ð°ÑıÐ² Ð¸Ð»
ĠÑįÐ¿ Ð¸Ð·
ĠÐ¼Ð¾Ð»Ð¸ÑĤ Ð²
ĠÐºÐ°Ð¶ Ð´Ð°Ñı
ĠÐ·Ð°Ð³Ð¾ ÑĢ
ĠÐ½ÐµÑģÐºÐ¾Ð»ÑĮ ÐºÐ¸Ñħ
ĠÐ¡Ð¾Ð² ÑģÐµÐ¼
ĠÐ´Ð¾Ð±ÑĢÐ¾Ð´ÑĥÑĪ Ð½Ð¾
ĠÐ¶ÑĥÑĢÐ½Ð°Ð»Ð° Ñħ
ĠÑģÐ²Ð¸Ð´Ð° Ð½Ð¸Ñı
ĠÐ²ÐµÑģÐµÐ»ÑĮ Ñı
ĠÐĶÐ¾Ð¼ Ð°
ĠÐ´Ð²ÐµÐ½ Ð°Ð´ÑĨÐ°ÑĤÑĮ
ĠÐ³ÑĢÑĥ ÑģÑĤÑĮÑİ
ĠÑĥÑģÐ¼ÐµÑħ Ð½ÑĥÐ»ÑģÑı
ĠÐ±ÐµÑĪ ÐµÐ½
ĠÐĺÐ¿Ð°ÑĤ Ð¾Ð²
ĠÐ±ÑĢÐµÐ·Ð³ Ð»Ð¸Ð²Ð¾
ĠÑģÑĥÐ±Ð± Ð¾ÑĤÑĥ
ĠÐ¼Ð°Ð»ÑĮÑĩ Ð¸ÑĪ
ĠÑĢÐ°ÑģÑģÐ¼Ð¾ÑĤÑĢ ÐµÑĤÑĮ
ĠÐ¾ÑĤÐ¾ ÑĪÐµÐ»
ĠÐŁÐ¸ÑģÑĮ Ð¼Ð¾
ĠÐ¿Ð°ÑĢÐ¸Ðº Ð¼Ð°Ñħ
âĦ ĸ
2 3
2 5
Ġ âĦĸ
ÑĤ Ð¸Ð²
Ð½ Ð¾Ð´
Ð½ ÑıÐ»
ÑĢ ÐµÑĩ
Ñĥ ÑģÑĤÐ¸
Ñı Ðº
ĠÑģ ÑĥÐµÑĤ
ĠÑģ ÑĩÐ°ÑģÑĤÑĮÑİ
ĠÐ½ Ð¸ÑĤ
ĠÐ½ ÐµÐ±Ðµ
Ðº Ð½ÑĥÐ»ÑģÑı
ĠÐ² Ð°Ð»
ĠÐ² Ð°ÑĢ
ĠÐ² ÐµÐ·
ĠÐ² ÑĢÐ°
ĠÐ² ÑıÐ»Ð¾
ĠÐ² Ð¾ÑĪÐ»Ð°
ĠÐ¸ Ð´Ðµ
Ð² Ð¾Ð¹
Ð´ Ð¸Ð²
Ð°Ð» Ð»
Ð°Ð» ÐµÐ¹
Ð¼ Ð°ÑĢ
ĠÐº ÐµÑĢ
ĠÐº Ð¸Ð¿
ÑĪ Ð¸
ÑģÑĤ Ð°ÑĤÐ¸
ĠÐ± Ð°Ðº
ĠÐ± Ð¾Ð³Ð¾
ĠÐ± Ð¾Ð¶ÐµÑģÑĤÐ²
ĠÐ± ÐµÐ½Ðµ
ĠÐ´ Ð°Ð¹
ĠÐ´ Ð¾ÑĩÑĮ
ÐµÐ» Ð¸Ñĩ
Ð¾Ð» ÐµÐµ
ĠÐ¼ Ð°Ñı
ĠÐ¼ ÑĥÑĤ
ĠÐ¼ ÑıÑģ
Ñİ Ð´Ð¸
Ð¾Ð¼ Ð¸Ð½Ð°Ñı
Ð¸Ð» Ð¾Ñģ
ĠÐ· Ð»Ð¾
ĠÐ¿ÑĢ ÐµÐº
Ð¾Ð¹ ÑĤÐ¸ÑģÑĮ
ĠÐ½Ðµ ÑĥÐ´Ð°
Ð°ÑĤ Ð°Ñı
ĠÑĢ ÑĥÐ¶
ĠÑĢ ÑĤÐ°
Ð½Ñĭ ÑĪ
Ð¸ÑĤ Ñĭ
ĠÐ½Ð° ÑģÐº
ĠÐ½Ð° ÑģÑĤÐ°
Ð¾Ñģ ÑģÐµ
Ð¾ÑĢ Ð°Ð´
Ð¾ÑĢ ÑıÐ¶
Ð°Ñģ ÑģÐµ
Ð°Ð² Ð°Ð»Ð¸ÑģÑĮ
Ð¿ Ð¸Ñĩ
Ð¿ Ð¸ÑģÑĮ
Ð½Ð¸ ÑıÐ¼Ð¸
Ñī Ð¸Ðµ
Ñī ÐµÐ³Ð¾
ĠÐ» Ð±Ñĥ
Ð¸Ð² Ð°ÐµÐ¼
ĠÐ¾ÑĤ Ð³
ĠÐ¾ÑĤ Ð¼ÐµÑĤ
ĠÑģÑĤ Ð°
Ð¾Ðº Ð¾Ð½
Ð¸Ð¼ ÑĭÐµ
Ð´Ð° ÐµÑĤ
ĠÐŁ Ð¾ÐºÐ°
Ð°Ð´ Ðµ
Ð°Ð´ Ð¾Ð»Ð³Ð¾
Ð³Ð¾ ÑĢÐ¾Ð´
Ð¸Ñģ Ð¾Ð²
ĠÐĿ Ð°ÑĪ
Ð³ Ð»Ð¸
ĠÐ¿Ð¾ ÑıÑģÐ½
ĠÐ¿Ð¾ ÐµÑħÐ°Ð»Ð¸
Ð¾Ð»ÑĮ ÑĤÐµ
ĠÐĴ Ð½
Ð¸Ñĩ ÑĮ
ĠÑħ ÑĢÐ°Ð½
ÑģÑĤÐ² Ð¸Ðµ
ĠÐ²Ñĭ ÑħÐ¾Ð´Ð¸Ð»
ĠÑĤÐ°Ðº Ð¾Ð¼
Ð»Ñı Ð¼Ð¸
Ð»Ñı ÑıÑģÑĮ
ÐµÐº Ð´
ĠÐ¾Ð± ÑĢÑĭÐ²
ĠÐ¡ Ð¸Ð´
ĠÐ¿Ð¾Ð´ Ð²Ð¸Ð³
ĠÐ¿Ð¾Ð´ ÑĩÐ¸Ð½
ĠÐ·Ð° Ð¸Ð½ÑĤÐµÑĢÐµÑģ
ĠÐ¸Ð· Ð´Ð°Ð»ÐµÐºÐ°
ĠÑģÐº Ð°Ð¼
ĠÐļ Ð°Ð·Ð°Ð»Ð¾ÑģÑĮ
ÑĭÐ² Ð°Ð»Ð¾ÑģÑĮ
ĠÑĤÐ¾ Ñİ
ĠÐ¾Ð´ ÐµÑıÐ»Ð¾
ĠÑįÑĤ Ð¸Ð¼Ð¸
ĠÑĪ ÑĥÑĢ
ĠÑĪ Ð¸Ð¿
ÐµÐ³ Ð°Ð»Ð°
Ð°Ð± ÑĢ
ĠÐ¿ÐµÑĢ ÑĩÐ°ÑĤ
ĠÑģÐ¿ Ð»
ĠÑģÐ¿ ÑĢÐ°Ð²
ĠÑģÐ¿ Ð»ÐµÑĤ
ĠÑģÐ¿ Ð¸Ð½Ð¾Ð¹
Ð¸ÑĢ Ð°ÑıÑģÑĮ
ĠÐĶ ÐµÑĤÐ¸
ĠÐ´Ð² Ð¾Ð¹
ĠÐ¿Ð¾Ð» Ð°Ð³
ĠÐ¿Ð¾Ñģ Ð¸Ð´
ĠÐ¿ÑĢÐ¸ ÐµÐ·Ð¶Ð°Ð»
ĠÐ±ÑĥÐ´ ÑĮ
ĠÐ³Ð¾ÑĢ Ð¸Ð·
ĠÐ³Ð¾ÑĢ ÐµÐ»Ð¸
ĠÐĳ Ð°Ð¼
ĠÑĩÐµÑĢ Ð½Ð¾Ð¼
ĠÐ³Ð»Ð°Ð· Ð°Ð¼
Ð°Ð½Ð¸ ÑıÐ¼Ð¸
ÑĢÐ¾Ñģ Ð¸ÑĤÑĮ
Ð»Ð¸Ð² Ð¾Ð³Ð¾
Ð»Ð¸Ð² Ð¾ÑģÑĤÐ¸
ĠÑģÑĤÑĢ Ñĥ
ĠÑģÑĤÑĢ ÐµÐ»
ĠÐ½Ð°Ð´ ÐµÐ»
ÐµÑĨ Ð¸
Ð¸ÑģÑĤ ÑĭÐ¹
ĠÑĤÐµÐ¼ Ð½Ð¾Ð³Ð¾
ĠÐĽ Ð°Ð²
ĠÑĥÐ¼ Ðµ
ĠÐ»ÑİÐ´ ÑıÑħ
ĠÐºÐ¾Ð½ ÑĤÐ¾ÑĢ
ĠÐ±ÐµÑģ ÑĦÐ¾ÑĢ
ĠÐ´Ð¾Ð¼ Ð°ÑĪ
ĠÑģÑĤÐ°ÑĢ ÑĭÑħ
ĠÐ±ÑĢ Ñİ
ÑĥÐ» Ð¾Ð²
Ð´Ñĥ Ðº
ÑıÐ¶ ÐµÐ»
ĠÐļÐ°Ðº Ð¾Ðµ
ĠÐ²Ð¾Ð» Ð¸
ĠÑĩÑĥÐ²ÑģÑĤÐ² Ð¾Ð²Ð°ÑĤÑĮ
ĠÐ²Ð¾ Ð¾Ð±ÑĢÐ°Ð·
ĠÐ¼Ð°Ð» ÐµÐ¹
ĠÐ¿Ð¾Ð· Ð¾ÑĢ
ĠÑĩÐ°Ñģ Ð°Ð¼
ĠÑĩÐ°Ñģ Ð°Ð¼Ð¸
Ð°ÑİÑī Ð¸ÐµÑģÑı
ĠÑģÑĤÑĢÐ°ÑĪ Ð½ÑĭÐµ
ĠÑģÑĤÑĢÐ°ÑĪ Ð½ÐµÐµ
ĠÑĥÐ³ Ð°Ð´
ĠÐ±ÐµÐ» Ð¾Ðµ
ĠÐ¾ÑĤÐº Ð°Ð·ÑĭÐ²
ĠÐ½Ð¸Ñĩ ÐµÐ¼
ĠÑĤÐ¸Ñħ Ð°Ñı
ĠÐ¶ÐµÐ» Ð°Ð½Ð¸Ðµ
ÑĮÑİ ÑĤ
ĠÐ¼Ð¾Ð¶ÐµÑĤ Ðµ
ĠÐ¶Ð¸Ð² ÐµÑĤ
ĠÐ¥ ÑĢÐ¸ÑģÑĤ
ÑıÑī Ð°Ñı
ĠÐķÐ³Ð¾ ÑĢÐ°
ĠÐ½Ð°Ð· ÑĭÐ²Ð°Ð»
ĠÐ·Ð°Ð² Ð¸Ð´
ĠÐ¿Ð¾Ð³ Ð¾Ð´Ð°
ĠÐ¿Ð¾Ð³ ÑĢÐµÐ±
ĠÐ¶Ð°Ð» Ð¾ÑģÑĤÐ¸
ĠÐ¼Ð¾Ð»Ð¾Ð´ ÑĭÐµ
ĠÐ½ÐµÐ± Ñĥ
ĠÐ·Ð°Ð³ Ð»ÑıÐ½ÑĥÐ»
ĠÐ¸ÑģÐº Ð°ÑĤÑĮ
ĠÐ·Ð°Ñģ Ð½ÑĥÐ»
ĠÑĤÐ¾ÑĢ Ñĩ
ĠÐ¸Ð³ ÑĢÑĭ
ĠÐ¿Ð¾ÑģÐ»ÐµÐ´ Ð½ÑİÑİ
ĠÐ½Ð°ÑĪ Ñĥ
ĠÐºÐ» Ð°ÑģÑģÐµ
ĠÐ±ÐµÑģÐ¿ Ð¾ÐºÐ¾
ĠÑī ÐµÑĤ
ĠÑĥÐ´Ð¸Ð² Ð¸ÑĤÐµÐ»ÑĮÐ½Ð¾
ĠÐ¿ÑĢÐ¾ÑģÑĤ Ð¸ÑĤÑĥÑĤ
ĠÐ²ÑĭÐ¿ ÑĢÑıÐ¼
ĠÐ³Ð¾ÑĢÐ¾Ð´ Ñĥ
ĠÐ¨ ÑĥÑĢ
ĠÑĤÑıÐ¶ÐµÐ» ÑĭÐ¼
ĠÑıÑĢ ÐºÐ¸Ð¹
ÑĤÐ¾Ñĩ ÐºÐ°
ĠÐ¼ÑĥÐ¶ Ð¸Ðº
ĠÐ²ÑĭÑģÐ¾Ðº Ð¾Ð³Ð¾
ĠÐ²ÑĭÑģÐ¾Ðº Ð¸Ðµ
ĠÐ³Ð»ÑıÐ´ ÐµÑĤÑĮ
ĠÐ´ÐµÑĢÐµÐ² Ð¾
ĠÐ¾ÑĤÐºÑĢÑĭ ÑĤÐ¾
ĠÐ¾ÑĤÐºÑĢÑĭ ÑĤÑĮ
ĠÑģÐ²Ð¾Ðµ Ð¾Ð±ÑĢÐ°Ð·
ĠÐ³ÑĢÑıÐ· ÑĮ
ĠÐ²ÐµÐ»Ð¸Ðº Ð¸Ð¹
ĠÑĤÐ° Ñī
Ð¸ÑĢÐ° ÐµÑĤ
ĠÐ¿ÑĢÐ¸Ð´ ÑĥÐ¼
ĠÐ»Ð¸ÑĤÐµÑĢÐ°ÑĤÑĥÑĢ Ð½ÑĭÐµ
ÑĥÑİÑī Ð¸Ð¼
ĠÐ²ÑģÑĤÑĢÐµÑĩ Ð¸
ĠÐ¿ÑĢÐ¸Ð· ÑĭÐ²
ĠÑģÐ²ÐµÑĢ Ñħ
ĠÑĢÐ°Ð·Ð³Ð¾Ð²Ð¾ÑĢ Ð¾Ð²
ĠÐ½Ð°ÑħÐ¾Ð´ Ð¸Ð»Ð°ÑģÑĮ
ĠÐºÑĢÐµÐ¿ ÐºÐ¸Ð¼
ĠÐ¼ÐµÐ» Ð¾Ñĩ
Ð¸ÑģÐº Ð¸
ĠÐºÐ¾Ð½Ñĩ Ð¸Ð»Ð¾ÑģÑĮ
ĠÐ¡Ðº Ð¾Ð»ÑĮÐºÐ¾
ĠÑĪÐµÐ¿ ÑĤ
ĠÐĳÑĭ Ð»Ð°
ĠÐ¾ÑģÑĤÑĢ ÑĭÐ¹
Ð°ÐµÑĪÑĮ ÑģÑı
ĠÑģÐ´ ÐµÐ»Ð°
ÑİÑĪ ÐºÐ¸
ĠÑĥÑĤÑĢ Ð°Ð¼
ĠÑĩÐ° ÑģÑĤÑĮ
ĠÐ¢Ð¾Ð» ÐºÐ°Ñĩ
ĠÐ·Ð°Ð¼ÐµÑĩ Ð°ÐµÑĤ
ĠÐ°Ð½ ÐµÐºÐ´
Ð»Ð¾Ð¶ Ð¸Ð»
ĠÑĢÐ°ÑģÐº Ð°Ð»
ĠÑĢÐ°ÑģÐº ÑĢÑĭÐ»
ĠÐ´Ð¸Ðº Ð¾Ð¹
ĠÐ¿ÑĢÐ¸Ð¿ Ð°Ð´
ĠÐ¾ÑĤÑĩÐ°Ñı Ð½Ð¸Ðµ
ĠÐ²Ð°Ð¶ Ð½ÑĭÐ¼
ĠÑĢÐµÐ· ÑĥÐ»ÑĮÑĤ
ĠÑĥÐº Ð°Ð·
ĠÑĪÑĥÑĤ ÐºÑĥ
ĠÐ¼Ð°Ñģ Ð»Ð°
ĠÑĢÐµÐº Ð°
ĠÑħÐ¾Ð·Ñı Ð¸Ð½
ĠÑģÑĤÑĥÐ´ÐµÐ½ÑĤ Ð¾Ð²
ÑĩÐµÑģÐº Ð¾Ð¹
ĠÐ±Ð°Ð± Ð°
ĠÐ¿ÑĢÐ¸Ñĩ ÐµÐ¼
ĠÑĩÐµÐ»Ð¾Ð²ÐµÑĩÐµÑģÐº Ð¾Ð¹
ĠÐ³Ð½ÐµÐ² Ð°
ĠÐ¸ÑģÑĩÐµÐ· Ð»Ð°
ĠÐ´Ð²Ð¸Ð³ Ð°Ð»Ð¸ÑģÑĮ
ÐµÑĤÐµÐ»ÑĮ Ð½Ð¸ÑĨÐ°
ĠÐ³Ð¾Ð»ÑĥÐ± ÑĩÐ¸Ðº
ĠÑģÐµÑģÑĤ ÑĢÑĭ
ĠÑģÑĤÐµÐº Ð»Ð°
ĠÐ²Ð°Ð³Ð¾Ð½ Ðµ
ĠÐ·Ð°Ð¿Ð°Ñħ Ð¾Ð¼
ĠÐ¾Ð±ÑĬÑıÑģÐ½ Ð¸ÑĤÑĮ
ĠÐ½ÐµÐ·Ð½Ð°ÐºÐ¾Ð¼ ÑĭÐµ
ĠÑĢÑĥÐ³ Ð°ÑĤÐµÐ»ÑĮ
ĠÐĵÐ¾ÑģÐ¿Ð¾Ð´ Ð¸Ð½
ĠÐ¿Ð¾Ð¹Ð´ ÐµÐ¼
ĠÐ¸ÑģÐºÑĢ ÐµÐ½Ð½Ð¾
ĠÐ¸ÑģÑĤÐ¾ÑĢ Ð¸Ð¸
ĠÐ¾Ð² ÑĢÐ°Ð³
ĠÐ¾Ð±ÑıÐ· Ð°ÑĤÐµÐ»ÑĮÐ½Ð¾
ĠÑĨÐµÐ»Ð¾Ð² Ð°Ð»
ĠÐ¿Ð°Ð¿Ð¸ÑĢÐ¾Ñģ Ñĭ
ĠÐ¾ÑĤÐ²ÐµÑĢ Ð½ÑĥÐ»ÑģÑı
ĠÐ±Ð¸Ð» ÐµÑĤ
ĠÑĢÑĥÐ±Ð» ÑĮ
ĠÐºÑĢÐ°Ð¹ Ð½ÐµÐ¹
ĠÐ´Ð¸Ð² Ð°Ð½
ĠÐ¾Ð±Ð¾ÑĢ Ð²Ð°Ð½
ĠÐĳÑĥÐ´ ÐµÑĤ
ĠÐºÑĥÑħ Ð½Ðµ
ĠÐºÑĥÐ» Ð°ÐºÐ¾Ð¼
ĠÐ¸ÑģÐ¿ÑĭÑĤ ÑĭÐ²Ð°Ð»
ĠÐ·Ð²ÐµÑĢ Ñı
ĠÐ´Ð¾Ð½ ÐµÑģ
ĠÐ½Ð°ÑģÑĤÑĥÐ¿ Ð¸Ð»Ð°
ĠÑĤÐµÐ»ÐµÐ³ ÑĢÐ°Ð¼
ĠÐ¼Ð¾ÐºÑĢ ÑĭÐµ
ĠÐ·Ð°Ð´ÑĭÑħ Ð°ÑıÑģÑĮ
ĠÐĵÐ¾ÑĢÑĮ ÐºÐ¾Ð³Ð¾
ĠÐ¸Ð·Ð²Ð¾Ð·ÑĩÐ¸Ðº Ð°
ĠÑģÐ¾Ð¾Ð±Ñī Ð¸Ð»
ĠÐ²ÐµÐ»Ð¸Ñĩ Ð°Ð²
ĠÐ¿ÑĢÐµÐ´Ð¿ Ð¾Ð»Ð¾Ð¶
ĠÐºÐ½Ð¸Ð¶ ÐºÑĥ
ĠÐ²Ð¾Ð·Ð¼Ð¾Ð¶ Ð½Ð¾ÑģÑĤÑĮ
ĠÑģÑĤÐ¸Ñħ Ð¸
ĠÑĢÐµÐ´Ð°Ðº ÑĨÐ¸Ð¸
ĠÐ³ÑĢÐ° Ð½Ð¸ÑĨÑĥ
ĠÐ¿ÑĢÐ¾Ñħ Ð¾Ð¶
ĠÐłÐ°Ñģ ÑģÐºÐ°Ð·
ĠÐ¿Ð¾ÐºÐ°Ð·Ð°Ð» Ð°ÑģÑĮ
ĠÑģÑĤÐ°Ð½ ÐµÑĤ
ĠÐ¾ÑĤÐ· ÑĭÐ²
ĠÐļÐ°Ð¶Ð´ ÑĭÐ¹
ĠÐ¼Ð³Ð½Ð¾Ð² ÐµÐ½Ð¸Ðµ
ĠÐļÑĥÑģ Ð°ÐºÐ°
ĠÐĵÐ°Ð²ÑĢ ÑİÑĪÐºÐ°
ĠÐ¿ÑĢÐ¾ÑĤÑı Ð½ÑĥÐ»Ð°
ĠÐ¾Ð±ÑĢÐ°Ð´ Ð¾Ð²Ð°Ð»ÑģÑı
ĠÐ¾ÑĤÐ²ÑĢÐ°Ñī ÐµÐ½Ð¸ÐµÐ¼
ĠÐ²Ð¾ÑģÐº Ð»Ð¸ÐºÐ½ÑĥÐ»
ĠÑİÐ½Ð¾ÑĪ Ð°
ĠÐ¡ÐµÐ¼ ÐµÐ½Ð°
ĠÐ¿ÑĢÐ¸Ð¾Ð±ÑĢ ÐµÑĤ
ĠÑĢÐ¸ÑģÑĥÐ½ Ð¾Ðº
ĠÐ²Ð¾ÑĪ Ð»Ð¸
Ð°Ð½Ð´Ð° ÑĢ
ĠÐ½ÐµÑħÐ¾ÑĢÐ¾ÑĪ Ð¾
ĠÑĢÐµÐ¿ Ð¾ÑĢÑĤÐµÑĢ
ĠÑĢÐ°Ð·Ð½Ð¾ Ð¾Ð±ÑĢÐ°Ð·
ĠÐ³Ð¾ÑĢÐ½Ð¸Ñĩ Ð½Ð°Ñı
ĠÐĲÐ²ÑĢÐ°Ð¼ Ð¾Ð²
ĠÐ½Ð¸Ð¶ Ðµ
ĠÐĴÐ¾Ñģ ÐºÑĢÐµÑģ
ĠÐĴÐ· Ð³
ĠÑĥÐ±ÐµÐ¶ Ð´ÐµÐ½
ĠÐ½ÐµÑĥÐ¼ Ð¾Ð»
ĠÐ´Ð¾Ñĩ ÐµÑĢÐ¸
ĠÐ¿ÑĢÐ¾ÑĦ ÐµÑģÑģ
ĠÐĽÐ¸Ð» ÐµÑĩÐºÐ°
ĠÑģÐ»ÑĥÑĩÐ°Ñı Ñħ
ĠÐ½Ð°ÑģÐ» Ð°Ð¶Ð´
ĠÐ¾ÑĤÐ¾Ð·Ð² Ð°Ð»ÑģÑı
ĠÑģÑĥÐ´Ð¾ÑĢ Ð¾Ð¶Ð½Ð¾
ĠÐķÐ²Ð¿ÑĢÐ°ÐºÑģ Ð¸Ñı
ĠÑĢÐ°ÑģÐ¿ÑĢÐ¾ÑģÑĤ ÑĢÐ°Ð½
ĠÐĶÑĥ Ð½Ñı
ĠÐ¥Ð¸Ð¶Ð½Ñı ÐºÐ¾Ð²
ĠÑĤÐ°ÑĢ ÐµÐ»
ĠÐļÑĥÐ²ÑĪÐ¸Ð½ Ð½Ð¸ÐºÐ¾Ð²
ĠÑģÐ¾Ð±Ð»Ð°Ð· Ð½
ĠÐļÐ¾ÑģÑĤÑİ ÑĢÐ¸Ð½
ÑĢÐ¸ÑģÑĤÐ¾ Ñģ
Ð¸Ð»Ð¸Ð½ Ð´ÑĢ
ĠÐ½ÐµÑģÑĤ ÐµÑĢÐ¿
ĠÐ³Ð¸Ð³ Ð°Ð½ÑĤ
ĠÐŁÐ¾Ð¼ÐµÑĢ Ð°Ð½ÑĨ
ĠÐºÐ¸ÑĢ Ð¿Ð¸Ñĩ
ĠÐ¾Ð±Ð½Ð° ÑĢÑĥÐ¶
ĠÐ²ÑĢÐ° ÑĩÐ°
ĠÐºÐµÑĢ Ð¾Ñģ
Ñ ĳ
ÑĤ ÑĭÑħ
Ð¸ ÐµÐ¹
Ñģ Ð¾Ð½
Ð½ Ð¾Ðº
Ð½ Ð¾Ð¶
Ð» ÑĥÑħ
ÑĢ Ð¾Ð¹
ÑĢ Ð¸Ð²
ÑĢ ÑıÐ´
Ñĭ ÑĪÐµ
ĠÑģ Ð°ÑĢ
ĠÑģ Ð¾Ð¶
ĠÑģ ÑĥÑĤ
ĠÑģ Ð½Ðµ
ĠÑģ Ð¾ÑģÑĤ
ĠÐ¿ Ð°Ðº
ĠÐ¿ ÐµÐ¹
ĠÐ¿ ÐµÐ½Ð¸Ðµ
ĠÐ¿ ÑĥÐ·
Ðº Ð°ÑĤÑĮ
ĠÐ² ÑıÐ·
ĠÐ² Ð½Ð°ÑĩÐ°Ð»Ðµ
ĠÐ¾ ÑĤÐ¾ÑĢ
Ð´ ÑĥÐ¼
Ð°Ð» Ð¸Ð¼
Ð¼ Ð¾Ð¹
ÑĤÐ¾ ÑĪÐµ
Ñħ Ð¸
ĠÐº Ð°Ð½Ð¸
Ð¾Ð² ÑģÑİÐ´Ñĥ
ÐµÐ½ ÐºÑĥ
ĠÑĤ Ð¸ÑĪÐµ
Ð¾Ð» ÐµÑĤ
Ñİ ÑīÐµÐµ
ĠÐ¿ÑĢ Ð°ÐºÑĤ
Ð°ÑĤ Ð¾Ð¼
ĠÑĢ Ñı
ĠÑĢ Ð¾Ð»Ð¸
ĠÐµ Ð²
Ð°Ð· ÑĥÐ¼
ÐµÐ¼ Ð¾Ð½
Ð°Ð² Ð°Ð»ÑģÑı
ĠÑĥ ÑĤÐ¾Ð½
ĠÑĥ ÑģÑĤÑĥÐ¿
ĠÑĥ Ð»Ð¸Ñĩ
ĠÐ» ÑĥÐ¶
Ð¾ÑĤ Ð¾Ð¹
Ð¸Ð² Ð°Ñİ
ĠÐ¶ Ð¸ÑĢ
ĠÐ¶ Ð°Ð¶Ð´
Ð· Ð¸ÑĢ
Ð¾Ð½ Ð°Ñħ
ĠÐ¾ÑĤ ÑĢÐ°Ð²
Ð°Ð½ Ð½Ð¾Ð¼
ĠÑģÑĤ Ð°ÑĤ
Ð¸Ð½ ÐºÐ°
ĠÐŁ ÑĥÑģÑĤ
ĠÑı Ñī
Ð³ ÑĢ
Ð°Ñı Ð½
ĠÐ¿Ð¾ Ñī
ÐµÐ² Ð°Ð»Ð¸
ÐµÐ² Ð°Ð»ÑģÑı
ÐµÐ² ÑĪÐµÐµ
Ð¾Ð»ÑĮ ÑĨÐµÐ²
Ð½Ñĥ ÑģÑĮ
Ð¸Ñħ Ð¾
ÐºÐ¾ ÑĪ
Ð¶ ÐµÑĤ
ĠÐ¾Ð± ÑħÐ¾Ð´
Ð¾Ð· Ð°
ĠÐ¡ ÑĥÐ´
ĠÐ¡ Ð¾Ð³Ð»Ð°Ñģ
ĠÑģÐ» Ñİ
ĠÑģÐ» Ð¾Ð¼
ĠÐ½Ð¾ ÑıÐ±
ÐµÐ½ÑĮ ÐºÐ¸
ĠÐ¿Ð¾Ð´ Ð»Ð¸Ð½
ĠÐ¿Ð¾Ð´ ÑħÐ¾Ð´Ð¸Ð»
ĠÐ¿Ð¾Ð´ Ð¾ÐºÐ¾Ð½
ĠÐ·Ð° ÑĤÐ¾
ĠÐºÑĢ Ð¸ÐºÐ°
ĠÐļ ÑĢÐ°Ð²
ĠÐļ Ð¾Ð»Ñı
ĠÑĢÐ°Ð· Ð¾ÑĪÐ»Ð¸ÑģÑĮ
ĠÐ§ ÐµÐ¼
ĠÐ¢ ÐµÐ±Ñı
ĠÐ¢ Ð¾Ð¶Ðµ
ĠÐ¾Ð´ Ð½Ð¾Ð²
Ð¾Ð¿ ÑĭÑĢ
Ð¾Ñĩ Ð½ÑĭÐ¹
ĠÑĪ ÐµÑģÑĤ
Ð°Ð± Ð¾Ñĩ
ĠÑģÐ¼ ÑıÐ³Ñĩ
ĠÐ¿ÐµÑĢ ÐµÐ¼
Ð¾ÑģÑĤ Ð¸Ð¶
ĠÑģÐ¿ Ð¸Ñģ
Ð¸ÑĢ Ð°Ð»Ð¸
ĠÐĶ Ð²Ð°
ĠÐĶ Ð½ÐµÐ¼
Ð°Ð»ÑĮ Ð½Ð°Ñı
Ð°Ð»ÑĮ ÑĪÐµ
ĠÑĢÐ°Ñģ Ñħ
ĠÐ¿Ð¾Ð» Ð½ÑĭÐµ
ĠÐ¿Ð¾Ð» Ð½Ð¾Ðµ
ĠÐ¿ÑĢÐ¸ Ñī
ĠÑĤÑĢ ÐµÑī
Ð¸ÑĤÐµÐ»ÑĮ Ð½ÑĥÑİ
Ð¸ÑĤÐµÐ»ÑĮ Ð½ÐµÐµ
Ð°Ñħ Ð°Ð»
ĠÐ¿Ð¾Ðº ÑĢÑĭ
ĠÐ²Ð¸Ð´ Ñı
ÐµÐ»Ð¾Ð² ÐµÐº
ĠÐ³Ð¾ÑĢ Ð±
ÑĤÐ¸ Ñİ
Ð¾ÑĤÑĢ ÐµÐ±
ĠÐ¾Ñĩ ÐµÑĢÑĤ
ÑĦ Ñĥ
ĠÑĨ Ð¸Ð»Ð¸Ð½Ð´ÑĢ
ĠÐ»ÑİÐ± Ð¸ÑĪÑĮ
Ð»Ð¸Ð² Ð°Ñı
ÑĥÑħ Ð¾Ð²
ĠÑĦ Ð»Ð¸Ð³
ĠÐ±Ð» ÐµÑģÐº
ĠÐ¾Ð¿ ÑĥÑī
ÑĮÑı Ð½
ĠÐ¸Ð¼ ÐµÑİ
ĠÑĤÐµÐ¼ Ð¸
ÐµÐ½ÑĮÐº Ð¸Ð¼
ÐµÐ½ÑĮÐº Ð¸Ñħ
ĠÑģÑĤÑĢÐ° Ð½Ð¸ÑĨ
Ð°Ñĩ ÐºÐ°
ĠÐĽ Ð¸Ð´
ÑĢÐ°Ð· Ð´
ĠÑĥÐ¼ Ð¸ÑĢÐ°Ð»
ĠÑĥÐ¼ ÑĢÐµÑĤ
ĠÐĹ Ð°ÑĢ
ĠÑģÐ¾Ð± ÑĢÐ°
ĠÑĩÐµÐ»Ð¾Ð²ÐµÐº Ðµ
ĠÐ½Ð¸Ðº ÑĥÐ´Ð°
ĠÐºÐ¾Ð½ ÑĮÑı
Ð°ÑĪ ÐºÑĥ
ĠÐ¿Ð¾Ð½ ÑıÑĤÐ½Ð¾
ĠÐ¿Ð¾Ð½ ÑıÐ»Ð°
ĠÐ±ÑĢ Ð¾Ð²
ĠÐ±ÑĢ Ð¾Ð½
Ð¸Ð²ÑĪ Ð¸Ð¼
Ð¸Ð²ÑĪ ÑĥÑİÑģÑı
ĠÐ½ÐµÐ¼ ÐµÑĨ
ÑĥÑģ ÑĤÐ¾ÑĪ
ĠÐºÑĢÐ°Ñģ Ð½ÑĭÐ¼
ĠÑħÐ¾ÑĢÐ¾ÑĪ Ð°Ñı
ĠÐ´ÐµÐ» Ð°Ð»Ð¾ÑģÑĮ
ĠÐĲÐ½ÑĤÐ¾Ð½ Ð¾Ð¼
ĠÐ·Ð°Ðº ÑĥÑģ
ĠÑĢÐ°ÑģÑģÐºÐ°Ð· ÑĭÐ²Ð°Ð»Ð°
ĠÐŁÐ°Ð²Ð»Ð¾Ð²Ð¸Ñĩ ÐµÐ¼
ĠÐ¿Ð¾Ð· Ð²Ð°Ð»
ĠÐ²Ð¾Ñģ ÐºÐ¾Ð²
ĠÐ´ÐµÑĢ Ð³
ĠÑģÑĤÑĢÐ°ÑĪ Ð½ÑĥÑİ
ĠÑĢÐ°Ð´ Ð¾Ð²Ð°Ð»ÑģÑı
ĠÑģÑĤÐ¾Ð» Ð±
ĠÐ¿ÑĢÐ¾ÑĤ ÐµÑģÑĤ
ĠÐ½ÐµÐ² ÑĭÑģ
ĠÑĥÐ»ÑĭÐ± Ð°ÐµÑĤÑģÑı
ĠÑĥÐ»ÑĭÐ± Ð°ÑıÑģÑĮ
ĠÐ¶Ð¸Ð² Ð¾
Ð¸ÑĩÐµÑģÐº Ð¾Ð¼
ĠÐºÐ¾ÑĢ Ð¾Ð±
ĠÐ½ÑĥÐ¶ Ð½Ð°
ĠÑģÐµÑĢÐ´ ÑĨÐµÐ¼
ĠÐ¿ÐµÑĢÐ² Ð¾Ð¼
ĠÐ²ÑģÑı ÐºÐ¾Ð¹
ĠÑħÐ¾Ð»Ð¾Ð´ Ð½ÑĭÐ¼
ĠÑħÐ¾Ð»Ð¾Ð´ Ð½Ð°Ñı
ĠÐ¼Ð¾Ð»Ñĩ Ð°Ð½Ð¸Ñı
ĠÑģÑĤÑĢÐ°Ð½ Ð½ÑĭÐµ
ĠÐŀÑĤ ÐºÑĥÐ´Ð°
ĠÐ½ÐµÐ± ÐµÑģ
ĠÑģÐ¼Ðµ ÑİÑĤÑģÑı
ÑİÑī ÐµÐ³Ð¾
ĠÐ¿ÐµÑĩ Ð°Ð»Ð¸
ĠÑģÐ´ÐµÐ» Ð°Ð²
ĠÑģÐ´ÐµÐ» Ð°Ð»Ð¾ÑģÑĮ
ĠÐ¡ÐµÑĢÐ³ Ðµ
ĠÐ½Ð°ÑĪ Ð»Ð¸
ĠÐ»ÐµÐ¶ Ð°ÑĤÑĮ
ĠÐ¡ÑĤ ÑĥÐ¿Ð°Ð¹
ĠÐ¼Ð¸Ð» ÑĭÑħ
ĠÑħÐ¾Ð´ Ñĥ
ĠÑĥÐ²Ð¸Ð´ Ð¸ÑĤ
ĠÐºÐ½Ð¸Ð³ Ðµ
ĠÑĢÐ°ÑģÑģ ÑĭÐ¿
ĠÐ¾ÑģÐ¾Ð± ÐµÐ½Ð½Ð¾Ð¹
ÐµÐ²ÑĪ ÐµÐ³Ð¾
ĠÐ·Ð½Ð°ÐºÐ¾Ð¼ ÑģÑĤÐ²Ð¾
ĠÑĥÐ´Ð¸Ð² Ð¸Ð»Ð°ÑģÑĮ
ĠÑĥÐ´Ð¸Ð² Ð»ÐµÐ½Ð½Ð¾
ĠÑĥÐ´Ð¸Ð² Ð»ÐµÐ½Ð¸ÐµÐ¼
ÑĢÐ°ÑĪ Ð¸Ð²Ð°Ð»
ĠÐ¿ÑĢÐ¸Ð½ ÑıÐ»
ĠÑĨÐµÐ» ÑĭÐ¼
ĠÐ½Ð°Ðº Ð°Ð·
ĠÐºÐ°Ð¼ ÐµÐ½Ð½ÑĭÑħ
ÑĤÐ¾Ñĩ ÐºÐ¸
ÑĤÐ¾Ñĩ ÐºÑĥ
ĠÑĢÐ°ÑģÐ¿ Ð¾ÑĢÑıÐ¶
ĠÐµÐ´ ÐµÑĤ
ĠÐ²ÐµÑģÐµÐ» Ð¾Ð¹
ĠÐ²ÐµÑģÐµÐ» ÑĭÐ¼
ĠÐ¿ÑĢÐµÐ´ÑģÑĤÐ°Ð² Ð»ÐµÐ½Ð¸Ðµ
ĠÐ²ÑĭÑģÐ¾Ðº Ð¸Ñħ
ĠÐ³ÑĢÑıÐ· Ð½ÑĭÐµ
ĠÐ·Ð» Ð¾Ð±Ð½Ð¾
ĠÐºÐ¾Ð¼ Ð¼ÐµÑĢ
ĠÐ±Ð¾ ÑıÐ»Ð°ÑģÑĮ
Ð¸ÑĢÐ° ÐµÑĤÑģÑı
ĠÐ»Ð¸ÑĤÐµÑĢÐ°ÑĤÑĥÑĢ Ñĭ
ĠÐ²Ð¾ÑĢ Ð°
ĠÐ¼ÑĭÑģÐ» ÑĮÑİ
ĠÐ½ÐµÐ¶ Ð½Ð¾ÑģÑĤÑĮÑİ
ĠÐ¿Ð»Ð° ÑĩÐ°
ĠÐºÑĢÐ°ÑģÐ¸Ð² ÑĭÐµ
ĠÐ¿ÑĢÐ¸Ð· Ð½Ð°
ĠÐ¿Ð¾Ð»ÑĥÑĩ Ð¸Ð»Ð°
ĠÑģÐ»Ð°Ð± ÑĭÐ¹
ĠÑĢÐ°Ð·Ð³Ð¾Ð²Ð¾ÑĢ Ñĭ
ĠÐ±ÑĢÐ¾Ñģ Ð¸Ð»ÑģÑı
ĠÐ¼ÐµÑģÑĤ Ñĥ
ĠÐ²Ð°ÑĪ Ñĥ
ĠÐ²Ð·Ð´ ÑĭÑħ
ĠÑĥÑĩ Ð¸Ð»Ð¸
ĠÐ¿ÑĢÐ¾Ð² ÐµÐ»
ĠÐ¿ÑĢÐ¾Ð² Ð¸Ð½
ĠÐºÐ°Ð¿ ÐµÐ»ÑĮ
ĠÐ¿ÑĢÐµÐºÑĢÐ°Ñģ Ð½Ð°
ĠÐ±Ð¾Ð³ Ð¾Ð¼
ĠÐ¿Ð¾Ð´Ð½Ð¸Ð¼ Ð°Ð»ÑģÑı
ĠÐ¾Ð±ÐµÐ´ Ð½Ð¸
ĠÐ¾Ð±ÐµÐ´ Ð°ÑĤÑĮ
ĠÐ³Ð¾ÑĢÑıÑĩ Ð¸Ð¹
ĠÐ¾ÑģÑĤÑĢ Ð¾Ð¹
ĠÐ¶ÐµÐ»ÐµÐ· Ð½Ð¾Ð´
Ð¸ÑĤÐµÐ» ÐµÐ¼
ĠÐ·Ð°Ð¼ÐµÑĩ Ð°Ð»
ĠÐ³Ð»ÑĥÐ±Ð¾Ðº Ð¾Ð³Ð¾
ĠÐ´ÐµÑģÑı ÑĤÐ¸
ĠÐ¾ÑĤÑĩÐ°Ñı Ð½Ð¸Ð¸
ĠÐ¸ÑģÐ¿ÑĥÐ³ Ð°Ð»Ð°ÑģÑĮ
ĠÐ³Ð¾ÑģÑĤ Ð¸Ð½Ð¾Ð¹
ĠÑĥÐº Ð°Ð·ÑĭÐ²
ĠÐ¾Ð±ÑĭÐºÐ½Ð¾Ð² ÐµÐ½Ð¸Ñİ
ĠÐ¼Ð½Ð¾Ð³ Ð¸Ñħ
ĠÑģÐ½ÐµÐ³ Ð°
ĠÐ¿ÑĢÐ¾Ð¸Ð·Ð² Ð¾Ð´
ĠÐ»Ð°Ð¼Ð¿ Ð°
ĠÐ»Ð°Ð¼Ð¿ Ñĭ
ĠÐ¿ÑĢÐ¸Ð» Ð¸Ñĩ
ĠÑĥÑħÐ¾Ð´ Ð¸ÑĤ
ĠÑĥÑħÐ¾Ð´ Ð¸ÑĤÑĮ
ĠÐºÑĢÑĥÐ¶ Ð¸Ð»Ð¸ÑģÑĮ
ĠÐ³Ð¾ÑĢÐ´ Ð¾
ĠÑģÐµÐ¼ÑĮ Ðµ
ĠÑĦÐ¾ÑĢ Ð¼Ñĥ
ĠÐ³Ð½ÐµÐ² Ð¾Ð¼
ĠÑģÐµÐ» ÐµÐ´
ĠÐ±ÑĥÐ¼Ð°Ð³ Ñĥ
ĠÐ²Ð´ Ð¾Ð»ÑĮ
ĠÐ´ÑĮÑıÐºÐ¾Ð½ Ð°
ĠÐ¾ÑĤÑģ ÑİÐ´Ð°
ĠÐ±ÐµÑĢÐµÐ³ Ð°
ĠÑħÐ²Ð¾ÑģÑĤ Ð¾Ð¼
ĠÑĨÐ°ÑĢ Ð°Ð¿
ĠÐĽÐµÐ² Ð¸ÑĤÐ°Ð½Ð°
ĠÐĴÐ¾ Ð¾Ð±ÑīÐµ
ĠÐ¿ÑĢÐ¾ÑħÐ¾Ð´ Ð¸Ð»Ð°
ĠÐ¸Ð·Ð± Ð°Ð²
ĠÐ¼ÑĥÐ·Ñĭ ÐºÑĥ
ĠÑģÑĤÑĥÑĩ Ð°Ð»Ð¸
ĠÐºÑĢÑĭÑĪ Ð¸
ĠÐ¼ÐµÑĤ Ð°Ð»Ð»
ÑĤÑı Ð±
ĠÐ·Ð¾Ð² ÐµÑĤ
ĠÐ¿Ð¾ÑģÑĤÐ°Ð² Ð¸Ð»
ĠÑģÐ»Ð°Ð² Ð°
ĠÑĦÐ¸Ð³ÑĥÑĢ Ñĥ
Ð¾ÑĤÑĮ ÑģÑı
Ð°Ð²ÑĪÐ°Ñı ÑģÑı
ĠÐºÑĥÑħ Ð°ÑĢ
ĠÐ·Ð²Ñĥ ÐºÐ¾Ð²
ĠÐ¼ÑĥÐ¶Ñĩ Ð¸Ð½Ñĭ
ĠÐ·Ð°Ð¿Ð»Ð°Ðº Ð°Ð»Ð°
ĠÐ¿Ð¾Ð·Ð´ ÑĢÐ°Ð²
ĠÑĤÐ°Ð½ÑĨ ÐµÐ²Ð°ÑĤÑĮ
ĠÐ¡ÑĥÐ²Ð¾ÑĢ Ð¸Ð½Ð°
ĠÐ¾ÑĤÑĢÑĭÐ² Ð¸ÑģÑĤÐ¾
Ð¾Ð·Ð² Ð¾Ð»ÑĮÑĤÐµ
ĠÑģÐ»ÐµÐ´ÑĥÑİÑī Ð¸Ð¹
ĠÑģÐ»ÐµÐ´ÑĥÑİÑī ÑĥÑİ
ĠÑĢÐµÑģ Ð½Ð¸ÑĨ
ĠÐºÐ¾ÑģÑĤ ÑİÐ¼
ĠÑĤÐµÑģ Ð½Ð¾
ĠÐ·ÐµÑĢÐº Ð°Ð»Ð¾
ĠÐ½ÐµÑĥÐ´ ÐµÑĢÐ¶
ĠÐ¾Ð±Ð¾ Ð¸Ñħ
ĠÑĢÐ°Ð·Ð³Ð¾Ð²Ð°ÑĢ Ð¸Ð²Ð°Ð»Ð¸
ĠÐ½ÐµÐ´Ð¾ÑģÑĤ Ð°ÑĤ
ĠÑģÐ¾ÑģÑĤÐ¾Ñı Ð½Ð¸Ðµ
ĠÐ¡ÑĤÑĢ ÐµÐ»ÐµÑĨ
ĠÑĥÐ·Ð½Ð° ÐµÑĤ
ĠÐŁÐ¾ÑģÐ»ÑĥÑĪ Ð°Ð¹
ĠÐ¿Ð¾ÑĩÑĤ Ð¸ÑĤÐµÐ»ÑĮÐ½Ð¾
ĠÐ±ÑĢÐ°ÑĤÑĮ Ñı
ĠÐ¿ÑĢÐ¸ÑģÑĥÑĤÑģÑĤÐ² Ð¸Ð¸
ĠÐ¾ÑģÑĤÐ°Ð½Ð°Ð²Ð»Ð¸Ð² Ð°Ð»ÑģÑı
ĠÐºÑĥÑģ Ð¾Ðº
ĠÐĽÐµÐ¹ ÐºÐ¸Ð½Ð°
ĠÐŁÑĢÐ¸ÑĪ ÐµÐ»
ĠÐ±Ð¾ÑĢÑĮ Ð±Ñĭ
ĠÑĢÐ°ÑģÑģÐ¼Ð°ÑĤÑĢ Ð¸Ð²Ð°Ð»
ĠÑħÐ¼ÑĥÑĢ Ð¾
Ð¸Ð²ÑĪÐ°Ñı ÑģÑı
ĠÑħÐ»ÐµÐ± Ð°
ĠÐ¿ÑĥÑĪ Ð¸ÑģÑĤ
ĠÑĤÑı Ð³Ð¾
ĠÑģÑĤÐ°Ð½ Ñĥ
ĠÐĴÐ¸Ð´ Ð¸ÑĪÑĮ
ĠÐ²ÑĭÐ¹ ÑĤÐ¸
ĠÐľÐ¸Ð» ÑĭÐ¹
ĠÑĢÐ¾ÑģÑĤ Ð°
ĠÐ±ÐµÑģÑģÐ¼ÑĭÑģÐ» ÐµÐ½Ð½Ð¾
ĠÑħÑĢÐ¸ÑģÑĤÐ¸ Ð°Ð½ÐºÐ°
ĠÑĤÑĢÐµÑĤÑĮ ÐµÐ³Ð¾
ĠÐ¾ÑĩÐ°ÑĢÐ¾Ð² Ð°ÑĤÐµÐ»ÑĮ
ĠÐ¿Ð¾Ð½ÑĢÐ°Ð² Ð¸Ð»Ð¾ÑģÑĮ
ĠÐ¿ÑĥÑģÑĤÑı ÐºÐ¸
ĠÐ¾Ð³Ð»Ñı Ð½ÑĥÐ»ÑģÑı
ĠÐ¡ÐµÐ½Ð¸ ÑģÑĤ
ĠÐ¸ÑģÐºÑĢÐµÐ½ Ð½Ðµ
ĠÑģÐºÑĢÑĭÐ» ÑģÑı
ĠÐ²Ð½ÑĥÑĤÑĢ ÐµÐ½
ĠÐ¡Ð»Ð¾Ð² Ð½Ð¾
ĠÐ·Ð°ÑĤÑĭÐ» Ð¾Ðº
ĠÑĢÐµÐ¿ÐµÑĤ Ð¸ÑĨ
ĠÑĤÑĢÐ°Ðº ÑĤÐ¸ÑĢ
ĠÐĶÐµÐ² ÑĥÑĪÐºÐ°
ĠÑĦÐµÐ»ÑĮ Ð´ÑĪ
ĠÐºÐ»Ð°Ð´Ð± Ð¸ÑīÐµ
ĠÐĴÐ°Ð» Ñİ
ĠÑģÑĥÑī Ð½Ð¾ÑģÑĤÐ¸
ĠÐ¥Ð¾Ñĩ ÐµÑĪÑĮ
ĠÐ¿ÑĢÐ¾ÐºÐ°Ð¶ ÐµÐ½Ð½ÑĭÐ¹
ĠÐ¡Ð²Ð¸Ð´ ÐµÑĤÐµÐ»ÑĮÐ½Ð¸ÑĨÐ°
ĠÑĤÑĢÐµÐ· Ð²
ĠÐ°Ñģ ÑĦÐ°Ð»ÑĮ
ĠÐ§ÑĤ Ð¾Ð±Ñĭ
Ð¸Ð»Ð¾Ñģ Ð¾ÑĦ
ĠÑĪÑĥÑĢ ÑĪ
ĠÐĴÐ¾ÑģÐºÑĢÐµÑģ ÐµÐ½ÑģÐº
ĠÐºÐ°Ð½Ð¸ ÐºÑĥ
ĠÐ¾Ð´Ð½Ð¾Ð² ÑĢÐµÐ¼ÐµÐ½Ð½Ð¾
ĠÐ¶ÐµÐ»ÐµÐ·Ð½Ð¾Ð´ Ð¾ÑĢÐ¾Ð¶
Ð ¨
Ð¾ ÑħÐ¾Ð´
Ð¸ Ð¾Ð·
Ð½ Ð¸Ð»
Ð½ ÑıÑĤ
Ð½ ÐµÐ»Ð°
Ð» Ð¸Ð¹
Ð» ÑĥÑĩ
Ð» Ð°Ð³Ð¾
ÑĢ ÐµÐ¿
ÑĢ Ð°Ð¼Ð¸
Ñı Ñİ
Ñı ÐµÑĤÑģÑı
Ñĭ Ð´Ð½Ð¾
ÑĮ ÐµÐ¼
ĠÑģ ÑĭÐ³
ĠÑģ Ð½Ð¸Ñģ
ĠÐ¿ ÑĤ
ĠÐ² Ðµ
ĠÐ² Ð¸
ĠÐ² Ð¾Ð¹ÑĤÐ¸
ĠÐ¸ Ð½Ð¾
Ð² Ð°ÑĢÐ°
ĠÐ¾ ÑĨÐµÐ½
Ð°Ð» Ð¾Ð¼
ĠÐº Ð¾Ð³
ĠÐº ÑĥÑĪ
Ð¾Ð² Ð°Ñı
Ð¾Ð² Ð°Ð½Ð½ÑĭÐ¹
ÑģÑĤ ÑĭÐ¹
ĠÐ± Ð¾ÑĤ
ĠÐ± ÑĥÐ±
Ð¾Ð» Ðµ
Ð°Ðº Ñĥ
Ð¸Ð» ÐµÐ¹
ĠÑĩ Ð°Ñħ
ĠÑĩ ÐµÑģÑĤÑĮ
ĠÑĩ ÑĮÐ¸
ĠÐ¿ÑĢ Ñı
ĠÐ½Ðµ ÑĥÐ»Ð¾Ð²
ĠÑĢ ÐµÐ¶
ĠÑĢ Ð¾Ð´Ð°
ĠÐ½Ð° ÑģÐºÐ¾Ð»ÑĮÐºÐ¾
ĠÐ½Ð° ÑħÐ¾Ð´Ð¸Ð»
Ð¾Ñģ Ð°
Ð¾ÑĢ Ñĥ
Ð¾ÑĢ Ð¾Ð³
Ð°Ð² ÑĪÐµÐµÑģÑı
Ð½Ð¸ ÐºÐ°Ñħ
ÑĨ Ð°Ð¼
ÑĨ Ð°Ñħ
Ð± Ð¾Ñİ
ĠÐ¶ Ð°Ð½Ð´Ð°ÑĢ
ÐµÐ´ ÑĪÐ¸Ð¹
ĠÐ¾ÑĤ ÑģÑĤÐ°Ð²
ĠÐ¾ÑĤ ÑĩÐ°
ĠÐ¾ÑĤ ÑĢÐ¸
Ð¾Ð³Ð¾ Ñİ
Ð°Ð½ Ñĥ
ĠÑģÑĤ Ð¾Ð»ÑĮ
ĠÑģÑĤ ÐµÑģ
ĠÑģÑĤ Ð²Ð¾Ð»
Ð¸Ð½ ÑĤ
Ð¸Ð½ ÑģÐºÐ¸Ð¹
Ð¸Ð½ ÑĮÑģÑı
ĠÐŁ Ð°Ñģ
ĠÐĿ ÐµÐ»ÑĮÐ·Ñı
ĠÐĿ Ð¸Ð½Ð¾Ñĩ
Ð°ÑĢ ÐµÑĤ
Ð¾Ð¶ Ð¸Ð²
ÐµÐ² ÑĢ
ÐµÐ² ÐµÐ»ÑĮ
ĠÐ²Ñģ Ð»ÑĥÑħ
ĠÐĴ ÑĩÐµÑĢÐ°
ÐµÐ· Ð¾Ð½
Ð¸Ðº Ð¾
ĠÑħ Ð¾
ĠÑħ Ð²Ð°Ð»
ÑģÑĤÐ² Ð¾ÑĢ
ÑģÑĤÐ² ÑĥÐµÑĤ
ĠÐ²Ñĭ ÑĤÑı
ĠÑĤÐ°Ðº Ð¾Ñİ
Ð»Ñı ÑİÑĤ
ĠÐ¾Ð± Ð¼
ĠÐ¾Ð± ÐµÐ·
ĠÐ¾Ð± ÐµÑģÐ¿
ĠÐ¾Ð± ÑĪÐ¸ÑĢ
ĠÐ¡ ÑĢÐµÐ´
ĠÐ¡ Ð¾Ð»Ð½
ĠÐ¡ Ð»ÑĥÑĪ
ĠÐ¿Ð¾Ð´ Ð²ÐµÑĢ
ĠÐ¿Ð¾Ð´ ÑħÐ²Ð°ÑĤ
ĠÐºÑĢ ÑĭÑģ
ĠÐļ Ð°Ð¿
Ð½Ðµ ÑģÑĤÐ¸
ĠÐ¢ Ðµ
ĠÑĪ Ð¾ÑģÑģÐµ
ĠÑģÐ¼ Ð¾ÑĢÑī
ĠÑģÐ¿ ÑĥÑĤ
ĠÐĶ ÐµÐ¹ÑģÑĤÐ²
Ð¾ÑĪ Ñĥ
Ð°Ð»ÑĮ ÑĩÐ¸Ðº
ĠÑĢÐ°Ñģ ÑģÑĤÐ°Ð²
ĠÐ³ÑĢ ÑĥÐ·
ĠÐ¯ Ð²Ð¾ÑĢ
Ð½ÑĥÐ» Ð¾ÑģÑĮ
ĠÐ¿Ð¾Ñģ Ð²
ĠÐ¿Ð¾Ñģ ÐµÐ»
ĠÐ¿Ð¾Ñģ ÑĥÐ´
ĠÑģÐ°Ð¼ Ð¾Ð»ÑİÐ±
ĠÑĤÑĢ Ð¸Ð´
ÑģÑĤÑĢ Ð¾Ð¹
ĠÐ±Ð¾Ð»ÑĮ Ð½ÑĭÐ¼
ĠÐ±Ð¾Ð»ÑĮ Ð½Ð¸ÑĨÐµ
ĠÐ³Ð¾Ð²Ð¾ÑĢ Ð¸ÑĤÐµ
ĠÐ´ÑĢÑĥÐ³ Ð¾Ð¼Ñĥ
ĠÐ¿Ð» Ð¾Ñī
ĠÐŁÐ°Ð² Ð»Ñı
ĠÐ²Ð· ÑıÑĤ
ĠÐ³Ð¾ÑĢ ÐµÐ»
ĠÐĳ Ð»Ð°Ð³Ð¾Ð´Ð°ÑĢ
ĠÐ¾Ñĩ ÐºÐ¸
ĠÑĨ ÑĭÐ³
ÐµÐ½Ð¸Ñı Ð¼
ĠÑģÑĤÑĢ Ð¸Ð¶
ĠÐ½Ð°Ð´ Ð¼
ĠÑĦ Ð¸Ð»Ð¾ÑģÐ¾ÑĦ
ĠÑĦ ÐµÐ²ÑĢ
Ð¸Ð½Ð° Ñħ
ĠÐĵ Ð¾Ð²Ð¾ÑĢÐ¸Ð»
ĠÐ¾Ðº Ð½Ð°Ð¼Ð¸
ĠÐ¾Ð¿ ÑĭÑĤ
ĠÐ²Ð¾Ð· ÑĢÐ°ÑģÑĤ
ÑĮÑı ÑĢ
Ð¸ÑģÑĤ Ð°
Ð¸ÑģÑĤ Ð¾Ð²
ĠÐ¸Ð¼ ÐµÐ»Ð°
ĠÐ¾Ñģ Ð¼Ð¾ÑĤÑĢ
ĠÐ¾Ñģ Ð¼Ð°ÑĤÑĢ
Ð»Ðµ ÑīÐµ
ĠÐ½Ð°Ñĩ Ð¸Ð½Ð°Ñı
Ð°Ð²ÑĪ Ð¸Ð¼Ð¸
ĠÑģÐ¾Ð² ÐµÑģÑĤÐ¸
ĠÐĹ Ð°Ðº
ĠÐ½Ð°Ð¿ ÑĥÐ³
ĠÐºÐ¾Ð½ ÑĨÐ¾Ð²
ĠÐºÐ¾Ð½ Ð´ÑĥÐº
ÑģÐ» Ð°Ð²
Ð¸Ð²ÑĪ Ð¸Ð¼ÑģÑı
ÐµÑģÑĤÐ² ÐµÐ½Ð½Ð¾
ĠÑģÐµÑĢ Ð¾Ð¹
Ð½Ð¾Ð² Ð¾Ð»Ð¾Ñģ
ĠÐ¿Ð¾Ð² Ð¾Ð´Ñĥ
ĠÐŁÐ°Ð²Ð» Ð¾Ð²Ð½Ð°
Ð»ÐµÐ½ Ð¾
Ð»ÐµÐ½ Ð½Ð¾Ð³Ð¾
ĠÐ¾Ð´Ð¸Ð½ Ð°Ðº
ĠÐ¾Ð³ ÑĢ
ĠÐ¿Ð¾ÑĢ Ð°Ð¶
ĠÐºÑĢÐ°Ñģ Ð½ÑĭÐ¹
ĠÐºÑĢÐ°Ñģ Ð½Ð¾Ðµ
ĠÐ±Ð¾Ð»ÑĮÑĪ Ð¾Ð¼
ĠÐ¿Ð¾Ð¿ ÑĥÐ³
ĠÑĩÑĥÐ²ÑģÑĤÐ² Ð¾Ð²Ð°Ð»Ð°
ĠÐ½Ð¾Ñĩ Ð½Ð¾Ð¹
ĠÐ¾ÑģÑĤ Ð°Ð»ÑĮÐ½ÑĭÐµ
ĠÐ·Ð°Ðº Ð¾Ð»
ĠÐ·Ð°Ðº ÑĥÑĢ
ĠÐ¿ÐµÑĢÐµÐ´ Ð°Ð»
ĠÐ¿ÐµÑĢÐµÐ´ Ð½ÐµÐ¹
ĠÑĢÐ°ÑģÑģÐºÐ°Ð· ÑĭÐ²Ð°ÐµÑĤ
ĠÐ¾ÑĤÐ²ÐµÑĤ ÑģÑĤÐ²
ĠÐ²Ð¾Ñģ ÐµÐ¼ÑĮ
ĠÐĿÐ° ÑģÑĤÑĥÐ¿
ĠÑģÐºÐ°Ð· Ð°Ð½Ð¾
ĠÐ½ÐµÑĤ Ñĥ
ĠÐĿÐ¸Ðº ÑĤÐ¾
ĠÐ½ÐµÐ´ Ð¾Ð²ÐµÑĢ
ĠÐ¼Ð½Ð¾Ð³Ð¾ Ðµ
ÑĥÑī ÐµÐ¹
ÑĥÑī Ð°Ñı
ÑĥÑī Ð¸Ðµ
ĠÐ±ÐµÐ» Ð¾Ð¼
ĠÐ¾ÑĤÐº Ð°Ð·
ĠÐ¾ÑĤÐº Ð°Ð·Ð°Ð»ÑģÑı
ĠÐ´ÑĥÑĪ Ð¾Ð¹
ÐŁ ÑĢ
ÐŁ ÐµÑģÑĤÑĢ
ĠÐ¿ÑĢÐ°Ð² Ð¸Ð»ÑĮ
ĠÑĥÐ»ÑĭÐ± ÐºÐ¸
ĠÐ·Ð°Ð± ÑĢÐ¾ÑĪ
ĠÐ´ÐµÑĤ ÑģÐºÐ¾Ð¹
ĠÐºÐ¾ÑĢ ÑĢ
ĠÐºÐ¾ÑĢ Ð¼
ĠÐ¥ Ð°
ĠÐ¥ Ð¾ÑĤÑĮ
ĠÐºÐ¾Ð¼Ð½Ð°ÑĤ Ð°Ð¼
ĠÑĥÐ± Ð¸ÑĤÑĮ
Ð¸Ñī Ð°
Ð¸Ñī Ñĥ
ĠÑħÐ¾Ð»Ð¾Ð´ Ð¾Ð¼
ÐµÐ½ÑĤ Ð¾Ð¼
ĠÐ¼Ð¾Ð»Ð¾Ð´ ÑĭÑħ
ĠÐ¼Ð¾Ð»Ð¾Ð´ Ð¾ÑģÑĤÐ¸
Ð²Ð° ÑģÑĤ
ÑİÑī ÑĥÑİ
ĠÑĢÐµÑĪ ÐµÐ½Ð¸Ðµ
ĠÐ¿Ð¾Ð¶ Ð°ÑĢ
ĠÐ¿ÑĢÐ¸Ð² ÑıÐ·
ĠÑģÐ´ÐµÐ» Ð°Ð»ÑģÑı
ĠÐ¾ÑĤÐ´ Ð°ÑĤÑĮ
ĠÐ¾ÑĤÐ´ Ð¾Ñħ
ĠÐ¡ÐµÑĢÐ³ ÐµÑİ
ĠÐ¿Ð¾ÑģÐ»ÐµÐ´ Ð¾Ð²Ð°Ð»
ĠÐ¿Ð¾ÑģÐ»ÐµÐ´ Ð½Ð¸Ñħ
Ð°ÑĤÐµÐ» Ñİ
Ð½Ð¸Ñĩ ÐµÑģÐº
ĠÑģÐ»ÐµÐ´ ÑĥÑİÑīÐµÐµ
Ġ1 9
ĠÐ¼Ð¸Ð» Ð°Ñı
ĠÑħÐ¾Ð´ Ð¸ÑĤ
ĠÑģÐ»ÑĭÑĪ Ð°Ð»Ð°
ÑĥÐ¹ ÑģÑĤÐ°
ĠÐŀÐ´ Ð½Ð°ÐºÐ¾
ÑĢÐ°Ñĩ Ð¾Ðº
ĠÐ½Ð¾Ñģ Ð°
ĠÐ½Ð¾Ñģ Ñĥ
ĠÐ½Ð¾Ñģ Ð¸Ð»
ÐµÑĢÐµÐ´ Ð¸
ĠÐ¿ÑĢÐ¾ÑģÑĤ Ð¾Ð¹
ĠÑĨÐµÐ» ÑĭÑħ
ĠÐ¿ÑĢÐ¾ÑĪ Ñĥ
ĠÐ¿Ð¸ÑģÑĮ Ð¼ÐµÐ½
ĠÐ¿Ð°ÑĢ Ð¾ÑħÐ¾Ð´
ĠÐ¿ÑĢÐ¾Ð¸Ð· Ð½Ð¾Ñģ
ĠÐ²ÐµÑĩÐµÑĢ Ð°Ð¼
ĠÐ±Ð¾ÑĢ Ð¾ÑĤÑĮÑģÑı
Ð½ÐµÐ² Ð½Ð¾
ĠÑĥÐ´Ð° Ñĩ
ĠÐ³Ð»ÑıÐ´ ÐµÐ»Ð°
ĠÐ³ÑĢÑıÐ· Ð½ÑĥÑİ
ĠÐ¿ÑĢÐ¾Ð´Ð¾Ð»Ð¶ Ð°Ñı
ĠÐ±ÐµÑĢ ÐµÑĤ
ĠÐ¸Ð³ÑĢ Ñĥ
ĠÐ±Ð¾ ÑıÐ»Ð¸ÑģÑĮ
ĠÑıÐ² Ð»ÑıÐµÑĤÑģÑı
ÐĴ Ð°Ð²Ð¸Ð»
ĠÐ²Ð¾ÑĢ Ð¾Ð±
ĠÐĸ Ð¸Ð²
ĠÐ¼Ð°ÑĤ ÐµÑĢÑĮÑİ
ĠÐ±ÐµÑģÑģ Ð¼ÐµÑĢÑĤ
ĠÐĺÐ· Ð¼
ĠÐºÑĢÐ¸Ñĩ Ð°ÑĤ
ÑĥÑİÑī Ð¸Ñħ
ĠÐ¿ÑĢÐ¸Ðº Ð°Ð·Ð°Ð»
ĠÐºÑĢÐ°ÑģÐ¸Ð² Ð¾Ð¹
ĠÐºÑĢÐ°ÑģÐ¸Ð² ÑĭÐ¼
ĠÑģÐµÑĢÑĮÐµÐ· Ð½ÑĭÐ¹
ĠÐ²Ð°ÑĪ Ð°
ĠÑĢÐ°Ð²Ð½Ð¾Ð´ÑĥÑĪ Ð¸ÐµÐ¼
ĠÑĥÑĩ Ð¸ÑĤÑĮÑģÑı
ĠÐ¿Ð¾Ð»Ð¾Ð¶ Ð¸Ð»Ð°
Ðĳ ÑĥÐ´
ĠÐ´Ð¾ÑģÑĤ Ð¸Ð³
ĠÑģÐ¼ÐµÑĪ Ð½ÑĭÐµ
ĠÐ²Ð¾Ð¿ÑĢÐ¾Ñģ Ð¾Ð¼
ĠÐ½Ð°Ð± Ð¾Ðº
ĠÑĤÐµÐ» Ðµ
ĠÐ¿ÑĢÐ¾Ð² Ð¾Ð»
ĠÐ½Ð°Ð¿Ð¸Ñģ Ð°Ð»Ð°
ĠÐ½Ð°Ð¿Ð¸Ñģ Ð°Ð½Ð¾
ĠÐ¾Ð³ÑĢÐ¾Ð¼ Ð½ÑĭÐ¹
ĠÐ¾Ð³ÑĢÐ¾Ð¼ Ð½ÑĭÐ¼
ĠÐ¾Ð³ÑĢÐ¾Ð¼ Ð½Ð¾Ð³Ð¾
ĠÐ¾Ð³ÑĢÐ¾Ð¼ Ð½Ð°Ñı
ĠÑĩÐ¸ÑģÑĤ Ð¾Ð¹
Ð¸ÑģÐº Ð°
ĠÑģÑĥÐ´ ÑĮÑı
ĠÐºÐ°Ð¿ Ð»Ð¸
ĠÐºÐ°Ð¿ Ð¸ÑĤÐ°Ð½Ð°
ĠÐºÐ¾Ð½Ñĩ Ð¸Ð»
ĠÐ¡Ðº Ð°Ð¶Ð¸ÑĤÐµ
ĠÐľÐ¸ÑĪ ÐºÐ°
ĠÐ¼ÐµÑĢÑĤÐ² Ð°Ñı
ĠÐ¿Ð¾Ð´Ð½Ð¸Ð¼ Ð°Ð»
ĠÐ¿Ð¾Ð´Ð½Ð¸Ð¼ Ð°Ñı
ĠÑĥÐ¼ÐµÑĢ Ð»Ð¸
ĠÐ½ÐµÑĢ Ð¾Ð²
ĠÐ´Ð»Ð¸Ð½ Ð½ÑĭÐ¼Ð¸
ĠÐ³Ð¾ÑģÐ¿Ð¾Ð´ Ð¸Ð½Ð°
ĠÐ³Ð¸Ð¼Ð½Ð°Ð· Ð¸Ñİ
ĠÐ»Ð¾Ð¶ Ð¸Ð»ÑģÑı
ĠÐ½Ð°ÑĢ Ð¾Ð´Ð°
ĠÐºÑĥÑĢ ÑĮ
ĠÐ³Ð»ÑĥÐ¿ Ð¾ÑģÑĤÐ¸
ĠÐ¿Ð¾Ð¹ Ð¼ÐµÑĤ
ĠÐ¾ÑĤÐ²ÐµÑĩ Ð°ÑĤÑĮ
ĠÑĤÐ²ÐµÑĢÐ´ ÑĭÐ¹
ĠÐ²ÑĭÐ± ÑĢÐ°Ñģ
ÑĩÐ°ÑģÑĤÑĮ Ðµ
ĠÑģÑĤÐ¾ÑıÐ» Ð¾
ĠÐ´Ð¸Ðº Ð¾
ĠÑģÑĤÑĢÐ°Ð´ Ð°Ð½Ð¸Ð¹
ĠÐ¿Ð°Ð»ÑĮÑĨ ÐµÐ²
ĠÑĥÑĪ Ð¸
ĠÐ¾Ñī ÑĥÑĤ
ĠÐ³ÑĢÐ¾Ð· Ð¸Ð»
ĠÐ·Ð½Ð°Ñĩ ÐµÐ½Ð¸Ñı
ĠÑĢÐµÐº Ð¾Ð¼ÐµÐ½
ĠÐ´Ð¾Ñģ Ð°Ð´
ĠÑģÐºÐ°Ð¶ ÐµÑĤ
Ðķ Ð¥
ĠÐ¸Ð·Ð´ Ð°ÑĤÐµÐ»ÑĮ
ĠÑĥÐ³ÑĢ Ð¾Ð¶
ĠÑĤÑĮ Ð¼Ñĭ
ĠÐ»Ð°Ð¼Ð¿ Ñĥ
ĠÐ¿Ð¾ÐºÐ¾Ð¹ Ð½Ð¸ÐºÐ°
ĠÐ·Ð°Ð½Ð¸Ð¼ Ð°ÑĤÑĮÑģÑı
ĠÐ¼ÐµÑĩ ÑĤÐ°Ð»
ĠÐ¾Ð±ÑĢÐ°Ñī Ð°Ð»ÑģÑı
ĠÐ¿ÐµÑĢÐµÐ¿ Ð¸Ñģ
ĠÐ¿ÐµÑĢÐµÐ¿ Ð»ÐµÑĤ
ÑĥÑİÑĤ ÑģÑı
ĠÐ³ÑĢÑĥÐ´ÑĮ Ñİ
ĠÐ·Ð²ÑĥÑĩ Ð°Ð»Ð¾
ĠÑĤÐ°Ð»Ð°Ð½ÑĤ Ð»Ð¸Ð²ÑĭÐ¹
ĠÐ²Ð´ Ð¾Ñħ
ĠÐĵÑĢÐ¸Ð³Ð¾ ÑĢÐ¾Ð²Ð¸Ñĩ
ĠÐ³Ð°Ð» ÑģÑĤ
ĠÐ³Ð°Ð» ÐºÐ°
ĠÑģÐ¾Ð±Ð¸ÑĢ Ð°Ð»ÑģÑı
ĠÐ±Ð¾Ðº Ð¾Ð¼
ĠÐ¡Ð¿ ÐµÑĢÐ²Ð°
ĠÐ¼ÐµÐ»ÑĮ Ðº
ĠÐĲÐ² Ð³ÑĥÑģÑĤ
ĠÑģÐµÐ´ Ð¾Ð¹
ĠÐ±ÑĭÑģÑĤÑĢ ÐµÐµ
ĠÐ±Ð»Ð¸Ð¶ Ð°Ð¹
ĠÑģÐ¾Ð·Ð½Ð° Ð½Ð¸Ñı
ĠÐ·Ð°Ð¶ Ð¸Ð³
ĠÐĹÐ½Ð° Ñİ
ĠÐ½ÐµÐ»ÐµÐ¿ Ð¾
ĠÐĳÐ°ÑĢÐ³Ð°Ð¼ Ð¾ÑĤÐ°
ĠÐ¯Ð» ÑĤÑĥ
ĠÑĨÐµÐ»Ð¾Ð² Ð°ÑĤÑĮ
ĠÐ¿ÑĥÐ±Ð» Ð¸ÐºÐ¸
ĠÐ±ÐµÐ·Ð· Ð²ÑĥÑĩ
ĠÐļÑĥÐºÑĥÑĪ ÐºÐ¸Ð½Ð°
ĠÐ´Ð¾Ð¿ ÑĥÑģÐº
ĠÑģÑĤÑĢÐ¾Ð³ Ð¸Ð¹
ĠÐ±ÐµÐ¶ Ð°Ð»Ð¸
ĠÑĥÑĢ Ð¾Ðº
ĠÑħÐ²Ð°ÑĤ Ð°Ð»Ð¾
ĠÐ½Ð°Ð²ÐµÑĢ Ñħ
ĠÐ½Ð°Ð²ÐµÑĢ Ð½Ð¾Ðµ
ĠÐ³Ð¾ÑĢÑĮ ÐºÐ¾
ĠÐ½ÐµÐº Ð¾Ð³Ð´Ð°
ĠÐ¾ÑĤÐ± Ð»ÐµÑģÐº
ĠÐ¿Ð¾ÐºÐ°Ð· ÑĭÐ²Ð°Ð»
ĠÐĹÐ´ Ð¾ÑĢÐ¾Ð²
ĠÐ±ÐµÐ·Ð´ ÐµÐ¹ÑģÑĤÐ²
ĠÑĤÑĥÑĩ Ð¸
ĠÐºÐ¾ÑģÑĤ Ð»ÑıÐ²
ĠÑĩÐ¸ÑģÑĤÐ¾ Ðµ
ĠÐ¿Ð¾Ð¼Ð¾Ñī ÑĮ
ĠÐ½ÐµÐ¿Ð¾Ð½ÑıÑĤ Ð½Ð¾Ðµ
ĠÐ¿ÑĢÐ¸ÑĢ Ð¾Ð´Ñĭ
ĠÑĥÑģÐ¿Ð¾ÐºÐ¾ Ð¸Ð»ÑģÑı
ÑĨÐ¸ ÐµÐ¹
ĠÐ±ÐµÐ·Ð¼Ð¾Ð»Ð² Ð½Ð¾
ĠÐºÐ²Ð°ÑĢÑĤÐ¸ÑĢ Ñĥ
ĠÑģÐ¾Ð¼Ð½ ÐµÐ½Ð¸Ñı
ĠÐºÐ° ÑĤÐ¾ÑĢ
ĠÑģÐºÑĢÐ¾Ð¼ Ð½Ð¾
ĠÐ¿ÑĢÐ¸ÐºÐ°Ð· ÑĩÐ¸Ðº
ĠÐľÐ¾Ð»Ñĩ Ð¸
ĠÑĥÐ¼Ð¸ÑĢÐ° ÐµÑĤ
ĠÐ±ÑĢÐ°ÑĤÑĮ ÐµÐ²
ĠÐ·Ð°ÑīÐ¸ÑĤ Ñĭ
ĠÐ¿ÑĭÑĤ Ð°Ð»ÑģÑı
ĠÐ¾Ð±Ð½ ÑıÐ»
ĠÑĢÐ°Ð·ÑĥÐ¼ ÐµÐµÑĤÑģÑı
ĠÑĦÑĢÐ°Ð· Ñĭ
ĠÐ±Ð¾ÑĢÑĮ Ð±Ðµ
ĠÐĺÐ²Ð°Ð½Ð¾Ð² Ð½Ð°
ĠÐ²ÑĭÐ¹ Ð´ÐµÑĤ
ĠÑĪÐ»ÑıÐ¿ Ñĥ
ĠÑĥÐ»Ð¸ÑĨ Ð°Ñħ
ĠÐ¾Ð³Ð»ÑıÐ´ÑĭÐ² Ð°ÑıÑģÑĮ
ĠÐ»ÐµÐ² Ð¾Ð¹
ĠÐ¡ÐµÐ½Ð¸ ÑģÑĤÐ°
ĠV I
ĠÐŁÐ¾ÑģÑĤ ÐµÐ¿ÐµÐ½Ð½Ð¾
ĠÐŁÐµÑĢÐ² ÑĭÐ¹
ĠÐ½Ð°Ð¿Ð¾Ð¼Ð¸Ð½ Ð°Ð»
ĠÐ¾ÐºÐ¾Ð»Ð¾ÑĤÐ¾Ñĩ Ð½ÑĭÐ¹
Ġ8 0
ĠÐŁÐ¾Ð¼ Ð½Ð¸ÑĪÑĮ
ĠÐŁÐ¾Ð½ Ð¸Ð¼
ĠÐ¾ÑĤÑĩÐµÑĤ Ð»Ð¸Ð²Ð¾
ĠÑģÑİÑĢ ÑĤÑĥ
ĠÐ±ÐµÐ·Ð·Ð°Ð±Ð¾ÑĤ Ð½Ð¾
ĠÐ´ÐµÑıÑĤÐµÐ»ÑĮ Ð½Ð¾ÑģÑĤÐ¸
ĠÐ¤Ð¸Ð»Ð¸Ð¿Ð¿ Ð¾Ð²Ð½Ð°
ĠÑģÐ¼ÑĭÑģ Ð»Ðµ
ĠÐĿÐ¸ÑĨ ÑĪÐµ
ĠÐ½Ð°Ð·Ð² Ð°Ð½Ð¸Ðµ
ÐŀÑģÐº Ð¾Ð»
Ð¶Ñĥ Ð°Ð·
ĠÐ³Ð¾ÑģÑĤÐ¸Ð½ ÑĥÑİ
ĠÐ±Ð¸Ð±Ð»Ð¸Ð¾ÑĤ ÐµÐºÐµ
ĠÐ²Ð»Ð¸ Ñı
ĠÐ³ÑĥÐ±ÐµÑĢ Ð½Ð¸Ð¸
ĠÐ±Ð»Ð°Ð³Ð¾Ð¿Ð¾Ð»ÑĥÑĩ Ð½Ð¾
ĠÐĳÐµÐ´ Ð½ÑĭÐ¹
ĠÐĵÐ¸Ð»Ñı Ð¹
ĠÑĢÐ°ÑģÑģÐµÑĢÐ´ Ð¸Ð»ÑģÑı
ĠÐ°ÐºÑĤÑĢÐ¸Ñģ Ð°
ĠÐ¿ÑĢÐ¾Ð·Ð²ÑĥÑĩ Ð°Ð»
ĠÐºÐ¾Ð¿ÐµÐ¹ ÐºÐ¸
ĠÐŀÑģÐ¾Ð± ÐµÐ½Ð½Ð¾
ĠÐ¿Ð»Ð°Ð¼ Ñı
ĠÐ¿Ð°ÑĤÑĢ Ð¾Ð½
ĠÑĨÑĭÐ¿ Ð¾ÑĩÐºÐ°Ñħ
ĠÐ½ÐµÐ¸Ð·Ð± ÐµÐ¶
ĠÐĵÑĢÐ¸Ð³Ð¾ÑĢÑĮ ÐµÐ²Ð½Ð°
ĠÐ²ÑģÐµÐ½ Ð¾Ñī
ĠÐĵÐ»Ð°Ð· Ð°
ĠÐ¾Ð±Ð»ÐµÐ³ Ñĩ
ĠÐ¿Ð°ÑĢÐ¸ÐºÐ¼Ð°Ñħ ÐµÑĢ
ĠÐ±Ð°Ðº Ð°Ð»ÐµÐ¹
ĠÐļÑĥÐ²ÑĪÐ¸Ð½Ð½Ð¸ÐºÐ¾Ð² Ð¾Ð¹
ĠÐ¿Ð»Ð¾Ñī Ð°Ð´Ð¸
ÐķÐ¥ ÐŀÐĴ
Ð¾ ÐµÐ¼
Ð¾ ÐµÐ´Ð¸Ð½
ÑĤ Ð¸Ð¼
ÑĤ ÑıÐ¼Ð¸
Ð½ ÐµÐ»Ð¾
Ð» Ð¾Ð´
ÑĢ ÐµÐ½
ÑĢ Ð¾ÑĩÐµÐ¼
Ñĥ ÐµÑĪÑĮ
Ñı ÐµÐ¼
Ñĭ ÐºÐ°
ĠÑģ Ñħ
ĠÑģ ÑĥÐº
ĠÑģ ÐµÑģÑĤÑĮ
Ñĩ Ñĥ
Ñĩ ÑĥÑĤÑĮ
Ñĩ ÐµÑĢÐº
Ðº Ð¾Ð³
Ðº Ð¸Ð½Ñĥ
Ðº Ð¸Ð½Ðµ
Ð² ÐµÑĩ
Ð² ÑıÐ·
Ð² Ð¸Ð½ÑĥÑĤ
Ð² Ð¸Ð½ÑĥÐ»
ĠÐ¾ Ð¼
Ð´ Ñı
ÑĪ Ð¸ÐµÑģÑı
ÑģÑĤ Ð¾Ð³Ð¾
ÑģÑĤ ÑĭÐµ
ĠÐ± Ð¾Ð¶
ĠÐ± ÐµÑģÑĤ
ĠÐ± ÑĮÐµÑĤ
ĠÑĤ ÑĥÑĢ
ĠÑĤ ÑĥÐ·
ĠÑĤ ÑĥÐ»
ĠÐ´ ÐµÐ¿
ÐµÐ» ÐµÑĤ
ÐµÐ» ÑİÐ±
Ð¾Ð» Ð°
ĠÑĩ ÑĥÐ³
ĠÑĩ ÑĮÑı
ĠÐ¿ÑĢ Ð¾Ð¹ÑĤÐ¸
ĠÐ¿ÑĢ Ð¾Ð¹Ð´ÐµÑĤ
ĠÐ½Ðµ Ð¾ÑĤ
ĠÐ½Ðµ ÑĥÑĤ
ĠÐ½Ðµ ÑıÑģ
Ð°ÑĤ ÑĭÐ¼
Ð°ÑĤ Ð°Ð¹
ĠÑĢ Ð¾ÐºÐ¾Ð²
Ð¸ÑĤ Ð¾Ð³Ð¾
ĠÐ³ ÐµÑĢ
ĠÐ³ ÑĥÑģÑĤÐ¾
ĠÐ½Ð° Ð¸Ð±
Ð¾ÑĢ Ð¼
Ð°Ð² ÑĭÐ¹
Ð¿ Ð¾Ð¼
Ð½Ð¸ Ð²ÑĪ
Ñī ÐµÐ¹
ĠÐ» Ð¸Ð±
ĠÐ» ÑĥÐº
ĠÐ» Ð¸Ð±Ð¾
Ð¾ÑĤ Ð²Ð¾ÑĢ
Ð¸Ð² Ð°ÑİÑĤÑģÑı
Ð¸Ð² ÑĪÐµÐµÑģÑı
ÐµÐ´ ÐµÐ¼
ÐµÐ´ ÐµÐ»ÑĮ
Ð¾Ð½ ÑĤ
Ð¾Ð½ Ñĭ
Ð¾Ð½ ÑıÐ»
ĠÐ¾ÑĤ Ð´Ð°
ĠÐ¾ÑĤ Ð¾Ð²ÑģÑİÐ´Ñĥ
Ð¾Ðº Ð¾Ð¼
Ð¾Ðº Ð°Ñı
Ð¸Ð½ ÐºÑĥ
ÐµÐ¹ ÑĤÐµ
ĠÐŁ Ð¾ÑĢ
ĠÐŁ Ð¾Ð·Ð²Ð¾Ð»ÑĮÑĤÐµ
ĠÐĿ Ð°Ð¼
Ð³ Ð°Ð¼Ð¸
Ð³ Ð¾Ð²Ð¾ÑĢ
Ð°ÑĢ Ñĭ
ĠÐ¿Ð¾ ÐµÑĤ
ĠÐ¿Ð¾ Ñį
ĠÐ¿Ð¾ ÐµÐ´Ñĥ
ÐµÐ² Ð¾Ð¶
ĠÐĴ ÐµÑģ
ĠÐĴ Ð°Ð½ÑĮÐºÐ°
Ð¸Ðº Ð°ÑĤ
ÑģÑĤÐ² Ð°Ñħ
ÑĥÐ¶ Ð´Ð°
ĠÐ° Ñħ
ĠÐ° Ð²Ð°Ð½
ÑĥÐ´ Ð½Ð¾
ĠÐ²Ñĭ ÑĢÐ¾Ñģ
ĠÐ²Ñĭ Ð´Ð°ÑİÑī
Ð»Ð¸ ÑĨ
Ð»Ñı ÐµÐ¼
ĠÐĲ ÑĢÐ¸ÑģÑĤ
ĠÐĲ ÑĦÐ¾Ð½
ĠÐ¡ ÐµÐ»
ĠÐºÐ¾ ÑĦ
ĠÐºÐ¾ ÑĦÐµ
ĠÐ¿Ð¾Ð´ Ð·
ĠÐ¿Ð¾Ð´ Ð¾ÑĪÐ»Ð°
ĠÐ¸Ð· ÑıÑī
Ð¸Ð· Ð³
ĠÑģÐº ÑĢÑĭ
ĠÐºÑĢ ÑĥÑĤ
ÑĥÑĤ Ð°
Ð½Ðµ ÑĪÑĮ
ĠÐľ Ð°Ð¼
ĠÐľ Ð°ÑĤÑĮ
ĠÐľ Ð¸Ð½ÑĥÑĤ
ĠÐľ ÐµÐ¶Ð´Ñĥ
ĠÐ²ÑģÐµ Ñİ
ÑĥÑĩ ÑĪÐµ
ÐµÐ³ Ð»Ð¾Ð²
Ð°Ð± ÑĢÑı
ĠÑģÐ¼ ÐµÐ½
ĠÐ¿ÐµÑĢ Ð¾
ĠÐ³Ð» ÑĥÑĪ
ĠÐ´ÑĢ Ð¾Ð±
ĠÑģÐ¿ ÐµÑĪ
ĠÑģÐ¿ ÐµÐºÑĤ
ĠÑģÐ¿ ÑĢÐ°Ð²ÐµÐ´Ð»Ð¸Ð²Ð¾
ĠÑģÐ¿ ÐµÑĨÐ¸
Ð¸ÑĢ Ð¾Ð²Ð¸Ñĩ
ĠÐĶ ÐµÐ½ÑĮ
ĠÑĥÐ¶ Ð¸Ð½
Ð°Ð»ÑĮ Ð½ÑĭÐ¼
Ġ" ...
ĠÑĢÐ°Ñģ ÐºÐ°
ĠÐ³ÑĢ ÐµÐ·
ĠÐ¿Ð¾Ð» Ð½ÑĭÐ¼
ĠÐ¿Ð¾Ð» Ð½Ð¾Ð³Ð¾
ĠÐ¿ÑĢÐ¸ ÐµÐ´Ñĥ
ĠÐ¿Ð¾Ðº Ð°Ñı
ĠÐ²Ð¸Ð´ ÑıÑĤ
ĠÐ²Ð· ÑıÐ»Ð°
ĠÐ³Ð¾ÑĢ Ñĥ
ĠÐĳ Ð¾Ð»ÑĮÑĪÐµ
ĠÑĩÐµÑĢ ÑĤÐ¸
ÑĤÐ¸ ÐµÐ¼
ĠÐ³Ð»Ð°Ð· Ð¾Ð¼
ĠÐ³Ð»Ð°Ð· ÐºÐ¸
ĠÐ±ÐµÐ· Ð»Ñİ
Ð°Ð½Ð¸ ÑģÐ»Ð°Ð²
ĠÐ¼Ð¾Ð» Ð¾ÑĤ
ĠÐ»ÑİÐ± ÑıÑĤ
Ð¾Ð¼Ð½ Ð¸Ð»
ĠÐĵ Ð¾Ð»Ð¾Ñģ
ĠÐ¾Ðº ÑĤÑıÐ±
ĠÐĲÐ½ ÑĤÐ¾ÑĪÐµ
ĠÐ¾Ð¿ Ð¾Ð·Ð´
ĠÐ²Ð¾Ð· ÑĢÐ°Ð·
Ð¸ÑĪ Ð¸ÑĤÐµ
ĠÐ¿ÑĢÐ¾ ÐµÐ·Ð¶
ĠÑĩÐµÐ»Ð¾Ð² ÐµÑĩ
ĠÐ¾Ñģ Ð»Ð°Ð±
ĠÑĤÐµÐ¼ Ð½ÑĭÐ¼Ð¸
ĠÐ²ÐµÑģ Ð½Ñĥ
ĠÑĥÐ¼ Ð¾Ð»
ĠÐĹ Ð°Ð±
ĠÐ½Ð°Ð¿ Ð¾Ð»Ð¾Ð²
ĠÐ½ÐµÐ¿ Ð¾Ñħ
ĠÐ½ÐµÐ¿ Ð¾ÑģÑĤÐ¸Ð¶
ĠÐ±ÐµÑģ ÑģÑĤ
ĠÐ±ÐµÑģ ÑĨ
ĠÐ±ÐµÑģ ÑĨÐ²ÐµÑĤ
ĠÐ¿ÑĢÐµÐ´ ÑĩÑĥÐ²ÑģÑĤÐ²
ĠÑģÑĤÐ°ÑĢ Ð°Ð»Ð°ÑģÑĮ
ĠÑģÑĤÐ°ÑĢ Ð°ÑĤÐµÐ»ÑĮÐ½Ð¾
ĠÐł ÑĥÐºÐ¸
ĠÐ±ÑĢ Ð°Ð»
ĠÐ±ÑĢ Ð¾Ð´
ĠÑģÐ¾ Ð¾Ð±ÑĢÐ°Ð·
ĠÐŁÑĢ Ð¾Ñī
ĠÑģÐµÑĢ ÑĭÐ¹
ĠÑģÐµÑĢ ÑĭÐµ
ĠÑĤÐµÐ¿ Ð»Ð¾Ð¼
ĠÐ²ÐµÑĢ Ð¸ÑĤÑĮ
ĠÐ²ÐµÑĢ Ð½ÑĥÐ»Ð°ÑģÑĮ
ĠÐ½ÐµÐ¼ Ð°Ð»Ð¾
Ð»ÐµÐ½ Ð½ÑĭÐ¼Ð¸
ÑĥÑģ ÑĤÐ¾Ðµ
ĠÐ¾Ð³ Ð½Ñı
ĠÐ¾Ð³ ÑĢÐ°Ð½Ð¸Ñĩ
ĠÐºÑĢÐ°Ñģ Ð½Ð¾Ð¹
ĠÐºÑĢÐ°Ñģ Ð½ÑĭÐµ
ĠÐºÑĢÐ°Ñģ Ð½ÑĭÐ¼Ð¸
ĠÐ¿Ð¸Ñģ Ð°Ð»Ð°
ĠÐºÐ¾Ð» Ð¾ÑĤ
ĠÑħÐ¾ÑĢÐ¾ÑĪ Ð¸Ñħ
ĠÑħÐ¾ÑĢÐ¾ÑĪ ÐµÐµ
ĠÐ´ÐµÐ» Ð°Ð»Ð°
ĠÐ²Ð¾Ð» Ñı
ĠÐ²Ð¾Ð» Ñĩ
ĠÐ²Ð¾Ð» ÐºÐ°
ĠÐ±Ð¾Ð» Ð¸ÑĤ
ĠÑĥÐ´ Ð¾Ð²Ð»ÐµÑĤÐ²Ð¾ÑĢ
ĠÐ²Ð¿ Ð°Ð´
ĠÐ²Ð¿ ÑĢÐ¾ÑĩÐµÐ¼
Ð½Ð¸Ðº Ð°Ð¼
ĠÐ¿Ð¾Ð· Ð°Ð´Ð¸
ĠÐ¿ÑĢÐ¾Ñģ Ð¸ÑĤÑĮ
ĠÑģÑĤÑĢÐ°ÑĪ Ð½Ð¾Ð³Ð¾
ĠÐ½ÐµÐ´ Ð¾ÑĢ
ĠÑĥÐ³ Ð»Ñĭ
Ð½ÐµÐ¹ ÑĪÐ¸Ð¹
ÐŁ Ð¾Ð¿ÑĢÑĭÐ³ÑĥÐ½ÑĮ
ĠÐĴÑĭ Ð¿
ĠÐ¿ÑĢÐ°Ð² Ð¸Ð»
ĠÐ¿ÑĢÐ°Ð² Ð´Ðµ
ĠÐ½ÐµÐ² ÐµÑĢ
ĠÑĥÐ¿ Ð¾Ð¼
ĠÐ¶Ð¸Ð² Ð°Ñı
ĠÐ¥ Ð°Ð¹
ÐµÐ²Ð¸Ñĩ Ð°
ĠÐ¶ÐµÐ½Ñī Ð¸Ð½Ð¾Ð¹
ĠÐ²ÑĭÑģ Ð¾ÑĤÐµ
ĠÐ²ÑģÑı ÐºÐ°Ñı
ĠÑħÐ¾Ð»Ð¾Ð´ Ð½Ð¾Ðµ
ĠÑģÑĤÑĢÐ°Ð½ Ð½Ð¾Ð³Ð¾
ĠÐĿÐ¸ÐºÐ¾Ð» Ð°Ñİ
ĠÐºÐ°ÑĢ Ð°Ð½Ð´Ð°
ĠÐŀÑĤ Ð´
ĠÐ¶Ð°Ð» ÐºÐ¸Ð¹
ĠÐ³Ð»ÑĥÐ± Ð¸Ð½Ñĭ
ĠÐ¼Ð¾Ð»Ð¾Ð´ ÑĭÐ¼
ĠÐ¼Ð¾Ð»Ð¾Ð´ Ð¾Ðµ
ĠÐ·Ð°Ð³ Ð»Ñı
ĠÐ´Ð¾Ðº Ð°Ð·ÑĭÐ²
ĠÑĥÑģ Ð°Ð´ÑĮ
ĠÑĢÐ°Ð·Ð³ Ð»ÑıÐ´ÑĭÐ²
ĠÐ¿ÐµÑĩ Ð°ÑĤÑĮ
ĠÐ½Ð°ÑĪ Ð¸Ñħ
Ð¡ ÑĥÐ²Ð¾ÑĢ
Ð¡ ÐµÐ²ÐµÑĢ
Ð²ÐµÑĤ Ð°
ĠÐ¿Ð¾Ð½Ð¸Ð¼ Ð°ÑĤÑĮ
ĠÑħÐ¾Ð´ ÑıÑĤ
ĠÐ¾ÑģÑĤÐ°Ð² Ð¸Ð»Ð¸
ĠÑĢÐ°ÑģÑģ ÑĤÐ¾Ñı
ĠÑĢÐ°ÑģÑģ ÑĩÐ¸ÑĤ
ÐµÐ²ÑĪ ÑĥÑİ
ĠÐ¼Ð¸Ð½ÑĥÑĤ Ð°Ð¼Ð¸
ĠÐ¿ÑĢÐ¾ÑģÑĤ ÑĭÐ¼
ĠÐ²ÑĭÐ¿ ÑĥÐº
ĠÐľÐ¾ÑģÐºÐ² Ð°
ĠÐ¿ÑĢÐ¾ÑĪ Ð»Ð¾Ð¼
ĠÐŁÐ¾ ÑįÑĤ
Ð¾Ð²Ð¾Ð»ÑĮ Ð½Ð¾
ĠÑģÑĤÐµÐ½ Ð°Ð¼Ð¸
ĠÑģÐ»Ð¾Ð²Ð° Ñħ
ĠÑĤÑıÐ¶ÐµÐ» ÑĭÑħ
ĠÐºÐ°Ð¼ Ð½ÐµÐ¹
ĠÑıÑĢ ÐºÐ¸Ðµ
ĠÑıÑĢ ÑĩÐµ
ĠÑıÑĢ ÐºÐ¾Ð³Ð¾
ĠÑĢÐ°ÑģÐ¿ ÑĢÐ°Ð²
ĠÐ¿Ð°ÑĢ ÑĤ
ĠÐ¿Ð¾Ð± ÐµÑĢÐ¸
ĠÐ²ÑĭÑģÐ¾Ðº Ð¸Ð¼
ĠÑĢÐ¾Ð´ Ð½Ð¾Ð¹
ĠÑģÐ¾Ð· Ð´Ð°
ĠÐ²Ð¾Ð·Ð´ÑĥÑħ Ð¾Ð¼
ĠÑĤÐ¾Ð½ Ð¾Ð¼
ĠÐ¿ÑĢÐ¾Ð´Ð¾Ð»Ð¶ Ð°Ð»Ð°
ĠÐ·Ð» ÑĭÐµ
ĠÐ·Ð» Ð¾Ð±Ñĭ
ĠÐ¼Ð¸ÑĢ Ñĥ
ĠÑıÐ² Ð¸Ð»Ð°ÑģÑĮ
ĠÑıÐ² Ð»ÑıÐ»ÑģÑı
ĠÐ²Ð¾ÑģÐ¿ Ð¸ÑĤ
ĠÐĸ ÑĥÑĩÐºÐ°
ĠÐ¾ÑĤÑĤ Ð¾Ð»Ðº
ĠÐ½ÐµÐ¶ Ð½ÑĭÐµ
ĠÐ»Ð°Ð² Ð¾Ñĩ
ĠÐ¿ÑĢÐ¸Ð· ÑĢÐ°Ñĩ
ĠÐ¿Ð¾Ð²ÐµÑĢ Ð½ÑĥÐ»
ĠÐ¿Ð¾Ð¼Ð½ Ð¸ÑĤÐµ
ĠÐ±ÑĢÐ¾Ñģ Ð¸ÑĤÑĮ
ĠÐ±ÑĢÐ¾Ñģ Ð¸Ð»Ð°
ĠÐ´ÑĢÐ¾Ð¶ ÑĮÑİ
ĠÐ½Ð°Ð± ÑĢÐ¾Ñģ
ĠÑĤÐµÐ» Ñĥ
ĠÐ¿ÑĢÐ¾Ð² Ð¾Ð¶
ĠÐºÑĢÐµÐ¿ ÑĩÐµ
ĠÐ¾Ð³ÑĢÐ¾Ð¼ Ð½ÑĭÐ¼Ð¸
ĠÐ´ÐµÑĢÐ¶ Ð°Ð»ÑģÑı
ĠÑĩÐ¸ÑģÑĤ ÑĭÑħ
ĠÐ¿ÑĢÐ¸Ð± Ð°Ð²Ð¸Ð»
ĠÐ¡Ðº Ð°Ð¶Ð¸
ĠÐľÐ¸ÑĪ Ð¸
ĠÐ·Ð²Ð¾Ð½ Ð¸Ð»
ĠÐ¼ÐµÑĢÑĤÐ² Ð¾Ð³Ð¾
ĠÐĳÑĭ Ð»Ð¸
ĠÐºÑĥÐ¿ Ð¸Ð»
ĠÐºÑĥÐ¿ ÐµÑĨ
ĠÐ»Ð°Ñģ ÐºÐ°
ĠÑĥÐ´Ð°ÑĢ Ð¸ÑĤÑĮ
ĠÐ³Ð¾ÑĢÑıÑĩ ÐµÐ¹
ĠÐ¾ÑģÑĤÑĢ ÑĭÐµ
ĠÐ¿ÑıÑĤ Ð¸
ĠÐ¿ÑıÑĤ Ð½
ĠÐ¡Ð°ÑĪ ÐºÐ¸
ĠÑģÐ²ÐµÑĤÐ» ÑĭÑħ
ÑİÑĪ ÐºÐµ
Ð¸ÑĤÐµÐ» ÐµÐ½
ĠÑĥÑĤÑĢ ÐµÐ½
ĠÑĢÐ°Ð·Ð´ ÐµÐ²
ĠÐ±Ð°ÑĢ ÑĢÐ¸Ðº
ĠÑĢÐµÐ´ ÐºÐ¸Ðµ
ĠÐ·Ð°Ð¼ÐµÑĩ Ð°Ð»Ð¸
ĠÐ¿ÑĢÐ°Ð·Ð´ Ð½Ð¸ÐºÐ¸
ĠÐ±Ð»ÐµÐ´ Ð½Ð¾Ðµ
ĠÐ¿Ð¾ÑıÐ² Ð¸Ð»Ð¸ÑģÑĮ
Ðĺ Ð²Ð°Ð½Ð¾Ð²
ĠÑģÐ¿ÑĢÐ°ÑĪ Ð¸Ð²Ð°Ð»Ð°
ĠÑģÐ¿ÑĢÐ°ÑĪ Ð¸Ð²Ð°ÑİÑĤ
ĠÐ¾ÑĢ ÐµÑĪ
ĠÐľÐ°ÑĢ Ð¸Ð¸
ĠÐ·Ð´Ð¾ÑĢÐ¾Ð² Ñĭ
Ðļ Ð°Ðº
ĠÐ´Ð¸Ðº Ð¸Ð¹
ĠÑĪÐ¸ÑĢÐ¾Ðº Ð¸Ðµ
ĠÑĪÐ¸ÑĢÐ¾Ðº ÑĥÑİ
ĠÐ¸ÑģÐ¿ÑĥÐ³ Ð°Ð»ÑģÑı
ĠÑĥÐº Ð»Ð°Ð´
ĠÑĦÐ¾Ð½ Ðµ
ĠÑĥÑĪ Ð»Ð¸
ĠÑĥÑĪ Ð¸Ð±
ĠÐĴÐµÑĢ Ñĭ
ĠÐĴÐµÑĢ Ð½Ð¾
ĠÑģÐ½ÐµÐ³ Ñĥ
ĠÐ¶ÐµÑģÑĤ Ð¾ÐºÐ¾
ĠÑĤÐ²Ð¾ÑĢ Ð¸ÑĤÑĮ
ĠÐ¾Ñī ÑĥÐ¿
ĠÐ²ÑģÑĤÑĢÐµÑĤ Ð¸Ð»Ð¸ÑģÑĮ
ĠÐ²ÑģÑĤÑĢÐµÑĤ Ð¸ÑĤÑĮÑģÑı
ĠÑĨÐ²ÐµÑĤ Ð°Ð¼Ð¸
ĠÐ·Ð°Ñħ Ð»ÐµÐ±
ĠÑģÑĥÑīÐµÑģÑĤÐ² Ð¾Ð²Ð°Ð½Ð¸Ðµ
ĠÐ¸Ð·Ð´ Ð°Ð»Ð¸
ĠÐ¡Ð» Ð°Ð²Ð°
ĠÐ½Ð¸ÐºÐ°Ðº Ð¾Ð¹
ĠÐ¿ÑĢÐ¸Ñĩ Ð¸Ð½
ĠÐ·Ð°Ð½Ð¸Ð¼ Ð°Ð»ÑģÑı
ĠÐľÐµÑĢÐºÑĥ Ð»Ð¾Ð²Ð°
ĠÐ¼ÐµÑĩ ÑĤÑĭ
ĠÑĦÐ¾ÑĢ Ð¼Ðµ
ĠÑĩÐµÐ»Ð¾Ð²ÐµÑĩÐµÑģÐº Ð¾Ðµ
ĠÐ³Ð½ÐµÐ² Ð½Ð¾
ĠÐĺÐ³Ð½Ð°ÑĤ Ð¸Ñı
ĠÐ·Ð²ÑĥÑĩ Ð°Ð»Ð¸
ĠÑģÐ¾Ð» Ð´
ĠÐ´Ð¾Ð² Ð¾Ð»ÐµÐ½
Ð»ÐµÑĩ ÑĮ
ĠÑĤÐ¾ÑĢÐ¾Ð¿ ÑıÑģÑĮ
ÑįÑĤ Ð°Ð¶
ĠÐ¿Ð¾ÐºÑĥÐ¿ Ð°ÑĤÐµÐ»ÐµÐ¹
ĠÑĤÐ²Ð¾ Ð¸
ĠÐ¿ÑĥÑģÑĤÑĭ Ð½Ðµ
ĠÑĢÑĥÑĩ ÐºÐ¸
ĠÐ´ÐµÐ²ÑĥÑĪ ÐºÐµ
ĠÐ±ÑĥÑĢ Ð¶ÑĥÐ°Ð·
ĠÐ»Ð¾Ð² Ð¸Ð»
ĠÑĤÑĢÐµÐ² Ð¾Ð¶Ð½Ð¾
ĠÑĤÑĢÐ°Ð² Ð°
ĠÐ¿Ð¾Ð¹Ð´ ÐµÑĪÑĮ
ĠÑĤÑĥÐ¼ Ð°Ð½Ðµ
ĠÑģÐ»Ð°Ð² Ñĥ
ĠÐ¿ÑĥÐ±Ð» Ð¸ÐºÐµ
ĠÐ²Ð²ÐµÑĢ ÑħÑĥ
ĠÐ²Ð¾ÑģÑĤÐ¾ÑĢ Ð³Ð°
ĠÐ¿ÑĥÑģÑĤÐ¾ ÑĤÐ°
ĠÐ·Ð°Ð³Ð°Ð´Ð¾Ñĩ Ð½ÑĭÐ¼
ĠÐ´Ð¸Ð² Ð°Ð½Ðµ
ĠÐ½Ð°Ð²ÐµÑĢ ÑħÑĥ
ĠÐ´ÑĭÑĪ Ð°ÑĤÑĮ
ĠÐ³Ñĥ Ð»ÑıÑĤÑĮ
ĠÐ¼ÑĥÐ¶Ñĩ Ð¸Ð½Ð°
ĠÐ½ÐµÐº ÑĥÐ´Ð°
ĠÐ¸ÑģÐ¿ÑĭÑĤ Ð°Ð»
ĠÐ¡ÑĥÐ²Ð¾ÑĢ Ð¸Ð½
ĠÐ¾Ð±Ð» Ð°ÐºÐ°
ĠÐŀÑģ Ð¸Ð¿
ĠÐ¶ÑĥÑĢÐ½Ð°Ð» Ñĭ
ĠÐ²ÑĢÐ°Ñĩ Ð¾Ð¼
ĠÐ¿Ð¾Ð»Ð¾Ð² Ð¸Ð½Ñĭ
ĠÐ²Ð»Ð° ÑģÑĤÐ¸
ĠÑģÐ²Ð¸ÑģÑĤ Ð¾Ð¼
ĠÐ¿Ð¾Ð¼Ð¾Ñī Ð¸
ĠÐµÐ¶ ÐµÐ´
ĠÐµÐ¶ ÐµÐ»Ð¸
ĠÐ±ÐµÑģÐµÐ´ Ñĭ
ĠÐŁÐ¾Ð¿ Ð¸Ðº
ĠÑģÐ»Ð°Ð´ ÐºÐ¾
ĠÐ¿ÐµÑĢÐµÐº ÑĢÐµÑģÑĤ
ĠÐ´ÐµÑģÑıÑĤ Ð¾Ðº
ĠÐ½Ð¾Ð¼ÐµÑĢ Ðµ
ĠÐĲÐ»ÐµÐºÑģÐµ ÐµÐ²Ð½Ð°
ĠÑĥÑģÐ¸Ð» ÐµÐ½Ð½Ð¾
ĠÑĤÐµÑĢÐ¿ ÐµÐ»Ð¸Ð²Ð¾
ĠÐ±ÑĥÑĤÑĭÐ» ÐºÑĥ
ĠÑĤÑī Ð°ÑĤÐµÐ»ÑĮÐ½Ð¾
ĠÑģÐ±Ð¾ÑĢ Ð½Ð¸Ðº
ĠÐºÐ¾Ð»ÐµÑģ Ð°
ĠÑĢÑĥÐ±Ð°ÑĪ ÐºÑĥ
ĠÐ¶ÑĥÑĤ ÐºÐ¾
ĠÐ¿Ð¾Ð¿ÑĭÑĤ ÐºÐ¸
ĠÐ»ÑĭÑģ ÑĭÐ¹
ĠÐ¾ÑĤÑģÑĥÑĤÑģÑĤÐ² Ð¸Ðµ
ĠÐ²Ð¾ÑģÑĤÐ¾ÑĢÐ³ Ð¾Ð¼
ĠÐ±Ð°ÑĤ ÑİÑĪÐºÐ°
ĠÑĥÐ» ÐµÐ³
ĠÐ½ÐµÑĤÐµÑĢÐ¿ ÐµÐ»Ð¸Ð²Ð¾
ĠÐ½ÐµÑģÐ» ÑĭÑĪ
ĠÑİÐ¼Ð¾ÑĢÐ¸ÑģÑĤ Ð¸ÑĩÐµÑģÐºÐ¸Ñħ
ĠÐµÑģÑĤÐµÑģÑĤÐ² ÐµÐ½Ð½Ð¾
ĠÐ½ÑıÐ½ÑĮ ÐºÐ°
ĠÐ´ÐµÐº Ð°Ð±ÑĢÑı
ĠÐ·Ð°ÑģÐµÐ´ Ð°ÑĤÐµÐ»Ð¸
ĠÑģÑĥÐ¼ÐµÑĢ ÐºÐ¸
ĠÑģÐ¼ÑĭÑģ Ð»Ð°
ĠÐ¿Ð¾ÐºÑĢÐ°Ñģ Ð½ÐµÐ»
ÑĩÐµÑĢ Ð°ÑĪ
ĠÐ²Ð³Ð»ÑıÐ´ÑĭÐ² Ð°Ð»ÑģÑı
ĠÐ¿ÑĢÐ¾ÐºÑĥÑĢ Ð¾ÑĢÐ°
ĠÐ½Ð°ÑħÐ¼ÑĥÑĢ Ð¸Ð»ÑģÑı
ĠÑĤÑıÐ½ÑĥÐ» Ð¸ÑģÑĮ
ĠÑĥÑĩÐ¸ÑĤ ÐµÐ»Ñı
ĠÐŁÐµÐ»Ð°Ð³ ÐµÑı
ĠÐ´Ð¸ÑĢÐµÐº ÑĤÐ¾ÑĢ
ĠÐ¾ÑĤÐ¼ ÐµÑĩ
ĠÐ·Ð°Ð±Ð¾Ð» ÐµÐ»
ĠÐ¾Ð±ÑıÐ·Ð°Ð½ Ð½Ð¾ÑģÑĤÐ¸
ĠÑĤÑĢÑı Ð¿
ĠÑĩÐµÑĤÐ²ÐµÑĢÑĤ ÑĭÐ¹
ĠÐ½Ð°ÑĢÑĥÐ¶ Ñĥ
Ð°ÑĢÑħ Ð¾Ð²Ð¸Ñĩ
ĠÐ§Ð°Ñģ ÑĤÐ¾
ĠÐĳÑĥÐ´ÑĮ ÑĤÐµ
ĠÐ±Ð°Ð³ ÑĢÐ¾Ð²
ĠÐ½ÐµÑĥÐº Ð»Ñİ
ĠÑĢÐµÐ»Ð¸Ð³ Ð¸Ð¾Ð·
ĠÐ£ÑģÐ¿ ÐµÐ½
ĠÐ¿Ð¾Ð¶Ð¸Ð» Ð¾Ð¹
ĠÐµÐ´Ð¸Ð½ Ð¾Ð³Ð¾
ĠÐ±Ð¸Ð¾Ð³ÑĢÐ°ÑĦ Ð¸Ð¸
ĠÐ½ÐµÐ¿Ð¾Ñģ ÑĢÐµÐ´
ĠÐºÐ¾Ð½ÑĦ ÑĥÐ·
ĠÐĸÐµÐ½Ñī Ð¸Ð½Ð°
Ð½ÑĭÑĪ ÐºÐ¾
ĠÑģÐ¿Ð» Ð¾ÑĪ
ĠÐ¢Ð¾Ð»ÐºÐ°Ñĩ ÐµÐ²
ĠÐĶÑĥÐ½Ñı ÑĪÐ°
ĠÐŁÐ¾Ð¼ÐµÑĢÐ°Ð½ÑĨ ÐµÐ²
Ð½Ð¾Ð¶ ÐºÐ¾
ĠÐ¿ÑĥÐ· ÑĭÑĢ
ĠÐļÑĢÐ°Ð² ÑĩÐµÐ½ÐºÐ¾
ĠÐ¿ÑĢÐ¸Ñī ÑĥÑĢ
ĠÐĽÐ¸Ð´ Ð¸Ñı
ĠÐºÐ¾Ð¼Ð¼ÐµÑĢ ÑĩÐµÑģÐº
ĠÐ¡Ð¾Ð»Ð½ ÑĨÐµ
ĠÐĶÐµÐ¹ÑģÑĤÐ² Ð¸ÑĤÐµÐ»ÑĮÐ½Ð¾
ÐĳÑĥÐ´ Ð¸Ð»ÑĮ
ĠÐ²Ð´Ð¾Ñħ Ð½Ð¾Ð²
ĠÐ»Ð¸Ð± ÐµÑĢ
ĠÑģÐ¿ÐµÐºÑĤ Ð°Ðº
ĠÐ½Ð°Ð¿Ð¾Ð»Ð¾Ð² Ð¸Ð½Ñĥ
ĠÐŁÐ¾ÑįÑĤ Ð¾Ð¼Ñĥ
Ð¾ ÑĤÐ¾
ÑĤ ÐºÑĥ
ÑĤ ÑĥÐº
Ð¸ Ð½ÑĭÐ¹
Ð¸ ÑıÐ¼Ð¸
Ð½ ÐµÑĤÑģÑı
Ð» Ð¾Ð³
Ð» ÑĥÑİ
ÑĢ Ð¸Ð·
Ñı ÐºÐ¸
Ñı ÑİÑĤ
Ñĭ Ñī
ĠÑģ ÐµÐ»Ð¸
ĠÑģ Ð°Ð½ÑĤ
ĠÑģ ÑĥÐ¶Ð´ÐµÐ½
ĠÐ¿ Ð¾Ð»ÑĮ
ĠÐ¿ Ð¸Ð²Ð°
ĠÐ½ Ð°ÑĤÑĥÑĢ
Ðº ÑĥÑĩ
ĠÐ² ÐµÐ½
ĠÐ² Ð±
Ð² Ð°Ð»Ð°ÑģÑĮ
ĠÐ¾ ÑĢÑĥÐ¶
ĠÐ¾ ÑĤÐ¾ÑĪ
ĠÐ¾ Ð³Ð¾ÑĢÐ¾Ð´
Ð´ Ð¾Ð¹
Ð¼ ÐµÐ»
ĠÐº Ð¸
ĠÐº Ð¸Ð²
ĠÐº Ð»Ñı
ĠÐº ÑĥÑģÐº
ĠÐº Ð»ÑİÑĩ
ĠÐº Ð¾ÑĤÐµÐ»
Ð¾Ð² Ð¾Ð¼
Ð¾Ð² ÑĭÐ¹
Ð¾Ð² ÑĭÐ¼
ÑĪ Ð½Ð¾
ÑģÑĤ Ð¸Ð»
ÐµÐ½ Ð¾Ð¹
ĠÐ± Ð¾Ñģ
ĠÐ± Ð°Ð·Ð°ÑĢ
ĠÑĤ Ð°Ñı
ĠÑĤ ÑĥÐ³Ð¾
ÐµÐ» Ð¾Ðº
ÐµÐ» ÑĭÐ¹
ÐµÐ» ÑĭÐµ
Ð¾Ð» Ð°Ð³
ÐµÑĢ ÑĥÑģ
ĠÐ¼ ÑĥÐ½
Ñİ Ð´
Ñİ Ð³
ÐµÑĤ Ð¾Ð¼
ĠÑĩ ÐµÐ¹
ĠÐ¿ÑĢ Ð¸ÑĤÐ°
Ð¾Ð´ Ð¾Ð²
ĠÐ½Ðµ ÐµÑģÑĤ
ĠÑĢ ÑĤÐ¾Ð¼
Ð¸ÑĤ ÐµÑĢÐ°ÑĤÑĥÑĢ
ĠÐµ Ð»Ðµ
Ð¾Ñģ ÑĤÐ¾ÑıÑĤÐµÐ»ÑĮ
ÐµÐ¼ Ð°
Ð°Ñģ ÑĤÐ¾ÑıÑī
Ð°Ð² Ð°Ð»Ð°
Ð¿ Ð¾ÑĢ
Ñī Ð°
ĠÑĥ ÑģÐº
ĠÐ» Ð³
ĠÐ» ÑĥÐ³
ĠÐ» ÑĥÐ½
ÑĨ Ð¸Ð¹
ÑĨ Ð¸Ð¿
Ð¾ÑĤ Ðº
Ð¸Ð² Ð°Ð½Ð¸Ðµ
Ð¸Ð² Ð°Ð½Ð¸Ñı
Ð¾Ð½ Ðµ
ĠÐ¾ÑĤ Ð½Ð¸Ð¼
ĠÐ¾ÑĤ ÑĢÐ°Ð·
Ð°Ð½ ÑĤÐ¾Ð²
Ð°Ð½ Ð´Ð°Ð»
Ð°Ð½ Ð°Ð²Ð»Ð¸Ð²
ÑģÐº Ð¾ÑĢÐµ
ĠÐŁ Ð¾Ð¹
ĠÐŁ Ð¾Ð´Ð²
ĠÐŁ ÑĥÐ±Ð»
ĠÐŁ Ð¾ÑĪÐµÐ»
ĠÑı Ð¸Ñĩ
Ð¸Ñģ ÐµÐ»
ĠÐĿ Ð¸Ð¶
ĠÐĴ Ð°Ð¼Ð¸
ĠÐĴ ÑģÑĤÑĢ
ĠÐĴ Ð°ÑĪÐµ
ĠÐĴ ÑģÐºÐ¾ÑĢÐµ
Ð¸Ñĩ Ð½ÑĭÐµ
Ð¸Ñĩ Ð½ÑĭÑħ
ĠÐĺ ÑģÐ¿
Ð¸Ñħ Ð¾Ð½ÑĮ
ĠÑħ Ð¸Ñī
ÑģÑĤÐ² Ð¸Ñı
ÑģÑĤÐ² Ð¾Ð²Ð°ÑĤÑĮ
ĠÐ° ÑĢÐ¾Ð¼
ĠÐ²Ñĭ ÑĤÐ¸ÑĢ
Ð¶ Ð¸Ð·Ð½
Ð°Ð¶ ÐµÑĤ
Ð°Ð¶ ÐµÐ¹
Ð°Ð¶ Ð¸Ð²Ð°Ð»ÑģÑı
ĠÐ¾Ð± ÑģÑĤÐ°Ð½Ð¾Ð²
Ð¾Ð· ÑĭÑĢ
ĠÐ¡ Ð½
ĠÐ¡ Ð°Ð²
ĠÐŀ Ð»ÑĮ
ĠÐ¸Ð· Ð¾
Ð¸Ð· Ð½ÑĮ
ĠÐºÑĢ ÑİÑĩ
ĠÑĢÐ°Ð· Ð»Ð¸Ð²
ĠÑĢÐ°Ð· Ð¾Ð±ÑĢ
ĠÑĢÐ°Ð· ÑĢÑĭÐ²
ĠÑĢÐ°Ð· Ð¼ÐµÑĢ
ÑĭÐ² Ð°Ð½Ð¸Ñı
ĠÐ§ Ð°Ð¹
ĠÐľ Ð¾Ð¹
ĠÐľ Ð½Ð¾Ð³Ð¾
ĠÐľ Ð¾Ð¸
ÑīÐµ ÐµÑģÑı
ĠÐ¾Ð´ ÐµÐ²
ĠÐ¾Ð´ ÐµÐ¶Ð´
ĠÐ¾Ð´ ÐµÐ¶Ð´Ð°
Ð¾Ð¿ Ð¸Ñģ
Ð¾Ñĩ Ð½Ð¾Ð¹
ĠÑĪ ÐµÐ²ÐµÐ»ÑĮ
ĠÐ¿ÐµÑĢ ÐµÐ³Ð¾
ÐµÐ¶ ÑĮ
ĠÐ´ÑĢ Ð°Ð·
ÐµÑģÑĤ ÑĢÐ°
ĠÑģÐ¿ ÐµÐ²
ĠÑģÐ¿ Ð¸Ð½Ðµ
ĠÐ³Ð¾ ÑģÑĤÑĮ
Ð°Ð¹ Ð»Ð¾Ð²
ĠÐĶ ÑĢ
ĠÐĶ Ð¾Ð»Ð¶
ĠÐĶ Ð°Ð²Ð½Ð¾
ĠÐĶ Ð°Ð»ÑĮÑĪÐµ
ÑĥÑĢ Ð°Ð¶
Ð°Ð»ÑĮ Ð½ÑĥÑİ
ĠÐ³ÑĢ ÐµÐ¼
ĠÐ¿Ð¾Ð» ÑĥÐ³
ĠÐ¿Ð¾Ð» Ð½Ð¾Ð¼
ĠÐ¿Ð¾Ñģ Ð¼Ðµ
ĠÐ¿Ð¾Ñģ Ð¾Ð²ÐµÑĤ
ĠÐ³Ð¾Ð» ÑĭÐµ
ĠÑģÐ°Ð¼ Ð¸Ð¼
ĠÑĤÑĢ Ð¾Ð¹
ĠÑĤÑĢ Ð°Ð³
ÑħÐ¾Ð´ Ñı
Ð¸ÑĤÐµÐ»ÑĮ Ð½Ð¾Ð¼
Ð¸ÑĤÐµÐ»ÑĮ Ð½ÑĭÐ¼Ð¸
ĠÐ¿Ð¾Ðº Ð¾Ñģ
ĠÐ³Ð¾ÑĢ Ð»Ð¾
ĠÐķ Ð¿
ĠÑĩÐµÑĢ Ð´
ĠÐ±ÐµÐ· Ð²
ĠÐ±ÐµÐ· Ð±
ĠÐ±ÐµÐ· Ð¶Ð¸Ð·Ð½
ÑĦ Ð¸Ñģ
ÐºÐ¾Ð² Ð¾Ð¹
ĠÑĨ Ð¸ÑĦ
Ð»Ð¸Ð² ÑĭÐ¼Ð¸
ĠÑģÑĤÑĢ Ð¾Ðº
ĠÐ½Ð°Ð´ Ð·Ð¸ÑĢ
ĠÑĦ ÑĢÐ°Ð·Ñĥ
ĠÑĦ Ð°Ð½ÑĤÐ°
ĠÐ±Ð» ÑĥÐ¶
ĠÐ¿Ð¾ÑĤ Ð¸ÑħÐ¾Ð½ÑĮ
ĠÐĵ Ð¾Ð»ÑĮÑĨÐµÐ²
ĠÐ¾Ðº ÑĢÑĥÐ³
ÐµÑĨ ÐºÐ¾Ð³Ð¾
ÑĢÐ°Ð² ÑģÑĤÐ²
ĠÐ§ÐµÑħÐ¾Ð² Ñĭ
ĠÐ¾ÑĤÐ² ÐµÐ»
ĠÐ¸Ð¼ ÐµÐ½Ð¸Ðµ
Ð»Ð¾ Ñħ
ĠÑĤÐµÐ¼ Ð½Ð¾Ð¼
ÐµÐ½ÑĮÐº Ð¸Ð¼Ð¸
ĠÐ·Ð½ Ð°ÑĤ
ĠÐ¶ÐµÐ½ ÑģÐºÐ¸Ð¹
ÑĢÑĭ Ð½Ñı
ĠÐĽ Ðµ
ĠÐĽ ÐµÐ»Ñı
ĠÐĽ ÑİÐ´Ð¸
ĠÐ½Ð°Ñĩ Ð°Ð»Ð°ÑģÑĮ
Ð°Ð²ÑĪ ÐµÐ³Ð¾ÑģÑı
ĠÐ´Ð¾Ð» Ñİ
ÑĢÐ°Ð· ÑĥÐ¼
ĠÐĹ Ð°Ð´
ĠÐ¿Ð¾Ñĩ ÐµÑĢ
ĠÑģÐ¾Ð± Ð¾ÑĢ
ĠÐ±ÐµÑģ ÑĩÐ¸Ñģ
ĠÐ·Ð² Ð°ÑĤÑĮ
ĠÐ´Ð¾Ð¼ Ð¾Ð¼
ĠÑģÑĤÐ°ÑĢ Ð¾Ð¹
ĠÑģÑĤÐ°ÑĢ ÑĥÑĪÐºÐ°
ĠÐł Ð°Ð´
Ð¾Ð²Ð°Ð» Ð¾ÑģÑĮ
Ð¸Ð²ÑĪ ÐµÐ¼Ñĥ
ÐµÑģÑĤÐ² Ð¾Ð¼
ĠÐŁÑĢ Ð¾ÑģÑĤÐ¸
ĠÑģÐµÑĢ Ð°Ñı
ĠÐŁÐ°Ð²Ð» Ð¾Ð²
ĠÐŁÐ°Ð²Ð» Ð¾Ð¼
ĠÐ¾Ð³ Ð»ÑıÐ´ÐµÐ»
ĠÐ·Ð°Ð¿ ÐµÐ»
ĠÐ·Ð°Ð¿ ÐµÑĢ
ĠÐ·Ð°Ð¿ ÑĥÑĤ
ĠÐ·Ð°Ð¿ Ð¸ÑģÐºÑĥ
ĠÐºÑĢÐ°Ñģ Ð¾ÑĤÑĭ
ĠÐ´ÐµÐ» Ð°ÐµÑĤÑģÑı
ĠÐ´ÐµÐ» Ð¸ÐºÐ°ÑĤ
ĠÑĩÑĥÐ²ÑģÑĤÐ² Ðµ
ĠÑĢÐ°ÑģÑģÐºÐ°Ð· ÑĭÐ²Ð°ÑĤÑĮ
ĠÑĩÐ°Ñģ Ñĥ
Ð°ÑİÑī Ð¸Ð¼Ð¸
Ð°ÑİÑī ÐµÐ¹ÑģÑı
ĠÐ¢Ð°Ðº Ð¸Ð¼
ĠÐ¿ÑĢÐ¾Ñģ Ð¸Ð»Ð°
ĠÐ¿ÑĢÐ¾Ñģ ÑĭÐ¿
ĠÑģÑĤÑĢÐ°ÑĪ Ð½ÑĭÐ¼
ĠÐ½ÐµÐ´ Ð°Ð»ÐµÐºÐ¾
ĠÑģÐ»Ð¾Ð² Ð°Ð¼
ĠÐ¸Ð½ ÑģÑĤ
ÑĥÑī ÐµÐ³Ð¾
ĠÑĤÐ¸Ñħ Ð¾Ð¹
ĠÐ¶ÐµÐ» Ð°Ð»
ĠÐ¶ÐµÐ» ÑĤÐ¾Ðµ
ĠÐ¿ÑĢÐ°Ð² Ð°
ĠÐ¿ÑĢÐ°Ð² Ð¸Ð»Ð°
ĠÐ½Ð¾Ð³ Ð°
Ð¸Ð½Ñĥ Ð»Ð°
ÑĢÐ¸ Ð¸Ð¼
ĠÑĥÐ»ÑĭÐ± Ð°Ð»Ð¸ÑģÑĮ
ĠÑĥÐ¿ Ð¾ÑĤÑĢÐµÐ±
ĠÐ·Ð°Ð± ÑĭÐ²Ð°Ð»
ĠÐ¶Ð¸Ð² Ñĭ
ĠÐ¶Ð¸Ð² Ð¾Ðµ
ĠÐ½Ð¾Ð² Ð¾Ð¼
ĠÐ´ÐµÑĤ ÑģÐºÐ¸Ðµ
ĠÐ´ÐµÑĤ ÑģÐºÑĥÑİ
ĠÐºÐ¾ÑĢ Ð°Ð±
ĠÐ¥ Ð¾Ð·Ñı
ĠÐ¥ Ð¾ÑĤÑı
ĠÐ½ÑĥÐ¶ Ð½Ñĭ
ĠÐ·Ð°Ð´ ÑĥÑĪ
ĠÑģÐµÑĢÐ´ Ð¸Ð»ÑģÑı
ĠÑģÐµÑĢÐ´ Ð¸ÑĤÑĮÑģÑı
ĠÑģÐµÑĢÐ´ ÑĨÑĥ
ĠÐºÐ¾Ð¼Ð½Ð°ÑĤ ÐºÐµ
ĠÐ¿Ð¾Ð¼ ÐµÑĪ
ĠÐ¿Ð¾Ð¼ Ð¸ÑĢ
ĠÑĥÐ± Ð¸Ð»
ĠÐ¼Ð°Ð»ÐµÐ½ÑĮÐº Ð¸Ð¼Ð¸
ĠÐ¿Ð¾Ð³ Ð»Ð°Ð´
ĠÑħÐ¾Ð»Ð¾Ð´ Ð½ÑĭÐ¼Ð¸
ĠÑģÑĤÑĢÐ°Ð½ Ð½ÑĥÑİ
ĠÐ²ÐµÐ» ÐµÐ»
ĠÐ²ÐµÐ» Ð¾Ñģ
ĠÐ²ÐµÐ» Ð¸ÐºÐ°
ĠÑģÑĤÐ¾ ÑıÑĤ
ĠÑģÑĤÐ¾ ÑıÑĤÑĮ
ĠÐ¶Ð°Ð» Ð¾Ð²Ð°ÑĤÑĮÑģÑı
ĠÐ¼Ð¾Ð»Ð¾Ð´ Ð¾ÑģÑĤÑĮ
ĠÐ·Ð°Ð³ Ð»ÑıÐ´ÑĭÐ²
ÑİÑī Ð°Ñı
ĠÑĢÐµÑĪ Ð¸ÑĤÐµÐ»ÑĮÐ½ÑĭÐ¹
ĠÐ¿ÑĢÐ¸Ð² Ð»ÐµÐº
ĠÐ»ÐµÐ³ ÐºÐ¸Ð¹
ĠÐ¿ÐµÑĩ Ð°ÑĤÐ¸
ĠÐ²ÑģÐ¿ Ð¾Ð¼Ð¸Ð½Ð°Ñı
ĠÐ´Ð°Ð² Ð°ÑĤÑĮ
ĠÐ´Ð°Ð² Ð°Ð»Ð¸
ĠÐ´Ð°Ð² Ð°Ð»Ð°
Ð°ÑĤÐµÐ» ÐµÐ¼
ĠÐ¡ÑĤ ÑĭÐ´Ð½Ð¾
ĠÐ¡ÑĤ Ð°Ð½Ð¸ÑģÐ»Ð°Ð²
ĠÐ¿ÑĥÑģÑĤ ÑĥÑİ
Ð¾Ñī ÑĢ
ĠÑģÐ»ÐµÐ´ Ð¸Ð»
ĠÑħÐ¾Ð´ Ð¸Ð»Ð°
ĠÑģÐ»ÑĭÑĪ Ñĥ
ĠÑģÐ»ÑĭÑĪ Ð¸ÑĪÑĮ
ĠÑĢÐ°Ð·Ð² ÑıÐ·
ĠÐ¾ÑģÑĤÐ°Ð² Ð¸ÑĤÑĮ
ĠÐ¾ÑģÑĤÐ°Ð² Ð°Ð»Ð¸ÑģÑĮ
ĠÑĢÐ°ÑģÑģ ÑĥÐ¶Ð´
Ð¼Ð° Ð½Ð°
ÐµÐ²ÑĪ Ð¸Ð¼
ÐµÐ²ÑĪ Ð¸Ñħ
ÐµÐ²ÑĪ Ð¸ÑģÑĮ
ĠÐ»ÑĥÑĩ Ð¸
ĠÐ¿ÑĢÐ¸ÑħÐ¾Ð´ Ð¸ÑĤÑģÑı
ĠÐ¿ÑĢÐ¾ÑģÑĤ Ñĭ
ĠÐ¿ÑĢÐ¾ÑģÑĤ ÑĥÐ´
ĠÐ²ÑĭÐ¿ ÑĥÑģÐº
ĠÐ¿ÑĢÐ¾ÑĪ ÐµÐ»ÑģÑı
ĠÑĥÑģÑĤ Ð°Ð»Ð¾ÑģÑĤÑĮ
ĠÑģÐºÐ¾ÑĢ ÐµÐ¹
ĠÐ¿ÑĢÐ¸Ñģ Ð¾ÐµÐ´Ð¸Ð½
ĠÑĤÑıÐ¶ÐµÐ» Ð°Ñı
ĠÑĤÑıÐ¶ÐµÐ» ÑĥÑİ
ĠÑĥÑĤ Ð²ÐµÑĢÐ´
ĠÐ¿Ð¸ÑģÑĮ Ð¼Ð°Ñħ
ĠÐ¿Ð°ÑĢ Ñĭ
ÐµÐ·Ð´ Ð¾Ð¼
ĠÐ´Ð¾ÑĢÐ¾Ð³ Ð°
ĠÐ²ÐµÑĩÐµÑĢ Ñĥ
ĠÑģÐ°Ð´ Ñĭ
ĠÑĪÐ¸ÑĢ Ðµ
ĠÑĢÐ¾Ð´ Ð¸Ð½Ñĥ
ĠÐ´ÐµÑĢÐµÐ² Ð½Ñİ
ĠÐºÑĢÐ¸Ðº Ð¾Ð¼
ĠÑĤÐ¾Ð½ ÐºÐ¾Ð¹
ĠÐ³ÑĢÑıÐ· Ð½Ð¾Ð¹
ĠÐ³ÑĢÑıÐ· Ð½Ð°Ñı
ĠÐ® ÑĢ
ĠÐ·Ð» Ð¾Ð¹
ĠÐ·Ð» Ð°Ñı
ĠÐ¿Ð¾Ð´ÑĥÐ¼ Ð°Ð»Ð°
ĠÐ²ÐµÐ»Ð¸Ðº Ð¾Ð³Ð¾
ĠÐ²ÐµÐ»Ð¸Ðº Ð°Ñı
ĠÑıÐ² Ð»ÑıÐ»Ð¸ÑģÑĮ
ĠÐ¸Ð½ÑĤÐµÑĢÐµÑģ Ð¾Ð¼
ĠÐ²Ð·Ð³Ð»ÑıÐ´ Ñĭ
ĠÑĩÑĥÐ¶ Ð¸Ð¼
ĠÐ±ÐµÑģÑģ Ð¾Ð·Ð½
ĠÐ±ÐµÑģÑģ Ð²ÑıÐ·
ĠÐ¼ÑĭÑģÐ» ÐµÐ½Ð½Ð¾
ĠÐ¿Ð»Ð° ÑģÑĤ
ÑĥÑİÑī Ð¸Ð¹
ĠÐ·Ð°Ð¼ÐµÑĤ Ð¸Ð»Ð°
ĠÐ±Ð»Ð¸Ð· ÐºÐ¸Ñħ
ĠÐ¿Ð¾Ð²ÐµÑĢ Ð¸Ð»
ÑĪÐ¸Ð¹ ÑģÑı
ĠÐ´ÑĮÑı Ð²Ð¾Ð»ÑĮ
ĠÐ±ÑĢÐ¾Ñģ Ð¸Ð»Ð°ÑģÑĮ
ĠÑģÐµÑĢÑĮÐµÐ· Ð½ÑĭÐ¼
ĠÐºÑĢÑĥÐ³ Ñĥ
ĠÐ´Ð¾ÑģÑĤ Ð°ÑĤÑĮ
ĠÐ²Ð¾Ð¿ÑĢÐ¾Ñģ Ð¾Ð²
ĠÑıÑģ Ð½ÑĭÐ¼
ĠÐ¿Ð¾Ð´Ð½ ÑıÐ»Ð°ÑģÑĮ
ĠÐ¿ÑĮÑı Ð½ÑĭÐµ
ĠÐ¼ÐµÐ» ÐºÐ¸Ðµ
ĠÑģÑĥÐ´ Ðµ
ĠÐºÐ°Ð¿ ÑĢÐ¸Ð·
ĠÐ¡Ðº ÑĥÑĩ
ĠÐ·Ð²Ð¾Ð½ Ð¾Ðº
ĠÐ½Ð°ÑĩÐ¸Ð½ Ð°Ð»Ð°ÑģÑĮ
ĠÑģÐ²Ð¾Ð±Ð¾Ð´ ÐµÐ½
ĠÑģÐ²Ð¾Ð±Ð¾Ð´ Ð½Ð¾Ðµ
ĠÐ³Ð¾ÑĢÑıÑĩ Ð¸Ðµ
ĠÐ»ÑĥÑĩÑĪÐµ Ðµ
ĠÑĤÐ¾Ð²Ð°ÑĢÐ¸Ñī Ð°
ĠÑĤÐ¾Ð²Ð°ÑĢÐ¸Ñī Ð°Ð¼Ð¸
ĠÐ²Ð¾Ð·Ð² ÑĭÑĪ
ĠÐ½ÐµÑĢ Ð²Ñĭ
ĠÑĤÐ¾Ð»ÑģÑĤ ÑĭÑħ
ĠÑģÐ´ Ð°Ð²
ĠÑĩÑĥÐ²ÑģÑĤÐ²Ð¾Ð²Ð°Ð» Ð°ÑģÑĮ
ĠÐºÑĥÑĢ Ð¸ÑĤÑĮ
ĠÐ¿Ð»Ð°ÑĤ ÐºÐ¾Ð¼
ĠÐ±Ð°ÑĢ Ñħ
ĠÑģÐ± Ð»Ð¸Ð·
ĠÑģÐ»ÑĥÐ¶ Ð±Ñĥ
ĠÐ±Ð»ÐµÐ´ Ð½Ð¾
ĠÐ¿Ð¾ÑıÐ² Ð¸Ð»ÑģÑı
ĠÐ¿Ð¾ÑıÐ² Ð»ÑıÐ»ÑģÑı
ĠÐ¾ÑĤÐ²ÐµÑĩ Ð°Ð»Ð°
ĠÐ³Ð»ÑĥÐ±Ð¾Ðº Ð¸Ð¹
ĠÐ³Ð»ÑĥÐ±Ð¾Ðº Ð¾Ðµ
ĠÐ·Ð°ÑĢ Ð°Ð·
ĠÐ²ÑĭÐ· ÑĭÐ²Ð°Ð»Ð¾
ĠÑģÑĩÐ¸ÑĤ Ð°ÑĤÑĮ
ĠÐ¾ÑĤÑĩÐ°Ñı Ð½Ð¸ÐµÐ¼
ĠÑĪÐ¸ÑĢÐ¾Ðº Ð°Ñı
ĠÑĢÑĭ Ð±Ñĥ
ĠÐ²ÐµÑĤ Ð²Ð¸
ĠÐ°Ð² Ð³ÑĥÑģÑĤ
ĠÑĪÑĥÐ¼ Ð½Ð¾
ĠÐ¶ÐµÑģÑĤ Ð¾ÐºÐ¾Ð¹
ĠÐ¼Ð°Ñģ ÐºÐ°
ĠÐ¿ÑĢÐ¾Ð½ Ð¸Ð·
ĠÐ²ÑģÑĤÑĢÐµÑĤ Ð¸ÑĤÑĮ
ĠÐ²ÑĤÐ¾ÑĢ Ð¾Ð³Ð¾
ĠÐ¿ÐµÑģ Ð¾Ðº
ĠÑģÑĥÑīÐµÑģÑĤÐ² ÑĥÐµÑĤ
ĠÑģÐºÐ°Ð¶ Ð¸ÑĤÐµ
ĠÐĲÐ»ÐµÐºÑģÐ°Ð½ Ð´
Ðķ ÑģÐ»Ð¸
ĠÐ¾Ð´Ð¸Ð½Ð¾Ðº Ð¸Ð¼
ĠÐ¾Ð´Ð¸Ð½Ð¾Ðº Ð¸Ð¹
ĠÑĥÐ³ÑĢ Ð¾Ð·
Ð¸Ð½ÑĥÐ» Ð°ÑģÑĮ
ĠÐ¾ÑģÐ² Ð¾Ð±Ð¾Ð´
ĠÐ·Ð°Ð³Ð°Ð´ Ð¾ÑĩÐ½Ð¾
ĠÑīÐµÐº Ñĥ
ĠÐ²Ð¾Ð·Ð²ÑĢÐ°Ñī Ð°ÑıÑģÑĮ
ĠÑĥÑħÐ¾Ð´ Ð¸Ð»Ð°
ĠÑĢÑĥÐº Ð°Ð²
ĠÐ´Ð¾Ð»Ð³ Ð¸Ñħ
ĠÐ±Ð°Ð± Ñĭ
ĠÐ¿ÑĢÐ¸Ð½Ð¸Ð¼ Ð°ÐµÑĤ
ĠÐ·ÐµÐ» ÐµÐ½Ð¸
ĠÐ¼ÐµÑĢ ÑĨ
ĠÐ·Ð°ÑģÑĤ Ð°Ð»
ĠÑĩÐµÐ»Ð¾Ð²ÐµÑĩÐµÑģÐº Ð¸Ð¹
ĠÐ³Ð»Ð°Ð² Ð½ÑĭÐ¼
ĠÐ·Ð²ÑĥÑĩ Ð°Ð»Ð°
ĠÐ½Ð°Ð» ÐµÐ²Ð¾
ĠÐ¾Ð±Ñī ÐµÐ¼
ĠÐ´Ð²Ð¸Ð³ Ð°ÑĤÑĮÑģÑı
ĠÐ±ÐµÐ³ Ð°Ð»
ĠÑĢÑĥÐ± Ð°Ñħ
ĠÐĳÐ¾Ð³ Ð°
ĠÐ¾Ð±ÑĢÐ°ÑĤ Ð¸Ð»
ĠÐ´ÐµÐ½ ÑīÐ¸ÐºÐ°
ĠÑĨÐ°ÑĢ Ð¸ÑĨÐ°
ĠÑĢÑĥÑĩ Ð¾Ð½
ĠÐ±Ð¾Ðº Ð°Ð¼
ĠÐ´ÑĥÑħ Ð°Ð¼Ð¸
ĠÐ»Ð¾ÑĪ Ð°Ð´Ð¸
ĠÐ»Ð¸Ñĩ Ð½Ð¾
ĠÐ½Ð°ÑĩÐ¸Ð½Ð° ÑİÑĤ
ĠÐ¿Ð»Ð°Ñĩ ÐµÑĪÑĮ
ĠÐ¾Ð±ÑĬÑıÑģÐ½ ÑıÐ»
ÑĩÐ°ÑĤ ÑĭÐ¹
ĠÐ´ÐµÐ»Ð° ÐµÑĪÑĮ
ĠÐ»Ð¾Ð² ÐºÐ¾
ĠÑĪÐ¿ Ð¾ÑĢÑĭ
ĠÐ½Ð°Ð¿ÑĢÐ°Ð² Ð¾
ĠÐ¨Ð°ÑĢÑĭÐ³ Ð¸Ð½Ð°
ĠÐ½ÐµÐ·Ð½Ð°ÐºÐ¾Ð¼ ÑĭÐ¹
ĠÐ½ÐµÐ¾Ð¶Ð¸Ð´ Ð°Ð½
ĠÑĤÑĢÐ°Ð² Ðµ
ĠÑĤÑĢÐ°Ð² Ñĭ
ĠÑĥÐ´Ð¾Ð²Ð¾Ð»ÑĮÑģÑĤÐ² Ð¸Ñı
ĠÐ¾Ð¿ÑĥÑģÑĤ Ð¸Ð»ÑģÑı
ĠÐ¿Ð¾ÑģÑĤÐ°Ð² Ð¸ÑĤÑĮ
ĠÐ®ÑĢÐ°ÑģÐ¾Ð² Ñĥ
ĠÑģÑĥÐ´ÑĮ Ð¸
ĠÑģÑĥÐ´ÑĮ Ð±Ð°
ĠÐ¶ÐµÐ»ÑĤ ÑĭÐµ
ĠÐºÐ¾ÑĢÐ¸Ð´ Ð¾ÑĢÐµ
ĠÐ¾Ð¶Ð¸Ð´Ð° Ð½Ð¸Ð¸
ĠÑħÐ¾ÑħÐ¾ÑĤ Ð°Ð»Ð¸
ĠÐ²ÑħÐ¾Ð´ Ð¸ÑĤÑĮ
ĠÐ²ÑħÐ¾Ð´ Ð¸Ð»Ð¸
ĠÐ¢Ð¸Ð¼Ð¾ÑĦÐµÐµÐ²Ð¸Ñĩ Ð°
ĠÐ±ÐµÐ¶ Ð¸ÑĤ
ĠÑģÑħÐ²Ð°ÑĤ Ð¸ÑĤÑĮ
ĠÐ¸ÑģÑĤ Ð¸Ð½
ĠÐ·Ð²Ñĥ ÐºÐ¾Ð¼
ĠÐºÑĥÐ» Ð°Ðº
ĠÑģÐ¾Ð±ÑĢ Ð°Ð»Ð¸ÑģÑĮ
ĠÐ¿Ð¾Ð·Ð´ Ð½ÐµÐ¹
ĠÐ¿Ð¾Ð¼Ð¾Ð³ Ð°Ð»
ĠÑĤÐ¾ÑĢÐ³Ð¾Ð² Ð»Ñı
ĠÐ¼ÐµÑģÑı ÑĨÐ°
ĠÐ¡ÑĥÐ²Ð¾ÑĢ Ð¸Ð½Ñĥ
ĠÐ¾ÑĤÑĢÑĭÐ² Ð°ÑıÑģÑĮ
ĠÑħÐ»Ð¾Ð¿ Ð¾ÑĤ
ĠÐ¾ÑĦÐ¸ÑĨÐµÑĢ Ñĭ
ĠÐ»ÐµÑĩ ÑĮ
ĠÐ¾Ð´Ð¸Ð½Ð¾Ñĩ ÐµÑģÑĤÐ²Ð¾
ĠÐ¾Ð´Ð¸Ð½Ð¾Ñĩ ÐµÑģÑĤÐ²Ðµ
ĠÐ±ÐµÐ·Ð´ Ð¾Ð½
ĠÐºÐ°Ð· Ð°ÑĤÑĮÑģÑı
ĠÑĤÑĥÑĩ Ð°
ĠÐ¾Ð±ÑīÐµÑģÑĤÐ² Ðµ
Ġ188 8
ĠÐ¿Ð¾ÑĨÐµÐ»Ð¾Ð² Ð°ÑĤÑĮ
ĠÐ±Ð»ÐµÑģÑĤÑıÑī Ð¸Ð¼Ð¸
ĠÑģÐ¾Ð±Ð°Ðº Ðµ
ĠÐ¿ÑĢÐ¸ÑĢ Ð¾Ð´
ĠÐ²ÐµÐ»Ð¸Ñĩ Ð°Ð¹
ĠÐĳÐ°Ð± Ð°Ðº
ĠÐĳÐ°Ð± ÐºÐ¸Ð½Ðµ
ĠÐºÐ¾Ð¼Ð¿ Ð°Ð½Ð¸Ð¸
ĠÐ»ÐµÐº ÑĨÐ¸Ð¸
ĠÐ¿ÐµÑĢÐµÑħ Ð¾Ð´Ð¸Ð»
ĠÐ·Ð°ÑĪ Ð°Ð³Ð°Ð»
ĠÑĤÐ°Ð½ ÑĨÑĭ
ĠÐľÐ¾Ð»Ñĩ Ð°Ð½Ð¸Ðµ
ĠÐ¾Ð´ÐµÑĤ ÑĭÐ¹
ĠÐ¿ÑĢÐ¸ÑģÑĥÑĤÑģÑĤÐ² Ð¸Ðµ
ĠÐ¼Ð½Ð¾Ð¶ÐµÑģÑĤÐ² Ðµ
ĠÐ²Ð¾ÑĢÐ¾ÑĤ Ð½Ð¸Ñĩ
ĠÐ£Ð¶ Ð°Ñģ
ĠÐłÐ°Ñģ ÑģÐº
ĠÐµÐ´Ð¸Ð½ÑģÑĤÐ² ÐµÐ½Ð½ÑĭÐ¹
ĠÐ½Ð°Ð¿ÑĢÑıÐ¶ ÐµÐ½Ð½Ð¾
ĠÑģÐ¸Ð»Ð° Ñħ
ĠÐ¸Ñī Ð°
ĠÐµÐ·Ð´ Ð¸Ð»
ĠÐ¿Ð¾Ð»ÑĮÐ· Ñĥ
ĠÐ±ÑĥÑĤÑĭÐ» ÐºÐ¸
ĠÐ»Ð¶ Ð¸
ĠÐ¾ÑĩÐµÑĢ ÐµÐ´ÑĮ
ĠÐľÐ¸Ð» ÐµÐ½ÑĮÐºÐ¸Ð¹
ĠÐ½Ð°ÐºÐ»Ð¾Ð½ Ð¸Ð»ÑģÑı
ĠÑģÐ¾Ð·Ð½ Ð°Ð²Ð°Ð»
Ð§Ð°Ð¹ ÐºÐ¸
ĠÐ±ÑĥÐ¼Ð°Ð¶ ÐºÑĥ
ĠÑģÑĥÑĢÐ¾Ð² ÑĭÐ¹
ĠÐ¿Ñģ Ð¸Ñħ
ĠÑĤÐµÐ½ Ð¾ÑĢ
ĠÑĤÐµÐ½ ÐµÐ¹
ĠÐ¸Ð´Ð¸ Ð¾ÑĤ
ĠÐĲÐ±ÑĢÐ°Ð¼ Ð¾Ð²Ð¸Ñĩ
ĠÐ¿ÑĢÐ¸Ð½Ð°Ð´Ð»ÐµÐ¶ Ð¸ÑĤ
ĠÐ½ÐµÐ³Ð¾Ð´ ÑıÐ¹
ĠÑĢÐ¾Ð± ÐºÐ¾
ĠÐ·Ð°Ð¼Ð¸ ÑĢ
ĠÐ·Ð°Ð¼Ð¸ ÑĢÐ°
ĠÑĢÑİÐ¼ ÐºÐ¸
ĠÑħÑĢÐ¸ÑģÑĤÐ¸ Ð°Ð½
ĠÐ¿ÑĢÐµÐ²Ð¾ÑģÑħÐ¾Ð´ Ð¸ÑĤÐµÐ»ÑĮÑģÑĤÐ²Ð¾
ĠÐ¿ÑĢÐ¸ÑģÑıÐ¶ Ð½ÑĭÐµ
ĠÐĳÐ¾Ð»ÑĮÑĪ Ð¾Ð¹
ĠÐºÐ°ÑĢÑĤÐ¸ Ð½Ñĭ
ĠÑĢÐµÐ±ÑıÑĤ Ð°
Ð½Ð¾Ð³ Ð¸Ðµ
ĠÐ¸Ñİ Ð»ÑĮ
ĠÐ°Ð¿ Ð¿
ĠÐļÐ°ÑĢ Ñĥ
ĠÐĶÐ°Ð² Ð°Ð¹ÑĤÐµ
ĠÑĥÑģÐ»Ð¾Ð² Ð¸ÑıÑħ
ĠÐ»Ð°Ðº ÐµÐ¹
ĠÐľÐ¾Ð» Ð»ÑĮ
ĠÑıÑĢÐ¾ÑģÑĤ Ð½Ð¾
---- ----
ĠÐ±ÐµÐ·Ð³ ÑĢÐ°Ð½Ð¸Ñĩ
ĠÐ½ÐµÐ²ÑĭÐ½Ð¾Ñģ Ð¸Ð¼Ð¾
ĠÐ¼Ð°ÑĢ ÑĤÐ°
ĠÑĢÐ°ÑģÑħÐ¾Ð´ Ð¸Ð»Ð¸ÑģÑĮ
ĠÐĴÐ°ÑģÐ¸Ð» ÐµÐ²
ĠÐĴÐ°ÑģÐ¸Ð» Ð¸Ð¹
ĠÑĥÐ³Ð¾ Ñī
Ð²Ð¸Ð½ Ð¸ÑĤÐµ
ĠÐ¼Ð°Ñħ Ð½ÑĥÐ»
ĠÐ²ÑĢÐµÐ¼ÐµÐ½ ÐµÐ¼
ĠÐ¿Ð¾ÑĢÑĤÑĢ ÐµÑĤ
ĠÐ¥ÑĥÐ´ Ð¾Ð¶ÐµÑģÑĤÐ²
ĠÐ´Ð¾ÑģÑĤÐ¾Ð¸Ð½ ÑģÑĤÐ²Ð°
ĠÐĴÐ¼ ÐµÑģÑĤÐ¾
ĠÑģÐµÑĢÐµÐ´ Ð¸Ð½Ðµ
Ð¡ÑĤÐµÐ¿ ÑĮ
ĠÑĥÑĤÐ²ÐµÑĢÐ¶ Ð´
ĠÐ¿ÑĢÐ¸Ð±Ð»Ð¸Ð· Ð¸ÑĤÐµÐ»ÑĮÐ½Ð¾
ĠÐ½ÐµÐ¾Ð´ Ð¾Ð±ÑĢ
ĠÐŁÐ¾Ð¶Ð°Ð» ÑĥÐ¹ÑģÑĤÐ°
ĠÐĿÐ¾Ñģ Ð°Ñĩ
ĠÑĨÐµÐ»ÑĮ Ñİ
ĠÐ¸ÑģÐ¿Ð¾ÑĢ Ñĩ
ĠÑĥÑģÐ¸Ð»Ð¸ ÐµÐ¼
Ð²Ð°Ñĩ ÐµÐ½Ð½ÑĭÐ¹
Ð¸Ð´ÐµÑģÑı ÑĤÑĭÑħ
ĠÐ½Ð°ÑģÑĤÐ¾Ñı ÑīÐµÐµ
ĠÐ½ÐµÐ¾Ð±ÑĭÑĩ Ð°Ð¹
ĠÐ´Ð¾ÑģÑĤÐ¾Ð¸Ð½ÑģÑĤÐ² Ð¾Ð¼
ĠÐ³Ð¾Ð½Ð¾ÑĢ Ð°ÑĢ
ĠÐ±ÐµÐ»ÑĮ Ðµ
ĠÐºÑĢÐµÑģÑĤÑĮ ÑıÐ½
ĠÐ¿Ð¾Ð´ÑĤÐ²ÐµÑĢÐ´ Ð¸Ð»
ĠÐ¼ÑĢÐ°Ð¼ Ð¾ÑĢ
ĠÐłÐ¾Ð¶Ð´Ðµ ÑģÑĤÐ²Ð¾
ĠÐ½ÐµÑĥÐ´Ð° Ñĩ
ĠÐ½Ð°ÑģÑĤÐ° Ð¸Ð²Ð°Ð»
ĠÑģÐ¾ÑģÑĤ ÑĢÐ°Ð´
ĠÑĢÑı Ð´Ð°
ĠÐ¾ÑĤÑĢÐ¸ ÑĨ
ĠÐļÐ°Ð¿ Ð¸ÑĤÐ°Ð½
ĠÑĦÐµÐ²ÑĢ Ð°Ð»Ñı
ĠÐ¾Ð´Ð¸Ð½Ð°Ðº Ð¾Ð²Ð¾
ĠÐ±ÐµÐ·Ð·Ð²ÑĥÑĩ Ð½Ð¾
ĠÐ´ÐµÐ¿ Ð°ÑĢÑĤ
ĠÐ½ÐµÐ´Ð¾ÑĢ Ð°Ð·ÑĥÐ¼
ÐµÑĢÑĥÑģ Ð°Ð»Ð¸Ð¼
ĠÐŁÐ¾Ð´Ð² Ð¸Ð½ÑĮÑģÑı
ĠÑĦÐ°Ð½ÑĤÐ° ÑģÑĤ
ĠÐ¿Ð¾ÑĤÐ¸ÑħÐ¾Ð½ÑĮ ÐºÑĥ
" *.
0 0
1 1
Ġ 7
Ġ X
Ð¾ ÑĤÐ¾Ñİ
Ðµ ÑıÐ»
Ð° ÑĦ
ÑĤ Ð°ÑĢ
ÑĤ ÐµÐ»ÑĮÐ½Ð¾
Ð» Ð°Ð¼
Ð» Ð°ÑģÑģ
ÑĢ Ð¾Ð·
ÑĢ Ð¾Ð·Ð¾Ð²
Ñı Ð½Ð¸
Ñı ÐºÐ°
Ñı Ð´Ñĥ
Ñĭ ÑĤÑĮ
ÑĮ Ð¼
ÑĮ ÐµÐ¹
ĠÑģ Ð°ÑĤ
ĠÑģ Ð°Ð±
ĠÑģ Ð¸ÑĢ
ĠÑģ ÐµÐ²ÐµÑĢ
ĠÐ¿ Ð°Ð½Ð¸
ĠÐ¿ ÑĭÐ»Ð¸
ĠÐ½ Ð¸Ð³
Ñĩ ÑĤÐ¾
ĠÐ² ÐµÐ»Ð¸
ĠÐ² Ð¾ÑĢÐ¾Ð²
ĠÐ² ÐµÐºÐ°
ĠÐ² ÐµÐºÐ¸
ĠÐ¸ ÑĤ
ĠÐ¸ Ð½Ð¾Ð¹
Ð² Ð¾Ð½
Ð² ÑĢÐ°ÑĤ
Ð¼ Ð¾Ñģ
Ð¼ Ð°Ð¼Ð¸
Ñħ Ð¸Ñī
ĠÐº Ð¾Ðº
ĠÐº Ð¾Ð¶Ð°
ÑĪ ÐºÐ¸
ÐµÐ½ ÑĢ
ÐµÐ½ ÑĤÑĮ
ÐµÐ½ ÑģÑĤÐ²Ð°
ĠÐ± ÑĥÐ³
ĠÐ± Ð¸Ð»Ð¾ÑģÑĮ
ĠÐ± ÑĢÑĭÐ·
ĠÑĤ ÑıÐ½
ĠÐ´ Ð¾Ð±Ñĭ
ĠÐ´ ÑĭÑĢ
ÐµÐ» ÐµÐ¼
ÐµÑĢ ÐµÐ³
ÐµÑĢ Ð´Ð½Ð¾
ĠÐ¼ Ð¾Ð´
ĠÐ¼ Ð°Ð·
ĠÐ¼ ÐµÑħ
Ñİ Ð·
Ð¾Ð¼ Ð¾Ð½
ÐµÑĤ Ñĥ
ĠÑĩ Ð¸Ð½
ĠÑĩ Ð°Ð´
ĠÑĩ ÑĥÐ»
ĠÑĩ Ð°ÐµÐ¼
ĠÑĩ ÐµÐ»Ñİ
ĠÐ· Ð¾ÑĢ
ĠÐ· ÐµÐ²
ĠÐ¿ÑĢ ÐµÐ¼
ĠÐ¿ÑĢ ÑĥÐ´
ĠÐ¿ÑĢ ÑıÐ´
ĠÑĢ Ð°Ðº
ĠÑĢ Ð¾Ð·
ĠÑĢ ÐµÐ³
Ð¸ÑĤ ÑĭÐµ
ĠÐ³ Ð°Ñģ
ĠÐµ Ð´Ñĥ
ĠÐ½Ð° ÑģÑĤÐ°Ð²
Ð¾Ñģ Ð½
Ð¾Ñģ Ðº
Ð¾Ñģ ÐºÐ²
Ð¾ÑĢ Ð¾Ñħ
Ð°Ð² ÐºÐ°Ð·
Ð¿ Ð¾Ð¼Ð¸Ð½Ð°
Ñī ÑĥÐ¿
ĠÑĥ Ð»ÐµÑĤ
ĠÑĥ ÐµÐ·Ð¶Ð°Ð»
ĠÐ» Ð¾Ð¿
Ð¾ÑĤ Ð²ÐµÑĤ
Ð¾ÑĤ Ð¸ÑĩÐµÑģÐºÐ¾Ðµ
Ð¸Ð² Ñĭ
ĠÐ¶ Ð¸ÑĤ
Ð¾Ð½ Ð°Ñĩ
ĠÐ¾ÑĤ ÑĢ
Ð°Ð½ Ð¾Ð¼
ĠÑģÑĤ Ð¸Ñģ
ĠÑģÑĤ ÑĥÐ»Ð°
ÑģÐº Ð°
Ð¸Ð¼ Ð¾Ð¼
Ð´Ð° Ð½Ð¸Ðµ
Ð¸Ð½ Ð¾Ðº
Ð¸Ð½ Ð°Ð¼Ð¸
Ð¸Ð½ ÐºÐ°Ð¼Ð¸
Ð¸Ð½ ÑģÐºÐ¾Ð¼
ÐµÐ¹ ÑĪÐ¸Ð¹
ĠÐŁ Ð°Ð¿
ĠÐŁ Ð°Ð»ÑĮ
ĠÑı Ð±
ĠÐºÐ°Ðº Ð¾Ð¼Ñĥ
ĠÐĿ Ð°ÑĢ
ĠÐĿ ÐµÑģÐº
ĠÐĿ ÐµÐºÐ¾ÑĤÐ¾ÑĢ
Ð³ ÐµÐ»
Ð³ Ð»Ð°Ñģ
ÑĤÐ¾ÑĢ Ð¾Ð¿
Ð°ÑĢ Ñĥ
Ð°ÑĢ Ð´
Ð¾Ð± Ð»Ð°Ñĩ
ĠÐ¿Ð¾ ÑıÑģ
ÐµÐ² Ð½Ñĭ
ÐµÐ² ÑĭÑħ
ÐµÑģ Ð°
ĠÐĴ Ð¾Ð»
ĠÐĴ Ð°ÑĢ
ĠÐĴ Ð°Ð»ÑĮ
ĠÐĴ Ð½Ð°ÑĩÐ°Ð»Ðµ
ÐµÐ· Ð»Ð¸
Ð¸Ðº Ð¾Ð²Ð°
Ð¸Ðº Ð°ÑĤÑĥÑĢ
ĠÑģÐ² ÐµÐ´
ĠÑģÐ² ÐµÑĢÑĤ
ÑģÑĤÐ² ÐµÐ½Ð½Ð¾Ð³Ð¾
ÑĥÐ´ Ð¸Ð»
ĠÐ²Ñĭ Ð¼
ĠÐ²Ñĭ Ð»ÐµÐ·
ĠÐ¾Ð± Ð´ÑĥÐ¼
ĠÐ¡ Ð¾Ð»
ĠÐ¡ Ð°Ð´
ĠÐ¡ ÑĥÐ¼
ĠÐ¡ Ð»ÐµÐ´
ĠÐ¡ ÐµÑĢÐ´
ĠÐ¡ Ð°ÑħÐ°Ð»
ĠÐ¡ ÐµÑģÑĤÑĢÐ°
ÑıÑĤ Ð¾Ð¹
ĠÐŀ Ð³
ĠÐŀ Ð»Ñı
ÐºÐ¸ Ð½ÑĭÐ¼
ĠÐ·Ð° ÑģÑĤÑĢ
ĠÐ·Ð° ÑģÑĤÑĢÐµÐ»
ĠÑģÐº Ð¾ÑĤ
ĠÐļ Ð¾Ð½Ñĩ
ĠÐļ ÑģÑĤÐ°ÑĤÐ¸
Ð½Ðµ Ñı
Ð½Ðµ ÑĨ
ĠÑĢÐ°Ð· ÑĭÑģÐº
ĠÑĤÐ¾ ÑĪÐ½Ð¾
ĠÐ§ ÐµÐ»Ð¾Ð²ÐµÐº
ĠÐ¢ Ð°Ð½Ð¸
ĠÐ¢ ÑĢÐ¸
ĠÐ¢ Ð¸ÑĪÐµ
ĠÐľ Ð°Ñģ
ĠÐľ Ð°Ð½
ĠÐľ ÑĥÐ¶
ĠÐľ Ð°ÑĤÑĢ
ĠÐľ Ð¾Ñı
ĠÐľ Ð°ÑĪÐ°
ÑĥÑĩ Ð°Ð»
ĠÐ¾Ð´ ÐµÐ»ÑģÑı
ĠÐ¾Ð´ ÐµÐ¶Ð´Ñĭ
Ð¾Ð¿ ÑĤ
Ð¾Ð¿ Ð°Ñģ
ĠÑįÑĤ Ð°Ðº
ĠÑįÑĤ Ð°Ð¶Ðµ
Ð¾Ñĩ Ð½ÑĭÐµ
Ð¾Ñĩ ÐºÐ¾Ð¹
ĠÑĪ ÑĥÐ±
ĠÑĪ Ð¾ÑĢÐ¾Ñħ
ÐµÐ³ Ð°Ñı
ĠÑģÐ¼ Ð¸ÑĢ
ĠÑģÐ¼ ÐµÐ»Ð¾
ÐµÐ¶ ÑĥÑĤ
ÑĥÑĪ Ð°
Ð°ÐµÑĤ ÐµÑģÑĮ
Ð¾ÑģÑĤ ÑĢ
ÑĥÐ¿ Ð¿
Ð¸ÑĢ Ð¾Ð²Ð°ÑĤÑĮ
ĠÐĶ Ð°Ð½
Ð¾ÑĪ Ð»Ð¸
ÑĥÑĢ Ñĥ
ĠÑģÐ²Ð¾ Ñı
Ð°Ð»ÑĮ Ð½Ð¾Ð¼
ĠÐ´Ð² Ð¾ÑĢÐ°
ĠÐ´Ð² Ð°Ð´ÑĨÐ°ÑĤÐ¸
ĠÐ³ÑĢ Ð°Ð½
ĠÐ³ÑĢ Ð°Ð´
ĠÐ¯ Ð²
ĠÐ¿Ð¾Ð» Ð°
ĠÐ¿Ð¾Ð» ÐµÐ¹
ĠÐ¿Ð¾Ð» Ð½Ð°Ñı
ĠÐ¿Ð¾Ñģ Ð°Ð´
ĠÐ¿Ð¾Ñģ ÑĢÐµÐ´
ĠÐ¿ÑĢÐ¸ ÑģÑĤÑĥÐ¿
ĠÐ¿ÑĢÐ¸ Ð½Ð¾Ñģ
ĠÐ¿ÑĢÐ¸ ÑıÑĤÐµÐ»ÑĮ
ĠÑĤÑĢ Ð¾
Ð¸Ð»Ð¸ Ñı
ĠÐ±Ð¾Ð»ÑĮ Ñİ
ĠÐ¿Ð¾Ðº Ð¾Ðµ
ĠÐ¿Ð¾Ðº ÑĢÑĭÐ²
ĠÐ¿Ð» ÑĭÐ²
ĠÐ¿Ð» Ð¾ÑĤÐ½Ð¾
ĠÐ²Ð· Ð°Ð´
ĠÐ²Ð· ÑıÐ»ÑģÑı
ĠÐķ ÑĢÐ¾
ĠÐĳ ÐµÑģÐº
ĠÐĳ ÑĢÐ°ÑĤ
Ð¸Ð± Ð¸ÑĢ
ĠÑģÑĤÑĢ Ð¾ÑĩÐºÐ¸
ĠÐ½Ð°Ð´ Ð¿Ð¸ÑģÑĮ
ĠÑĦ Ð°Ð½ÑĤ
ĠÑĦ ÑĥÑĢÐ°Ð¶
ĠÐ¿Ð¾ÑĤ Ñı
ĠÐĵ ÐµÐ½ÑĢ
ĠÐ¿ÑĢÐ¾ ÑģÑı
ĠÐ¿ÑĢÐ¾ Ð¸Ð³ÑĢ
ĠÐ¾ÑĤÐ² Ð¸Ñģ
Ð¸ÑģÑĤ Ð¾Ð¹
Ð¸ÑģÑĤ ÐºÐ°
Ð¸ÑģÑĤ ÑĭÐ¼
ĠÐ¼Ð¾ Ð¸Ð¼Ð¸
ĠÐ¾Ñģ Ð²ÐµÑĤ
Ð»Ð¾ Ñī
Ð»Ðµ Ðµ
ĠÑĤÐµÐ¼ Ð½ÑĭÐ¼
ĠÐ²ÐµÑģ Ð½Ð¾Ñİ
ÐµÐ½ÑĮÐº Ð¾Ð³Ð¾
ĠÑģÑĤÑĢÐ° Ð½Ð¸ÑĨÑĥ
ĠÑģÑĤÑĢÐ° Ð½Ð¸ÑĨÑĭ
ĠÐ¶ÐµÐ½ Ð¸Ñħ
ĠÐĽ Ð¸Ð½ÑĤ
ĠÐĹ Ð½
ĠÐ½Ð°Ð¿ ÑĢÐ°ÑģÐ½Ð¾
ĠÐ½ÐµÐ¿ Ð¾Ð´
ĠÐ£ Ð¼
ĠÐ¿Ð¾Ð½ ÑıÐ»Ð¸
ĠÐł ÐµÐ±
ĠÑĩÑĤ Ð¾Ð±
ĠÐŁÑĢ Ð¾Ð±
ĠÐŁÑĢ ÐµÐ¶Ð´Ðµ
ĠÑĤÐµÐ¿ Ð»ÑĭÐ¹
ĠÐ²ÐµÑĢ ÑĤÐµÐ»
ĠÐ¾Ð´Ð¸Ð½ Ð°ÐºÐ¾Ð²
Ð¸Ð¿ ÐµÐ´
ĠÐ¿Ð¾ÑĢ Ð¾Ð¹
ĠÑģÐ²ÐµÑĤ Ð¸Ð»Ð¾
ĠÐ·Ð°Ð¿ Ð°Ñģ
ĠÐ·Ð°Ð¿ Ð»Ð°ÑĤ
ĠÐ·Ð°Ð¿ Ð¾Ð·Ð´
ĠÐºÑĢÐ°Ñģ Ð½Ð¾
ĠÐºÑĢÐ°Ñģ Ð½ÑĭÑħ
ĠÐºÑĢÐ°Ñģ Ð¾ÑĤÐµ
ĠÐ¿Ð¸Ñģ Ð°ÑĤÐµÐ»Ð¸
ĠÑģÐ¼Ð¾ÑĤÑĢ Ñİ
ĠÑģÐ¼Ð¾ÑĤÑĢ Ð¸ÑĪÑĮ
ĠÐºÐ¾Ð» Ð¾Ð´
ĠÐºÐ¾Ð» Ð»ÐµÐº
ĠÐºÐ¾Ð» ÐµÐ½Ð°
ĠÐ¿Ð¾Ð¿ Ð°Ð»Ð°
ĠÐ¿Ð¾Ð¿ Ð¸ÐºÐ°
ĠÐ²Ð¾Ð» Ñİ
ĠÑĥÐ´ Ð¾Ð±
ĠÑĥÐ´ ÑĥÑĪ
ĠÑĥÐ´ Ð°Ð²Ð°Ð»Ð¾ÑģÑĮ
ĠÐ¾ÑģÑĤ Ð°ÐµÑĤÑģÑı
ĠÐ·Ð°Ðº Ð°ÑĤ
ĠÐ·Ð°Ðº Ð¾Ð½Ñĩ
ĠÑģÑĤÑĢÐ°ÑĪ Ð½ÑĭÑħ
ĠÐ½ÐµÐ´ Ð¾Ð²
ĠÐ½ÐµÐ´ ÐµÐ»Ðµ
ĠÑĥÐ³ Ð»Ð¾Ð¼
ĠÑĤÐ¸Ñħ Ð¾Ðµ
ĠÐ¿ÑĢÐ°Ð² ÑĥÑİ
ĠÑĥÐ»ÑĭÐ± ÐºÑĥ
ĠÑĥÐ¿ Ð°Ð»Ð¾
ĠÐ·Ð°Ð± Ð»
ĠÐ·Ð°Ð± ÑĭÐ²
ĠÐ¶Ð¸Ð² ÑĭÐ¼
ĠÐ¶Ð¸Ð² Ð¾ÑĤÐµ
ĠÐ½Ð¾Ð² Ð°Ñı
ĠÐ¥ ÑĢÐ¸ÑģÑĤÐ¾Ñģ
ÑıÑī ÐµÐ¹
ÑıÑī Ð¸ÐµÑģÑı
ÑıÑī Ð¸ÑħÑģÑı
ĠÐ¿Ð¾Ð¼ Ð¾ÑĩÑĮ
ĠÐ²ÑĭÑģ Ð¾ÐºÐ¾Ð¹
ĠÐ¿ÐµÑĢÐ² Ð°Ñı
ĠÑĥÐ± ÑĭÑĤ
ĠÑĤÐ¾Ð» ÐºÐ¾Ð²
ĠÐ¼Ð°Ð»ÐµÐ½ÑĮÐº Ð¸Ð¼
ĠÐ²ÑģÑı ÐºÐ¾Ðµ
ĠÐ¿Ð¾Ð³ ÑĢÑĥÐ¶
ĠÐ¿Ð¾Ð³ Ð¾Ð´Ð¸
ĠÐºÐ°ÑĢ Ð¸ÐºÐ°ÑĤÑĥÑĢ
ĠÐŀÑĤ ÑĤÐ¾Ð³Ð¾
ĠÑĢÐ°Ð±Ð¾ÑĤ Ð¾Ð¹
ĠÐ½ÐµÑģ ÑĩÐ°ÑģÑĤÑĮÐµ
ÐµÐ½ÑĤ Ð¾Ð²
ĠÑģÐ¼Ðµ ÑİÑī
ÑĩÐ¸Ð² Ð°Ð»ÑģÑı
ĠÑĥÑģ Ð¼ÐµÑĪ
ÐµÑĢÐ¸ ÐµÐ¼
ĠÐ»ÐµÐ³ ÐºÐ¾Ð¹
ĠÐ»ÐµÐ³ ÐºÐ¾Ðµ
ĠÐ»ÐµÐ³ ÐºÐ¸Ñħ
ĠÐ´Ð¾Ð»Ð³Ð¾ Ðµ
ĠÐ¾ÑĤÐ´ Ð°Ð»ÑģÑı
Ð¾ÐºÐ¾ ÐµÐ½
ĠÐ²ÑģÐ¿ Ð»ÐµÑģ
ĠÐ¿Ð¾ÑģÐ»ÐµÐ´ Ð½ÑıÑı
ĠÐ½Ð°ÑĪ Ð»Ð°
ĠÐ¿Ð¾Ñħ Ð¾Ð»Ð¾Ð´
ĠÐ¿Ð¾Ñħ Ð»Ð¾Ð¿
ĠÐºÐ» Ð¾Ñĩ
ĠÐ¿ÑĥÑģÑĤ Ð°
Ð½Ð¸Ñĩ Ð°ÑĤÑĮ
ĠÐ³ÑĢÐ¾Ð¼ ÐºÐ¸Ð¹
ĠÑģÐ»ÑĭÑĪ Ð°Ð»Ð¾ÑģÑĮ
ĠÑĢÐ°Ð·Ð² Ð°Ð»
ÐµÐ²ÑĪ Ð¸Ð¼Ð¸
ĠÐ½Ð¾Ñģ Ð¸Ðº
ĠÐ·Ð½Ð°ÐºÐ¾Ð¼ ÑĭÐ¹
ĠÐ»ÑĥÑĩ ÑĪÐ¸Ñħ
ĠÐ¿Ð¾ÑģÑĤ Ð°ÑĢ
ĠÑĥÐ´Ð¸Ð² Ð»ÑıÐ»ÑģÑı
ĠÑĥÐ´Ð¸Ð² Ð»ÐµÐ½Ð¸Ñİ
ÑĢÐ°ÑĪ Ð¸Ð²Ð°ÑĤÑĮ
ĠÐ¿ÑĢÐ¸Ð½ ÑıÐ»Ð°
ÐµÑĢÐµÐ´ ÐºÐ¾
ĠÐ²ÑĭÐ¿ Ð¾Ð»Ð½
ĠÑĨÐµÐ» ÑĭÐ¼Ð¸
ĠÐ¿ÑĢÐ¾ÑĪ Ð»Ð¾Ðµ
ĠÑģÐ¸Ð»ÑĮ Ð½ÑĭÐµ
ĠÑģÐ¸Ð»ÑĮ Ð½ÑĭÑħ
ĠÑģÐ¾Ñģ ÑĤÐ¾
ĠÑĤÑıÐ¶ÐµÐ» Ð¾Ð¼
ĠÐºÐ°Ð¼ ÐµÐ½Ð½ÑĭÐ¹
ĠÐºÐ°Ð¼ ÐµÐ½Ð½ÑĭÐµ
ĠÑĥÑĤ ÑİÐ³
ĠÐ¿Ð°ÑĢ Ñĥ
ĠÐ¿Ð°ÑĢ Ð¾Ð²
ĠÐ±Ð¾ÑĢ Ð¾Ð»
ĠÐ¼Ð½ ÐµÐ½Ð¸Ðµ
ĠÑĪÐ°Ð³ Ð°Ð»
ĠÑĪÐ°Ð³ Ð¾Ð¼
ĠÑĪÐ°Ð³ Ð°Ñħ
ĠÐ¿ÑĢÐµÐ´ÑģÑĤÐ°Ð² Ð¸Ð»Ð¾ÑģÑĮ
ĠÐ¿ÑĢÐµÐ´ÑģÑĤÐ°Ð² Ð»ÐµÐ½Ð¸Ñı
ĠÑĢÐ¾Ð´ ÑģÑĤÐ²ÐµÐ½
ĠÐ® ÑĢÑĥ
ĠÐ® ÑĢÐ¸Ð¹
ĠÐ¿ÑĢÐ¾Ð´Ð¾Ð»Ð¶ Ð°ÑĤÑĮ
ĠÐ±ÐµÑĢ ÐµÐ¶Ð½Ð¾
ĠÐ·Ð» Ð¾ÑĢÐ°Ð´
ĠÐķÐ³Ð¾ÑĢÐ¾Ð²Ð¸Ñĩ Ñĥ
ĠÑĤÐ¾Ð²Ð°ÑĢ Ð¸ÑīÐµ
ĠÐºÐ¾Ð¼ Ð¾Ð´
ĠÐºÐ¾Ð¼ Ð¾Ðº
ĠÐ²ÐµÐ»Ð¸Ðº Ð¸Ð¼
ĠÑĩÐ¸ÑĤ Ð°Ð»Ð°
ĠÑĩÐ¸ÑĤ Ð°ÐµÑĤ
ĠÐ¤ ÐµÐ¾Ð´Ð¾ÑģÐ¸Ð¹
ĠÐ±Ð¾ Ð¸ÑĤÑģÑı
ĠÐ±Ð¾ ÑıÑģÑĮ
ĠÐ³ÑĥÐ± Ð°Ñħ
ĠÐ±ÐµÑģÑģ Ð¾Ð½
ĠÐ¿Ð»ÐµÑĩ Ð°
Ð°ÐµÐ¼ ÑĭÐ¹
Ð°ÐµÐ¼ ÑĭÐµ
ĠÐĺÐ· Ð²Ð¾Ð·
ĠÐºÑĢÐ¸Ñĩ Ð¸ÑĤ
ĠÐºÑĢÐ¸Ñĩ Ð°Ð»Ð°
ĠÐ²ÑģÑĤÑĢÐµÑĩ Ð°Ð»Ð¸
Ð²Ð¾ ÐµÐ¼
ĠÐºÑĢÐ°ÑģÐ¸Ð² Ð¾Ð³Ð¾
ĠÐ¿ÑĢÐ¸Ð· ÑĢ
ĠÐ±Ð»Ð¸Ð· Ð¾ÑģÑĤÐ¸
ĠÐ¿Ð¾Ð¼Ð½ Ð¸ÑĤ
Ð½ÑĥÐ²ÑĪ Ð¸Ð¹ÑģÑı
ĠÐ±ÑĢÐ¾Ñģ Ð°Ð»Ð°
ĠÐ²Ð°ÑĪ Ð¸Ñħ
ĠÐ²Ð°ÑĪ ÐµÐ³Ð¾
ĠÐ´ÑĢÐ¾Ð¶ ÑĮ
ĠÐ´ÑĢÐ¾Ð¶ Ð°Ð»Ð°
ĠÐ²Ð·Ð´ ÑĭÑħÐ°Ð»
Ð½ÑĥÑĤ ÑĭÐµ
ĠÐ´Ð¾ÑģÑĤ ÑĥÐ¿
ĠÐ²Ð¾Ð¿ÑĢÐ¾Ñģ Ð°
ĠÑıÑģ Ð½Ð¾ÑģÑĤÑĮÑİ
ĠÐ¿Ð¾Ð´Ð½ ÑıÑĤÑĮ
ĠÐ¿Ð¾Ð´Ð½ ÑıÐ»Ð¸ÑģÑĮ
ĠÐ¿ÐµÑĩÐ°Ð»ÑĮ Ð½Ð¾Ðµ
ĠÑĩÐ¸ÑģÑĤ Ð°Ñı
ĠÑĩÐ¸ÑģÑĤ ÑĭÐ¼
ĠÑĩÐ¸ÑģÑĤ ÑĭÐµ
ĠÐ¿ÑĢÐµÐºÑĢÐ°Ñģ Ð½Ð¾Ð¹
ĠÐ¿ÑĢÐµÐºÑĢÐ°Ñģ Ð½Ð°Ñı
ĠÐºÐ¾Ð½Ñĩ Ð¸ÑĤÑĮ
ĠÐ¡Ðº Ð°Ð·
ĠÑĪÐµÐ¿ ÑĩÐµÑĤ
ĠÐ·Ð²Ð¾Ð½ ÐºÐ¸Ð¹
ĠÐ¼ÐµÑĢÑĤÐ² ÑĭÑħ
ĠÐ¿Ð¾Ð²ÑĤÐ¾ÑĢ Ð¸Ð»Ð°
ĠÐ¾Ð±ÑĬ ÑıÑģ
ĠÐ²ÑĭÑĢÐ°Ð¶ ÐµÐ½Ð¸Ñı
ĠÐ¾Ð±ÐµÐ´ Ð½Ðµ
ĠÐĵÑĢ Ð¸ÑĪ
Ðŀ Ð¿
ĠÐ²ÑĭÑħÐ¾Ð´ Ð¸ÑĤÑĮ
ĠÐ¿ÑĢÐ¾Ð¿ Ð°ÑģÑĤÑĮ
ĠÑĥÐ¼ÐµÑĢ Ð»Ð°
ĠÐ¾Ð´Ð½Ð¾ Ð¾Ð±ÑĢÐ°Ð·
ĠÑģÐ²ÐµÑĤÐ» Ð¾Ð¹
ĠÑģÐ²ÐµÑĤÐ» Ð°Ñı
ĠÐ½Ð°ÑĢ ÑıÐ´
ĠÐºÑĥÑĢ Ð¸Ð»
ĠÐ¿Ð¾ÑĪ Ð»Ð¾
ĠÐ¿Ð¾ÑĪ ÐµÐ²ÐµÐ»
ĠÐºÐ¾ÑĢÐ¾ÑĤ ÐºÐ¸Ð¼Ð¸
ĠÑģÐ¾Ð³ Ð»Ð°ÑĪ
ĠÐºÐ°Ð± Ð»Ñĥ
ĠÐ¿ÑĢÐ°Ð·Ð´ Ð½Ð¸ÐºÐ°
ĠÐ·Ð°Ð½ ÐµÑģ
ĠÐ¿Ð¾ÑıÐ² Ð¸Ð»Ð°ÑģÑĮ
Ð½Ð°Ñĩ Ð°Ð»Ð°
ĠÐ¿Ð°Ð´ Ð°Ð»Ð°
ĠÐ·Ð´Ð¾ÑĢÐ¾Ð² ÑĮÑı
ĠÑĥÑģÐ» ÑĭÑħ
ĠÑģÑĩÐ¸ÑĤ Ð°Ð»Ð¸
ĠÐ´Ð¸Ðº ÑĥÑİ
ĠÑģÑĩÐ°ÑģÑĤÐ»Ð¸Ð² ÑĭÐ¹
ĠÑģÑĤÑĢÐ°Ð´ Ð°Ð½Ð¸Ðµ
ĠÐ¸Ð·Ð²ÐµÑģÑĤ Ð½ÑĭÐ¹
ĠÐ³Ð¾ÑģÑĤ Ñı
ĠÑĥÐº Ð¾ÑĢ
ĠÐ´ÑĢÑĥÐ¶ Ð¾Ðº
ĠÐ´ÑĢÑĥÐ¶ Ð¸Ð½
ĠÐ¿Ð¾ÑĩÑĥÐ²ÑģÑĤÐ² Ð¾Ð²Ð°Ð»Ð°
ĠÐ¿ÑĮ ÐµÑĤ
ĠÐŀÐ± Ð°
ĠÐ¼Ð°Ð»ÑĮÑĩÐ¸Ðº Ð¾Ð²
ĠÐ¿ÑĢÐ¾Ð½ Ð·
ĠÐ±Ð»Ð°Ð³Ð¾ ÑģÐ»Ð¾Ð²
Ð¢ Ð°Ðº
ĠÐ¾Ñī ÑĥÑĤÐ¸Ð»
ĠÑĥÐ²ÐµÑĢ ÐµÐ½Ð½Ð¾
ĠÐ¿ÐµÑģ Ð½ÑĮ
ĠÑĤÑĥ ÑĦ
ĠÐ¿ÑĢÐ¾Ð¸Ð·Ð² ÐµÐ»Ð°
ĠÑģÑĤÑĭ Ð´Ð°
ĠÑĤÐ¾Ð»Ð¿ Ðµ
ĠÐ¸Ð·Ð´ Ð°ÑĤÑĮ
ĠÐ¾Ð´Ð¸Ð½Ð¾Ðº Ð°Ñı
ĠÐ¾Ð´Ð¸Ð½Ð¾Ðº Ð¸Ðµ
ĠÑĢÐ°ÑģÑĤ Ð¾Ð¿ÑĭÑĢ
ĠÐ½ÐµÑģÑĩÐ°ÑģÑĤ Ð½ÑĭÐ¼
ĠÐ»Ð°Ð¼Ð¿ Ð°Ð´
ĠÐ»Ð°Ð¼Ð¿ Ð¾ÑĩÐºÐ°
ĠÐ¿ÑĢÐ¸Ð» Ð°Ð²
ĠÐ³Ð¾ÑģÑĤÐ¸ Ð½Ð¸ÑĨÐµ
ĠÐ²ÐµÑī ÐµÐ¹
ĠÐ¿ÑĢÐ¸ÐµÑħ Ð°Ð»Ð°
ĠÐ¿Ð¾ÐºÐ¾Ð¹ Ð½Ð¾Ð³Ð¾
ĠÑģÐ¼ÐµÑĢÑĤÑĮ Ñİ
ĠÑģÐµÐ¼ÑĮ ÐµÐ¹
ÐĶ Ð°
ĠÐ°Ð½Ð³ Ð»Ð¸Ð¹
ĠÑģÑĨ ÐµÐ½Ñĥ
ĠÑĢÑĥÑģ ÑģÐºÐ¸Ð¹
ĠÑĩÐµÑĤÐ²ÐµÑĢ ÑĤÑĮ
ĠÐ¿ÑĮÐµÑģ Ðµ
ĠÐ¿ÑĮÐµÑģ Ð°
ĠÐ²Ð´ Ð²Ð¾ÐµÐ¼
ĠÐ¿ÑĢÐ¸ÑĤ Ð¾Ð¼
Ð°ÑĤÐ° Ð¸
ĠÑĢÑĥÐ± Ð»Ñı
ĠÑģÐ¾Ð±ÑģÑĤÐ² ÐµÐ½Ð½Ð¾
ĠÑģÐ¾Ð±ÑģÑĤÐ² ÐµÐ½Ð½ÑĭÐµ
ĠÐ´Ð°Ð»ÐµÐº Ð¸Ð¹
ĠÐ·Ð¸Ð¼ Ð¾Ð¹
ĠÐ·Ð¸Ð¼ Ð¾Ñİ
ĠÐ³Ð¾ÑĤÐ¾Ð² ÑĭÐ¹
ĠÐ¸ÑģÐºÑĥÑģ Ð½Ð¾
ĠÑģÑĤÐµÐº Ð»Ð¾
ĠÐ½Ð°ÑģÑĤÐ¾ÑıÑī Ð°Ñı
ĠÐ®ÑĢÐ°Ñģ Ð¾Ð²Ð°
ĠÐ±Ð»Ð°Ð³Ð¾Ð´Ð°ÑĢ Ð¸Ð»
ĠÐ¿Ð¾ÐµÐ·Ð´ ÐºÐ¸
ĠÑĥÐ·Ð½ Ð°Ð»Ð°
ĠÐ¢Ð¾Ð»Ð¿ÐµÐ½ Ð½Ð¸ÐºÐ¾Ð²Ð°
ĠÑħÐ°ÑĢÐ°ÐºÑĤÐµÑĢ Ð°
ĠÑģÐ²ÐµÐ¶ ÐµÐ³Ð¾
ĠÐ»Ð¸Ñĩ Ð¸ÐºÐ¾
ĠÑģÑĤÑĥÑĩ Ð°Ð»
ĠÐºÑĢÑĭÑĪ Ñĥ
ĠÐ¿Ð»Ð°Ñĩ ÑĮ
ĠÐ¼ÐµÑĪ Ð°Ð»
ĠÑĥÑĩÐ°ÑģÑĤ ÐºÐµ
ĠÑĢÑĥÐ³ Ð°Ð»ÑģÑı
ĠÐ³ÑĥÑģÑĤ ÑĭÐµ
ĠÐ¿ÑĢÐ¸ÑıÑĤ ÐµÐ»ÐµÐ¹
ĠÐ¾ÐºÐ¾Ð½Ñĩ Ð¸Ð»
ĠÐ²Ð¾Ð»Ð½ Ð°Ð¼Ð¸
ĠÐ²Ð¾Ð»Ð½ ÐµÐ½Ð¸Ðµ
ĠÑģÐ²ÐµÑĩ Ñĥ
ĠÐ¾Ð¿ÑĥÑģÑĤ Ð¸Ð»
ĠÐ¾Ð¿ÑĥÑģÑĤ Ð¸Ð²
ĠÑģÑĤÐ¾Ð½ Ñĭ
ĠÑģÐ¾ÑģÐµÐ´ Ð½ÐµÐ¹
ĠÑģÑĥÐ´ÑĮ Ð±Ñĥ
ĠÐ¿ÑĥÐ±Ð» Ð¸ÐºÐ°
ĠÐ²Ð¾ÑģÑĤÐ¾ÑĢ Ð¶
ĠÐ¾Ð¶Ð¸Ð´Ð° Ñı
ĠÐ·ÐµÐ»ÐµÐ½ Ð¾Ð¹
ĠÐ¿ÑĥÑģÑĤÐ¾ ÑĤÐµ
ĠÐ¾Ð· Ð°Ð±Ð¾Ñĩ
ĠÐºÑĢÐ°Ð¹ Ð½Ðµ
ĠÑģÑĤÑĢÐ¾Ð³ Ð¸Ð¼
ĠÐ¿ÑĢÐ¸Ð²ÑĭÑĩ ÐºÐ°
ĠÐ¿ÑĢÐ¸Ð²ÑĭÑĩ ÐºÐµ
ĠÑĤÐ°Ð¹ Ð½Ð°
ĠÑģÐ²ÑıÐ· Ð¸
ĠÐĳÑĥÐ´ Ñĥ
ĠÐ¿Ð¾Ð·Ð½Ð°ÐºÐ¾Ð¼ Ð¸ÑĤÑĮÑģÑı
ĠÐĵÐ°ÑĢÐ°ÑģÑĮ ÐºÐ¸
ĠÐ¸ÑģÑĤ ÐµÑĢ
ĠÐ³Ñĥ Ð»ÑıÐ»Ð¸
ĠÐ´ÑĢÑĥÐ· ÑĮÑıÐ¼Ð¸
ĠÐ·Ð²Ñĥ ÐºÐ°
ĠÐ½ÐµÐº Ð¾Ð¼Ñĥ
ĠÐĲÐ» ÐµÑħ
ĠÑģÐ¾Ð±ÑĢ Ð°Ð»ÑģÑı
ĠÑģÑĤÐ¾ÑĢÐ¾Ð¶ Ð°
ĠÐºÐ°Ñģ Ð°ÐµÑĤÑģÑı
ĠÑıÐ·Ñĭ ÐºÐ°
ĠÑıÐ·Ñĭ ÐºÐµ
ĠÑĩÐµÑģÑĤ Ð½ÑĭÐ¹
ĠÐ¿ÑĢÐ¾Ð¼ Ð°Ñħ
ĠÐ»ÐµÑĩ ÐµÐ±
ĠÐ§Ð¸ÑģÑĤÑıÐºÐ¾Ð² Ñĥ
ĠÑĤÑĥÐ¿ Ð¾
ĠÐ¢Ð°Ð³Ð°Ð½ÑĢÐ¾Ð³ Ð°
ĠÐ¿Ð¾Ð»Ð¾Ð² Ð¸Ð½Ð°
Ġ188 7
ĠÑĤÐ²Ð¾ÑĢÑĩ ÐµÑģÑĤÐ²Ð¾
ĠÐ¼Ð¾ÑģÑĤ Ð°
ĠÐ·Ð¾Ð»Ð¾ÑĤ ÑĭÐµ
ĠÐ¸Ð·Ð²Ð¾Ð·ÑĩÐ¸Ðº Ðµ
ĠÐ·ÐµÑĢÐº Ð°Ð»Ðµ
ĠÑģÑĤÑĢÐ°ÑģÑĤ Ð½Ð¾
ĠÑģÑĤÑĢÐ°ÑģÑĤ Ð½Ð¾Ð¹
ĠÑĩÐ°ÑģÑĤ ÑĭÐµ
ĠÑģÐ¾Ñħ ÑĢÐ°Ð½Ð¸
ĠÐ»Ð°Ð´ Ð¾Ð½
ĠÐ»Ð°Ð´ Ð¾Ð½Ð¸
ĠÐ·Ð°Ð±Ñĭ Ð»Ð°
ĠÐ¿Ð¾ÑĨÐµÐ» ÑĥÐ¹
ĠÑħÐ¾Ð·ÑıÐ¹ ÐºÐ°
ĠÑģÑħÐ¾Ð´ ÑģÑĤÐ²Ð¾
ĠÑĥÑģÐ»ÑĭÑĪ Ð°ÑĤÑĮ
ĠÑģÑĥÐ´Ð° ÑĢÑĭÐ½Ñı
ĠÑĤÐ°Ð½ ÐµÑĨ
ĠÑĤÐ°Ð½ ÑĨÑĥ
ĠÑĪÐµÑģÑĤÑĮ Ð´ÐµÑģÑıÑĤ
ĠÐ¿Ð¾ÑģÐ¿ ÐµÑĪ
ĠÐ´Ð²Ð¸Ð¶ÐµÐ½Ð¸Ñı Ð¼Ð¸
ĠÐ´ÐµÑģÑıÑĤ ÐºÐ¸
Ġ189 2
ĠÐºÐ¾Ð»Ð¾ÐºÐ¾Ð»ÑĮ Ð½Ð¸
ĠÐŁÐ¾Ð¹Ð´ÐµÐ¼ ÑĤÐµ
ÐµÐ¾Ð´ Ð¾Ð»
ĠÑģÐ¾Ð¿ ÑĢÐ¾Ð²
ĠÐĽÐµÐ¹ ÐºÐ¸Ð½
ĠÐ¿ÑĢÐ¾ÑģÑĤÑĢÐ°Ð½ ÑģÑĤÐ²Ðµ
ĠÑħÑĥÐ´Ð¾Ð¶ÐµÑģÑĤÐ² ÐµÐ½Ð½Ð¾Ð¹
ĠÐĿÐ¸ÐºÐ¾Ð»Ð°ÐµÐ²Ð¸Ñĩ Ð°
ĠÑģÑĤÐ°ÑĤÑĮ Ð¸
ĠÐ¿ÑĢÐµÐ´ÑģÑĤÐ°Ð²Ð»ÑıÐ» Ð¾ÑģÑĮ
ĠÑĩÐµÑħÐ¾Ð² ÑģÐºÐ¾Ð¹
ĠÐ¼Ð¾Ð³Ð¸Ð» Ñĥ
ĠÐĲÐ»ÐµÑĪ Ðµ
ĠÐ¾Ð±ÐµÑī Ð°Ð»
ĠÐ¸Ð·Ð´Ð° Ð½Ð¸Ðµ
ĠÐ¸Ð·Ð´Ð° Ð½Ð¸Ñı
ĠÐ½Ñĭ Ð½Ðµ
Ð§Ð°Ð¹ ÐºÐ°
ĠÐ¿ÐµÑĢÐµÑĪ ÐµÐ»
ÐķÐ¶ Ð¾Ð²Ð°
ĠÑģÐ²Ð¸Ð½ ÑĮÑı
ĠÑģÐºÐ²ÐµÑĢ Ð½Ð°Ñı
ĠÑĥÐ¼Ð¸ÑĢ Ð°ÑĤÑĮ
ĠÐ¿ÑĤÐ¸ ÑĨÐ°
Ð²Ð¾Ð»ÑĮ ÑĤÐµ
ĠÑģÐ¾Ð»Ð½ÐµÑĩ Ð½ÑĭÐ¹
ĠÑįÐºÐ· ÐµÐ¼
ĠÐ±ÑĥÐºÐ² Ñĭ
ĠÐ²Ð¾ÑĪ ÐµÐ´
ĠÐ¿Ð¾ÐºÐ»Ð¾Ð½ Ð¸Ð»ÑģÑı
ĠÐºÐ»ÐµÑĤ ÐºÐ¸
ĠÐ¡ÑĤÐ°ÑĢ Ð¸Ðº
ĠÐ¸Ð·Ð²Ð¸Ð½ Ð¸ÑĤÐµ
ĠÑĤÑĢÐµÐ²Ð¾Ð¶ Ð½Ð¾Ðµ
ĠÐ½ÐµÑģÐ» Ð¸ÑģÑĮ
ĠÑĢÐ° ÑģÑĤÑĢ
ĠÑĢÐ°ÑģÑģÑĤ Ð¸Ð»
ĠÑĢÐ°ÑģÑģÑĤ Ð°ÑĤÑĮÑģÑı
ĠÐºÐ°ÑĢÑĤÐ¸ Ð½Ð°
ĠÑģÑĤÑĭÐ´ Ð»Ð¸Ð²Ð¾
ĠÐĵÐ» ÑĥÐ¿
ĠÐ¤Ð¸Ð»Ð¸Ð¿Ð¿ Ð¾Ð²
ĠÐ´ÑĢÐ°Ð¼ Ñĭ
ĠÐĶÐ°Ð² Ð°Ð¹
ĠÐĴÑĭÑģ Ð¾ÐºÐ¸Ð¹
ÐŃ ÑĤÐ¾
ĠÐ¿ÑĢÐµÐ» ÐµÑģÑĤ
ĠÐ¸Ð¼Ð¿ ÐµÑĢÐ°ÑĤÐ¾ÑĢ
ÐŀÑģÐº Ð¾Ð»ÐºÐ¾Ð²
ĠÐ¿Ð° ÑĥÑĤ
ĠÐĿÐµÑģ Ð¼Ð¾ÑĤÑĢÑı
ĠÐ¿ÑĢÐ¾ÐºÑĥÑĢ Ð¾ÑĢ
ĠÐ¿Ð¾ÑĨÐµÐ»Ñĥ Ð¸
ĠÐŁÑĢÐ¾ÑģÑĤ Ð¸ÑĤÐµ
ĠÐ·Ð°Ð´Ð°Ñĩ Ð¸
ĠÐ¿Ð»Ð°ÑĤÑĦÐ¾ÑĢ Ð¼Ñĭ
ĠÑĪÐº Ð¾Ð»
ĠÑĢÐ°ÑģÑģÐµ ÑıÐ½
ĠÑģÑĤÐ°ÑĢÑĥÑħ Ð°
ÐŁÐµÑĤ ÐµÑĢÐ±ÑĥÑĢÐ³
ĠÐ¿ÑĢÐ¾Ð½ÐµÑģ ÑģÑı
ĠÑįÐ»ÐµÐºÑĤÑĢ Ð¸Ñĩ
ĠÐ¿Ð¾ÐºÑĢÐ¾Ð² Ð¸ÑĤÐµÐ»ÑĮ
ĠÐ¿ÑĢÐ¾ÑĨ ÐµÑģÑģ
ĠÐ±Ð¾ÑĢÐ¼ Ð¾ÑĤÐ°Ð»
ĠÐļÑĢÑĭÐ¼ Ñĥ
ĠÑģÐºÐ°ÑĤ ÐµÑĢ
ĠÐķÐ´ Ð²Ð°
ĠÐ°ÐºÐºÑĥ ÑĢÐ°ÑĤÐ½Ð¾
ĠÐ²ÐµÑģÑĤ Ð½Ð¸ÐºÐµ
ĠÐ¼ÑĢ Ð°ÐºÐ°
ĠÑĢÐµÐ¼ ÐµÑģ
ĠÐļÐ½ Ð¸Ð³
ĠÐĶÑĥÑĢ Ð°Ðº
ĠÐ²Ð¾Ð»Ð½Ð¾Ð² Ð°Ð»ÑģÑı
ĠÐ¾ÑĤÐºÑĢÐ¾Ð² ÐµÐ½Ð½Ð¾
ĠÐ¢Ð¾Ð²Ð°ÑĢÐ¸Ñī Ð¸
ĠÐ¿Ð¾Ð¿ÑĢÐ¾Ð± Ð¾Ð²Ð°Ð»
ĠÑįÐ¿Ð¸Ð· Ð¾Ð´
ĠÐ¿Ð°Ðº ÐµÑĤ
ĠÐµÐ² ÑĢÐµÐ¹
ĠÑĥÑĩÐ¸Ð»Ð¸ ÑīÐµ
ĠÐ¡ÐµÐ½Ð¸ÑģÑĤ Ðµ
ĠÐ±Ð¾ÑĤ Ð¸Ð½ÐºÐ¸
ĠÑĨÑĭÐ³ Ð°Ð½
ĠÐ±ÐµÑģÑĤ Ð¾Ð»ÐºÐ¾Ð²
ĠÑĩÑĥÐ³ ÑĥÐ½
ĠÐĲÑĢÐ¸ÑģÑĤ Ð°ÑĢÑħÐ¾Ð²Ð¸Ñĩ
ĠÐĲÑĦÐ¾Ð½ Ðµ
ĠÐµÐ¶ÐµÐ´ Ð½ÐµÐ²Ð½Ð¾
ĠÑģÐ°Ð½ÑĤ ÑĥÑĢ
ĠÐ¼ÑĥÐ½ Ð´
ĠÐĽÐµ Ð¾Ð½
ĠÐ²ÐµÐ»Ð¾Ñģ Ð¸Ð¿ÐµÐ´
ĠÐĲÐ»ÐµÐºÑģÐ°Ð½Ð´ ÑĢÐ°
ĠÐļÐ°ÑĢÑĥ ÐµÐ²
ĠÐ½Ð¸Ð³ Ð´Ðµ
ĠÐĽÐ¸Ð½ÑĤ Ð²Ð°ÑĢ
3 5
Ġ N
Ð¾ ÑıÑĤ
Ðµ ÐµÐº
Ð¸ ÑģÑı
Ð¸ ÑĨÐµ
Ñģ Ð¾Ð²
Ñģ ÐµÐ´
Ñģ Ð²Ð¾
Ð» Ð°Ð½
Ð» ÑĥÐºÐ¸
ÑĢ ÐµÐ»
ÑĢ Ð¸Ñı
ÑĢ ÐµÐ¶Ð½Ð¾
Ñĥ Ð½Ñĭ
Ñĥ ÐºÐµ
Ñı ÑĢ
Ñı Ð½Ð¾Ð¹
Ñı ÑİÑĤÑģÑı
Ñı Ð½Ð¸Ð½
ĠÑģ ÑĥÑĩ
ĠÑģ Ð¸ÑģÑĤ
ĠÑģ ÑĭÑĤ
ĠÑģ Ð½Ð¾Ñģ
ĠÑģ Ð°ÑĤÐ°
ĠÐ¿ Ñĥ
ĠÐ¿ ÐµÑģÐº
ĠÐ¿ ÑĭÐ»
ĠÐ½ Ð¾Ð³Ð¾Ñİ
ĠÐ½ ÐµÑĢÐµÐ´ÐºÐ¾
Ñĩ ÐµÐ»Ð¾Ð²
Ðº Ð°Ðº
ĠÐ² Ð°ÑĤ
ĠÐ² Ð¾Ð»ÑĮ
ĠÐ² ÐµÑıÐ»Ð¾
ĠÐ² ÑĩÐµÑĢÐ°ÑĪ
ĠÐ¸ Ð»
ĠÐ¸ Ð½Ð¾Ð³Ð¾
Ð² Ð¾Ðº
Ð² Ð¾Ðµ
Ð² Ð¾Ð±Ð¾Ð´
Ð´ Ð¾Ð½
Ð¼ ÐµÐ¹
ĠÐº Ð»ÑıÑĤ
Ð¾Ð² ÑĮ
ÑĪ Ð¸ÑħÑģÑı
ÑģÑĤ ÑıÑħ
ÐµÐ½ Ð°Ð²
ÐµÐ½ ÐµÐ³
ÐµÐ½ Ð½ÐµÐµ
ĠÐ± Ð¸Ð»Ð°
ĠÐ± ÐµÐ»Ð¾
ĠÐ± ÑĥÐ¹
ĠÐ± ÑĥÐ½
ĠÐ± ÑĥÐ³Ð¾
ĠÑĤ Ð°Ð³Ð°Ð½ÑĢÐ¾Ð³
ĠÐ´ Ð½Ð°
ĠÐ´ Ð½Ðµ
ĠÐ´ Ð°Ð¹ÑĤÐµ
ĠÐ´ Ð¸ÑģÐº
ĠÐ´ ÑĥÑĢÐ°
ÐµÑĢ Ð¸Ð½Ð°
ĠÐ¼ Ð°
ĠÐ¼ Ð°Ð¹
ĠÐ¼ ÐµÐ·Ð¾Ð½
Ñİ Ð¶
ĠÑĩ Ð°Ñı
ĠÐ· Ð»Ð°
ĠÐ· Ð¾Ð½ÑĤ
ĠÐ¿ÑĢ ÐµÑĤ
ĠÐ¿ÑĢ ÐµÐ±
ĠÐ¿ÑĢ ÑĥÑĤ
Ð¾Ð´ ÐµÑĤÐµÐ»ÑĮ
ĠÐ½Ðµ Ð¸Ñģ
ĠÐ½Ðµ Ð¸Ð½ÑĤÐµÑĢÐµÑģ
ĠÐ½Ðµ ÑĥÐ²ÐµÑĢ
Ð°ÑĤ Ð¸Ð»
Ð°ÑĤ ÐºÐ¸
Ð°ÑĤ Ð½ÑĥÐ»ÑģÑı
ĠÑĢ Ð²
ĠÑĢ Ð¸ÑĤ
ĠÑĢ Ð¶
ĠÑĢ ÑĤÑĥ
Ð¸ÑĤ ÐµÑĤ
Ð¸ÑĤ Ð¾Ð½
Ð¸ÑĤ Ð°ÑĤÑĮ
ĠÐ³ Ð»Ñı
ĠÐ½Ð° ÑīÑĥÐ¿
ÐµÐ¼ Ð°ÑĤ
Ð¾ÑĢ Ð°Ð²Ð»Ð¸Ð²
Ð°Ð² Ð°Ð»Ð¾
Ñī Ð¸ÑħÑģÑı
ĠÑĥ Ð½
ĠÑĥ ÑĢÐ¾Ð´
ĠÑĥ Ð½ÐµÑģ
ĠÑĥ ÐµÐ´Ð¸Ð½
ĠÑĥ ÐµÑħÐ°Ð»Ð¸
ĠÑĥ ÐµÑħÐ°ÑĤÑĮ
ĠÑĥ ÐºÑĢÐ°Ð´
ĠÐ» Ð°Ð·
ÑĨ Ð¾
ÑĨ ÐµÐ»
ÑĨ Ð¸ÑıÑħ
Ð± ÑĥÐ·
Ð¸Ð² Ð¾Ð¹
Ð¸Ð² ÑĪÐµÐµ
ĠÐ¶ Ð°Ð»Ð¾
ĠÐ¾ÑĤ Ð¼Ð°Ñħ
Ð°Ð½ Ð³
Ð°Ð½ ÐºÑĥ
ĠÑģÑĤ Ð°ÐºÐ°
Ð¸Ð¼ Ñĭ
Ð¸Ð¼ Ð¾Ð²
Ð´Ð° ÐµÑĤÑģÑı
ĠÐŁ Ð¾Ð²
ĠÐŁ Ð¾ÐºÐ¾Ð¹
ĠÐŁ ÑĥÑģÑĤÐ¸
ĠÐŁ ÑĥÑģÑĤÐ¾ÑĪ
Ð°Ð´ ÐµÐ¼
Ð°Ð´ Ð°Ð»Ð°
ĠÐĿ ÐµÐ±
Ð³ Ð¾Ð½
ÑĤÐ¾ÑĢ Ð¾Ð¼
Ð¾Ð± Ð½Ð¾ÑģÑĤÐ¸
ĠÐ¿Ð¾ ÐµÑħÐ°ÑĤÑĮ
Ð¾Ð¶ Ð¸
ĠÐĴ Ð·Ð´
ĠÐĴ ÑģÐµÐ³Ð´Ð°
ĠÐĴ Ð¾Ð·Ð¼Ð¾Ð¶Ð½Ð¾
Ð¸Ñĩ Ð°
Ð¸Ñĩ Ð½ÐµÐ²
Ð½Ñĥ ÑĤÑĭ
ĠÐĺ Ð¼
ĠÐĺ Ð³
ĠÑħ Ð¾ÑĢÐ¾Ð½
ÑģÑĤÐ² ÑĥÑİÑĤ
ĠÐ²Ñĭ Ð½Ð¸Ð¼
ĠÐ²Ñĭ ÑĢÐµÐ·
ĠÐ²Ñĭ Ð³Ð½
ĠÐ²Ñĭ Ð¸Ð³ÑĢ
Ð»Ð¸ Ð½Ñĭ
ÐºÐ° ÑİÑĤ
Ð»Ñı Ñİ
ÐµÐº Ñĥ
ÐµÐº Ð¾Ð²
ÐµÐº Ð»Ð¸
ÐµÐº Ð»Ð°
ĠÐĲ ÑģÑĤÐ°
Ð¶ ÐµÐ»
ÐµÑĩ ÐºÑĥ
ĠÐ¾Ð± Ð¾Ð´
ĠÐ¾Ð± Ð°Ñı
ĠÐ¾Ð± ÑĤÑı
Ð¾Ð· Ð´Ð°Ð»
ÐµÐ¿ ÑĢÐ¸Ð¸Ð¼
ĠÐ¡ ÑĢÐ°Ð·Ñĥ
ĠÐ¡ Ð°Ð¼Ð°
ĠÐ¡ Ð²Ð¾
ĠÐ¡ ÑĤÐ¾Ð¸ÑĤ
ĠÑģÐ» ÑĭÑħ
ÐµÐ± Ð½ÑĭÐ¹
ÐµÐ± Ð»Ð°Ð³
ĠÐŀ Ñħ
ĠÐºÐ¾ Ñĩ
ĠÐºÐ¾ ÑĤÐ¾
ÐµÐ½ÑĮ Ñı
ÐµÐ½ÑĮ ÐºÐ¾
ĠÐ¿Ð¾Ð´ ÐµÑĢÐ³
ĠÐ¿Ð¾Ð´ ÑĢÑĥÐ³
ĠÐ¿Ð¾Ð´ Ð¾Ð¶Ð´
ĠÐ¿Ð¾Ð´ ÑĥÑĪÐºÑĥ
Ð¸Ð· Ð¼Ð°
ĠÑģÐº ÑĥÐºÐ¸
ĠÑģÐº ÑĥÐºÑĥ
ĠÑģÐº Ð°Ð½Ð´Ð°Ð»
ĠÐºÑĢ ÑĭÐ»ÑĮ
ĠÐºÑĢ ÑĭÑĪÐµ
ÑĥÑĤ ÑĢÐ¾
ĠÐļ ÑĥÐ·
ĠÐļ Ð°Ð²ÐºÐ°Ð·
ĠÑĢÐ°Ð· Ð¾Ñĩ
ĠÐ§ ÑĥÐ²ÑģÑĤÐ²
ĠÐ¢ Ð°Ð»
ĠÐ¢ Ð°ÑĢ
ĠÐ¢ Ð²Ð¾ÑĢ
ĠÐľ Ð¾
ĠÐľ ÐµÐ»ÑĮ
ĠÐľ Ð¸ÑĪÐµ
ĠÐľ Ð°Ð»ÑĮÑĩÐ¸Ðº
ÑĥÐ¼ Ð°Ð½
ÑĥÑĩ Ð¸ÑĤÑĮ
Ð¾Ð¿ Ñĩ
Ð¾Ð¿ ÑĢÐ¸ÑıÑĤ
ĠÑįÑĤ Ð°Ð¶Ð°
Ð¾Ñĩ Ð¸ÑĤ
ĠÑĪ Ð°Ð±
ĠÑĪ ÐµÑĢÑĪ
ĠÑĪ Ð»ÐµÐ¿
ĠÑģÐ¼ Ð¾ÑĤ
ĠÑģÐ¼ Ð¾Ð»Ðº
ĠÐ¿ÐµÑĢ ÐµÐ¹
ÑĥÐ± Ð¸Ð¹
ĠÑģÐ¿ ÑıÑĤ
ĠÑģÐ¿ Ð°Ð»Ð°
ĠÑģÐ¿ Ð¾ÐºÐ¾ÐµÐ½
Ð¸ÑĢ ÐµÐ½
Ð¸ÑĢ Ð°Ð»Ð°
Ð¾ÑĪ ÐµÐ½
Ð°Ñİ ÑīÐµ
Ð°Ð»ÑĮ Ð½Ð¾ÑģÑĤÐ¸
ĠÑĢÐ°Ñģ ÐºÐ°Ñı
ĠÐ³ÑĢ ÑĥÐ¿Ð¿
ĠÐ¿Ð¾Ð» Ð¸ÑĤ
ĠÐ¿Ð¾Ð» Ð½ÑĥÑİ
ĠÐ³Ð¾Ð» ÑĭÐ¼Ð¸
ĠÐ¿ÑĢÐ¸ ÐµÐ·Ð´
ĠÑģÐ°Ð¼ Ð¾Ð´
ĠÑģÐ°Ð¼ Ð¾ÑģÑĤÐ¾ÑıÑĤÐµÐ»ÑĮ
ĠÑĤÑĢ ÑıÑģ
ĠÐ±Ð¾Ð»ÑĮ Ð½Ð°
ĠÐ±Ð¾Ð»ÑĮ Ð½Ð¸ÑĨÑĥ
ĠÐ¿Ð¾Ðº Ð°Ð¶Ñĥ
ĠÐ³Ð¾Ð²Ð¾ÑĢ Ð¸
ĠÐ²Ð¸Ð´ Ð½Ð°
ĠÐ²Ð¸Ð´ Ð½ÐµÐ»
ĠÐ²Ð· ÑıÐ»Ð¸
ĠÐ³Ð¾ÑĢ ÐµÐ¼
ĠÐ³Ð¾ÑĢ ÐµÑĩ
ĠÐ³Ð¾ÑĢ Ð´ÐµÐ»
ĠÐķ Ð»ÐµÐ½Ð°
ĠÐĳ ÑĢ
ĠÐ±ÐµÐ· Ñĥ
ĠÐ¾Ñĩ Ð°ÑĢ
ÑĦ ÐµÐ½ÑĤÑĮ
ÐºÐ¾Ð² ÑģÐºÐ¸Ð¹
Ð°Ð½Ð¸ ÐµÐ¹
ÑĢÐ¾Ñģ Ð¸Ð»Ð°
ĠÐ¼Ð¾Ð» Ð¸ÑĤÑĮÑģÑı
ÑģÐ¿ ÐµÐº
ĠÐ½Ð°Ð´ Ðµ
ĠÐ¿Ð¾ÑĤ ÑıÐ½ÑĥÐ»
ĠÐ¾Ðº ÑĢÐ°
ĠÐ¾Ðº ÑĥÑĤ
ĠÐ¾Ðº ÑĢÐµÑģÑĤ
ĠÐ¾Ð¿ ÐµÑĢ
ĠÐ¾Ð¿ ÐµÑĢÑĪ
Ð¸ÑĪ Ð½ÐµÐ²
ĠÐ¿ÑĢÐ¾ ÑīÐµ
ÑĢÐ°Ð² Ð¾
ĠÐ²ÐµÑģ Ð½Ð¾Ð¹
ĠÐĽ ÑĥÑĩÑĪÐµ
ĠÑĥÐ¼ Ð½ÑĭÐ¼
ĠÑĥÐ¼ ÐµÐ»Ð°
ĠÑĥÐ¼ ÑĢÑĥ
ĠÐĹ Ð°Ð¼
ĠÐ¿Ð¾Ñĩ ÑĥÐ´
Ð°ÑĤÐµÐ»ÑĮ Ð½Ð¾Ð¹
ĠÐ½ÐµÐ¿ Ð¾ÐºÐ¾Ð»
ĠÐ£ Ð´Ð¸Ð²
ĠÐºÐ¾Ð½ ÑĤÑĢ
ĠÐºÐ¾Ð½ ÑĩÐ¸Ðº
ĠÐ±ÐµÑģ ÐµÐ´Ñĥ
Ð»ÑıÐ´ ÐµÐ»ÑģÑı
ĠÐ´Ð¾Ð¼ Ð°Ð¼Ð¸
ĠÐ´Ð¾Ð¼ Ð°Ñħ
ĠÑģÑĤÐ°ÑĢ ÑĭÐ¼
ĠÑģÑĤÐ°ÑĢ Ð¾Ðµ
ĠÑģÑĤÐ°ÑĢ ÑĩÐµÑģÐº
ĠÐŁÐµÑĤ Ñı
ÑģÐ» ÑĥÐ¶
Ð¸ÑĤÐµÐ»ÑĮÐ½Ð¾ ÑģÑĤÐ¸
ĠÐł Ð°ÑģÑģ
ĠÐŃ ÑĤÐ¾Ð³Ð¾
ĠÐŁÑĢ Ð¸Ð²
ĠÐŁÑĢ Ð¾ÑĤÐ¸Ð²
ĠÐŁÑĢ Ð¾ÑĪÑĥ
ĠÐ²ÐµÑĢ Ñĭ
ĠÐ²ÐµÑĢ Ð½ÐµÐµ
ĠÐ½ÐµÐ¼ Ð½Ð¾Ð¶ÐºÐ¾
ĠÐ¿Ð¾Ð² Ð¸Ð´
ĠÐ¿Ð¾Ð² ÐµÑģÑĤ
Ð»ÐµÐ½ Ð½ÑĥÑİ
Ð¸Ð¿ Ð°Ð»Ð¸
ĠÐ¿Ð¾ÑĢ Ð¾Ð³Ðµ
ĠÐºÑĢÐ°Ñģ Ð½Ð¾Ð³Ð¾
ĠÐºÑĢÐ°Ñģ Ð½Ð°Ñı
ĠÐºÑĢÐ°Ñģ Ð½Ð¾Ð¼
ĠÐºÑĢÐ°Ñģ Ð½ÐµÐ»
ĠÐ±Ð¾Ð»ÑĮÑĪ Ð¸Ð½
ĠÐ¿Ð¾Ð¿ Ñĥ
ĠÐ·Ð°Ð¼ ÐµÐ´
ĠÐ·Ð°Ð¼ Ð¾Ð»Ñĩ
ĠÐ²Ð¾Ð» Ð½Ð¾Ð¹
ĠÑĩÑĥÐ²ÑģÑĤÐ² ÑĥÐµÑĤÑģÑı
ĠÑģÐ½ ÑıÑĤ
ĠÐ½Ð°Ñģ ÑĩÐµÑĤ
ĠÐ·Ð°Ðº ÑĢÑĭÐ²Ð°Ð»
ĠÐ¾ÑĤÐ²ÐµÑĤ Ð¸ÑĤÑĮ
Ð°ÑİÑī ÑĥÑİ
Ð°ÑİÑī ÐµÐ³Ð¾ÑģÑı
ĠÐ¢Ð°Ðº Ð¸Ðµ
ĠÐ¢Ð°Ðº Ð¾Ðµ
ĠÐ¿ÑĢÐ¾Ñģ Ð¸Ð»Ð¸
ĠÐ¿ÑĢÐ¾Ñģ Ð²ÐµÑĤ
ĠÑĢÐ°Ð´ Ð°
ĠÑĢÐ°Ð´ ÑĥÑıÑģÑĮ
ĠÑģÐ»Ð¾Ð² Ðµ
ĠÑĥÐ³ Ð¾Ð²Ð¾ÑĢ
ĠÐ¸Ð½ ÑģÑĤÑĢ
ÑĥÑī Ð¸Ð¼
ĠÐ¾ÑĤÐº ÑĢÑĭÐ²Ð°Ð»
ÐŁ Ð»ÐµÑīÐµ
ĠÐ¶ÐµÐ» ÑĥÐ´
ĠÐ¶ÐµÐ» Ð°Ð½Ð¸ÐµÐ¼
Ð»Ð°Ð´ ÑĭÐ²Ð°Ð»
ĠÐ·Ð°Ð± Ð¾ÑĢ
ĠÐ´ÐµÐ½ÑĮ Ð³Ð°Ð¼Ð¸
ĠÐºÐ¾ÑĢ Ð¸ÑĩÐ½ÐµÐ²
ĠÐ¥ Ð¾Ð»Ð¾Ð´
ĠÐ¥ Ð¾ÑĤÐµÐ»
ĠÐ½ÑĥÐ¶ Ð´
ĠÐ½Ð°Ð· Ð¾Ð¹
ĠÐ²ÑĭÑģ Ð¾ÑĤÑĭ
ĠÐ·Ð°Ð² ÑĤÑĢÐ°Ðº
ĠÐ¼Ð°Ð»ÐµÐ½ÑĮÐº Ð¾Ð¼
ĠÐ²ÑģÑı ÐºÐ¸Ðµ
ĠÐ¸ÑģÐ¿ Ð¾Ð»
ĠÑħÐ¾Ð»Ð¾Ð´ Ð½ÑĭÐµ
ĠÐ¼Ð¾Ð»Ñĩ Ð¸ÑĤ
ĠÐ¼Ð¾Ð»Ñĩ Ð°Ð½Ð¸Ð¸
ĠÐŀÑĤ Ð·
ĠÐ·Ð°Ð³ ÑĢ
ĠÐ·Ð°Ð³ Ð»ÑĥÑĪ
ĠÐ·Ð°Ð³ Ð»ÑıÐ´ÑĭÐ²Ð°Ð»
ĠÐ²ÑģÑĤÑĢ ÐµÐ²Ð¾Ð¶
ÑİÑī Ð¸Ð¼Ð¸
ĠÑĢÐµÑĪ Ð¸ÑĤÑĮ
ĠÑĢÐµÑĪ Ð¸Ð»Ð¸
ĠÐ¿Ð¾Ð¶ Ð°ÑĤ
ĠÐ¿Ð¾Ð¶ Ð°Ð»Ð°
ĠÑĥÑģ Ð¾Ð²
ĠÑĥÑģ ÐµÑĢÐ´Ð½Ð¾
Ð»ÑıÐ» Ð¾ÑģÑĮ
ĠÐ¿ÐµÑĩ ÐºÐ¸
Ð°ÑĤÐµÐ» ÑıÐ¼
ĠÐ¿ÑĥÑģÑĤ Ð°Ñı
ĠÐ±ÐµÑģÐ¿ ÑĢÐµÐ´
ĠÐ¼Ð¸Ð» Ð¾ÑģÑĤ
ĠÑĥÐ²Ð¸Ð´ ÐµÐ²
ĠÑĥÐ²Ð¸Ð´ ÐµÐ»Ð¸
ĠÑĢÐ°Ð² Ð½Ð¾Ð¼
ĠÑģÐ»ÑĭÑĪ Ð°Ð»ÑģÑı
ĠÑĢÐ°Ð·Ð² Ð¸ÑĤ
ĠÑĢÐ°Ð·Ð² ÐµÑģÐµÐ»
ĠÐºÐ½Ð¸Ð³ Ð°Ð¼Ð¸
ĠÐ¼ÐµÐ´ Ð½ÑĭÐµ
ĠÐ¾ÑģÐ¾Ð± ÐµÐ½Ð½Ð¾Ðµ
ÐµÐ²ÑĪ Ð°Ñı
ĠÐ·Ð½Ð°ÐºÐ¾Ð¼ ÑĭÐ¼Ð¸
ĠÐ¼Ð¾ÑĢ Ð³
ĠÑĥÐ´Ð¸Ð² Ð»ÐµÐ½
ĠÑģÐ¿Ð¾ÐºÐ¾Ð¹ Ð½ÑĭÐ¼
ĠÐ¿ÑĢÐ¸ÑħÐ¾Ð´ Ð¸Ð»Ð¾
ĠÑĨÐµÐ» ÑĥÑı
ĠÐ´Ð¾ÐºÑĤÐ¾ÑĢ Ð¾Ð¼
ĠÐ½Ð°Ð² ÐµÐºÐ¸
ĠÐ´Ð¾Ð±ÑĢ ÑĭÐ¼
ĠÐ´Ð¾Ð±ÑĢ Ð¾Ðµ
ĠÑĥÑģÑĤ Ð°Ð»Ð¸
ĠÐ¸Ñģ ÑħÐ¾Ð´
ĠÑģÐ¸Ð»ÑĮ Ð½ÑĭÐ¼
ĠÑģÐ¸Ð»ÑĮ Ð½Ð¾Ð³Ð¾
ĠÑģÐ¸Ð»ÑĮ Ð½ÑĭÐ¼Ð¸
ĠÐ±ÑĭÐ² Ð°ÑĤÑĮ
ĠÑĥÑĤ Ð¾Ð¿
ĠÑĥÑģÐ¿ ÐµÐ»Ð¸
ĠÑĢÐ°ÑģÐ¿ Ð¸Ñģ
ĠÑĢÐ°ÑģÐ¿ ÑĥÑī
ĠÐ¿Ð°ÑĢ Ð°
ĠÐ¿Ð°ÑĢ Ðº
ÐµÐ·Ð´ Ð¾
ĠÐ²ÐµÑģÐµÐ» Ð°Ñı
ĠÐ±Ð¾ÑĢ Ð¾Ð´Ð°
ĠÐ¼Ð½ ÐµÐ½Ð¸Ñİ
ĠÐ·Ð°ÑĤ Ð¾Ð¿
ĠÑĢÐ¾Ð´ Ðµ
ĠÐ´ÐµÑĢÐµÐ² Ð°
ĠÐ´ÐµÑĢÐµÐ² ÐµÐ½
ĠÐ´ÐµÑĢÐµÐ² Ð½Ð¸
ĠÑĤÐ¾Ð½ ÐºÑĥÑİ
ĠÐ³ÑĢÑıÐ· Ð½ÑĭÑħ
ÑĢÑĥÐ¶ Ð¸
ĠÐ¿Ð¾Ð´ÑĥÐ¼ Ð°Ð¹
ĠÐ²Ð½Ð¸Ð¼ Ð°Ð½Ð¸ÐµÐ¼
ĠÑģÐµÐ¼ ÑĮÑİ
ĠÑıÐ² Ð½Ð¾
ĠÐ¿ÑĢÐ¸Ð´ Ñĥ
ĠÐ²Ð¾ÑģÐ¿ Ð¾Ð»ÑĮÐ·
ĠÐ»Ð¸ÑĤÐµÑĢÐ°ÑĤÑĥÑĢ Ñĥ
ĠÐĸ Ð¸Ð·Ð½ÑĮ
ÐºÑĢ ÐµÐ¿
ĠÑĩÑĥÐ¶ Ð°Ñı
ĠÑĩÑĥÐ¶ Ð¸Ñħ
ĠÑĩÑĥÐ¶ Ð´Ñĭ
ĠÑģÐ²Ð¾Ð¹ ÑģÑĤÐ²
ĠÐ½ÐµÐ¶ Ð½ÑĭÐ¼
ĠÐĺÐ· Ð´
ĠÐĺÐ· Ð²ÐµÑģÑĤ
ÑĥÑİÑī ÐµÐ¹
ĠÐ²ÑģÑĤÑĢÐµÑĩ Ð°Ð»Ð¸ÑģÑĮ
ĠÐ¿ÑĢÐ¸Ðº Ð¾Ñģ
ĠÐ½ÐµÐ¿ÑĢ ÐµÑģÑĤ
ĠÐ²Ð·Ð³Ð»Ñı Ð´Ðµ
Ð°ÑĢÐ° Ñī
Ð§ ÑĤÐ¾
Ð§ ÐķÐ¥ÐŀÐĴ
Ð½ÑĥÐ²ÑĪ ÑĥÑİ
ĠÑģÐ»Ð°Ð± Ð¾ÑģÑĤÐ¸
ĠÐ±ÑĢÐ¾Ñģ Ð°Ð»
ĠÐ¼ÐµÑģÑĤ Ð°Ñħ
ĠÐ½Ð°ÑħÐ¾Ð´ Ð¸Ð»Ð¸
ĠÐºÑĢÑĥÐ³ Ð»ÑĭÐ¹
ĠÐ¿Ð¾Ð»Ð¾Ð¶ Ð¸Ð²
ĠÑģÐ¼ÐµÑĪ Ð½Ð¾Ðµ
ĠÐĺÐ²Ð°Ð½Ð¾Ð²Ð¸Ñĩ Ñĥ
ĠÐ¿ÑĢÐ¾Ð² Ð¾Ð´Ð¸ÑĤÑĮ
ĠÐ¿ÑĮÑı Ð½Ð¸ÑĨÐ°
ĠÐ´ÐµÑĢÐ¶ Ð¸ÑĤ
ĠÐ¿ÐµÑĩÐ°Ð»ÑĮ Ð½ÑĭÐµ
ĠÑĩÐ¸ÑģÑĤ Ð¾Ð³Ð¾
Ð¸ÑģÐº Ðµ
ĠÑģÑĥÐ´ ÐµÐ¹
ĠÐ·Ð°Ð» Ñĥ
ĠÐ¿ÑĢÐµÐºÑĢÐ°Ñģ Ð½ÑĭÐµ
ĠÐ¡Ðº Ð¾ÑĢ
ĠÐ¡Ðº Ð°Ð·Ð°Ð»
ĠÐ´Ð²Ð¸Ð¶ ÑĥÑī
ĠÐ´Ð²Ð¸Ð¶ ÐµÐ½Ð¸Ð¸
ĠÐ±Ð¾Ð³ Ð°
ĠÐ¿Ð¾Ð´Ð½Ð¸Ð¼ Ð°Ð»Ð°ÑģÑĮ
ĠÐĳÑĭ ÑģÑĤÑĢÐ¾
ĠÐ½Ð°ÑĩÐ¸Ð½ Ð°Ð»Ð°
ĠÐ½Ð°ÑĩÐ¸Ð½ Ð°Ð»Ð¾
ĠÐ¾Ð±ÑĬ ÑıÐ²
ĠÐ¼Ð¾Ð»ÑĩÐ°Ð» Ð¸Ð²Ð¾
ĠÑĥÐ´Ð°ÑĢ Ð¸Ð»Ð°
ĠÐ¾Ð±ÐµÐ´ Ð¾Ð¼
ĠÐ¾ÑģÑĤÑĢ ÑĭÐ¼Ð¸
ĠÑģÑĭ Ð¿
ĠÐ¿ÑĢÐ¾Ð¿ Ð¾Ð²ÐµÐ´
Ð¸ÑģÑĤÐ¾ Ðµ
ĠÐ¿Ð¾ÑħÐ¾Ð¶ Ð°
ĠÐ½ÐµÐ¿Ð¾Ð´Ð²Ð¸Ð¶ Ð½ÑĭÐ¹
ĠÐ¿ÑĢÐ¾Ðº Ð»Ð¸Ð½
ĠÐ½Ð°ÑĢ Ð¸Ñģ
ĠÐ¾ÑģÑĤÐ°Ð½Ð¾Ð² Ð¸Ð»Ð¸ÑģÑĮ
ĠÐ¶ÐµÐ»ÐµÐ· Ð½ÑĭÑħ
ĠÐ¶ÐµÐ»ÐµÐ· Ð½ÑĭÐ¼Ð¸
Ð¸ÑĤÐµÐ» ÑıÐ¼Ð¸
ĠÐºÐ¾ÑĢÐ¾ÑĤ ÐºÐ¸Ð¹
ĠÐºÐ¾ÑĢÐ¾ÑĤ ÐºÐ¾Ðµ
ĠÑģÐ± Ð»Ð¸Ð¶
ĠÐĲÐ½Ð´ÑĢ ÐµÐ¹
ĠÑĤÐ²ÐµÑĢÐ´ ÑĭÐµ
ĠÑĤÐµÐ¼Ð½Ð¾ ÑĤÑĥ
ĠÐ¿Ð°Ð´ Ð°ÐµÑĤ
ĠÐ°Ðº ÑĨ
ĠÐ¼ÑıÐ³ ÐºÐ¸Ðµ
ĠÐ¼ÑıÐ³ ÐºÐ¸Ð¼
ĠÐ´ÑĥÑĢ Ð½Ð¾Ð¹
ĠÐŁÐ°ÑĢ ÑĦÐµÐ½ÑĤÑĮ
ĠÑıÐ· Ð²
ĠÑĪÐ¸ÑĢÐ¾Ðº Ð¸Ð¼
ĠÑģÑĩÐ°ÑģÑĤÐ»Ð¸Ð² Ð¾Ð¹
ĠÑģÑĩÐ°ÑģÑĤÐ»Ð¸Ð² ÑĭÐ¼
ĠÐ¿ÑĢÐ¸Ð³ Ð¾Ð²Ð¾ÑĢ
ĠÑģÑĤÑĢÐ°Ð´ Ð°Ð»ÑĮ
ĠÐ²Ð°Ð¶ Ð½ÑĭÐ¹
ĠÑĥÐº Ð°Ð·Ð°Ð»
ĠÐ¾Ð±ÑĭÐºÐ½Ð¾Ð² ÐµÐ½Ð½ÑĭÐ¹
ĠÑĪÑĥÑĤ ÐºÐ°
ĠÑĪÑĥÑĤ ÐºÐ¸
ĠÑĪÑĥÑĤ Ð»Ð¸Ð²Ð¾
ĠÐ¶Ð¸Ð» ÐµÑĤ
ĠÐ¾ÑĤÐ½Ð¾ÑĪ ÐµÐ½Ð¸Ñİ
ĠÐ¾ÑĤÐ½Ð¾ÑĪ ÐµÐ½Ð¸Ð¹
ĠÐ°Ð² ÑĤÐ¾Ð¼
ĠÐ²ÑĤÐ¾ÑĢ Ð¾Ð¼
ĠÑĨÐ²ÐµÑĤ Ð¾Ð²
ĠÑĢÐ°Ð´Ð¾ÑģÑĤ Ð½ÑĭÐ¹
ĠÐ²ÑģÑĤ Ð°ÑĤÑĮ
ĠÐ²ÑģÑĤ Ð°ÑİÑĤ
ĠÐ·Ð°Ñħ Ð¾ÑħÐ¾ÑĤ
ĠÐ·Ð°Ñħ Ð»Ð¾Ð¿
ĠÑģÑĥÑīÐµÑģÑĤÐ² Ð¾Ð²Ð°Ð½Ð¸Ð¸
ĠÑĤÐ¾Ð»Ð¿ Ñĥ
ĠÐ½ÐµÑģÑĩÐ°ÑģÑĤ Ð½Ð°Ñı
ĠÐ¿ÑĢÐ¸Ð» Ð°Ñģ
ĠÐ°ÑĢ Ð±ÑĥÐ·
ĠÐºÑĢÑĥÐ¶ Ð¸Ð»Ð°ÑģÑĮ
ĠÐ³Ð¾ÑĢÐ´ Ð¾ÑģÑĤÑĮÑİ
ĠÐ´Ð¾Ð»Ð³ Ð°
ĠÐ¼ÐµÑĢ Ð·
ĠÐ·Ð°ÑģÑĤ ÐµÐ³
ĠÑĦÐ¾ÑĢ Ð¼Ñĭ
ĠÑģÐ¼ÑĥÑĤ Ð½Ð¾Ðµ
ĠÐ³Ð»Ð°Ð² Ðµ
ĠÐ·Ð²ÑĥÑĩ Ð°Ð»
ĠÐ·Ð²ÑĥÑĩ Ð¸ÑĤ
ĠÑĩÐµÑĤÐ²ÐµÑĢ ÑĤÐ¾Ð¼
ĠÑĢÐµÐ±ÐµÐ½ ÐºÐ¾Ð¼
ĠÑģÐ¾Ð» Ð¾Ð²
ĠÐ¿Ð°Ñħ Ð½Ñĥ
ĠÐ¿ÑĢÐ¸Ð¶ Ð°Ð»ÑģÑı
ĠÐ¾Ð±Ñī ÐµÐ³Ð¾
ĠÐ½ÑĢÐ°Ð² Ð¸Ð»Ð¾ÑģÑĮ
ĠĠ Ġ
ĠÑĤÐ¸ÑĪ Ð¸Ð½Ñĭ
ĠÑģÐ¾Ð±ÑģÑĤÐ² ÐµÐ½Ð½Ð¾Ð¹
ĠÐ´Ð°Ð»ÐµÐº Ð¸Ð¼
ĠÐĿÐµÐ¼ Ð¸ÑĢÐ¾Ð²Ð¸Ñĩ
ĠÑĤÐ²Ð¾ ÐµÐ¹
ĠÑĤÐ²Ð¾ Ð¸Ñħ
ĠÐ½Ð°ÑģÑĤÐ¾ÑıÑī Ð¸Ð¹
ĠÐ²Ð°Ð³Ð¾Ð½ Ñĭ
ĠÐ±ÐµÐ´ Ð½Ð¾
ĠÑģÐ¾Ð±Ð¸ÑĢ Ð°Ð»Ð°ÑģÑĮ
ĠÐ¿Ð¾ÑģÑĤÑĥÐ¿ Ð¸Ð»
ĠÐ¿Ð¾ÑģÑĤÑĥÐ¿ Ð¸ÑĤÑĮ
ĠÐ¡Ð¿ Ð°Ñģ
ĠÑĤÐµÑĤ Ñı
ÑĢÐµÐ¼ Ñı
ĠÐ½Ð°ÑģÑĤÑĢÐ¾ ÐµÐ½Ð¸Ñı
ĠÐ»Ð¸Ñĩ Ð½Ð¾ÑģÑĤÐ¸
ĠÑģÑĤÑĥÑĩ Ð°
ĠÐĿÐ¸ÐºÐ¾Ð»Ð° ÐµÐ²
ĠÐĿÐ¸ÐºÐ¾Ð»Ð° ÐµÐ²Ð½Ð°
ĠÐ¿ÐµÑĢÐµÐ² Ð¾Ð´
ĠÐ¿ÑĢÐ¸ÑıÑĤ Ð½ÑĭÐ¹
ĠÐ¿ÑĢÐ¸ÑıÑĤ Ð½ÑĭÐ¼
ĠÐ²Ð·Ð´Ð¾Ñħ Ð½ÑĥÐ»Ð°
ĠÐ¿ÑĥÐ³ Ð¾Ð²Ð¸
ĠÐĹÐ½Ð° ÐµÑĤÐµ
ĠÐļÐ°ÑĩÐµÑĢ Ð¸Ð½Ð°
ĠÑģÐ²ÐµÑĩ ÐµÐ¹
ĠÐºÑĢÑĥÐ¿ Ð½ÑĭÐ¼Ð¸
ĠÐ±Ð¾ÑĢÐ¾Ð´ Ñĭ
ĠÐ»ÐµÑģÑĤ Ð½Ð¸ÑĨÑĭ
ĠÑģÐ»Ð°Ð² Ñĭ
ĠÐ¯Ð» ÑĤÑĭ
ĠÑģÑĤÑĢÐ¾Ð³Ð¾ Ðµ
ĠÐ·Ð°ÐºÑĢÐ¸Ñĩ Ð°Ð»Ð°
ĠÐ¾ÑĤÐ½Ð¾Ñģ Ð¸ÑĤÐµÐ»ÑĮÐ½Ð¾
ĠÐ¾ÑĤÐ½Ð¾Ñģ Ð¸ÑĤÑģÑı
ĠÐŁÐ¾Ð» Ð·
Ð»Ð¸Ð· Ð¸
ĠÐ½ÐµÐ¾Ð±ÑħÐ¾Ð´ Ð¸Ð¼Ð¾ÑģÑĤÐ¸
ĠÐ·Ð°Ð½ÑıÑĤ Ð¸Ñı
ĠÐ»Ð¾ÑĪÐ°Ð´ ÐµÐ¹
ĠÐ¶ÐµÐ½ÑīÐ¸Ð½ Ð°Ð¼Ð¸
ĠÐ½ÐµÐ¿ÑĢÐ¸ÑıÑĤ Ð½ÑĭÐ¹
ĠÐºÑĥÑħ Ð½Ñİ
ĠÐºÑĥÐ» Ð¸Ñĩ
ĠÑĨÐµÐ½ ÑĤÑĢ
ĠÐ¿ÑĢÐµÐ´Ð»Ð¾Ð¶ Ð¸Ð»Ð°
ĠÐ¡ÑĥÐ²Ð¾ÑĢ Ð¸Ð½ÑĭÐ¼
ĠÐ¿ÑĢÐ¸ÑģÑı Ð³Ñĥ
ĠÐ¿ÑĢÐ¾Ñī ÐµÐ½Ð¸Ñı
ĠÐ¿Ð¾Ð·Ð²Ð¾Ð» Ñİ
ĠÑĤÐµÐ¿Ð» Ð¾Ð¹
ĠÑĤÐµÐ»ÐµÐ³ ÑĢÐ°ÑĦ
ĠÐ¿Ð¾ÐºÐ°Ð·ÑĭÐ² Ð°ÑĤÑĮ
ĠÑģÐ¸Ð»Ñĥ ÑįÑĤ
ĠÐ¶ÑĥÑĢÐ½Ð°Ð» Ðµ
ĠÐ¶ÑĥÑĢÐ½Ð°Ð» Ð¾Ð²
ĠÑĢÐ¾Ð¼ Ð°Ð½Ð°
ĠÐ¸Ð·ÑĥÐ¼ Ð¸ÑĤÐµÐ»ÑĮÐ½Ð¾
ĠÐ¿Ð¾Ð»Ð¾Ð² Ð¸Ð½Ñĥ
ĠÐ·Ð°Ð´ÑĭÑħ Ð°Ð»ÑģÑı
ĠÐ½ÐµÑĥÐ´ Ð¾Ð²Ð»ÐµÑĤÐ²Ð¾ÑĢ
ĠÐ¿Ð¾Ð»Ð¾Ñģ ÐºÐ°
ĠÐ¨ÐµÐ²ÑĭÑĢ ÐµÐ²Ð°
ĠÐ½ÐµÐ´Ð¾ÑĥÐ¼ ÐµÐ½Ð¸ÐµÐ¼
ĠÑĥÐ½Ð¸Ð²ÐµÑĢÑģÐ¸ÑĤ ÐµÑĤÐµ
ĠÐ»Ð°Ð´ Ð½Ð¾
ĠÐ¿ÑĢÐ¸ÑģÐ» ÑĥÐ³Ð°
ĠÐ²Ð¸Ð½ Ð¾Ð¼
ĠÐļÑĢ ÐµÐ¿
ĠÐĶÑĢÑĥÐ³ Ð¸Ðµ
ĠÐ½ÐµÐ´Ð¾ÑģÑĤ ÑĥÐ¿
ĠÑĥÐ±Ð¸Ð¹ ÑģÑĤÐ²Ð¾
ĠÐ¿Ð¾Ð²ÐµÑĢÑħ Ð½Ð¾ÑģÑĤÐ¸
ĠÐ²ÑģÑĤÐ°Ð² Ð°Ð»
ĠÑģÐ»Ð°Ð´ Ð¾ÑģÑĤ
ĠÐ¾ÑĤÑĢÐ°Ð¶ ÐµÐ½Ð¸Ðµ
ĠÐŁÐ¾ÑĤ Ð¾Ð¼Ñĥ
ĠÑĦÐ°Ð¼ Ð¸Ð»
ĠÐ¿ÑĢÐ¾Ñħ Ð»Ð°Ð´
ĠÐºÐ¾Ð»Ð¾ÐºÐ¾Ð»ÑĮ Ð½Ðµ
ĠÑĦÑĢÐ°Ð· Ð°
ĠÑİÐ± Ð¸Ð»ÐµÐ¹
ĠÐŀÑģÑĤ Ð°Ð½Ð¾Ð²
ĠÐ½Ð°Ð±Ð»Ñİ Ð´Ð°Ð»
ĠÑĢÑĥÐºÐ¾Ð¿ Ð¸ÑģÐ¸
ĠÐļÐ°ÑĢÐ°ÑĥÐ» Ð¾Ð²Ð¾Ð¹
ĠÐ¸Ñī ÐµÑĤ
ĠÐµÐ·Ð´ Ð¸ÑĤÑĮ
ĠÐ²ÑĭÑĢÐ°Ð· Ð¸ÑĤÑĮ
ĠÐŀÐº Ð°Ð·Ð°Ð»Ð¾ÑģÑĮ
ĠÐ¼Ð¾Ð³Ð¸Ð» Ðµ
ĠÐ¼Ð¾Ð³Ð¸Ð» Ñĭ
ĠÑĤÐµÑĢÐ¿ ÐµÐ»
ĠÐ´Ð¾Ð²ÐµÑĢ ÑĩÐ¸Ð²Ð¾
ĠÐ¿Ð¾ÑģÐµÑĤ Ð¸ÑĤÐµÐ»ÐµÐ¹
ĠÑģÐ¸ Ð½Ð¸Ðµ
ĠÐ¿ÐµÐ² Ñĩ
ĠÐļÐ°Ð¶Ð´ ÑĥÑİ
ĠÐ¿Ð¾ÑģÐ»ÑĥÑĪ Ð½Ð¾
ĠÐ¿Ð¾ÑģÐ»ÑĥÑĪ Ð°Ð¹ÑĤÐµ
ĠÐ¼Ð°ÑģÑģ Ð¾Ð¹
ĠÑħÑĢÐ¸Ð¿ Ð»ÑĭÐ¼
ĠÐļÑĥÑģ Ð°ÑĩÐºÐ°
ĠÐ¿ÐµÑĢÐµÑĪ Ð»Ð¸
ĠÑĥÐ»Ð¸ÑĨ Ð°Ð¼
ĠÐ°ÐºÑĤÐµÑĢ Ð¾Ð²
ÑĥÐ»ÑĮÑĤ ÑĥÑĢ
ĠÑģÐ¾ÑĤ Ð½Ð¸
ĠÐºÑĢÑĭÐ» ÑĭÑĪ
ĠÐ¿Ð¾ÑģÑĤÐ¾ÑĢÐ¾Ð½ Ð½Ð¸Ñħ
ĠÐ¾ÑĤÐ²ÑĢÐ°Ñī ÐµÐ½Ð¸Ðµ
ĠÐ²Ð¾ÑģÐº Ð»Ð¸ÑĨ
ĠÐ¿ÑĢÐ¸ÑģÐ»ÑĥÑĪ Ð¸Ð²Ð°ÑıÑģÑĮ
ĠÐ°ÑĢÑĤÐ¸ÑģÑĤ Ñĭ
ĠÐ°ÑĢÑĤÐ¸ÑģÑĤ ÐºÐ°
ĠÐ¾Ð±ÑģÑĤÐ¾ÑıÑĤÐµÐ»ÑĮ ÑģÑĤÐ²Ð¾
ĠÐ²ÑģÑĤÑĥÐ¿ Ð¸Ð»
ĠÐºÐ°Ð¶ ÑĥÑĤÑģÑı
ĠÑĥÐ¼ÐµÑĢÑĪ ÐµÐ³Ð¾
ĠÑĥÐ±ÐµÐ¶Ð´ ÐµÐ½Ð¸Ñı
ĠÑĩÑĥÐ´ÐµÑģ Ð½Ð¾
ĠÑįÐºÐ· Ð¾ÑĤÐ¸ÑĩÐµÑģÐºÐ¾Ðµ
ĠÑĢÐ°Ð±Ð¾Ñĩ Ð¸Ð¹
ĠÐ²ÑĭÐ´ÐµÑĢÐ¶ Ð°Ð»
ĠÐ½ÐµÐ½Ð°Ð²Ð¸Ð´ ÐµÐ»
ĠÑĢÐ°ÑģÑĤÐµÑĢÑıÐ½ Ð½Ð¾
ĠÐ© ÐµÐ³Ð»Ð¾Ð²
ĠÑĥÐ½Ñĭ Ð»Ð¾
ĠÑħÐ¾Ñħ Ð¾ÑĤÐ¾Ð¼
ĠÐ²ÑģÐ¿Ð¾Ð¼Ð¸Ð½Ð° Ñİ
ĠÐ»Ð¸ÑĤÐµÑĢÐ°ÑĤÐ¾ÑĢ Ð¾Ð²
ĠÐľÐ¸ÑħÐ° Ð¸Ð»Ð°
ĠÐ²Ð½ÑĥÑĤÑĢ ÑĮ
ĠÑĦÐ°Ð¼Ð¸Ð»Ð¸ Ð¸
ĠÐ²ÑĢÐ°Ð¶Ð´ÐµÐ± Ð½Ð¾
ĠÐ¿Ð¾Ð»Ð¸ÑĨ ÐµÐ¹
ĠÐ·Ð°ÐºÑĢÑĭ Ð»Ð°
ĠÐ´Ð°Ð»ÑĮÐ½ÐµÐ¹ ÑĪÐµÐ¼
ĠÐ¼ÐµÑĢÑĤÐ²ÐµÑĨ Ð°
ĠÑģÑİÑĢ ÑĤÑĥÐº
ĠÐ³Ð°Ð´ Ð¾ÑģÑĤÑĮ
ĠÐ¿Ð¾Ð»ÑİÐ± Ð¸Ð»
ĠÐ²Ð¾ÐºÐ· Ð°Ð»
ĠÐ´Ð½ÐµÐ² Ð½Ð¸Ðº
ĠÑĪÐ°Ð¿ ÐºÑĥ
ĠÑĦÐµÐ»ÑĮ ÐµÑĤ
ĠÐĹÐ² Ð¾Ð½
ĠÑĥÑİÑĤ Ð½Ð¾
ĠÑĢÐ°Ð·Ð¾ÑĢ Ð²Ð°Ð½
ĠÐľÐ¾Ð»Ð¾Ð´ Ð¾Ð¹
ĠÐ»Ð¸ÑģÑĤÑĮ Ñı
ĠÐ»Ð¸ÑģÑĤÑĮ ÑıÐ¼Ð¸
ĠÑĢÐ°Ð·ÑĢÐµÑĪ ÐµÐ½Ð¸Ñı
ĠÐ²Ð¾ÑģÑĮÐ¼ Ð¸Ð´ÐµÑģÑıÑĤÑĭÑħ
ĠÑģÑģ ÑĭÐ»
ĠÑģÐ°Ð½ ÐµÐ¹
ĠÐ¾Ð±Ðµ Ð¸Ð¼Ð¸
ĠÑĦÑĢÐ°Ðº Ðµ
ĠÐºÐ¾ÑĤ Ð»ÐµÑĤ
ĠÐ½ÐµÑģÐ¿ ÑĢÐ°Ð²ÐµÐ´Ð»Ð¸Ð²Ð¾
ĠÑģÐ¿Ð°Ð»ÑĮ Ð½Ñİ
ĠÑĥÐ¼Ð¸Ð» ÐµÐ½Ð¸Ñı
ĠÑģÐºÐ¾ÑĢÐ± Ð¸
ĠÐ¾Ð±ÑĬÑıÑĤ Ð¸Ñı
ĠÐ±ÑĥÐ»ÑĮÐ²Ð°ÑĢ Ðµ
ĠÐ²ÑĢÐµÐ´ Ð½Ð¾
ĠÐ²ÐµÑĢÐµÐ² ÐºÑĥ
ĠÐ½Ð°Ð¹Ð´ ÐµÑĤÑģÑı
ĠÑĥÑħÐ°Ð¶ Ð¸Ð²Ð°ÑĤÑĮ
ĠÑĢÐ¾ ÑıÐ»
ĠÐŁÑĥÑĪ ÐºÐ°ÑĢ
ĠÐĴÑģ ÐµÐ±Ð»Ð°Ð³
ĠÑĪÐ°Ð¼Ð¿Ð°Ð½ ÑģÐºÐ¾Ð³Ð¾
ĠÐ¿ÐµÑĢÐµÐ½ Ð¾Ñģ
ĠÐĵÐ¾Ð» Ð¾Ð²Ð°
ĠÐºÐ»Ð°Ð½ ÑıÐ»ÑģÑı
ĠÑģÐ°Ð¿Ð¾Ð³ Ð°Ñħ
ĠÐ²Ð»Ð°ÑģÑĤ Ð½Ð¾
ĠÑģÐ¾ÑģÑĢÐµÐ´Ð¾ÑĤÐ¾Ñĩ ÐµÐ½Ð½Ð¾
ĠÑģÐ¾Ðº ÑĢÐ¾Ð²
ĠÐ°ÑĤ Ð¼Ð¾Ñģ
Ð½ÑıÐ²ÑĪ Ð¸ÑģÑĮ
ÑģÐ»ÐµÐ´ Ð½Ð¾
ĠÐ¿ÑĢÐ¾ÑĤÑıÐ¶ Ð½Ð¾
ĠÐŁÐ¾ÑģÐ¼Ð¾ÑĤÑĢ Ð¸
ĠÑĥÐ¿ÑĢÑıÐ¼ Ð¾
ĠÑĢÐµÑģÑĤÐ¾ÑĢ Ð°Ð½
ĠÑĢÐµÑģÑĤÐ¾ÑĢ Ð°Ð½Ðµ
ĠÐºÐ°Ð»Ð¾ÑĪ Ð¸
ĠÐĴÐ¾Ð»Ð¾Ð´ Ñı
ĠÐ¾ÑģÐµÐ½ÑĮ Ñİ
Ð°Ð½Ñģ Ð¸Ð¾Ð½
ĠÐ¾Ð±Ñĭ ÑĩÐ½Ð¾
ĠÐ¿Ð»Ñİ Ð½ÑĥÐ»
ĠÐ½ÐµÐ¿ÑĢÐ¸Ð² ÑĭÑĩ
ĠÐ²ÑĭÐ·Ð´ Ð¾ÑĢÐ¾Ð²
ĠÐ±ÐµÐ½Ðµ ÑĦÐ¸Ñģ
ĠÐ°Ð½ÐµÐºÐ´ Ð¾ÑĤ
Ð°ÑıÐ½ Ð½Ð¾
ĠÐ±ÑĢÐ¾Ð½ Ð·
ĠÑģÐ½Ð¸Ñģ ÑħÐ¾Ð´
ĠÑĩÐ°Ñħ Ð¾ÑĤ
ĠÐ¾ÑĤÑĩÐ° ÑģÑĤÐ¸
ĠÐ¾Ð³ÑĢ Ð¾Ð¼Ð½
ĠÑĢÐµÐºÐ¾Ð¼ÐµÐ½ Ð´
ĠÑĤÑĥÐ» Ð¾Ð²Ð¸Ñī
ĠÐ½Ð°Ð¸Ð± Ð¾Ð»ÐµÐµ
ĠÐ»ÑĥÐº Ð°Ð²
ĠÐ²Ð¾Ð·ÑĢÐ°Ð· Ð¸Ð»
ĠÑĥÐ¿Ð¾Ð¼ Ñı
ĠÐºÐ°ÑĢÐ°Ð½Ð´Ð° ÑĪ
ĠÐ¿Ð°ÑĢÑĤ Ð½ÐµÑĢ
ĠÐ¾ÑĢÐµÑĪ ÐµÐº
ĠÑģÐ¿ÐµÐºÑĤÐ°Ðº Ð»Ñı
ĠÑģÑĥÐ¶Ð´ÐµÐ½ Ð¾
ĠÐķÐ¿ Ð¸ÑĦ
ĠÐ¡ÐºÑĥÑĩ Ð½Ð¾
ĠÐ±Ð°ÑĢÑħ Ð°ÑĤ
Ð¿Ð¾Ð¼Ð¸Ð½Ð° Ð½Ð¸Ñı
ĠÐ¶Ð¸ÑĤ ÐµÐ¹
ĠÐĿÐµÑģÐº Ð¾Ð»ÑĮÐºÐ¾
Ð°ÑĢÐ´ Ð¾Ð²Ð½Ð°
ĠÑĦÐ°Ð½ÑĤ Ð°Ð·
ĠÑįÐºÐ·ÐµÐ¼ Ð¿
ĠÐĲÑģÑĤÐ° ÑĦ
ĠÐ°Ð²ÑĤÐ¾Ð¼ Ð¾Ð±
ĠÐ°ÑĤÐ¼Ð¾Ñģ ÑĦ
. ).
1 2
9 2
I I
o n
Ġ c
Ġ m
Ðµ Ð¾ÑĢÐ³
ÑĤ Ð¸Ð»
ÑĤ Ð°Ð»Ð¸
ÑĤ Ð¾Ð²Ð°
ÑĤ Ð¸ÑħÐ¾
Ð¸ ÑĨÑĥ
Ñģ Ñĥ
Ð½ Ð°Ð¼
Ð½ ÑıÑĤÑĮ
Ð½ ÑıÐ»ÑģÑı
Ð½ Ð²Ð°ÑĢ
Ð» Ð¾ÑģÑĤÐ¸
ÑĢ Ð°Ð»ÑģÑı
ÑĢ Ð°Ð½ÑĨ
Ñĥ ÐµÑĤÐµ
Ñĥ ÑīÐµÐµ
Ñĭ Ð·
ĠÑģ Ðµ
ĠÑģ ÑĢ
ĠÑģ Ð½Ñĭ
ĠÑģ ÑĩÐ°ÑģÑĤ
ĠÑģ Ð¾ÑĪÐ»Ð°
ĠÑģ Ð½ÑıÐ»Ð°
ĠÐ¿ Ð¸
ĠÐ¿ ÑĥÐ´
ĠÐ¿ Ð¾Ð²Ð°Ð»
ĠÐ¿ Ð¾Ð±ÑĢ
ĠÐ¿ Ð¸Ð²Ð¾
ĠÐ¿ Ð¸ÑīÑĥ
ĠÐ½ Ð¾ÑĢ
ĠÐ½ Ð°Ð³Ð¾
ĠÐ½ Ð¾ÑĤÑĭ
Ñĩ Ð¸Ð½Ð¾Ð²
Ðº Ð°Ð»Ð°
Ðº Ð°Ð»ÑģÑı
ĠÐ² Ð¸Ð»
ĠÐ² Ð¸Ñħ
ĠÐ² ÑĬ
Ð² ÐµÐ½
Ð² ÐµÑĤÐµ
Ð°Ð» Ñĥ
Ð°Ð» Ðº
Ð¼ Ð¾ÑĢ
ÑĤÐ¾ Ð¸
Ñħ Ð¾Ð¶Ð´
ĠÐº Ð»Ðµ
ĠÐº Ð»Ñİ
ĠÐº Ð°ÑģÑģ
ĠÐº ÑĥÐºÐ¸
ĠÐº ÑĥÐ»ÑĮÑĤÑĥÑĢ
Ð¾Ð² Ð¸ÑģÑĮ
Ð¾Ð² ÑĭÐµ
Ð¾Ð² ÑĭÐ¼Ð¸
ÑģÑĤ ÑģÑı
ÐµÐ½ Ñģ
ÐµÐ½ Ð½Ñĭ
ÐµÐ½ Ð·
ÐµÐ½ ÐºÐµ
ÐµÐ½ ÑĨÐ°
ĠÐ± Ð¾Ð¼
ĠÐ± Ð°ÑĪ
ĠÐ± ÑĢÐ°Ñĩ
ĠÐ´ Ð¸ÑĤ
ĠÐ´ Ð¾ÑĪÐµÐ»
ÐµÐ» Ð¸Ðº
ÐµÐ» ÑĭÑħ
ÐµÑĢ Ð¾Ð²
ÐµÑĢ Ð°ÑĤ
ÐµÑĢ ÐµÐ¹
ĠÐ¼ Ðµ
ĠÐ¼ Ð¾ÑĤ
ĠÐ¼ ÑıÑĤ
ĠÐ¼ Ð¾ÑĪÐµÐ½
Ñİ Ðº
Ñİ Ñħ
Ð½Ð¾ Ñĩ
Ð½Ð¾ ÑģÑı
Ð¸Ð» Ñĥ
ĠÐ· Ð°Ð»Ð°
ĠÐ¿ÑĢ ÐµÑĢÐ²
ĠÐ¿ÑĢ ÐµÑģÑģ
Ð¾Ð´ Ð¸Ð»Ð¾
Ð°ÑĤ ÑģÑı
Ð°ÑĤ Ð¸Ð²
Ð°ÑĤ ÑĥÑİ
Ð°ÑĤ ÑĢÐ¸
ĠÑĢ Ð¾Ð»
ĠÑĢ Ð²Ð°Ð½
Ð¸ÑĤ ÑĭÑħ
ĠÐµ Ð·
ÐµÐ¼ ÑıÐ½
Ð¾ÑĢ Ð°Ñĩ
Ð¾ÑĢ Ð²Ð°Ð½
Ð°Ð² ÐµÑĢ
Ð¿ Ð¾Ð´Ð°
Ñī ÐµÐ¼Ñĥ
ĠÑĥ Ð½Ð¾Ñģ
ĠÑĥ ÐºÑĥÑģ
ĠÐ» ÑıÐ·
Ð½Ð° ÑģÑĤ
Ð½Ð° Ð½Ð¸Ðµ
ĠÐ¶ Ð°Ð»Ð¾ÑģÑĤÑĮ
Ð· Ð°Ð¶
Ð¾Ð½ ÑĦ
ĠÐ¾ÑĤ ÑıÐ¶ÐµÐ»
Ð°Ð½ ÐµÐµ
Ð°Ð½ ÑĩÐµÐ½ÐºÐ¾
ĠÑģÑĤ Ð¾Ð¹
Ð¾Ðº ÑĥÑĢ
Ð¸Ð¼ Ð°
Ð¸Ð¼ Ð¾Ñİ
Ð¸Ð½ ÐµÑĨ
ĠÐŁ ÐµÐ¹
ĠÐŁ Ð¾Ð±
ĠÐŁ Ð»Ð°Ðº
ĠÐŁ Ð¾Ð»Ð¾Ð¶
Ð°Ð´ Ð¾Ð±
ĠÑı Ð½Ð²Ð°ÑĢ
Ð¸Ñģ Ñĭ
ĠÐĿ Ð¾ÑĩÑĮ
Ð³ Ð´Ðµ
ĠÑį ÐºÐ¾Ð½
Ð°ÑĢ Ñı
Ð¾Ð± Ð¾Ð´Ð°
Ð¾Ð± Ð¾ÑĢÐ¾ÑĤ
ĠÐ¿Ð¾ ÑĥÑĩ
ĠÐ¿Ð¾ ÐµÑħÐ°Ð»Ð°
ĠÐ¿Ð¾ Ð¾ÑīÑĢ
Ð¾Ð¶ Ð¶
ÐµÐ² Ð¾Ð¹
ÐµÐ² ÑĭÐ¼
ÐµÐ² ÑģÐºÐ°Ñı
ĠÐĴ ÑĭÑĪ
ĠÐĴ Ð¾ÑĪÐµÐ»
Ð¸Ñĩ ÐºÐ°
Ð¸Ñĩ Ð½Ð¾Ð³Ð¾
Ð¸Ñĩ Ð½Ð¾ÑģÑĤÐ¸
Ð½Ñĥ ÑĤÐ¾
ĠÐĺ Ñģ
ĠÐĺ Ð±Ð¾
ÐµÐ· Ñĥ
ĠÑħ Ð¼
ĠÑħ ÑĢÐ°Ð¼
ĠÑħ Ð¾ÑĢÐ¾Ð¼
ĠÑģÐ² ÑıÑĤÐ¾
ÑģÑĤÐ² ÐµÐ½Ð½ÑĭÐ¹
ÑģÑĤÐ² Ð¸ÐµÐ¼
ĠÐ° Ð±
ĠÐ° Ð·
ĠÐ° ÑĦÐ¾Ð½
ĠÐ²Ñĭ Ð½ÐµÑģ
ĠÐ²Ñĭ ÑģÑĤÑĢÐµÐ»
Ð»Ñı Ð¹
ĠÐĲ Ð³Ð°
Ð¶ Ð¸Ð³
ÐµÑĩ ÐºÐµ
ÐµÑĩ ÐºÐ¾Ð¹
Ð°Ð¶ Ð´Ð°
Ð¸Ð´ Ñĥ
ĠÐ¾Ð± Ð¸ÑĤ
ĠÐ¾Ð± ÑĭÐ²
ĠÐ¾Ð± ÑĢÐµÐ·
ĠÐ¾Ð± Ð»Ð°Ñĩ
ĠÐ¾Ð± ÑīÐµÑģÑĤÐ²Ð¾
Ð¾Ð· Ð´ÑĢ
Ð¾Ð· Ð½Ð°Ñĩ
ĠÐ¡ Ð¼
ĠÐ¡ ÑıÐ´
ĠÐ¡ Ð¼Ðµ
ĠÐ¡ Ð°Ð½ÑĮ
ĠÐ¡ ÑİÐ´Ð°
ÑĥÐ³ Ð¸
ÑĥÐ³ ÑĢÐ¸Ð²
ĠÐ¿Ð¾Ð´ ÐµÐ»
ĠÐ¿Ð¾Ð´ Ð°ÑĤ
ĠÐ¿Ð¾Ð´ Ð°Ð»Ð¸
ĠÐ¿Ð¾Ð´ ÑģÑĤÐ°Ð²
ĠÐ¿Ð¾Ð´ ÐµÑĢÐ¶
ĠÐ¿Ð¾Ð´ Ð¾Ð±Ð½Ð¾
ĠÐ·Ð° ÑĪÐµÐ»
ĠÐ·Ð° Ð¸Ð³ÑĢ
ĠÐ¸Ð· Ð¾Ð±
ĠÐºÑĢ Ñĥ
ĠÐºÑĢ Ð°ÑĤ
ĠÐºÑĢ Ð¾ÑħÐ¾ÑĤ
ĠÐļ Ð¾Ð»
ĠÐļ ÑĥÑĢ
Ð½Ðµ Ñİ
Ð½Ðµ ÐµÑĤ
ĠÑĢÐ°Ð· Ð¾Ð¼
ĠÑĢÐ°Ð· Ð½Ð¾Ñģ
ĠÑĢÐ°Ð· Ð½Ð¾Ð³
ÑĭÐ² Ð°Ð¹
ÑĥÑİ ÑīÐµ
ĠÐ¢ Ð°
ĠÐ¢ ÑĢÐ¾
ĠÐľ Ð¾ÑĢ
Ð»Ð° Ñħ
ÑĥÑĩ ÐµÐ¹
ĠÐ¾Ð´ ÐµÑı
ĠÐ¾Ð´ Ð½Ð¸Ñħ
ĠÐ¾Ð´ ÐµÑıÐ»
Ð¾Ñĩ Ðµ
Ð¾Ñĩ Ð¸Ð½
Ð¾Ñĩ Ð¸Ð»Ð°
ĠÑĪ Ð»Ð¾
ĠÑĪ ÑĤÑĥ
ĠÑĪ ÐµÐ¸
ÐµÐ³ Ð°ÐµÑĤ
ĠÑģÐ¼ ÑıÑĤ
ĠÐ¿ÐµÑĢ Ð¸Ð»Ð°
ÐµÐ¶ Ð°ÑĤÑĮ
ÑĥÑĪ ÐµÐ½Ð¸Ðµ
Ð¾Ð²Ð° Ð½Ð¸ÐµÐ¼
ĠÑģÐ¿ Ð¾Ð»Ð·
Ð¾Ð²Ð¾ÑĢ Ð¾ÑĤ
ĠÐĶ ÐµÐ»
ĠÐ»Ð¸ Ð½Ð¸Ð¸
ĠÐ³ÑĢ ÐµÐ±
ĠÐ³ÑĢ Ð¾ÑĪ
ĠÐ³ÑĢ ÑĭÐ·
ĠÐ¯ Ñģ
ĠÐ¿Ð¾Ð» Ð½Ñĭ
ĠÐ¿Ð¾Ð» ÑĤÐ¾ÑĢÐ°
ĠÐ¿ÑĢÐ¸ ÐµÐ´ÐµÑĤ
ĠÑģÐ°Ð¼ ÑĭÐ¼Ð¸
ĠÑĤÑĢ Ð¸Ð¶
ĠÐ¿Ð¾Ðº Ð¾Ð»
ĠÐ¿Ð¾Ðº Ð¸Ð´
ĠÐ¿Ð» ÐµÐ½
ĠÐ¿Ð» Ð°Ð²Ð½Ð¾
ĠÐ¿Ð» ÐµÐ¼ÑıÐ½
ĠÐ²Ð¸Ð´ Ð°Ð»Ð¸
ĠÐ²Ð¸Ð´ Ð°Ð»Ð°
ĠÐ³Ð¾ÑĢ Ð¸ÑĤ
ĠÐĳ Ð°ÑĤ
ĠÐĳ Ð¾Ð»ÑĮ
ĠÑĩÐµÑĢ Ð²
ĠÐ±ÐµÐ· ÑĭÑģ
ÑĦ Ñĭ
ÑĦ ÑĦ
Ð°Ð½Ð¸ Ð½
ÐµÑĢÑĮ ÑĤÐµ
ĠÐ¼Ð¾Ð» Ð¸Ð»
ĠÐ½Ð°Ð´ ÑĥÐ²
ĠÐ±Ð» ÑİÐ´
ĠÐ¿Ð¾ÑĤ ÐµÑĪ
ĠÐĲÐ½ Ð½Ð°
ĠÐĲÐ½ Ð³ÐµÐ»
ĠÐ¾Ð¿ ÑĢÐ¾Ð²
ĠÐ¾Ð¿ ÐµÑĢÑĭ
ĠÐ²Ð¾Ð· ÑĮÐ¼Ð¸
ĠÐ²Ð¾Ð· Ð³Ð»Ð°Ñģ
Ð¾Ð±Ñĭ ÑĤ
Ð¸ÑģÑĤ ÑĭÐµ
ĠÐ¾Ñģ Ñĥ
ĠÐ¾Ñģ ÑĥÑīÐµÑģÑĤÐ²
ĠÐ¾Ñģ Ð¼ÐµÐ»
ĠÑĤÐµÐ¼ Ð¿
ĠÐ²ÐµÑģ Ð½Ð°
ĠÐ·Ð½ Ð°Ðº
ĠÐ·Ð½ Ð°Ð¼
ĠÐ¶ÐµÐ½ Ð¾Ð¹
ÑĢÑĭ Ñĩ
ĠÐĽ ÑĥÐºÑĥ
ĠÐĽ Ð¸Ð»Ñı
ĠÐ½Ð°Ñĩ Ð°ÑĤÑĮ
Ð°Ð²ÑĪ Ð¸
ĠÐ·Ð½Ð° ÐµÐ¼
ĠÑģÐ¾Ð² Ð¼
ĠÑģÐ¾Ð² ÐµÑī
ĠÑĥÐ¼ ÐµÐµÑĤ
ĠÐĹ Ð¸Ð½Ð¾Ñĩ
ĠÐ¿Ð¾Ñĩ ÐµÑĤ
ĠÑģÐ¾Ð± ÐµÑĢ
ĠÑģÐ¾Ð± ÑĢÐ°Ð²
ĠÑģÐ¾Ð± Ð°Ñĩ
ĠÑģÐ¾Ð± Ð¸ÑĢÐ°
ÑıÐ¼ Ð¾
ĠÐ½Ð°Ð¿ Ð°Ð´
Ð°ÑĤÐµÐ»ÑĮ Ð½Ð¾Ð³Ð¾
Ð°ÑĤÐµÐ»ÑĮ Ð½ÑĭÑħ
Ð´ÑĢ Ð°ÑĤÑĮ
Ð»Ñİ Ñī
Ð»Ñİ ÑģÑĮ
ĠÐ£ ÑģÐ»
ĠÐºÐ¾Ð½ Ñģ
ĠÐ¿Ð¾Ð½ ÐµÐ´ÐµÐ»ÑĮ
ĠÐ±ÐµÑģ ÑģÐ»ÐµÐ´Ð½Ð¾
Ð»ÑıÐ´ ÐµÑĤÑĮ
ĠÐ¿ÑĢÐµÐ´ Ð°ÑĤÐµÐ»ÑĮ
ĠÑģÑĤÐ°ÑĢ Ð¸Ð½
ĠÑģÑĤÐ°ÑĢ Ð¾Ð¼Ñĥ
ĠÑģÑĤÐ°ÑĢ Ð¾ÑģÑĤÐ¸
ĠÑģÑĤÐ°ÑĢ ÑĪÐ¸Ð¹
ĠÐł ÑĥÑģ
ĠÐŃ Ð¹
ĠÐ±ÑĢ Ð¸ÑĤÑĭÐ¹
ĠÑĩÑĤ ÐµÐ½Ð¸Ðµ
Ð¸Ð²ÑĪ ÑĥÑİ
ĠÐŁÑĢ Ð¸Ð½
ĠÐŁÑĢ Ð¸ÐµÑħ
ĠÐŁÑĢ Ð¾ÑĪÐ»Ð¾
ĠÐŁÑĢ ÑıÐ¼Ð¾
ĠÐ²ÐµÑĢ Ð½ÑĥÐ²ÑĪÐ¸ÑģÑĮ
ĠÐ²ÐµÑĢ Ð¾ÑıÑĤ
ÐºÐ¾Ð¼ ÑĭÑģÐ»
ĠÐ¿Ð¾Ð² ÐµÐ´
ÑĥÑģ Ð°
ĠÐ¾Ð³ Ð½Ðµ
ĠÑģÐ²ÐµÑĤ Ð¸ÑĤ
ĠÐ·Ð°Ð¿ ÑĢ
ĠÐ·Ð°Ð¿ Ð¾Ð¼Ð½Ð¸ÑĤÑĮ
ĠÐºÑĢÐ°Ñģ Ð½ÑĥÑİ
ĠÐºÑĢÐ°Ñģ Ð½Ð¾Ð²
ĠÐ¿Ð¾Ð¿ Ð°
ĠÐ¿Ð¾Ð¿ Ð°Ð»Ð¾
ĠÐ¿Ð¾Ð¿ Ð°ÑģÑĤÑĮ
ĠÐ·Ð°Ð¼ Ð¾Ðº
ĠÐ´ÐµÐ» Ð°Ð¼
ĠÐ´ÐµÐ» Ð°Ñħ
ĠÐ´ÐµÐ» Ð°ÐµÑĤÐµ
ĠÐ²Ð¾Ð» Ð½Ñĭ
ĠÐ²Ð¾Ð» ÑĩÐ°ÑĤ
ĠÑĩÑĥÐ²ÑģÑĤÐ² Ð¾Ð²Ð°Ð»Ð¸
ĠÑĥÐ´ Ð°Ð»
ĠÐ½Ð°Ñģ ÐµÐ»
ĠÐ¾ÑģÑĤ Ð°Ð»ÑĮÐ½Ð¾Ðµ
ĠÐ·Ð°Ðº ÑĢÑĥÐ¶
ĠÐ²Ð¿ Ð°Ð»
ĠÐ²Ð¿ ÑĢÐ°Ð²
ĠÑĢÐ°ÑģÑģÐºÐ°Ð· Ð¾Ð¼
ĠÑĢÐ°ÑģÑģÐºÐ°Ð· Ð°Ð¼Ð¸
ĠÑĢÐ°ÑģÑģÐºÐ°Ð· Ð°Ñħ
ĠÐ¾ÑĤÐ²ÐµÑĤ Ð¸ÑĤ
Ð°ÑİÑī ÑĥÑİÑģÑı
ÐµÑī Ð°Ð»
ĠÐ³Ð¾Ð»Ð¾Ñģ Ð°Ð¼Ð¸
ĠÑĢÐ°Ð´ ÑĥÑĪ
ĠÑĢÐ°Ð´ Ð¾Ð²Ð°ÑĤÑĮÑģÑı
ĠÐ½ÐµÐ´ Ð¾Ð»Ð³Ð¾
ĠÑĥÐ³ Ð°Ñģ
ĠÑĥÐ³ Ð»Ð¾Ð²
ĠÐ¸Ð½ ÑĤÐ¸Ð¼
ĠÐ¸Ð½ ÑģÐ¿ÐµÐº
ÑĥÑī Ñĥ
ÑĥÑī Ð¸Ð¼Ð¸
ĠÐ±ÐµÐ» ÑĥÑİ
ĠÑĤÐ¸Ñħ Ð¾Ð³Ð¾
ĠÑĤÐ¸Ñħ ÑĥÑİ
ĠÐ¶ÐµÐ» ÑĤÐ¾Ð²
ĠÑĥÐ»ÑĭÐ± Ð½ÑĥÐ»Ð¸ÑģÑĮ
ĠÑĥÐ¿ Ð°Ð»Ð°
ÑĩÐ¸Ðº Ð¾Ð²
ĠÐ¶Ð¸Ð² ÑĭÐµ
Ð¸ÑĩÐµÑģÐº Ð¸Ð¼Ð¸
ĠÐ´ÐµÑĤ ÑģÐºÐ¸Ñħ
ĠÐ¥ Ð¾ÑĤ
ĠÐ½ÑĥÐ¶ Ð½ÑĭÐ¼
ĠÐ½Ð°Ð· ÑĭÐ²Ð°ÑĤÑĮ
ĠÐ½Ð°Ð· Ð²Ð°ÑĤÑĮ
ĠÑĥÐ± Ð¸Ð²Ð°ÑĤÑĮ
ĠÐ´Ð° ÑģÑĤ
ÑĢÐ¾Ð² Ð°Ð²
ĠÐ·Ð°Ð² Ð¸Ñģ
ĠÐ·Ð°Ð² ÐµÑĢÑĤ
ĠÐ¿Ð¾Ð³ ÑĥÐ±
ĠÐ¿Ð¾Ð³ Ð»ÑıÐ´ÐµÐ»
ĠÐ¿Ð¾Ð³ Ð»Ð¾Ñī
ĠÐ¸ÑģÐ¿ Ð¾Ð²ÐµÐ´
ĠÑħÐ¾Ð»Ð¾Ð´ Ð½Ð¾Ð³Ð¾
ĠÐºÐ°Ð¶Ð´ Ð¾Ð¼Ñĥ
ĠÐºÐ°ÑĢ ÑĮ
ĠÐºÐ°ÑĢ Ð¼Ð°Ð½Ð°
ĠÑĢÐ°Ð±Ð¾ÑĤ Ð°Ð»Ð¸
ĠÑģÐ»ÑĥÑĩ Ð°Ñİ
ĠÐ²Ð¾Ð´ Ð¸Ð»
ĠÐ²Ð¾Ð´ Ð¾Ñİ
ĠÐ¶Ð°Ð» Ð¾Ð±Ñĭ
ĠÐ¶Ð°Ð» ÐºÐ¸Ðµ
ĠÐ¶Ð°Ð» ÐºÐ¸Ñħ
ĠÐ¼Ð¾Ð»Ð¾Ð´ Ñĭ
ĠÐ½ÐµÐ± Ð¾Ð¼
ĠÐ·Ð°Ð³ Ð»Ð°Ð²
ĠÐ¸ÑģÐº Ð°Ð»Ð¸
ĠÑĢÐµÑĪ Ð¸Ð»ÑģÑı
ĠÑĢÐµÑĪ ÐµÐ½Ð¸Ñı
ÑĭÑĢ Ðµ
ÑĩÐ¸Ð² Ð¾Ð¹
ÑĩÐ¸Ð² Ð°Ñı
ĠÐ¿Ð¾Ð¶ ÐµÑĢÑĤÐ²
ĠÐ¿ÑĢÐ¸Ð² Ð¾Ð´
ĠÐ¿ÑĢÐ¸Ð² Ð¾Ð·
ĠÑĥÑģ Ð°Ð¶
ĠÑĥÑģ Ð°Ð¼Ð¸
ĠÑĥÑģ Ð½ÑĥÐ»
ĠÑĥÑģ ÐµÐ»ÑģÑı
ĠÑĢÐ°Ð·Ð³ Ñĥ
ĠÑĢÐ°Ð·Ð³ Ð°Ð´
ĠÐ·Ð°Ñģ Ð»ÑĥÐ¶
ĠÐ»ÐµÐ³ ÐºÐ¾Ð¼ÑĭÑģÐ»
ĠÐ´ÐµÐ² ÑıÑĤÑĮ
ĠÑģÐ´ÐµÐ» Ð°Ð»Ð¸
ĠÐ¾ÑĤÐ´ Ð°Ð¼
ĠÐ¾ÑĤÐ´ Ð°Ð¹
ĠÐ¾ÑĤÐ´ ÐµÐ»ÑĮÐ½Ð¾
ĠÐ½Ð°ÑĪ ÐµÐ¼
ĠÐ½Ð°ÑĪ Ð¸Ð¼
ĠÐºÐ» ÐµÐ²
ĠÐºÐ» Ð°Ð½Ñı
ĠÐ»ÐµÐ¶ Ð°Ð»Ð¾
ĠÐ»ÐµÐ¶ Ð°Ñī
ĠÐ¡ÑĤ Ð¾Ð¹
ĠÐ¡ÑĤ ÑĢÐ°ÑĪ
Ð¡ ÑĤÑĢ
ĠÑģÐ»ÐµÐ´ Ð¾Ð²Ð°Ð»Ð¾
ĠÑī ÑĥÑĢ
ĠÑī ÐµÐ½ÐºÐ°
ĠÐ³ÑĢÐ¾Ð¼ ÐºÐ¸Ðµ
Ġ1 1
ĠÐ¼Ð¸Ð» ÑĭÐµ
ĠÑĥÐ²Ð¸Ð´ Ð¸ÑĪÑĮ
ĠÑģÐ»ÑĭÑĪ Ð¸ÑĤÑģÑı
ĠÐºÐ½Ð¸Ð³ Ð¾Ð¹
ĠÐºÐ½Ð¸Ð³ Ð°Ñħ
ĠÐ¾ÑģÑĤÐ°Ð² ÑĮ
ĠÐ¾ÑģÑĤÐ°Ð² Ð¸Ð²
ĠÐ¾ÑģÑĤÐ°Ð² Ð°ÑĤÑĮÑģÑı
ĠÑĢÐ°ÑģÑģ ÑĥÐ´
ĠÐ½Ð°Ð´Ð¾ ÐµÐ´
ĠÑģÑĢÐµÐ´ Ðµ
ĠÑģÑĢÐµÐ´ Ñĭ
ĠÑģÑĢÐµÐ´ ÑģÑĤÐ²
ĠÐ¾ÑģÐ¾Ð± ÐµÐ½Ð½Ð¾Ð³Ð¾
ÐµÐ²ÑĪ ÐµÐ¼Ñĥ
ĠÐŀÐ´ Ð½Ñĥ
ĠÐ½Ð¾Ñģ Ð¸Ð»ÑĮ
ĠÐ·Ð½Ð°ÐºÐ¾Ð¼ Ñĭ
ĠÐ·Ð½Ð°ÐºÐ¾Ð¼ Ð¾Ðµ
ĠÑģÐ¸Ð» Ðµ
ĠÐ¼Ð¾ÑĢ Ð´Ñĥ
ĠÐ¿Ð¾ÑģÑĤ ÑĥÐº
ĠÑģÐ¿Ð¾ÐºÐ¾Ð¹ Ð½Ð¾Ðµ
ĠÑģÐ¿Ð¾ÐºÐ¾Ð¹ Ð½ÐµÐµ
ĠÐ¿ÑĢÐ¸Ð½ ÑıÐ»Ð¸
ĠÐ²Ð¼ ÐµÑĪ
ĠÑĨÐµÐ» Ð¾Ð¹
ĠÑĨÐµÐ» Ð°Ñı
ĠÑĨÐµÐ» ÑĥÐµÑĤ
ĠÐ´Ð¾Ð±ÑĢ ÑĭÑħ
ĠÐ¿ÑĢÐ¾ÑĪ Ð»Ð¸
ĠÑĥÑģÑĤ Ð°Ð»Ð¾
ĠÐŁÐ¾ ÐµÐ·Ð´
ĠÑģÐ¾Ñģ ÐºÐ¾
ĠÑĤÑıÐ¶ÐµÐ» Ð¾Ð³Ð¾
ĠÑĤÑıÐ¶ÐµÐ» ÑĭÐ¼Ð¸
ĠÐºÐ°Ð¼ ÐµÐ½Ð½Ð¾Ð¹
ĠÑıÑĢ ÐºÐ¸Ð¼
ÑĤÐ¾Ñĩ Ð½ÑĭÐ¹
ÑĤÐ¾Ñĩ ÐºÐ°Ð¼Ð¸
ĠÐ¼ÑĥÐ¶ Ð¸ÐºÐ°
ĠÐ¿ÑĢÐ¾Ð¸Ð· Ð¾ÑĪÐ»Ð°
ĠÐ²ÐµÑģÐµÐ» Ð¾Ðµ
ĠÐ²ÐµÑģÐµÐ» ÐµÐµ
ĠÐ²ÑĭÑģÐ¾Ðº Ð¾Ð¼
ĠÐ²ÑĭÑģÐ¾Ðº ÑĥÑİ
ĠÐ·Ð°ÑĤ Ð°
ĠÑĢÐ¾Ð´ Ñĥ
ĠÑĢÐ¾Ð´ Ð½ÑĭÐµ
ĠÑĢÐ¾Ð´ Ð¸ÑĤÐµÐ»ÐµÐ¹
ĠÐ²Ð¾Ð¿ Ð»ÑĮ
Ð°Ð½ÑĤ Ñĭ
ĠÐ¾ÑĤÐºÑĢÑĭ ÑĤÑĭ
ÑĢÐ¾ Ð¸Ð·
ĠÑĤÐ¾Ð½ ÐºÐ°Ñı
ĠÑĤÐ¾Ð½ ÐºÐ¸Ð¼Ð¸
ĠÐ³ÑĢÑıÐ· Ð½Ð¾
ĠÐ³ÑĢÑıÐ· Ð½ÑĭÐ¹
ĠÐ³ÑĢÑıÐ· ÑĮÑİ
ĠÐ¿ÑĢÐ¾Ð´Ð¾Ð»Ð¶ Ð°ÐµÑĤ
ĠÐºÐ¾Ð¼ Ð¸ÑģÑģ
ĠÐ²ÐµÐ»Ð¸Ðº Ð¾Ð¹
ĠÐ²ÐµÐ»Ð¸Ðº Ð¾Ð´ÑĥÑĪ
ĠÑĩÐ¸ÑĤ Ð°Ñı
ĠÐ¤ Ð»
ĠÐ¼Ð¸ÑĢ Ð¾Ð¼
ĠÐ¼Ð¸ÑĢ Ð¸ÑĤÑĮÑģÑı
ĠÐ¸Ð³ÑĢ Ðµ
ĠÐ¸Ð³ÑĢ ÑĥÑĪ
ĠÐ¸Ð³ÑĢ ÑĥÑĪÐºÐ¸
ĠÐ½ÐµÐ· Ð°Ð²
ĠÐ¿ÑĢÑıÐ¼ Ð¾Ð¹
ĠÐ²Ð¾ÑģÐ¿ Ð¸ÑĤÐ°Ð½
ĠÐ¿ÑĢÐ¸ÑĪ Ð»Ð¾
ÐĴ Ð°Ñģ
ĠÐ²Ð¾ÑĢ Ñĩ
ĠÐĸ Ð°Ð»
ĠÐĸ Ð¸Ð»
ĠÐĸ ÐµÐ½Ð°
ÐºÑĢ Ð¾Ð¹
ĠÐ¼Ð°ÑĤ ÑĥÑĪÐºÐ°
ĠÑĩÑĥÐ¶ Ð¸Ð¼Ð¸
ĠÐ±ÐµÑģÑģ Ð¼Ñĭ
ĠÐ½Ð°Ð¼ ÐµÐº
ĠÐ½ÐµÐ¶ Ð½ÑĭÐ¹
ĠÐ»ÐµÑģ Ð¾Ð¼
ĠÑħÑĥÐ´ Ð¾Ñī
!.. Â»
ĠÐĺÐ· Ð²Ð¸Ð½Ð¸ÑĤÐµ
ÑĥÑİÑī ÐµÐ³Ð¾
ĠÐ²ÑģÑĤÑĢÐµÑĩ Ð°
ĠÐ²ÑģÑĤÑĢÐµÑĩ Ð°Ñħ
ĠÐ·Ð°Ð¼ÐµÑĤ Ð½Ð¾
ĠÐ·Ð°Ð¼ÐµÑĤ Ð¸ÑĤÑĮ
ĠÐ¿ÑĢÐ¸Ðº Ð°Ñģ
ĠÐ¿ÑĢÐ¸Ðº Ð»ÑİÑĩ
ĠÐºÑĢÐ°ÑģÐ¸Ð² ÑĭÑħ
ĠÐ½ÐµÐ½ Ð°Ð´Ð¾Ð»Ð³Ð¾
Ð´Ð°Ð» ÐµÐºÐµ
ĠÐ±Ð»Ð¸Ð· Ð¾ÑģÑĤÑĮ
ĠÐ¿Ð¾Ð²ÐµÑĢ Ð½ÑĥÐ²ÑĪÐ¸ÑģÑĮ
ĠÐ¿ÑĢÐ¾Ñĩ ÐµÑģÑĤÑĮ
ĠÐ¿ÑĢÐ¾Ñĩ ÑĤÑĥ
ĠÐ¿ÑĢÐ¾Ñĩ Ð¸ÑĤÐ°Ð»
ĠÐ¿Ð¾Ð¼Ð½ Ð¸ÑĤÑģÑı
ĠÐ´ÑĮÑı Ñĩ
ÐµÐ·Ð¶ Ð°Ð»Ð¸
ĠÑģÐ»Ð°Ð± ÑĭÐ¼
ĠÐ±ÑĢÐ¾Ñģ Ð°ÐµÑĤ
ĠÑģÐµÑĢÑĮÐµÐ· ÐµÐ½
ĠÑģÐµÑĢÑĮÐµÐ· Ð½Ð¾Ðµ
ĠÐ´ÑĢÐ¾Ð¶ Ð°
ĠÑĢÐ°Ð²Ð½Ð¾Ð´ÑĥÑĪ Ð½Ñĭ
ĠÑĢÐ°Ð²Ð½Ð¾Ð´ÑĥÑĪ Ð¸Ðµ
ĠÑĥÑĩ ÐµÐ±
Ð½ÑĥÑĤ Ð°Ñı
Ð½ÑĥÑĤ ÑĥÑİ
ĠÐºÑĢÑĥÐ³ Ð»ÑĭÐµ
ĠÐ¿Ð¾Ð»Ð¾Ð¶ ÐµÐ½Ð¸Ñı
ĠÐ¿ÑĢÐ¾Ð² ÐµÐ´
ĠÐ¿ÑĢÐ¾Ð² Ð¾Ð´Ð¸Ð»
ĠÐ¾Ð³ÑĢÐ¾Ð¼ Ð½Ð¾Ð¹
ĠÐ¾Ð³ÑĢÐ¾Ð¼ Ð½ÑĭÑħ
ĠÐ¾Ð³ÑĢÐ¾Ð¼ Ð½Ð¾Ðµ
ĠÐ¾Ð³ÑĢÐ¾Ð¼ Ð½ÑĥÑİ
ĠÐ´ÐµÑĢÐ¶ Ð°Ð»Ð¸
ĠÐ¿ÐµÑĩÐ°Ð»ÑĮ Ð½ÑĥÑİ
ĠÑģÑĥ ÑīÐµÑģÑĤÐ²Ð°
ĠÑĤÐµÑĢ Ð·
ĠÐ¼ÐµÐ» ÐºÐ¸Ñħ
ĠÐ¼ÐµÐ» ÐºÐ¸Ð¼Ð¸
ĠÑģÑĥÐ´ Ð¸ÑĤÑĮ
ĠÐ¿ÑĢÐµÐºÑĢÐ°Ñģ Ð½Ð¾Ðµ
ĠÐºÐ¾Ð½Ñĩ Ð°ÐµÑĤÑģÑı
ĠÑĪÐµÐ¿ Ñĩ
ĠÐ´Ð²Ð¸Ð¶ ÐµÑĤÑģÑı
ĠÐ·Ð²Ð¾Ð½ ÐºÐ¾
ĠÐ·Ð²Ð¾Ð½ Ð¸ÑĤÑĮ
ĠÐ¿Ð¾Ð´Ð½Ð¸Ð¼ Ð°Ð»Ð¸ÑģÑĮ
ĠÐºÑĥÐ¿ ÑĨÐ°
ĠÐ¿ÑĢÐ¾ÑģÑĤÐ¾ Ðµ
ĠÐ»Ð°Ñģ ÐºÐ¸
ĠÑģÐ²Ð¾Ð±Ð¾Ð´ Ñĥ
ĠÑģÐ²Ð¾Ð±Ð¾Ð´ Ð½Ð¾Ð³Ð¾
ĠÐ¼Ð¾Ð»ÑĩÐ°Ð» Ð¸Ð²Ð°Ñı
ĠÑĥÐ´Ð°ÑĢ Ð°Ð¼Ð¸
ĠÐ²ÑĭÑĢÐ°Ð¶ Ð°Ð»
ĠÐ³Ð¾ÑĢÑıÑĩ Ð¸Ð¼
Ðŀ ÑĤ
ĠÐ²ÑĭÑħÐ¾Ð´ Ð¸Ð»Ð°
ĠÐ²ÑĭÑħÐ¾Ð´ Ð¸Ð»Ð¸
ĠÐ¿ÑĢÐ¾Ð¿ Ð°Ð»
ĠÐ¿ÑĢÐ¾Ð¿ ÑĥÑģÐº
ĠÐ¿Ð¾ÑħÐ¾Ð¶ Ð¸Ð¼Ð¸
ĠÐ´Ð»Ð¸Ð½ Ð½ÑĥÑİ
ĠÐ´Ð»Ð¸Ð½ Ð½Ð¾Ð²Ð¾Ð»Ð¾Ñģ
ĠÑĤÐ¾Ð»ÑģÑĤ ÑĭÐ¼Ð¸
ĠÐ³Ð¾ÑģÐ¿Ð¾Ð´ ÑģÑĤÐ²
ĠÐ¿ÑıÑĤ Ð¾Ð³Ð¾
ĠÐ¿ÑıÑĤ Ð½Ð¸ÑĨÑĥ
ĠÑģÐ¼ÐµÑħ Ñĥ
ĠÑģÐ²ÐµÑĤÐ» Ð¾Ð³Ð¾
ĠÐºÑĥÑĢ ÑĤÐºÑĥ
ĠÐºÐ¾ÑĢÐ¾ÑĤ ÐºÐ¸Ðµ
ĠÐ±Ð°ÑĢ Ð°Ð±
ĠÑģÐ¾Ð³ ÑĢ
ĠÐĴÐ°ÑģÐ¸Ð»ÑĮÐµÐ²Ð¸Ñĩ Ñĥ
ĠÐĿÐ°Ð´ ÐµÐ¶Ð´Ð°
Ð»ÐµÐ½Ð¸Ñı Ð¼
ĠÐ¾ÑĤÐ¿ ÑĥÑģÑĤÐ¸Ð»
ĠÑģÐ»ÑĥÐ¶ Ð¸Ð»
ĠÑģÐ»ÑĥÐ¶ Ð¸ÑĤÑĮ
ĠÐ±Ð»ÐµÐ´ Ð½ÑĭÐ¼
ĠÐ²ÑģÐº Ð¾Ð»ÑĮÐ·
ĠÐ¾ÑĤÐ²ÐµÑĩ Ð°Ñı
ĠÐ³Ð»ÑĥÐ±Ð¾Ðº Ð¸Ð¼
ĠÐ³Ð»ÑĥÐ±Ð¾Ðº Ð°Ñı
ĠÐŁÐµÑĤÑĢÐ¾Ð² Ð½Ð°
ĠÐ·Ð´Ð¾ÑĢÐ¾Ð² ÑĭÐ¹
ĠÐ¼ÑıÐ³ ÐºÑĥÑİ
ĠÐ²ÑĭÐ· Ð²Ð°Ð½
Ð²Ð¾Ð· Ð´
ĠÐ±ÑĥÐ´Ñĥ ÑīÐµÐµ
ĠÑģÑĩÐ¸ÑĤ Ð°ÐµÑĤ
ĠÐ´Ð¸Ðº Ð¸Ð¼
ĠÑĪÐ¸ÑĢÐ¾Ðº Ð¸Ð¹
ĠÑģÑĩÐ°ÑģÑĤÐ»Ð¸Ð² Ð°
ĠÑĢÑĭ Ð´
ĠÑĢÑĭ Ð±
ĠÑģÑĤÑĢÐ°Ð´ Ð°Ð»
ĠÐ¸Ð·Ð²ÐµÑģÑĤ Ð½ÑĭÐ¼
ĠÐ½Ð°ÑģÑĤ Ð¸Ð³
ĠÐ²ÑģÐ¿Ð¾Ð¼Ð½ Ð¸Ð»Ð°
ĠÐ²Ð°Ð¶ Ð½Ð¾Ðµ
ĠÑĥÐº Ð»Ð¾Ð½
ĠÑĪÑĥÑĤ Ð¸Ð»
ĠÐ´ÑĢÑĥÐ¶ ÐµÐ»ÑİÐ±
ĠÐ¼Ð½Ð¾Ð³ Ð¸Ð¼
ĠÐ³Ð»ÑĥÑħ Ð°Ñı
ĠÐ¿Ð¾ÑģÐ» Ð°Ð½
ĠÐ¿Ð¾ÑģÐ» ÑĥÐ¶
ĠÐ¼Ð°Ð»ÑĮÑĩÐ¸Ðº Ð¾Ð¼
ĠÐ¼Ð°Ñģ Ð»Ð¾Ð¼
ĠÐ¾ÐºÐ½Ð° Ñħ
ĠÐ±ÐµÑģÐº Ð¾Ð·ÑĭÑĢ
ĠÑĥÐ²ÐµÑĢ ÐµÐ½Ð½Ð¾ÑģÑĤÑĮ
ĠÑĥÐ²ÐµÑĢ ÐµÐ½Ð½Ð¾ÑģÑĤÑĮÑİ
ĠÑĢÐ°Ð´Ð¾ÑģÑĤ Ð½ÑĭÐ¼
ĠÐ¿ÐµÑģ Ð½Ñİ
ĠÑģÑĥÑīÐµÑģÑĤÐ² Ð¾Ð¼
ĠÑģÑĤÑĥÐ´ÐµÐ½ÑĤ Ñĥ
ĠÐ²ÑĭÐ´ Ð²Ð¸Ð³
ÑĩÐµÑģÐº Ð°Ñı
ĠÐ´Ð°Ñĩ Ð¸
ĠÐ±ÐµÐ·ÑĥÐ¼ Ð½Ð¾Ð¹
ĠÐ²ÐµÑī Ð°Ñħ
ĠÐ½ÐµÑĩ Ð¸ÑģÑĤ
ĠÐ½ÐµÑĩ Ð°ÑıÐ½Ð½Ð¾
ÐµÐ·Ð°Ð¿ Ð½Ð¾
ĠÐ´Ð¾Ð»Ð³ Ð¾Ð¹
ĠÐ´Ð¾Ð»Ð³ Ð¾Ð³Ð¾
ĠÐ¿ÑĢÐ¸Ð½Ð¸Ð¼ Ð°ÑĤÑĮ
ĠÐ¿ÑĢÐ¸Ð½Ð¸Ð¼ Ð°Ð»Ð¸
ÐĶ Ð°Ð½ÑĩÐµÐ½ÐºÐ¾
ĠÐ·ÐµÐ» ÐµÐ½ÑĮ
ĠÐ·Ð°Ð½Ð¸Ð¼ Ð°Ð»
ĠÐ¾ÑģÑĤÐ°Ð½ ÑĥÑģÑĮ
ĠÐ½ÐµÐ» ÐµÐ³
ĠÑĦÐ¾ÑĢ Ð¼ÐµÐ½
Ð¼Ð°ÑĤÑĢ Ð¸Ð²Ð°Ð»ÑģÑı
ĠÐ¿ÑĢÐµÐ¶ Ð½ÐµÐ³Ð¾
ĠÑĢÐ¸Ñģ Ð¾Ð²Ð°Ð»
ÑĦÐ¸ÑĨ Ð¸
ĠÐ¿Ð¾ÑĤÐµÑĢ ÑıÑĤÑĮ
ĠÑĩÐµÑĤÐ²ÐµÑĢ ÑĤÐ¾Ð³Ð¾
ĠÐ¸ÑģÑĩÐµÐ· Ð»Ð¾
ĠÑģÑĥÑħ Ð¸Ðµ
ĠÐ½Ð°Ð» Ð¸Ð²
ĠÐļÐ°ÑĤ Ñİ
ĠÐ´Ð²Ð¸Ð³ Ð°Ð»Ð°ÑģÑĮ
ĠÐ¾Ñħ Ð¾ÑĤ
ĠÑĤÐ¸ÑĪ Ð¸Ð½Ñĥ
ĠÐ¿Ð¾ÐºÑĥÐ¿ Ð°ÑĤÐµÐ»ÑĮ
ĠÐ´Ð°Ð»ÐµÐº Ð¾Ð¼
ĠÐ´Ð°Ð»ÐµÐº Ð¾Ðµ
ĠÐ¿Ð¾ÐºÐ°Ñĩ Ð¸Ð²Ð°ÑıÑģÑĮ
ĠÑĤÐ²Ð¾ ÐµÐ³Ð¾
ĠÐ´Ð¾Ð³ Ð¾Ð²Ð¾ÑĢ
ĠÑĨÐ°ÑĢ Ð¸Ð»Ð°
ĠÐ¸ÑģÐºÑĥÑģ ÑģÑĤÐ²Ð¾
ĠÐºÐ°Ð±Ð¸Ð½ ÐµÑĤÐ°
Ð»ÑİÐ± Ð»ÐµÐ½Ð½Ð°Ñı
ĠÐ³ÑĢÑĥÐ± ÑĭÐ¼
ĠÑĥÐ·Ð½ Ð°Ð»Ð¸
ĠÐ»Ð°ÑģÐºÐ¾Ð² ÑĭÐµ
ĠÐºÐ¾Ñģ Ð½ÑĥÐ»ÑģÑı
ĠÐºÐ¾Ñģ Ð½ÑĥÑĤÑĮÑģÑı
ĠÐ´ÑĥÑħ Ð°
ĠÑĢÐ¾Ð² Ð½ÑĭÐ¹
ĠÐ¿ÑĢÐ¾Ð³ Ð¾Ð½
ĠÐ¿ÑĢÐ¾Ð³ ÑĥÐ»
ĠÐ½ÐµÐ¾Ð± ÑĬ
ĠÑģÐ²ÐµÐ¶ Ð¸Ð¼
ĠÑģÐ²ÐµÐ¶ Ð¸Ð¹
ĠÐ¿ÑĢÐ¾Ð¸Ñģ ÑĪÐµÐ´
ĠÑĤÐµÑĤ ÐºÐ°
ĠÑĤÐµÑĤ ÐºÐ¸
ĠÐ¼ÐµÐ»ÑĮ ÐºÐ½ÑĥÐ»
ĠÐ¼ÑĥÐ·Ñĭ ÐºÐ¸
ĠÑģÐµÐ´ ÑĥÑİ
ĠÐ¿Ð»Ð°Ñĩ Ñĥ
ĠÐ¿Ð»Ð°Ñĩ ÑĥÑĤ
ĠÐ¾Ð±ÑĬÑıÑģÐ½ ÐµÐ½Ð¸Ñı
ĠÐ¼ÐµÑĪ Ð°Ð»Ð¾
ĠÐ¿ÑĢÐ¸Ð¼ ÐµÐ½
ĠÐ¿ÑĢÐ¸Ð¼ ÐµÑĢ
ĠÑģÐ»ÑĥÑĩÐ° Ð¸
ĠÑĦÐ¾Ð½Ð°ÑĢ Ñı
ĠÐ¿ÑĥÐ³ Ð°ÐµÑĤ
ĠÐ»Ð¸ÑĪ Ð½Ð¸Ð¹
ĠÑĤÑĢÐ°Ð² Ð¾Ð¹
Ðĵ ÑĢÑĥÐ·
ĠÐºÑĢÑĥÐ¿ Ð½ÑĭÐµ
ĠÐ¯ÐºÐ¾Ð² Ð»ÐµÐ²
ĠÐ¾Ð¿ÑĥÑģÑĤ Ð¸Ð»Ð°ÑģÑĮ
ĠÑģÐ¶ Ð°Ð»
ĠÑģÐ¾ÑģÐµÐ´ Ð°
ĠÑģÑĥÐ´ÑĮ Ð±Ðµ
ĠÐ¿ÑıÑĤÑĮ Ð´ÐµÑģÑıÑĤ
ĠÑĦÐ°Ðº ÑĤÐ¾Ð¼
ĠÐ¶ÐµÐ»ÑĤ ÑĭÐ¼
ĠÐ¿ÑĢÐ¸ÑģÑĤÐ°Ð² Ð°
ĠÐ·ÐµÐ»ÐµÐ½ ÑĭÐµ
ĠÐ§Ð¸ÑģÑĤÑı ÐºÐ¾Ð²Ð°
ĠÑĤÐ² Ð¾Ñİ
ĠÑħÑĢ Ð°Ð±ÑĢ
ĠÑħÐ¾ÑħÐ¾ÑĤ Ð°Ð»
ĠÐŀÑĩ ÐµÐ²Ð¸Ð´Ð½Ð¾
Ð¾Ð·Ð¼ Ð¾Ð¶
Ġ2 5
ĠÐ¾ÑħÐ²Ð°ÑĤ Ð¸Ð»
ĠÑĤÐ°Ð¹ Ð½Ñĥ
ĠÐ´Ð¸Ð² Ð°Ð½Ð°
ĠÑĥÑĢ Ð¾ÐºÐ¾Ð²
ĠÑħÐ²Ð°ÑĤ Ð°ÐµÑĤ
ĠÑģÐ²ÑıÐ· ÑĮ
ĠÐĳÑĥÐ´ ÑĤÐ¾
ĠÐ¿Ð¾Ð·Ð½Ð°ÐºÐ¾Ð¼ Ð¸Ð»Ð¸ÑģÑĮ
ĠÑĤÐ¾Ñĩ ÐºÑĥ
ĠÑģÐ°Ð¿ Ð¾Ð¶
ĠÐ·Ð°Ð¿Ð»Ð°Ðº Ð°ÑĤÑĮ
ĠÐ¸ÑģÐ¿ÑĭÑĤ ÑĭÐ²Ð°ÑĤÑĮ
ĠÑĤÐ¾ÑĢÐ³Ð¾Ð² Ð»Ñİ
ĠÐ·Ð²ÐµÑĢ Ð¸
ĠÐ¿Ð¾Ð´Ð» Ð°Ñı
ĠÐ¿ÑĢÐ¸ÑģÑı Ð³Ð¸
ĠÑĤÑĥÑģÐº Ð»ÑĭÐµ
ĠÐ½Ð°ÑģÑĤÑĥÐ¿ Ð¸Ð»
ĠÐ¿Ð¾ÑĤÐ¾Ð» ÐºÐ°
ĠÑĩÐµÑģÑĤ Ð½Ð¾Ð³Ð¾
ĠÐ»ÐµÑĩ Ð¸ÑĤÑĮ
ĠÐ¿ÐµÑĢÐµÐ± Ð¸Ð»
ĠÐ¾ÑĤÐºÑĢÑĭÐ² Ð°Ñı
ĠÐ¿ÑĢÐ¸Ð²ÑĭÐº Ð»Ð¸
ĠÐ¸Ð³ÑĢÐ° ÑİÑĤ
ĠÐ°Ð²ÑĤÐ¾ÑĢ Ð¾Ð²
ÐłÑĥÑģ ÑģÐºÐ¸Ñħ
ĠÐ±Ð»ÐµÑģÑĤÑıÑī Ð¸Ðµ
ĠÐ¾ÑģÐºÐ¾ÑĢÐ± Ð¸Ð»
ĠÐ¿ÑĢÐ¾Ð¸ÑģÑħÐ¾Ð´ Ð¸ÑĤ
ĠÐ¼Ð¾ÑģÑĤ Ð¾Ð²Ð¾Ð¹
ĠÑģÑĤÑĥÐ¿ ÐµÐ½ÑĮÐºÐ¸
ĠÐ¼ÑĢÐ°Ñĩ Ð½ÑĭÐ¼
ĠÐ¿ÑĢÐ¸ÑĢ Ð¾Ð´Ðµ
ĠÐ½ÐµÑĥÐ´ Ð¾Ð±Ð½Ð¾
ĠÐ¿Ð¾Ð´Ð¿ Ð¸Ñģ
ĠÐ½ÐµÐ²ÐµÐ´Ð¾Ð¼ Ð¾Ð¹
ĠÑĢÐ°Ð·Ð³Ð¾Ð²Ð°ÑĢ Ð¸Ð²Ð°ÑĤÑĮ
ĠÐ¾ÑĤÐºÑĢÑĭÑĤ ÑĭÐµ
ĠÐºÐ¾Ð¼Ð¿ Ð°Ð½Ð¸Ñı
ĠÐºÐ¾Ð¼Ð¿ Ð°Ð½Ð¸ÐµÐ¹
ĠÑģÐ²Ð¸Ð´ÐµÑĤÐµÐ»ÑĮ Ð½Ð¸ÑĨÐ°
ĠÐĶÐ¼Ð¸ÑĤÑĢÐ¸ÐµÐ²Ð¸Ñĩ Ð°
ĠÐ¾Ð±ÐµÑĢ Ð½ÑĥÐ»Ð°ÑģÑĮ
ĠÐ¿ÑĢÐ¸Ð³Ð»Ð°ÑĪ Ð°Ð»
ĠÑĤÑĢÐ¾Ð³ Ð°ÑĤÐµÐ»ÑĮÐ½Ð¾
Ð¸Ð¿Ð¿ ÐµÑĢ
ĠÐ·Ð°Ð±Ñĭ Ð»Ð¸
ĠÐ¤Ð¸Ð» Ð°ÑĢÐµÑĤ
ĠÐ¼Ð¾Ð»ÑĩÐ°Ð»Ð¸Ð² ÑĭÐ¹
ĠÐ¼Ð¾Ð»ÑĩÐ°Ð»Ð¸Ð² ÑĭÐµ
ĠÐ¿Ð¾Ð²Ð¾ÑĢ Ð¾ÑĤÐ¾Ð¼
ĠÑĢÐ¾Ñģ ÐºÐ¾ÑĪ
ĠÐ²ÑĭÑģÑĤÑĥÐ¿ Ð°Ð»Ð¸
ĠÐ¡ÑĤÑĢ Ð°Ð½Ð½Ð¾
ĠÐ³Ð»Ð°Ð´ Ð¸Ð»
ĠÐ³Ð»Ð°Ð´ ÐºÐ¾
ĠÑģÑĥÐ´Ð° ÑĢÑĮ
ĠÐŁÐ¾ÑĤ Ð°Ð¿
ĠÐ¾Ð´ÐµÑĤ ÑĭÐµ
ĠÐ¾ÑģÑĤÐ°Ð½Ð°Ð²Ð»Ð¸Ð² Ð°ÐµÑĤÑģÑı
ĠÐ·Ð°ÑīÐ¸ÑĤ Ð½Ð¸Ðº
ĠÐ¼Ð°Ð¼ Ñĭ
ĠÐ°Ð´ Ð²Ð¾Ðº
ĠÐŁÑĢÐ¸ÑĪ Ð»Ð°
ĠÑĩÐ°ÑģÑĤÐ¸ ÑĨÑĭ
ĠÐ½Ð°ÑĤ Ñı
ĠÐ²Ð¸Ð½Ð¾Ð² Ð°ÑĤ
ĠÐ³ÑĢÐ¾Ð± Ñĥ
Ġ190 4
ĠÐĲÐ»ÐµÐºÑģÐµ Ñı
ĠÐ³Ð¸Ð¼Ð½Ð°Ð·Ð¸ÑģÑĤ Ñĭ
ĠÐ¶ÐµÑģÑĤÐ¾Ðº Ð¸Ð¹
ĠÑĩÐµÑħÐ¾Ð² ÑģÐºÐ¾Ð³Ð¾
ĠÐ·Ð»Ð¾Ð² Ðµ
ĠÐµÐ·Ð´ Ð¸Ð»Ð¸
ĠÐ¾ÑĤÐ´ÑĭÑħ Ð°
ĠÐ·Ð»Ð¾Ð± Ñĥ
ĠÐ¿ÑĢÐ¾Ð¸Ð·Ð²ÐµÐ´ ÐµÐ½Ð¸Ñı
ĠÑĤÑī ÐµÑĤÐ½Ð¾
ĠÐ´Ð¾ÑĢÐ¾Ð¶ ÐºÐ¸
ĠÐ½ÐµÐ·Ð°Ð¼ ÐµÑĤ
ĠÐ¿ÑĢÐ¸Ð¶Ð¸Ð¼ Ð°Ð»
ĠÐµÐ» ÐºÐ¸
ĠÐłÐ¾ÑģÑģ Ð¸Ñİ
ĠÑģÐµÑĢÐµÐ± ÑĢÐ¸ÑģÑĤ
ĠÑģÑĥÑĢÐ¾Ð² ÑĭÐ¼
ĠÐĴÐ»Ð°Ð´Ð¸Ð¼ Ð¸ÑĢÐ¾Ð²
Ð¸Ð½Ð¸ ÑģÑĤ
ĠÐ¿Ñģ Ð°Ð»
ĠÑĢÐ¾ÑģÑĤ Ð¾Ð¼
ĠÐ´ÑĢÐ¾Ð¶Ð°Ñī Ð¸Ð¼Ð¸
ĠÐ¿ÑĢÐ¸Ð½Ð°Ð´Ð»ÐµÐ¶ Ð°Ð»Ð°
ĠÑģÐ¾ÑĤ Ð²Ð¾ÑĢ
ĠÐ·ÑĢ ÐµÐ½Ð¸Ñı
ĠÐºÑĢÑĭÐ» ÑĮÑı
ĠÑĥÐ¼Ð¸ÑĢ Ð°Ð»Ð¸
ĠÐ¾ÑĤÐ´ÐµÐ»ÑĮ Ð½ÑĭÐµ
ĠÐ¾ÑĤÐ´ÐµÐ»ÑĮ Ð½ÑĭÑħ
ĠÐºÐ¾ÑĢÐ¸Ð´Ð¾ÑĢ Ñĥ
ĠÐ¾Ð±ÑģÑĤÐ¾ÑıÑĤÐµÐ»ÑĮ ÑģÑĤÐ²
ĠÐºÐ»Ð¸ ÑĢÐ¾Ñģ
ĠÐºÐ»Ð¸ Ð½Ð¸ÐºÑĥ
ĠÐ±ÑĥÐ´ÑĥÑī ÐµÐ³Ð¾
ĠÐ²Ð¾ÑģÑĤÐ¾ÑĢÐ³ Ðµ
ĠÑĢÐ°Ð·Ð¼ÑĭÑĪ Ð»ÑıÐ»
ĠÑĢÐ°Ð·Ð¼ÑĭÑĪ Ð»ÐµÐ½Ð¸Ð¹
ĠÐ±Ð°Ð» ÐºÐ¾Ð½
ĠÐ¿ÑĢÐ¾Ð» ÐµÑĤ
ĠÑĢÐ°Ð±Ð¾Ñĩ Ð¸Ðµ
ĠÐ¿ÑĢÑĭÐ³ Ð°Ð»Ð¸
ĠÐ¢ÑĢ ÑĥÐ´Ð½Ð¾
ĠÐ¿ÑĢÐ¾ÑĤÐ¸Ð²Ð¾ÑĢÐµÑĩ Ð¸Ñı
Ð¤ Ð¸Ð»
Ð¤ ÐµÐ¾Ð´Ð¾ÑģÐ¸Ð¹
ĠÑģÐ½Ð° ÑĢÑĥÐ¶Ð¸
ĠÑĢÐ° ÑģÑĤÐ²Ð¾ÑĢ
ĠÑģÐºÑĢÑĭÐ» Ð°ÑģÑĮ
ĠÑģÐ¼ÑĥÑī ÐµÐ½Ð½Ð¾
ĠÐ²Ð·ÑĢÐ¾Ñģ Ð»ÑĭÑħ
ĠÐ²ÑĢÐ°Ð³ Ð¾Ð²
ĠÐ¾ÑĤÐ²Ð¾ÑĢ Ð°Ñĩ
ĠÐĲÐ²ÑĢÐ°Ð¼ Ð¾Ð²Ð°
ĠÑģÐ¿ÑĢÑıÑĤ Ð°Ð»
ĠÐ´ÐµÐº Ð¾ÑĢÐ°
ĠÑĩÐ¸Ð½Ð¾Ð² Ð½Ð¸Ðº
ĠÐĴÐ¾Ñģ Ð¿Ð¾Ð¼Ð¸Ð½Ð°Ð½Ð¸Ñı
ĠÐ°Ð¿ ÑĤ
ĠÐºÐ¾ÑĪ Ð¼Ð°ÑĢ
ĠÐ¿ÑĢÐ°Ð²Ð´ Ð¸Ð²Ð¾
ĠÐ¶Ð³ÑĥÑĩ Ð¸Ð¹
ĠÐ¼ÐµÐ¼ÑĥÐ°ÑĢ Ñĭ
ĠÑĢÐµÐ¿ÐµÑĤ Ð¸ÑĤÐ¾ÑĢ
ĠÐ±Ð¾ÑıÐ· Ð»Ð¸Ð²Ð¾
ĠÐ½ÐµÐ¿ÑĢÐµÑĢÑĭÐ² Ð½Ð¾
ĠÐ²Ð¾ÐºÐ· Ð°Ð»Ð°
ĠÐ²Ð¾ÐºÐ· Ð°Ð»Ðµ
ĠÐ¼Ð¾Ð½Ð°ÑģÑĤÑĭÑĢ Ðµ
ĠÐ¿ÑĢÐµÐ» ÐµÑģÑĤÑĮ
ĠÐĴÐ¿ Ð¾ÑģÐ»ÐµÐ´ÑģÑĤÐ²Ð¸Ð¸
ĠÐĴÐ¿ ÐµÑĢÐµÐ´Ð¸
ĠÐ³ÑĢÑĥ ÑģÑĤÐ¸
ĠÐ¸Ð¼Ð¿ ÑĢÐ¾Ð²
ĠÐ²ÐµÑģÐµÐ½ Ð½ÐµÐ³Ð¾
ĠÐ·Ð°Ð³Ð¾Ð²Ð¾ÑĢ Ð¸Ð»Ð°
ĠÐŁÐ¾ÑģÐ»ÐµÐ´ Ð½Ð¸Ð¹
ĠÐ´ÑĢÐ°Ð³Ð¾ÑĨ ÐµÐ½Ð½Ð¾Ðµ
ĠÐºÑĢÐ¾ÑĤ ÐºÐ¾
ĠÐ¿Ð¾Ð±Ð»ÐµÐ´ Ð½
ÐµÐ¼Ð½ Ð¾Ð³Ñĥ
ĠÐ±Ð»Ð°Ð¶ ÐµÐ½Ð½Ð¾
ĠÐ·Ð°ÐºÑĢÑĭÑĤ ÑĭÐ¼Ð¸
ĠÐ¿Ð¾ÑħÐ²Ð°Ð» Ð¸Ð»
ĠÐ±ÐµÑģÐ¿Ð¾Ð¼Ð¾Ñī Ð½Ð¾
ĠÑģÐ¾ÑĪÐµÐ» ÑģÑı
ĠÑĤÐµÐº ÑģÑĤ
ĠÐ´Ð¸ÑĢÐµÐº ÑĤÐ¾ÑĢÐ°
ĠÐ½ÐµÑģÐ¿ ÑĢÐ°Ð²ÐµÐ´
ĠÐ¾ÑĤÑħÐ¾Ð´ Ð¸ÑĤ
ĠÐ·Ð°Ð²ÑģÐµÐ³Ð´ Ð°ÑĤÐ°Ð¹
ĠÐ¤ÐµÐ´ Ð¾ÑĢ
ĠÐ²ÑģÐºÑĢÐ¸Ðº Ð½ÑĥÐ»
ĠÐ¡Ð»ÑĭÑĪ Ð¸ÑĪÑĮ
ĠÐĴÐ¼ ÐµÑģÑĤÐµ
ĠÐ¿ÑĢÐ¸ÑħÐ¾Ð¶ ÐµÐ¹
ĠÐ¼ÐµÐ´Ð¸ÑĨ Ð¸Ð½
ĠÑĢÐ°Ð·Ð±ÑĥÐ´ Ð¸ÑĤÑĮ
ĠÑĦÐ¸Ð·Ð¸Ð¾Ð½Ð¾Ð¼ Ð¸Ñı
ĠÐ²Ðº Ð»ÑİÑĩ
ĠÐ»Ñĥ Ð½Ð°
ĠÑĪÐ°Ð¼Ð¿Ð°Ð½ ÑģÐºÐ¾Ðµ
ĠÑĦÑĢ Ð°Ð½ÑĨ
ĠÐ²Ð¾Ð·ÑĮ Ð¼Ñĥ
ĠÐ¿ÑĢÐµÐ´Ð»Ð°Ð³ Ð°Ð»
ĠÐ±Ð¾Ð»ÐµÐ·Ð½ ÐµÐ½Ð½Ð¾
ĠÑĢÐµÐ»ÑĮ ÑģÑĭ
ĠÐ³ÑĢÐ¾Ñħ Ð¾ÑĤÐ¾Ð¼
ĠÐ¾ÑģÐ½ Ð¾Ð²Ð°Ð½Ð¸Ñı
ĠÐ¿ÑĢÐ¸ÐºÐ¾ÑģÐ½Ð¾Ð² ÐµÐ½Ð¸Ðµ
ĠÐ°ÐºÐºÑĥ ÑĢÐ°ÑĤ
ĠÐ¡Ð»ÑĥÑĩ Ð°Ð»Ð¾ÑģÑĮ
ĠÐľÐ¸ÑħÐ°Ð¹Ð»Ð¾Ð² ÑģÐºÐ¸Ð¹
ĠÐľÐ¸ÑħÐ°Ð¹Ð»Ð¾Ð² ÑģÐºÐ¾Ð³Ð¾
ĠÐ²Ð·Ð´ÑĢÐ¾Ð³ Ð½ÑĥÐ»
ĠÐ½ÐµÐºÑĢÐ°Ñģ Ð¸Ð²
ĠÐ¡Ð¾Ð± Ð°ÐºÐ°
ĠÐ¿Ð¾Ð´Ð¾Ð» Ð³Ñĥ
ĠÐ¿ÑĢÐ¸Ð³Ð»Ð°Ñģ Ð¸Ð»
ĠÑĤÑĢÐµÐ±Ð¾Ð² Ð°ÑĤÐµÐ»ÑĮ
ĠÑģÐ²Ð¸Ð´ÐµÑĤ ÐµÐ»ÐµÐ¹
ĠÐ´Ð¾Ð½Ð¾Ñģ Ð¸Ð»ÑģÑı
ĠÐºÑĥÐ· Ð½Ðµ
ĠÐ¿ÑĢÐµÐ¿ Ð¾Ð´
ĠÑģÑĤÑĥ Ð»Ðµ
ĠÐ¾Ð±Ð¼Ð°Ð½Ñĭ Ð²Ð°Ð»
ĠÐ¾ÐºÐ°Ð·Ð°Ð» Ð°ÑģÑĮ
ĠÐ¼Ð½Ð¾Ð³Ð¾ÑĩÐ¸Ñģ Ð»ÐµÐ½Ð½ÑĭÐµ
ĠÑĢÐµÐ²Ð¾Ð»Ñİ ÑĨÐ¸Ð¸
ĠÐ¶ÑĥÑĢÐ½Ð°Ð»Ð¸ÑģÑĤ Ð¾Ð²
ĠÐ¿ÑĢÐµÐº ÑĢÐ°ÑĤ
ĠÐ¾ÑĤÐ³ Ð¾Ð»Ð¾Ñģ
ĠÐ¿Ð¾ÑıÑģÐ½ Ð¸Ð»
ĠÐĴÐ½ ÐµÐ·Ð°Ð¿Ð½Ð¾
ĠÐ³Ð¾ÑĢÐ¸Ð· Ð¾Ð½
ĠÐĽÐ°Ð² ÐºÐ°
ĠÐ¨ÑĥÑĢ Ð¾ÑĩÐºÐ°
ĠÐ¿ÑĢÐ¾ÑħÐ¾Ð¶ Ð¸Ñħ
ĠÑĥÑĤÐ¾Ð½ ÑĥÐ»Ð°
ĠÐŁÑĥÑģÑĤ ÑıÐºÐ¸
ĠÐ½Ð¾ÑıÐ± ÑĢÑĮ
ĠÐ¡ÑĤÑĢÐµÐ»ÐµÑĨ ÐºÐ¾Ð¹
ĠÑĦÐµÐ»ÑĮÐ´ÑĪ ÐµÑĢÐ¸
ĠÑĢÐµÐ¶ Ðµ
Ð¾ÑĢÐ¾Ð³ Ð¾Ð¹
ĠÐ¶Ð°Ð½Ð´Ð°ÑĢ Ð¼
Ð°Ð½Ñĥ Ð½Ðµ
ĠÐ¡ÑĢÐµÐ´ Ð¸
ĠÑĤÑĢÐ¸Ð´ ÑĨÐ°ÑĤÑĮ
ĠÐĳÐ»Ð°Ð³Ð¾Ð´Ð°ÑĢ Ñİ
ĠÐºÐ¾Ð½Ð´ÑĥÐº ÑĤÐ¾ÑĢ
ĠÐ½ÐµÐ´Ð¾Ð²ÐµÑĢ ÑĩÐ¸Ð²Ð¾
ĠÐºÑĥÑĢÑĮ ÐµÐ·
ĠÐ½ÐµÑĥÑĤ Ð¾Ð¼
ĠÐºÐ¾Ð½ÑĦÑĥÐ· Ð»Ð¸Ð²Ð¾
ĠÐ²Ð± Ð»Ð¸Ð·Ð¸
ĠÐ¾ÑĤÐ¾ÑĪ Ð»Ð°
ĠÐ¿ÐµÑĢÐµÐ³Ð¾ ÑĢÐ¾Ð´
ĠÐ¿Ð¾Ð»ÑĥÐ³ Ð¾Ð»
ĠÑĥÑĤÐ²ÐµÑĢÐ´ Ð¸ÑĤÐµÐ»ÑĮÐ½Ð¾
ĠÐ±ÐµÑģÑģÐ¾Ð·Ð½ Ð°ÑĤÐµÐ»ÑĮÐ½Ð¾
ĠÐ´ÐµÐ¿Ð°ÑĢÑĤ Ð°Ð¼
ĠÐĴÐ°ÑĢ Ð²Ð°ÑĢÐ°
ĠÐ¡ÐµÑĢÐ´ ÑĨÐµ
ĠÐ¡Ð°ÑħÐ°Ð» Ð¸Ð½
ĠÐľÐ°Ñģ Ð»ÐµÐ½
ĠÐľÐ°Ð½ ÐµÑĩÐºÐ°
ĠÐľÐ°ÑĤÑĢ ÐµÐ½Ð°
ĠÐķÑĢÐ¾ ÑĦÐµ
ĠÐĳÐµÑģÐº Ð¾Ð½ÐµÑĩ
ĠÐĵÐµÐ½ÑĢ Ð¸Ñħ
ĠÐĺÐ·Ð²Ð¾Ð· ÑĩÐ¸Ðº
ÐŁÐµÑĤÐµÑĢÐ±ÑĥÑĢÐ³ ÑģÐºÐ¾Ð¹
ĠÐĽÐ¸Ð½ÑĤÐ²Ð°ÑĢ ÐµÐ²ÑĭÑħ
ÑĩÐµÐ»Ð¾Ð² ÐµÐºÐ°
ĠÑĪÐ°Ð± Ð»Ð¾Ð½
ĠÐ³Ð¾ÑĢÐµÑĩ ÑĮÑİ
ĠÐ¾Ð¿ÐµÑĢÑĪ Ð¸ÑģÑĮ
ĠÐ½ÐµÐ¿Ð¾ÐºÐ¾Ð» ÐµÐ±
ĠÐ¿Ð¾Ð²Ð¸Ð´ Ð°ÑĤÑĮÑģÑı
ĠÐŀÑĤÐ· Ð¾Ð²Ð¸ÑģÑĮ
ĠÐ½ÐµÐ¿ÑĢÐµÑģÑĤ Ð°Ð½Ð½Ð¾
ĠÐĴÑģÐµÐ±Ð»Ð°Ð³ Ð¸Ð¹
ĠÑģÑĩÐ°ÑģÑĤ Ð»Ð¸Ð²Ð¾
ĠÐ´Ð¸ÑĤ Ñı
ÐµÑĢÐ°ÑĤ ÑĥÑĢÐ°
ĠÑįÐºÐ¾Ð½ Ð¾Ð¼
ĠÑĤÑĢÐ¸Ð¶ Ð´Ñĭ
ĠÐ±ÐµÐ·ÑĭÑģ ÑħÐ¾Ð´
ĠÐ²ÑģÐºÐ¾Ð»ÑĮÐ· ÑĮ
o u
Ð ®
Ðµ ÐµÐ¹
ÑĤ Ð°Ð¼
ÑĤ Ð¸Ð½
ÑĤ Ð°ÑĤÑĮ
ÑĤ Ð°Ð»Ð°
ÑĤ ÑĭÐ¹
ÑĤ ÑĢÐ°ÑĪ
Ñģ ÑĤÐ¾
Ñģ ÐµÐ»ÑĮ
Ð½ Ð°ÑĤÑĮ
Ð» ÐµÐ³
Ð» ÐµÑĨ
Ð» ÐµÐ¶Ð°Ð»
ÑĢ ÑĥÐ´
ÑĢ ÑĥÑģ
Ñĥ ÐµÐ¼
ÑĮ ÐµÑĤÑģÑı
ĠÑģ Ñĩ
ĠÑģ Ð¸ÑĤ
ĠÑģ Ð°Ð¶
ĠÑģ Ð°Ð½Ð¸
ĠÑģ ÐµÐ´ÑĮ
ĠÐ¿ Ð¸ÑĤ
ĠÐ¿ ÐµÐ´
ĠÐ¿ Ð°Ð½
ĠÐ¿ Ð¸Ð´
ĠÐ¿ ÐµÐ¿
ĠÐ¿ ÐµÑĪ
ĠÐ¿ ÐµÐ»Ð°
ĠÐ¿ ÐµÐ½Ð¸ÐµÐ¼
ĠÐ¿ ÑĥÑģÑĤÐ¾Ðµ
ĠÐ¿ Ð°Ð½ÑģÐ¸Ð¾Ð½
ĠÐ½ Ð¾Ð¼
ĠÐ½ ÑıÐ½
ĠÐ½ ÐµÐ·Ð´
ĠÐ½ Ð¾Ð·Ð´ÑĢ
Ñĩ ÐµÑģÑĤ
Ðº Ð°ÑĤ
ĠÐ² Ð²
ĠÐ² Ð°Ð½
ĠÐ² Ð¸Ð´Ð°
Ð² Ð°Ð»Ð¸ÑģÑĮ
ĠÐ¾ ÐºÐ¾Ð²
Ð´ Ð²Ð°
Ð¼ Ð°Ð»
Ð¼ Ð¸ÑģÑģ
ÑĤÐ¾ Ñī
Ñħ Ð¾Ð»
Ñħ Ð¾Ð¼
Ñħ Ð¾Ð»Ð¾Ð´
ĠÐº Ð¾Ð·
ĠÐº ÑĥÑĤ
ĠÐº ÑĥÐ¼
Ð¾Ð² Ñĭ
Ð¾Ð² ÐµÑģÑĤ
Ð¾Ð² ÑģÐºÐ¾Ð¹
ÑģÑĤ ÑıÐ¼Ð¸
ÐµÐ½ ÐµÐ±
ĠÐ± Ñİ
ĠÐ± Ð»Ð¸
ĠÐ± ÑĥÐ»
ĠÐ± Ð¾Ð¶Ðµ
ĠÑĤ Ð°Ñģ
ĠÑĤ ÐºÐ½ÑĥÐ»
ĠÐ´ Ð½Ð¾
ĠÐ´ ÐµÐ´
ĠÐ´ Ð°ÑĢÐ¾Ð¼
ĠÐ´ ÐµÐ¼Ð¾Ð½
ÐµÐ» ÐµÐ½
ÐµÐ» ÐµÐº
Ð¾Ð» ÐµÐ»
Ð¾Ð» Ð°Ð¼
Ð¾Ð» ÐºÑĥ
ÐµÑĢ ÐµÐ²
ĠÐ¼ Ñĩ
ĠÐ¼ Ð°Ðº
ĠÐ¼ Ð¸Ð½
ĠÐ¼ Ð¸Ð½ÑĥÐ²
Ñİ ÑĢ
Ñİ ÑĤÐ°
Ð½Ð¾ ÑģÑıÑĤ
Ð¾Ð¼ ÐµÑĤ
Ð¾Ð¼ Ð¼Ð¸ÑģÑģ
ÐµÑĤ ÐµÑģÑĮ
Ð¸Ð» Ð¸Ðµ
ĠÑĩ Ð¾Ðº
ĠÐ· Ð½Ð¾Ð¹
ĠÐ· ÑĭÐ±
ĠÐ¿ÑĢ ÐµÑĢ
ĠÐ¿ÑĢ ÑĥÐ¶
ĠÐ¿ÑĢ Ð¾ÑģÑĤÐ¸
ĠÐ¿ÑĢ ÑĭÐ¶
ĠÐ¿ÑĢ ÐµÐ½ÐµÐ±
Ð¾Ð´ ÐµÑĤ
ĠÐ½Ðµ Ð¸ÑģÑĤÐ¾
Ð°ÑĤ Ð¾Ð³Ð¾
Ð°ÑĤ ÐºÐ°
âĢ ĵ
ĠÐ³ ÑĥÑĢ
ĠÐ½Ð° Ð½ÑıÐ»
ĠÐ½Ð° Ð¾Ð±Ð¾ÑĢÐ¾ÑĤ
Ð°Ð² ÑĤÑĢÐ°
Ð¿ Ð¾
Ð¿ Ð¸Ñģ
Ð¿ ÑĢÐ°Ð²
Ð¿ ÐµÑĢÐ²
Ð½Ð¸ Ð²
Ð½Ð¸ ÑıÐ¼
Ñī ÑĥÐ½
Ñī Ð¸ÐºÐ¸
Ñī Ð¸ÐºÐ¾Ð¼
ĠÑĥ ÐµÑħÐ°Ð»Ð°
ĠÐ» Ð¸Ð»
ĠÐ» Ð±Ð¾Ð¼
Ð± Ð¾ÑĢ
Ð± ÐµÐ·
Ð± Ð»Ð°Ð³Ð¾
Ð½Ð° ÑĢÐ¾Ð´
Ð¸Ð² Ð°Ð¹ÑĤÐµ
ĠÐ¶ ÐµÑĢ
ÐµÐ´ Ð°ÐµÑĤ
ÐµÐ´ ÐµÑĪÑĮ
ÐµÐ´ ÑĪÐµÐ³Ð¾
ĠÐ¾ÑĤ ÑģÑĤ
ĠÐ¾ÑĤ ÑħÐ¾Ð´Ð¸Ð»
ĠÐ¾ÑĤ Ð¾Ð´Ð²
ĠÐ¾ÑĤ ÐºÐ°Ñĩ
Ð°Ð½ ÐµÑĤ
Ð°Ð½ ÑĩÐ¸Ð²
Ð°Ð½ ÑģÐºÐ¾Ð³Ð¾
Ð¾Ðº ÑĢÐ°ÑĤ
Ð¸Ð¼ ÑĭÐ¼Ð¸
Ð´Ð° Ñİ
Ð´Ð° ÑİÑĤÑģÑı
Ð¸Ð½ ÑĮ
Ð°Ð´ Ð°
Ð°Ð´ Ñĥ
ĠÑı Ð´Ð°
ĠÑı Ð¼Ñĭ
ĠÐºÐ°Ðº Ð¾Ñİ
Ð³Ð¾ ÑĤÐ¾Ð²
ĠÐĿ ÐµÑĩ
ĠÐĿ Ð¸Ð½Ð°
Ð³ Ð¾Ð¹
Ð³ Ð¸Ð¼Ð½Ð°Ð·
ĠÑį Ð³Ð¾
ĠÑį ÑĦÑĦ
Ð°ÑĢ Ð¸
Ð°ÑĢ Ð¶
Ð°ÑĢ ÑĥÑĪ
Ð°Ñı ÑģÑı
Ð¾Ð¶ Ð¸ÑĤÑĮ
ÐµÑģ Ð¸
ĠÐĴ ÑģÑİ
ĠÐĴ ÐµÐ»Ð¸Ðº
Ð¸Ñĩ ÐµÐº
Ð½Ñĥ ÑĤÐ¾Ðµ
Ð½Ñĥ ÑĤÑĢÐ¸
ĠÐĺ Ð´ÐµÑĤ
ĠÐĺ ÑĤÐ°Ðº
ĠÐĺ ÐµÑĢÑĥÑģÐ°Ð»Ð¸Ð¼
ĠÑħ Ð°ÑĤÐµ
ĠÑģÐ² Ð°Ð´ÑĮ
ÑģÑĤÐ² ÐµÐ½Ð½Ð¾Ð¹
ĠÐ° Ð¼
ÑĥÐ´ ÐµÑĤ
ĠÐ²Ñĭ Ñī
ĠÐ²Ñĭ ÑĤÐµÑĢ
ĠÐ²Ñĭ Ð½Ð¾Ñģ
ĠÐ²Ñĭ ÑıÑģÐ½
Ð»Ð¸ Ñı
ÐµÐº Ð»Ð¾Ð½
ĠÐĲ Ð¹
ÐµÐ»ÑĮ ÑģÐºÐ¸Ð¹
ÐµÑĩ ÐºÐ¾
ÑĢÐ° ÑģÑĤÐ¸
Ð¸Ð´ ÑĭÐ²Ð°Ð»
ĠÐ¾Ð± Ð¼ÐµÐ½
ĠÐ¾Ð± ÑĢÑĥÐ³
ĠÐ¾Ð± ÑĭÑģÐº
ĠÐ¾Ð± Ð¾ÑģÑĤÑĢ
Ð¾Ð· ÑĮ
ĠÐ¡ Ð°Ð¼Ð¸
ĠÐ¡ ÐºÐ²
ĠÐ¡ ÐµÑĢÐ¿
ÑĥÐ³ Ñĥ
ÐµÐ± Ð½ÑĭÐµ
ĠÐºÐ¾ ÑģÑı
ĠÐºÐ¾ ÑģÑĤÐ¸
ĠÐºÐ¾ ÑīÑĥÐ½
ÐµÐ½ÑĮ ÐºÑĥ
ĠÐ¿Ð¾Ð´ Ð°Ð»
ĠÐ¿Ð¾Ð´ Ð¾ÑĪ
ĠÐ¿Ð¾Ð´ ÐºÐ¾Ð²
ĠÐ¿Ð¾Ð´ ÑĢÐ°Ð¶
ĠÐ¿Ð¾Ð´ Ð½ÑıÐ»Ð¸
ĠÐ¿Ð¾Ð´ Ð½ÑıÐ»Ð°
ĠÐ¿Ð¾Ð´ ÑĩÐµÑĢÐº
ĠÐ·Ð° ÐµÐ·Ð¶
ĠÐ¸Ð· Ð¼ÐµÑĢ
ĠÐ¸Ð· Ð»Ð¾Ð¼
ĠÑģÐº Ð¾Ð»ÑĮ
ĠÑģÐº ÑĥÐ¿
ĠÑģÐº ÑĥÐ»
ĠÑģÐº Ð¾Ð½Ñĩ
ĠÑģÐº ÑĥÐ»ÑĮ
ĠÑģÐº ÑĥÐºÐ°
ĠÑģÐº Ð¾Ð½ÑĦ
ĠÐºÑĢ ÐµÐ´
ĠÑĢÐ°Ð· ÑĭÐ³
ÑĭÐ² Ð°ÑİÑĤÑģÑı
ĠÐºÐ¾ÑĤÐ¾ÑĢ Ð¾Ñİ
ĠÐ§ ÐµÑĤ
ĠÐ¢ ÑĮ
ĠÐ¢ ÐµÐ»
ĠÐ¢ Ð¾ÑĢ
ĠÐ¢ Ð°Ð½
ĠÐ¢ Ð¾ÑĢÐ±
ĠÐľ Ð¸ÑĤÑĮ
ĠÐľ Ð¾Ðµ
ĠÐľ Ð°Ð»Ð¾
ĠÐľ ÑĥÐ·
ĠÐľ ÐµÐ´Ð»ÐµÐ½Ð½Ð¾
ĠÐľ Ð¾Ð½Ð°Ñħ
ÑĥÑĩ Ð¸Ð»
ĠÐ¾Ð´ Ð½Ð¾Ñİ
Ð¾Ð¿ Ð¾Ð´
Ð¾Ð¿ Ð¾ÑĤ
Ð¾Ð¿ ÑĢÐ°Ð²
ĠÑįÑĤ Ð°Ð¶
Ð¾Ñĩ ÑĥÑĤ
ĠÑĪ ÐµÐ´
ĠÑĪ Ð°ÑĪÐºÑĥ
Ð°Ð± Ð°ÑĤ
ĠÐ¿ÐµÑĢ ÑģÑĤ
ĠÐ´ÑĢ ÐµÐ²
ĠÐ´ÑĢ Ð°Ð¿
Ð¾ÑģÑĤ Ð°Ð½Ð¾Ð²
Ð¾ÑģÑĤ ÑıÐ¼Ð¸
Ð¾ÑģÑĤ ÑıÑħ
Ð¾Ð²Ð° Ð½Ñĭ
ĠÑģÐ¿ Ð¸Ð½Ð°
ĠÑģÐ¿ Ð¸Ð½Ñĭ
ĠÑģÐ¿ ÑĢÐ°Ð²ÐµÐ´
ĠÐĶ ÑĥÑĪ
ĠÐĶ ÑĮÑı
ĠÐĶ ÑıÐ´
ĠÐĶ Ð²Ð¾ÑĢ
ĠÐĶ ÐµÑĢÐ¶
ĠÐĶ Ð¾Ð²Ð¾Ð»ÑĮÐ½Ð¾
ĠÐĶ ÐµÐ½ÐµÐ³
ÑĥÑĢ Ð¾Ð¼
ÑĥÑĢ ÐºÑĥ
Ð°Ð»ÑĮ Ð½Ð¾ÑģÑĤÑĮ
ĠÐ´Ð² Ð¸Ð½ÑĥÐ»ÑģÑı
ĠÐ³ÑĢ ÑĥÑĪ
ĠÐ³ÑĢ Ð°Ð¶Ð´
ĠÐ¿Ð¾Ð» Ð¾Ð¼
ĠÐ¿Ð¾Ð» Ð¾ÑĤ
ĠÐ¿Ð¾Ð» Ð½Ð°
ĠÐ¿Ð¾Ð» Ð¾Ð½
ĠÐ¿Ð¾Ð» Ð³
ĠÐ¿Ð¾Ð» ÑĥÑĪ
ĠÐ¿Ð¾Ð» ÑĥÐ¿
ĠÑĤÑĢ ÐµÐ¼
ĠÑĤÑĢ Ð°Ð¼
ĠÑĤÑĢ ÐµÑģÐº
ĠÑĤÑĢ Ð¾ÑĤÑĥ
ĠÐ±ÑĥÐ´ ÑĮÑĤÐµ
ÑĤÑĮ ÑģÑı
ĠÐ¿Ð» Ð°Ð½
ĠÐ¿Ð» ÐµÑģÐº
ĠÐ¿Ð» Ð¸ÑĤÑĭ
ĠÐ²Ð¸Ð´ Ð½Ñĭ
ĠÐ²Ð¸Ð´ ÐµÐ½Ð¸Ðµ
ĠÐ²Ð· Ð¼Ð°Ñħ
ĠÐ²Ð· Ð¾ÑĢÐ¾Ð¼
ĠÐķ Ð¶
ĠÐĳ Ð¾
ĠÐĳ ÐµÑģ
ĠÐĳ Ð»ÐµÐ´
ĠÑĩÐµÑĢ Ð½Ð¾Ð³Ð¾
ĠÐ±ÐµÐ· Ð¾ÑĤ
ĠÐ±ÐµÐ· Ð¶Ð°Ð»
ĠÐ¾Ñĩ Ð¸Ñī
ÐºÐ¾Ð² Ð¾
ÐºÐ¾Ð² ÑĭÐ¹
ÐºÐ¾Ð² ÑģÐºÐ¾Ð¹
Ð°Ð½Ð¸ ÑıÐ¼
ÑĢÐ¾Ñģ ÑĤÐ¾
ÑĢÐ¾Ñģ Ð²ÐµÑĤ
ÑĥÐ² ÐµÐ»Ð¸Ñĩ
ĠÑģÑĤÑĢ ÑĥÐ¹
ĠÐ½Ð°Ð´ ÐµÐ¶Ð´Ñĥ
ĠÐ½Ð°Ð´ Ð¾Ð±Ð½Ð¾ÑģÑĤÐ¸
ĠÐ¶Ð¸Ð· Ð½
ĠÑĦ Ð°Ð±
ĠÐ±Ð» Ð¾Ð½
ĠÐ¿Ð¾ÑĤ Ð°
ĠÐĵ Ð¾Ð³
ĠÐĵ Ð»ÑıÐ´
ĠÐĵ ÑĢÐ¾Ð¼
ĠÐĵ Ð»Ð°Ð²
ĠÐĵ ÐµÐ¾ÑĢÐ³
ĠÐ¾Ðº Ð½Ðµ
ĠÐ¾Ðº Ð»Ð¸ÐºÐ½ÑĥÐ»
ĠÐ¾Ðº ÑĢÐ¾Ð²Ð°Ð²
Ð½Ð¸Ð¼ Ð°Ð»
ĠÐ²Ð¾Ð· Ð¸ÑĤÑĮÑģÑı
ĠÐ¼Ð¾Ð³ Ð¸Ð»Ð°
ĠÐ¼Ð¾Ð³ Ð¸Ð»ÑĮ
Ð¾Ð±Ñĭ Ð»
ĠÐ»Ð¸ÑĨ Ð°Ñħ
Ð¸ÑģÑĤ Ñĭ
Ð¸ÑģÑĤ Ð¸ÐºÐ¸
ĠÐ¸Ð¼ ÐµÐ»Ð¾
Ð½Ñı Ñħ
ÑĥÑģÑĤ Ð¸Ð»Ð°
ĠÐ¶ÐµÐ½ Ð°ÑĤ
ĠÐ¶ÐµÐ½ Ð¸ÑĤÑĮÑģÑı
ĠÐĽ Ð¾Ð¶
ĠÐ½Ð°Ñĩ Ð°Ð»ÑģÑı
ĠÐ½Ð°Ñĩ Ð°Ð»Ð¸ÑģÑĮ
ĠÐ½Ð°Ñĩ Ð½ÐµÑĤ
Ð°Ð²ÑĪ Ð¸Ð¼ÑģÑı
Ð°Ð²ÑĪ ÑĥÑİÑģÑı
ĠÐĹ Ð°Ñģ
ĠÐ¿Ð¾Ñĩ ÑĤÐ¾Ð²
Ð°ÑĤÐµÐ»ÑĮ Ð½Ð¾Ðµ
Ð°ÑĤÐµÐ»ÑĮ Ð½Ð¾Ð¼
ĠÐ½ÐµÐ¿ Ð¾Ðº
ĠÐ½ÐµÐ¿ Ð¾Ð±ÐµÐ´
Ð¾Ñħ Ð¸
Ð¾Ñħ Ð²Ð°ÑĤ
ĠÐºÐ¾Ð½ ÑİÑĪ
Ð°ÑĪ Ñĥ
ĠÐ¿Ð¾Ð½ ÑĥÑĢ
ĠÐ¿Ð¾Ð½ Ð°Ð´Ð¾Ð±
ĠÐ·Ð² Ð°Ð»Ð°
ĠÐ·Ð² ÑĥÐºÑĥ
ĠÐ¿ÑĢÐµÐ´ ÑĬ
ĠÐ¿ÑĢÐµÐ´ Ð½Ð°Ð·
ĠÑģÑĤÐ°ÑĢ Ð°ÐµÑĤÑģÑı
ĠÑģÑĤÐ°ÑĢ ÐµÐ½ÑĮÐºÐ¸Ð¹
ĠÐ´Ð¾ Ñī
ĠÐ´Ð¾ ÑħÐ¾Ð´
Ð¸ÑĤÐµÐ»ÑĮÐ½Ð¾ ÑģÑĤÑĮ
ĠÐł Ð¸Ð¼
ĠÐł ÐµÐ¿
ĠÐł Ð°Ð±Ð¾ÑĤ
ĠÐŃ ÑĤÐ¸
ĠÐŃ Ð´Ñĥ
ĠÐŃ ÑĤÑĥ
ÑĨÐ° ÐµÐ¼
ĠÐ³Ð¾Ð»Ð¾Ð² ÐºÐ°
ĠÐ³Ð¾Ð»Ð¾Ð² Ð°Ð¼Ð¸
ĠÐ±ÑĢ Ð°Ðº
ĠÐ±ÑĢ Ð¸ÑĤ
ĠÐ±ÑĢ Ð°Ð»Ð¸
ĠÐ±ÑĢ ÐµÑĪ
ĠÐ±ÑĢ ÐµÐ»Ð¾Ðº
ĠÑģÐ¾ ÐµÐ´Ð¸Ð½
Ð¸Ð²ÑĪ Ð¸Ð¼Ð¸ÑģÑı
ÑĥÐ» ÑģÑı
ĠÑģÐµÑĢ Ð¾Ðµ
ĠÑĤÐµÐ¿ Ð»Ð°
ĠÐ²ÐµÑĢ ÑĪ
ĠÐ²ÐµÑĢ Ñİ
ĠÐ²ÐµÑĢ Ð¸ÑĤ
ĠÐ¿Ð¾Ð² Ð¸Ñģ
ĠÐ¿Ð¾Ð² ÐµÑģÑĤÑĮ
ĠÐ¿Ð¾Ð² ÐµÑģÑĤÐ¸
ĠÐ¿Ð¾ÑĢ Ð¾Ñİ
ĠÑģÐ²ÐµÑĤ Ð»ÐµÐµ
ĠÐ·Ð°Ð¿ Ð¾Ð»Ð½
ĠÑģÐ¼Ð¾ÑĤÑĢ Ñı
ÑĤÐ¾Ñı Ð»Ð°
ĠÐºÐ¾Ð» Ð±
ĠÐºÐ¾Ð» Ð¾Ð½
ĠÐ¿Ð¾Ð¿ ÑĢÐ¾ÑģÐ¸ÑĤÑĮ
ĠÐ¿Ð¾Ð¿ Ð¾Ð»Ð°Ð¼
ĠÑħÐ¾ÑĢÐ¾ÑĪ ÑĥÑİ
ĠÐ·Ð°Ð¼ Ðº
ĠÐ·Ð°Ð¼ ÐµÐ½
ĠÐ´ÐµÐ» Ð°Ñı
ĠÐ²Ð¾Ð» Ð½Ñĥ
ĠÑĥÐ´ Ð¾Ð±Ð½Ð¾
ĠÐ½Ð°Ñģ ÑĭÐ¿
ĠÐ½Ð°Ñģ ÑĭÑī
ĠÐ·Ð°Ðº Ð°Ð·
Ð»Ñĭ Ð»
ĠÐ¿ÐµÑĢÐµÐ´ Ð°ÑĤÑĮ
ĠÐ¿Ð¾Ð· Ðµ
Ð°ÑİÑī Ð¸ÑħÑģÑı
ĠÐ²Ð¾Ñģ ÑħÐ¸Ñī
ĠÑĩÐµÐ¼ Ð¾Ð´
ĠÐ¿ÑĢÐ¾Ñģ Ð¸ÑĤ
ĠÐ¿ÑĢÐ¾Ñģ Ð¸Ð´
ĠÐ¿ÑĢÐ¾Ñģ Ð½ÑĥÐ²ÑĪÐ¸ÑģÑĮ
ĠÐĿÐ¸Ðº Ð¸ÑĤ
ĠÑģÑĤÑĢÐ°ÑĪ ÐµÐ½
ĠÐ³Ð¾Ð»Ð¾Ñģ ÐºÐ¾Ð¼
ĠÐ½ÐµÐ´ Ð°ÑĢÐ¾Ð¼
ĠÑĥÐ³ Ð»ÑĥÐ±
ĠÐ¸Ð½ ÑĤÐµÐ»
ÑĥÑī ÑĥÑİ
ĠÐ±ÐµÐ» Ð¾ÑĩÐºÐ°
ĠÐ±ÐµÐ» ÐµÐ½ÑĮÐºÐ¸Ðµ
ĠÐ±ÐµÐ» Ð¾ÐºÑĥÑĢ
ĠÐ¾ÑĤÐº Ð¸Ð½ÑĥÐ»
ĠÑĤÐ¸Ñħ Ð¸Ð¼
ÑĮÑİ Ñī
ĠÐĴÑĭ ÑĢÐ°Ð¶
ĠÑģÑĤÐ¾Ð» Ð±Ñĭ
ĠÐ¿ÑĢÐ°Ð² Ð¾Ð¹
ĠÐ¿ÑĢÐ°Ð² Ð¸Ð»ÑĮÐ½Ð¾
Ð¸Ð½Ñĥ Ð»Ð¸
ĠÐ½ÐµÐ² Ð·
ĠÑĤÑıÐ¶ ÐµÑģÑĤÑĮ
ĠÑĥÐ»ÑĭÐ± Ð°ÑĤÑĮÑģÑı
ĠÑĥÐ»ÑĭÐ± Ð°Ð»Ð°ÑģÑĮ
ĠÑĥÐ¿ Ð¾Ð¼Ð¸Ð½Ð°
ĠÐ·Ð°Ð± ÑĭÑĤ
ĠÐ¶Ð¸Ð² ÑĥÑİ
ĠÐ½Ð¾Ð² ÑĭÐ¼Ð¸
ĠÐ´ÐµÑĤ ÑıÐ¼
ĠÐ´ÐµÑĤ ÑģÑĤÐ²Ð¾
ÑıÑī Ð¸Ð¼Ð¸
ĠÐ·Ð°Ð´ ÑĢ
ĠÐ·Ð°Ð´ Ð½Ð¸Ðµ
ĠÐķÐ³Ð¾ ÑĢÑĭÑĩ
ĠÐ²ÑĭÑģ Ð¾Ð²
ĠÐ²ÑĭÑģ Ð¾Ñħ
ĠÑĤÐ¾Ð» Ñĩ
ĠÐ·Ð°Ð² Ð¸
ĠÐ·Ð°Ð² Ð°Ð»
ĠÐ·Ð°Ð² ÑĤÑĢ
ĠÐ·Ð°Ð² ÐµÑĢÑĪ
ĠÐ·Ð°Ð² ÑĤÑĢÐ°ÑĪ
ĠÐ»ÐµÑĤ Ð°
ÑĭÑĤ ÑĭÐµ
ĠÐ²ÑģÑı ÐºÐ¾Ð¼Ñĥ
ĠÐ¿Ð¾Ð³ ÑĢÐ¾Ð·
ĠÐ¸ÑģÐ¿ Ð¾Ð´
ĠÐ²ÐµÑĩ Ð½Ð°Ñı
ĠÐ²ÐµÑĩ Ð½Ð¾ÑģÑĤÑĮ
ĠÐ¼Ð¾Ð»Ñĩ Ð°ÑĤÑĮ
ĠÐ³Ð¾Ð´ Ð°Ð¼Ð¸
ĠÐĿÐ¸ÐºÐ¾Ð» Ð°ÐµÐ¼
ĠÐºÐ°ÑĢ Ð¼Ð°Ð½Ñĭ
ĠÐŀÑĤ Ð¾Ð¹Ð´
ĠÐ²Ð¾Ð´ ÐºÐ¾Ð¹
ĠÐ½ÐµÑģ ÐµÑĤ
ĠÐ½ÐµÑģ Ð»Ð¾
ĠÐŁÐµÑĤÑĢÐ¾Ð²Ð¸Ñĩ ÐµÐ¼
ĠÐ¼Ð¾Ð»Ð¾Ð´ ÐµÐ½ÑĮÐºÐ¸Ð¹
ĠÐ¼Ð¾Ð»Ð¾Ð´ ÐµÐ½ÑĮÐºÐ°Ñı
ĠÐ½ÐµÐ± Ð¾ÑģÑĮ
ĠÐ½ÐµÐ± ÑĢÐµÐ¶Ð½Ð¾
ĠÐ¸ÑģÐº Ð°Ð¶
ÑİÑī ÐµÐ¼Ñĥ
ÑĩÐ¸Ð² Ð¾ÑģÑĤÐ¸
ĠÐ¿Ð¾Ð¶ Ð¸Ð¼
ĠÐ¿Ð¾Ð¶ Ð°ÑĢÐ°
ĠÐ·ÐµÐ¼ Ð»ÐµÐ¹
ĠÐ¿ÑĢÐ¸Ð² ÐµÐ»
ĠÐ¿ÑĢÐ¸Ð² Ð»ÐµÑĩÑĮ
ĠÑĥÑģ Ð½ÑĥÑĤÑĮ
ĠÑĥÑģ ÐµÑĢÐ´
ĠÑĢÐ°Ð·Ð³ Ð¾Ð²
ĠÐ·Ð°Ñģ Ð°Ð»
ĠÐ·Ð°Ñģ Ð»Ð¾Ð½
ĠÐ»ÐµÐ³ Ð¾Ð½ÑĮÐºÐ¾
Ð»Ð¸Ð²Ð¾ ÑģÑĤÑĮ
ĠÑģÐ´ÐµÐ» Ð°Ð»Ð¸ÑģÑĮ
ĠÐ¾ÑĤÐ´ Ð°Ð»Ð°
ĠÐ¾ÑĤÐ´ ÑĭÑħÐ°Ð»
ĠÑĤÐ¾ÑĢ Ð¼
ĠÐ´Ð°Ð² Ð°Ð»Ð¾
ĠÐ´Ð°Ð² Ð°Ð¹ÑĤÐµ
ĠÑĥÐ¶Ð°Ñģ Ðµ
ĠÑĥÐ¶Ð°Ñģ Ð½Ð¾Ð¹
ĠÑĥÐ¶Ð°Ñģ Ð½Ð¾Ð³Ð¾
Ð°ÑĤÐµÐ» ÑıÐ¼Ð¸
ĠÐ¡ÑĤ Ð°Ð»Ð¾
ĠÐ¿ÑĥÑģÑĤ ÑĭÐ¼
ĠÐ¿ÑĥÑģÑĤ Ð¸Ð»Ð¸
Ð½Ð¸Ñĩ ÑĮ
Ð½Ð¸Ñĩ ÐµÑģÑĤÐ²Ð¾
ĠÑģÐ»ÐµÐ´ Ð¸ÑĤÑĮ
ĠÑī ÐµÐ»ÑĮ
ĠÐ³ÑĢÐ¾Ð¼ ÐºÐ¸Ð¼
ĠÐ¼Ð¸Ð» Ð¾Ð¹
ĠÐ¼Ð¸Ð» Ð¾Ðµ
ĠÐ¿Ð¾Ð½Ð¸Ð¼ Ð°Ð»Ð¸
ĠÐ¿Ð¾Ð½Ð¸Ð¼ Ð°Ð»Ð°
ĠÑģÑĤÐ°Ð» Ðº
Ð½Ð¾Ñģ ÑĭÐ¹
ĠÑĢÐ°Ð·Ð² ÐµÐ²
ĠÐ¾ÑģÑĤÐ°Ð² Ð»ÑıÑı
ĠÐ¾ÑģÑĤÐ°Ð² ÑĮÑĤÐµ
ĠÐ¼ÐµÐ´ Ð°Ð»ÑĮ
ĠÐ½Ð°Ð´Ð¾ ÐµÐ»Ð¾
ĠÐ½Ð¾Ñģ Ð¸ÑĤÑĮ
ĠÐ²Ð¸Ð´ÐµÐ» Ð¸ÑģÑĮ
ĠÐ·Ð½Ð°ÐºÐ¾Ð¼ Ð¾Ð³Ð¾
ĠÐ´Ð°Ð» ÐµÐµ
ĠÑĩÐµÑĢÑĤ ÐµÐ¹
ĠÑĥÐ´Ð¸Ð² Ð»ÐµÐ½Ð¸Ðµ
ĠÑĥÐ´Ð¸Ð² Ð»ÑıÐ»Ð¸ÑģÑĮ
ĠÐ¼Ð¸Ð½ÑĥÑĤ Ð°
ĠÐ¿ÑĢÐ¸Ð½ ÑıÐ»ÑģÑı
ĠÐ¿ÑĢÐ¾ÑģÑĤ Ð¾Ð³Ð¾
ĠÐ¿ÑĢÐ¾ÑģÑĤ Ð¸ÑĤÑĮÑģÑı
ĠÐ´Ð¾ÐºÑĤÐ¾ÑĢ Ð¾Ð²
ĠÐ½Ð°Ð² ÑıÐ·
ĠÐ´Ð¾Ð±ÑĢ Ð°Ñı
ĠÑĥÑģÑĤ ÑĢÐ°
ĠÑĥÑģÑĤ Ð°Ñħ
ĠÐŁÐ¾ ÐµÐ´ÐµÐ¼
ĠÐ¸Ñģ ÑĤÐ¾Ñī
ĠÑģÐ¸Ð»ÑĮ Ð½Ð°Ñı
ĠÐ½Ð°Ðº Ð°Ð½ÑĥÐ½Ðµ
ĠÐºÐ°Ð¼ Ð½ÑıÐ¼Ð¸
ĠÐ¾ÑĤÑĩ ÐµÑģÑĤÐ²Ñĥ
ĠÑĥÑģÐ¿ ÐµÐ²
ĠÑıÑĢ ÐºÐ¾Ð¹
ĠÐ¼ÑĥÐ¶ Ñĥ
ĠÑĢÐ°ÑģÐ¿ Ð°Ñħ
ĠÐ¿ÑĢÐ¾Ð¸Ð· Ð½Ð¾ÑģÐ¸Ð»
ĠÐ²ÐµÑģÐµÐ» Ð¾Ð³Ð¾
ĠÐ²ÐµÑģÐµÐ» ÑĥÑİ
ĠÐ²ÐµÑģÐµÐ» ÑĭÑħ
ĠÑĥÐ´Ð° ÑĢÑĭ
ĠÑĪÐ°Ð³ Ñĥ
ĠÑĪÐ°Ð³ Ð°Ð»Ð¸
ĠÐ¿ÑĢÐµÐ´ÑģÑĤÐ°Ð² Ð¸Ð»
ĠÐ¿ÑĢÐµÐ´ÑģÑĤÐ°Ð² Ð»ÑıÐ»Ð°
ĠÐ·Ð°ÑĤ ÑıÐ³
ĠÐ³Ð»ÑıÐ´ Ð¸ÑĤ
ĠÐ´ÐµÐ¹ÑģÑĤÐ² Ð¸Ñı
ĠÐ²Ð¾Ð·Ð´ÑĥÑħ Ñĥ
ĠÐºÑĢÐ¸Ðº Ð½ÑĥÑĤÑĮ
ĠÑĤÐ¾Ð½ ÐµÐ½ÑĮÐºÐ¸Ðµ
ĠÐ³ÑĢÑıÐ· Ð½Ð¾Ðµ
ĠÐ® ÑĢÑĭ
ĠÐ¿ÑĢÐ¾Ð´Ð¾Ð»Ð¶ Ð°Ð»Ð¸
ĠÐ±ÐµÑĢ ÐµÑĤÑģÑı
ĠÐ·Ð» Ð¾Ðµ
ĠÐ²Ð½Ð¸Ð¼ Ð°ÑĤÐµÐ»ÑĮÐ½ÑĭÐ¹
ĠÐłÐ°Ð· Ð³Ð¾Ð²Ð¾ÑĢ
ĠÐ±ÑĢÐ°ÑĤ Ñĥ
ĠÐ±ÑĢÐ°ÑĤ Ð¾Ð¼
ĠÐ±ÑĢÐ°ÑĤ ÐµÑĨ
ĠÑĩÐ¸ÑĤ Ð°Ð»Ð¸
ĠÑģÐµÐ¼ Ð¸
ĠÐ½ÐµÐ· Ð°Ð´Ð¾Ð»Ð³Ð¾
ĠÐ±Ð¾ ÑıÑĤÑģÑı
ĠÐ¿ÑĢÑıÐ¼ ÑĭÐµ
ĠÐ¸Ð½ÑĤÐµÑĢÐµÑģ Ð¾Ð²
ĠÐ¸Ð½ÑĤÐµÑĢÐµÑģ Ð½ÑĭÐµ
ĠÐ¸Ð½ÑĤÐµÑĢÐµÑģ Ð¾Ð²Ð°Ð»ÑģÑı
Ð¸ÑĢÐ° ÑİÑĤ
ĠÐ¿ÑĢÐ¸Ð´ ÑĥÑĤ
ĠÐ¿ÑĢÐ¸Ð´ ÐµÑĢÐ¶
ĠÐ»Ð¸ÑĤÐµÑĢÐ°ÑĤÑĥÑĢ Ð½Ð¾Ð¼
ĠÐ¼Ð°ÑĤ ÐµÐ¼Ð°ÑĤ
ĠÑĩÑĥÐ¶ Ð¾Ð³Ð¾
ĠÐ¾ÑĤÑĤ ÐµÐ½
ĠÐ¿Ð»ÐµÑĩ Ð¾Ð¼
ĠÐ½ÐµÐ¶ Ð½ÑĥÑİ
ĠÐ½ÐµÐ¶ Ð½Ð¾ÑģÑĤÑĮ
ĠÐºÑĢÐ¸Ñĩ Ð¸
ĠÐ»Ð°Ð² ÐºÐ°
ĠÐ²ÑģÑĤÑĢÐµÑĩ Ñĥ
ĠÑĢÐ°Ð·Ð± ÐµÐ³
ĠÐ·Ð°Ð¼ÐµÑĤ Ð¸Ð²
ĠÐ½ÐµÐ¿ÑĢ Ð¾Ð½Ð¸
ĠÐ¿ÑĢÐ¸Ð· Ð½Ð°Ðº
ĠÐ¿Ð¾Ð»ÑĥÑĩ Ð¸Ð²
ĠÐ±Ð»Ð¸Ð· ÐºÐ¾Ð¹
ĠÐ±Ð»Ð¸Ð· ÐºÐ¸Ð¼
ĠÐ²Ð·Ð³Ð»Ñı Ð½ÑĥÐ²
ĠÐ¿Ð¾Ð²ÐµÑĢ Ð¸ÑĤÑĮ
ĠÐ¿ÑĢÐ¾Ñĩ ÑĮ
ĠÐ¾Ð±ÑĢÐ°Ð· Ð°
ĠÐ±Ð»Ð°Ð³ Ð¾Ð½
ĠÑģÑĤÑĢÐ°Ñħ Ðµ
Ð½ÑĥÐ²ÑĪ Ð¸Ð¼
Ð½ÑĥÐ²ÑĪ ÐµÐ¹
ÐµÐ·Ð¶ Ð°Ð¹ÑĤÐµ
ĠÑģÐ»Ð°Ð± Ð°Ñı
ĠÑģÐ»Ð°Ð± ÑĭÑħ
ĠÑĢÐ°Ð·Ð³Ð¾Ð²Ð¾ÑĢ Ðµ
ĠÐ±ÑĢÐ¾Ñģ Ð¸Ð»Ð¸
ĠÐ½Ð°ÑħÐ¾Ð´ Ð¸Ð»Ð¾ÑģÑĮ
ĠÐ½Ð°ÑħÐ¾Ð´ Ð¸Ð»Ð¸ÑģÑĮ
ĠÑģÐµÑĢÑĮÐµÐ· Ð½Ð¾ÑģÑĤÑĮ
ĠÐ²Ð·Ð´ ÑĥÐ¼
ĠÑĢÐ°Ð²Ð½Ð¾Ð´ÑĥÑĪ Ð½ÑĭÐ¼
Ð¼ÐµÑĢ Ð·
Ð½ÑĥÑĤ ÑĭÐ¼Ð¸
ĠÐ¿Ð¾Ð»Ð¾Ð¶ Ð¸ÑĤÑĮ
ĠÐ´Ð¾ÑģÑĤ Ð¾Ð¹
ĠÑĤÐ¾ÑģÐº Ð»Ð¸Ð²Ð¾
ĠÑģÐ¼ÐµÑĪ Ð½ÑĭÐ¼
ĠÐ²Ð¾Ð¿ÑĢÐ¾Ñģ Ð°Ð¼Ð¸
ĠÐ½Ð°Ð± ÑĢÐ°Ñģ
ĠÐ½Ð°Ð± ÐµÑĢÐµÐ¶
ĠÐ¿ÑĢÐ¾Ð² ÐµÐ»Ð¸
ĠÑıÑģ Ð½ÐµÐµ
ĠÐ¿Ð¾Ð´Ð½ ÐµÑģ
ĠÐºÑĢÐµÐ¿ ÐºÐ¾Ð³Ð¾
ĠÐ¿ÑĮÑı Ð½ÑĭÐ¼
ĠÐ½Ð°Ð¿Ð¸Ñģ Ð°Ð½
ĠÐ´ÐµÑĢÐ¶ Ð°
ĠÐ´ÐµÑĢÐ¶ Ð¸
ĠÐ¿ÐµÑĩÐ°Ð»ÑĮ Ð½Ð¾Ð¹
ĠÐ¿ÐµÑĩÐ°Ð»ÑĮ Ð½Ð°Ñı
ĠÑĤÐµÑĢ ÑıÑı
ĠÐ¼ÐµÐ» Ð°Ð½
ĠÐ¼ÐµÐ» ÐºÐ¾Ð¹
ĠÐ¼ÐµÐ» ÐºÐ¸Ð¼
ĠÑĩÐ¸ÑģÑĤ ÑĥÑİ
ĠÑģÑĥÐ´ Ñĥ
ĠÐ·Ð°Ð» Ð¾Ð¶Ð¸Ð²
ĠÐ¿ÑĢÐµÐºÑĢÐ°Ñģ Ð½ÑĭÐ¹
ĠÐ¿ÑĢÐµÐºÑĢÐ°Ñģ Ð½ÑĥÑİ
ĠÐľÐ¸ÑĪ Ñĥ
ĠÑĪÐµÐ¿ Ð½ÑĥÐ»
ĠÑĪÐµÐ¿ Ð½ÑĥÐ»Ð°
ĠÐ¼ÐµÑĢÑĤÐ² ÑĭÐ¼
ĠÐ¼ÐµÑĢÑĤÐ² ÑĭÐµ
ĠÐ¿Ð¾Ð´Ð½Ð¸Ð¼ Ð°ÑİÑĤÑģÑı
ĠÐ½Ð°ÑĩÐ¸Ð½ Ð°Ð»Ð¾ÑģÑĮ
ĠÑĩÑĥÐ´ Ð¾Ð¼
ĠÑģÐ²Ð¾Ð±Ð¾Ð´ Ñĭ
ĠÑĥÐ´Ð°ÑĢ Ð¸ÑĤ
ĠÑĥÐ´Ð°ÑĢ Ð¸Ð»ÑģÑı
ĠÐ²ÑĭÑĢÐ°Ð¶ ÐµÐ½Ð¸Ñİ
ĠÐ³Ð¾ÑĢÑıÑĩ ÐµÐ³Ð¾
ĠÑĤÐ¾Ð²Ð°ÑĢÐ¸Ñī Ñĥ
ĠÑĤÐ¾Ð²Ð°ÑĢÐ¸Ñī ÐµÐ¼
ĠÑĤÐ¾Ð²Ð°ÑĢÐ¸Ñī Ð°Ð¼
ĠÐ²ÑĭÑħÐ¾Ð´ Ð°
ĠÐ²ÑĭÑħÐ¾Ð´ Ñĥ
ĠÐ²ÑĭÑħÐ¾Ð´ ÑıÑĤ
ĠÐ¿ÑĢÐ¾Ð¿ Ð¸ÑĤÐ°Ð½
ĠÐ¿Ð¸ÑģÐ°ÑĤÐµÐ» ÐµÐ¼
ĠÐ¿Ð¾ÑħÐ¾Ð¶ Ð¸Ñħ
ĠÐ´Ð»Ð¸Ð½ Ð½Ð¾Ð³Ð¾
ĠÐ´Ð»Ð¸Ð½ Ð½Ð°Ñı
ĠÐ½ÐµÐ¿Ð¾Ð´Ð²Ð¸Ð¶ ÐµÐ½
ĠÐ½ÐµÐ¿Ð¾Ð´Ð²Ð¸Ð¶ Ð½Ð¾ÑģÑĤÐ¸
ĠÐ³Ð¾ÑģÐ¿Ð¾Ð´ Ð¸Ð½Ñĥ
ĠÐ»Ð¾Ð¶ Ð¸ÑĤÑĮÑģÑı
ĠÑģÐ²ÐµÑĤÐ» ÑĭÐ¼
ĠÐĲÐ½ÑĤÐ¾ÑĪ Ñĥ
ĠÐĹÐ° Ñī
ĠÐ¾ÑģÑĤÐ°Ð½Ð¾Ð² Ð¸ÑĤÑĮÑģÑı
ĠÐºÑĥÑĢ Ñĭ
ĠÐ´Ð½Ñı Ñħ
ĠÑĢÐ°Ð·Ð´ ÑĥÐ²
ĠÐ¿Ð»Ð°ÑĤ Ð¸Ð»Ð¸
ĠÐ±Ð°ÑĢ Ð¸ÑĤÐ¾Ð½
ĠÐ¼ÑĥÑĩ Ð¸ÑĤÐµÐ»ÑĮÐ½Ð¾Ð¹
ĠÐ¼ÑĥÑĩ Ð¸ÑĤÐµÐ»ÑĮÐ½Ð¾Ðµ
ĠÐ·Ð°Ð½ ÑıÐ»
ĠÐ¾ÑĤÐ¿ ÐµÑĩÐ°ÑĤ
ĠÑģÐ»ÑĥÐ¶ Ð¸ÑĤ
ÑĢÐ°Ð´ Ð¾ÑģÑĤ
ĠÐ¿Ð¾Ð¹ Ð¼Ñĥ
ĠÑģÐ»ÑĥÑĪ Ð°Ð»Ð¸
ĠÑģÐ»ÑĥÑĪ Ð°Ð»Ð°
ĠÐ³Ð»ÑĥÐ±Ð¾Ðº Ð¾Ð¼
ĠÑĤÐ²ÐµÑĢÐ´ Ð¸Ð»
ĠÑģÐºÑĥÑĩ Ð½ÑĭÐ¼
ĠÐ¿Ð°Ð» Ð°ÑĤÑĭ
ĠÐ¿Ð°Ð» Ð°ÑĤÑĥ
ĠÐ¿Ð°Ð¿ Ð°ÑĪÐ°
ĠÐ°Ðº Ð°Ð´ÐµÐ¼
ĠÐ¼ÑıÐ³ ÐºÐ¾Ð¼
ĠÐ¼ÑıÐ³ ÐºÐ¸Ð¹
ĠÐ·Ð°ÑĢ Ð°Ð½ÐµÐµ
ĠÑĥÑģÐ» ÑĭÑħÐ°Ð»
ĠÐ²ÑĭÐ· Ð²Ð°Ð»
ĠÐ²ÑĭÐ· Ð²Ð°ÑĤÑĮ
ĠÐ¾ÑģÐ¾Ð±ÐµÐ½Ð½Ð¾ ÑģÑĤÐ¸
ĠÐ²Ð¾ÑģÐ¿Ð¾Ð¼Ð¸Ð½Ð° Ð½Ð¸Ðµ
ĠÐ²Ð¾ÑģÐ¿Ð¾Ð¼Ð¸Ð½Ð° Ð½Ð¸ÑıÐ¼Ð¸
ĠÐ´ÑĥÑĢ Ð½Ð¾Ð³Ð¾
ĠÑĢÐ°ÑģÐº ÑĢÑĭ
ĠÑĢÐ°ÑģÐº ÑĢÑĭÑĤ
Ðļ Ð°ÑĢ
ĠÐ½ÐµÐ¸Ð· Ð¼ÐµÐ½Ð½Ð¾
ĠÑĪÐ¸ÑĢÐ¾Ðº Ð¾Ð³Ð¾
ĠÑĪÐ¸ÑĢÐ¾Ðº Ð¾Ðµ
ĠÑĪÐ¸ÑĢÐ¾Ðº Ð¸Ð¼Ð¸
ĠÑģÑĩÐ°ÑģÑĤÐ»Ð¸Ð² ÑĭÐµ
ĠÑģÑĤÑĢÐ°Ð´ Ð°Ð½Ð¸Ñı
ĠÐ¸Ð·Ð²ÐµÑģÑĤ Ð½Ð¾Ð³Ð¾
ĠÐ¸Ð·Ð²ÐµÑģÑĤ Ð½ÑĭÑħ
ĠÐ³Ð¾ÑģÑĤ ÐµÐ¿ÑĢÐ¸Ð¸Ð¼
ĠÐ²ÑģÐ¿Ð¾Ð¼Ð½ Ð¸Ð»Ð¾ÑģÑĮ
ĠÐ²ÐµÑĤ ÑĢÐ¾Ð¼
ĠÑĢÐµÐ· ÐºÐ¸Ð¹
ĠÑĥÐº ÑĢÐ°ÑĪ
ĠÑĪÑĥÑĤ Ñı
ĠÐ¿Ð¾ÑĩÑĥÐ²ÑģÑĤÐ² Ð¾Ð²Ð°ÑĤÑĮ
ĠÐ³Ð»ÑĥÑħ Ð¸Ñħ
ĠÐ³Ð»ÑĥÑħ Ð¸Ðµ
ĠÐ¾ÑĤÐ½Ð¾ÑĪ ÐµÐ½Ð¸ÑıÑħ
ĠÑĪÑĥÐ¼ ÐµÐ»
ĠÐ¼Ð°Ñģ ÐºÐ°ÑĢ
ĠÐ¿ÑĢÐ¾Ð½ Ð¾Ñģ
ĠÐ±Ð»Ð°Ð³Ð¾ ÑĢÐ°Ð·ÑĥÐ¼
ĠÐ±Ð»Ð°Ð³Ð¾ ÑĩÐµÑģÑĤ
ĠÐ³ÑĢÐ¾Ð· Ð°
ĠÐ³ÑĢÐ¾Ð· Ð½ÑĭÐ¹
ĠÐ²ÑģÑĤÑĢÐµÑĤ Ð¸Ð»Ð°
ĠÑģÑİ Ð¶
ĠÑģÑİ Ð¶ÐµÑĤ
ĠÐ¿ÑĢÐ¾Ð¸Ð·Ð² ÐµÐ»
ĠÑģÑĥÑīÐµÑģÑĤÐ² Ð¾Ð²Ð°Ð»Ð¾
ĠÑģÑĤÑĥÐ´ÐµÐ½ÑĤ Ð¾Ð¼
ĠÑĤÑĢÐµÐ± ÑĥÐµÑĤ
ĠÑĤÑĢÐµÐ± Ð¾Ð²Ð°Ð»Ð¸
ĠÐ¸ÑģÑĩ ÐµÑĢÐ¿
ĠÐ¿Ð»Ð¾Ñħ Ð¾Ð¹
ĠÐ¾Ð´Ð¸Ð½Ð¾Ðº Ð¾Ð³Ð¾
ĠÐ¾Ð´Ð¸Ð½Ð¾Ðº Ð¸Ñħ
Ð²Ð¸Ð´ Ñĥ
ĠÑĤÑĮ Ð¼Ðµ
ĠÑĢÐ°ÑģÑĤ ÐµÑĤ
ĠÐ½ÐµÑģÑĩÐ°ÑģÑĤ Ð½Ð¾Ð³Ð¾
Ð¸Ð½ÑĥÐ» Ð¸ÑģÑĮ
ĠÐ¡Ð» Ð°Ð±
ĠÐ¿ÐµÑĢÐµÑģÑĤ Ð°Ð»Ð¸
ĠÑĤÑĭÑģÑıÑĩ ÑĮÑİ
ĠÐ¿ÑĢÐ¸Ð» ÐµÐ³
ĠÐ¿ÑĢÐ¸Ð» Ð¸Ð¿
ĠÐ³Ð¾ÑģÑĤÐ¸ Ð½Ð¸ÑĨÑĥ
ĠÐ±ÐµÐ·ÑĥÐ¼ Ð¸Ðµ
ĠÐ½ÐµÐ¾Ð±ÑĭÐºÐ½Ð¾Ð² ÐµÐ½Ð½Ð¾Ð¹
ĠÐ½ÐµÐ¾Ð±ÑĭÐºÐ½Ð¾Ð² ÐµÐ½Ð½Ð¾Ðµ
ĠÑİ Ð¶
ĠÐ°ÑĢ Ñħ
ĠÐ³Ð¾ÑĢÐ´ Ð¸Ð»ÑģÑı
ĠÐ³Ð¾ÑĢÐ´ Ð¾ÑģÑĤÑĮ
ĠÐ¿ÑĢÐ¸Ñĩ Ð¸Ð½Ð¾Ð¹
ĠÑģÐ²ÑıÑĤ Ñĭ
ĠÐ¿Ð¾ÐºÐ¾Ð¹ Ð½Ð¸Ðº
ĠÐ·Ð°ÑģÐ¼Ðµ ÑıÐ»Ð¸ÑģÑĮ
ĠÑģÐµÐ¼ÑĮ Ð´ÐµÑģÑıÑĤ
ĠÐ·Ð°Ð½Ð¸Ð¼ Ð°Ð»Ð¸ÑģÑĮ
ĠÐ·Ð°Ð½Ð¸Ð¼ Ð°ÐµÑĤÑģÑı
ĠÐ¼ÐµÑĢ Ð·Ð°Ð²
ĠÐ¿Ð¾ÐºÐ¾ÑĢ Ð½Ð¾ÑģÑĤÐ¸
ĠÐ³Ð°Ð·ÐµÑĤ Ð½ÑĭÑħ
ĠÐ°Ð½Ð³ Ð»Ð¸Ñĩ
ĠÑģÑĨ ÐµÐ½
ĠÐ¾Ð±ÑĢÐ°Ñī Ð°Ð»Ð¸ÑģÑĮ
ĠÑĢÑĥÑģ ÑģÐºÐ¾Ð³Ð¾
ĠÑĩÐµÐ»Ð¾Ð²ÐµÑĩÐµÑģÐº Ð¾Ð³Ð¾
ĠÐ½Ð°Ð¿ÑĢ ÑıÐ³
ĠÐºÐ°ÑĢÑĤ Ð¸Ð½ÐºÐ¸
ĠÐĲÐ»ÐµÐºÑģÐ°Ð½Ð´ÑĢ Ñĥ
ĠÐĺÐ³Ð½Ð°ÑĤ Ð¸Ñİ
Ð¿ÐµÐ½ Ð½Ð¸ÐºÐ¾Ð²
ĠÐ¿Ð¾ÑĤÐµÑĢ ÑıÐ»Ð¸
ĠÑĤÐ°Ð»Ð°Ð½ÑĤ Ð¾Ð¼
ĠÑģÑĥÑħ Ð¾
ĠÐ½Ð°Ð» ÐµÑĤ
ĠÐ²Ð´ ÑĥÐ¼
ĠÐ¾Ð±Ñī Ð¸Ðµ
ĠÐ¾Ð±Ñī Ð¸Ð¹
ĠÐļÐ°ÑĤ ÐµÑĢÐ¸Ð½Ð°
ĠÐ¾Ñħ Ð²Ð°ÑĩÐµÐ½Ð½ÑĭÐ¹
ĠÐ±ÐµÐ³ ÑĥÑĤ
ĠÑĤÐ¸ÑĪ Ð¸Ð½Ðµ
ĠÐ¾ÑĤÑģ Ð²ÐµÑĤ
ĠÐ¾Ð±Ð¸Ð´ Ñĥ
ĠÐ¾Ð±Ð¸Ð´ Ñĭ
ĠÐ¿Ð¾ÐºÑĥÐ¿ Ð°ÑĤÑĮ
ĠÐĳÐ¾Ð³ Ð¸Ð¼
ĠÐ´Ð°Ð»ÐµÐº Ð¸Ðµ
ĠÑĥÑģÑĤÐ°Ð» ÑĭÐ¹
ĠÐĿÐµÐ¼ Ð½Ð¾Ð³Ð¾
ĠÐ³Ð¾Ð»ÑĥÐ± ÑĭÐµ
ĠÐ¿Ð¾ÐºÐ°Ñĩ Ð¸Ð²Ð°Ð»
ĠÐ¿Ð¾ÐºÐ°Ñĩ Ð¸Ð²Ð°Ñı
ĠÐŁÑĢÐ¸ ÑģÑĤÐ°Ð²
ĠÑĤÐµÐ°ÑĤÑĢ Ñĥ
ĠÑģÐµÑģÑĤ ÑĢÐµ
ĠÐ½Ð°ÑģÑĤÐ¾ÑıÑī ÐµÐ¼
ĠÐ½Ð°ÑģÑĤÐ¾ÑıÑī Ð¸Ð¼
ĠÐ½Ð°ÑģÑĤÐ¾ÑıÑī ÐµÐ¹
ĠÐ±ÐµÑģÐ¿Ð¾ÐºÐ¾Ð¹ Ð½Ð¾Ð¹
ĠÐ±Ð»Ð°Ð³Ð¾Ð´Ð°ÑĢ Ñİ
ĠÐĵÑĢÐ¸Ð³Ð¾ ÑĢÐ¸Ñı
ĠÑĢÑĥÑĩ ÐºÐ¾Ð¹
ĠÐ³Ð°Ð» Ð¾Ðº
ĠÐ¿Ð¾ÐµÐ·Ð´ ÐºÐµ
ĠÐĵÐ¾Ñģ Ð¿Ð¾Ð´Ð°
ĠÐľÐµÑĢÐºÑĥÐ»Ð¾Ð² Ñĥ
ĠÐ²ÑĭÐ³ Ð»ÑıÐ´ÑĭÐ²
ĠÑģÐ¿ÑĢÐ¾Ñģ Ð¸ÑĤÑĮ
ĠÐ¿ÑĢÐµÐ´Ñģ ÑĤÐ¾ÑıÑī
ĠÐ¿ÑĢÐ¾Ð³ Ð¾Ð²Ð¾ÑĢÐ¸Ð»
ĠÐ¿Ð¾ÑģÑĤÑĥÐ¿ Ð°ÑĤÑĮ
ĠÑģÐ²ÐµÐ¶ Ð¸Ðµ
ĠÐ¸Ð·Ð± ÐµÐ³Ð°Ð»
ĠÐŁÐ°ÑĢÐ¼ÐµÐ½ Ñĥ
ĠÐ½Ð°ÑģÑĤÑĢÐ¾ ÐµÐ½Ð¸Ð¸
ĠÐ»Ð¸Ñĩ Ð½Ð¾ÑģÑĤÑĮ
ĠÐĿÐ¾Ð² ÑĭÐ¹
ĠÐ¼ÐµÑĪ Ð¾Ðº
ĠÐ¼ÐµÑĪ Ð°Ð»Ð¸
ĠÐµÑħ Ð°Ð»Ð¸
ĠÐ±ÑĭÑģÑĤÑĢ Ð¾Ð¹
ĠÐ±ÑĭÑģÑĤÑĢ ÑĭÐ¹
ĠÑĪÐ¿ Ð¾ÑĢ
ĠÐ½Ð°Ð¿ÑĢÐ°Ð² Ð¸Ð»ÑģÑı
ĠÐ½Ð°Ð¿ÑĢÐ°Ð² Ð»ÐµÐ½Ð¸Ðµ
ĠÐ½Ð°Ð¿ÑĢÐ°Ð² Ð»ÐµÐ½Ð¸Ð¸
ĠÑħÑĥÐ´Ð¾Ð¶ Ð½Ð¸ÐºÐ¾Ð²
ĠÑĢÑĥÐ³ Ð°Ð»
ĠÐ³ÑĥÑģÑĤ Ð°Ñı
ĠÐ¿ÐµÑĢÐµÐ² ÐµÑĢ
ĠÐ¾ÐºÐ¾Ð½Ñĩ Ð°Ð½Ð¸Ð¸
ĠÐ²Ð·Ð´Ð¾Ñħ Ð¾Ð¼
ĠÐ·Ð¾Ð» Ð¾ÑĤÐ¾Ð¼
ĠÐ·Ð°Ð¶ Ð³
ĠÐ»Ð¸ÑĪ ÐµÐ½Ð½ÑĭÐµ
ĠÑĤÑĢÐ°Ð² Ñĥ
ĠÐ½ÐµÐ»ÐµÐ¿ Ð¾Ðµ
ĠÐ½ÐµÐ³ Ð»ÑĥÐ±
ĠÑĤÑĥÐ¼ Ð°Ð½Ð°
ÐµÑĢÐ²Ð° ÑĤÐ¾ÑĢ
ĠÐ±Ð¾ÑĢÐ¾Ð´ Ð¾Ð¹
ĠÑģÑĤÐ¾Ð½ Ð¾Ð¼
ÐµÑĢÐ´ ÐµÑĩ
Ð¾ÐºÑĢ ÑĥÑĪ
ĠÐ±ÐµÐ·Ð· ÑĥÐ±
ĠÑĦÐ°Ðº ÑĤÐ¾Ð²
Ð»Ð°Ð² Ð¾Ñĩ
ĠÐ¾Ð±Ð² ÐµÑĪ
ĠÐ¿Ð¾ÑĢÑıÐ´ Ð¾Ðº
ĠÐ¿Ð¾ÑĢÑıÐ´ Ð¾Ñĩ
ĠÐ½ÐµÐ¸Ð·Ð²ÐµÑģÑĤ Ð½ÑĭÐ¹
ĠÑħÐ¾ÑħÐ¾ÑĤ Ð°
ĠÑħÐ¾ÑħÐ¾ÑĤ Ð°ÑĤÑĮ
ĠÐ·Ð°ÑģÑĤÐ°Ð² Ð¸Ð»
ĠÐ±Ð¸Ð» ÑĮÑıÑĢ
ĠÐ´Ð¾Ð¿ ÑĥÑģÑĤ
ĠÑģÑĤÑĢÐ¾Ð³ Ð¾Ð¹
ĠÑģÑĤÑĢÐ¾Ð³ Ð°Ñı
ĠÐ¿ÑĢÐ¸Ð²ÑĭÑĩ ÐºÑĥ
ĠÐ·Ð°Ð½ÑıÑĤ Ð¸Ð¹
ĠÐ·Ð°Ð³Ð°Ð´Ð¾Ñĩ Ð½Ð°Ñı
Ġ2 0
ĠÐ¾ÑħÐ²Ð°ÑĤ Ð¸Ð»Ð°
ĠÐ¾ÑħÐ²Ð°ÑĤ Ð¸Ð»Ð¾
ĠÑĤÐ°Ð¹ Ð½Ñĭ
ĠÑĥÑĢ Ð¾ÐºÐ¸
ĠÐĳÑĥÐ´ ÐµÐ¼
ĠÐ¶ÐµÐ½ÑīÐ¸Ð½ Ð°Ð¼
ĠÐ½Ð°Ð²ÐµÑĢ Ð½Ð¾
ĠÐ½ÐµÐ¿ÑĢÐ¸ÑıÑĤ Ð½ÑĭÐ¼
ĠÐ½ÐµÐ¿ÑĢÐ¸ÑıÑĤ Ð½Ð¾Ðµ
ĠÑģÐµÐº ÑĢÐµÑĤ
ĠÑģÑħÐ²Ð°ÑĤ Ð¸Ð»Ð°
ĠÐ´ÑĭÑĪ Ð°Ð»Ð¸
ĠÐ´ÑĭÑĪ Ð°Ð»Ð°
ĠÐ¾Ð±ÑĭÑĩ Ð½Ð¾Ðµ
ĠÐ³Ð¾ÑĢÑĮ ÐºÑĥÑİ
ĠÐ¾ÑīÑĥÑī Ð°Ð»
ĠÐ¾ÑīÑĥÑī ÐµÐ½Ð¸ÐµÐ¼
ĠÐ¾ÑģÐ²ÐµÑī ÐµÐ½Ð½ÑĭÐµ
ĠÐ½ÐµÐº ÑĤÐ¾
ĠÑģÑĤÑĢÐµÐ¼ Ð¸Ð»ÑģÑı
ĠÐ¿Ð¾Ð·Ð´ Ð¾ÑĢÐ¾Ð²
ĠÐºÐ¾Ð»Ð¾ÐºÐ¾Ð» Ð¾Ð²
ĠÑģÐ¸Ñı Ð½Ð¸Ðµ
ĠÐ¼ÐµÑģÑı ÑĨÐµÐ²
ĠÐºÑĢÐµÑģÑĤ Ð¸Ð»Ð¸
ĠÐ³Ð¾Ð»Ð¾Ð´ Ð½Ð¾Ð³Ð¾
ĠÐ¾Ð¿Ð°Ñģ Ð½Ð¾
ĠÑģÐ¸Ð½ ÐµÐ²
ĠÑģÑĬ ÐµÐ·Ð´
ĠÐ¼Ð³ Ð»Ðµ
ĠÐļÐ¾ÑĢ ÑĢ
ĠÑĤÐµÐ»ÐµÐ³ Ð°
ĠÑĤÐµÐ»ÐµÐ³ Ð¸
ĠÑħÐ»Ð¾Ð¿ Ð½ÑĥÐ»Ð°
ĠÐ°Ð½Ð³ÐµÐ» Ð¾ÑĩÐµÐº
ĠÑĢÐµÑģ Ð½Ð¸ÑĨÑĭ
ĠÐ´Ð²Ð¾ÑĢ Ð½Ð¸ÐºÐ°
ĠÐ±ÐµÐ·Ð´ Ð½Ñĥ
ĠÐ´Ðµ ÑıÑĤ
ĠÐ¼Ð¾ÐºÑĢ Ð¾Ð¹
ĠÑĢÐ¾Ð¼ Ð°Ð½Ñĭ
ĠÐ¾Ð±ÑīÐµÑģÑĤÐ² ÐµÐ½Ð½Ð¾Ð¹
ĠÐ·Ð°Ð´ÑĭÑħ Ð°ÐµÑĤÑģÑı
ĠÐ±ÐµÑģÑģÐ¸Ð»ÑĮ Ð½ÑĭÐµ
ĠÑĤÐ²Ð¾ÑĢÑĩ ÐµÑģÑĤÐ²Ðµ
ĠÐ¿Ð¾ÑĨÐµÐ»Ð¾Ð² Ð°Ð»Ð°
ĠÑĤÐ¾Ð¿ Ð¾ÑĢ
ĠÐ¿Ð¾Ð´Ð¾Ð± Ð½Ð¾Ðµ
ĠÐ¿Ð¾Ð¼Ð¾Ñī Ð½Ð¸ÐºÐ°
ÑıÐ²ÑĪ Ð¸Ð¹
ÑıÐ²ÑĪ Ð¸Ð¹ÑģÑı
ĠÐ¼ÑĢÐ°Ñĩ Ð½ÑĭÐ¹
ĠÑĢÐ°Ð½ ÐµÐµ
ĠÑĢÐ°Ð½ Ð½Ð¸Ðµ
ĠÑĢÐ°Ð½ Ð½ÐµÐ¹
ĠÐ¾Ð±Ð¾ Ð¸Ð¼
ĠÐ½Ð°Ð¿ÐµÑĩÐ°ÑĤ Ð°Ð½Ñĭ
ĠÐ½ÐµÐ²ÐµÐ´Ð¾Ð¼ ÑĭÐ¹
ĠÐĳÐ°Ð± ÐºÐ¸Ð½Ð°
ĠÑģÐ²Ð¸Ð´ÐµÑĤÐµÐ»ÑĮ ÑģÑĤÐ²Ñĥ
ĠÑĥÐ½Ð¸Ð²ÐµÑĢÑģÐ¸ÑĤ ÐµÑĤÐ°
ĠÑģÐ¾Ð¼Ð½ ÐµÐ½Ð¸Ð¹
ĠÐ·Ð°Ð±Ð¾ÑĤ Ñĭ
ĠÐ·Ð°Ð±Ð¾ÑĤ Ð¸ÑĤÑĮÑģÑı
ĠÑģÐ»Ð¾Ð¶ Ð¸Ð»
ĠÐ¿ÑĢÐ¸ÑģÐ» Ð°Ð»
ĠÐ»ÐµÐº ÑĨÐ¸Ñİ
ĠÐĶÑĢÑĥÐ³ Ð¾Ð¹
ĠÐ¿ÑĢÐ¸Ð½Ð°Ð´ Ð»ÐµÐ¶Ð°Ð»
ĠÐ±Ð»Ð°Ð³Ð¾ÑĢÐ¾Ð´ Ð½ÑĭÐ¼
ĠÑħÐ¾Ð·ÑıÐ¹ ÐºÐ¸
ĠÐ¿ÑĢÐµÐ´ÑģÐµÐ´ Ð°ÑĤÐµÐ»Ñı
ĠÑģÑħÐ¾Ð´ Ð¸Ð»Ð¸ÑģÑĮ
ĠÐ²Ð¸Ð· Ð¶
ĠÐ²ÑģÑĤÐ°Ð² Ð°ÑĤÑĮ
ĠÐ±Ñĥ ÑĦ
ĠÐ½ÐµÑħ Ð¾ÑĤÑı
ĠÐ·Ð°ÑĪ ÐµÐ²ÐµÐ»
ĠÑģÐ°Ð¼Ð¾ ÑĥÐ²ÐµÑĢ
ĠÑĥÐ·Ð½Ð° ÐµÑĪÑĮ
ĠÑĥÑģÐ»ÑĭÑĪ Ð°Ð»
ĠÐ³ÑĢÐ° Ð½Ð¸ÑĨÑĭ
ĠÐ³ÑĢÐ° Ð½Ð¸ÑĨÐµÐ¹
ĠÐ¿ÐµÑĢÐµÐº Ð»Ð¸Ðº
ĠÐ¿Ð¾ÑģÐµÑī ÐµÐ½Ð¸Ñı
ĠÐºÐ¾Ð»Ð¾ÐºÐ¾Ð»ÑĮ Ð½Ñİ
ĠÑģÐ¾Ð¿ ÑĢÐ¾ÑĤÐ¸Ð²
ĠÐºÑĥÑģ Ð¾ÑĩÐµÐº
ĠÐ¾Ð±Ð¼Ð°Ð½ ÑĥÑĤ
ĠÑģÐ¿ÑĢ ÑıÑĩ
ĠÐĽÐµÐ¹ ÐºÐ¸Ð½ÑĭÐ¼
ĠÐ¿ÑĢÐ¾ÑģÑĤÑĢÐ°Ð½ ÑģÑĤÐ²Ð°
ĠÑģÐ¾Ð·Ð´ Ð°ÑĤÑĮ
ĠÐĿÐµÐ¼Ð¾Ð² ÐµÑĨÐºÐ¾Ð³Ð¾
ĠÐ³ÑĢÐ¾Ð± Ð°
ĠÐ²ÐµÑĢÑħ Ð¾Ð¼
ĠÐ¿ÑĢÐ¸Ð·Ð½ Ð°ÑĤÑĮ
ĠÐ¿ÑĢÐ¸Ð·Ð½ Ð°ÐºÐ¸
ĠÐ¿ÑĢÐ¸Ð·Ð½ Ð°Ð²Ð°Ð»
ĠÐ³Ð¸Ð¼Ð½Ð°Ð·Ð¸ÑģÑĤ Ð¾Ð¼
ĠÐ±Ð¾Ð»ÐµÐ·Ð½ÑĮ Ñİ
ĠÐ¶ÐµÑģÑĤÐ¾Ðº Ð¸Ðµ
ĠÐ¿ÑĢÐ¾Ð½Ð¸Ðº Ð°Ð»
ĠÐ´ÑĭÐ¼ Ð°
ĠÑĩÐµÑħÐ¾Ð² ÑģÐºÐ¸Ñħ
ÐµÑģÐ¿ Ð¾Ð½
ĠÐ²ÑĭÑĢÐ°Ð· Ð¸Ð»
ĠÐ¼Ð¾ÑĢÑī Ð¸Ð»ÑģÑı
ĠÐ¼Ð¾ÑĢÑī Ð¸Ð½Ñĭ
ĠÐ·Ð»Ð¾Ð± Ð¾Ð¹
ĠÐ¿ÑĥÑĪ ÐºÐ°ÑĢ
ĠÑĤÐ°Ð± Ð°Ðº
ĠÐ¿Ð¾ÑģÐµÑĤ Ð¸ÑĤÐµÐ»ÑĮ
ĠÐ¾ÑĩÐµÑĢ ÐºÐ¸
ĠÐŁÑĢÐ¾ ÑĨ
ĠÐ¿ÑĢÐ¾ÑĤÑıÐ³ Ð¸Ð²Ð°Ñı
ĠÑģÐ¸ Ð½Ð¸Ð¼
ĠÑģÐ¾ÑĢ Ð¾Ðº
ĠÑĢÐ¾Ð¶ Ð°
ĠÐ¿Ð¾Ð´ÑħÐ¾Ð´ Ð¸ÑĤ
ĠÐ¿Ð»Ð¾Ñģ ÐºÐ¾
ĠÐ¿ÑĢÐ¾Ð·ÑĢÐ°Ñĩ Ð½Ð¾Ð¹
ĠÐ¿ÑĢÐ¾Ð·ÑĢÐ°Ñĩ Ð½Ð°Ñı
ĠÑĢÑĥÐ±Ð°ÑĪ ÐºÐµ
ĠÐ¼Ð³Ð½Ð¾Ð² ÐµÐ½Ð½Ð¾
ĠÐ¼Ð°ÑģÑģ Ñĥ
ĠÐ¿Ð¾Ð»ÐµÐ· ÐµÐ½
ĠÐĵÐ°Ð²ÑĢ ÑİÑĪ
ĠÐ´ÑĢÐ¾Ð¶Ð°Ñī Ð¸Ð¹
ĠÐ½ÐµÑĢÐµÑĪ Ð¸Ð¼Ð¾ÑģÑĤÐ¸
ĠÐ²Ð¸Ñģ ÐµÐ»
ĠÐ¼ÑĢÐ°Ðº Ðµ
ĠÑĢÐ¾Ð± ÐºÐ¸Ð¹
ĠÐ³Ð½ Ð¸Ð»
ĠÐĿÐ°Ð¿ ÑĢÐ°ÑģÐ½Ð¾
ĠÐ¡Ð¾ ÑĦ
ĠÐ¾ÑĤÐ²ÑĢÐ°Ñī ÐµÐ½Ð¸Ñı
ĠÐ¾Ð³Ð½ ÐµÐ½Ð½ÑĭÐ¹
ĠÐ¾Ð³Ð½ ÐµÐ½Ð½ÑĭÐµ
ĠÐ¾Ð³Ð»ÑıÐ´ÑĭÐ² Ð°Ð»ÑģÑı
ĠÐ²Ð¾ÑģÐº Ð»Ð¸Ðº
ĠÐ¿ÑĢÐ¸ÑģÐ»ÑĥÑĪ Ð¸Ð²Ð°Ð»ÑģÑı
ĠÑİÐ½Ð¾ÑĪ Ð¸
ĠÐ½ÐµÐ½Ð°Ð²Ð¸ ÑģÑĤÑĮ
ĠÐ½ÐµÐ³ÑĢÐ¸ÑĤÑıÐ½ ÐºÐ°Ñħ
ĠÐ¿ÑĤÐ¸ ÑĨÑĭ
ĠÐ²Ð¾ÑģÑĮ Ð¼Ð¸
ĠÐ·Ð°Ð³Ð¾ ÑĢÐ¾Ð´
ĠÑĢÑİÐ¼ ÐºÑĥ
ĠÐ¿ÑĢÐ¸Ð¾Ð±ÑĢ ÐµÐ»
ĠÐ±ÑĥÐ´ÑĥÑī ÐµÐ¼
ĠÑģÐ¾Ð»Ð½ÐµÑĩ Ð½ÑĭÐ¼
ĠÐ¸Ð´Ñĥ ÑīÐ¸Ñħ
ĠÐºÑĥÑĩ ÐµÑĢ
ĠÐºÑĥÑĩ ÐºÐ°
ĠÐ±Ð¾Ð´ ÑĢÐ¾
ĠÑģÐ¿ÑĥÑģÑĤ Ñı
ĠÑģÐ¿ÑĥÑģÑĤ Ð¸Ð»ÑģÑı
ĠÐ³ÑĢÐµÑħ Ð°
ĠÐ½ÐµÑģÐºÐ¾Ð»ÑĮ ÐºÑĥ
ĠÑĥÐ» Ð°Ð²Ð»Ð¸Ð²
ĠÐ°Ð» Ð»Ðµ
ĠÑĤÑĢÑĥÐ¿ Ð°
ĠÑĤÑĥÐ¼Ð°Ð½ Ð¾Ð¼
ĠÐ¿Ð°Ñģ Ñħ
ĠÐ¿ÑĢÐµ ÑĥÐ²ÐµÐ»Ð¸Ñĩ
ĠÐŁÐ¾ÑģÑĤ Ð¾Ð¹
ĠÑģÐ¼ÐµÑĢÑĤ ÐµÐ»ÑĮÐ½Ð¾
ĠÐ³Ð¾ÑĢÐ½Ð¸Ñĩ Ð½Ð¾Ð¹
ĠÑĥÐ³Ð»Ð° Ñħ
ĠÐ²ÑģÐ¿Ð¾Ð¼Ð¸Ð½Ð° ÐµÑĤ
ĠÑģÑĥÐ¼Ð°Ñģ ÑĪÐµ
ĠÐ¼ÑĥÑħ Ð°
ĠÐ¡Ð»Ð¾Ð² Ð¾
ĠÐ¿Ð¾Ð´Ð¼ Ð¸Ð³
ĠÐĵÐ» ÐµÐ±
ĠÐ½ÐµÐ²Ð¸Ð½ Ð½Ð¾ÑģÑĤÑĮ
ĠÐºÑĥÑĢÑģ Ð°
ĠÑģÑĥÐ¼ÐµÑĢ ÐºÐ°Ñħ
ĠÐ¿ÐµÑĢÐµÑĥÐ» Ð¾Ðº
ĠÐ´ÐµÑıÑĤÐµÐ»ÑĮ Ð½Ð¾ÑģÑĤÑĮ
ĠÐ¿ÑĢÐ¸Ð¿Ð¾Ð´Ð½ ÑıÐ»ÑģÑı
ĠÐ´Ð²ÐµÐ½ Ð°Ð´ÑĨÐ°ÑĤÐ¸
ĠÐ¿Ð¾Ð»ÑİÐ± Ð¸Ð»Ð°
ĠÐ½ÐµÐ¿ÑĢÐµÑĢÑĭÐ² Ð½ÑĭÐ¹
ĠÐ¼Ð¾Ð½Ð°ÑģÑĤÑĭÑĢ Ñı
ĠÑĥÐ½Ð¸Ð²ÐµÑĢÑģÐ¸ÑĤÐµÑĤ Ñĥ
ĠÐŀÑģÑĤÐ°Ð² ÑĮ
ĠÑĥÐ¿ÑĢÐ°Ð² Ð»Ñı
ĠÐ´Ð¾ÐºÐ°Ð· Ð°ÑĤÑĮ
ĠÐ´Ð¾ÐºÐ°Ð· ÑĭÐ²Ð°Ð»
ĠÑıÑĢÐ¾ÑģÑĤ Ð½ÐµÐµ
ĠÑĤÐµÑĤÑĢÐ°Ð´ Ð¸
ĠÐºÑĥÑģÑĤ Ñĭ
ĠÑģÑĤÑĥÐ» ÑĮÑı
ĠÐĺÐ¿Ð°ÑĤ Ð¾Ð²Ð°
ĠÐļÐ¾Ð½ Ð´ÑĢÐ°ÑĤÑĮ
ĠÐĶÐ² ÐµÐ½
ĠÐ¸Ð¼ÐµÐ½ Ð¸Ð½
ĠÐ½ÐµÐ¾Ð¿ÑĢÐµÐ´ÐµÐ» ÐµÐ½Ð½Ð¾
ĠÐ£Ð± ÐµÐ¹ÑĤÐµ
Ġ12 1
ĠÐ¿ÑĢÐ¾ÑĢ ÐµÐ·
ĠÐ½ÐµÐ¾Ñģ ÑĤÐ¾ÑĢÐ¾Ð¶
ĠÐ»Ð°Ð¿ ÐºÐ¸
ĠÑĪÐº Ð°Ð¿
ĠÑģÐ¿Ð°Ð»ÑĮ Ð½Ðµ
ĠÐĶÑĥÐ¼ Ð°ÐµÑĤ
ĠÐ¼ÑĭÑģ Ð»ÑıÑħ
ĠÐ·Ð°Ð²ÑģÐµÐ³Ð´ Ð°ÑĤÐ°Ð¸
ĠÐ²ÑģÐºÑĢÐ¸Ðº Ð½ÑĥÐ»Ð°
ĠÐ²Ð¾Ð·Ð¼ÑĥÑĤ Ð¸Ð»ÑģÑı
ĠÐ´Ð¾ÑģÑĤÐ¾Ð¸Ð½ ÑģÑĤÐ²Ð¾
ĠÐ²ÑĭÑģÐ»ÑĥÑĪ Ð¸Ð²Ð°Ð»
ĠÐ¾ÑģÑĤÑĢÐ¾ÑĥÐ¼ Ð½ÑĭÐµ
ĠÐ¿Ð»Ñı ÑĪ
ĠÑĢÐ°Ð·Ð²ÐµÑĢ ÑĤ
ĠÑĢÐ°ÑģÑģÐ¿ ÑĢÐ°ÑĪÐ¸Ð²Ð°Ð»
ĠÐ¿Ð¾ÑģÑĭÐ» Ð°Ð»
ĠÑģÐµÑĢÐµÐ´ Ð¸Ð½Ñĥ
ĠÐ²ÐµÑĢÐµÐ² ÐºÐ¸
Ð¡ÑĤÐµÐ¿ Ð¸
ĠÑĥÑĤÐ²ÐµÑĢÐ¶ Ð´Ð°Ð»
ĠÑĥÑģÐ¿Ð¾ÐºÐ° Ð¸Ð²Ð°Ð»
ĠÑģÐ¸Ð¼Ð¿Ð°ÑĤ Ð¸Ð¸
Ð»Ð¾Ð± ÑĮÑı
ĠÑģÐ¾Ð¶Ð°Ð» ÐµÐ½Ð¸Ñİ
ĠÐ½ÐµÐ¾Ð´ Ð½Ð¾Ðº
ĠÐŁÐ¸Ñģ Ð°Ð»
ĠÐŁÐ¾Ð· Ð¶Ðµ
ĠÐºÑĢÐµÑģ Ð»Ð°
ĠÐºÑĢÐµÑģ Ð»Ð¾
ĠÐ²Ð¾Ð·ÑĮ Ð¼
ĠÐ»ÐµÐ´Ñı Ð½Ð¾Ð¹
ĠÐ²Ð·Ð²Ð¾Ð»Ð½Ð¾Ð² Ð°Ð½Ð½ÑĭÐ¹
ĠÐŁÑĢÐ¾Ñģ ÑĤÐ¾
ĠÐ¾Ð±Ð»Ð°Ðº Ð¾Ð²
ĠÑĪÐ°Ð» Ð¾Ð²
ĠÐ³ÑĢÐ¾Ñħ Ð¾Ñĩ
ĠÐ²Ð·Ð² Ð¸Ð·Ð³
ĠÐķÐ´ Ð¸Ð½ÑģÑĤÐ²
ĠÐ½Ð°Ð¿Ð¸ÑĪ Ñĥ
ĠÐ¿Ð¾Ð²Ð¾ÑĢÐ°Ñĩ Ð¸Ð²Ð°ÐµÑĤÑģÑı
ĠÐ²Ð¸Ð·Ð³ Ð¾Ð¼
ĠÑĤÑİÑĢÑĮ Ð¼Ðµ
ĠÑģÐ¾Ð±Ñĭ ÑĤÐ¸Ñı
ĠÑģÐ³Ð¾ÑĢ Ð±
ĠÐ¼ÑĢ Ð°ÐºÐ¾Ð¼
ĠÐĴÐµÑĩ ÐµÑĢÐ¾Ð¼
ĠÐļÐ½ Ð¸Ð¿Ð¿ÐµÑĢ
ĠÐ¿ÑĢÐµÐ´Ð¼ÐµÑĤ Ñĭ
ĠÐ¿Ð¾ÑģÑĤÐ°Ð½Ð¾Ð² ÐºÐ¸
ĠÐ¿Ð¾Ð´ÑĢÐ¾Ð± Ð½Ð¾ÑģÑĤÑĮ
ĠÐºÐ°ÑĦ ÐµÐ´
ĠÑĦÐ°Ð»ÑĮÑĪ Ð¸Ð²ÑĭÐ¹
ĠÑģÑĢÐ°Ð²Ð½ Ð¸ÑĤÐµÐ»ÑĮÐ½Ð¾
ĠÑģÐ¼ÐµÑĢÑĤÐµÐ»ÑĮ Ð½Ð¾Ð¹
ĠÐ¿Ð°ÑģÑģÐ°Ð¶ Ð¸ÑĢ
ĠÐ¿Ð°ÑģÑģÐ°Ð¶ Ð¸ÑĢÐ¾Ð²
ĠÐ±ÐµÐ·ÑĢÐ°Ð·Ð»Ð¸Ñĩ Ð½Ð¾
ĠÐ±Ð°Ð½ Ñİ
ĠÐ»Ð¾Ñħ Ð¼
ĠÐ»Ð¾Ñħ Ð¼Ð°ÑĤ
ĠÐ°Ð¿ÑĢ ÐµÐ»Ñı
ĠÑģÐ»Ð¾Ð±Ð¾Ð´ Ðµ
ĠÐ¢Ð°Ð½ÑĨ Ð¸ÑĢÐµÐ½
ĠÑģÑĤÑĢÐµÐ»ÑĮ ÑĨÑĭ
ĠÐ¾ÐºÐ°Ð·Ð°Ð» Ð¸ÑģÑĮ
ĠÐ·Ð²ÐµÐ½ ÐµÐ»Ð¸
ĠÑĢÐ°Ð·Ð±ÑĢÐ¾Ñģ Ð°Ð½Ð½ÑĭÐµ
ĠÑģÑĤÑĥÐ´ÐµÐ½ ÑĩÐµÑģÐº
ĠÐ¾ÑĢÐ³Ð°Ð½ Ð¸Ð·Ð°
ĠÐ¾ÑĢÐ³Ð°Ð½ Ð¸Ð·Ð¼
ĠÐ²ÑĭÐ·Ð´ Ð¾ÑĢÐ°Ð²Ð»Ð¸Ð²
ĠÑĢÐµÐ²Ð¾Ð»Ñİ ÑĨÐ¸Ð¾Ð½
ĠÐ¼Ð°Ð»ÑĮÑĩÐ¸ÑĪ ÐºÐ°
ĠÐĴÐ½ Ð¸Ð·Ñĥ
ĠÑģÐºÐ°Ð¼ ÐµÐ¹
ĠÐ±ÐµÑģÑĦÐ¾ÑĢ Ð¼
ĠÐ¥ÑĢÐ¸ÑģÑĤ Ð°
ĠÑĤÐ¾ÑĢÑĩ Ð°Ð»Ð¸
ĠÑģÐ²ÐµÑĢÑħ ÑĩÐµÐ»Ð¾Ð²ÐµÐºÐ°
ĠÐĴÐ·Ð³ Ð»Ñı
ĠÐ½ÐµÑģÑĤÐµÑĢÐ¿ Ð¸Ð¼Ð¾
ĠÐ¡Ð¾Ð³Ð»Ð°Ñģ Ð½Ñĭ
ĠÑģÐ¾Ð±ÑĢÐ° Ð½Ð¸Ñı
ĠÐ±ÑĢÐ¾Ð² ÑıÐ¼Ð¸
ĠÐºÑĥÑħÐ°ÑĢ ÐºÐ°
ĠÐ±ÑĥÐ± ÐµÐ½
ĠÐŁÐ°Ñģ ÑħÑĥ
ĠÐ¾Ð±ÐµÑģÐ¿ Ð¾ÐºÐ¾
ĠÐ¯Ð²Ð¾ÑĢ ÑģÐºÐ¾Ð¹
ĠÐ¿Ð¾Ð¿ÑĥÐ³ Ð°Ñı
ĠÐ·Ð°ÐºÑĥÑĢ Ð¸Ð»
ÐŁÑĢ Ð¸Ð¼
ÐŁÐµÑģÑĤÑĢ ÑĭÑħ
ĠÐºÐ¾ÑĢÑĢ ÐµÑģÐ¿Ð¾Ð½
ĠÐ³Ð°Ð»ÑģÑĤ ÑĥÐº
ĠÐºÐ°ÑĤÐ¾ÑĢ Ð¶
ĠÑģÑİÑĢÑĤÑĥ ÐºÐµ
ÐŀÑģÐºÐ¾Ð» ÐºÐ°Ñħ
ĠÐ²ÑģÐµÐ½Ð¾Ñī Ð½Ð°Ñı
ĠÑģÐºÑĢÑĭ ÑĤÑĮ
Ð½ÐµÑĪÑĮ ÑģÑı
ĠÐ±ÐµÐ·Ð»Ñİ Ð´
ĠÐ¾Ð¿Ð¾Ð·Ð´ Ð°ÑĤÑĮ
ĠÐ½ÐµÐ¿Ð¾Ñħ Ð¾Ð¶
ĠÐ²Ð¾Ð»Ñĩ Ð¸ÑħÐ°
ĠÑĢÐ°ÑģÐ¿ÑĢÐ°Ð² Ð¸Ð»
ÑįÑĤÐ°Ð¶ Ð½ÑĭÐ¹
ĠÐ±ÑĥÑĢÐ¶ÑĥÐ°Ð· Ð½Ð¾Ð¹
ĠÐ½ÐµÑģÐ»ÑĭÑĪ Ð½Ð¾
ĠÐ¿ÑĥÐ·ÑĭÑĢ ÐµÐº
ĠÐ¾ÑĢÑĥÐ¶ Ð¸Ðµ
ĠÐºÐ¾ÑĤÐµÐ» ÐºÐµ
ĠÐŁÑĥÐ±Ð» Ð¸ÐºÐ°
ĠÐĺÑģÐ¿ ÑĥÐ³
ĠÐ°ÑĢÐ¾Ð¼ Ð°ÑĤ
ĠÐŀÐ»ÑĮ Ð³Ð°
ĠÑĢÐ°Ð·Ð¾Ð±ÑĢ Ð°ÑĤÑĮ
ĠÐ±ÐµÐ·Ð² ÑĭÑħ
ĠÐ¿Ð¾Ð³Ð»Ð°Ð´ Ð¸Ð»
ĠÐ¿ÑĢÐ¸ÑĢÐ¾Ð´ Ð¾Ð¹
ĠÐĳÐ°Ð±Ð°Ðº Ð°Ð¹
ĠÐ£Ð¶Ð°Ñģ Ð½Ð¾
ĠÐłÐ°ÑģÑģÐº Ð°Ð¶Ð¸
ĠÐ°Ð¿Ð¿ ÐµÑĤ
ĠÑĥÑĤÐ²ÐµÑĢÐ¶Ð´ ÐµÐ½Ð¸Ðµ
ĠÐ½ÐµÐ¾Ð´Ð¾Ð±ÑĢ Ð¸ÑĤÐµÐ»ÑĮÐ½Ð¾
ÑĮÐ¼ Ð¸ÑĤÐµ
ĠÐºÐ¾Ðº ÐµÑĤ
ĠÑĤÑıÐ½ ÐµÑĤÑģÑı
ĠÑĩÑĥÐ» Ð°Ð½
ĠÐĿÐµÐºÐ¾ÑĤÐ¾ÑĢ ÑĭÐµ
ĠÐĴÐ°Ð»ÑĮ ÑĤÐµÑĢ
ĠÑĥÑģÐ¼ÐµÑĪ ÐºÐ¾Ð¹
ĠÐ¾Ð±ÑĬÑıÑģ Ð½Ñı
ĠÐ¼ÑĥÐ½Ð´ Ð¸ÑĢ
ĠÐ¸Ð» Ð»Ñİ
ĠÑĢÐ¸ÑĤ Ð¼
ĠÐ¶Ð°Ð»Ð¾ ÑģÑĤÑĮÑİ
ĠÑĢÐ°Ð·Ð¾Ñĩ Ð°ÑĢ
ĠÐ¢Ð°ÑĢ Ð°Ñģ
ĠÐ¿Ð¾ÑĩÑĥÐ´ Ð¸Ð»Ð¾ÑģÑĮ
ĠÐ¿Ð¾Ð²ÐµÑģÑĤ ÐµÐ¹
ĠÐĺÐ·Ð²ÐµÑģÑĤ Ð½Ð¾
ĠÐ°ÐºÑĨ Ð¸Ð·
ĠÐŁÐ°ÑĢÑĦÐµÐ½ÑĤÑĮ ÐµÐ²Ð¸Ñĩ
ĠÑģÑĤÑĢÐ°Ð´Ð°Ð»ÑĮ ÑĩÐµÑģÐº
ĠÐŁÐ¾Ð»Ð· Ð¸ÐºÐ¾Ð²
ĠÑĨÐµÐ½ÑĤÑĢ Ðµ
ĠÐķÐ¿Ð¸ÑĦ Ð°Ð½Ð¾Ð²
ĠÐºÑĥÐºÐ¸ ÑĪ
ĠÐµÐ· Ð´Ñĭ
ĠÑĢÐ°Ð·Ð½Ð¾Ð³ Ð¾Ð»Ð¾Ñģ
ĠÐºÐ¾Ð½Ñģ ÐµÑĢÐ²Ð°ÑĤÐ¾ÑĢ
ĠÐ²Ð¿ÑĢÐ°Ð² Ð´Ñĥ
ĠÐ½ÐµÐ·Ð°Ð² Ð¸Ñģ
ĠÐ½ÐµÐ¾Ð±ÑĬ ÑıÑĤ
ĠÐŁÐ¾ÑĤÐ°Ð¿ ÐµÐ½ÐºÐ¾
ĠÐ¾ÑĤÐ³Ð¾Ð»Ð¾Ñģ ÐºÐ¸
ĠÐ¿Ð¸Ð´ Ð¶
Ð¾Ð¼Ð¼Ð¸ÑģÑģ Ð°ÑĢÐ¶
ĠÑģÐºÑĥÐ»ÑĮ Ð¿
ĠÐĶÑıÐ´ Ñı
ĠÐ±ÐµÐ·Ð¶Ð°Ð» Ð¾ÑģÑĤ
ĠÐ¿ÑĢÐµÐ´ÑĬ ÑıÐ²
ĠÐ¿ÑĢÐµÐ´Ð½Ð°Ð· Ð½Ð°Ñĩ
ĠÐŃÐ´Ñĥ Ð°ÑĢÐ´Ð¾Ð²Ð½Ð°
ĠÐ½ÐµÐ¿ÑĢÐ¾Ð½Ð¸ ÑĨÐ°ÐµÐ¼
ĠÐ½ÐµÐ¾Ð´Ð½Ð¾Ðº ÑĢÐ°ÑĤÐ½Ð¾
" )
" ;
" ),
" ).
a r
Ġ 6
Ġ A
Ġ p
Ġ 90
Ġ 30
Ðµ Ð¾Ð»
Ðµ ÑİÑĤ
Ð° ÑĩÐ°
ÑĤ Ð°Ð½
ÑĤ Ð¸Ð¹
Ð¸ ÑĤÐ¾Ðµ
Ñģ Ð¸
Ñģ Ð¾ÑĢ
Ñģ Ð¾ÑĤ
Ñģ ÑĥÐ´
Ð½ Ð¸ÑĤÑĮ
Ð½ Ð°Ð¿
Ð½ ÐµÐ½Ð¸Ñı
Ð½ Ð¾Ð²Ð°Ð»
Ð» Ð¾Ð´Ð½Ð¾
ÑĢ Ð°ÑĤÑĮÑģÑı
ÑĢ Ð¼Ð¸ÑĤ
ÑĢ ÐµÑģÑģ
Ñĥ Ð»Ð¾
Ñĥ Ñį
Ñı Ð½Ñı
ÑĮ ÐµÐ²Ð½Ð°
ĠÑģ Ð°Ð»
ĠÑģ Ð¾Ð¼
ĠÑģ ÐµÐ³Ð¾
ĠÑģ ÑĥÐ¿
ĠÑģ Ð°Ñħ
ĠÑģ ÐµÐ»Ð¾
ĠÑģ Ð½Ð¾Ð²
ĠÑģ Ð°ÑĢÐ°
ĠÑģ Ð½ÑıÐ»Ð¸
ĠÑģ ÐºÐ°Ñĩ
ĠÐ¿ ÑĥÑĩ
ĠÐ¿ Ð¸Ð»Ð°
ĠÐ¿ ÐµÐ½Ð¸Ñı
ĠÐ¿ ÑĮÑİ
ĠÐ¿ ÐµÑģÐºÑĥ
ĠÐ¿ ÐµÐ½Ñģ
ĠÐ¿ Ð°ÑĤÑĢÐ¸
ĠÐ½ Ð¸ÑĤÑĮ
ĠÐ½ ÑĥÑĤ
Ñĩ ÑĮ
Ñĩ Ð¸Ð»
Ñĩ ÑĥÐ¶
Ñĩ ÐµÐ½Ð½ÑĭÐ¹
Ðº Ð°Ð¶ÐµÑĤÑģÑı
Ðº Ð¸Ð½Ð¾Ð¹
Ðº Ð½ÑĥÐ²
Ðº Ð°Ð½ÑĮÐµ
ĠÐ² Ð»Ð¸Ð²
ĠÐ² Ð¸Ð½Ñĥ
ĠÐ² Ð»ÐµÐº
ĠÐ² ÐµÑģÑĤÐ¸
ĠÐ² Ð°Ð»Ñı
ĠÐ¸ ÑĢ
ĠÐ¸ ÑģÑĤÐ¸
Ð² Ð°Ñı
Ð² Ð°Ð¼Ð¸
Ð² Ð¸Ð»ÑģÑı
Ð² Ð¸Ð¶
Ð² Ð¸ÑģÑĤ
Ð² Ð°Ð»Ð¾ÑģÑĮ
Ð² Ð°Ð½Ð¸Ðµ
Ð² ÐµÑģÐµÐ»
ĠÐ¾ ÑģÑı
ĠÐ¾ Ð·Ñı
ĠÐ¾ ÐºÐ¾ÑĪ
Ð´ Ð¾Ð¼
Ð°Ð» Ñĭ
Ð°Ð» ÐºÐ°
Ð¼ Ð°Ñı
ÑĤÐ¾ ÑģÑĤÐ¸
Ñħ Ð¼
ĠÐº Ð°ÑĤÐ°
Ð¾Ð² Ð¾Ð¼Ñĥ
Ð¾Ð² Ð¸ÑĨ
ÑĪ Ð¸Ð½Ð°
ÑĪ ÑĥÑİÑģÑı
ÑģÑĤ ÐµÑĤ
ÑģÑĤ Ð¸ÑĤÑĮ
ÑģÑĤ ÑĭÐ¼
ÐµÐ½ ÑĭÑĪ
ÐµÐ½ Ð½Ð¸Ðº
ÐµÐ½ Ð¾ÑĩÐµÐº
ĠÐ± Ðµ
ĠÐ± ÑĥÐº
ĠÐ± ÐµÑĢÐ¸
ĠÐ± ÑĮÑİÑĤ
ĠÑĤ ÐµÐ»ÑĮ
ĠÐ´ Ð»
ĠÐ´ Ð°Ð´
ĠÐ´ Ð¾Ð¶
ĠÐ´ Ð¾Ð·
ĠÐ´ ÐµÐ±
ĠÐ´ ÐµÐ¶
ĠÐ´ Ð°Ð½Ð½ÑĭÐµ
ÐµÐ» ÑıÐ¼
ÐµÐ» ÑıÐ¼Ð¸
ÐµÐ» ÑıÑħ
Ð¾Ð» Ð¾ÑĤ
Ð¾Ð» ÐµÐ·
Ð¾Ð» ÑĥÐ±
ÐµÑĢ Ð½ÑĥÐ»Ð°
ĠÐ¼ Ð¸
ĠÐ¼ Ð¸ÑģÑĤ
ĠÐ¼ Ð¸Ð»Ð¾
ĠÐ¼ ÑĥÑģÐº
ĠÐ¼ ÑĥÐºÐ¸
ĠÐ¼ Ð¾ÑĤÐ¸Ð²
Ð½Ð¾ ÑģÑĤ
Ð½Ð¾ ÑĪÐµ
Ð°Ðº Ð¸Ð²Ð°ÐµÑĤ
ĠÑĩ Ðµ
ĠÑĩ Ð°ÑĢ
ĠÑĩ ÐµÑĪ
ĠÐ· ÐµÑĢ
ĠÐ· Ð¾Ð»Ð¾
ĠÐ· Ð´Ð°Ð½Ð¸Ñı
ĠÐ· ÑĢÐ°ÑĩÐ¾Ðº
ĠÐ¿ÑĢ ÐµÑĢÑĭÐ²
ĠÐ¿ÑĢ ÐµÐ¾Ð´Ð¾Ð»
ĠÐ½Ðµ Ð¾ÑĤÑĢ
ĠÐ½Ðµ ÑĥÐ¶ÐµÐ»Ð¸
ĠÐ½Ðµ ÑĤÐ¾ÑĢÐ¾Ð¿
Ð°ÑĤ Ð°Ð¼
Ð°ÑĤ ÑĭÐ¼Ð¸
ĠÑĢ Ð°Ð¹
ĠÑĢ Ð²Ð°
ĠÑĢ ÑĤÑĭ
ĠÑĢ Ð¸ÑģÐº
ĠÑĢ Ð¾Ñı
ĠÑĢ Ð¾ÑģÑģ
ĠÑĢ ÑıÐ±
Ð¸ÑĤ Ð¾Ð¼
Ð¸ÑĤ ÑĥÑİ
Ð¸ÑĤ Ð°Ð¹
ĠÐ³ ÑĥÑģ
ĠÐµ ÑĢ
ĠÐµ ÑĪÑĮ
ĠÐ½Ð° Ð¸Ð·
ĠÐ½Ð° ÑĢÐ°ÑģÑĤ
ĠÐ½Ð° ÑĥÑĤÑĢÐ¾
Ð¾Ñģ ÑĤÐ¾
Ð¾Ñģ Ð¿
Ð°Ñģ ÑĪÐµÐ´
Ð°Ð² Ð¸ÑĪ
Ð°Ð² Ð°ÑĤÑĮÑģÑı
Ð°Ð² Ð°Ð»Ð°ÑģÑĮ
Ð¿ Ð°Ð»
Ð¿ ÑĢÐ¸
Ð¿ Ð¸Ð¾Ð½
Ð½Ð¸ ÑģÑĮ
Ð½Ð¸ ÑĩÐ½Ð¾
Ð½Ð¸ Ð²Ð°Ð»
Ð°Ð¼ ÑıÑĤ
Ñī Ð°Ñı
Ñī Ð¸Ð¼Ð¸
Ñī Ð¸Ð½Ñĭ
ĠÑĥ Ð»Ð¾Ð²
ĠÐ±Ñĭ ÑĤÐ°
ĠÐ» Ñı
ĠÐ» Ð¸Ñħ
ĠÐ» Ð¸Ð»ÑģÑı
ÑĨ ÐµÐ²Ð°
Ð± Ð¾ÑĤ
Ð¾ÑĤ ÐµÐ»ÑĮ
Ð¾ÑĤ Ð°Ð»Ð°
Ð¾ÑĤ Ð½ÑĭÐ¹
Ð¾Ð³ Ð¾Ð²
Ð¾Ð³ Ð¾Ð¼
Ð¸Ð² Ñĥ
Ð¸Ð² Ð°ÑİÑīÐ¸Ð¼
ĠÐ¶ ÐµÐ¼
ĠÐ¶ ÑĥÐ¶
Ð¾Ð½ Ð¾Ñģ
Ð¾Ð½ ÑģÐºÐ¸Ð¹
ĠÐ¾ÑĤ ÑĪ
ĠÐ¾ÑĤ Ð½ÑıÐ»Ð¸
ĠÐ¾ÑĤ ÑģÑĤÑĢÐ°Ð½
ĠÐ¾ÑĤ Ð»Ð¾Ð¶Ð¸Ð»
ĠÐ¾ÑĤ Ð½ÐµÑģÑĤÐ¸
Ð°Ð½ Ð½Ð¾Ð¼Ñĥ
Ð¾Ðº Ð¾ÑĤ
Ð¾Ðº Ð¸Ðµ
Ð¸Ð¼ Ð½Ð°ÑģÑĤ
Ð¸Ð½ Ðº
Ð¸Ð½ Ð°ÑĤÑĮ
Ð¸Ð½ ÐºÐ¾Ð¹
ĠÐŁ Ð»Ñİ
ĠÐŁ Ð¾ÑĢÐ°
ĠÐŁ Ð»Ð°ÑĤ
ĠÐŁ Ð¸ÑĪÐ¸ÑĤÐµ
Ð°Ð´ Ð¾Ð²
Ð°Ð´ Ð½Ð¾
ĠÑı Ð¹
ĠÑı ÑīÐ¸Ðº
Ð¸Ñģ Ð°Ð»
ĠÐĿ Ð°Ð·
ĠÐĿ Ð¾Ñĩ
ĠÐĿ Ð¾Ð³Ð¸
ĠÐĿ Ð°Ð²ÐµÑĢ
Ð°ÑĢ Ð°ÐºÑĤÐµÑĢ
Ð°Ñı Ð»
Ð¾Ð± ÑĢÐ°
Ð¾Ð± ÑħÐ¾Ð´
Ð¾Ð± Ð½Ð¾Ðµ
ĠÐ¿Ð¾ Ð¾Ð±ÐµÐ´
ĠÐ¿Ð¾ ÑģÑĤÑĢÐ¾Ð¹
ÐµÐ² Ð¸Ð´
ÐµÐ² ÑģÐºÐ¾Ð¹
ÐµÐ² ÑģÐºÐ¾Ð³Ð¾
ÐµÐ² ÑĢÐµÐ¼ÐµÐ½Ð½Ð¾
ÐµÐ² Ð´Ð¾Ð½
ĠÐ²Ñģ Ñĳ
Ð¾Ð»ÑĮ Ð½Ð¾Ð¹
ÐµÑģ Ð»Ð¸
ÐµÑģ ÑģÐµ
ÐµÑģ ÑĤÐ¾Ñĩ
ĠÐĴ ÑĢ
ĠÐĴ Ð¾ÑĢ
ĠÐĴ ÑģÐµÐ¼
ĠÐĴ Ð¾Ð»Ñĩ
ĠÐĴ Ð¸Ð¶Ñĥ
ĠÐĴ Ð¾Ð·Ð²
Ð¸Ñĩ Ð¾Ð¼
Ð¸Ñĩ ÐºÐ¸
Ð¸Ñĩ Ð½Ð¾Ð¹
ĠÐĺ ÑģÐº
ĠÐĺ ÑĪÑĮ
ĠÐĺ Ð»ÑĮ
ĠÐĺ Ð¼ÐµÐ½Ð½Ð¾
ÐµÐ· ÑĤÐ¸
ĠÑħ Ð¸ÑĤ
ĠÑħ Ð°ÑĤÐ°
ĠÑħ Ð²Ð°ÑģÑĤ
ÑģÑĤÐ² Ð¾Ð²
ÑģÑĤÐ² ÐµÐ½Ð½ÑĭÐµ
ÑģÑĤÐ² ÐµÐ½Ð½Ð¾Ðµ
ÑģÑĤÐ² ÐµÐ½Ð½Ð¾ÑģÑĤÑĮ
ĠÐ° Ð³
ÑĥÐ´ ÐµÐ½ÑĤ
ÑĥÐ´ Ð¸ÑĤÐ¾ÑĢ
ĠÐ²Ñĭ Ð»
ĠÐ²Ñĭ ÑĤÑĮ
ĠÐ²Ñĭ ÑģÐ¿
ĠÐ²Ñĭ ÑģÑĤÑĢÐ¾
ĠÐ²Ñĭ ÑĤÐ°
ĠÐ²Ñĭ ÑĢÑĭÐ²
ĠÐ²Ñĭ ÐºÑĢ
ĠÐ²Ñĭ Ð»ÐµÑĩ
ĠÐ²Ñĭ ÑĨÐ²ÐµÑĤ
Ð»Ð¸ Ð½Ð°
Ð»Ñı Ðº
ÐµÐº Ð¾Ð·
ĠÐĲ Ðº
ĠÐĲ Ð³
ÐµÐ»ÑĮ Ñı
ÐµÑĩ Ð½Ð¸ÐºÐ¾Ð²
Ð°Ð¶ Ð¸Ð²Ð°Ð»
Ð¸Ð´ ÑĭÐ²Ð°ÐµÑĤ
ĠÐ¾Ð± Ð»Ð°
ĠÐ¾Ð± ÑīÐµÐµ
ĠÐ¾Ð± Ð»Ð¾Ð¶
ÐµÐ¿ ÑĤ
ĠÐ¡ ÑĤÐ¾
ĠÐ¡ Ð¾Ñģ
ĠÐ¡ ÐºÑĥ
ĠÐ¡ Ð°Ð±
ĠÐ¡ ÑĥÑħ
ĠÐ¡ Ð°Ð½Ð¾Ð²
ĠÐ¡ Ð¼Ð¾Ð»
ĠÐ¡ ÐµÑĢÐµÐ¶
ĠÐ¡ Ð¸Ð±Ð¸ÑĢ
ÑıÑĤ ÑĭÑħ
ÑĥÐ³ Ð°Ð½Ð¾Ð²Ð¸Ñĩ
ĠÑģÐ» Ñĭ
ÐµÐ± ÐµÐ·Ð¶
ÐµÑħ Ð°
ÐµÑħ Ð°Ð»Ð¸ÑģÑĮ
ĠÐŀ ÑĢ
ĠÐŀ ÑģÑĤÑĢ
Ð°Ð»Ð¸ Ð½Ð¸Ð½
ĠÐ¿Ð¾Ð´ Ð°ÑĤÑĮ
ĠÐ¿Ð¾Ð´ Ð»Ð¾
ĠÐ¿Ð¾Ð´ Ð½Ð¾Ñģ
ĠÐ¿Ð¾Ð´ Ð²Ð°Ð»
ĠÐ¿Ð¾Ð´ ÑĥÑĪÐºÐ¸
ÐºÐ¸ Ð½Ð¾
ĠÐ·Ð° ÑĨÐµÐ¿
ĠÐ¸Ð· Ð¾Ð³
ĠÐ¸Ð· ÑĬ
ĠÐ¸Ð· Ð¾Ð±ÑĢÐ°Ð·
ĠÐ¸Ð· Ð½ÑĥÑĤÑĢÐ¸
ĠÑģÐº ÑĢ
ĠÑģÐº ÑĢÐµÐ¶
ĠÐºÑĢ Ð°Ð¶Ð¸
ÑĥÑĤ ÐµÐ¼
Ð°Ð¼Ð¸ Ð½Ð°
ĠÐļ Ð°
ĠÐļ Ð¾ÑĪ
ĠÐļ Ð¾Ð¼Ñĥ
ĠÐļ Ð¾Ð¼Ð½Ð°ÑĤ
ĠÐļ Ð°ÑĤÐ¸
ĠÐļ ÑĢÐ¸Ðº
ĠÐļ Ð¸ÑģÐµÐ»
ĠÐļ Ð¾Ð¼Ð¼Ð¸ÑģÑģÐ°ÑĢÐ¶
ĠÑĢÐ°Ð· Ð³Ð¾ÑĢ
ĠÑĢÐ°Ð· Ð¾Ð¹ÑĤÐ¸ÑģÑĮ
ÑĭÐ² Ð°Ð½Ð¸Ðµ
ÑĭÐ² Ð°ÐµÐ¼
ÑĭÐ² Ð°ÑİÑīÐµÐ¹
ÐµÐ½Ð¸ ÑĨÐ°
ĠÐ¢ Ð¾ÑĢÐ³
ĠÐ¢ Ð¸ÑħÐ¾
ĠÐľ Ð¾Ð³
ĠÐľ Ð¾Ð½ÑĤÐµ
ĠÐľ Ð½Ð¾Ð³Ð¸Ðµ
ĠÐľ Ð°Ð»Ð¸Ð½Ð¸Ð½
ÑĥÐ¼ ÐµÐ½ÑĤ
ÑĥÑĩ Ð¸Ð¼
ÑĥÑĩ ÐºÑĥ
ÑīÐµ Ñİ
Ð¾Ñĩ Ð½Ð¾Ð³Ð¾
Ð¾Ñĩ Ð°Ð¹
ÐºÑĥ ÑĢ
ĠÑĪ Ð°ÑĪ
ĠÑģÐ¼ ÑĥÐ³
ĠÑģÐ¼ ÐµÐ½Ñı
ĠÐ¿ÐµÑĢ Ð¸Ð»
ĠÐ¿ÐµÑĢ ÐµÑĢÑĭÐ²
ÐµÐ¶ Ð½ÑĭÑħ
ĠÐ´ÑĢ Ð°ÐºÐµ
ĠÐ´ÑĢ ÐµÐ±ÐµÐ·Ð¶
ÑĥÑĪ ÐµÐº
ÐµÑģÑĤ Ð¸ÑĤÑĮ
ĠÑģÐ¿ Ð°Ð´
ĠÑģÐ¿ Ð¾ÑĢÑĭ
ĠÑģÐ¿ ÑıÑīÐµÐ³Ð¾
ĠÑģÐ¿ Ð¸Ð½Ð¾Ñİ
ĠÑģÐ¿ Ð¾ÑħÐ²Ð°ÑĤ
Ð°Ð¹ ÑĤ
Ð¸ÑĢ ÑĥÐµÑĤ
ĠÐĶ Ð¾Ð´
ĠÐĶ Ð¾ÑĢ
ĠÐĶ Ð¾Ð±ÑĢ
ĠÐĶ Ð²Ðµ
ĠÐĶ Ð¸ÑĢÐµÐº
ĠÐĶ Ð°Ð»ÐµÐºÐ¾
ÑĥÑĢ ÐµÐ½
ĠÑĥÐ¶ Ð¸Ð½Ð°
ĠÑĢÐ°Ñģ ÑģÑĤÑĢÐ¾
ĠÐ³ÑĢ Ð¸Ð±
ĠÐ¿Ð¾Ð» Ð´
ĠÐ¿Ð¾Ð» Ñİ
ĠÐ¿Ð¾Ð» ÐµÐ¼
ĠÐ¿Ð¾Ð» Ð¾Ð·
ĠÐ¿Ð¾Ð» ÑĥÑģ
ĠÐ³Ð¾Ð» Ð¾
ĠÐ³Ð¾Ð» ÑĭÑħ
ĠÐ¿ÑĢÐ¸ ÑİÑĤ
ĠÑĤÑĢ Ðµ
ĠÑĤÑĢ Ð¸ÑģÑĤÐ°
ĠÑĢÑĥ ÐºÐ¾Ð²
ÑħÐ¾Ð´ Ð¸ÑĤ
Ð¸ÑĤÐµÐ»ÑĮ ÑģÑĤÐ²Ð°
ÑĪÐµ Ñİ
ĠÐ±ÑĥÐ´ Ð¸ÑĤÑĮ
ĠÐ¿Ð¾Ðº Ð¾Ð½Ñĩ
ĠÐ¿Ð¾Ðº Ð¾ÐµÐ¼
ĠÐ³Ð¾Ð²Ð¾ÑĢ Ð¸Ð»Ð¾
ĠÐ²Ð· Ð°
ĠÐ³Ð¾ÑĢ Ð»Ðµ
ĠÐķ Ð»ÐµÐ½Ñĭ
ĠÐĳ Ñĥ
ĠÑĩÐµÑĢ Ð½Ð¾
ÑĤÐ¸ Ð¸
ÑĤÐ¸ ÑģÑĤÐ°
ĠÐ³Ð»Ð°Ð· ÐºÐ°Ð¼Ð¸
ĠÐ±ÐµÐ· Ð²ÐµÑģÑĤ
ĠÐ±ÐµÐ· Ð²Ð¾Ð»ÑĮ
ÑĦ ÐµÐ»ÑĮ
ÐºÐ¾Ð² ÑĮ
Ð°Ð½Ð¸ Ð½Ð°
ĠÑĨ Ð¸
ĠÑĨ Ð¸ÑĤ
ĠÑĨ Ð¸ÑĢ
ĠÐ¼Ð¾Ð» ÐµÐ±
ĠÐ¼Ð¾Ð» Ð¾Ð´Ð°
ĠÐ¼Ð¾Ð» Ð¸Ð»Ð°ÑģÑĮ
ÐµÑģÐº Ð¾Ð¹
Ð»Ð¸Ð² Ñĭ
Ð»Ð¸Ð² ÑĥÑİ
ÐµÐ»Ð¸ ÑģÑĤ
ĠÐ¼Ñĭ Ð»Ð°
ĠÐ½Ð°Ð´ Ð¾ÑĢÐ²Ð°Ð½
Ð¸Ð¶ Ð¸Ð²Ð°Ð»Ð°
ÑĥÑħ Ð¸
ĠÑĦ ÑĥÐ½
Ð²ÐµÑĢ ÑĤ
ĠÐ¿Ð¾ÑĤ ÑĥÑĪ
ĠÐ¿Ð¾ÑĤ Ð°Ñī
ĠÐ¿Ð¾ÑĤ ÐµÐ¼Ð½
ĠÐĵ ÐµÑĢ
ĠÐ¾Ðº ÑĢÐ°ÑĪ
ĠÐ¾Ðº Ð½Ð°Ð¼
ĠÐ²ÑĢ ÐµÐ·
ĠÐ¾Ð¿ ÑĥÑħ
ĠÐ¾Ð¿ Ð¸ÑĢÐ°ÑıÑģÑĮ
Ð¸ÑĪ ÐºÐ¾
Ð¸ÑĪ ÐºÐ¸
ĠÐ¾ÑĤÐ² ÐµÑĪ
Ð¸ÑģÑĤ Ð¸Ð½Ðµ
ĠÐ¸Ð¼ ÐµÑı
ĠÐ¾Ñģ ÐµÐ½Ð¸
ĠÐ¾Ñģ ÑĥÐ¶Ð´
Ð½Ñı Ð¶
ĠÑĤÐµÐ¼ Ð½ÐµÐ»Ð¸
ĠÐ²ÐµÑģ Ð½Ñĭ
ĠÑģÑĤÑĢÐ° Ð½Ñĭ
ĠÑģÑĤÑĢÐ° ÑģÑĤÐ¸
ĠÑģÑĤÑĢÐ° Ð½Ð¸ÑĨÐµ
Ð°Ñĩ Ð¸
Ð°Ñĩ ÐºÐ¸
ĠÐ¶ÐµÐ½ Ð¸ÑĤÑĮ
ĠÐ¶ÐµÐ½ ÑģÐºÐ¸Ñħ
ĠÐĽ Ð¾Ð²
ĠÐĽ ÐµÐ³
ĠÐĽ ÑĥÐºÐµ
ĠÐ½Ð°Ñĩ Ð°Ð²ÑĪÐ¸Ð¹
Ð°Ð²ÑĪ ÐµÐ¼
Ð°Ð²ÑĪ Ð¸Ð¼Ð¸ÑģÑı
ĠÐ·Ð½Ð° Ð½Ð¸Ðµ
ĠÑģÐ¾Ð² ÐµÑģÑĤÑĮ
ĠÑĥÐ¼ Ð°Ð»
ĠÑĥÐ¼ Ð¾Ð»Ñı
ĠÐĹ Ð°Ð³
ĠÐĹ Ð½Ð°Ñĩ
ĠÐ¿Ð¾Ñĩ Ð¸ÑĤ
ĠÐ½Ð°Ð¿ ÐµÑĢ
ĠÐ½Ð°Ð¿ Ð¾Ð¼Ð¸Ð½Ð°
Ð°ÑĤÐµÐ»ÑĮ Ð½Ð¾ÑģÑĤÐ¸
Ð¾Ñħ Ð½ÑĥÐ»
ĠÐ£ Ñģ
ĠÐ£ ÑĤÑĢ
ĠÐ£ Ð²Ð¸Ð´
ĠÐºÐ¾Ð½ ÑĨÐ°Ð¼Ð¸
ĠÐºÐ¾Ð½ ÑĨÐ°Ñħ
ĠÐ¿Ð¾Ð½ ÐµÐ¼Ð½Ð¾Ð³Ñĥ
ĠÐ¿ÑĢÐµÐ´ Ð¾ÑģÑĤÐ°Ð²
Ð¸Ð»ÑĮ Ð½ÑĭÐµ
ĠÑģÑĤÐ°ÑĢ ÑĪÐµ
ÑģÐ» ÑĥÑĪ
ĠÐł ÑıÐ´
ĠÐł Ð°Ð½ÑĮÑĪÐµ
ĠÐł ÑĭÐ±
ĠÐŃ ÐºÐ°
ĠÐ³Ð¾Ð»Ð¾Ð² Ð¾Ðº
ĠÐ±ÑĢ Ð¸Ð»
Ð¸Ð²ÑĪ ÐµÐ¼ÑģÑı
ĠÐŁÑĢ Ð¸Ð¿
ĠÐŁÑĢ ÐµÐºÑĢÐ°Ñģ
ĠÐ´ÑĥÐ¼ Ð°ÐµÑĤÐµ
ĠÑģÐµÑĢ Ð¾Ð³Ð¾
ĠÑģÐµÑĢ ÑĥÑİ
ĠÑģÐµÑĢ ÑĭÐ¼
ĠÐ²ÐµÑĢ ÑıÑĤ
ĠÐ²ÐµÑĢ Ð¸ÑĤÐµ
ĠÐ²ÐµÑĢ Ð½ÑĥÑĤÑĮÑģÑı
ĠÐ²ÐµÑĢ ÑĪÐ¸Ð½
ĠÐ¿Ð¾Ð² ÐµÑģ
ĠÐ¿Ð¾Ð² ÑĭÑĪ
Ð»ÐµÐ½ Ð½Ð¾Ð¼
ÑĥÑģ Ðµ
ÑĥÑģ Ñĭ
ĠÐ¾Ð³ Ð»ÑıÐ´
ĠÐ¿Ð¾ÑĢ Ð¾Ð³
ĠÐ¿Ð¾ÑĢ Ð¾Ð³Ð°
ĠÐ·Ð°Ð¿ ÑĥÑī
ĠÐ·Ð°Ð¿ Ð¾Ð¼Ð½Ð¸Ð»
ĠÐºÑĢÐ°Ñģ Ð°Ð²
ĠÐºÑĢÐ°Ñģ ÐºÐ°Ð¼Ð¸
ĠÐºÑĢÐ°Ñģ Ð¾ÑĤÐ°
ĠÐ±Ð¾Ð»ÑĮÑĪ ÐµÐ¹
ĠÐ±Ð¾Ð»ÑĮÑĪ Ð¾Ð¼Ñĥ
ĠÐºÐ¾Ð» Ð¾ÑģÑģ
ĠÐ¿Ð¾Ð¿ ÐµÑĩ
ĠÐ¿Ð¾Ð¿ Ð°Ð»Ð¸
ĠÐ¿Ð¾Ð¿ Ð¾Ð»Ð·
ĠÐ·Ð°Ð¼ Ð¾Ð»Ðº
ĠÐ±Ð¾Ð» ÑĤÐ¾Ð²
ĠÐ½Ð¾Ñĩ Ð½ÑĭÑħ
ĠÐ¾ÑģÑĤ Ð°ÑİÑĤÑģÑı
ĠÐ·Ð°Ðº ÑĥÑģÐº
ĠÐ·Ð°Ðº Ð¾Ð¿Ñĩ
ĠÐ¿ÐµÑĢÐµÐ´ ÐµÐ»
ĠÐ¿ÐµÑĢÐµÐ´ Ð°Ð²Ð°Ð»Ð¸
ĠÑĢÐ°ÑģÑģÐºÐ°Ð· Ð°Ð»Ð°
ĠÐ¼Ð°Ð» Ð¾Ð´ÑĥÑĪ
ĠÐ¾ÑĤÐ²ÐµÑĤ Ð¾Ð¼
ĠÐ¿Ð¾Ð· Ð²Ð¾Ð»ÑĮÑĤÐµ
Ð°ÑİÑī ÐµÐ¼Ñĥ
Ð°ÑİÑī Ð¸Ð¼ÑģÑı
Ð°ÑİÑī Ð¸Ð¼Ð¸ÑģÑı
ĠÐ²Ð¾Ñģ ÑģÑĤÐ°Ð½Ð¾Ð²
ĠÐ¢Ð°Ðº Ð°Ñı
ĠÐ¿ÑĢÐ¾Ñģ Ð½ÑĥÐ»Ð°ÑģÑĮ
ĠÐ¿ÑĢÐ¾Ñģ ÑĤÐ¾ÑĢÐ°
ĠÐĿÐ¸Ðº Ð¸ÑĦ
ĠÑģÑĤÑĢÐ°ÑĪ Ð½Ð¾Ð¼
ĠÑĢÐ°Ð´ Ñĭ
ĠÑĢÐ°Ð´ Ð¸Ðº
ĠÐ½ÐµÐ´ ÐµÐ»Ñı
ĠÑĥÐ³ Ð¾Ð²Ð°ÑĢ
ĠÑĥÐ³ Ð½ÐµÑĤ
ĠÑĥÐ³ Ð¾Ð²Ð°ÑĢÐ¸Ð²Ð°Ð»
ĠÑĥÐ² Ñĭ
ĠÑĥÐ² ÐµÐ»Ð¸Ñĩ
ĠÐ½Ð¸Ñĩ ÑĤ
ĠÐ´ÑĥÑĪ Ð½Ð¾
ĠÑģÑĤÐ¾Ð» Ð¿
ĠÐ¿ÑĢÐ°Ð² Ñĥ
ĠÐ½Ð¾Ð³ Ð°Ð¼
ÑıÐ´ Ñĭ
ÑĭÐ» Ð°Ð»
ĠÐ½ÐµÐ² ÐµÐ¶
ĠÐ½ÐµÐ² ÐµÑĢÐ¾
ÑĢÐ¸ Ð°Ð´
ĠÑĤÑıÐ¶ ÐµÐ»Ð°
ĠÑĤÑıÐ¶ ÐµÑģÑĤÐ¸
ĠÑĥÐ¿ ÑĢÐ°Ð¶
ÑĩÐ¸Ðº Ðµ
ĠÐ¶Ð¸Ð² Ñĥ
ĠÐ¶Ð¸Ð² Ð¾ÑĤÑĥ
ĠÐ½Ð¾Ð² Ð¾
ĠÐºÐ¾ÑĢ Ð¾Ð»
ĠÐķÐ³Ð¾ ÑĢÑĥ
ĠÑģÐµÑĢÐ´ Ð¸ÑĤ
ĠÑģÐµÑĢÐ´ Ð¸ÑĤÐµÑģÑĮ
ĠÐ½Ð°Ð· ÑĭÐ²Ð°ÐµÑĤ
ĠÐ½Ð°Ð· ÑĭÐ²Ð°Ð»ÑģÑı
ĠÐ¿Ð¾Ð¼ Ð¸Ð¼Ð¾
ĠÐ¿ÐµÑĢÐ² Ð¾Ð±ÑĭÑĤ
ĠÑĥÐ± ÑĢÐ°Ð½
ĠÑĥÐ± ÐµÐ³Ð°Ð»Ð¸
ĠÑģÐ¸Ð´ ÑıÑĤ
ĠÐ·Ð°Ð² ÐµÑĢ
ĠÐ»ÐµÑĤ ÐµÑĤÑĮ
ĠÐ²ÑģÑı ÑĩÐµÑģÐº
ĠÐ²ÑģÑı ÐºÑĥÑİ
ĠÐ¿Ð¾Ð³ Ð¾Ð½
ĠÐ¿Ð¾Ð³ ÑĢÑĥÐ·
ĠÐ¸ÑģÐ¿ Ð¸Ñģ
ĠÐ²ÐµÑĩ Ð½Ð¾Ð¹
ĠÑħÐ¾Ð»Ð¾Ð´ ÐµÐ½
ĠÑħÐ¾Ð»Ð¾Ð´ Ð½Ñĭ
ĠÑħÐ¾Ð»Ð¾Ð´ Ð½Ð¾Ð¼Ñĥ
ĠÐ¼Ð¾Ð»Ñĩ Ð°Ð½Ð¸ÐµÐ¼
ĠÐ³Ð¾Ð´ Ð°Ð¼
ĠÐ³Ð¾Ð´ Ð¸ÑĤÑģÑı
ĠÑģÑĤÑĢÐ°Ð½ Ð½ÑĭÑħ
ĠÐŀÑĤ ÑģÑİ
ĠÐŀÑĤ ÐºÑĢÐ¾Ð¹
ĠÐ²ÐµÐ» ÐµÐ»Ð¸
ĠÐ½ÐµÑģ ÑĩÐ°ÑģÑĤÐ»Ð¸Ð²
ĠÐŁÐµÑĤÑĢÐ¾Ð²Ð¸Ñĩ Ðµ
ĠÐ¶Ð°Ð» ÐºÐ¾Ðµ
ĠÐ¶Ð°Ð» ÐºÐ¸Ð¼
ĠÐ¼Ð¾Ð»Ð¾Ð´ ÐµÐ¶ÑĮ
ÑİÑī ÐµÐ¼
ĠÐ¿ÑĢÐ¸Ð² ÐµÐ»Ð¸
ĠÐ¿ÑĢÐ¸Ð² Ð¾Ð´Ð¸ÑĤ
ĠÑĥÑģ ÑĭÐ¿
ĠÑĥÑģ Ð¸ÐºÐ°Ð¼Ð¸
Ð¸Ð½ÑĥÑĤ ÑĮ
Ð¸Ð½ÑĥÑĤ Ð½Ð¾
ĠÐ·Ð°Ñģ Ð¾Ñħ
ĠÐ»ÐµÐ³ Ð»Ð¸
ĠÐ»ÐµÐ³ ÐºÐ¸Ðµ
ĠÐ´Ð¾ÑĢ Ð¾Ð¶Ðµ
ĠÑģÐ´ÐµÐ» Ð°ÐµÑĤ
ĠÐ¾ÑĤÐ´ Ð°Ð»Ð¸
ĠÐ¾ÑĤÐ´ ÐµÑĢÐ½ÑĥÐ»
ĠÐ´Ð°Ð² Ð°Ñı
Ð°ÑģÑĤ ÐµÑĢÑĮ
ĠÐ¿ÑĢÐ¾Ð´ ÐµÐ»
ĠÐ¿ÑĢÐ¾Ð´ Ð°Ð²
ĠÐ¿ÑĢÐ¾Ð´ Ð°Ð¶
ĠÐĴÐ°Ñģ ÑİÐº
ĠÐ¸Ð´ ÐµÐ¹
ĠÐºÐ» Ð°Ð²Ð¸ÑĪ
ĠÐ»ÐµÐ¶ Ð°
ĠÐ»ÐµÐ¶ Ð°ÑĤ
ĠÐ¡ÑĤ ÑĥÑĩ
ĠÐ¡ÑĤ ÑĢÐ°ÑģÑĤ
ĠÐ¡ÑĤ ÑĢÐ°Ñħ
ĠÐ¿ÑĥÑģÑĤ ÑĭÐµ
Ð½Ð¸Ñĩ Ð°ÐµÑĤ
ĠÐĺÐ²Ð°Ð½ Ñĥ
ĠÐĺÐ²Ð°Ð½ Ð¾Ð¼
ĠÐ±ÐµÑģÐ¿ ÑĢÐ¾ÑģÐ²ÐµÑĤ
Ð¡ Ð¸ÑĢ
ĠÑģÐ»ÐµÐ´ Ð°
ĠÑģÐ»ÐµÐ´ Ð¸Ð»Ð°
ĠÑī ÐµÐ´
Ġ1 0
Ġ1 5
ĠÐ¼Ð¸Ð» Ð¾Ð³Ð¾
ĠÐ¿Ð¾Ð½Ð¸Ð¼ Ð°Ñı
ĠÐ¿Ð¾Ð½Ð¸Ð¼ Ð°Ð½Ð¸Ðµ
ĠÐ¿Ð¾Ð½Ð¸Ð¼ Ð°Ð½Ð¸Ñı
ĠÐ¸Ð·Ð² Ð¾Ð»
ĠÑĥÐ²Ð¸Ð´ Ð¸ÑĤÐµ
ĠÑĥÐ²Ð¸Ð´ Ð¸Ð¼ÑģÑı
ĠÑĢÐ°Ð·Ð² ÐµÐ»
ĠÑĢÐ°Ð·Ð² Ð»ÐµÑĩ
ĠÐ¾ÑģÑĤÐ°Ð² Ð»Ñİ
ĠÐ¾ÑģÑĤÐ°Ð² Ð»ÑıÑĤÑĮ
ĠÑĢÐ°ÑģÑģ Ð²ÐµÑĤÐ°
ĠÐ¾ÑģÐ¾Ð± Ð¾Ð¹
ĠÐ¾ÑģÐ¾Ð± ÐµÐ½Ð½ÑĭÐ¹
ĠÐ¾ÑģÐ¾Ð± ÐµÐ½Ð½ÑĭÐ¼
ÑĥÐ¹ ÑģÑı
ÐµÐ²ÑĪ ÐµÐ¼
ĠÐŀÐ´ Ð½Ð¸
ĠÐŀÐ´ Ð½Ð¸Ð¼
ĠÐ½Ð¾Ñģ Ð¸Ð»ÑģÑı
ĠÐ²Ð¸Ð´ÐµÐ» Ð¾ÑģÑĮ
ĠÐ¼Ð¾ÑĢ ÐµÐ¼
ĠÐ¼Ð¾ÑĢ Ð´Ð°
ĠÐ¼Ð¾ÑĢ ÑģÐºÐ¾Ð¹
ĠÑĥÐ´Ð¸Ð² Ð¸Ð»Ð¾
ĠÑĥÐ´Ð¸Ð² Ð¸ÑĤÐµÐ»ÑĮÐ½Ð¾Ð³Ð¾
ĠÑģÐ¿Ð¾ÐºÐ¾Ð¹ Ð½Ð¾Ð¹
ĠÑģÐ¿Ð¾ÐºÐ¾Ð¹ Ð½Ð¾Ð³Ð¾
ĠÑģÐ¿Ð¾ÐºÐ¾Ð¹ Ð½Ð°Ñı
ĠÑģÐ¿Ð¾ÐºÐ¾Ð¹ ÑģÑĤÐ²Ð¸ÐµÐ¼
ĠÐ¿ÑĢÐ¾ÑģÑĤ Ð°
ĠÐ¿ÑĢÐ¾ÑģÑĤ ÑĥÐ¿
ĠÐ¿ÑĢÐ¾ÑģÑĤ Ð¸Ð»ÑģÑı
ĠÐ¿ÑĢÐ¾ÑģÑĤ Ð¸ÑĤÐµ
ĠÐ²ÑĭÐ¿ Ð°Ð»
ĠÐ²ÑĭÐ¿ ÑĥÑģÑĤÐ¸Ð»
ĠÑĨÐµÐ» Ð¾Ð³Ð¾
ĠÐ³Ð¾ÑĢÐ¾Ð´ ÑģÐºÐ¸Ðµ
ĠÑģÐ¾Ð»Ð½ ÑĨÑĥ
ĠÐ½Ð°Ð² Ð·
ĠÐ¨ Ð¸ÑĢ
ĠÑģÐ¸Ð»ÑĮ Ð½Ð¾Ðµ
ĠÑģÐ¸Ð»ÑĮ Ð½ÑĥÑİ
Ð¾ÑĢÐ¾Ð² Ð½Ð°
ĠÑģÐ¾Ñģ ÑĤÐ¾Ð¸ÑĤ
ĠÑģÑĤÐµÐ½ Ð¾Ð¹
ĠÑģÑĤÐµÐ½ Ð°Ñħ
ĠÐ¿ÑĢÐ¸Ñģ Ð»Ð¾Ð½
ĠÐ½Ð°Ðº Ð¾Ð¿
ĠÑĤÑıÐ¶ÐµÐ» ÐµÐµ
ĠÐºÐ°Ð¼ Ð½Ñİ
ĠÑĥÑģÐ¿ ÐµÐ»Ð°
ĠÐ²Ð¾Ð·Ð´ ÑĥÑĪ
ĠÑıÑĢ ÐºÐ¸Ñħ
ĠÐ¿Ð¸ÑģÑĮ Ð¼
ÑĤÐ¾Ñĩ Ð½Ð¾Ð¹
ÑĤÐ¾Ñĩ ÐºÐ¾Ð¹
ĠÐ¼ÑĥÐ¶ ÐµÑģÑĤÐ²
ĠÑĢÐ°ÑģÐ¿ Ð»
ĠÑĢÐ°ÑģÐ¿ ÑĢÐµÐ´ÐµÐ»
ĠÐ¿Ð°ÑĢ ÐµÐ½ÑĮ
ĠÐ¿Ð¾Ð± ÐµÐ»
ĠÐµÐ´ Ð¸Ð½ÑĭÐ¹
ĠÐ¿ÑĢÐ¾Ð¸Ð· Ð¾Ð¹ÑĤÐ¸
ĠÐ²ÐµÑģÐµÐ» Ñĭ
ĠÐ´Ð¾ÑĢÐ¾Ð³ Ð¸Ñħ
ĠÐ´Ð¾ÑĢÐ¾Ð³ Ð¸Ðµ
ĠÑģÐ°Ð´ Ð¸ÑĤÑģÑı
ĠÐ¼Ð½ ÐµÐ½Ð¸Ñı
ĠÑĥÐ´Ð° ÑĢÐ¾Ð¼
ĠÑĥÐ´Ð° ÑģÑĤÑģÑı
ĠÐ¿ÑĢÐµÐ´ÑģÑĤÐ°Ð² Ð¸Ð»ÑģÑı
ĠÐ¿ÑĢÐµÐ´ÑģÑĤÐ°Ð² Ð»ÑıÐ»ÑģÑı
ĠÐ¿ÑĢÐµÐ´ÑģÑĤÐ°Ð² Ð»ÐµÐ½Ð¸Ð¸
ĠÑĢÐ¾Ð´ Ð½ÑĭÑħ
ĠÑĢÐ¾Ð´ Ð¸ÑĤÑĮÑģÑı
ĠÑĢÐ¾Ð´ Ð¸Ð½Ðµ
ĠÑĢÐ¾Ð´ Ð¸ÑĤÐµÐ»Ð¸
ĠÐ²Ð¾Ð¿ Ð»Ð¸
ĠÑģÐ¾Ð· ÐµÑĢ
ĠÐ¾ÑĤÐºÑĢÑĭ Ð»Ð°ÑģÑĮ
ĠÐºÑĢÐ¾Ð² Ð°ÑĤ
ĠÐºÑĢÐ¸Ðº Ð¸
ĠÑĤÐ¾Ð½ ÐºÐ¸Ð¹
ĠÑĤÐ¾Ð½ ÐºÐ¸Ð¼
ĠÑĤÐ¾Ð½ ÐµÐ½ÑĮÐºÐ¾Ð¹
ĠÑĤÐ¾Ð½ ÐµÐ½ÑĮÐºÐ¸Ð¼
ĠÐ³ÑĢÑıÐ· Ð½ÑĭÐ¼
ĠÐ³ÑĢÑıÐ· Ð½Ð¾Ð³Ð¾
ĠÑģÐ»ÐµÐ· Ð°
ĠÐ¿ÑĢÐ¾Ð´Ð¾Ð»Ð¶ Ð¸ÑĤÐµÐ»ÑĮÐ½ÑĭÐ¹
ĠÐ±ÐµÑĢ ÐµÐ¶
ĠÐ¿Ð¾Ð´ÑĥÐ¼ Ð°Ð¹ÑĤÐµ
ĠÐºÐ¾Ð¼ Ð±
ĠÐ²ÐµÐ»Ð¸Ðº Ð¸
ĠÐ¼Ð¸ÑĢ Ð½Ð¾
ĠÐ½ÐµÐ· Ð°Ðº
ĠÐ±Ð¾ ÑıÑĤÑĮÑģÑı
ĠÑıÐ² ÑģÑĤÐ²ÐµÐ½Ð½Ð¾
ĠÑıÐ² Ð»ÑıÐ»Ð°ÑģÑĮ
ĠÐ¸Ð½ÑĤÐµÑĢÐµÑģ Ðµ
ĠÐ¸Ð½ÑĤÐµÑĢÐµÑģ Ð°
ĠÐ¸Ð½ÑĤÐµÑĢÐµÑģ Ð½ÑĭÐ¼
ĠÐ¿ÑĢÐ¸Ð´ Ð¸
ĠÐ¿ÑĢÐ¸Ð´ Ñı
ĠÐ»Ð¸ÑĤÐµÑĢÐ°ÑĤÑĥÑĢ Ð¾Ð¹
ÐĿ Ð¾
ÐĿ ÐµÐ¼
ÐĿ Ð°Ð´
ÐĿ Ðĺ
ÐĿ ÑĥÐ¶Ð½Ð¾
ÐĴ Ñĭ
ĠÐ²Ð¾ÑĢ Ð²Ð°Ð»ÑģÑı
ĠÐĸ ÐµÐ»
ĠÐĸ Ð¸ÑĤÑĮ
ĠÐ¾ÑĤÑĤ Ð°Ð»Ðº
ĠÐ¿Ð»ÐµÑĩ Ð°Ñħ
ĠÐ½ÐµÐ¶ Ð½Ð°Ñı
ĠÐ½ÐµÐ¶ Ð½Ð¾ÑģÑĤÐ¸
ĠÑĩÐµÑĤ ÐºÐ¾
ĠÐ»ÐµÑģ Ð¾Ð²
Ð°ÐµÐ¼ Ð¾Ð³Ð¾
Ð°ÐµÐ¼ Ð°Ñı
ĠÐ²ÑģÑĤÑĢÐµÑĩ Ð°Ð»ÑģÑı
ĠÐ¿ÑĢÐ¸Ðº ÑĥÐ¿
ĠÐºÑĢÐ°ÑģÐ¸Ð² ÑĭÐ¼Ð¸
ĠÐ½ÐµÐ¿ÑĢ Ð¸Ð»
ĠÐ½ÐµÐ¿ÑĢ Ð¸Ðº
ĠÐĴÐ°ÑģÐ¸Ð»ÑĮ ÐµÐ²Ð½Ñĭ
ĠÐ½ÐµÐ½ Ð°ÑģÑĤÐ¾ÑıÑī
ĠÐ½ÐµÐ½ Ð°ÑĢÑĥÑĪ
ĠÐ¿Ð¾Ð»ÑĥÑĩ Ð°Ð»
ĠÐ¿Ð¾Ð»ÑĥÑĩ Ð¸ÑĤÑĮ
ĠÐ±Ð»Ð¸Ð· ÐºÐ¸Ð¹
ĠÐ±Ð»Ð¸Ð· ÐºÐ¾Ð³Ð¾
ĠÐ¿ÑĢÐ¾Ñĩ ÑĤ
ĠÐ¿ÑĢÐ¾Ñĩ Ð¸ÑĤÐ°Ð½
ĠÐ¾Ð±ÑĢÐ°Ð· Ð¾Ð²Ð°Ð»ÑģÑı
ĠÐ±Ð»Ð°Ð³ Ð¾Ð¿ÑĢÐ¸ÑıÑĤ
ĠÑģÑĤÑĢÐ°Ñħ Ñĥ
Ð½ÑĥÐ²ÑĪ Ð¸Ð¹
Ð½ÑĥÐ²ÑĪ ÐµÐ³Ð¾
ĠÑģÐ»Ð°Ð± Ð¾Ð³Ð¾
ĠÑģÐ»Ð°Ð± Ð¾ÑģÑĤÑĮ
ĠÐ±ÑĢÐ¾Ñģ Ð°Ñı
ĠÐ¼ÐµÑģÑĤ Ð¾Ð¼
ĠÐ¼ÐµÑģÑĤ Ð°Ð¼Ð¸
ĠÐ½Ð°ÑħÐ¾Ð´ Ð¸ÑĤÑĮÑģÑı
ĠÑģÐµÑĢÑĮÐµÐ· Ð½Ð°Ñı
Ð¸Ð²Ð°ÐµÑĤ Ðµ
ĠÑĢÐ°Ð²Ð½Ð¾Ð´ÑĥÑĪ ÐµÐ½
ĠÑĢÐ°Ð²Ð½Ð¾Ð´ÑĥÑĪ Ð½ÑĭÐµ
ĠÑĢÐ°Ð²Ð½Ð¾Ð´ÑĥÑĪ Ð¸Ñı
Ð¼ÐµÑĢ Ð½Ð¾
Ð½ÑĥÑĤ ÑĭÑħ
ĠÐºÑĢÑĥÐ³ Ð°
ĠÐ¿Ð¾Ð»Ð¾Ð¶ ÐµÐ½Ð¸Ð¸
ĠÐ¿Ð¾Ð¶Ð°Ð» ÐµÐ»
ĠÐ¿Ð¾Ð¶Ð°Ð» ÐµÑĤÑĮ
Ðĳ Ð°ÑĢ
ĠÐºÑĢÐµÐ¿ ÐºÐ¸Ð¹
ĠÐºÑĢÐµÐ¿ Ð¾ÑģÑĤÐ¸
ĠÐ¿ÑĮÑı Ð½Ñĭ
ĠÐ¿ÑĮÑı Ð½Ð°Ñı
ĠÐ¿ÑĮÑı Ð½ÑĭÑħ
ĠÐ½Ð°Ð¿Ð¸Ñģ Ð°Ð½Ð½Ð¾Ðµ
ĠÑģÑĥ ÑīÐµÑģÑĤÐ²Ð¾
ĠÑĤÐµÑĢ ÑıÐ»Ð¸ÑģÑĮ
ĠÐ¼ÐµÐ» Ð¾Ð´
ĠÐ¼ÐµÐ» ÐºÐ¾
ĠÐ¼ÐµÐ» ÐºÐ¸Ð¹
ĠÐ¼ÐµÐ» ÐºÐ¾Ð³Ð¾
ĠÐ¼ÐµÐ» Ð¾ÑĩÑĮ
ĠÐºÐ°Ð¿ Ð¸ÑĤÐ°Ð»
ĠÐ·Ð°Ð» Ð¸Ð²
ĠÐ¿ÑĢÐµÐºÑĢÐ°Ñģ Ð½ÑĭÑħ
ĠÐºÐ¾Ð½Ñĩ Ð°Ñı
ĠÐºÐ¾Ð½Ñĩ Ð¸Ð»Ð°ÑģÑĮ
ĠÐºÐ¾Ð½Ñĩ ÐµÐ½Ð¾
ĠÐ·Ð²Ð¾Ð½ ÐºÐ¸Ð¼
ĠÐ·Ð²Ð¾Ð½ Ð°ÑĢÑĮ
ĠÐ±Ð¾Ð³ Ð°ÑĤÑĭÐ¹
ĠÐ¼ÐµÑĢÑĤÐ² ÑĭÐ¹
ĠÐ¼ÐµÑĢÑĤÐ² Ð¾Ðµ
ĠÐ¼ÐµÑĢÑĤÐ² ÐµÐ½Ð½Ð¾
ĠÐ½Ð°ÑĩÐ¸Ð½ Ð°Ð»ÑģÑı
ĠÐºÑĥÐ¿ ÐµÑĩÐµÑģÐº
ĠÐ»Ð°Ñģ Ðº
ĠÑģÐ²Ð¾Ð±Ð¾Ð´ Ð½ÑĭÑħ
Ñį ÑĤÐ¾
ĠÐ¾Ð±ÐµÐ´ Ð°Ð»Ð¸
ĠÐ¾Ð±ÐµÐ´ Ð½Ñı
ĠÐ³Ð¾ÑĢÑıÑĩ Ð°Ñı
ĠÐ³Ð¾ÑĢÑıÑĩ ÑĥÑİ
ĠÐ²Ð¾Ð»Ð¾Ñģ Ð°
Ðŀ Ð½
ĠÐ¾ÑģÑĤÑĢ Ð¾Ð²
ĠÐ¾ÑģÑĤÑĢ ÑĭÑħ
ĠÐ²ÑĭÑħÐ¾Ð´ Ñı
ĠÑģÑĭ Ð½Ð¾Ð²
ĠÐ¿Ð¾ÑħÐ¾Ð¶ ÐµÐ¹
ĠÐ¿Ð¾ÑħÐ¾Ð¶ Ð¸Ðµ
ĠÐ½ÐµÐºÐ¾ÑĤÐ¾ÑĢ Ð¾Ð¹
ĠÐ´Ð»Ð¸Ð½ Ð½ÑĭÐ¼
ĠÐ´Ð»Ð¸Ð½ Ð½Ð¾Ð¼
ĠÐ½ÐµÐ¿Ð¾Ð´Ð²Ð¸Ð¶ Ð½Ñĭ
ĠÑĤÐ¾Ð»ÑģÑĤ ÑĥÑİ
ĠÑĤÐ¾Ð»ÑģÑĤ ÑĭÐ¼
ĠÐ³Ð¾ÑģÐ¿Ð¾Ð´ Ð¸
ĠÐ³Ð¾ÑģÐ¿Ð¾Ð´ ÑĮ
ĠÑģÐ´ Ð²Ð¸Ð½ÑĥÑĤ
ĠÐ»Ð¾Ð¶ ÑĮÑİ
ĠÐ»Ð¾Ð¶ Ð¸ÑĤÑģÑı
ĠÐ´ÐµÐ¹ÑģÑĤÐ²Ð¸ÑĤÐµÐ»ÑĮÐ½Ð¾ ÑģÑĤÑĮ
ĠÐĲÐ½ÑĤÐ¾ÑĪ ÐµÐ¹
ĠÐĽÑİÐ± Ð»Ñİ
ĠÐ¾ÑģÑĤÐ°Ð½Ð¾Ð² Ð¸Ð»
ĠÐ¿Ð¾ÑĪ Ð»Ñİ
ĠÐ¿Ð¾ÑĪ ÑĥÑĤÐ¸Ð»
ĠÐ¶ÐµÐ»ÐµÐ· Ð¾Ð¼
ĠÐ¶ÐµÐ»ÐµÐ· Ð½ÑĭÐ¹
ĠÐ¶ÐµÐ»ÐµÐ· Ð½ÑĭÐ¼
ĠÐ¶ÐµÐ»ÐµÐ· Ð½ÑĥÑİ
Ð¸ÑĤÐµÐ» Ñİ
ĠÑĢÐ°Ð·Ð´ Ð°Ð»ÑģÑı
ĠÑĢÐ°Ð·Ð´ ÐµÐ»ÑĮÐ½Ð¾
ĠÑĢÐ°Ð·Ð´ ÐµÑĤÑĮÑģÑı
ĠÐ¢Ð¾Ð» ÑģÑĤÐ¾Ð³Ð¾
ĠÑĢÐµÐ´ ÐºÐ¸Ñħ
ĠÐ³Ð»ÑĥÐ¿ Ð¾Ð¹
ĠÐ³Ð»ÑĥÐ¿ Ð°Ñı
ĠÐ·Ð°Ð¼ÐµÑĩ Ð°Ð½Ð¸Ñı
ĠÑģÑĥÐ¼ ÑĢÐ°Ñĩ
ĠÑģÑĥÐ¼ ÑĢÐ°Ðº
ĠÑģÑĥÐ¼ ÐµÐµÑĤ
ĠÐºÐ°Ð± Ð°Ðº
ĠÑĪÐµÐ» ÐµÑģÑĤ
ĠÐ³ÑĢÑĥÐ´ Ñĥ
ĠÐ³ÑĢÑĥÐ´ ÐµÐ¹
ĠÑģÐ¸Ð´ÐµÐ» ÐºÐ°
Ð¼Ð¾ ÐµÐ¼Ñĥ
ĠÑĢÐµÑĩ ÑĮÑİ
ĠÐ¾ÑĤÐ¿ ÑĥÑģÐº
ĠÑģÐ»ÑĥÐ¶ Ð±
ĠÑģÐ»ÑĥÐ¶ Ð°Ñī
ĠÐ¿Ð¾ÑıÐ² Ð»ÐµÐ½Ð¸Ñı
ĠÐ¿Ð¾ÑıÐ² Ð»ÑıÑĤÑĮÑģÑı
ĠÐĲÐ½Ð´ÑĢ ÑİÑĪÐºÐµ
ĠÐ³Ð»ÑĥÐ±Ð¾Ðº Ð¸Ñħ
ĠÑĤÐ²ÐµÑĢÐ´ Ð¾Ðµ
ĠÑģÐºÑĥÑĩ Ð½ÑĭÐ¹
ĠÑģÐºÑĥÑĩ Ð½ÑĭÑħ
ĠÐ¼Ð¾Ð³Ñĥ ÑīÐµÑģÑĤÐ²
ĠÐŁÐµÑĤÑĢÐ¾Ð² Ñĥ
ĠÐ¿Ð°Ð´ Ð°ÑİÑĤ
ĠÐ¾ÑĢ ÐµÑħ
ĠÐ¾ÑĢ Ð»Ñĭ
ĠÐ¾ÑĢ ÐµÐ¾Ð»
ĠÐ°Ðº ÑĤÐ¸Ð²
ĠÐ²ÑĭÐ± Ð¸ÑĢÐ°Ð»
ĠÐ²ÑĭÐ± ÑĢÐ°Ð»
ĠÐ²ÑĭÐ± ÑĢÐ°Ð»Ð°
ĠÐľÐ°ÑĢ Ðº
ĠÐľÐ°ÑĢ ÐºÑĥ
ĠÐľÐ°ÑĢ ÑĤÐ¾Ð²
ĠÐ·Ð´Ð¾ÑĢÐ¾Ð² Ð¾Ð³Ð¾
ÐĲ Ð½
ÐĲ ÑĢ
ĠÐ²ÑĭÐ· ÑĭÐ²Ð°Ð»
ĠÐ²Ð¾ÑģÐ¿Ð¾Ð¼Ð¸Ð½Ð° Ð½Ð¸Ð¸
Ðļ Ðŀ
ĠÐ¡ÐµÐ¼ÐµÐ½ Ñĥ
ĠÐ´Ð¸Ðº Ð¸Ðµ
ĠÐ¿ÑĢÐ¸Ð¿ ÑĥÑħ
ĠÐŁÐ¾Ð´ ÑĥÐ¼
ĠÐŁÐ¾Ð´ Ð¾Ð¶Ð´
Ġ18 7
ĠÑĪÐ¸ÑĢÐ¾Ðº Ð¸Ñħ
ĠÑģÑĩÐ°ÑģÑĤÐ»Ð¸Ð² ÑĭÑħ
ĠÐ¿ÑĢÐ¸Ð³ Ð»ÑıÐ´ÑĭÐ²
ĠÑĢÑĭ Ð´Ð°Ð½Ð¸Ñı
ĠÑģÑĤÑĢÐ°Ð´ Ð°ÐµÑĤ
ĠÐ¸ÑģÐ¿ÑĥÐ³ Ð°
ĠÐ¸ÑģÐ¿ÑĥÐ³ Ð¾Ð¼
ĠÐ¸Ð·Ð²ÐµÑģÑĤ ÐµÐ½
ĠÐ¸Ð·Ð²ÐµÑģÑĤ Ð½Ð¾ÑģÑĤÑĮ
ĠÐ´Ð¾Ð± ÑĢÑĭ
ĠÐ²Ð°Ð¶ Ð½Ð¾Ð³Ð¾
ĠÐ¾Ð±ÑĭÐºÐ½Ð¾Ð² ÐµÐ½Ð½ÑĭÐµ
ĠÐ¾Ð±ÑĭÐºÐ½Ð¾Ð² ÐµÐ½Ð½Ð¾Ð³Ð¾
ĠÑĪÑĥÑĤ ÐºÐ°Ð¼Ð¸
ĠÐ´ÑĢÑĥÐ¶ Ð±Ð°
ĠÐ¼Ð½Ð¾Ð³ Ð¾Ð¼
ĠÐ¼Ð½Ð¾Ð³ Ð¾Ð·Ð½Ð°Ñĩ
Ðľ ÑĥÐ¶
Ðľ Ð¾ÑģÐºÐ¾Ð²
ĠÐĴÐµÑĢ Ð¾ÑĩÐºÐ°
ĠÑĪÑĥÐ¼ Ð¾Ð¼
ĠÑĪÑĥÐ¼ Ð½ÑĭÐ¹
ÑĥÐ»ÑĮ Ñģ
ĠÐ¿Ð¾ÑģÐ» Ð°Ð»Ð¸
ĠÑĤÐ²Ð¾ÑĢ ÑĩÐµÑģÐº
ĠÑĤÐ²Ð¾ÑĢ ÑĩÐµÑģÐºÐ¾Ð¹
ĠÐ±Ð»Ð°Ð³Ð¾ ÑģÑĤ
ĠÑģÐµÐ³Ð¾Ð´Ð½Ñı ÑĪ
ĠÐ¿Ð¾ÑģÑĤÐ¾ÑıÐ½ Ð½Ð¾Ð¹
ĠÐ·Ð½Ð°Ñĩ ÐµÐ½Ð¸Ð¸
ĠÐ²ÑģÑĤÑĢÐµÑĤ Ð¸Ð²
ĠÐ²ÑĤÐ¾ÑĢ Ð¸ÑĩÐ½Ð¾
ĠÐ¿Ð¾ÑģÐ¼Ð¾ÑĤÑĢ ÐµÐ»Ð°
ĠÑĢÐµÐ² Ð½Ð¾ÑģÑĤÐ¸
ĠÐ´Ð¾Ñģ ÐºÐ¸
ĠÑģÑĥÑīÐµÑģÑĤÐ² Ð¾Ð²Ð°Ð»Ð¸
ĠÑģÑĤÑĥÐ´ÐµÐ½ÑĤ Ð°Ð¼
ĠÐ¿ÑĢÐ¾Ð± ÑĥÐ´
ĠÐ¿ÑĢÐ¾Ð± Ð¾Ð²Ð°Ð»
ĠÑģÐºÐ°Ð¶ ÑĥÑĤ
ĠÐĵÐ¾ÑĢ Ð¸ÑĤ
ĠÑĤÐ¾Ð»Ð¿ Ð¾Ð¹
ĠÐ¸Ð·Ð´ Ð°ÑĤÐµÐ»Ñı
ĠÑģÑĩÐ°ÑģÑĤÑĮ ÐµÐ¼
ĠÑĤÑĮ ÑĦÑĥ
ÑĤÐ°Ð» Ðº
ĠÐ¿ÐµÑĢÐµÑģÑĤ Ð°Ð»Ð°
ĠÑĤÑĭÑģÑıÑĩ ÐµÐ»ÐµÑĤ
ĠÐ¿ÑĢÐ¸Ð» Ð¾Ð¶Ð¸Ð»
ĠÐ±ÐµÐ·ÑĥÐ¼ Ð½Ð¾Ð³Ð¾
ĠÐ¾ÑģÐ² ÑıÑī
ĠÐ²Ð¾Ð·Ð²ÑĢÐ°Ñī Ð°Ð»Ð°ÑģÑĮ
ĠÐ½ÐµÐ¾Ð±ÑĭÐºÐ½Ð¾Ð² ÐµÐ½Ð½Ð¾Ð³Ð¾
ĠÑİ Ð³
ĠÑİ Ð½Ð¾ÑģÑĤÐ¸
ĠÑĥÑħÐ¾Ð´ Ñı
ĠÐºÑĢÑĥÐ¶ Ð¾Ðº
ĠÐ³Ð¾ÑĢÐ´ ÑĭÐ¼
ĠÐ¿ÑĢÐ¸Ñĩ ÐµÑģ
ĠÑģÐ²ÑıÑĤ Ð¾Ð³Ð¾
ĠÑģÐ²ÑıÑĤ ÑĭÑħ
ĠÐ¿Ð¾ÐºÐ¾Ð¹ Ð½Ð¸ÐºÐ¾Ð²
ÐĶ ÑĥÑį
ĠÐ½Ð°Ð¹ Ð´ÐµÑĤ
ĠÐ¿Ð¾Ð¶Ð°Ð»ÑĥÐ¹ ÑĤÐµ
ĠÐ³Ð°Ð·ÐµÑĤ Ð°Ñħ
Ð¼ÐµÑĤ Ð½Ð¾
ĠÐ¾Ð±ÑĢÐ°Ñī Ð°Ñı
ĠÐ¾Ð±ÑĢÐ°Ñī Ð°Ð»Ð¸
ĠÐ¿ÐµÑĢÐµÐ¿ ÑĥÑĤ
ĠÐ¿ÐµÑĢÐµÐ¿ Ð¸ÑģÐºÐ°
ĠÑĢÑĥÑģ ÑģÐºÐ°Ñı
ĠÑĩÐµÐ»Ð¾Ð²ÐµÑĩÐµÑģÐº Ð°Ñı
ĠÑĩÐµÐ»Ð¾Ð²ÐµÑĩÐµÑģÐº Ð¸Ñħ
ĠÑĩÐµÐ»Ð¾Ð²ÐµÑĩÐµÑģÐº ÑĥÑİ
ĠÐºÐ°ÑĢÑĤ Ð¸Ð½Ðµ
ĠÐ¿ÑĢÐµÐ¶ Ð½ÐµÐ¹
ĠÐ¿ÑĢÐµÐ¶ Ð½ÐµÐµ
ĠÐĲÐ»ÐµÐºÑģÐ°Ð½Ð´ÑĢ Ð¸Ð½ÑģÐºÐ¾Ð¼
ĠÑĢÐ¸Ñģ Ð¾Ð²Ð°ÑĤÑĮ
ĠÐ¿Ð¾ÑĤÐµÑĢ ÑıÐ½
ĠÑĩÐµÑĤÐ²ÐµÑĢ Ð³
ĠÐ±ÑĥÐ¼Ð°Ð³ Ð°
ĠÑĤÐ°Ð»Ð°Ð½ÑĤ Ð»Ð¸Ð²Ð¾Ð³Ð¾
ĠÐ¸ÑģÑĩÐµÐ· Ð»Ð¸
ĠÑģÐ¾Ð» Ð³Ð°Ð»
ĠÑģÑĥÑħ Ð¸Ð¼
ĠÑģÑĥÑħ Ð¸Ð¼Ð¸
ĠÐ¿Ð°Ñħ Ð½ÑĥÐ»Ð¾
ĠÐ²Ð´ Ð°Ð»Ð¸
ĠÐ¿ÑĢÐ¸ÑĤ Ð¸Ñħ
ĠÐ¿ÑĢÐ¸Ð¶ Ð°Ð»
ĠÐ¿ÑĢÐ¸Ð¶ Ð¸Ð¼Ð°Ñı
ĠÑĥÑħ Ð°
ĠÐ½ÐµÐ½Ð°Ð² Ð¸ÑģÑĤ
ĠÐ½ÐµÐ½Ð°Ð² Ð¸Ð¶Ñĥ
ĠÑĤÐ¸ÑĪ Ð¸Ð½Ð¾Ð¹
ĠÐĳÐ¾Ð³ Ð¾Ð¼
ĠÑģÐ¾Ð±ÑģÑĤÐ² ÐµÐ½Ð½ÑĭÑħ
ĠÑģÐ¾Ð±ÑģÑĤÐ² ÐµÐ½Ð½Ð¾Ð³Ð¾
ĠÑĥÑģÑĤÐ°Ð» ÑĭÐµ
ĠÐľÐ¸ÑĤÑĢÐ¾ÑĦ Ð°Ð½Ð°
ĠÐ·Ð°Ñī Ð¸ÑĤÐµ
ĠÐ³Ð¾ÑĤÐ¾Ð² Ð¸Ð»ÑģÑı
ĠÑĥÐ¿ÑĢ ÐµÐºÐ¸
ĠÐ¡ÑĤÐµÐ¿ Ð°Ð½Ð¾Ð²
ĠÑģÑĤÐµÐº Ð¾Ð»
ĠÐ¿ÑĥÑģÑĤÑĭ Ð½Ð¸
ĠÐ¿ÑĥÑģÑĤÑĭ Ð½Ñı
ĠÑģÐ¾Ð³Ð»Ð°Ñģ Ð¸ÑĤÑĮÑģÑı
ĠÐ¿Ð¾ÐµÐ·Ð´ Ð¾Ð¼
ĠÐ³ÑĢÑĥÐ± ÑĭÐµ
ĠÐ³ÑĢÑĥÐ± ÑĭÐ¼Ð¸
ĠÐĽÐµÐ² ÐºÐµ
ĠÐ½Ð¸Ð· ÐµÐ½ÑĮÐºÐ¾Ð¹
ĠÐ²Ð°Ð³Ð¾Ð½ Ð¾Ð²
ĠÐ±ÐµÐ´ Ð°
ĠÐ¿ÑĢÐ¾ÑħÐ¾Ð´ Ð¸ÑĤ
ĠÑĨÐµÑĢÐºÐ¾Ð² Ð½Ð¾Ð¹
ĠÐ»Ð°ÑģÐºÐ¾Ð² Ð¾Ð¹
ĠÐ»Ð°ÑģÐºÐ¾Ð² ÑĭÐ¹
ĠÐ¾ÑģÐº Ð°Ð»
ĠÐ¾ÑģÐº Ð»Ð°Ð±
ĠÐ²ÑĭÐ³ Ð¾Ð´
ĠÐ²ÑĭÐ³ Ð¾Ð²Ð°ÑĢ
ĠÐ²ÑĭÐ³ Ð»ÑıÐ½ÑĥÐ»
ĠÑĤÐ¾ÑĢÐ¶ÐµÑģÑĤÐ² ÑĥÑİÑīÐµ
ĠÑħÐ°ÑĢÐ°ÐºÑĤÐµÑĢ Ð¸Ð·
ĠÐ¶Ð°ÑĢ Ð¾Ð¼
ĠÑģÐ²ÐµÐ¶ ÐµÑģÑĤÑĮÑİ
ĠÐ¡Ð¿ Ð¾ÐºÐ¾Ð¹
ĠÐ¾Ð´Ð½Ð¸Ð¼ Ð¸
ĠÐ½Ð°Ð³ Ð½ÑĥÐ»ÑģÑı
ĠÐĲÐ² Ð´Ðµ
ĠÐľÐ¸ÑĤÑĢÐ¾ÑĦÐ°Ð½ Ñĥ
ĠÑģÐµÐ´ Ð°Ñı
ĠÐ¼Ð¾Ð½ Ð¾Ð»Ð¾Ð³
ĠÑģÑĤÑĥÑĩ Ð°ÑĤÑĮ
ĠÐĿÐ¾Ð² Ð¸ÐºÐ¾Ð²Ð°
ĠÐºÑĢÑĭÑĪ ÐºÑĥ
ĠÐ´ÑĢÑĥÐ³Ð¾ Ñİ
ĠÐķÐ² Ð¼ÐµÐ½
ĠÐ½Ð°ÑĩÐ¸Ð½Ð° ÐµÑĤÑģÑı
ĠÐ±ÑĭÑģÑĤÑĢ ÑĭÐµ
ĠÐ±ÑĭÑģÑĤÑĢ Ð¾ÑĤÐ¾Ð¹
ĠÐ»Ð¾Ð² Ð¸ÑĤÑĮ
ĠÑįÐº ÑģÐ¿
ĠÐ½Ð°Ð¿ÑĢÐ°Ð² Ð»ÐµÐ½Ð¸Ñİ
ĠÑģÐ¾Ð·Ð½Ð° Ð½Ð¸ÐµÐ¼
ĠÐ½ÐµÐ·Ð½Ð°ÐºÐ¾Ð¼ ÑĭÑħ
ĠÑħÑĥÐ´Ð¾Ð¶ Ð½Ð¸ÐºÐ¸
ĠÐ¾ÑĦÐ¸ÑĨ Ð¸
ĠÐ¾ÑĦÐ¸ÑĨ ÐµÑĢÐ°
Ð¾Ð²Ð¸ ÑīÐµ
ĠÐ³ÑĥÑģÑĤ ÑĭÐ¼Ð¸
ĠÐ¿Ð¾Ð´ÑĢ Ð¾ÑģÑĤ
ĠÐ¿Ð¾Ð´ÑĢ ÑıÐ´
ĠÐ¿ÐµÑĢÐµÐ² ÐµÐ»
ĠÐ¾ÐºÐ¾Ð½Ñĩ Ð°Ð½Ð¸Ñı
ĠÑģÐ»ÑĥÑĩÐ° ÐµÐ²
ĠÐ²Ð·Ð´Ð¾Ñħ Ð¸
ĠÑĦÐ¾Ð½Ð°ÑĢ ÐµÐ¹
ĠÐ¿ÑĥÐ³ Ð¾Ð²Ð¸ÑĨ
ĠÐ´Ð¾Ð¶Ð´ ÐµÐ¼
ĠÐ·Ð°Ð¶ ÐµÐ³
ĠÐ·Ð°Ð¶ ÐµÑĩÑĮ
ĠÐĹÐ½Ð° ÐµÑĪÑĮ
ĠÐ²Ð¾Ð»Ð½ ÐµÐ½Ð¸Ð¸
ĠÐļÐ°ÑĩÐµÑĢ Ð¸Ð½Ñĥ
Ðĵ Ð¾ÑĢ
ĠÐ¼ÐµÑĤ ÐºÐ¾
ĠÑģÐ²ÐµÑĩ Ð°
ĠÐ»ÐµÑģÑĤ Ð½Ð¸ÑĨÐ°
ĠÑģÑĤÐ¾Ð½ Ð°Ð»
ĠÐ¡Ð°Ð¼ Ð¾Ðµ
ĠÑĨÐµÐ»Ð¾Ð² Ð°Ð»Ð°
ĠÑģÐ¾ÑģÐµÐ´ Ð¸
ĠÑĨÐµÑĢÐºÐ² ÐµÐ¹
ĠÐ¿Ð°Ð¿Ð¸ÑĢÐ¾Ñģ ÐºÑĥ
ĠÐºÐ¾ÑĢÐ¸Ð´ Ð¾ÑĢÐ°
Ð»Ð°Ð² Ð¸Ðµ
ĠÐ¾Ð±Ð² ÑıÐ·
ĠÐ½ÐµÐ¸Ð·Ð²ÐµÑģÑĤ Ð½ÑĭÐ¼
ĠÐ½ÐµÐ¸Ð·Ð²ÐµÑģÑĤ Ð½Ð¾Ð³Ð¾
ĠÐ·ÐµÐ»ÐµÐ½ ÑĭÑħ
ĠÐ¿ÑĥÑģÑĤÐ¾ ÑĤÑĥ
ĠÐ½Ð¾Ð¶ ÐºÐ¸
ĠÐ¾ÑĤÐ²ÐµÑĢ Ð½ÑĥÐ»Ð°ÑģÑĮ
ĠÑħÑĢ Ð°Ð¿
ĠÑħÑĢ ÑĥÐ¿
ĠÑħÐ¾ÑħÐ¾ÑĤ Ð°Ð»Ð°
ĠÐ·Ð°ÑģÑĤÐ°Ð² Ð¸Ð»Ð¾
ĠÐ·Ð°ÑģÑĤÐ°Ð² Ð»ÑıÐ»
ĠÐ²Ð¾ÑģÐºÑĢÐµÑģ ÐµÐ½ÑĮ
ĠÐ¡ÑĤÐµÐ¿Ð°Ð½Ð¾Ð²Ð¸Ñĩ Ð°
ĠÐľÐµÐ»Ð¸Ñħ Ð¾Ð²Ð°
ĠÐ¾ÑĪÐ¸Ð± ÑģÑı
ĠÐ¾ÑĪÐ¸Ð± ÐºÐ°
ĠÐ¾ÑĪÐ¸Ð± ÐºÐ¸
ĠÑĢÐ°Ð± Ð°
ĠÑħÐ¾Ð» ÑģÑĤ
ĠÐ¿ÑĢÐ¸Ð²ÑĭÑĩ ÐºÐ¸
ĠÐ·Ð°Ð³Ð°Ð´Ð¾Ñĩ Ð½ÑĭÐ¹
ĠÐ·Ð°Ð³Ð°Ð´Ð¾Ñĩ Ð½Ð¾Ð¹
ĠÐ·Ð°Ð³Ð°Ð´Ð¾Ñĩ Ð½Ð¾Ðµ
Ġ2 6
ĠÐ±ÐµÐ¶ Ð°Ð»Ð°
ĠÑĥÑĢ Ð¾Ð½
ĠÐ¿Ð¾Ð·Ð½Ð°ÐºÐ¾Ð¼ Ð¸Ð»
ĠÐ¸ÑģÑĤ Ð¾Ð¼
ĠÐºÑĥÑħ Ð½Ð¸
ĠÐ´ÑĭÑĪ Ð°Ð»
ĠÐ´ÑĭÑĪ Ð¸ÑĤ
ĠÐ¾Ð±ÑĭÑĩ Ð½ÑĭÐ¹
ĠÐ¾Ð±ÑĭÑĩ Ð½Ð¾Ð¹
ĠÐ¾Ð±ÑĭÑĩ Ð½ÑĭÐµ
ĠÐ´Ð¾Ð³Ð°Ð´ Ð°Ð»ÑģÑı
ĠÐ´Ð¾Ð³Ð°Ð´ ÑĭÐ²Ð°Ð»ÑģÑı
ĠÐ´Ð¾Ð³Ð°Ð´ ÑĭÐ²Ð°ÐµÑĤÑģÑı
ĠÐ´ÑĭÑħ Ð°Ð½Ð¸ÐµÐ¼
ĠÐ¶Ð°Ð´ Ð½Ð¾ÑģÑĤÑĮÑİ
ĠÑģÐ¾Ð±ÑĢ Ð°Ð»
ĠÐ¿Ð¾Ð¼Ð¾Ð³ Ð°ÑĤÑĮ
ĠÑĤÐ¾ÑĢÐ³Ð¾Ð² ÑĭÐµ
ĠÑģÐ¸Ñı ÑİÑīÐ¸Ð¹
ĠÑĤÐ°Ð½ÑĨ ÐµÐ²Ð°Ð»Ð¸
ĠÐ·Ð²ÐµÑĢ ÐµÐ¹
ĠÑģÐºÑĢÐ¸Ð¿ Ð¾Ð¼
ĠÑģÐºÑĢÐ¸Ð¿ ÐµÐ»Ð¸
ĠÐ¾Ð¿Ð°Ñģ ÐµÐ½Ð¸Ñı
ĠÐ¾Ð¿Ð°Ñģ Ð½Ð¾ÑģÑĤÐ¸
ĠÑĤÐ°Ð¸Ð½ÑģÑĤÐ² ÐµÐ½Ð½Ð¾
ĠÑĤÐ°Ð¸Ð½ÑģÑĤÐ² ÐµÐ½Ð½ÑĭÐµ
ĠÑĤÐ°Ð¸Ð½ÑģÑĤÐ² ÐµÐ½Ð½Ð¾Ð¹
ĠÐ½Ð°ÑģÑĤÐ¾Ð¹ ÑĩÐ¸Ð²
ĠÐ±ÐµÑģÐºÐ¾Ð½ÐµÑĩ Ð½Ð¾Ð¹
ĠÐ±ÐµÑģÐºÐ¾Ð½ÐµÑĩ Ð½Ð¾Ð³Ð¾
ĠÐ±ÐµÑģÐºÐ¾Ð½ÐµÑĩ Ð½Ð¾ÑģÑĤÐ¸
ĠÑģÑĬ ÐµÐ»
ĠÐ²Ð¾Ð² ÐµÐºÐ¸
ĠÐ²Ð¾Ð² ÑĢÐµÐ¼Ñı
ĠÐļÐ¾ÑĢ Ð½Ðµ
ĠÐ»ÑİÐ±Ð¾Ð¿ÑĭÑĤ ÑģÑĤÐ²Ð°
ĠÑĤÐµÐ¿Ð» Ð°Ñı
ĠÑģÐ»ÐµÐ´ÑĥÑİÑī ÐµÐ¹
ĠÐ¾ÑĦÐ¸ÑĨÐµÑĢ Ð¾Ð²
ĠÑĩÐµÑģÑĤ Ð½Ð¾ÑģÑĤÑĮ
ĠÐ¿ÑĢÐ¾Ð¼ ÐµÐ¶ÑĥÑĤ
ĠÑĢÐµÑģ ÑĤÐ¾ÑĢÐ°
ĠÐ»ÐµÑĩ Ð¸ÑĤÑĮÑģÑı
ĠÐ¿ÐµÑĢÐµÐ± Ð¸ÑĢÐ°Ð»
ĠÐ´Ð²Ð¾ÑĢ Ñĥ
ĠÐ¿Ð¾ÐºÐ°Ð·ÑĭÐ² Ð°Ñı
ĠÐ²ÑĢÐ°Ñĩ Ð¸
ĠÐ²ÑĢÐ°Ñĩ ÐµÐ±
ĠÐºÐ°Ð· Ð°
ĠÐ¾Ð±ÑīÐµÑģÑĤÐ² ÐµÐ½Ð½ÑĭÑħ
ĠÐ¸Ð·ÑĥÐ¼ Ð»ÐµÐ½Ð¸ÐµÐ¼
ĠÐ·Ð°Ð´ÑĭÑħ Ð°ÑİÑīÐ¸Ð¹ÑģÑı
ĠÐ¿ÑĢÐ¸Ð²ÑĭÐº Ð»Ð°
ĠÑģÐ´ÐµÑĢÐ¶ Ð°Ð½Ð½ÑĭÐ¹
Ġ188 9
ĠÐ²Ð»Ð° ÑģÑĤÑĮ
ĠÑĤÐ¾Ð¿ Ð¾ÑĤ
ĠÑģÑĤÑĥÐ¿ Ð°Ð¹
ĠÐ²ÑĭÐ² ÐµÐ»
ĠÐ²ÑĭÐ² ÐµÐ´
ĠÐ¿Ð¾Ð´Ð¾Ð± Ð½ÑĭÑħ
ĠÐĿÐ°ÑģÑĤ ÐµÐ½ÑĮÐºÐ°
ĠÐ½ÐµÐ¿Ð¾Ð½ÑıÑĤ Ð½Ð¾Ð³Ð¾
ĠÐ·Ð¾Ð»Ð¾ÑĤ Ð¾Ð¹
ĠÐ·Ð¾Ð»Ð¾ÑĤ ÑĭÐ¼
ĠÑĤÐµÐ½ÑĮ Ñİ
ĠÐ½ÐµÑĥÐ´ Ð¾Ð²Ð¾Ð»ÑĮÑģÑĤÐ²
ĠÐ¿Ð¾Ð´Ð¿ Ð¸ÑģÑĮ
ĠÑģÐ¿Ð°Ñģ Ð¸Ð±Ð¾
ĠÐ¿Ð¾Ð»Ð¾Ñģ Ð¾Ð¹
ĠÑģÑĤÑĢÐ°ÑģÑĤ Ð½ÑĭÐ¼
ĠÐ½Ð°Ð¿ÐµÑĩÐ°ÑĤ Ð°Ð»
ĠÐ½Ð°Ð¿ÐµÑĩÐ°ÑĤ Ð°Ð½Ð¾
ĠÑģÐ¾Ð¾Ð±Ñī Ð°Ð»
ĠÐ½ÐµÐ²ÐµÐ´Ð¾Ð¼ Ð¾
ĠÑĢÐ°Ð·Ð³Ð¾Ð²Ð°ÑĢ Ð¸Ð²Ð°Ð»
ĠÐ¾ÑĤÐºÑĢÑĭÑĤ ÑĭÐ¼Ð¸
14 4
ĠÑģÐ¼ÐµÐ» ÑĭÐµ
ĠÐĳÐ°Ð± ÐºÐ¸Ð½Ð¾
ĠÐ±ÐµÐ·Ð¼Ð¾Ð»Ð² Ð½Ð¾Ð¹
ĠÐ¿ÑĢÐµÐ´Ð¿ Ð¾Ð»Ð°Ð³
ĠÐ¿Ð¾Ð¼ÐµÑī Ð°Ð»Ð¸ÑģÑĮ
ĠÐ¿Ð¾Ð³Ð¾Ð²Ð¾ÑĢ Ð¸Ð¼
ĠÐºÐ½Ð¸Ð¶ ÐºÐ°
ĠÐºÐ¾Ð¼Ð¿ Ð°Ð½Ð¸Ñİ
ĠÑģÐ²Ð¸Ð´ÐµÑĤÐµÐ»ÑĮ ÑģÑĤÐ²ÑĥÑİÑĤ
ĠÐ½ÐµÐ´Ð¾ÑĥÐ¼ ÐµÐ²
ĠÑģÑĤÐ¸Ñħ Ð»Ð¾
ĠÐ¿ÑĢÐ¸ÑģÐ» Ð°Ð»Ð¸
ĠÐĲÐ½Ð´ÑĢÐµÐ¸Ñĩ Ð°
ĠÐµÐ¶ ÐµÐ¼
ĠÑģÐºÑĢÐ¾Ð¼ Ð½ÑĭÐµ
ĠÐ¿ÐµÑĢÐµÑħ Ð¾Ð´
ĠÐ±ÐµÑģÐµÐ´ Ð°
ĠÐ·Ð°Ð¼ÐµÑĢ Ð»Ð°
ĠÐ±Ð»Ð°Ð³Ð¾ÑĢÐ¾Ð´ Ð¸Ðµ
ĠÑĥÐ¹ Ð´Ñĥ
ĠÑİÐ¼ Ð¾ÑĢÐ°
ĠÐŁÐ¾Ðº ÑĥÐ¿
ĠÐ²ÑĭÑģÑĤÑĥÐ¿ Ð°Ð»
ĠÐ·Ð°ÑĪ Ð»Ð¾
ĠÐ³Ð»Ð°Ð´ Ð¸Ð»Ð°
ĠÑģÐ°Ð¼Ð¾ ÑĥÐ±Ð¸Ð¹
ĠÐ¿Ð¾Ð¿ÑĢÐ°Ð² Ð¸Ð»
ĠÑĥÐ±ÐµÐ´ Ð¸Ð»ÑģÑı
ĠÐ³ÑĢÐ¾Ð¼Ð°Ð´ Ð½Ð¾Ðµ
ĠÐ±Ð¾Ð³Ð°ÑĤ ÑĭÐµ
ĠÐ±Ð¾Ð³Ð°ÑĤ ÑĭÑħ
ĠÐ´Ð°Ð¼ Ð¾Ð¹
ĠÐŁÐ¾ÑĤ ÐµÑĢ
ĠÐ¿Ð¾ÑģÐµÑī Ð°ÑĤÑĮ
ĠÐ¿Ð»Ð¾ÑīÐ°Ð´ ÐºÐ¸
ĠÑĥÐ¼Ð¸ÑĢÐ° ÑİÑīÐµÐ³Ð¾
Ġ189 9
ĠÑĢÐµÐ²Ð¾Ð»ÑĮÐ²ÐµÑĢ Ð°
ĠÐ¼Ð°Ð¼ Ð¾Ð¹
ĠÐ¼Ð°Ð¼ Ð°ÑĪÐ°
ĠÑĤÐ¾Ð»Ðº Ð°ÑıÑģÑĮ
ĠÑĪÐ¿Ð¸Ð¾Ð½ Ð°
ĠÑİÐ± ÐºÐ¸
ĠÑİÐ± Ð¸Ð»Ñı
ĠÐŀÑģÑĤ Ð°Ð»ÑĮÐ½ÑĭÐµ
ĠÐ½Ð°Ð¿Ð¾Ð»Ð½ Ð¸Ð»Ð°
ĠÐ²ÐµÑĢÑħ Ð½Ð¸Ð¹
ĠÑĢÐ°ÑģÑģÐ¼Ð°ÑĤÑĢ Ð¸Ð²Ð°Ñı
ĠÐµÐ´Ð¸Ð½ÑģÑĤÐ² ÐµÐ½Ð½Ð¾Ðµ
ĠÐ¿ÑĢÐµÐ´ÑģÑĤÐ°Ð²Ð»ÑıÐ» Ð°ÑģÑĮ
ĠÐ³Ð¸Ð¼Ð½Ð°Ð·Ð¸ÑģÑĤ Ð°
ĠÑĥÐ¿ÑĢÐµÐº Ð°Ð»Ð¸
ĠÐĿÐ¾Ð²Ð¸ÐºÐ¾Ð² Ñĥ
ĠÐ¦ Ð°ÑĢ
ĠÐ´ÑĭÐ¼ ÑĩÐ°ÑĤ
ĠÐ¿Ð¾Ð´ÑĤ Ð²ÐµÑĢÐ¶
ĠÐ¿Ð¾Ð´Ð¾Ð·ÑĢ ÐµÐ²Ð°Ð»
ĠÐ»ÑİÐ±ÐµÐ· Ð½Ð¾
ĠÐ¼Ð¾ÑĢÑī Ð¸Ð½ÐºÐ¸
ĠÐ¿ÑĢÐ°Ð·Ð´Ð½Ð¸Ðº Ð°Ð¼
ĠÐ¿ÑĢÐ¾Ð¸Ð·Ð²ÐµÐ´ ÐµÐ½Ð¸Ðµ
ĠÐ¿Ð¾Ð»ÑĮÐ· Ñĭ
ĠÐºÑĢÐ° ÑħÐ¼
ĠÐĴÐ¸Ð´ Ð¸ÑĤÐµ
ĠÑģÐ»ÐµÐ¿ Ð°Ñı
ĠÐ¾ÑĩÐµÑĢ ÐºÐµ
ĠÐ¿ÑĢÐ¾ÑĤÑıÐ³ Ð¸Ð²Ð°Ð»
ĠÐĿÐ°ÑģÑĤÐ°ÑģÑĮ Ð¸
ĠÑģÐ¸ Ð½Ð¸Ñħ
ĠÐºÐ°Ð» Ð¸ÑĤ
ĠÑĢÐ¾Ð¶ Ð´Ðµ
ĠÑģÑĤÐ°Ð½ÑĨ Ð¸Ñİ
ĠÐ¿Ð¾Ð´ÑħÐ¾Ð´ Ð¸ÑĤÑĮ
ĠÐļÐ°Ð¶Ð´ Ð¾Ðµ
ĠÐ¸ÑģÐ¿Ð¾Ð»Ð½ ÑıÑĤÑĮ
ĠÑģÐ¾Ð·Ð½ Ð°ÑĤÑĮÑģÑı
ĠÑĩÑĥÐ¶Ð´ Ð¾Ð¹
ĠÑĩÑĥÐ¶Ð´ ÑĥÑİ
ĠÐ¿Ð¾ÑģÐ»ÑĭÑĪ Ð°Ð»Ð¸ÑģÑĮ
ĠÐ¨ÐµÐ²ÑĭÑĢÐµÐ² Ñĥ
ĠÐ¿Ñģ ÐµÐ²Ð´Ð¾Ð½
ĠÑĤÐµÐ½ Ð´ÐµÐ½
ĠÑĢÐ¾ÑģÑĤ Ñĥ
ĠÑħÑĢÐ¸Ð¿ Ð»Ð¾
ĠÑħÑĢÐ¸Ð¿ Ð»ÑĭÐ¹
ĠÐ²ÑĭÑĢ Ð°Ð±Ð¾ÑĤ
ĠÐ¿Ð¾Ð»ÐµÐ· Ð½Ð¾ÑģÑĤÑĮ
ĠÐ°ÐºÑĤÐµÑĢ Ð°Ð¼Ð¸
ĠÐ²Ð¸Ñģ ÐµÐ»Ð¸
ĠÐ¶ÑĥÑĤ ÐºÐ¾Ðµ
ĠÑģÐ²Ð¸Ð½ ÑĨÐ¾Ð²
ĠÐºÑĢÐ¸ÑĤ Ð¸ÐºÐ¸
ĠÐºÑĢÐ¸Ð² ÑĭÐµ
ĠÐºÑĢÑĭÐ» ÑĮÑıÐ¼Ð¸
ĠÑĩÐµÑĢÐ½ ÐµÐ»Ð¸
ĠÐ¾ÑĤÐ´ÐµÐ»ÑĮ Ð½ÑĭÐ¹
ĠÐ¿ÑĢÐ¸ÑģÐ»ÑĥÑĪ Ð¸Ð²Ð°ÐµÑĤÑģÑı
ĠÐ±ÐµÑģÑģÐ¼ÑĭÑģÐ» ÐµÐ½Ð½Ð¾Ð¹
ĠÑİÐ½Ð¾ÑĪ Ñĥ
ĠÐºÐ¸Ñģ Ð»
ĠÐ¡Ð² ÐµÑĩÐ½Ð¸ÐºÐ¾Ð²
ĠÐĳÐµÐ· Ð½Ð¾ÑģÑĭÐ¹
ĠÑĥÐ¼ÐµÑĢÑĪ Ð¸Ñħ
ĠÑĥÐ¼ÐµÑĢÑĪ Ð¸Ð¹
ĠÐ¿Ð¾Ð½ÑĢÐ°Ð² Ð¸Ð»Ð°ÑģÑĮ
ĠÐ²ÐµÐ´ ÐµÑĤ
ĠÑģÐ¿ÑĥÑģÑĤ Ð¸Ð»
ĠÐ¼Ð¾Ð³ÑĥÑĩ Ð°Ñı
ĠÐ·Ð°ÐºÑĢÑĭÐ² Ð°Ñı
ĠÑĢÐ°Ð±Ð¾Ñĩ ÐµÐ³Ð¾
ĠÐ¿ÑĢÐ¸ÑģÑıÐ¶ Ð½ÑĭÑħ
ĠÐ±ÑĥÐºÐ² Ð°Ð»ÑĮÐ½Ð¾
ĠÐ¿ÑĢÑıÑĤ Ð°Ð»ÑģÑı
ĠÐ³Ð¸Ð± Ð½ÐµÑĤ
ĠÑĥÐ» ÑĥÑĩ
ĠÐ¡Ð¾Ð² ÐµÑĢÑĪ
ĠÐļÐ¾ÑģÑĤ Ñı
ĠÐ²Ð¾Ð¾Ð±ÑĢÐ°Ð¶ ÐµÐ½Ð¸Ðµ
ĠÐºÐ»ÐµÑĤ ÐºÑĥ
ĠÐ³ÐµÑĢÐ¾ ÐµÐ²
ĠÑĥÐ½Ñĭ Ð½Ð¸Ðµ
ĠÑģÐ²Ð¸Ð´Ð° Ð½Ð¸Ðµ
Ð»ÑıÐ²ÑĪ Ð¸Ð¹
ĠÑĢÐ°Ð·Ð½Ð¾ ÑĨÐ²ÐµÑĤ
ĠÑĤÑĢÑĥÐ± Ñĭ
ĠÐ²Ð·ÑĢÐ¾Ñģ Ð»ÑĭÐ¹
ĠÐ²ÑĢÐ°Ð³ Ð°
ĠÐ²ÐµÑģÐµÐ»ÑĮ ÐµÐ¼
ĠÐ¾ÐºÐ¾Ð»Ð¾ÑĤÐ¾Ñĩ Ð½Ð¾Ð³Ð¾
ĠÐ¿Ð¾Ð´Ð»ÐµÑĨ Ñĭ
ĠÑĦÐ°Ð¼Ð¸Ð»Ð¸ Ñı
ĠÑĦÐ°Ð¼Ð¸Ð»Ð¸ ÐµÐ¹
ĠÐ²ÑĢÐ°Ð¶Ð´ÐµÐ± Ð½Ð¾Ðµ
ĠÐ¼ÑĥÑħ Ð¸
ĠÑĩÐ¸Ð½Ð¾Ð² Ð½Ð¸ÐºÐ°
ĠÐĴÐ¾Ð· ÑĮÐ¼Ð¸
ĠÐĴÐ¾Ð· ÑĮÐ¼Ð¸ÑĤÐµ
ĠÐºÐ¾ÑĪ ÐºÐ°
ĠÐ¿Ð¾Ð´ÑĭÐ¼ Ð°Ð»ÑģÑı
ĠÐ¿Ð¾Ð»Ð¸ÑĨ Ð¸Ñı
ĠÐ¿Ð¾Ð»Ð¸ÑĨ Ð¸Ñİ
ĠÐĵÐ» ÑĥÐ±
ĠÐ¿ÑĢÐ°Ð²Ð´ Ð¾Ð¹
ĠÐ·Ð°ÑģÐµÐ´ Ð°ÑĤÐµÐ»ÑĮ
ĠÐ·Ð°ÑĤÑĭÐ» ÐºÐµ
ĠÐ½ÐµÑĢÐ°Ð· ÑĢÐµÑĪ
ĠÑĢÑĭÐ¶ Ð¸Ð¹
ĠÐķÐ²Ð³ ÐµÐ½Ð¸Ð¸
ĠÐ¿ÐµÑĢÐµÑĥÐ» ÐºÐµ
ĠÐ¼ÐµÐ¼ÑĥÐ°ÑĢ Ð¸ÑģÑĤÐ¾Ð²
ĠÐ±Ð¾Ð¹ ÑģÑı
ĠÑĥÑģÑĤÐ°Ð² Ð¸Ð»ÑģÑı
ĠÐľÐ°Ð» ÐµÐ½ÑĮÐºÐ°Ñı
ĠÐ´ÑĢÐ°Ð¼ Ð°ÑĤ
ĠÑĤÑĢÐ°Ðº ÑĤÐ¸ÑĢÐ°
ĠÐ£Ð¼ÐµÑĢ Ð»Ð°
ĠÐ·Ð°Ð¿ÐµÑĢÑĤ ÑĭÐµ
ĠÐºÐ¾Ð»ÐµÐ± Ð°Ð½Ð¸Ð¹
ĠÐ¸ÑģÐºÐ»ÑİÑĩ Ð¸ÑĤÐµÐ»ÑĮÐ½Ð¾
ĠÐ¿ÑĢÐ¸Ð²ÐµÑĤ Ð»Ð¸Ð²Ð¾
ĠÐ±ÐµÑģÐ¿Ð¾ÑĢÑıÐ´ Ð¾ÑĩÐ½Ð¾
ĠÐ±Ð¾ÑıÐ· Ð½Ð¸
Ð§ÐµÑħ Ð¾Ð½ÑĤÐµ
ĠÐ¿Ð¾ÑĤÑĢÐµÐ± Ð¾Ð²Ð°Ð»
ĠÐ¾Ð¿ÑĢÐ°Ð²Ð´ ÑĭÐ²Ð°Ð»ÑģÑı
ĠÑĢÐ¾Ð¶Ð´ ÐµÐ½Ð¸Ñı
ĠÐŀÑģÑĤÐ°Ð² ÑĮÑĤÐµ
ĠÐ¿Ð¾Ð´ÑĬ ÐµÐ·Ð´Ð°
ĠÐ¿Ð¾Ð´ÑĬ ÐµÐ¼Ð°
ĠÐ¿ÐµÑĢÐµÐ³ Ð¾Ð²Ð¾ÑĢ
ĠÐ·Ð°Ð³Ð¾Ð²Ð¾ÑĢ Ð¸Ð»Ð¸
ĠÐ´Ð¾ÐºÐ°Ð· Ð°ÑĤÐµÐ»ÑĮ
ĠÐľÐ¾ÑģÐºÐ¾Ð² ÑģÐºÐ¾Ð¹
ĠÐŁÐ¾ÑģÐ»ÐµÐ´ Ð½Ð¸Ðµ
ĠÐ²Ð³Ð»ÑıÐ´ÑĭÐ² Ð°ÑıÑģÑĮ
ĠÐ±ÐµÑĪ ÐµÐ½Ð¾
ĠÐ¿ÑĢÐ¾ÑģÑĮ Ð±Ðµ
ĠÐ½Ð°ÑĥÑĩ Ð¸Ð»ÑģÑı
ĠÐŁÐµÑĢ ÐµÑģÑĤ
ĠÐĴÐ°Ð» ÐµÑĩÐºÐ°
ĠÐ·Ð°ÑħÐ¾Ð´ Ð¸Ð»Ð¾
ĠÑģÑĤÑĢÐ¾Ð¹ Ð½Ð°Ñı
ĠÐ¸Ð¼ÐµÐ½ ÐµÐ¼
ĠÐ¿Ð¾Ð·Ð°Ð± ÑĭÐ»
ĠÐ¿ÑĢÐ°Ð·Ð´Ð½Ð¸Ñĩ Ð½ÑĭÐ¹
ĠÐ¿ÑĢÐ°Ð·Ð´Ð½Ð¸Ñĩ Ð½Ð¾Ðµ
ĠÐ¿ÑĥÑĤÐµÑĪÐµÑģÑĤÐ² Ð¸Ðµ
ĠÐ¿Ð¾ÑĨÐµÐ»Ñĥ ÑıÐ¼Ð¸
ĠÐ¿Ð¾Ð´Ð±Ð¾ÑĢÐ¾Ð´ Ð¾Ðº
ĠÐ¿Ð¾Ð´Ð±Ð¾ÑĢÐ¾Ð´ ÐºÑĥ
ĠÐ¿Ð¾Ð´Ð±Ð¾ÑĢÐ¾Ð´ ÐºÐµ
ĠÑģÑĥÑī Ð½Ð¾ÑģÑĤÑĮ
ĠÐ²Ð»Ð°Ð´ ÐµÐµÑĤ
ĠÐ¼Ð°Ð½ ÐµÑĢ
ĠÑĥÑĩÐ° ÑģÑĤÐ¸
ĠÐ»Ð¸Ð¿ Ñĭ
Ð¾ÐºÐ¾Ð» Ð°Ð´
ĠÐŁÐ¾Ð³ Ð¾Ð´Ð¸
ĠÐ°Ð´ÑĢÐµÑģ Ñĥ
ĠÐ±ÐµÑģÐ¿Ð¾Ð¼Ð¾Ñī Ð½Ð¾ÑģÑĤÐ¸
ĠÐ´ÐµÑĢÐµÐ²ÑıÐ½ Ð½ÑĭÐµ
ĠÐ¼Ð°ÑĤÐµÑĢ Ð¸Ð½
ĠÐ¼Ð°ÑĤÐµÑĢ Ð¸Ð¸
ĠÑįÐºÐ¸Ð¿ Ð°Ð¶ÐµÐ¹
ĠÑĩÐ»ÐµÐ½ Ð¾Ð²
ĠÑĩÐ»ÐµÐ½ Ð¾Ð¼
ĠÐ·Ð°ÑĤÑĢ ÑĥÐ´
ĠÐ½ÐµÐ¾Ñģ ÑĥÑīÐµÑģÑĤÐ²
ĠÑĥÐµÐ·Ð¶ Ð°ÑĤÑĮ
ĠÐ¿Ð¾Ð´Ðº Ð»Ð°Ð´
ĠÐ¿Ð¾Ð´Ð°ÑĢ Ð¾Ðº
ĠÐ¿ÐµÑĢÐµÐ¼ÐµÐ½ Ðµ
ĠÑģÐ°Ð¼Ð¾Ð²Ð°ÑĢ Ð¾Ð¼
ĠÐ¼ÑĭÑģ Ð»ÑıÐ¼Ð¸
ĠÑĥÐ¼Ð¾Ð»Ðº Ð°Ð»
ĠÑĥÐ²Ð»ÐµÑĩ ÐµÐ½Ð¸ÐµÐ¼
ĠÐ±ÐµÑģÐ¿Ð¾ÑīÐ°Ð´ Ð½Ð¾
ĠÐ¾Ð±ÑĬÑıÑĤ Ð¸ÑıÑħ
ĠÐ²Ð¾Ð·Ð¼ÑĥÑĤ Ð¸ÑĤÐµÐ»ÑĮÐ½Ð¾
ĠÐķÐ²Ð¿ÑĢÐ°ÐºÑģ Ð¸Ð¸
ĠÑģÐµÑĢÐµÐ±ÑĢÑı Ð½Ð¾Ð¹
ĠÐ¼Ð°Ð³Ð°Ð· Ð¸Ð½
Ð»Ð¸Ð³ ÐµÐ½ÑĤ
ĠÐ²Ð¾Ð½ Ð·
ĠÐ²ÐµÐ´Ð¾Ð¼ Ð¾ÑģÑĤÑıÑħ
ĠÑĩÐ¸Ñģ Ð»Ðµ
ĠÐ¿ÐµÑĢÐµÐ» Ð¾Ð¼
ĠÐŁÑĢÐ¾Ðº Ð¾Ð¿
ĠÐŁÑĢÐ¾Ðº Ð»ÑıÑĤ
ĠÑĢÐ°Ð·Ð±ÑĥÐ´ Ð¸Ð»
ĠÐ±Ð°ÑĢÑĭÑĪ Ð½Ð¸
ĠÑĨÐµÐ½Ð· ÑĥÑĢ
ĠÐ²Ð·Ð´ÑĢÐ°Ð³ Ð¸Ð²Ð°Ð»
ĠÐ³Ð°ÑĢÐ¼Ð¾Ð½ Ð¸Ñİ
ĠÐ²Ðº Ð»Ð°Ð´
ĠÐ¼Ð°ÑĪ Ð¸Ð½Ð¸ÑģÑĤ
ĠÑĦÑĢ ÑĥÐº
ĠÐ±Ð»ÐµÑģ Ð½ÑĥÐ»Ð¾
ĠÐ¸ÑģÐ¿Ð¾ÑĢ ÑĤ
ĠÐ±Ð¾ÑĢÐ¼ Ð¾ÑĩÐµÑĤ
Ð°Ð´ÑĨÐ°ÑĤ Ð¸Ð»ÐµÑĤ
ĠÐ´Ñĥ ÑĢÐ°ÑĩÐ¾Ðº
ĠÐ²ÑģÑħÐ»Ð¸Ð¿ Ð½ÑĥÐ»Ð°
ĠÐ¾Ð±Ð»Ð°Ðº Ð¾
ĠÐ¿ÐµÑĢÐµÑĩ Ð¸Ñģ
ĠÐ¿Ð¾Ð»ÐµÑĤ ÐµÐ»
ĠÐ¼Ð¾Ñī Ð½ÑĭÐ¹
ĠÐ¾ÑģÐ½ Ð¾Ð²Ð°Ð½Ð¸Ð¸
ĠÐ¼Ð¾Ð½Ð°Ñħ Ð¸
ĠÑģÐ²ÑıÑīÐµÐ½ Ð½Ð¸Ðº
ĠÑģÐ²ÑıÑīÐµÐ½ Ð½Ð¸ÐºÐ°
ĠÐºÐ¾Ð»ÑĮ ÑĨÐ°
ĠÐ·Ð°Ð· Ð²ÐµÐ½
ĠÐ°Ð»ÑĮ Ð±Ð¾Ð¼
ĠÑģÐ¿Ð¸Ñĩ ÐºÐ¸
ĠÑģÐ¿Ð¸Ñĩ ÐºÑĥ
ĠÑĤÑĢÐµÐ¿ ÑĭÑħ
ĠÐ½Ð°Ð´ÐµÐ¶Ð´ Ð¾Ð¹
ĠÐ¿ÑĢÐ¾ÑıÐ² Ð»ÑıÐ»
ĠÑĢÐµÑĪÐµÑĤ ÐºÐ¸
ĠÐ²Ð¾ÑĢÐ¾Ñĩ Ð°Ð»ÑģÑı
ĠÐ¿ÑĢÐ¸Ð¼Ð¸ÑĢ Ð¸ÑĤÑĮÑģÑı
ĠÐ»ÐµÐºÐ°ÑĢ ÑģÑĤÐ²
ĠÐ»ÐµÐºÐ°ÑĢ ÑģÑĤÐ²Ð°
ĠÑģÐ¸Ð³ Ð°ÑĢÑĥ
ĠÐ¸ÐºÐ¾Ð½ Ñĥ
ĠÐ³ÑĢÐ°ÑĦ Ð°
ĠÑģÐ²Ð¸ÑĢÐµÐ¿ Ð¾
ĠÐ¢Ð°Ð½ÑĨ ÑĥÑİÑĤ
ĠÑĪÐµÑĢ ÑģÑĤÐ¸
ÑģÑĤÑĢÐ°Ð½ ÐµÑĨ
ĠÐ¾Ð´Ð¸Ð½Ð½ Ð°Ð´ÑĨÐ°ÑĤÐ¸
ĠÐºÐ¾Ð»Ð¸Ñĩ ÐµÑģÑĤÐ²Ð¾
ĠÐºÐ°Ð¼Ð½Ñı Ð¼
ĠÐ¼ÑĥÐ·ÑĭÐº Ð°Ð½ÑĤ
ĠÐ¼Ð°Ð»ÑĮÑĩÐ¸ÑĪ ÐºÐ¸
ĠÐºÐ¸Ð¿ Ð°ÑĢ
ĠÐ¿ÐµÑĢÑĩÐ°ÑĤ ÐºÐ¸
ĠÐ¿Ð¾ÑģÐ¸Ð´ ÐµÑĤÑĮ
ĠÐĽÐ°Ð² ÑĢÐ¾Ð²
ĠÑĥÐ¼Ðµ ÑİÑĤ
ĠÐ±ÐµÑģÑĦÐ¾ÑĢ Ð¼ÐµÐ½
ĠÐ²Ð¾Ð¾Ð±ÑĢÐ°Ð· Ð¸ÑĤÑĮ
ĠÐ¼Ð°Ð»ÐµÐ¹ ÑĪÐµÐ³Ð¾
ĠÐ¿ÑĢÐ¾ÑģÑĤÐ¸ÑĤÑĥÑĤ ÐºÐ°
ĠÐ¼ÐµÐ»Ð¾Ñĩ Ð°Ð¼
ĠÑģÐ´ÐµÐ»Ð° ÐµÐ¼
ĠÐ¿ÑĢÐ¸Ð¿Ð°Ð´ Ð¾Ðº
ĠÑĢÑĥÐ³Ð°ÑĤÐµÐ»ÑĮ ÑģÑĤÐ²Ð°
ĠÐ´Ð¾Ð½ÐµÑģ Ð»Ð¾ÑģÑĮ
ĠÑĥÐ±ÐµÐ¶Ð´ÐµÐ½ Ð¸Ð¹
ĠÑĤÐ°ÑĢÐµÐ» ÐºÐ¸
ĠÐºÐµÑĢÐ¾Ñģ Ð¸Ð½Ð°
ĠÐ¿ÐµÐ¹ Ð·Ð°Ð¶
ĠÐ»ÑĥÐ¶ Ð¸
ĠÐ¿Ð¾Ð´Ð¾ÐºÐ¾Ð½ Ð½Ð¸Ðº
ĠÐ¿ÐµÑĢÐµÐ¼ ÐµÐ½Ð°
ĠÑĨÐ¸Ð»Ð¸Ð½Ð´ÑĢ Ðµ
ĠÑĦÐ»Ð¸Ð³ ÐµÐ»ÑĮ
ĠÑģÑĤÑĢÐ°Ð½Ð¸ÑĨ Ð°Ñħ
ĠÐ±ÑĢÐ¾Ð² ÐµÐ¹
ĠÐ·Ð°ÐºÑĥÑģ Ð¾Ðº
ĠÐ¡ÐµÑĢÐ³Ðµ ÐµÐ²Ð¸Ñĩ
ĠÑĢÐ°ÑģÑģÑĭÐ¿ Ð°Ð»Ð¸ÑģÑĮ
ĠÐ½Ð°ÐºÐ°Ð· Ð°Ð½Ð¸Ðµ
ĠÐ¿ÑĢÐ¾Ð²Ð¸Ð½ ÑĨÐ¸
ĠÑĥÐºÐ°Ð·ÑĭÐ² Ð°Ñı
ĠÐ¸Ð·Ð±Ð°Ð² Ð¸ÑĤÑĮÑģÑı
ĠÑĢÐµÑģÐ½Ð¸ÑĨ Ð°Ð¼Ð¸
ĠÐ½ÐµÐ´Ð¾ÑģÑĤÐ°ÑĤ ÐºÐ°
ĠÐ²Ð½ÑĥÑĤÑĢÐµÐ½ Ð½ÐµÐ¹
ĠÑĢÐµÐ¿ÐµÑĤÐ¸ÑĨ Ð¸Ð¸
ĠÐĴÐ¾ÑģÐºÑĢÐµÑģÐµÐ½ÑģÐº Ð°
ĠÐºÐ°Ð½Ð¸ÐºÑĥ Ð»Ñĭ
ĠÐ²ÑĭÑĤÑı Ð½ÑĥÐ²
ĠÐ¾Ð±ÐµÑģÐ¿ ÐµÑĩ
ĠÐ¡Ð»ÑĥÑĪ Ð°Ð¹ÑĤÐµ
ĠÐ¿Ð¾Ð´Ð²ÐµÑĢ Ð³
ĠÐ¿Ð¾Ð´ÑħÐ²Ð°ÑĤ Ð¸Ð»
ĠÐ³ÑĢÑĥÐ· Ð½Ð¾
ĠÐ¿Ð¾ÑģÐ² ÑıÑī
ĠÐ¿Ð¾ÑģÑĥÐ´ Ñĥ
ĠÑģÐ°Ð¼Ð¾Ð»ÑİÐ± Ð¸Ðµ
ĠÐĹÐ°Ðº ÑĢÑĭÐ²
ĠÐ¿Ð¾Ð¿ÑĥÐ³ Ð°Ð¹
ĠÐºÐ¾ÑĢÑĢ ÐµÐºÑĤ
ĠÐ¾ÑĤÐ´Ð¾Ñħ Ð½ÑĥÑĤÑĮ
Ð½Ð¸ÑĩÐµÑģÐº Ð¾Ð¹
ĠÐ¿Ð¸ÑģÑĮÐ¼ÐµÐ½ Ð½ÑĭÐ¼
ĠÐ¿ÑĢÐ¾Ð¸Ð·Ð½Ð¾Ñģ Ð¸ÑĤ
ĠÐĺÐ·Ð¼ Ð°Ð¹Ð»Ð¾Ð²
ĠÑĤÐµÐ»Ðµ ÑĦÐ¾Ð½
ĠÐ¿ÑĢÐ¾Ð²Ð¾Ð» Ð¾ÐºÑĥ
ĠÐ¼ÐµÐ»ÑĮÐº Ð½ÑĥÐ»Ð°
ĠÐ±Ð»Ð¸Ð¶Ð°Ð¹ ÑĪÐµÐ¹
ĠÐĹÐ´Ð¾ÑĢÐ¾Ð² ÑĮÐµ
ĠÐ³ÐµÑĢ Ð¾Ñı
ĠÐ¿Ð¾Ñį Ð·
ĠÐ°Ð²Ð°Ð½ Ñģ
ĠÐ²ÑĭÐ´Ð°ÑİÑī Ð¸ÑħÑģÑı
ĠÐ¾ÐºÑĤÑıÐ± ÑĢÑı
ĠÑĥÐ¼Ð¾Ð» ÑıÐ»
ĠÐ±ÐµÑģÑĨ ÐµÐ»ÑĮ
ĠÐŁÑĢÐ¾Ñī Ð°Ð¹
ĠÐ¥Ð°Ð¹ Ð¼
ĠÐ¥Ð°Ð¹ Ð¼Ð°
ĠÐŀÑĤÐ´ Ð°Ð¹
Ð¡ÑĥÐ²Ð¾ÑĢ Ð¸Ð½Ñĥ
Ð¡ÐµÐ²ÐµÑĢ Ð½Ð¾Ð¼
ĠÐ¾ÑĤÑĤÐ¾Ð»Ðº Ð½ÑĥÐ»
ĠÐ»Ð°Ð²Ð¾Ñĩ Ð½Ð¸Ðº
ĠÐ¿ÑıÑĤÐ½ Ð°Ð´ÑĨÐ°ÑĤÑĮ
ĠÑģÐ¾Ð»Ð´ Ð°ÑĤ
ĠÐ½ÐµÑĥÐºÐ»Ñİ Ð¶
ĠÐ½ÐµÑĥÐºÐ»Ñİ Ð¶Ðµ
ĠÑģÐ¿Ð»Ð¾ÑĪ ÑĮ
ĠÐ±Ð°Ð·Ð°ÑĢ Ðµ
ĠÐ½ÐµÐµÑģÑĤ ÐµÑģÑĤÐ²ÐµÐ½Ð½Ð¾
ĠÑĥÑģÐº Ð¾Ð»ÑĮÐ·
ĠÐĴÑģÑĤÑĢ ÐµÑĤ
ĠÐºÑĢÑİÑĩ Ð¾Ðº
ĠÑģÐ¿ÐµÐ² ÐºÐ¸
ĠÐĶÐ¾Ð»Ð¶ Ð½Ð¾
ĠÐ¸Ð½ÑģÑĤ Ð¸ÑĤÑĥÑĤ
ĠÐ·Ð°Ð´ÑĥÑĪ ÐµÐ²
ĠÐ¡ÑĤÐ°Ð½Ð¸ÑģÐ»Ð°Ð² ÑģÐºÐ¸Ð¹
ĠÐ®ÑĢ Ð¾ÑĩÐºÐ°
ĠÐ¿Ð»Ð°ÑģÑĤ ÑĭÑĢ
ĠÐ°Ð²Ð³ÑĥÑģÑĤ Ð°
ĠÑĥÐ³ÑĢÐ¾Ð· Ñĭ
ĠÐ²Ð¾ÑĢÐ¾ÑĤÐ½Ð¸Ñĩ Ð¾Ðº
ĠÐ·Ð°Ð¼Ð¸ÑĢ Ð°Ñı
ĠÐ½ÐµÐ´Ð¾ÑĢÐ°Ð·ÑĥÐ¼ ÐµÐ½Ð¸Ðµ
ĠÐ¸ÑĤ Ð¾Ð³Ð¸
ĠÐ±ÑĢÑĭÐ· Ð³Ð¸
ĠÐļÐ¾Ð½Ñĩ Ð¸Ð»Ð¾ÑģÑĮ
ĠÐĶÐ°Ð½ ÐºÐ¾Ð²
ĠÐ³ÑĢÐ°Ð´ ÑĥÑģ
ĠÐ²ÐµÑĢÑĤÐµÐ» Ð°ÑģÑĮ
ĠÐ·Ð°Ð±Ð» ÑĥÐ´
ĠÐ¿Ð¾ÑħÐ»Ð¾Ð¿ Ð°Ð»
ĠÐ·Ð»Ð¾ÑĢÐ°Ð´ Ð½Ð¾
ĠÐºÐ°Ð±Ð»Ñĥ ÐºÐ°Ð¼Ð¸
ĠÐ´ÑĢÑĥÐ¶Ð¸Ð½ Ð½Ð¸ÐºÐ¾Ð²
ĠÐ¿ÑĢÐ¸Ð»Ð°Ð² ÐºÐ¾Ð¼
ĠÑģÐ¾ÑħÑĢÐ°Ð½Ð¸ Ð²ÑĪ
ĠÐ»Ð°Ð´Ð¾Ð½ ÑıÐ¼Ð¸
ĠÑģÐ¾Ð¿ÑĢÐ¾Ð² Ð¾Ð¶Ð´
ĠÑĢÐ°ÑģÑĤÑĢ ÐµÐ¿
ĠÑģÐºÐ°ÑĤÐµÑĢ ÑĤÑĮ
ĠÐļÐ½Ð¸Ð³ Ð°
ĠÑģÐ°Ð½ÑĤÑĥÑĢ Ð¸Ð½ÑģÐºÐ¾Ð³Ð¾
ÑģÐ²Ð¾ ÐµÐ¼Ñĥ
ĠÑģÐ°ÑĤÐ° Ð½Ð°
ĠÐ±ÑĥÐ³Ð¾ ÑĢ
ĠÐ·Ð¾Ð½ÑĤ Ð¸Ðº
ĠÑĥÐ½ Ð¸Ð¶
ĠÑħÐ¾ÑĢÐ¾Ð½ ÑıÑĤ
ĠÐ²ÑĭÐ³Ð½ Ð°Ð»Ð¸
ĠÐ±Ð¾Ð»ÑĮÑĪÐ¸Ð½ ÑģÑĤÐ²Ð¾
ĠÐ·Ð°Ð²ÑĤÑĢÐ°Ðº Ð°ÑĤÑĮ
ĠÐ¿Ð¾Ð¶Ð°ÑĤ Ð¸ÐµÐ¼
ĠÐ²Ð¾ÑģÐ¿Ð¾Ð»ÑĮÐ· Ð¾Ð²Ð°ÑĤÑĮÑģÑı
ĠÐļÑĢÐµÐ¿ ÐºÐ¾
ĠÑĦÐ°Ð¼Ð¸Ð» ÑĮÑıÑĢ
ĠÐºÑĢÑĭÐ»ÑĭÑĪ ÐºÐ¸
ĠÑĢÐ¾ÑıÐ» ÑĮ
ĠÐ¾Ð³ÑĢÐ¾Ð¼Ð½ Ð¾Ð¼
ĠÑĤÑĥÐ»Ð¾Ð²Ð¸Ñī ÐµÐ¼
ĠÐĲÑģÑĤÐ°ÑĦ ÑĮÐµÐ²Ð½Ð°
ÑĩÐ¸Ð½Ð¾Ð² ÑģÐºÐ°Ñı
ĠÑıÐ½Ð²Ð°ÑĢ Ñı
ĠÐ°Ð± Ð°Ð¶
ĠÐºÑĢÑĥ ÑĤÐ¾
ĠÐ¾Ð´ÐµÑıÐ» Ð¾Ð¼
ĠÐ¾Ð¿ÑĢÐ¾Ð² ÐµÑĢÐ³
ĠÐ£ÑģÐ» ÑĭÑĪ
ĠÐ²ÐµÑĢÐ¾ÑıÑĤ Ð½Ð¾ÑģÑĤÐ¸
ĠÐ²Ð¾Ð»ÑĩÐ°ÑĤ ÐºÐ¸
ĠÐ¥Ð¾ÑĤ Ð¸ÑĤÐµ
ĠÐºÐ¾Ð¼Ð¸ÑģÑģ Ð¸Ð¾Ð½
ĠÐ·Ð»Ð¾Ð²Ðµ ÑīÐµÐµ
ĠÐ¿ÑģÐ°Ð» ÑĤÐ¸ÑĢ
ĠÐ¸Ð¼Ð¿ÑĢÐ¾Ð² Ð¸Ð·Ð°
ĠÑĦÑĢÐ°Ð½ÑĨ ÑĥÐ·
ĠÐ½Ð¾Ð¼ ÐµÑĢÐ°
ĠÐ½ÐµÐ·Ð´ Ð¾ÑĢÐ¾Ð²
ĠÐ²ÑĭÑī Ð¸Ð¿Ð°Ð»Ð¸
ĠÐ¡ÐºÐ² Ð¾Ð·ÑĮ
ĠÐ¡ÐµÑĢÐ¿ ÑĥÑħÐ¾Ð²
ĠÐ§ÐµÑĤ ÑĭÑĢÐµ
ĠÐ¢Ð¾ÑĢÐ± ÐµÑĨÐºÐ¸Ð¹
ĠÐ±Ð»Ð¾Ð½ Ð´Ð¸Ð½
ĠÐĵÐµÐ¾ÑĢÐ³ Ð¸Ð¹
ĠÐºÐ¾Ð»Ð± Ð°Ñģ
ĠÐ¸Ð½ÑĤÐµÐ» Ð»Ð¸Ð³ÐµÐ½ÑĤ
ĠÐ¸ÑģÐ¿Ð¾Ð´ Ð»Ð¾Ð±ÑĮÑı
ÐļÐ°ÑĢ Ð»Ð¾
ĠÐ±ÐµÐ·Ð·ÑĥÐ± ÑĭÐ¼
ĠÐļÐ¾ÑĢÑĢ Ð°Ð¹ÑĤ
ĠÐ´ÐµÑıÑĤ ÐµÐ»ÐµÐ¹
ĠÐĶÐ²ÐµÐ½ Ð°Ð´ÑĨÐ°ÑĤÑĮ
ĠÐĴÐ·Ð³Ð»Ñı Ð½Ð¸
ĠÐ¾ÑģÑı Ð·
ĠÐ¾Ð·Ñı Ð±
ĠÐ½ÐµÐ¾ÑĤÑĢ Ð°Ð·
ĠÑĢÐ¾Ñı Ð»Ñı
ĠÐ¶ÑĥÐ¶ Ð¶
ĠÐ²ÑĭÑĤÐ° Ñī
ĠÐ²ÑĭÐºÑĢ Ð¸Ðº
ĠÐĶÐ¸ÑĢÐµÐº ÑĤÐ¾ÑĢ
ĠÑĥÐ¼Ð¾Ð»Ñı Ñİ
ĠÐłÑıÐ´ Ð¾Ð¼
ĠÐŀÑĤÑģÑİ Ð´Ð°
ĠÐ¿ÑģÐµÐ²Ð´Ð¾Ð½ Ð¸Ð¼Ð¾Ð¼
" !
* ,
1 19
: {
i t
Ð «
Ð Ļ
Ġ 4
Ġ M
Ġ P
Ġ ÑİÑĤ
Ð¾ ÐµÐ²
Ð¾ ÑıÑģ
Ð¾ Ð¾Ð±ÑĢÐ°Ð·
Ð° Ðµ
Ð° Ñĥ
Ð° Ð½ÑĭÑħ
Ð° ÑĨÐ¸Ð¸
ÑĤ Ð°ÑĤ
ÑĤ ÑĥÑĢ
Ð¸ Ð½Ð¾Ðµ
Ð¸ ÑıÐ¼
Ñģ ÐµÑĢ
Ñģ Ð¾Ð±
Ð½ Ð°ÑĤ
Ð½ ÐµÐ´
Ð½ Ð°Ð»Ð¸
Ð½ ÐµÑĤÑĮ
Ð½ ÑģÐºÐ¾Ð³Ð¾
Ð½ ÐµÐ½ÑĮÐºÐ¸Ð¹
Ð½ Ð°ÑģÑĤÐ¾ÑıÑī
Ð» Ð¸ÑĤÑĮ
Ð» Ð¾Ð¼Ñĥ
Ð» Ð¸Ð»Ð°
Ð» ÑĭÑĪ
Ð» Ð¸ÐºÐ°
ÑĢ ÐµÐ²
ÑĢ Ð°Ð»Ð¸
ÑĢ ÐµÐ»Ð¸
ÑĢ Ð¸Ð½Ñĥ
ÑĢ Ð°Ð¼Ð°
Ñĥ ÐºÐ¾Ð¹
Ñĥ Ð½Ð¸Ð½
Ñı Ð½ÑĭÑħ
Ñı ÐºÐ½ÑĥÐ»
Ñĭ Ð½
Ñĭ Ð»Ð¾
Ñĭ ÑĩÐ½Ð¾
ÑĮ ÐµÐ³Ð¾
ÑĮ ÐµÑģÐ°
ĠÑģ Ð¸Ð²
ĠÑģ Ð´Ð°
ĠÑģ ÐºÐ°
ĠÑģ Ð½Ð°ÑĩÐ°Ð»Ð°
ĠÐ¿ Ð°Ð²
ĠÐ¿ ÑĭÑħ
ĠÐ½ Ð°Ð³Ð¾Ð½
Ñĩ Ð¾Ðº
Ñĩ ÐµÐ·
Ñĩ ÑĥÐ´
Ñĩ Ð°Ð»Ð¸
Ñĩ Ð°Ð»Ð°
Ñĩ Ð½ÑĭÐ¹
Ñĩ Ð°Ð¹
Ñĩ Ð¸Ð»Ð°
Ñĩ Ð¸Ñī
Ðº Ð·
Ðº Ð°Ð´
Ðº Ð°Ð»Ð°ÑģÑĮ
Ðº Ð¾Ð»ÑĮÐ·
Ðº Ð½ÑĥÑĤÑĮÑģÑı
ĠÐ² Ð°
ĠÐ² Ð¸ÑĤ
ĠÐ² Ð³
ĠÐ² ÐµÑĪ
ĠÐ² Ð½Ð¾Ñģ
ĠÐ² Ð»ÐµÑĩ
ĠÐ² Ð¾ÑĪÐ»Ð¾
ĠÐ² Ð½Ð¾ÑģÐ¸Ð»
ĠÐ² ÐµÑĢÑĮÑĤÐµ
ĠÐ¸ Ð½ÑĭÐµ
Ð² Ð¸Ð»
Ð² Ð¾Ð´
Ð² ÑĤÐ¾ÑĢ
Ð² ÑĭÐµ
Ð² ÐµÐ½Ð½Ð¾
Ð² ÐµÑĤÑģÑı
Ð² Ð»ÐµÑĩ
ĠÐ¾ ÐºÐµ
ĠÐ¾ Ð¼ÐµÑĢÐ·
Ð´ Ð¾
Ð´ ÐµÐ¼
Ð´ Ð°Ð²
Ð´ ÐµÐ¹
Ð´ Ð°Ð»Ð¸
Ð´ ÑĥÑĪ
Ð´ Ð°ÑĤÐµÐ»ÑĮ
Ð´ Ð¸Ð½Ñĭ
Ð°Ð» ÐµÐ½
Ð¼ Ð¾Ð²
Ð¼ Ð¾Ð³Ð¾
ÑĤÐ¾ ÑıÐ»Ð¾
Ñħ Ð°Ð½Ð³
ĠÐº Ñĥ
ĠÐº Ð²
ĠÐº Ð¸Ð»
ĠÐº Ð¾Ð±
ĠÐº ÑĥÐ²
ĠÐº Ð°Ð½ÑĨ
ĠÐº Ð½ÑĥÑĤ
ĠÐº ÑĥÐ»ÑĮ
ĠÐº Ð°Ð²Ð°Ð»
Ð¾Ð² ÑģÐºÐ¸Ð¹
Ð¾Ð² ÑģÐºÐ¾Ð³Ð¾
Ð¾Ð² Ð°Ð½ÑĮÑı
ÑĪ Ñĥ
ÑĪ ÐµÐ¹ÑģÑı
ÑĪ Ð¸Ð¼Ð¸ÑģÑı
ÑģÑĤ Ð¾Ð¼
ÑģÑĤ Ð¾Ð¹
ÑģÑĤ ÑĢÐ°
ÑģÑĤ Ð°Ð»Ð¾
ÑģÑĤ Ð°Ð½ÑĤ
ÐµÐ½ Ð¾Ð¼
ÐµÐ½ Ð°Ñı
ÐµÐ½ ÑĭÑħ
ÐµÐ½ ÐµÑĨ
ÐµÐ½ ÑģÑĤÐ²Ð¾Ð¼
ĠÐ± Ð¸
ĠÐ± Ð°Ð»Ð°
ĠÐ± Ð¾Ñĩ
ĠÑĤ Ð¾Ð»ÑĮ
ĠÑĤ ÑĥÐ¶
ĠÑĤ Ð°ÐµÑĤ
ĠÑĤ ÐµÐ½Ñı
ĠÑĤ Ð²ÐµÑĢ
ĠÑĤ Ð¸Ð³ÑĢ
ĠÐ´ Ð¸
ĠÐ´ ÐµÑģÐ¿
ĠÐ´ Ð¾Ð»ÑĮÑĪÐµ
ĠÐ´ ÑİÐ¶
Ð¾Ð» Ð¾Ðº
Ð¾Ð» Ð¾Ñĩ
Ð¾Ð» ÑĭÑħ
ÐµÑĢ Ð°Ð¼
ÐµÑĢ Ð·
ÐµÑĢ Ð»Ð¸
ÐµÑĢ ÐµÑĤÑģÑı
ĠÐ¼ Ð¸Ð·
ĠÐ¼ ÐµÑī
ĠÐ¼ Ð¸Ð½Ð¸
ĠÐ¼ Ð¾ÑģÐºÐ²
Ñİ Ñİ
Ð½Ð¾ ÑĩÐ¸
Ð¸Ð» ÐµÐ½
Ð¸Ð» ÐµÐ¼
ĠÑĩ Ð¸Ñħ
ĠÑĩ Ð¸ÑĢ
ĠÑĩ ÐµÐ»Ð¾
ĠÑĩ Ð°ÑĪÐºÑĥ
ĠÐ· ÐµÐ²Ð°Ð»
ĠÐ· ÑıÐ±
ĠÐ· Ð¼ÐµÐ¹
ĠÐ¿ÑĢ Ð¸Ð²Ð°Ð»
ĠÐ¿ÑĢ Ð¾Ð¹Ð´
ĠÐ½Ðµ Ñĥ
ĠÐ½Ðµ ÑĥÐ³
ĠÐ½Ðµ ÑĥÑģÑĤ
ĠÐ½Ðµ ÑģÐ»Ð¸
ĠÐ½Ðµ ÑģÑĤÑĢÐ¾Ð¹
Ð°ÑĤ Ð¾Ðº
Ð°ÑĤ Ð°Ð»ÑĮ
ĠÑĢ Ð¾Ð½
ĠÑĢ ÑĥÑĤ
ĠÑĢ ÑĥÐ¼
ĠÑĢ ÐµÑĨ
ĠÑĢ Ð¾Ñī
ĠÑĢ ÑĭÑĩ
ĠÑĢ Ð°Ð½Ñĭ
Ð¸ÑĤ Ð°Ð»Ð°
Ð¸ÑĤ Ð½Ð¸Ðº
Ð¸ÑĤ ÑĭÐ²Ð°Ð»
ĠÐ³ Ð°Ð²
ĠÐ³ Ð½Ð¸
ĠÐ³ Ð°Ð¹
ĠÐ³ Ð¸ÑĢ
ĠÐ³ Ð¾Ð²Ð°ÑĢÐ¸Ð²Ð°Ð»
ĠÐ³ Ð²Ð¾Ð·Ð´
Ð°Ð· Ñĭ
Ð¾Ñģ Ð¸Ð»ÑĮ
ÐµÐ¼ ÐºÐ¸
ÐµÐ¼ ÑĭÑħ
Ð¾ÑĢ ÑĤ
Ð¾ÑĢ ÑĥÐ¶
Ð¾ÑĢ ÐºÐ°
Ð°Ñģ Ðº
Ð°Ñģ Ð¿
Ð°Ñģ ÑĭÑĤ
Ð°Ñģ Ð»ÑĥÐ¶
Ð°Ð² Ñĥ
Ð°Ð² Ð¾Ð¹
Ð°Ð² ÑĢÐ¸
Ð¿ ÐµÑĩ
Ð¿ Ð¾ÑģÐ¾Ð±
Ð¿ Ð¾Ð¿ÑĢÑĭÐ³ÑĥÐ½ÑĮ
Ð¿ ÑĢÐ°Ð·Ð´
Ñī ÑĥÑİ
Ñī Ð¸ÐºÐ¾Ð²
Ñī Ð¸ÐºÑĥ
ĠÑĥ Ñī
ĠÑĥ ÐµÐ·Ð´
ĠÑĥ ÐºÑĢÐµÐ¿
ĠÑĥ Ð½Ð¾ÑģÑı
ĠÐ» Ð°ÑĤ
ĠÐ» Ð¸Ð½
ĠÐ» Ð°Ñı
ĠÐ» Ð°Ð¹
ĠÐ» Ð±Ð°
ĠÐ» Ð¾ÑģÐ½
ÑĨ ÐµÐ¹
ÑĨ Ð¸Ð½Ð°
ÑĨ ÐµÑĢÑĤ
ÑĨ Ð°ÑĤÐ¸
Ð± ÐµÐ»
Ð± ÐµÐ»ÑĭÐ¹
Ð¸Ð² ÑĥÑİ
Ð¸Ð² ÑĭÑħ
Ð¸Ð² Ð°Ð²ÑĪÐ¸Ð¹
Ð¸Ð² Ð°ÑİÑīÐ¸Ñħ
Ð¸Ð² Ð°ÑİÑģÑĮ
ĠÐ¶ Ð°Ð¼
ĠÐ¶ Ð´Ñĥ
ĠÐ¶ ÐµÐ²Ð°ÑĤÑĮ
Ð· Ð½
ÐµÐ´ Ñı
Ð¾Ð½ Ð¾Ð²
Ð¾Ð½ Ð½ÑĭÐ¹
Ð¾Ð½ Ð½Ð°Ñı
ĠÐ¾ÑĤ ÑģÐº
ĠÐ¾ÑĤ ÐµÑĩ
ĠÐ¾ÑĤ ÑĨÑĭ
ĠÐ¾ÑĤ ÑĢÐµÐ·
ĠÐ¾ÑĤ ÑĢÐµÑĪ
ĠÐ¾ÑĤ Ð»ÑĥÑĩ
Ð°Ð½ ÑĥÑĤ
Ð°Ð½ Ð´ÑĢ
Ð°Ð½ Ð½Ð¾ÑģÑĤÑĮ
ĠÑģÑĤ Ð¸ÑģÐº
ÑģÐº Ð»Ð¾Ð½
ĠÐ¾Ð½ ÐµÐ¼
Ð¸Ð¼ Ð°Ñģ
Ð¸Ð¼ Ð¸ÑĢ
Ð¸Ð½ Ð¾Ð³Ð¾
ĠÐŁ ÑıÑĤÑĮ
ĠÐŁ Ð°ÑģÑĤ
ĠÐŁ ÑĮÐµÑģÐ°
Ð°Ð´ ÑĢ
ĠÑı Ð»
ĠÑı Ðº
ĠÑı Ð¼
ĠÑı Ð¼Ñĥ
ĠÐĿ Ð°Ð»
Ð³ Ð¾Ð²
Ð³ Ð°ÑĢ
Ð³ Ð»Ð°Ð´
Ð³ Ð»Ð°Ð²
ÑĤÐ¾ÑĢ Ñĭ
Ð°ÑĢ Ðµ
Ð¾Ð± Ð¾ÑĢ
Ð¾Ð± Ð»Ð°Ð´
Ð¾Ð± Ð¾ÑĤÑĮ
ĠÐ¿Ð¾ ÑģÑĤÑĢÐ¾
ĠÐ¿Ð¾ ÑħÐ¾Ð´Ð¸Ð»
Ð¾Ð¶ ÐµÐ»
ÐµÐ² ÐºÐµ
ÐµÐ² ÑģÐºÐ¸Ð¹
ĠÐ²Ñģ ÐµÑģ
ÐµÑģ ÐµÐ½
ÐµÑģ ÐµÐ´
ÐµÑģ ÐµÐ»Ð¾
ÐµÑģ Ð°Ð½Ð½ÑĭÐ¼Ð¸
ĠÐĴ ÐµÑĤ
ĠÐĴ ÑĭÐ¹
ĠÐĴ ÑĭÑħ
ĠÐĴ ÑĥÐº
ĠÐĴ Ð¾Ð»Ð¾Ñģ
ĠÐĴ ÑĢÐµÐ¼
ĠÐĴ Ð°Ð»Ðµ
ĠÐĴ Ð¾ÑĢÐ¾ÑĤ
Ð¸Ñĩ ÐµÐ½
Ð¸Ñĩ Ð½ÑĭÐ¼Ð¸
ĠÐĺ Ð¸Ñģ
Ð¸Ñħ Ð¸Ðº
ĠÑħ Ñĥ
ĠÑħ Ð°Ð»
ĠÑħ Ð²Ð¾ÑĢ
ĠÑħ Ð¸ÑħÐ¸Ðº
ĠÑģÐ² Ð¾Ð´
ÑģÑĤÐ² ÐµÐ½Ð½ÑĭÑħ
ÑģÑĤÐ² ÐµÐ½Ð½Ð°Ñı
ÑĥÐ¶ ÐµÐ½Ð½Ð¾
ĠÐ° Ð½Ð°Ð»
ĠÐ° ÑĥÐ´Ð¸ÑĤÐ¾ÑĢ
ÑĥÐ´ ÐµÑĢÑĪ
ĠÐ²Ñĭ Ñħ
ĠÐ²Ñĭ ÑĥÑĩ
ĠÐ²Ñĭ Ð»ÐµÑĤ
ĠÑĤÐ°Ðº Ð¾Ð²
ĠÑĤÐ°Ðº Ð¾Ð¼Ñĥ
Ð»Ð¸ ÑĨÐ°
Ð»Ñı Ð¼
Ð»Ñı Ð½Ð¸ÑģÑĤ
ÐµÐº Ð¸Ð¹
ÐµÐº Ð°ÐµÑĤ
ĠÐĲ Ð·
ĠÐĲ ÑĦ
ĠÐĲ Ð»ÑĮ
ÐµÐ»ÑĮ Ð½Ð¾Ð¹
Ð¶ ÑĥÑģÑĮ
ÑĢÐ° ÑĤÐ¾ÑĢ
ÑĢÐ° ÑģÑĤÐ°
ÑĢÐ° ÑĥÐ½Ð¸Ð½
Ð°Ð¶ ÑĥÑĤ
Ð¸Ð´ Ñĭ
ĠÐ¾Ð± ÑĪ
ĠÐ¾Ð± Ð¾Ð¹
ĠÐ¾Ð± Ð¾ÑĪ
ĠÐ¾Ð± ÑģÑĤÐ°Ð²
ĠÐ¾Ð± Ð¼ÐµÑĢ
ĠÐ¾Ð± Ð»Ð¾Ð¼
ĠÐ¾Ð± Ð¾ÑģÐ¾Ð±
ĠÐ¾Ð± Ð¸Ð»ÑĮÐ½Ð¾
ĠÐ¾Ð± Ð¶Ð¸Ð³
Ð¾Ð· ÐµÐ¼
ĠÐ¡ Ð´ÐµÐ»
ĠÐ¡ Ð²ÐµÑĤ
ĠÐ¡ Ð¼ÐµÑĢ
ĠÐ¡ Ð°ÑĪÐµ
ĠÐ¡ ÑĥÑīÐµÑģÑĤÐ²
ĠÑģÐ» Ð¸Ð²
ĠÐŀ Ð¹
ĠÐ½Ð¾ ÑģÑıÑĤ
ĠÐ¿Ð¾Ð´ Ð¼ÐµÑĤ
ĠÐ¿Ð¾Ð´ Ð¾Ð¹ÑĤÐ¸
ĠÐ¿Ð¾Ð´ Ð½ÑıÐ²
ĠÐ·Ð° ÑħÐ¾Ð´Ð¸Ð»
ĠÐ·Ð° Ð¸ÑģÐº
ĠÐ¸Ð· Ð¶
ĠÐ¸Ð· ÑĭÑģÐº
Ð¸Ð· Ð¼Ñĭ
ĠÑģÐº ÑĥÑĪ
ĠÑģÐº ÑĢÐµÐ±
ĠÑģÐº ÑĥÐ»Ð°
ĠÑģÐº Ð°Ð½Ð´
ĠÑģÐº ÐµÐ»ÐµÑĤ
ĠÐºÑĢ Ð¾ÑĪ
ĠÐºÑĢ ÑĥÑĤÐ¸Ð»
ĠÐºÑĢ Ð°Ð¶Ð°
ĠÐļ Ð°Ð»
ĠÐļ Ð¾Ð³Ð¾
ĠÐļ ÑĢÐ¸
ĠÐļ Ð¾ÑĤÐµÐ»ÑĮ
ĠÐļ Ð½ÑıÐ¶
Ð½Ðµ ÑİÑĤ
ĠÑĢÐ°Ð· Ð»Ð¾Ð¶
ĠÑĢÐ°Ð· ÑĢÐµÐ·
ĠÑĢÐ°Ð· Ð¼ÐµÑĤ
ĠÑĢÐ°Ð· Ð»ÑĥÐºÐ¸
ÑĥÑİ ÑģÑĮ
ĠÐ§ ÐµÑģÑĤ
ĠÐ§ Ð¸ÑģÑĤÐ¾
ĠÐ¢ ÑıÐ¶
ĠÐ¢ Ð°ÑĢÑĤ
ĠÐľ Ð¸ÑĢ
ĠÐľ Ð°ÐºÑģ
ĠÐľ Ð°Ð¼Ð¸Ð½Ð°
Ð»Ð° ÑģÑĤÑĮ
ÑĥÑĩ Ð¸Ð»Ð¸
ĠÐ¾Ð´ Ð¾Ð»
ĠÐ¾Ð´ ÐµÐ¶Ð´Ñĥ
ĠÐ¾Ð´ ÐµÑĤÐ°
ĠÐ¾Ð´ ÐµÐ¶Ð´Ðµ
Ð¾Ð¿ Ð¾ÑģÑĤ
Ð¾Ñĩ Ð¸ÑĤÑĮ
Ð¾Ñĩ ÐºÐ¾Ð¼
Ð¾Ñĩ Ð¸Ð»Ð¾
ĠÑĪ Ð¸Ð½
ĠÑĪ Ð»Ñİ
ÐµÐ³ Ð°ÑĤÑĮ
ÐµÐ³ ÑĥÐ±
ÐµÑĪ ÐµÐ½Ð½ÑĭÐ¹
Ð°Ð± Ñĭ
ĠÑģÐ¼ Ð¾Ð»
ĠÑģÐ¼ Ð¾Ð³
ĠÑģÐ¼ ÑĢÐ°Ð´
ĠÑģÐ¼ ÐµÐ¹ÑģÑı
ĠÑģÐ¼ ÐµÐ½Ñĥ
ĠÐ¿ÐµÑĢ ÐµÑģÐº
ĠÐ¿ÐµÑĢ ÑĮÑı
ĠÐ¿ÐµÑĢ ÑĭÑĪ
ĠÐ¿ÐµÑĢ ÐµÑģÐµÐ»
ĠÐ¿ÐµÑĢ ÑģÐ¾Ð½
ÐµÐ¶ Ð°
ÐµÐ¶ Ð¸
ĠÐ´ÑĢ Ñĥ
ÐµÐ½Ð½Ð¾ Ñİ
ĠÑģÐ¿ ÑıÑīÐ¸Ñħ
Ð¾Ð²Ð¾ÑĢ Ð¸Ð»Ð°
ÑĥÐ¿ Ð¸Ð²
ĠÐ³Ð¾ Ñģ
ĠÐĶ Ð°Ð»
ĠÐĶ ÐµÐ½Ð¸
ĠÐĶ Ð¾ÑģÑĤ
ĠÐĶ Ð¾Ð¶Ð´
ĠÐĶ ÑĥÑĢÐ°
ĠÐĶ ÑĢÐµÐ¹
ĠÐĶ ÐµÑĢÐµÐ²
ÑĥÑĢ Ð¶
ÑĥÑĢ ÐµÐ½Ð¸
ÑĥÑĢ ÑıÐ´
ĠÑĥÐ¶ Ð¸Ð½Ð¾Ð¼
ĠÐ»Ð¸ ÑģÑĤÐ²
Ð°Ð³ Ð¸
ĠÑĢÐ°Ñģ ÑģÑĤÑĥÐ¿
ĠÑĢÐ°Ñģ ÐºÑĢ
ĠÐ´Ð² ÑĥÐ³ÑĢÐ¸Ð²
ĠÐ´Ð² Ð¸Ð½ÑĥÐ»Ð¸ÑģÑĮ
ĠÐ³ÑĢ ÑĥÑģÑĤÑĮ
ĠÐ³ÑĢ Ð¸Ð¼Ð°Ñģ
Ð¾Ð²Ð¸Ñĩ Ð°
ĠÐ¿Ð¾Ð» Ñĭ
ĠÐ¿Ð¾Ð» ÐºÑĥ
ĠÐ¿Ð¾Ð» ÑĥÑĤÐµÐ¼
ĠÐ¿Ð¾Ñģ ÐµÑĢ
ĠÐ¿Ð¾Ñģ Ð°Ð¶
ĠÐ¿Ð¾Ñģ ÐµÑĢÐµÐ´
ĠÐ¿Ð¾Ñģ Ð¼Ð°ÑĤÑĢ
ÐµÐ½Ñı ÐµÑĤ
ĠÐ³Ð¾Ð» Ð¾Ð³Ð¾
ĠÐ¿ÑĢÐ¸ ÑĥÑĩ
ĠÐ¿ÑĢÐ¸ Ð¾ÑĤÐº
ĠÐ¿ÑĢÐ¸ Ð¾ÑģÑĤÐ°Ð½Ð¾Ð²
ĠÑĤÑĢ Ð¾Ñģ
ĠÑĢÑĥ Ñħ
ÑħÐ¾Ð´ Ð¸Ð»Ð¾
Ð¸ÑĤÐµÐ»ÑĮ Ð½Ñĭ
ÑģÑĤÑĢ Ð¸ÑĢÐ¾Ð²
ĠÐ±Ð¾Ð»ÑĮ Ð½Ð°Ñı
ĠÐ±Ð¾Ð»ÑĮ Ð½Ð¾Ðµ
ĠÐ±Ð¾Ð»ÑĮ Ð½ÑĭÐ¼Ð¸
ĠÐ±Ð¾Ð»ÑĮ Ð½Ð¸ÑĨÑĭ
ĠÐ¿Ð¾Ðº Ð¸Ð½ÑĥÐ»
ĠÐ¿Ð¾Ðº Ð°Ð¶Ð¸
ĠÐ¿Ð» ÐµÑĤ
ĠÐ¿Ð» ÑĥÑĤ
ĠÐ²Ð· Ð»ÐµÑĤ
ĠÐ²Ð· Ð¾ÑĪÐ»Ð¾
ĠÐ³Ð¾ÑĢ ÑĪ
ĠÐ³Ð¾ÑĢ Ð´Ñĭ
ĠÐķ ÑĦ
ĠÐĳ Ð¾Ð»
ĠÐĳ ÑĭÐ²Ð°ÐµÑĤ
ĠÐĳ ÐµÑģÑģ
ĠÐ±ÐµÐ· Ð¾Ð±Ð»Ð°Ñĩ
ĠÐ±ÐµÐ· ÑĢÐ°Ð´Ð¾ÑģÑĤ
ĠÐ¾Ñĩ ÑĥÑĤ
ĠÐ¾Ñĩ Ð¸ÑģÑĤ
ĠÐ¾Ñĩ ÐµÐ²Ð¸Ð´
ÐµÑģÐº Ð¸
ĠÐ»ÑİÐ± Ð¸Ð¼
ĠÐ»ÑİÐ± Ð¸Ð²ÑĪÐ¸Ð¹
ĠÐ»ÑİÐ± Ð¾Ð·Ð½
ĠÐ»ÑİÐ± Ð¸Ð¼ÑĭÑħ
ĠÐ½Ð¸ ÑīÐ¸Ð¹
ĠÐ¼Ñĭ Ð»ÑĮ
ĠÐ½Ð°Ð´ ÐµÐ»Ð°
ĠÐ½Ð°Ð´ ÑĢÑĭÐ²
ĠÐ½Ð°Ð´ ÐµÐ²Ð°ÑĤÑĮ
ĠÐ½Ð°Ð´ ÐµÐ¶Ð´Ðµ
ĠÑĦ Ð°ÑĢ
ĠÑĦ ÑĥÑĤ
ĠÑĦ Ð°Ð±ÑĢ
Ð²ÐµÑĢ ÑģÐºÐ¾Ð¹
Ð¾Ð¼Ð½ ÐµÐ½Ð½Ð¾
Ð¾Ð¼Ð½ Ð¸Ð»ÑģÑı
ĠÐ¿Ð¾ÑĤ ÑĥÑģÐº
ĠÐ¿Ð¾ÑĤ Ð¸ÑĢÐ°Ñı
Ð¸Ð½Ð° Ð½
ĠÐĵ ÑĥÐ»
ĠÐĵ Ð°Ð²ÑĢÐ¸
ĠÐ¾Ðº ÑĢÐ°Ñģ
ĠÐ¾Ðº Ð»Ð°Ð´
ĠÐ¾Ðº ÑĢÐ¸Ðº
ÐµÑĨ ÐºÐ¾Ð¼Ñĥ
ĠÐ¾Ð¿ ÑĢÐ¾ÑĤÐ¸Ð²
ĠÐ¾Ð¿ ÑĢÐ¾Ðº
ĠÐ¾Ð¿ ÑĥÑģÑĤÐ¾ÑĪ
ĠÐ²Ð¾Ð· ÑĢÐ°ÑģÑĤÐ°
Ð¸ÑĪ Ñĥ
ĠÐ¿ÑĢÐ¾ ÑıÑģÐ½
ĠÐ¿ÑĢÐ¾ ÐµÐ·Ð´Ð¾Ð¼
ĠÐ¿ÑĢÐ¾ ÑĤÐ¾Ð¸
ĠÐ¾ÑĤÐ² Ð¾Ð´Ñı
ĠÐ»Ð¸ÑĨ Ð°Ð¼Ð¸
Ð¸ÑģÑĤ ÑĭÑħ
Ð¸ÑģÑĤ Ð¸ÐºÐ°
ĠÑĤÐµÐ¼ Ð½ÐµÐµ
Ð°Ñĩ Ðµ
Ð°Ñĩ Ðº
ĠÐ¶ÐµÐ½ Ð¾Ñİ
ĠÐ¶ÐµÐ½ ÑģÐºÐ°Ñı
ĠÐ¶ÐµÐ½ ÑģÐºÐ¸Ðµ
ĠÐ¶ÐµÐ½ ÑģÐºÐ¾Ðµ
ĠÐĽ ÑĮ
ĠÐĽ Ð¸ÑĤÐµÑĢÐ°ÑĤÑĥÑĢ
ĠÐĽ ÑĥÐ³Ð°Ð½Ð¾Ð²Ð¸Ñĩ
ĠÐ½Ð°Ñĩ ÐµÑĢÑĤ
ĠÐ½Ð°Ñĩ Ð½ÑĥÑĤ
ĠÑģÐ¾Ð² ÑĢÐµÐ¼
ĠÑĥÐ¼ ÐµÐ½
ĠÑĥÐ¼ Ð¾Ð¼
ĠÑĥÐ¼ ÐµÐ»Ð¸
ĠÐ»ÑİÐ´ ÑģÐºÐ¾Ð¹
ĠÐĹ Ð°Ð»
ĠÐĹ Ð°Ð¶
ĠÐĹ Ð¸Ð½Ð°
ĠÐ¿Ð¾Ñĩ ÐµÐ¼
ĠÐ¿Ð¾Ñĩ Ð¸Ð½
ĠÐ¿Ð¾Ñĩ ÐµÑģ
ĠÐ½Ð°Ð¿ Ð¸ÑĤÑĮÑģÑı
ĠÐ½Ð°Ð¿ Ð»ÑĭÐ²
ĠÐ¼Ð¾Ð¶ ÐµÐ¼
Ð°ÑĤÐµÐ»ÑĮ Ð½ÑĭÐµ
Ð°ÑĤÐµÐ»ÑĮ Ð½Ð°Ñı
Ð°ÑĤÐµÐ»ÑĮ Ð½Ð¾ÑģÑĤÑĮÑİ
Ð°ÑĤÐµÐ»ÑĮ Ð½Ð¸ÑĨÐ°
Ð»Ñİ ÑĨÐ¸Ð½Ð°
ĠÐ£ Ðº
ĠÐ£ Ð»ÑĭÐ±
ĠÐ£ Ð¼Ð¾Ð»
ĠÐ½Ð¸Ðº ÐµÐ¼
ĠÐºÐ¾Ð½ ÑģÑĤ
ĠÐºÐ¾Ð½ ÑĨÑĭ
ĠÐ·Ð² ÐµÐ½Ñı
ĠÐ·Ð² ÐµÑĢÑĮ
Ð¾ÑĢÐ¾ÑĪ Ð¾
ĠÐ¿ÑĢÐµÐ´ ÐµÐ»
ĠÐ¿ÑĢÐµÐ´ Ð¾ÑģÑĤ
ĠÐ¿ÑĢÐµÐ´ Ð»Ð¾Ð³
ĠÑģÑĤÐ°ÑĢ Ð°Ð»Ð¸ÑģÑĮ
ĠÑģÑĤÐ°ÑĢ Ð¾ÑģÑĤÑĮ
ĠÑģÑĤÐ°ÑĢ ÑĪÐµÐ³Ð¾
ĠÑģÑĤÐ°ÑĢ ÑĩÐµÑģÐºÐ¾Ð¹
ĠÐŁÐµÑĤ Ð¸
ĠÐł Ð°Ð²
ĠÐł ÐµÑĪ
ĠÐł ÑıÐ±
ĠÐŃ ÑĤÐ°Ðº
ĠÐ±ÑĢ ÑĥÐ´ÐµÑĢÑĪ
Ð¸Ð²ÑĪ Ð¸
ÐµÑģÑĤÐ² ÐµÐ½Ð½ÑĭÐµ
ĠÐŁÑĢ Ð¾Ð²
ĠÐŁÑĢ Ð¸Ðº
ĠÐŁÑĢ Ð¾Ð¿
ĠÐ´ÑĥÐ¼ Ñĥ
ĠÐ´ÑĥÐ¼ Ð°Ð»Ð¾ÑģÑĮ
ĠÑģÐµÑĢ ÑĭÑħ
ĠÑģÐµÑĢ ÑĭÐ¼Ð¸
ĠÑģÐµÑĢ Ð¶ÑĥÑģÑĮ
ĠÐ²ÐµÑĢ Ð¸Ð»Ð¸
ĠÐ²ÐµÑĢ Ð¸Ð»Ð¾ÑģÑĮ
ĠÐ²ÐµÑĢ Ð½ÑĥÑĤÑĮ
ĠÐ²ÐµÑĢ Ð½ÑĥÐ»Ð¸ÑģÑĮ
ĠÐ²ÐµÑĢ Ð½ÑĥÑģÑĮ
ĠÐ½ÐµÐ¼ Ð¾
ĠÐ½ÐµÐ¼ Ð°Ñı
ĠÐ¿Ð¾Ð² Ð°ÑĢ
ĠÐ¿Ð¾Ð² ÐµÐ·
ĠÐ¿Ð¾Ð² ÐµÑģÑĤÐ²
ĠÐ¿Ð¾Ð² ÑĭÑģ
ĠÐ¿Ð¾Ð² ÐµÑģÐµÐ»
ĠÐ¿Ð¾Ð² ÐµÑıÐ»Ð¾
Ð»ÐµÐ½ Ð½Ð¸Ðº
ĠÐ¾Ð³ ÑĢÐ°Ð½Ð¸
ĠÐ¿Ð¾ÑĢ Ð¾Ñģ
ĠÐ¿Ð¾ÑĢ ÑĤÐµÑĢ
ĠÑģÐ²ÐµÑĤ Ð¸Ð»Ð°ÑģÑĮ
ĠÑģÐ²ÐµÑĤ Ð¸ÑĤÑģÑı
ĠÐ·Ð°Ð¿ ÑıÑĤ
ĠÐ·Ð°Ð¿ Ð¾Ð·Ð´Ð°Ð»
ĠÐºÑĢÐ°Ñģ ÐºÐ¸
ĠÐºÑĢÐ°Ñģ Ð¾ÑĤÑĥ
ĠÐºÑĢÐ°Ñģ Ð½ÐµÐ»Ð¸
ĠÐºÑĢÐ°Ñģ Ð¾ÑĤÐ¾Ð¹
ĠÐºÑĢÐ°Ñģ Ð¾ÑĤÐ¾Ñİ
ĠÐ¿Ð¸Ñģ Ð°Ð»Ð¸
ĠÐºÐ¾Ð» Ð¿
ĠÐ¿Ð¾Ð¿ Ð°Ð»ÑģÑı
ĠÐ¿Ð¾Ð¿ ÑĢÐ¾ÑģÐ¸Ð»Ð°
ĠÑħÐ¾ÑĢÐ¾ÑĪ ÐµÐ¹
ĠÑħÐ¾ÑĢÐ¾ÑĪ ÐµÐ½ÑĮÐºÐ¾
ÑıÐ¶ ÐµÑĤ
ĠÐ·Ð°Ð¼ ÑĭÑģÐ»
ĠÐ·Ð°Ð¼ Ð¾Ð»ÑĩÐ°Ð»
ĠÐ²Ð¾Ð» Ðµ
ĠÐ²Ð¾Ð» ÐºÐ¸
ĠÐ²Ð¾Ð» Ð½ÑĥÑİ
ĠÐ±Ð¾Ð» ÑĤÐ°Ð»
ĠÑģÐ½ Ð¾Ð¿
ĠÑĥÐ´ Ð¾ÑģÑĤ
ĠÐ½Ð°Ñģ Ð¸Ð»ÑĮÐ½Ð¾
ĠÐ½Ð°Ñģ ÑĤÐ¾ÑĢÐ¾Ð¶
ĠÐ½Ð°Ñģ Ð¸Ð»Ñĥ
ĠÐ½Ð¾Ñĩ Ð½ÑĭÐµ
ĠÐ¾ÑģÑĤ Ð°Ð»ÑĮÐ½ÑĭÑħ
ĠÐ¾ÑģÑĤ Ð°ÑĤÐºÐ¸
ĠÐ·Ð°Ðº ÑĥÑĤ
ĠÐ·Ð°Ðº Ð¸Ð½ÑĥÐ²
Ð»Ñĭ Ð»Ð¸
ĠÐ¿ÐµÑĢÐµÐ´ Ð°Ð»Ð°
ĠÐ¿ÐµÑĢÐµÐ´ ÑĢÐ°Ð·
ĠÐ¿ÐµÑĢÐµÐ´ Ð½ÑİÑİ
ĠÑĢÐ°ÑģÑģÐºÐ°Ð· ÑĭÐ²Ð°Ð»Ð¸
ĠÐ¼Ð°Ð» Ð¾ÑĢ
ĠÐ¼Ð°Ð» ÐµÐ½ÑĮ
ĠÐ¾ÑĤÐ²ÐµÑĤ Ð¸ÑĪÑĮ
ĠÐ¿Ð¾Ð· Ñĥ
ĠÐ¿Ð¾Ð· Ð°Ð²
ÐµÑī Ð°Ð»Ð¸
ĠÐ²Ð¾Ñģ ÐµÐ¼Ð½
ĠÑģÐºÐ°Ð· Ð°Ð²
ĠÐ¿ÑĢÐ¾Ñģ Ð²ÐµÑĩ
ĠÐ´ÐµÑĢ Ð½ÑĥÐ»
ĠÐĿÐ¸Ðº Ð¾Ð³Ð¾
ĠÑĢÐ°Ð´ ÑĥÐµÑĤ
ĠÑĢÐ°Ð´ ÑĥÐµÑĤÑģÑı
ĠÑĢÐ°Ð´ Ð¾Ð²Ð°Ð»Ð°ÑģÑĮ
ĠÑĥÐ³ Ð»
ĠÑĥÐ³ Ð¾Ð´
Ð½ÐµÐ¹ ÑĪÐµÐ³Ð¾
ÑĥÑī ÐµÐ¼Ñĥ
ĠÐ¾ÑĤÐº Ð»Ð°Ð´
ĠÐ´ÑĥÑĪ Ð¸ÑĤÑĮ
ĠÐ´ÑĥÑĪ Ð¾Ñİ
ÐŁ Ð¾
ĠÐ¶ÐµÐ» Ðµ
ĠÐ¶ÐµÐ» Ð°Ð½Ð¸Ð¸
ĠÑģÑĤÐ¾Ð» Ñĭ
ĠÑģÑĤÐ¾Ð» Ð¸Ðº
ÑĤÐ° Ð½Ñĭ
ĠÐ¿ÑĢÐ°Ð² ÐµÐ´
ĠÐ¿ÑĢÐ¾ÑĤ ÐµÐº
ĠÐ½Ð¾Ð³ ÑĤÑıÐ¼Ð¸
ĠÐ½ÐµÐ² Ð°Ð¶
ĠÐ½ÐµÐ² ÐµÑĢÐ½Ð¾
ĠÑĤÑıÐ¶ ÐºÐ¾
ĠÑĤÑıÐ¶ ÐµÑģÑĤÑĮÑİ
ĠÑĥÐ»ÑĭÐ± Ð°ÑİÑĤÑģÑı
ĠÑĥÐ»ÑĭÐ± Ð½ÑĥÐ²ÑĪÐ¸ÑģÑĮ
ĠÑĥÐ¿ Ð¾ÐºÐ¾Ð¹
ĠÑĥÐ¿ Ð°ÑģÑĤÑĮ
ÑĩÐ¸Ðº Ð¾Ð¼
ĠÐ·Ð°Ð± ÑĭÐ²Ð°ÑĤÑĮ
ĠÐ·Ð°Ð± ÑĭÐ²Ð°Ð»Ð¸
ĠÐ·Ð°Ð± Ð¾ÑĢÑĭ
ĠÐ·Ð°Ð± ÐµÐ³Ð°Ð»
ĠÐ¶Ð¸Ð² ÐµÐ¹
ĠÐ¶Ð¸Ð² Ð¾Ð¿
ĠÐ¶Ð¸Ð² ÑĭÐ¼Ð¸
ĠÐ½Ð¾Ð² Ð¾Ð¼Ñĥ
ĠÐ´ÐµÑĤ ÑģÐºÐ¸Ð¼
ĠÐºÐ¾ÑĢ Ñĩ
ĠÐºÐ¾ÑĢ Ð·
ĠÐºÐ¾ÑĢ ÑıÐ²
ĠÐ¥ Ð°ÑĢÐ°ÐºÑĤÐµÑĢ
ĠÐ¥ Ð¾Ð±Ð¾ÑĤÑĮ
ÑıÑī ÑĥÑİ
ÑıÑī ÐµÐ¼Ñĥ
ÑıÑī Ð¸Ð¼Ð¸ÑģÑı
ĠÐ·Ð°Ð´ Ð¾Ð¼
ĠÐ·Ð°Ð´ Ð½ÐµÐ¹
ĠÐ·Ð°Ð´ Ð°ÑĩÐ°
ĠÐ¶ÐµÐ½Ñī Ð¸
ĠÑģÐµÑĢÐ´ Ð¸ÑģÑĮ
ĠÑģÐµÑĢÐ´ Ð¸ÑĤÑģÑı
ĠÐ¿Ð¾Ð¼ Ð°ÑĢ
ĠÐ¿Ð¾Ð¼ ÐµÑģÑĤ
ĠÐ²ÑĭÑģ Ñĥ
ĠÐ²ÑĭÑģ Ð²Ð¾Ð±Ð¾Ð´
ĠÐ¿ÐµÑĢÐ² Ð¾Ð¼Ñĥ
ĠÐ¿ÐµÑĢÐ² Ð¾Ð½Ð°Ñĩ
ĠÑĥÐ± Ð¸Ð»Ð¸
ĠÑĥÐ± ÐµÐ¶Ð°Ð»
ĠÑĤÐ¾Ð» ÐºÐ°
ÑĢÐ¾Ð² ÑģÐºÐ¾Ð³Ð¾
ĠÐ·Ð°Ð² Ð¸Ð·
ÑĬ ÐµÐºÑĤ
Ð¸Ð¼Ð¾ ÑģÑĤÑĮ
ĠÐ¿Ð¾Ð³ Ð°
ĠÐ¿Ð¾Ð³ Ñĥ
ĠÐ¿Ð¾Ð³ Ð¾Ð½Ð¸
ĠÐ¿Ð¾Ð³ Ð»Ð¾ÑĤ
Ð¼Ð¸ Ð½Ð¸ÑģÑĤ
ĠÐ·Ð´ ÑĢÐ°Ð²
ĠÐ²ÐµÑĩ Ð½Ð¾Ðµ
ĠÑħÐ¾Ð»Ð¾Ð´ Ð½Ð¾Ð¼
ĠÐ¼Ð¾Ð»Ñĩ Ñĥ
ĠÑĤÐµ Ð¾ÑĢ
ĠÑģÑĤÑĢÐ°Ð½ Ðµ
ĠÑģÑĤÑĢÐ°Ð½ Ð½ÑĭÐ¼Ð¸
ĠÐĿÐ¸ÐºÐ¾Ð» ÐºÐ°
ĠÐºÐ°ÑĢ ÑĤÐ¾Ð½
ĠÐŀÑĤ Ð²Ð¾ÑĢ
ĠÐŀÑĤ Ð²ÐµÑĤÐ°
ĠÑĢÐ°Ð±Ð¾ÑĤ Ð°ÐµÑĤÐµ
ĠÑģÑĤÐ¾ÑĢÐ¾Ð½ Ð°
ĠÑģÐ»ÑĥÑĩ Ð°Ð»Ð¸ÑģÑĮ
ĠÑģÐ»ÑĥÑĩ Ð¸ÑĤÑģÑı
ĠÐ²Ð¾Ð´ ÐµÐ²
ĠÐ²Ð¾Ð´ ÐºÐ°
ĠÐ¶Ð°Ð» ÐµÑİ
ĠÐ¶Ð°Ð» Ð¾Ð²Ð°Ð»Ð°ÑģÑĮ
ĠÐ¶Ð°Ð» Ð¾Ð²Ð°Ð»Ð¸ÑģÑĮ
ĠÐ¶Ð°Ð» Ð¾Ð²Ð°Ð½ÑĮÑı
ĠÐ³Ð»ÑĥÐ± Ð¾ÑĩÐ°Ð¹
ĠÐ½ÐµÐ± Ð»Ð°Ð³
ĠÐ½ÐµÐ± ÑĢÐµÐ¶
ĠÐ·Ð°Ð³ Ð¾Ð²Ð°ÑĢ
ĠÐ²ÑģÑĤÑĢ ÑıÑħ
ĠÐ¸ÑģÐº Ð°Ð»Ð°
ĠÐ¸ÑģÐº ÑĢÑĭ
ĠÐ¸ÑģÐº Ð¾ÑģÐ°
ĠÐ´Ð¾Ðº Ð»Ð°Ð´
ĠÑģÐ¼Ðµ ÐµÑĪÑĮ
Ð²Ð¾ÑĢ Ð°Ñĩ
ĠÑĢÐµÑĪ Ð°ÐµÑĤ
ĠÑĢÐµÑĪ Ð°Ð»Ð¸ÑģÑĮ
ĠÑĢÐµÑĪ Ð°ÑıÑģÑĮ
ĠÑĢÐµÑĪ Ð¸ÑĤÐµÐ»ÑĮÐ½ÑĭÐ¼
ĠÐ·ÐµÐ¼ ÑģÐºÐ¾Ð¹
ĠÑĥÑģ ÐµÐ»Ð¸ÑģÑĮ
ĠÐ·Ð°Ñģ Ð¿
ĠÐ·Ð°Ñģ Ð¸Ð¶
ĠÐ·Ð°Ñģ Ð²ÐµÑĤ
ĠÐ»ÐµÐ³ Ð¾Ðº
ĠÐ»ÐµÐ³ ÐºÐ°Ñı
ĠÐ»ÐµÐ³ ÐºÐ¸Ð¼Ð¸
ĠÐ´ÐµÐ² ÑıÑĤ
ĠÐ´ÐµÐ² Ð¾ÑĩÐºÑĥ
ĠÐ´ÐµÐ² Ð¸ÑĨÐ°
ĠÐ¾ÑĤÐ´ ÑĥÐ²
ĠÐ¾ÑĤÐ´ Ð°Ð²Ð°ÑĤÑĮ
ĠÐ¡ÐµÑĢÐ³ ÐµÐµ
ĠÑĥÐ· ÐºÐ¸Ð¹
ĠÑĥÐ· ÐµÐ½ÑĮÐºÐ¸Ðµ
ĠÐ¸Ð³ ÑĢÐ°Ð²
ĠÑĥÐ¶Ð°Ñģ Ð½ÑĭÐ¼
ĠÑĥÐ¶Ð°Ñģ Ð½ÑĭÐµ
ĠÑĥÐ¶Ð°Ñģ Ð½Ð°Ñı
ĠÐ¿ÑĢÐ¸Ñħ Ð¾ÑĤ
ĠÐ¿Ð¾ÑģÐ»ÐµÐ´ Ð¾Ð²
ĠÐ±Ð¾Ð»ÑĮÑĪÐµ Ñİ
Ð°ÑĤÐµÐ» ÐµÐ½
ĠÐ½Ð°ÑĪ ÐµÐ¼Ñĥ
ĠÐ¿Ð¾Ñħ ÑĥÐ´
ÑıÐ³ Ð¸Ð²Ð°Ñı
ĠÐĴÐ°Ñģ ÐµÐ½ÑĮÐºÐ°
ĠÐºÐ» Ð¾Ð½
ĠÐ¿ÑĥÑģÑĤ ÐµÐ»ÑĮ
ĠÐĺÐ²Ð°Ð½ Ð¾Ð²Ð°
ĠÐĺÐ²Ð°Ð½ ÐµÐ½ÐºÐ¾
ĠÐ±ÐµÑģÐ¿ Ð¾
ĠÐ±ÐµÑģÐ¿ Ð»Ð¾Ð´Ð½Ð¾
Ð¡ Ð²
Ð¡ ÐµÐ¹ÑĩÐ°Ñģ
Ð¡ ÐºÐ°Ð·
ĠÑģÐ»ÐµÐ´ Ð¸ÑĤ
Ġ1 7
ÑĢÐ¾Ð´ ÑĮ
ĠÐ¿Ð¾Ð½Ð¸Ð¼ Ð°ÑİÑĤ
ĠÐ¸Ð·Ð² Ð»ÐµÐº
ĠÑĥÐ²Ð¸Ð´ Ð°Ð»
ĠÑģÐ»ÑĭÑĪ Ð°Ð»Ð¸
ĠÑģÐ»ÑĭÑĪ Ð°Ð»Ð¸ÑģÑĮ
ĠÑĢÐ°Ð·Ð² Ð¾Ð´Ð°
ĠÐ¼ÐµÐ´ Ð»ÐµÐ½
ĠÑĢÐ°ÑģÑģ Ð²ÐµÑĤÐµ
ĠÑģÑĢÐµÐ´ Ð½ÐµÐ¹
ĠÑģÑĢÐµÐ´ ÑģÑĤÐ²Ð°
ĠÑģÑĢÐµÐ´ Ð½Ð¸Ñħ
ĠÐ¿Ð°Ð»ÑĮ ÑĨÐµ
ĠÐ¾ÑģÐ¾Ð± Ð¾Ð³Ð¾
ĠÐ¾ÑģÐ¾Ð± ÑĭÐ¹
ĠÐ½Ð¾Ñģ Ð¸Ð»Ð¸ÑģÑĮ
ĠÐ½Ð¾Ñģ Ð¾Ð²Ð¾Ð¹
ĠÐ·Ð½Ð°ÐºÐ¾Ð¼ Ð¾Ð¹
ĠÑģÐ¸Ð» ÐµÐ½
ĠÑģÐ¸Ð» Ð°Ð¼Ð¸
ĠÐ»ÑĥÑĩ Ð°Ð¼Ð¸
ĠÐ»ÑĥÑĩ ÑĪÐµÐ¼
ĠÐ»ÑĥÑĩ ÑĪÐµÐ¼Ñĥ
ĠÐ¼Ð¾ÑĢ Ñİ
ĠÐ¿Ð¾ÑģÑĤ Ð°
ĠÐ¿Ð¾ÑģÑĤ ÑĭÐ´
[...]
