#version: 0.2
Ġ Ð
Ð ¾
Ð µ
Ð °
Ð ¸
Ð ½
Ñ ģ
Ñ Ģ
Ñ Ĥ
Ð¾ Ð
Ð »
Ð º
Ñ ĥ
Ñ ı
Ð ²
Ð ¼
Ñ ĭ
Ñģ ÑĤ
Ð ´
č Ċ
ĠÐ ¿
Ñ Į
ĠÐ ²
Ðµ Ð½
ÑĢ Ð°
Ñ ĩ
Ð¾Ð ²
Ð ¹
Ð ·
ĠÐ ¸
Ġ Ñģ
Ñ ħ
Ñģ Ðº
Ð ¿
Ð° Ð½
Ðµ ÑĢ
ĠÐ ¾
ĠÐ ½
Ð ±
Ð ³
Ð¾ ÑĢ
Ð¾Ð ´
Ð¾Ð »
ĠÐ º
Ð½ Ñĭ
Ñ Ĩ
ÑĢ Ðµ
Ð» Ð¸
Ñ İ
Ð¾Ð ¼
Ð¾Ð ³
ÑĢ Ð¸
Ð» ÑĮ
ĠÐ ´
Ð¾Ð ¹
â Ģ
Ðµ ÑĤ
Ð¾ Ð½
Ð ¶
âĢ Ķ
ĠÐ ³
ĠÐ ¼
Ñ Ī
ÐµÐ½ Ð¸
Ð° ÑĤ
ĠÐ½ Ð°
Ġ ÑĤ
Ð½ Ð¾
Ñ Ħ
Ð¸ Ð¹
Ð¸ ÑĤ
Ġ âĢĶ
Ð» Ð°
Ġ (
Ð¾ Ñģ
Ð¸ Ð½
ÑģÑĤ Ð²
ĠÐ ±
Ð¾ ÑĤ
ĠÐ °
Ðµ Ð¼
Ð° ÑĢ
Ð¾Ð³ Ð¾
Ð¸ Ðº
Ġ 1
Ñ ī
Ð¸ Ð¸
Ñ ĳ
Ð° Ðº
Ð¸ Ñı
Ñģ Ñı
Ð» Ðµ
Ð° Ñı
ĠÐ ·
Ñĩ Ðµ
Ð¸ Ðµ
Ð¸ Ð¼
Ð» Ñı
Ġ Ñĥ
Ñ į
ÑĢ Ñĥ
Ð° Ð¼
Ð ¡
Ðµ Ð»ÑĮ
Ġ ÑĢÐ°
ĠÐ ¡
Ð¾Ð ±
Ð¾ ÑģÑĤ
Ð° Ð»
Â «
Â »
ĠÐ¿ ÑĢ
ÑģÐº Ð¸Ð¹
Ġ Ñĩ
Ðµ Ð¹
Ð° Ð²
Ð Ĵ
Ð¸ Ñħ
Ġ Â«
Ðº Ð°
Ðµ Ð´
Ð¸ Ñģ
ĠÐ³ Ð¾Ð´
ĠÐ¾ Ð±
Ðµ Ð²
ĠÐ¾ ÑĤ
Ġ ÑģÑĤ
Ð Ł
ĠÐ ļ
Ð¾Ð º
ÐµÐ½Ð¸ Ñı
Ð¾Ð ·
Ð¾Ð» ÑĮ
Ð½Ñĭ Ñħ
Ġ ÑĦ
ĠÐ¿ ÑĢÐ¸
Ð¸ Ð²
Ġ Ñį
ĠÐ½ Ðµ
Ð¸ ÑĩÐµ
Ðº ÑĤ
ĠÐ Ĳ
Ð½ Ð¾Ð¹
Ð¾Ð ¶
Ð¸ Ð»
Ð½ Ð°
ĠÐ »
ĠÐ¸ Ð·
Ð½Ñĭ Ð¹
Ġ1 9
ĠÐ ľ
Ð¾Ð ¿
ĠÐ Ĵ
Ð° Ð»ÑĮ
Ðµ Ð»
Ð¸ Ð·
) ,
ĠÐ¿ Ð¾
ÑĢÐ° Ð½
Ñģ Ð¿
ĠÐ Ł
ÑĢÐµ Ð´
Ð½Ñĭ Ðµ
ÑĢ Ð¾Ð²
ÐµÐ½ ÑĤ
Ġ 2
Ð¸ÑĩÐµ ÑģÐº
ÑĨ Ð¸
ĠÐ± Ñĭ
Ð½ Ð¾Ð³Ð¾
ÐµÐ½Ð¸ Ðµ
Ð½Ð¾ ÑģÑĤ
Ð¸ ÑģÑĤ
ĠÐ ł
ĠÐ µ
1 9
ĠÐ¿ ÐµÑĢ
Ñı ÑĤ
Ġ ÑĢÐµ
Ð° Ð»Ð¸
Ð¼ Ð¸
Ð³ Ð¾
Ñĥ Ñİ
ÑĤ Ð¾
ĠÐ ĵ
Ð¸ Ð´
Ñĥ Ð´
) .
ĠÐ² Ñĭ
Ð ļ
ĠÐ ĳ
Ðµ ÑĢÐ°
Ð° Ð´
Ñģ Ñģ
ÑģÐº Ð¾Ð¹
ÑĢÐ° Ð²
Ð½ Ð¸Ðº
Ġ Ñı
Ñİ ÑĤ
ĠÑģ Ð²
ĠÐ¿ Ð¾Ð»
Ñĥ ÑĢ
Ð ł
Ñĥ ÑĤ
Ð ŀ
Ð Ŀ
ĠÐ· Ð°
Ðµ ÑģÑĤ
ÑĨ Ð¸Ð¸
Ðµ Ðº
0 0
Ð¶ Ðµ
ĠÐ ¶
ÑģÐº Ð¾Ð³Ð¾
Ñĥ Ð¼
ĠÑĢÐ° Ð·
ĠÐ Ŀ
ĠÐ³Ð¾Ð´ Ð°
Ðº Ð¸
Ð° ÑģÑĤ
Ð² Ð°
ÐµÑĤ ÑģÑı
Ð½ Ð°Ñı
ĠÐ Ķ
Ð¾ÑĤ Ð¾ÑĢ
Ñģ ÑĮ
Ð Ĳ
Ð¾ Ðµ
ĠÑĤ Ð°Ðº
Ñī Ðµ
Ð½ Ð¸
Ð¶ Ð´
Ġ Ñħ
ÑĢÐµ Ð¼
ĠÐ Ľ
ÑģÑĤÐ² ÐµÐ½
ĠÐ ĺ
Ð°Ð½ Ð¸Ñı
Ð½ Ð¾Ð²
Ð½ Ðµ
Ġ ÑĢ
Ð¾ Ñĩ
Ð· Ñĭ
ÑĤ Ð°
ĠÐ¿ Ð¾Ð´
Ð» Ð¾Ð²
Ð¼ ÐµÑĢ
ÑĤ Ð¾ÑĢ
Ð¸ÑĤ ÐµÐ»ÑĮ
Ñĥ Ñĩ
ĠÐ¸ Ð¼
ÑģÐº Ð°Ñı
Ñħ Ð¾Ð´
ĠÐ ¢
Ð°ÑĤ ÑĮ
Ð´ Ð°
Ð°Ð¼ Ð¸
Ðµ Ð»Ð¸
ĠÐ¾ Ñģ
ĠÐ³Ð¾Ð´ Ñĥ
ĠÐº Ð¾ÑĤÐ¾ÑĢ
Ð½Ñĭ Ð¼
Ñĭ Ñħ
Ð¸ Ð»Ð¸
ÑĢ Ñı
ĠÑĤ Ðµ
Ð½Ð¾ Ðµ
ÑģÑĤÐ² Ð°
ĠÐ ¤
Ð ľ
ĠÐ¿ÑĢ Ð¾
Ð» ÐµÐ½
ĠÐ¿ ÑĢÐµÐ´
Ñĭ Ðµ
Ð¾Ñģ Ñģ
Ðº Ð¾Ð²
Ð» Ð¾
Ð° Ð¹
ÑĢ Ð¾
Ð¸ ÑĨ
Ñĳ Ð½
Ð¾ÑĢ Ð¾Ð´
Ð Ķ
ÑĢÐ° Ð·
ÑģÑĤÐ² Ð¾
Ð½ Ð¾Ð¼
ĠÑģ Ð¾
Ð° Ñħ
Ð° Ð·
Ð¸ Ñĩ
Ñĥ Ð±
Ðµ Ð·
Ð ĺ
Ð°ÑĤ ÐµÐ»ÑĮ
Ð½ Ñı
Ġ ÑĨ
Ð ¢
ĠÐº Ð°Ðº
Ð°Ð½ Ð´
Ð°Ð½ Ð¸Ðµ
ĠÑģ Ð¾Ð²
Ñĭ Ð¹
ĠÑĩ ÑĤÐ¾
ĠÐ´ Ðµ
Ñĥ Ñģ
Ð¸ ÑĢ
Ð»Ðµ Ð´
ĠÐº Ð¾Ð½
Ð½Ð¾ÑģÑĤ Ð¸
ĠÐ¿ ÑĢÐµ
ĠÑį ÑĤ
ĠÐ ŀ
ÑĢÐ° ÑĤ
Ð´ Ðµ
Ð½Ð¾ÑģÑĤ ÑĮ
Ñĥ Ð½
ĠÐ´ Ð»Ñı
ĠÐ¿ Ð¾Ñģ
Ð¾ Ñı
Ðµ Ñģ
Ð»Ð° Ð²
Â» .
ĠÐ² Ð¾
ĠÐº Ð¾Ð¼
ĠÐ¾ Ð´
Ð° Ñģ
1 8
Ġ2 0
ĠÐ¾ Ð¿
Ð ĵ
Ġ ÑĪ
Ð³ Ð°
ĠÐ¸ Ð½
Ð¸ Ð±
Ðº Ð¾
ÑĨÐ¸ Ð¾Ð½
Ðµ Ñĩ
Ð° Ð»Ð°
Ġ1 8
ĠÑĤÐ°Ðº Ð¶Ðµ
Ð± ÑĢÑı
ÑĢ Ñĭ
ÑģÐº Ð¸Ñħ
ĠÑģ Ð¾ÑģÑĤ
ĠÐ² Ñģ
ĠÐ° Ð²
Ð ĳ
Ġ ÑĢÑĥ
Ñĥ Ð¿
Ðµ Ð³
Â» ,
Ð¸ ÑĢÐ¾Ð²
ĠÐ³ Ð¾ÑĢÐ¾Ð´
I I
Ð¼ Ð°
ĠÑģ Ð¿
Ðµ Ðµ
Ñİ Ñī
ÑĢÑĥ Ð³
Ñĥ Ð»ÑĮ
Ð» Ñİ
Ð¸ Ð»ÑĮ
Ð¾ ÑĢÐ°
ÐµÐ½ Ð°
ÑĨ Ð¸Ñı
Ð¾Ð»ÑĮ ÑĪ
Ñ Ĭ
Ðµ Ð»Ðµ
Ñĳ ÑĤ
Ð· Ð°
ÑĢ Ð¾Ð´
Ð¾Ñģ ÑĥÐ´
ĠÐ¿ ÑĢÐ°Ð²
ĠÑĩ Ð°ÑģÑĤ
Ñĳ ÑĢ
Ð°Ð½ Ð°
Ð¾Ð» Ð¾Ð³
ĠÐ¿ÐµÑĢ Ð²
Ð¾ÑģÑĥÐ´ Ð°ÑĢ
ĠÐ´ Ð¾
Ð¸Ð½ Ð°
ĠÐµ Ð³Ð¾
Ð°Ð½ Ð¾Ð²
Ð°Ð½ ÑĤ
Ð½Ð° Ñĩ
ĠÐ° ÑĢ
ĠÐ² Ð¾Ð·
Ðº Ðµ
Ġ ÑĩÐµ
ĠÐ² ÑĢÐµÐ¼
Ð°ÑĢ ÑĤ
Ðµ ÑĨ
ĠÐ¸ ÑģÐ¿
ÐµÐ½ ÑĮ
Ð² Ð»Ñı
ĠÐ´ Ð²
Ð¸ Ð¿
ÑģÑĤ Ð°Ð²
ĠÐ¼ Ðµ
ĠÐ¾Ñģ Ð½Ð¾Ð²
ĠÐ ¥
ĠÑĥ Ñĩ
Ñı Ð½
Ñģ Ð°
ĠÐ±Ñĭ Ð»
ĠÐ½Ð° Ñĩ
Ð¸ÑĤ ÑĮ
ĠÐ ķ
Ð»Ð° ÑģÑĤ
Ð° ÑĢÐ¸
Ðº Ð¾Ð½
Ð± Ð¾ÑĤ
ÐµÐ½Ð¸ Ð¸
Ð ¤
Ñĥ Ð¶
Ð° Ð³
ĠÐ² Ð¾Ð¹
Ð° ÑĢÐ°
ÑİÑĤ ÑģÑı
ĠÐ Ń
Ð¾Ð³ ÑĢÐ°
ÑģÐº Ð¸Ðµ
ĠÑģÐ¾Ð² ÐµÑĤ
Ġ2 00
Ð½ ÑĥÑİ
Ð Ń
Ð°Ð½ Ð¸Ð¸
Ð¾ÑģÑģ Ð¸Ð¹
Ð Ľ
Ð½Ñĭ Ð¼Ð¸
Ð¾Ð½ Ð°
Ð¸ Ð»Ð°
Ð¡ Ðł
ÑĢÑĥ Ð¿
Ð¸ Ñİ
Ð° Ð¿
ĠÐ¸ Ð»Ð¸
Ġ 3
Ð° ÐµÑĤ
ĠÐ° ÐºÑĤ
Ðµ ÐºÑĤ
ĠÑģ Ð°Ð¼
Ð¸Ð¼ Ð¸
Ñĥ Ð·
ĠÐ £
Ðº Ñģ
Ñĥ ÑīÐµ
Ġ %
ÐµÐ½Ð¸ Ð¹
ĠÑı Ð²Ð»Ñı
ÑģÐº Ð¾Ð¼
Ð¾ÑĢ ÑĤ
Ñĥ ÑģÑĤ
Ðµ ÐºÐ°
Ñĭ Ð¼
ĠÐ³ Ð¾ÑģÑĥÐ´Ð°ÑĢ
ĠÐ Ĺ
2 0
Ðµ Ð¿
Ð¸ Ð¾Ð½
Ð¸Ðº Ð°Ð½
Ð¾Ð»ÑĮ Ð·
ĠÐ´ ÑĢÑĥÐ³
ÑĢÐ¸ ÑĤ
ĠÐº Ð¾ÑĢ
ĠÐ¸ ÑģÑĤ
ÑĥÐ»ÑĮ ÑĤ
ĠÑģÐ² Ð¾
Ð Ĺ
Ð¸ Ð³
ÑĢ Ð¾Ð¼
ÐĿ Ð°
ÑĢ Ð¾Ð¿
Ð² ÐµÑĢ
Ð»Ð° Ð´
Ð¼ ÐµÐ½
Ðµ Ð¶
Ð½ ÐµÐ¹
ĠÐ° Ð½
Ð £
ĠÑģ Ð¾Ð±
Ðº Ñĥ
Ð¸Ðº Ð°
ĠÑģÐ¾ÑģÑĤ Ð°Ð²
ĠÐ¾ ÑĢ
Ð¾Ð· Ð´
Ð¾ ÑĦ
ĠÐ¿ Ð¾ÑģÑĤ
ÑĤ ÑĮ
ĠÐ ¨
Ðµ Ð»Ñı
1 7
Ð¾Ñģ ÑĮ
ĠÑģ Ð»
ÑĢÐ¸ ÑģÑĤ
ĠÐ²Ñģ Ðµ
Ñĥ Ñħ
Ġ X
ÐµÑĢ Ð²
ÑĪ Ðµ
Ð¸Ðº Ð¸
Ð¾Ð» ÐµÐµ
ĠÑĤ ÐµÑĢ
Ð² Ð¾Ð´
ĠÐ¸ Ñİ
ĠÑı Ð·Ñĭ
Ð¾ÑĢ Ð¼
Ġ I
ÑĥÐ± Ð»Ð¸
Ð¼ÐµÑĢ Ð¸ÐºÐ°Ð½
ĠÐ¼ Ð¸
ĠÐ· Ð°Ðº
ĠÑĢÑĥ Ñģ
ĠÐºÐ¾Ð¼ Ð¿
ÐµÑĤ Ð°
ĠÐ¾Ð± ÑĬ
ĠÐ¿ÑĢ Ð¾ÑĤ
ĠÑĩÐµ Ð»Ð¾Ð²
Ġ 4
Ð» ÐµÐ½Ð¸Ñı
ĠÐ½Ð° Ñģ
ĠÐ¾ Ðº
ĠÐĲ Ð½
Ð³ Ð°Ð½
ĠÐ¾Ð± ÑĢÐ°Ð·
ĠÐ½Ð° Ð¿
Ð¡ Ð¡Ðł
ÑĨ Ð°
ĠÐ° Ð¼ÐµÑĢÐ¸ÐºÐ°Ð½
Ñı Ð·
ÐµÑĢ Ð¶
Ñĳ Ð¼
Ð¾Ð»ÑĮ ÐºÐ¾
Ñĭ ÑĤ
ĠÐł Ð¾ÑģÑģ
Ð² ÐµÐ´
ĠÐ± Ð¾Ð»ÑĮÑĪ
Ð¸ÑģÑĤ ÐµÐ¼
ĠÑĢÐ° ÑģÐ¿
ĠÐ¼Ðµ Ð¶Ð´
Ġ19 9
Ð ¨
ÑĤ Ð¸
Ð»Ð¸ Ñĩ
ÐŁ ÑĢÐ¸
ĠÑĩ Ð¸Ñģ
Ð· Ð²
ĠÐ¿ Ð¸Ñģ
Ġ20 1
Ð»Ñİ Ñĩ
ÐµÐ½ Ñĭ
ÐµÑĢÐ° ÑĤ
ĠÐ¼ Ð½
Ð¿ ÑĢÐµ
e r
ĠÐ¡ Ð¡Ð¡Ðł
Ð° Ð±
ÐµÐ½Ð¸ Ñİ
Ġ 5
ĠÐ¿ÑĢÐ¾ Ð¸Ð·
Ðµ Ð±
Ð¸Ðµ Ð¹
ĠÐ¼ ÐµÑģÑĤ
Ð°ÑĢ Ñı
ĠÐ²ÑĢÐµÐ¼ Ñı
ĠÐ¸ÑģÐ¿ Ð¾Ð»ÑĮÐ·
Ð¾Ð² Ð°Ð½
ĠÐ §
Ð»Ðµ ÐºÑģ
Ñı Ð±ÑĢÑı
Ñĥ Ðº
ÐºÐ° Ð·
ĠÐ±Ñĭ Ð»Ð¸
ÑĢ Ð¾Ð½
Ð· Ð¸Ð´
Ð°Ð» Ð¾
ÑĥÑīÐµ ÑģÑĤÐ²
Ñĥ Ð»
ĠÐº Ð¾Ð»
Ð´ Ð¸
ĠÑģ Ð¸ÑģÑĤÐµÐ¼
ĠÐ¾ ÑģÑĤ
ÐµÐ½Ð¸ ÐµÐ¼
ĠÑĢ Ð¾ÑģÑģÐ¸Ð¹
Ð¾Ð¼ Ñĥ
ÐµÐ¹ ÑģÑĤÐ²
Ñĭ Ñģ
ĠÐ¸Ð¼ Ð¿
ĠÑģ ÑĢÐµÐ´
Ð¾ÑģÑĤ Ð¸
ĠÐ±Ñĭ Ð»Ð¾
Ð² ÐµÑĤ
ÑĢÐ° Ð¶
ÑĮ Ñİ
Ð¸ÑĩÐµÑģÐº Ð¾Ð¹
ĠÐ¾ Ð½
ÐµÑĢ Ñģ
ĠÐ ®
ÐµÐ¼ Ð¿
ĠÐ´ Ð¾Ð»
Ð° ÑģÑģ
ĠÐ½ Ð¾
Ñĥ ÑĢÐ°
Ð¾Ð¶ Ð´
Ð¾ ÑģÐº
Ð² Ð¾Ð»
ĠÑĢÐ° Ð±Ð¾ÑĤ
ĠÐ¿ÑĢ Ð¾Ð²
Ð¸ÑĩÐµÑģÐº Ð¸Ñħ
ĠÐ±Ñĭ Ð»Ð°
ÑĨÐ¸ Ð°Ð»ÑĮ
ĠÐ¾ÑĤ Ð½Ð¾
Ð¼ Ð¸Ð½
Ðµ ÑģÑģ
ĠÐ¸ÑģÑĤ Ð¾ÑĢ
ĠÐ ¦
Ð° ÐµÑĤÑģÑı
Ð½ Ð°Ðº
ÑĢ Ð¾Ñģ
Ñĭ ÑĪ
Ð´ Ð¸Ð½
ĠÐ¿ÑĢÐµÐ´ ÑģÑĤÐ°Ð²
ÑģÐº Ð¾Ðµ
ĠÑģÑĤ ÑĢÐ°
ÑĪ Ð¸Ð¹
ĠÐ¼ Ð¾Ð¶
ĠÐ¿ Ð»
Ð»Ðµ ÐºÑĤ
Ð¸ Ð½Ñĭ
Ð·Ð¸Ð´ ÐµÐ½ÑĤ
ÑıÑĤ ÐµÐ»ÑĮ
ĠÐ¿Ð¾Ð» ÑĥÑĩ
ÑģÑĤ ÑĮ
ĠÐ½ Ð¾Ð²
Ñĥ ÑĪ
Ð°Ð»Ð¸ ÑģÑĮ
ÑģÑĤÐ² Ðµ
ÑģÑĤ ÑĥÐ¿
ÐµÐ² ÐµÑĢ
ĠÑıÐ²Ð»Ñı ÐµÑĤÑģÑı
Ð ķ
ĠÐłÐ¾ÑģÑģ Ð¸Ð¸
Ð¿ Ð¾Ð»
Ð¸ Ð½Ð¾
ĠÐ¿ÑĢ Ð¾Ð´
Ð¿ ÑĢÐ¸
Ð» ÐµÐ½Ð¸Ðµ
Ġ1 7
Ð»Ð°ÑģÑĤ Ð¸
ĠÑģ Ðº
ĠÑį Ðº
ĠÑģ Ð¾Ð·Ð´
ĠÐ¸ Ñħ
ÐµÐ»Ðµ Ð¹
ÑĥÑİ Ñī
ĠÐ² Ð¸Ð´
Ð¼ Ð°ÑĤ
i n
ĠÑĤ Ð¾
Ð·Ñĭ Ð²Ð°
ĠÐ¼ Ð°ÑĢ
ĠÐ·Ð° Ð¿
ÐµÐ´ Ð¸Ð½
ĠÐ· Ð°Ð²
Ð¸ Ð¶
ÑĢÐ¸ ÑĤÐ¾ÑĢ
ĠÐ¿ÑĢÐ¸ Ð½
Ð¸ÑĩÐµÑģÐº Ð¸Ðµ
Ð¸ ÐµÐ¼
Ðº Ð¸Ð¹
Ðµ ÑģÐ¿
Ð¸Ñģ Ñģ
ĠÑĥ Ð¿
ÑĢÐ°Ð½ ÑĨ
ĠÑģÐ¾Ð²ÐµÑĤ ÑģÐºÐ¸Ð¹
Ð¾Ð² Ð°
ÐµÑĢ Ð½
ĠÐ ¯
ÑıÑĤ ÑĮ
Ð³ Ð¸
Ñį ÑĤ
ĠÐ² ÐµÐºÐ°
ĠÐ¶ Ðµ
ĠÐ½ ÐµÐ¼
ĠÐ¸Ð¼ Ðµ
Ð³ ÑĢÐ°
ĠÐº Ð°
ÐµÑĢ Ð³
o n
ÐµÑĢ Ð¼
ĠÐ¼ ÐµÑĤ
Ð¾Ð³ Ð´Ð°
Ðº ÑĢÑĭ
Ð¾Ð³ÑĢÐ° ÑĦ
Ñı Ð²
ÑĢÑĥÐ¿ Ð¿
ĠÐ¿Ð¾Ð» Ð¸ÑĤ
Ð¸ÑĩÐµ ÑģÐºÐ¸Ð¹
ĠÐ¿ Ð¾Ð²
ÐŁ Ð¾
ĠÐ²Ñĭ Ñģ
1 5
ĠÐ± Ð¾Ð»ÐµÐµ
Ð¼ Ðµ
ÑģÐº Ð°
Ġ 6
Ñĥ Ñī
Ð² ÐµÑģÑĤ
ÑĢÐµÐ¼ ÐµÐ½
ĠÐ¼ÐµÐ¶Ð´ Ñĥ
Ð¸ÑĤ ÑģÑı
ÑĨÐ¸Ð¾Ð½ Ð°Ð»ÑĮ
ĠÐ¿Ð¾Ñģ Ð»Ðµ
ĠÐ» ÐµÑĤ
ĠÑĢÐ°Ð· Ð²
ÑĪ Ð¸Ñħ
Ð° ÑİÑĤ
Ñı Ñī
1 6
ÑĪ Ð¸Ðµ
a n
ĠÐ¡ ÑĤ
ĠÐ³ ÑĢÐ°
ĠÐ¿ Ð¾Ðº
ĠÐĶ Ð¶
ÐµÐ» ÐµÐ½Ð¸Ñı
Ð° Ð¶
Ð¾Ð² Ð°Ð½Ð¸Ñı
Ðº ÑĢÐ°
Ð½Ð¸Ðº Ð¾Ð²
Ð¸ ÑĪ
Ð² Ðµ
ĠÐ½Ð° ÑĢÐ¾Ð´
Ð¾Ð³ Ð»Ð°
ÑĢÐµ ÑĤ
ÑģÐº Ð¸Ð¼
Ð¸ÑĩÐµÑģÐº Ð¾Ð³Ð¾
Ñĳ Ð»
ĠÑĥ ÑģÑĤ
Ð° ÑİÑī
1 0
Ð°ÑĢ Ð¾Ð´
ĠÑĤÐµÑĢ ÑĢÐ¸ÑĤÐ¾ÑĢ
Ġ II
Ð¾ÑĢ Ð¸Ñı
ÐµÑĢ ÑĤ
ÑĨ Ñĭ
ĠÐ¾ÑĢ Ð³Ð°Ð½
ĠÑģÐ² ÑıÐ·
Ð¡ Ð¼
ĠÐĲ Ð»ÐµÐºÑģ
Ð¾Ñģ Ð¾ÑĦ
Ð³ Ð»Ð¸
Ñĩ Ð¸ÑĤ
Ġ Ñİ
ĠÐ² ÐµÐº
ÐµÑĢ Ð±
Ñĥ ÐµÑĤ
Ð³ ÑĥÑģÑĤ
Ð°Ð» ÑģÑı
Ð¨ ÐĲ
Ġ19 8
ĠÐ· Ð½Ð°Ñĩ
ĠÐ² Ð¾Ñģ
ÑĢÐ°Ð½ÑĨ ÑĥÐ·
Ð¾Ð² Ð¾ÑĢ
Ð §
Ð¸Ð» Ð¾ÑģÐ¾ÑĦ
1 2
ÑĢÐµ Ð²
ĠÑĢÐµ Ð·
Ġ 7
Ð¾ ÑĪ
ĠÐķ Ð²
ĠÐ¼ Ð°ÑĤ
ĠÑį ÑĤÐ¾
Ðº Ð¾Ð¼
ĠÐ¿ÑĢÐ¾ÑĤ Ð¸Ð²
Ð» ÐµÐ¼
) ;
Ð¾Ð² Ð¾Ð¹
ÑĨÐ¸ Ñİ
ÑĥÑĢ Ð³
ĠÐ² Ð¾Ð´
Ð° ÑĪ
ĠÐ¾Ð± ÑīÐµ
ÑĢÐµ Ð±
Ð ¥
ĠÐ¿ÑĢÐµ Ð·Ð¸Ð´ÐµÐ½ÑĤ
ĠÐ¼ Ð¾ÑĢ
e n
1 4
Ðº Ð¾Ð¹
Ð¾ Ñħ
ĠÐ´Ðµ ÑıÑĤÐµÐ»ÑĮ
ĠÐ³Ð¾ÑĢÐ¾Ð´ Ð°
Ð¾ÑģÑĤ ÑĢÐ°Ð½
ÑĢÐ¸ ÑģÐ°
Ð¾Ñģ Ð¼
ĠÐ½Ð° Ð·Ð²
ÑĮ Ñı
ĠÑı Ð½
ĠÐ» Ñİ
Ð° Ñĩ
ĠÐ³Ð¾ÑģÑĥÐ´Ð°ÑĢ ÑģÑĤÐ²ÐµÐ½
Ð± Ð¾ÑĢ
ĠÐ¾ÑĤ ÐºÑĢÑĭ
ÐµÐ½ Ð¾
ĠÑĩÐµÐ»Ð¾Ð² ÐµÐº
ĠÐ¸ ÑģÐº
ÑĦ Ð¾ÑĢ
Ð½ Ð¸Ð¼
ÑĢÐ° Ñģ
ĠÐ´ Ð¸
Ð¼ Ð¿
Ì ģ
ÑĦ Ð¸
Ð¸Ð· Ð°
ĠÐ²Ð¾ ÐµÐ½
Ġ19 4
Ġ19 7
ĠÐ¡ Ð¨ÐĲ
ĠÐµ Ñĳ
Ð¾Ð¶ Ðµ
ÑĨ ÐµÐ²
Ð°ÑĤ Ñĭ
Ð¸ Ð°Ð½
Ð½ Ð´
Ñĥ ÑĢÐµ
Ð° Ð»Ðµ
Ġ 8
ĠÑĤ Ð¾Ð»ÑĮÐºÐ¾
ĠÐ³ ÑĢÑĥÐ¿Ð¿
Ð¾ Ð½Ñĭ
Ð¾Ð» Ð½
Ð¾Ð» Ð¾
ĠÐº Ð¸Ð½Ð¾
ĠÐ¿ Ð¾Ð·
Ð¸Ð»Ð¸ ÑģÑĮ
ÑĤ Ð¾Ð¼
Ðµ Ñħ
ĠÐ³ Ð»Ð°Ð²
1 3
Ð½Ð¸Ðº Ð¸
Ð¼ ÐµÐ½ÑĤ
Ð¸ÑĤ ÐµÑĢÐ°ÑĤ
ÑĢÐ° Ð»ÑĮ
ĠÑĢÐ° Ñģ
ÐµÑĢ Ñħ
ĠÑģÐ¾ÑģÑĤ Ð¾Ñı
Ð¸ ÑĢÑĥ
Ġ1 5
Ġ19 6
Ð± Ñĭ
Ð¸Ð» ÑģÑı
Ð»Ð° Ð³
ĠÑĦ ÑĢÐ°Ð½ÑĨÑĥÐ·
ĠÐ¡ Ð¾Ð²
ĠÐľ Ð¾ÑģÐº
ĠÐ´ ÐµÐ¹ÑģÑĤÐ²
ĠÐ´ Ð°Ð½
ĠÑĨ ÐµÐ½ÑĤ
Ñı Ð´
ĠÐ¿ Ð¾Ð¼
ĠÐ¿ Ð¾ÑĤ
ĠÑĤ Ð¾Ð¼
ĠÑģÑĤ ÑĢÐ°Ð½
ÑĨ Ð¸Ð¹
ĠÐ¿Ð¾Ñģ Ð»ÐµÐ´
Ġ 9
ÐµÑĢ ÑĪ
ĠÑģ Ð»Ð¾Ð²
ÐºÐ¾Ð½ Ð¾Ð¼
ĠÐ¿ Ð°ÑĢ
ĠÐ¸Ð½ ÑĤ
ĠÐ¿ Ð°ÑĢÑĤ
ĠÐºÐ¾ÑĤÐ¾ÑĢ ÑĭÐµ
Ġ S
ĠÐ´Ðµ ÐºÐ°
ĠÐ¿ Ð¾Ð¿
Ð¾ÑģÑĤ ÑĮ
Ð¢ Ð°Ðº
e s
ÐµÑĢ Ð¸
ĠÐ¾Ð¿ ÑĢÐµÐ´
o r
ĠÐ· Ð°Ð½
Ð¼ ÐµÑĩ
ÑĥÑİ ÑĤ
Ġ C
Ð½Ð°Ðº Ð¾
Ð¼ Ñĭ
Ð½ Ñĥ
ÑĥÑĢ Ñĭ
Ð¼ Ñĥ
ĠÐ¿Ð¸Ñģ Ð°ÑĤÐµÐ»ÑĮ
ĠÐ°ÐºÑĤ ÑĢÐ¸ÑģÐ°
ĠÑĤÐµ Ð°ÑĤ
2 00
ÐµÑĤ Ñĭ
ĠÐĲ ÑĢ
Ð¾ Ñī
ĠÐ¿ ÑĢÐµÐ¼
ÐµÐ¼Ð¿ Ð¸Ð¾Ð½
ĠÐ¿Ð¾ ÑįÑĤ
ÑģÑĤÐ² Ð¾Ð¼
ĠÑĦ Ð¸Ð»Ð¾ÑģÐ¾ÑĦ
Ð¾Ð³ÑĢÐ° Ð¼
Ð½Ð¾Ð¼ Ñĥ
Ð°Ð» Ð¾ÑģÑĮ
ĠÐļ Ð¾Ð½
Ð°ÑĤ Ð°
ĠÐ¾ ÐºÑĤ
ĠÑĢÐ¾ÑģÑģÐ¸Ð¹ ÑģÐºÐ¸Ð¹
ĠÑģ ÑĥÑīÐµÑģÑĤÐ²
Ð¸ÑĩÐµÑģÐº Ð°Ñı
ĠÐ½ÐµÐ¼ ÐµÑĨ
ĠÐ°Ð² Ð³ÑĥÑģÑĤ
ĠÐ½Ð° ÑħÐ¾Ð´
ĠÑģ ÐµÐ½ÑĤ
ĠÐ° Ð¿ÑĢÐµ
ĠÐ¼ Ñĥ
ĠÑģ ÐµÑĢ
ĠÐ°Ð¼ÐµÑĢÐ¸ÐºÐ°Ð½ ÑģÐºÐ¸Ð¹
Ð¼ ÐµÑģÑĤ
ĠÑıÐ½ Ð²
ĠÑĥ Ñģ
ĠÑģÑĤÑĢÐ° Ð½Ñĭ
ĠÐ¼Ð¸ ÑĢÐ°
Ð¾Ð± Ñĭ
Ġ19 3
Ð¾ Ñİ
Ð°ÑĢ Ð´
ĠÑĤÐµ Ð»Ðµ
ÑģÑĤ Ð¸ÑĤ
19 9
Ð» Ð°Ð½Ð´
Ð¼ Ð¾Ð¶
ĠÐ¿ÑĢÐ°Ð² Ð¸ÑĤÐµÐ»ÑĮ
ĠÐ± ÐµÐ·
ĠÐ· ÐµÐ¼
ĠÑĤ ÑĢÐ°
Ð² Ð¾ÑĢ
ÐµÐ»Ð¸ Ðº
ÑĦ ÐµÑĢ
ÑĢÐ° Ñī
Ð°Ð½ Ñĭ
ÐµÐ½ ÐµÑĢÐ°
Ð» Ð¾Ð¶
ÑĢÑĥ Ð´
ĠÑıÐ½Ð² Ð°ÑĢÑı
ĠÐ¾Ð± Ð»Ð°ÑģÑĤÐ¸
ĠÑĩ ÐµÐ¼Ð¿Ð¸Ð¾Ð½
ĠÐ¼ Ð°Ñı
ÐµÐ½ Ð½Ð¾
Ð· Ð½
Ð¸Ñģ Ð¸Ð¼
ĠÐºÐ¾ÑĤÐ¾ÑĢ ÑĭÐ¹
Ð¾ÑĢ Ð¾Ð½
Ð¾Ð² Ð°Ð½Ð¸Ðµ
ĠÐ¼Ð½ Ð¾Ð³
2 2
ĠÐ¿ÐµÑĢ ÐµÐ´
Ð»Ð° ÑģÑģ
ĠÐ´ Ð¾ÑģÑĤ
Ð°Ðº ÑĤ
ĠÑĢÐ°Ð·Ð² Ð¸ÑĤ
Ð°ÑĢ ÑĮ
ĠÑĢÐ° Ð¹
ĠÐĲÐ»ÐµÐºÑģ Ð°Ð½Ð´
Ñĥ Ð»Ñı
ĠÑĦ Ð¾ÑĢÐ¼
ĠÐ½Ðµ Ðº
Ð½ ÑĥÑĤ
Ð¾Ð´ Ð°
ĠÐ¼Ð°ÑĢ ÑĤÐ°
a r
19 6
Ð¾Ð» Ð¾Ð¶
ĠÐ¼ Ð¾Ð½
Ð»Ð¸ Ð·
Ð½Ðµ Ðµ
ĠÐ¸Ñİ Ð»Ñı
Ð¼ Ð°Ð½
ĠÐ¸Ð· Ð²ÐµÑģÑĤ
Ġ /
Ð°ÑĤÑĮ ÑģÑı
a t
ĠÐ¼ Ð¸Ð½
Ð» ÐµÑĤ
ĠÐ± ÑĥÐ´
ĠÐ² Ðº
Ġ1 6
a l
Ñĥ Ð³
ĠÐº ÑĢÑĥÐ¿
Ð½Ð¾ÑģÑĤÑĮ Ñİ
Ð»Ð¸ Ð½
2 1
Ð· Ð½Ð°Ñĩ
19 7
ÑĪ ÐµÐ½Ð¸Ñı
ĠÐ¿ÐµÑĢ ÐµÐ²
ĠÐ¼Ð¾Ð¶ ÐµÑĤ
ÑĢ ÐµÐ½
ĠÐ² Ð¿
Ð¸ÑĨ Ð°
Ġ1 0
ĠÐ¾ÑģÑĤ ÑĢÐ¾Ð²
Ð¾Ð³Ð»Ð° Ñģ
Ð¸ ÑĦ
ĠÑģ Ð»ÐµÐ´
Ð»Ñı ÐµÑĤ
ĠÑĦ ÐµÐ²
ĠÐ½ Ð¾Ñı
19 4
Ðµ Ñī
ĠÐĿ Ð¸Ðº
Ġ A
ĠÐ´ÐµÐºÐ° Ð±ÑĢÑı
Ð¾Ð½ Ð¾Ð²
Ð¼Ð¸Ð½ Ð¸ÑģÑĤ
ÑĤ Ðµ
ĠÐ¶ Ð¸Ð·
ĠÑģ ÑĥÐ´
ĠÐ· Ð°Ð¼
ĠÐ°ÑĢ Ð¼
Ð°Ð½ Ð¾
ĠÐ¿ÐµÑĢ Ð¸
Ð½Ð¸Ðº Ð°
Ð¾Ð» Ð°
ĠÐ¼ Ð¾Ð³
ĠÐ°Ð¿ÑĢÐµ Ð»Ñı
ĠÐ½Ð° Ð´
ĠÐµ Ð´Ð¸Ð½
ĠÐ² ÑĤÐ¾ÑĢ
ĠÐ ĸ
ĠÐ¾Ð´ Ð¸Ð½
ĠÐ¸Ñİ Ð½Ñı
ÐµÑĢÐ° ÑĤÐ¾ÑĢ
Ð¸ ÑģÐº
ĠÐ¤ ÑĢÐ°Ð½
Ð¸ ÑĢÐ¸
ÐºÐ¾Ð½ Ñĩ
Ð°ÑĤ Ð¾ÑĢ
ĠÑģÐµÐ½ÑĤ ÑıÐ±ÑĢÑı
Ð½ Ð¸Ðµ
Ð»Ðµ Ð¹
ĠÑį Ð»ÐµÐºÑĤ
ÑĢ Ð¾Ðº
ĠÑĦÐµÐ² ÑĢÐ°
19 8
Ġ P
ÑĥÐ½ Ð°ÑĢÐ¾Ð´
ĠÑįÑĤ Ð¾Ð¼
ÐµÐ½ Ð´
ÑģÑģ Ð»ÐµÐ´
Ð½ Ð¸Ð¹
Ð¿ Ð¸Ñģ
ĠÐ°Ð²Ð³ÑĥÑģÑĤ Ð°
ĠÐ¾ÐºÑĤ ÑıÐ±ÑĢÑı
ĠÐ¿ÐµÑĢ Ðµ
ĠÐºÐ¾Ð½ ÑĨ
ĠÑĢÐµÐ· ÑĥÐ»ÑĮÑĤ
Ð¸Ð· Ð¼
ĠÐ¿ÑĢ Ð¾Ð³ÑĢÐ°Ð¼
ĠÐº Ð¾ÑģÐ¼
ĠÐ°ÑĢ Ñħ
ĠÑĦ Ð¸Ð·
ÐµÑĢ ÐµÐ·
Ð¸Ð½ Ðµ
Ġ Ġ
ĠÐ¿ Ð¾Ð³
ĠÐ¾Ð± Ñī
ĠÑĥÑĩ Ð°ÑģÑĤ
ĠÐ½Ð°Ñģ ÐµÐ»ÐµÐ½Ð¸Ñı
Ð½ Ð¸Ð²
ĠÐ¶ Ð¸Ð²
Ð¾Ð± ÑĢÐ°Ð·
Ð» Ð¾ÑĤ
ĠÐ²Ð¾Ð¹ Ð½Ñĭ
ĠÑģ ÑĩÐ¸ÑĤ
ĠÐº ÑĥÐ»ÑĮÑĤ
Ð¸ ÑĢÐ°
Ð³ Ð¾Ð²
Ð´ ÐµÐ»
Ð³Ð»Ð¸ Ð¹
2 5
ĠÑģÑĤ Ð°Ð»
ÐŁ Ð¾Ñģ
Ð¸Ðº Ðµ
ĠÑįÐº ÑģÐ¿
ĠÐĲ Ð²
Ñģ Ð»Ð¸
Ð² Ñĭ
ĠÑį ÐºÐ¾Ð½Ð¾Ð¼
Ð´ ÐµÐ¼
ÑĢÐµ Ð¹
Ð¾ÑĤ Ð¾Ð²
ĠÐºÐ¾ÑĤÐ¾ÑĢ ÑĭÑħ
ĠÐ½ÐµÐº Ð¾ÑĤÐ¾ÑĢ
ĠÑħ ÑĥÐ´
1 1
ĠÑĢÑĥÑģ ÑģÐºÐ¸Ð¹
Ð´ ÐµÑĢÐ¶
ĠÑĤ Ð¾Ð³Ð¾
ĠÐ² Ð·
ÑĢÐ¸ Ð¹
ÑĤ Ð¾Ð½
ĠÑĢÐ°Ð· Ð»Ð¸Ñĩ
ĠÐ´Ð¾Ð» Ð¶
Ñģ Ð¾Ð²
ĠÐ°ÐºÑĤ ÑĳÑĢ
ÑĢÐ° Ð±Ð¾ÑĤ
ĠÑĤÐµ Ñħ
ĠÐºÐ¾ÑĢ Ð¾Ð»
. ,
ĠÐµ ÑģÑĤÑĮ
ĠÐ¼ Ð»
ĠÑĤÐµÑĢÑĢÐ¸ÑĤÐ¾ÑĢ Ð¸Ð¸
ÑĢ Ð¾Ð¹
Ðŀ Ð±
Ð² Ð¸
Ð¸ÑĤÐµÐ»ÑĮ Ð½Ð¾
Ð¾Ñģ Ð¾Ð±
ĠÐ¿ÑĢÐ¾Ð¸Ð· Ð²Ð¾Ð´
ÐµÐ´ ÐµÑĢÐ°
Ġ19 5
Ñĭ Ð²
ĠÑĦ ÑĥÐ½
Ð¶Ð´ Ð°Ð½
ÑĤÐ¾ ÑĢÐ°
Ð± Ð¾Ð»
Ð´ Ð¶
ĠÐ¿ Ð¾Ð±
Ð¸Ð» Ð¾
ĠÐ½Ð¾Ñı Ð±ÑĢÑı
Ð¼ ÐµÑĤ
ĠÐºÐ¾Ð½ ÑĤ
ĠÑĦÐµÐ²ÑĢÐ° Ð»Ñı
ĠÐ¾ Ñĩ
ÑģÐº ÑĥÑİ
Ð°ÑĤ Ðµ
19 3
i s
ĠÐ½Ðµ ÑģÐº
ĠÑģ Ð¼
Ġ M
Ðŀ Ð´
ÑĪ ÐµÐ½Ð¸Ðµ
Ð¸Ð½ Ð³
2 3
i c
ĠÐ¾Ðº Ð¾Ð»Ð¾
ĠÐ·Ð°Ðº Ð¾Ð½
ĠÐ´ÑĢÑĥÐ³ Ð¸Ñħ
Ð¸ÑĤ Ð°
ĠÐķÐ² ÑĢÐ¾Ð¿
Ġ :
Ð² Ð¸Ð´
Ġ ,
Ð¿ Ð¾Ð½
ĠÐ°Ð½ Ð³Ð»Ð¸Ð¹
ĠÐ½Ð° Ð·ÑĭÐ²Ð°
ÑīÐµ Ðµ
Ð» Ð¾Ð¼
Ġ T
Ġ V
ÐµÐ¼ Ð°ÑĤ
Ð°Ð»Ð¸ ÑģÑĤ
ĠÑģÐ¾ Ð¾ÑĤ
Ð°ÑĢÐ° ÐºÑĤ
ĠÑįÑĤ Ð¾Ð³Ð¾
ĠÐº ÑĢÐµ
Ð¸ÑĩÐµÑģÐº Ð¸
ĠÐº Ð»Ð°ÑģÑģ
Ðļ Ð°ÑĤ
ĠÐ¿ Ð¾ÑĢ
ĠÑģ Ð¸Ð»
Ð¾Ðº ÑĢÐ°ÑĤ
ĠÐ³ Ð´Ðµ
Ð¾ÑģÑĤ Ð¾Ñĩ
ĠÐ¿ ÑĥÑĤ
Ð¿ Ð¾Ð´
Ðŀ Ñģ
ĠÑĤÐµ Ð¾ÑĢ
ĠÐ¿ÑĢÐ¾ Ð¸Ñģ
ĠÑģÐ¾Ð² ÑĢÐµÐ¼ÐµÐ½
ĠÐ¿ Ð°Ð¼
ĠÑģÐ» ÑĥÑĩ
ĠÑĢÐµ Ð³
ÐºÐ° Ñħ
ĠÐ°ÑĢ ÑĤ
Ð¡ ÑĤ
ĠÑĨ ÐµÑĢ
Ñī Ñĳ
ĠÑĪ Ðº
ĠÐŁ ÐµÑĤ
ÑģÑĤ ÑĢÑĥ
Ð° ÑİÑĤÑģÑı
Ñģ Ñĭ
ÑĤ Ð¾Ð²
ĠÐ´ Ð¾Ð¼
Ð½Ð¸Ð² ÐµÑĢÑģ
ĠÑģÑĤ ÑĢÐ¾
Ð¾Ð» Ð¶
ĠÐ¸ ÑģÑģÐ»ÐµÐ´
ĠÐ¿Ð¾ Ñĩ
ĠÐº Ð½Ñı
2 4
Ð¾Ð½ Ðµ
ÐµÑĢ Ðµ
Ñĭ Ð²Ð°
Ñĩ Ð¸Ð½
ÑģÐº Ð¾
Ð¼Ð¸ ÑĢÐ¾Ð²
Ġ B
ĠÑĩÐ°ÑģÑĤ ÑĮ
Ð¸ÑĢÐ¾Ð² Ð°Ð½
19 5
ĠÐ½Ðµ Ð·
ÑģÑĤ ÑĢÐ°
I X
ĠÑĥ Ð´
ĠÐ¼ Ð°ÑģÑģ
ÑĢ Ñĳ
Ġ â
ĠÐ´ Ð¾Ðº
ĠÑĤ ÑĢÐ°Ð½
Ñĭ Ð¼Ð¸
ĠÐ° Ð´
ĠÐ´Ð² Ð¸Ð¶
Ñı Ð¼
ÑĪ ÐµÐ¹
ĠÐ¼Ñĥ Ð·Ñĭ
ĠÐ²Ðº Ð»ÑİÑĩ
ĠÐ¿ÐµÑĢÐ² ÑĭÐ¹
ÐµÑĢ Ð¸Ð¸
ĠÑĥ ÑĤ
ĠÑģ ÐµÐ±
h e
ĠÐ¿ Ð¾Ð½
ĠÐ¸Ð· Ð±
Ð½ Ð¸Ñħ
Ð¸ÑĤ ÐµÐ»ÐµÐ¹
Ð² Ð°Ð½
Ñĭ Ð½
ÑģÑĤÐ²ÐµÐ½ Ð½Ð¾
ĠÑģ ÐµÐ²ÐµÑĢ
Ð¸ÑģÑģ ÑĳÑĢ
ĠÐļ Ð¾ÑĢ
ĠÐ¿ÑĢÐ¾ ÑĨ
ÑĢ ÑĮ
ĠÐĵ ÐµÑĢÐ¼
ĠÑĩ Ð»ÐµÐ½
Ð°Ð² Ð¸ÑģÐ¸Ð¼
Ð°Ð»Ð° ÑģÑĮ
ĠÐ¼ Ð¾Ð´
ÑĪ Ð°Ñı
ÑĢÑĥ Ð¶
ĠÐ¿ÐµÑĢÐ¸ Ð¾Ð´
ĠÐ¸Ð· Ð´
ĠÐ¾Ñģ Ð¾Ð±
Ðº Ð°Ð½
ĠÐº Ð°ÑĤ
ĠÐ²Ð¾Ð· Ð¼Ð¾Ð¶
Ð¾Ð± Ð¾Ð´
ÐºÐ¾Ð² Ð¾Ð´
ĠÑĤ Ð¸Ð¿
ÐµÑĢ Ð¾Ð²
ĠÑģ ÐµÐ¼
ÑħÐ¾Ð´ Ð¸ÑĤ
ĠÐ³ ÐµÐ½ÐµÑĢÐ°
ĠÑħ Ð°ÑĢÐ°ÐºÑĤ
ĠÐ°Ð² ÑĤÐ¾ÑĢ
2 8
ĠÐ±Ñĭ ÑĤÑĮ
Ð¸Ðº Ð¾Ð²
ĠÐ¾ Ð½Ð¸
ĠÐ¸ ÑĤ
ÑĢ Ð¾ÑģÑĤÑĢÐ°Ð½
ÑģÑĤ Ð¾Ñı
ĠÐ¡Ð¾Ð² ÐµÑĤ
Ð´ Ñĭ
ĠÐļ Ð°ÑĢ
ĠÑĩ ÐµÑĢÐµÐ·
ĠÐ²ÑģÐµ Ñħ
ÐµÐ¼ Ñĥ
ĠÑģÑĤ Ð¾Ð»
ĠÐ³ Ð¾Ð»
ÑĮ ÐµÑĢ
ĠÐ¾ Ð³
Ðł Ð¾Ð´
Ð¸ÑĨ Ñĭ
ĠÐ³ Ð¾ÑĢ
ĠÑĤ Ð¾Ñĩ
3 0
Ð»Ð¾ Ñī
Ñħ ÑĢÐ°Ð½
ĠÐ» Ð¸ÑĤÐµÑĢÐ°ÑĤ
ÐºÐ° Ð´ÐµÐ¼
ÑĪÐµ Ð³Ð¾
ÐµÑģÐ¿ ÑĥÐ±Ð»Ð¸
Ġ19 0
Ð² Ð°ÑĤ
ĠÐº Ð¼
2 7
ĠÐ· Ð²
Ð²Ð¾Ð» Ñİ
ĠÐ¿ÑĢ Ð¾Ð¼
ÑĢÐ¸ÑĤ Ð°Ð½
ÑĮ Ðµ
ĠÐº Ð½Ð¸
ĠÐºÐ° ÑĩÐµ
ĠÐµ Ð²
ÑĢÐ°Ð· Ð´
ÑĭÑĤ Ð¸Ñı
ĠÐľ Ð°ÑĢ
ÑĨÐ¸ Ð¿
Ð ¯
Ð½Ð¸Ð²ÐµÑĢÑģ Ð¸ÑĤ
Ð¸Ð± Ð»Ð¸
Ġ1 4
2 6
ĠÑģÐ¾Ð¾ÑĤ Ð²ÐµÑĤ
Ð³ Ð¾ÑĢ
Ð¾Ð» Ð¾ÑĤ
ĠÐ½ Ð¸Ñħ
ĠÑĤÐµÐ°ÑĤ ÑĢÐ°
Ð¾Ð»Ð¾Ð³ Ð¸Ð¸
Ð½ ÐµÐ²
Ð°ÑĢ Ñħ
ĠÐ± Ð¾Ð³
Ð·Ñĭ Ð²
ÑĢÐ¸ Ð¸
Ð½Ðµ Ð³Ð¾
ĠÐ¸ÑģÐº ÑĥÑģ
i t
Ð»Ð° ÑģÑĮ
ĠÐ¾ÑĤ Ð´
Ñģ Ðµ
Ñĭ Ñĩ
ÐµÐ» ÐµÐ½Ð¸Ðµ
ĠÐ´ ÐµÐ½ÑĮ
ĠÑĦÑĥÐ½ Ðº
Ñĥ Ð»Ð¸
Ġ ÑĢÐ¸
Ġ( Â«
ĠÐ¼ ÐµÐ´
Ð¾Ð± Ñī
Ð² Ð¾
ÑģÑĤ ÑĢÐµ
ĠÐº Ð¾ÑĤ
Ð¾Ð¶Ð´ ÐµÐ½Ð¸Ñı
ÑĭÑĪ Ð»ÐµÐ½
Ð´ Ñĥ
ÑĢÐ¸ Ð¼ÐµÑĢ
Ð»Ð¸ Ð¼Ð¿
ĠÐł Ð¾ÑģÑģÐ¸Ð¹
Ð¾Ñģ Ð»Ð°Ð²
2 9
ĠÑĢÐµ Ð¶
ĠÑĦÑĢÐ°Ð½ÑĨÑĥÐ· ÑģÐºÐ¸Ð¹
ĠÐ°ÑĢÑĤ Ð¸ÑģÑĤ
ĠÐ½Ð°Ð¿ ÑĢÐ°Ð²
ĠÑĢÐ° Ð²
ĠÑĢ Ð¾Ð´
ĠÑģ Ð¾Ð´
Ð ¦
ĠÐĿ Ð¾Ð²
ĠÐ²ÑĢÐµÐ¼ ÐµÐ½Ð¸
ĠÐĴ ÐµÐ»Ð¸Ðº
ĠÐ¾ÑĤÐºÑĢÑĭ ÑĤ
ĠÑĤ Ñĭ
ÐµÐ½ Ð½ÑĭÐ¹
ĠÐ¿ ÐµÐ²
ĠÐł ÐµÑģÐ¿ÑĥÐ±Ð»Ð¸
Ð°Ðº Ñģ
ÑĦ Ð°
ĠÐ° Ð»
ĠÑĥÑģÑĤ Ð°Ð½Ð¾Ð²
ĠÐ· Ð°ÑĤ
Ð¸Ð· Ð¼Ð°
Ð» ÑģÑı
ĠÐ¼Ð¾Ð¶ Ð½Ð¾
ĠÐºÐ¾ÑĤÐ¾ÑĢ Ð¾Ð¹
Ð»Ð¸ ÑĤ
Ð² Ð¸Ð½
ĠÑĩÐ°ÑģÑĤ Ð¸
ÐµÑĢ Ð¾
ĠÐ» Ð¸ÑĪ
Ð´ Ð¾Ð²
ĠÑĥ Ð±
Ð¿ Ð¿
ĠÐ³ÑĢÐ° Ð¶Ð´Ð°Ð½
ÑĢÐ¸ÑģÑĤ Ð¸Ð°Ð½
Ð» Ñĥ
Ð± Ð°
ĠÐ²ÑĭÑģ Ð¾Ðº
ÐŁÐ¾Ñģ Ð»Ðµ
ĠÐ´ ÑĢÐµÐ²
ĠÐ³ Ð°Ð·
ĠÑĥ Ð³
ĠÐ½ÐµÐ· Ð°Ð²Ð¸ÑģÐ¸Ð¼
ĠÑħÐ°ÑĢÐ°ÐºÑĤ ÐµÑĢ
ÑģÑı ÑĤ
ÑĢÑĥ Ð·
Ð¸Ð¹ ÑģÐºÐ¸Ð¹
ĠÐ³Ð¾Ð´Ð° Ñħ
ÑĢÑĳ Ñħ
ĠÐ´ Ð°
Ð¸ÑĩÐµÑģÐº Ð¾Ðµ
ÑģÑı Ñĩ
ĠÐ°Ð¼ÐµÑĢÐ¸ÐºÐ°Ð½ ÑģÐºÐ°Ñı
ĠÐ²Ð¾Ñģ ÑģÑĤ
ÐŁ ÐµÑĢÐ²
ĠÐ½Ð° ÑĥÑĩ
Ð°Ð»Ð¸ Ð·
ĠÐ¿ÑĢÐ¸ Ñģ
ĠÑĢÐµ Ð»Ð¸
Ð¸Ð»Ð° ÑģÑĮ
ÐµÑĢ ÐµÐ´
ĠÑĢÐ° ÑģÑģ
Ð ĸ
ĠÑģÐ¿ Ðµ
ÐŁÑĢÐ¸ Ð¼ÐµÑĩ
ÑĳÐ½ Ð½ÑĭÑħ
ĠÐ³ ÑĢÐ°Ð½
e l
ĠÐĿ Ð°
ĠÑĢÐ°ÑģÐ¿ ÑĢÐ¾ÑģÑĤÑĢÐ°Ð½
Ñĩ Ð¸Ñģ
ÑģÑĤÐ²ÐµÐ½ Ð½Ð¾Ð¹
ĠÐºÐ¾Ð¼Ð¿ Ð¾Ð·
ĠÐĴ Ð»Ð°Ð´
Ð½ ÑĮ
ĠÑĤ ÑĢÐ¸
Ð¾Ð³Ð»Ð°Ñģ Ð½Ð¾
ĠÐ¶Ð¸Ð· Ð½Ð¸
Ð¸ÑĤ Ð¾ÑĢ
ĠÐ½ ÐµÐ´
Ð»Ð°ÑģÑĤ ÑĮ
Ðº Ð¸Ñħ
ĠÐ² Ð¾Ð¿
ĠÐºÐ¾Ð» Ð¸ÑĩÐµ
ÐµÐ³ Ð¾ÑĢÐ¸Ñı
ĠÑħÑĥÐ´ Ð¾Ð¶
ĠÑĦ ÑĥÑĤ
ĠÐ¡ ÐµÐ²ÐµÑĢ
Ð¸Ð½ ÑģÐºÐ¸Ð¹
ĠÑģÐ¿ Ð¾ÑģÐ¾Ð±
ĠÐº Ð¾Ð³Ð´Ð°
ÑĢ Ð¾ÑĤ
ĠÑĥ ÑĢÐ¾Ð²
ÑĦÐ¸ ÑĨÐ¸Ð°Ð»ÑĮ
Ð¿ ÑĢÐ°Ð²
Ð°Ð½ Ð¸Ð¹
ÐµÐ² Ð°
Ġ1 3
ÐŁÑĢÐ¸Ð¼ÐµÑĩ Ð°Ð½Ð¸Ñı
ĠÐ¼ Ð¸ÑĢÐ¾Ð²
ÐµÑĢ Ñĭ
ÐµÐ½ Ð½ÑĭÑħ
Ġ .
ĠÐ¼ Ð¾Ð»
Ñı Ð¶
ÑģÑĤÐ²ÐµÐ½ Ð½ÑĭÐ¹
Ñħ Ð°Ð½
ĠÐ·Ð°Ð½ Ð¸Ð¼
ĠÐ¿Ð¾Ð¼ Ð¾Ñī
ĠÑĥ Ð½Ð¸Ð²ÐµÑĢÑģÐ¸ÑĤ
ĠÐ½Ð° ÑĨÐ¸Ð¾Ð½Ð°Ð»ÑĮ
ÑĢÐ° Ð±
ÐµÐ» Ð¾
ĠÑĤ Ð¾ÑĢ
ĠÐ¿Ð¾Ð´ Ð´ÐµÑĢÐ¶
ĠÐ» Ð¸Ð½
Ġ D
Ñĥ ÑģÐº
Ðµ Ð»Ð°
ĠÐ¿Ð» Ð°Ð½
ĠÑģÐ¾ ÑħÑĢÐ°Ð½
ĠÐ¸ÑģÐ¿Ð¾Ð»ÑĮÐ· Ð¾Ð²
ÑģÑĤÐ² Ð¾Ð²
ÑĦ Ð¾ÑĢÐ¼
ĠÐº Ð¸Ð½
Ð» ÑĥÐ¶
ĠÐº Ð°Ð½
ĠÑģÐ¸ÑģÑĤÐµÐ¼ Ñĭ
ÑĥÐ»Ñı ÑĢ
ÐµÐ»Ð¸ Ñĩ
Ġ L
Ð²ÐµÑĢ Ð¶Ð´
Ð¾ÑģÑĤ Ð¾Ðº
ĠÐ¿ÑĢÐ¸Ð½ ÑıÑĤ
ĠÐ³Ð¾Ð´ Ñĭ
ĠÐ´Ð² ÑĥÑħ
ĠÐ½ÐµÐ¼ÐµÑĨ ÐºÐ¸Ð¹
ĠÑĩ ÑĤ
Ðµ Ð¶Ð´
ÐµÐº ÑģÑĤ
ĠÐ»Ñİ Ð±
ĠÑıÐ²Ð»Ñı ÑİÑĤÑģÑı
ĠÐ· Ð°Ð´
ĠÐµ ÑīÑĳ
ĠÑį Ð½
ĠX V
Ð» Ð°Ð½
ĠÐ²Ñĭ Ð¿
Ð¾Ðµ ÐºÑĤ
ÐļÐ°ÑĤ ÐµÐ³Ð¾ÑĢÐ¸Ñı
ĠÑĩ ÐµÐ¼
Ðĺ Ð·
Ð¸Ð± Ð¾Ð»ÐµÐµ
Ð¾ÑĢÐ° Ñı
ÑĦÐ¾ÑĢ Ð¼Ð°
ĠÑģÐ¾Ð´ ÐµÑĢÐ¶
ÑĢÐ° ÐºÑĤ
ĠÐ¼ ÐµÐ½
Ð°Ð»ÑĮ Ð½Ð¾Ð¹
Ġ18 9
ĠÐ¾ÑĢÐ³Ð°Ð½ Ð¸Ð·Ð°
ĠÑĢÐ°ÑģÐ¿ Ð¾Ð»Ð¾Ð¶
ĠÑĥÐ¿ ÑĢÐ°Ð²
ĠÐ¿Ð¾Ð» Ð¾Ð¶
Ð¡ Ð¾Ð±
Ð°Ð»ÑĮ Ð½ÑĭÑħ
Ð´ ÐµÐ½
ÑģÐº Ð¸Ð¼Ð¸
Ħ ĸ
Ð¼ Ð¾ÑĤ
ĠÐ¿ÑĢÐ¾ÑĨ ÐµÑģÑģ
ĠÑĤ ÐµÐ¼
Ð»ÐµÐ¼ ÐµÐ½ÑĤ
Ð»Ð¾Ñī Ð°Ð´
Ġ R
Ñĥ ÐµÑĤÑģÑı
Ð¾Ð² Ð°ÑĤÐµÐ»ÑĮ
ĠÐ¶ ÐµÐ»Ðµ
Ð½Ð¸ ÑĨÐ°
ĠÐ¸Ð· Ð¾Ð±
Ð´ Ð¾
ĠÑĥ Ð¶Ðµ
ĠÐ½Ð° Ð±
Ð¸ÑĤ ÐµÐ»Ñı
Ñģ ÐµÐ´
ĠÐ´ Ð²Ð°
ÐµÐ» ÐµÐ¼
Ð» ÑĥÐ±
ĠÑĩÐ¸Ñģ Ð»Ðµ
ĠÐ¼Ð¸ ÑĢÐµ
ĠÐ´ Ð¾ÑĢ
ÑĤ Ñĭ
Ð¾ÑĢ ÑĥÐ¶
ĠÐº Ð²
ÑģÑĤÐ¸ÑĤ Ñĥ
Ð°ÑĤ ÐµÐ»Ñı
ĠÑĢÐµÐ·ÑĥÐ»ÑĮÑĤ Ð°ÑĤÐµ
Ð»Ð° Ð¼ÐµÐ½ÑĤ
Ð¸ Ñī
ĠÑĢÑĥ ÐºÐ¾Ð²Ð¾Ð´
ĠÑĩÐµÐ»Ð¾Ð² ÐµÐºÐ°
Ð¾ÑĢ Ð¾Ð²
ĠÐ½ÐµÑģÐº Ð¾Ð»ÑĮÐºÐ¾
ĠÐ² Ðµ
ĠÐ¸ÑģÑĤÐ¾ÑĢ Ð¸Ð¸
ĠÐºÐ¾ÑĤ Ð¾ÑĢÐ°Ñı
Ð¾Ð¿ Ð¸Ñģ
ĠÑģÑĤ Ð°ÑĤ
ĠÐ¼Ð» Ð½
ĠÐºÐ¾Ð¼ Ð°Ð½Ð´
ĠÐ´ ÐµÑĤ
ĠÐ³Ð¾Ð´ Ð¾Ð²
ĠÐ¾Ð±ÑĬ ÐµÐºÑĤ
Ñĥ ÐºÐ°
ÑĨ Ð¸ÐµÐ¹
Ñį Ð½
ÐµÐ² Ð¸Ñĩ
e t
ĠÐ¿ÑĢÐ¾Ð´ Ð¾Ð»Ð¶
Ð°ÑĤ Ð¾Ð²
ĠÐ¾ÑĤÐ½Ð¾ Ñģ
ĠÑĤ ÑĭÑģ
Ð» Ð¾Ð½
Ð³ Ð»Ð°
ĠÐ£ ÐºÑĢÐ°
ĠÐ¸Ð¼Ðµ ÐµÑĤ
ĠÐº Ð°Ð·
Ðŀ ÑĤ
ÑģÐºÐ¾Ð¼ Ñĥ
ĠÑģÐ» ÑĥÐ¶
II I
ĠÐ· Ð´
ĠÐ¶ ÐµÐ½
ĠÐ² Ð½Ðµ
Ð½ Ð°Ð¼
Ð° ÐµÐ¼
19 0
00 0
Ð°Ð»ÑĮ ÑıÐ½
ĠÐ²ÑģÐµ Ð³Ð¾
ĠÐ´ÑĢÑĥÐ³ Ð¸Ðµ
Ð³ Ðµ
Ð¸ÑĤ Ð°Ð¹
ĠÐłÐ¾ÑģÑģÐ¸Ð¹ ÑģÐºÐ¾Ð¹
ĠÑģ Ð¾Ð»
ĠÐ¡ Ð²
Ð°Ð»ÑĮ Ð½ÑĭÐµ
ĠÐºÐ¾ÑĤÐ¾ÑĢ Ð¾Ð³Ð¾
ÑĦ ÑĦ
Ð¸Ð» Ð¾ÑģÑĮ
ĠÐ¼ÐµÑģÑĤ Ð¾
ÐŀÐ´ Ð½Ð°ÐºÐ¾
Ð»ÐµÐ½ Ñĭ
Ñģ Ñĥ
ĠÐ¼Ð¾Ð³ ÑĥÑĤ
ĠÐ¸ Ñģ
ĠÑĥÑĩ Ñĳ
ĠÐ¼Ð°ÑĤ ÐµÐ¼Ð°ÑĤ
Ñĳ Ð²
ĠÑĢÐµ ÑģÐ¿
ĠÐ¿ÑĢÐ¾Ð¼ ÑĭÑĪÐ»ÐµÐ½
ĠÐ¾ÑĤ Ð»Ð¸Ñĩ
ÑĨ ÐµÐ½
ĠÐĲ ÑĦ
ĠÑĪÐº Ð¾Ð»
Ġâ Ħĸ
Ġ F
Ð°Ð»ÑĮ Ð½Ð¾
Ð¾Ð½ Ð´
ĠÐ¾Ð±ÑĢÐ°Ð· Ð¾Ð¼
ĠÐł Ð¸Ð¼
r o
ĠÐ² Ð½ÑĥÑĤ
ĠÐ¡ Ð¾Ñİ
ĠÐ²Ð¾Ð¿ ÑĢÐ¾Ñģ
ÑĢÐ¾Ð¼ Ðµ
ĠÑģ Ð¼ÐµÑĢ
ĠÑģÐ² Ð¾Ð¹
ĠÐ± ÑĢÐ¸ÑĤÐ°Ð½
ĠÑģÐ¾Ð² ÐµÑĢÑĪ
Ð°Ð½ Ð¸Ñİ
ĠÐ¸Ð½ Ð´
s t
ĠÐºÐ°ÑĩÐµ ÑģÑĤÐ²Ðµ
Ð½Ð° Ð´
ÑĢÐ¸ Ñħ
ÑĪ Ð¸Ð¼
ÑĢ Ð¾Ð»
Ñı Ñģ
ĠÑģÐ²ÑıÐ· Ð¸
ÐĴ Ð¾
ÐµÐ½ Ð½ÑĭÐµ
ĠÐºÐ¾Ð¼Ð¿Ð¾Ð· Ð¸ÑĤÐ¾ÑĢ
Ġ G
ÑĳÐ½ Ð½ÑĭÐµ
ÑĢÐ¸ Ð´
Ð¸Ñı Ñħ
ĠÐ² Ð»Ð°ÑģÑĤÐ¸
ÑīÐµ Ð³Ð¾
ĠÐ³Ð¾ÑģÑĥÐ´Ð°ÑĢ ÑģÑĤÐ²Ð°
ÐŀÑģ Ð½Ð¾Ð²
ĠÐ¼ÐµÐ¶Ð´ ÑĥÐ½Ð°ÑĢÐ¾Ð´
Ðµ ÑĪ
ĠÐ¿Ð¾ ÑıÐ²
ĠÐ°Ð½ ÑĤ
Ð¸ÑĤ ÐµÐºÑĤ
Ð± Ð¾
Ð¾Ð² ÑĭÑħ
Ñı Ð±
ĠÐľ Ð¸Ñħ
ĠÑĢÐµ Ð²Ð¾Ð»Ñİ
ĠÑĢÐµÑģÐ¿ ÑĥÐ±Ð»Ð¸
ĠÐ³ÑĢÑĥÐ¿Ð¿ Ñĭ
ÑĢÐ¸ Ñı
ĠÐ¸Ð· Ð¼ÐµÐ½
ÑģÑĤÐ² Ñĥ
ĠÑĤÑĭ ÑģÑıÑĩ
Ð½Ñı Ñı
ĠÑį Ð»ÐµÐ¼ÐµÐ½ÑĤ
i on
ĠÑģÐ¾Ð¾ÑĤÐ²ÐµÑĤ ÑģÑĤÐ²
Ð¾Ð»Ð¾Ð³ Ð¸Ñı
ĠÐ¿Ð°Ð¼ ÑıÑĤ
Ð» Ð°ÑĤ
ÑĢÐ°Ð½ Ð¸Ñĩ
ĠÐ¿ÑĢÐ¸ Ð¼ÐµÐ½
ĠÐ° ÐºÐ°Ð´ÐµÐ¼
Ð¾Ð· Ñı
ÐµÐ½ Ð³
ĠÐ² Ð»Ð¸
ĠÐ¸ Ð´Ðµ
ĠÐ¶ ÑĥÑĢ
Ð»Ð¸ ÑģÑĮ
ÐµÑĢ ÐµÐ²
Ð¾Ð´ Ðµ
Ð¾ÑĢ ÑĤÐ°
Ġ N
Ð¾Ð¼ Ð¸Ð½
o l
ĠÐ²Ð¾Ð· Ð´
Ð» ÐµÑĢ
Ð¿ Ð¾Ñģ
. :
Ð¼ Ð¸ÑĤ
ÑģÐ¿ Ð¾ÑĢÑĤ
ĠÑĥÑģ Ð»Ð¾Ð²
Ġ 0
Ðº Ð¾Ð³Ð¾
ĠÑģÐµÐ± Ñı
ÐµÑĢÐ² ÑĭÐµ
ĠÐ¾Ð´ Ð½Ð°ÐºÐ¾
Ð³ Ð¾ÑĤÐ¾Ð²
ĠX X
ÐµÐ½ Ð½Ð¾Ð¹
ĠÐ¿ÑĢ Ð¾ÑģÑĤÑĢÐ°Ð½
Ġ d
ÑģÑĤ Ð°Ð½
ĠÐ¾ Ð½Ð°
Ðĺ ÑģÑĤ
ĠÐ¸ÑĤ Ð°Ð»ÑĮÑıÐ½
Ð¡Ð¾Ð± ÑĭÑĤÐ¸Ñı
ÐŃ ÑĤÐ¾
Ð½ ÐµÐ¼
ĠÐ¾Ð¿ Ð¸Ñģ
ĠÐ¸Ð¼Ð¿ ÐµÑĢÐ¸Ð¸
ĠÐ´ Ð¾Ð±
ĠÑĥ Ð¼
ĠÐ¿ Ð»Ð¾ÑīÐ°Ð´
ĠÐºÐ½Ñı Ð·
ĠÐ»Ð¸ÑĪ ÑĮ
ĠÐ·Ð°Ð¿ Ð°Ð´
ĠÐ¸Ð¼Ð¿ ÐµÑĢÐ°ÑĤÐ¾ÑĢ
ĠÐ·Ð°Ðº Ð»ÑİÑĩ
ĠÐ¸Ð½ÑĤ ÐµÑĢ
Ñĩ ÑĳÑĤ
ĠÐ¤ÑĢÐ°Ð½ ÑĨÐ¸Ð¸
ĠÐ²Ð¾Ð¹ ÑģÐº
Ð°Ð»Ð¸ Ð½
ĠÐ¿Ð¾ÑģÑĤ ÑĢÐ¾
ĠÑģ Ð¸Ð¼
ĠÐ³Ð¾ÑĢÐ¾Ð´ Ðµ
ĠÐ¸ Ð³
ĠX IX
ĠÑįÑĤ Ð¾Ð¹
ĠÐ¾ ÑĦÐ¸ÑĨÐ¸Ð°Ð»ÑĮ
Ñĥ Ð²
Ð°Ð¿ Ð°Ð´
ĠÑģÑĤ Ð°Ð½
ĠÐ¿ ÐµÑģ
ĠÑĩÑĤ Ð¾Ð±Ñĭ
ĠÑĢÐµ ÑĪ
Ð°Ð¼ Ð±
Ð½ ÑĤ
ĠÑģ Ð¾Ð·
Ð¾ÑĢ Ð¾Ð½Ñĭ
ĠÐ´ ÑĢ
ĠÑħ Ð¸Ð¼
Ð°ÑĤ ÐµÐ»ÐµÐ¹
Ð¸Ð´ ÐµÑĢ
ĠÐ¼ Ð½Ð¾Ð³Ð¾
ĠÑĪ Ð¸ÑĢ
ĠÑģÐ²Ð¾ ÐµÐ¹
Ð¾ÑĢ Ðµ
ĠÐ¿ÑĢÐ¸ ÑĢÐ¾Ð´
ĠÐº ÑĢÐ¸ÑĤ
ĠÐ² Ð¼ÐµÑģÑĤ
ĠÑģÐ² Ð¾Ð±Ð¾Ð´
Ġ H
ĠÑĢ ÑıÐ´
Ð°Ð½ Ð¸ÐµÐ¼
ÐµÐ½ÑĤ Ð°
Ñģ ÐµÑĢ
ĠÐ¼ Ð¸ÑĢ
Ð¾ÑģÑĤ Ð¾
ĠÑģÐ¾ Ñİ
ĠÐ¿ÑĢ Ð¾Ð±
Ð³ Ð¾ÑĢÐ¾Ð´
ĠÐ´ Ð¾Ð³
ĠÐ²Ñĭ ÑģÑĤÑĥÐ¿
ĠÐºÐ° Ð¶Ð´
5 0
ĠÐĲ Ð·
Ġ18 8
Ð¾Ð´ Ð¾ÑĢ
ÑģÑĤÐ²ÐµÐ½ Ð½Ð¾Ð³Ð¾
Ñı Ñħ
Ð°ÑĤ Ð¸Ð²
ĠÑģÐ¾Ð± Ð¾Ð¹
Ð¸Ð½ Ñĥ
ĠÐ¿Ð¾Ð´ Ð¿Ð¸Ñģ
ĠÑĤ ÐµÐ¼Ð¿
ĠÐĿÐ¸Ðº Ð¾Ð»
ĠÐ¾Ð± ÑĭÑĩ
ĠÑıÐ·Ñĭ Ðº
ĠÑį Ð¿
ĠÐ½Ð° Ð·Ð½Ð°Ñĩ
Ġ/ /
ĠÐĲ Ð»ÑĮ
Ð¸Ð» Ð»Ð¸
ĠÐĲÐ½ Ð´
Ð»Ð¸ Ð²
Ð°Ð»ÑĮ Ð½ÑĭÐ¹
âĢ ¦
ĠÐ¿Ð¾Ð· Ð²Ð¾Ð»
ÐĶ Ð»Ñı
Ñĩ Ð¸Ðº
ĠÐ¼Ð½ Ð¾Ð¶Ðµ
Ð¾ÑĤ Ð°
ĠÐº ÑĢÐ°
Ð¾Ñı Ð½
ÑĨ ÐµÐ½Ð°
ÑĢÐ°Ð² Ð½
ĠÐ¾Ð±ÑĬ ÑıÐ²
Ð¾Ð» Ð¸ÑĤ
Ð° Ðµ
ĠÐ² ÐµÐ´
ĠÐ¿Ð¾Ð± ÐµÐ´
ĠÐ½ Ð¸
ĠÑĦ Ð¾ÑĢ
Ð¾Ð² ÑģÐºÐ¸Ð¹
ĠÐ¡ Ð°Ð½
Ð¾Ð·Ñı Ð¹
Ð¶ ÐµÐ½
Ðµ ÑĦ
ĠÐ° ÑĤ
ĠÐ¾Ð¿ ÐµÑĢÐ°
ĠÑħÑĥÐ´Ð¾Ð¶ Ð½Ð¸Ðº
Ð¾Ð½ ÑĤ
ĠÑıÐ·Ñĭ ÐºÐ°
Ñĥ Ð°
ĠÑħ ÑĢÐ¸ÑģÑĤÐ¸Ð°Ð½
Ð·Ð° Ð¸Ð¼
ĠÑĥ Ð²
ĠÐ¿ÑĢ Ð¾ÐµÐºÑĤ
ÑıÑĤ ÑģÑı
ĠÐºÐ¾ÑĢ Ð¾Ð»ÑĮ
ĠÐł ÑĥÑģ
ĠÐ³Ð¾ÑģÑĥÐ´Ð°ÑĢÑģÑĤÐ²ÐµÐ½ Ð½ÑĭÐ¹
ĠÐ°ÐºÑĤ Ð¸Ð²
ĠÐ½Ð°Ð·Ð² Ð°Ð½Ð¸Ðµ
ÑĢÐµ ÑģÑĤ
Ð° ÑĥÑĢÐµ
Ð¾Ð² ÑĭÐµ
ĠÐº Ð¾
Ð¸ÑĩÐµÑģÐº Ð¸Ð¼
ĠÐĺ Ð·
ĠÑģÐº Ð¾ÑĢ
ĠÐ³ Ðµ
ĠÑĢÐ° Ð´Ð¸
ĠÑĦÑĥÑĤ Ð±Ð¾Ð»
ĠÐ¿ÑĢÐµÐ´ Ð¿ÑĢÐ¸
ĠÑįÑĤ Ð¾ÑĤ
Ð´ ÐµÐ¹
ĠII I
l e
ĠÐ´ Ð¾Ð¿
ÑİÑī Ð¸Ñħ
Ð»Ðµ Ð¶
ĠÐ¿ÑĢÐµÐ¼ Ð¸Ð¸
ĠÐ² Ð¾Ð»
ĠÐ¤ ÐµÐ´ÐµÑĢÐ°
ĠÑģÐ» Ð¾Ð¶
ÑĥÑĤ ÑģÑĤÐ²
ĠÑģÑĤÑĢÐ¾ Ð¸ÑĤÐµÐ»ÑĮ
ĠÐ´Ð¾ÑĢ Ð¾Ð³
ĠÐ¿ ÑĢÐ°ÐºÑĤ
ĠÑģÑĤ Ð°ÑĢ
ÐĹ Ð°
ÐµÐ¹ Ð½
ĠÐ° ÑģÑĤ
Ñģ Ð¸Ñħ
ĠÐ½Ðµ Ð±
ÑĥÑĩ ÐµÐ½Ð¸
ĠÐ¼Ð¸Ð½ Ð¸ÑģÑĤ
ĠÐ¿Ð°ÑĢ Ð»Ð°Ð¼ÐµÐ½ÑĤ
ĠÐł Ð¡
Ð¼ ÐµÐ½Ð¸
Ð½Ð¾ Ñģ
ĠÐ¿ÑĢÐ¸ Ð²
ĠÐ°Ð½Ð³Ð»Ð¸Ð¹ ÑģÐºÐ¸Ð¹
Ñı Ð¼Ð¸
r e
ĠÐ¿ Ð°ÑĢÐ°
Ðº Ð°Ð¼Ð¸
ÐµÑĤ ÑĮ
ĠÐ¿ÑĢÐ¾ ÑĪ
ĠÐ°ÑĢÑħ Ð¸ÑĤÐµÐºÑĤ
Ñģ Ð¾Ð½
ÑĨÐ¸ Ð°Ð»Ð¸ÑģÑĤ
ÑĦ ÐµÑģÑģ
ĠÐ½Ðµ Ð¾Ð±
ĠÑģÐ¾ÑģÑĤÐ°Ð² Ð»ÑıÐµÑĤ
ĠÑģÐ¾ÑģÑĤÐ°Ð² Ð»Ñı
Ð½Ð° Ð»Ð¸
ĠÐ¾Ñģ ÑĥÑīÐµÑģÑĤÐ²
Ð³Ð¸ Ð¾Ð·
18 9
u s
ĠÐ¾Ð±ÑĬ ÐµÐ´Ð¸Ð½
ĠÐ± Ð»Ð°Ð³
ĠÐ½Ð°Ð¿ ÑĢÐ¸Ð¼ÐµÑĢ
Ñĥ Ñį
ĠÐ±Ð¾Ð»ÑĮÑĪ Ð¸Ð½
ĠÐ¿ ÑĥÐ±Ð»Ð¸
Ð¾ÑĤ Ñı
ĠÐ´ ÑĢÐ°
ÐµÑģÐ¿ ÐµÑĩ
Ð»Ðµ Ðº
ĠÑĢÐ°Ð· ÑĢÐ°Ð±Ð¾ÑĤ
ĠÐ°Ð² Ð¸
Ð°Ð¼ ÑıÑĤÑĮ
ÑħÐ¾Ð´ Ð¸Ð¼
ĠÐĲÐ»ÐµÐºÑģÐ°Ð½Ð´ ÑĢ
Ðµ ÑĩÐµ
Ð°Ð»ÑĮ Ð½Ð¾Ð³Ð¾
Ð¾Ð» Ð¾Ð²
ĠÐ¼ÐµÑĤ Ð¾Ð´
ĠÐĵ ÐµÑĢ
ĠÐ²Ñĭ Ð±Ð¾ÑĢ
ĠÐ¾Ð¿ÑĢÐµÐ´ ÐµÐ»
Ġ E
Ð» ÐµÐ½Ð¸Ð¸
Ð»ÐµÐ½ Ð°
ÑİÑī Ð¸Ðµ
ĠÑĥÑĤ Ð²ÐµÑĢÐ¶Ð´
ÑģÑĤÐ²ÐµÐ½ Ð½ÑĭÑħ
ÐµÐ½ ÐºÐ¾
ĠÐº Ð¾ÑĢÐ°
ĠÐ²Ð¾Ð· Ð½Ð¸Ðº
ÑģÑĤ Ð°Ð½ÑĤ
ĠÑģ ÐµÐº
ÑĪ ÐµÐµ
ĠÐ·Ð° Ñģ
a s
ÑģÑĤÐ¸ÑĤ ÑĥÑĤ
ĠÑĢÐ° Ð½
ÑĨ Ðµ
ĠÐµ ÑģÐ»Ð¸
ĠÑģ Ñĭ
ĠÑģÐ² Ð¾Ðµ
ĠÐ¾ Ð»Ð¸Ð¼Ð¿
ÑĢÐ° Ð¼
ĠÑģ Ð¸Ð½
Ð°Ð´ Ð°
ÑĢÐ°ÑĤ Ð¸Ð²
ÑĢÑĥ Ð³Ð°
ÑĮ ÑİÑĤ
Ðŀ Ð½
ĠÑĦ Ð¸Ð»ÑĮ
ĠÑģÐ² ÑıÑĤ
Ġ18 7
ĠÐ°Ð² ÑĤÐ¾Ð¼
ĠÐ¼ Ð°Ð³
ĠÑģÐ²Ð¾ Ñİ
ĠÐ² Ð·Ð°Ð¸Ð¼
Ð¸Ð¼ Ð¸ÑĢ
ĠÑĤ ÑĢÑĳÑħ
Ð¾ÑĢ ÑĮ
Ð¡ ÑĢÐµÐ´
ĠÐ²Ñĭ Ð±
Ð¤ Ð¡Ðł
Ð¾ÑģÑĤ Ð°Ð²
ĠÐĽ ÐµÐ½Ð¸
o m
ĠÐ²Ñĭ Ð¿Ð¾Ð»
ĠÑĤ ÐµÐºÑģÑĤ
ĠÑĤÐ¾ÑĢ Ð³Ð¾Ð²
Ðµ Ñı
ĠÐ¿ÑĢÐµ Ð²
ÑĢÐ¸ Ð·
ĠÐľ Ð°ÑĢÐ¸
Â °
ĠÐ´ ÐµÐ¼
ÑĢÐ¾Ð¿ ÐµÐ¹
ĠÑĤ ÑĢÑĥÐ´
ÑģÑĭ Ð»
ĠÐ²Ð¾Ð¹ Ð½Ð°
Ð°Ð» Ð¾Ð²
ĠÑģÑĤ ÐµÐ¿
ĠÑĪÐ¸ÑĢ Ð¾Ðº
Ð¾Ð± ÑĢÐ¸ÑĤ
ĠÑĨ ÐµÐ»
ĠÐ³ÐµÐ½ÐµÑĢÐ° Ð»
Ð°Ð» Ð¾Ð³
ĠÑģÑĤ Ð¾ÑĢÐ¾Ð½
ÐµÑĢÑħ Ð¾Ð²
c h
ĠÑĢÐ¸ Ð¼
ÐµÐ»Ðµ Ð²
ĠÐ°ÑĢÐ¼ Ð¸Ð¸
ĠÑĤ ÑĢÐµÐ±
ĠÑģ ÑĨÐµÐ½Ð°
ĠÑĤÐµ Ñĩ
Ð¡ ÐºÐ¾Ð½Ñĩ
ĠÐ½Ð° ÑģÑĤÐ¾Ñı
Ð¾Ð· Ð½Ð°Ñĩ
ĠÐ² Ð°Ð¶
ÑĢÐ¸ ÑĩÐµ
ĠÐĹ ÐµÐ¼
Ð¼Ð°ÑĤ ÑĢÐ¸
ĠÐ¾Ð± ÐµÑģÐ¿ÐµÑĩ
Ð½ Ð¸ÑĤ
ÑĪÐ¸Ðµ ÑģÑı
ĠÐ± ÐµÐ»
Ð°Ð½ Ð½ÑĭÐµ
ĠÐĵÐµÑĢÐ¼ Ð°Ð½Ð¸Ð¸
Ð¾Ð² ÐµÐ´
Ð° Ñī
ÐĽ Ð¸ÑĤÐµÑĢÐ°ÑĤ
ĠÐ¿ Ð¾Ð»ÑĮÐ·
ĠÑĤÐµÑħ Ð½
Ð°ÑĥÑĢÐµ Ð°ÑĤ
Ġ t
ÑĪ ÑĤ
ÑĢÑĥ ÐºÑĤ
ÑĢÐµ ÑģÑģ
ĠÐ° Ð±
Ġ1 2
ĠÑģÑĢÐµÐ´ Ð¸
ĠÐ³ ÑĢÐµ
Ðļ Ð¾Ð½
ĠÐº Ð°Ð¼
ĠÐłÐ¡ Ð¤Ð¡Ðł
Ñĥ Ð¶Ð´
ĠÐ¸Ð¼ ÐµÐ½Ð¸
ĠÐĺ Ð½Ð´
ĠÐ¾Ð´ Ð½Ð¾Ð¹
X X
Ð¸ÑĤ ÐµÐ»Ð¸
ĠÐ¿ÑĢÐ¸ Ð·Ð½
ĠÐ¿ÑĢÐ¾Ð¸Ð· Ð²ÐµÐ´
ĠÐ·Ð° Ñħ
ÑĢÐµ Ð¶Ð´
ĠÑģÑĤ Ð°Ð»Ð¸
ĠÐ¿ÑĢÐµÐ¼ ÑĮÐµÑĢ
Ġ3 0
ÐµÐ½ Ðµ
ĠÑĤÐµÐ¼Ð¿ ÐµÑĢÐ°ÑĤ
ĠÐ¾ÑĤ Ñģ
ĠÐĽ Ñĥ
Â» )
Ð ®
Ð¸Ðº Ñĥ
ĠÐ²Ð¸Ð´ Ðµ
Ð¸Ðµ Ð²
ÑĥÐ¼ ÐµÐ½ÑĤ
Ð¡ÐºÐ¾Ð½Ñĩ Ð°Ð»Ð¸ÑģÑĮ
ĠÐ± ÐµÑĢ
ĠÐ²Ð¿ ÐµÑĢÐ²ÑĭÐµ
ĠÐ½Ð°Ñĩ Ð°Ð»Ðµ
ĠÐ¿ÐµÑĢÐµÐ² Ð¾Ð´
ĠÐ¼Ð°ÑĤ ÐµÑĢÐ¸
ÑĢÐµ Ð¿
ĠÐ²Ð¾Ð¹ ÑģÐºÐ°
Ð°Ð½ Ðµ
ĠÐľ Ð¸Ð½
Ð¸ ÑĨÐ¸Ð¸
Ñĳ ÑĤÐ°
ĠÑĢÐ°Ð±Ð¾ÑĤ Ñĭ
Ðº Ð²Ð¸
Ð¾ÑĢ Ð²
ĠÑģ Ð¾ÑĤ
Ġ( )
ĠÐĽ Ñİ
ĠÑģÐ»ÐµÐ´ ÑĥÑİÑī
Ð¿ Ð¸ÑģÐº
Ð³ÑĢÐ° Ð´
ÐµÐº Ñģ
ĠÐ±Ñĭ Ð²
ĠÐ® Ð¶
Ð¼ ÑĥÐ½
ÑĥÐ± ÐµÑĢÐ½
ĠÐ¿ÑĢÐ¸ Ð½Ñı
Ġ ÑĢÐµÐ´
ĠÐºÐ¾ÑĢÐ° Ð±
ÑĢÐ° ÑģÑĤ
ĠÑģ Ð¸Ð»ÑĮ
Ð°Ð»Ð¸ Ð¸
ĠÐ± Ð¸
Ð¾Ð½ Ð°Ð²
ÐµÐ½ Ñģ
ĠÐļ Ð°Ð·
ÑĢÐ°Ð¶ ÐµÐ½Ð¸Ðµ
ĠÐ¿ Ð¾ÑĢÑĤ
Ġ18 6
ĠÐ¾ÑĤÐ´ ÐµÐ»ÑĮ
r a
Ðº Ð¾ÑĢ
ĠÐĳ Ð¾Ð³
Ð´Ðµ Ð»Ñı
ĠÐ» Ð°ÑĥÑĢÐµÐ°ÑĤ
ÑıÑĤ Ð¸Ñı
ÐĶ Ð¾
Ð°Ð» Ñĭ
ĠÐ¿ÑĢÐ¸ Ð·
ĠÐ¸Ð· ÑĥÑĩ
u n
ĠÑĦ Ð¸Ð½
ĠÐ½Ð°ÑĢÐ¾Ð´ Ð½ÑĭÐ¹
ĠÐ¿ÑĢÐ¾Ð± Ð»ÐµÐ¼
ĠÑģÑĤ Ð°Ð½Ð¾Ð²
Ġ -
Ð° ÑĢÐ°ÑĤ
ĠÑĦ Ð¾ÑĤ
Ð½Ð¸Ðº Ð¾Ð¼
ĠÐ´Ðµ Ð¿
ĠÑģÑĤÑĢÐ°Ð½ Ðµ
Â» ).
Ð¾ ÐµÐ´Ð¸Ð½
Ð½Ð¾ÑģÑĤ ÐµÐ¹
Ñĳ Ð·
ĠÐ¿ÑĢÐ¸ Ð¼ÐµÑĢ
ĠÐ½ ÐµÐ¹
ĠÐ´ Ð¸Ð½
Ð°Ð½ ÑĮ
ĠÐ³ Ð¾Ð²Ð¾ÑĢ
ĠÐ» ÐµÐ³
ĠÑģÐ¾ Ð¾Ð±Ñī
Ð± Ð¸ÑĤ
ĠÑįÑĤ Ð¸Ñħ
ĠÑģÑĨÐµÐ½Ð° ÑĢÐ¸ÑģÑĤ
ĠÐĲ Ð±
ĠÐ½ÐµÐ¾Ð± ÑħÐ¾Ð´Ð¸Ð¼
Ð°Ð½ ÑģÐºÐ¸Ð¹
Ð½Ð¸ Ñĩ
ÑģÑĤ ÑĢÐ¾
ĠÐ¿ÑĢÐ¾Ð² Ð¾Ð´
ĠÐ¿Ð°ÑĢÑĤ Ð¸Ð¸
ÑĢÐ¸ Ð½
ĠÐ¿ÑĢÐµÐ´ Ð»Ð¾Ð¶
ĠÐ½Ð° Ð¸Ð±Ð¾Ð»ÐµÐµ
Ñı ÐµÑĤ
Ð¾Ðº Ð°
Ðº Ð°ÑĤ
ÐµÐ¶ Ð¸ÑģÑģÑĳÑĢ
Ð° Ð³Ð°
ÐĽÐ¸ÑĤÐµÑĢÐ°ÑĤ ÑĥÑĢÐ°
ĠÐ¸Ð½ ÑĦÐ¾ÑĢÐ¼Ð°
Ð¿Ð¸ÑģÐº Ð¾Ð¿
Ð» Ñĭ
ĠÐĶ ÐµÐ½ÑĮ
ĠÑĤÐµÐ¾ÑĢ Ð¸Ð¸
ĠÑĥ ÐºÐ°Ð·
ĠÐ´Ð° Ð¶Ðµ
Ð» Ð¾ÑĢ
Ð¸Ð± Ð¸ÑĢ
ÐµÑģÑĤ Ð¸
ĠÑģÐ¾ ÑĨÐ¸Ð°Ð»ÑĮ
Ð°ÑĢ Ð¾Ð²
Ð°Ð½ Ðº
ĠÐ¾ ÐºÐ¾Ð½Ñĩ
ĠÐļ ÑĢÐ°Ñģ
ĠÐĺ Ð²
ĠÑģ Ð¾Ñĩ
Ð¸Ð½ Ð¾Ð²
ĠÐĺ ÑĤ
Ð¸ÑĤÑĮ ÑģÑı
ÐµÑĢ ÐµÐ¶
ÑģÑĤÐ²ÐµÐ½ Ð½ÑĭÐµ
ĠÑģÑĤ Ð°Ð»Ð°
18 8
Ð¾ ÐµÐ²
ĠÐĴÐµÐ»Ð¸Ðº Ð¾Ð±ÑĢÐ¸ÑĤ
ĠÐ¼ Ð¾Ð¼
Ð± Ðµ
ĠÑĥ ÐºÑĢÐ°
ÐµÐ· Ð´
Ðµ Ð¾ÑĢ
Ð¢Ð°Ðº Ð¶Ðµ
ĠÐº ÑĥÑĢ
ĠÐ² ÑģÑĤÑĥÐ¿
ÐµÑĢÐ± ÑĥÑĢÐ³
ĠÑįÐ½ ÐµÑĢÐ³
ĠÑģ Ð¾Ð¿
i l
Ð¾Ð· Ð³Ð»Ð°
ĠÐŁ ÑĢÐµ
ĠÐµ Ð¼Ñĥ
ĠÐĳ ÐµÐ»
ÑĥÑģ Ð°
Ġ2 5
ĠÐ¿ Ð¾Ð»ÑĮ
ĠÐ° Ð»ÑĮ
ĠÐºÐ¾ÑĤÐ¾ÑĢ Ð¾Ð¼
ĠÐ¼Ðµ ÑħÐ°Ð½
ĠÑĪ ÑĤ
Ð°Ð½ Ñģ
ĠÐĴ Ð°Ñģ
ÑİÑī Ð¸Ð¹
ĠÐ¿Ð¸Ñģ ÑĮ
ĠÐ¼ÐµÐ½ ÐµÐµ
ĠÑģÐ²Ð¾Ðµ Ð³Ð¾
Ð¾Ñģ Ð»Ð¾Ð²
ĠÐ½Ð°Ð± Ð»Ñİ
ÑĤ ÐµÑĢ
Ñĩ Ð¸Ð²
ĠÐ¼ ÑĥÐ·
ĠÐºÑĢÑĥÐ¿ Ð½ÐµÐ¹
ĠÑĩÐ¸Ñģ Ð»Ð¾
ÑĥÐ¼ Ð°
Ð¿ ÑĤ
ÑĢ Ð´
ĠÑĢÐ° Ð±
ĠÐ¾ÑĤÐ½Ð¾ ÑĪÐµÐ½Ð¸Ñı
Ð¾Ð» ÑĳÑĤ
ĠÑı Ð²
ĠÐ» Ð¸Ð±
Ð°Ð½ Ð½ÑĭÑħ
ĠÐĹ Ð°Ð¿Ð°Ð´
ĠÐ½Ð°Ð¿ Ð¸Ñģ
ĠÐ·Ð½Ð°Ñĩ Ð¸ÑĤÐµÐ»ÑĮ
ĠÑģÐ²Ð¾ Ð¸Ñħ
ĠÐ²ÐµÐº Ðµ
ĠÑĩ ÐµÑĤÑĭ
ÑģÑĤÑĢÐµ Ñĩ
ĠÐ¿ ÑıÑĤ
ĠÑıÐ·Ñĭ ÐºÐµ
Ð°Ð² ÑĪÐ¸Ð¹
o f
ĠÐ¸ÑģÑĤ Ð¾Ñĩ
ĠÐ¾ ÑģÑĤÐ°Ð²
ĠÐ¿Ð¾Ð» Ð¾Ð²
Ð° Ð¸Ð»
ÐŁ ÐµÑĤ
ĠÐĽ Ðµ
ĠÐ³ÑĢÐ° ÑĦ
Ð² ÐµÐ¹
ĠÑĩÐ¸Ñģ Ð»Ð°
ĠÑĤÑĢÐ° Ð´Ð¸
Ð°ÑĤ ÐµÐ»Ð¸
ĠÐ¿ÑĢÐ¾Ð¸Ð· Ð¾ÑĪ
ĠÐĺ ÑģÐ¿
ÑĤ Ñĥ
ĠÐ¸Ð¼ Ñı
ÐłÐ¾Ð´ Ð¸Ð»Ð¸ÑģÑĮ
Ð°ÑİÑī Ð¸Ñħ
Ð¾Ð² Ð°Ñı
Ġ W
ĠÐļ Ð¾Ð¼
ĠÐ³ ÐµÑĢ
Ð»ÐµÐ´ ÑģÑĤÐ²
ĠÐ¿ÑĢÐ¾Ð¸Ñģ Ñħ
ĠÐ¡Ð¾Ñİ Ð·Ð°
Ð°ÑģÑĤ ÑĢÐ¾
ĠÐ¾ÑĤÐ½Ð¾ ÑĪ
ĠÐ²ÑĤÐ¾ÑĢ Ð¾Ð¹
ĠÐĲ Ð»
ĠÐĳ ÐµÑĢ
ĠÐ½Ð°Ñĩ Ð°Ð»Ð°
ĠÐ´Ðµ Ð»Ð°
ÑģÐº Ðµ
ĠÐ¸Ð¼Ðµ ÑİÑĤ
Ð½ Ð°ÑĢ
ĠÐ±ÑĥÐ´ ÐµÑĤ
Ð³ Ð¸Ð¿
ÑĳÐ½ Ð½ÑĭÐ¹
ĠÑģÐ»Ð¾Ð² Ð°
ÐµÐ¶Ð´ ÑĥÐ½Ð°ÑĢÐ¾Ð´
Ð¿ ÑĢ
ĠÐ» ÐµÑģ
ĠÐłÐµÑģÐ¿ÑĥÐ±Ð»Ð¸ ÐºÐ¸
ĠÑģÐ¸ÑģÑĤÐµÐ¼ Ð°
Ðº Ð°Ñı
Ð± ÑĥÑĢÐ³
ĠÑĦÑĥÑĤÐ±Ð¾Ð» Ð¸ÑģÑĤ
Ð¾Ð¼ ÐµÑĤ
Ð¾Ñģ Ð¾Ð²
ĠÑİ Ð¶
ĠÐ½ Ð¸Ð·
ĠÐ½Ð°ÑħÐ¾Ð´ Ð¸ÑĤÑģÑı
Ð» ÐµÐ½Ð¸ÐµÐ¼
ĠÐ² ÑħÐ¾Ð´
ĠÐ¿ÑĢÐ¸Ð½ ÑĨÐ¸Ð¿
ĠÐºÐ¾Ð½ÑĨ Ðµ
ĠÐ°Ð´ Ð¼Ð¸Ð½Ð¸ÑģÑĤ
Ðº Ð¸Ð½
ĠÐ²Ð½ÑĥÑĤ ÑĢÐµÐ½
Ð½ Ñİ
Ġ1 1
Ð¡ Ð°Ð¼
ĠÐ²Ñĭ ÑħÐ¾Ð´
ĠÐ·Ð° Ñī
ĠÐ¿Ð¾Ð³ Ð¸Ð±
ĠÑģÐ¾Ñİ Ð·
ĠÑĦ Ð¾Ð½
Ð¸ÑĨ Ðµ
ĠÐ´ ÐµÑĢÐµÐ²
ĠÑĢÐ° ÑģÑĤ
ÐºÐ° Ð»ÑĮ
an d
ĠÐ¶ÐµÐ½ Ñī
ĠÑģ ÐµÐ»ÑĮ
Ð¿ Ð°Ð´
Ð½Ðµ Ñģ
ÐµÐ½ Ð½Ð°Ñı
ĠÑĤÑĢÐ°Ð½ ÑģÐ¿Ð¾ÑĢÑĤ
ÑĢ Ðº
ĠÐ¿ ÐµÐ´
in g
ĠĠ ĠĠ
ĠÐ´Ð²Ð¸Ð¶ ÐµÐ½Ð¸Ñı
ĠÐ¿ ÑģÐ¸Ñħ
ĠÑĩ Ð°Ñģ
ÐŁ ÑĢÐ°Ð²
ÑĢÑĥ ÑĪ
ĠÑĢÐµÐ³ Ð¸Ð¾Ð½
ĠÐ¿Ð¾Ðº Ð°Ð·
Ġ% ,
Ð³ Ð¾Ð´
ĠÐ² ÐµÑĢÑģ
Ñĩ Ð°ÑģÑĤ
ĠÐ½Ðµ Ñģ
Ð¿ Ð¾
ĠÐ½Ð° Ñĥ
Ð»Ðµ Ð³
ĠÑĢÐ°Ð¹ Ð¾Ð½
Ð¸ÑĤ Ð¾Ð²
ĠÐ¿ÑĢÐ°Ð²Ð¸ÑĤÐµÐ»ÑĮ ÑģÑĤÐ²Ð¾
ĠÐ¤ÐµÐ´ÐµÑĢÐ° ÑĨÐ¸Ð¸
ÐµÐ½ Ð½Ð¾Ð³Ð¾
ĠÑģ ÑĥÐ±
Ð¸ÑĩÐµÑģÐº ÑĥÑİ
ĠÐºÐ¸Ð½ Ð¾ÑĢ
ĠÐ½ ÐµÐ²
ĠÐ¸ÑģÐ¿ Ð¾Ð»Ð½
Ð°Ð³ Ð¾Ð³
Ð°Ð»ÑĮ Ð½Ð°Ñı
ĠÐķÐ²ÑĢÐ¾Ð¿ Ñĭ
ĠÐ³ Ð»Ð°
ĠÐĴ Ñģ
Ð² Ð¸Ð¶
Ð°Ðº Ð¾Ð²
ĠÑĩÐ°ÑģÑĤ Ð½Ð¾ÑģÑĤÐ¸
ĠÐ» Ð¸Ñĩ
ĠÐ¡ ÐµÑĢÐ³
ĠÐ¿ÑĢÐ¾Ð² Ð¾Ð·Ð³Ð»Ð°
ÐµÑĤ Ðµ
ĠÐºÐ¾ÑĤÐ¾ÑĢ Ð¾Ðµ
ĠÐ¯ Ð¿Ð¾Ð½
ĠÐ¿ÐµÐ² Ð¸ÑĨÐ°
ĠÑģÐ»ÑĥÑĩ Ð°Ðµ
ÑĳÑĤ ÑģÑı
Ð» Ð¾ÑģÑĮ
Ð°Ð»Ð¸ Ð·Ð°
ĠÐ¾Ñģ Ð²
ÑģÑĭÐ» ÐºÐ¸
Ð¸ Ð»Ñı
ĠÐ° ÑĤÐ¾Ð¼
ĠÐ¿ÑĢÐ¾ ÑĦÐµÑģÑģ
Ð¾Ð²Ð°Ð½ Ð¸ÐµÐ¼
u r
ĠÐľÐ¾ÑģÐº Ð²Ðµ
ĠÑĥÐ² ÐµÐ»Ð¸Ñĩ
Ð» Ð¾Ð³
ĠÑĨÐµÑĢ ÐºÐ¾Ð²
ĠÐºÐ¸Ð½Ð¾ÑĢ ÐµÐ¶Ð¸ÑģÑģÑĳÑĢ
ĠÐ¾ ÐºÐ°Ð·
ĠÐļ Ð°Ð½
ĠÑĢÐµÐ¶ Ð¸ÑģÑģÑĳÑĢ
Ð° ÑĦ
ĠÐļÐ¾Ð½ ÑģÑĤÐ°Ð½ÑĤ
Ð± Ð¸
ĠÐĵ Ð¾ÑģÑĥÐ´Ð°ÑĢ
ĠÑĩÐ°ÑģÑĤ Ð¾
ĠÑĢ Ñĭ
ĠÐ¾Ñĩ ÐµÐ½ÑĮ
ĠÐ² Ð²ÐµÐ´
ĠÐ¿ÑĢÐµÐ·Ð¸Ð´ÐµÐ½ÑĤ Ð°
ÑĢÐµ ÑĤÑĮ
ĠÐ± Ð°Ð·
ĠÐĳ Ð¾ÑĢ
ĠÐ¸ÑģÐº Ð»ÑİÑĩ
ĠÐ¼ Ð°ÑĪ
ĠÐ¿Ð¾ÑģÑĤ Ð¾ÑıÐ½
ĠÐ½Ðµ ÑĦ
ĠÐŁ ÐµÑĢ
ĠÐ¿ÑĢÐµ Ð¿Ð¾Ð´
ĠÐ½Ð°Ñĩ Ð°Ð»
ĠÐ¡Ð¾Ð² ÐµÑĤÐ°
ÐĲ Ð²
ĠÐ¸ÑĤÐ°Ð»ÑĮÑıÐ½ ÑģÐºÐ¸Ð¹
ĠÐ¾Ð³ ÑĢÐ°Ð½Ð¸Ñĩ
3 1
Ð¾Ð´Ð¾ÑĢ Ð¾Ð¶
ĠÐ· Ð°Ñı
Ġ p
ÑıÑĤ Ð¸Ðµ
ĠÐ½Ð°Ñĩ Ð°Ð»Ð¾
ĠÐ¼Ð¾ÑĢ Ñı
Ð¡ Ð¾Ð³Ð»Ð°ÑģÐ½Ð¾
e d
ÐŁ Ð¾Ð´
ĠÐ¢ Ð¾Ð¼
Ġ =
ĠÐ·Ð°ÑĤ ÐµÐ¼
ĠÐ´ Ð¸Ð¿
ĠÐ²Ð½Ðµ ÑĪ
i a
ĠÑĢÐ°Ð·Ð²Ð¸ÑĤ Ð¸Ñı
ĠÐ²Ð¾Ð· Ð²
ĠÐ² ÑģÑĤÑĢÐµÑĩ
ĠÐ¾ ÐºÐµ
ĠÐº Ð°ÑĢ
ĠÑĤÐµ Ð¿
ĠÐºÐ¾Ð»Ð¸ÑĩÐµ ÑģÑĤÐ²Ð¾
ĠÐ¦ ÐµÐ½ÑĤ
ĠÐ¿ÑĢÐ¾Ð² ÐµÐ´
ĠÐ½ÐµÐºÐ¾ÑĤÐ¾ÑĢ ÑĭÑħ
Ð°ÐºÑģ Ð¸Ð¼
Ġ âĢ
Ð¾ Ð°Ð½
ĠÐ´ ÑĥÑħ
ĠÑı Ð´
ĠÐ² ÑĢÐ°
ĠÐ¼ Ð¸Ð»Ð»Ð¸
ĠÐºÐ¾Ð» Ð¾Ð½
4 0
Ð°Ð½ Ð½ÑĭÐ¹
ĠÐĵ ÐµÐ½
Ġ200 0
. )
Ðº ÑĢÐ°ÑĤ
ĠÐ¿ÑĢ Ð¾ÑģÑĤ
ĠÑģÑĤ ÑĢÑĥÐºÑĤ
ÐµÐ½ÑĤ Ð¾Ð²
ÑĢÐ¾Ð½ Ð¾Ð¼
ĠÐ² Ð¾Ðº
Ðº Ð¸Ðµ
Ð°Ð½ Ð³
ĠÐ¿Ð¾Ñĩ ÑĤÐ¸
Ð»Ð° Ð´Ð°
Ġ201 0
Ð° ÑĨÐ¸Ð¸
ĠÐŁ Ð°Ð²
ĠÑģÐ¾ ÐµÐ´Ð¸Ð½
ĠÑĢÐ¾ÑģÑģÐ¸Ð¹ ÑģÐºÐ°Ñı
Ð¾ÑĢ Ð¾ÑĤ
ĠÑį ÑĤÐ°
ĠÑģÐ¿Ðµ ÑĨÐ¸Ð°Ð»ÑĮ
Ð¾Ð»ÑĮ ÐºÑĥ
Ðł Ð°Ð·
ĠÑħ Ð¾Ð·ÑıÐ¹
Ð¸Ð½ ÑģÐºÐ¾Ð¹
Ð´ Ð°Ð¼
ĠÐ´Ð¾Ð³ Ð¾Ð²Ð¾ÑĢ
Ð¸Ñģ ÑĮ
Ñı Ð²Ð»Ñı
Ġ +
ĠÐ¿ÐµÐ´ Ð°Ð³Ð¾Ð³
ĠÑĥ ÑģÐ¿
Ð´Ðµ ÑģÑĮ
ÐŃ ÑĤ
ÑĢÐµ Ñģ
ĠÐ± Ð¾ÑĢÑĮ
ÑĦÑĦ ÐµÐºÑĤ
ĠÐŀ Ñģ
ĠÐ»Ñİ Ð´ÐµÐ¹
Ð¾Ñģ Ð¿
Ð°Ðº Ð¾Ð½
Ð¸ÑĩÐµÑģÐº Ð¾Ð¼
ĠÑħ Ð¾Ð´Ðµ
ĠÐ± Ð¸ÑĤ
ÑĢÐ¸ ÑĢÐ¾Ð²
ĠÐ° Ñį
ĠÐ¾Ð± ÑıÐ·
Ð¾Ð³ÑĢÐ°ÑĦ Ð¸Ñı
ĠÐ¿ÑĢÐ°Ð²Ð¸ÑĤÐµÐ»ÑĮ ÑģÑĤÐ²Ð°
ĠÑģÑĤ Ð¾ÑĢÐ¾Ð½Ñĭ
ĠÐ²Ñģ Ñĳ
Ð» ÐµÐ½Ð¸Ð¹
ĠÐ¾ÑĤ Ð¼ÐµÑĩ
Ð½ Ð¸Ñı
ĠÑĢ Ð¾Ð»ÑĮ
Ð»ÐµÐ½ Ð¾
18 7
ÑĢ Ð¾Ð·
ĠÐ´ Ð°Ð²
ĠÐ¿ÐµÑĢÐ² Ð¾Ð¹
ĠÐ´Ð² Ð¾ÑĢ
ĠÐŀ Ð±
ÑĥÑİÑĤ ÑģÑı
en t
ĠÑĨÐµÑĢ ÐºÐ²Ð¸
Ð¾Ñģ Ð°
ĠÐ¾Ð¿ÑĢÐµÐ´ ÐµÐ»Ñı
Ð¾Ð² ÑĭÐ¹
ĠÐľ Ð°Ðº
ÑĢ Ð¾Ð±
Ð½Ð¸ ÑĨ
ĠÐ´ ÐµÐ»
ĠÐ¸ÑģÑĤÐ¾ÑĢ Ð¸Ðº
ĠÐ¶Ð¸Ð² Ð¾ÑĤ
Ð¾Ð² Ð¾Ð³Ð¾
ĠÐ²Ð¼ÐµÑģÑĤ Ðµ
ĠÐ´Ð¸Ð¿ Ð»Ð¾Ð¼
ÐĲ ÑĢ
ĠÑħ Ð¾ÑĢ
ĠÐ¿ÐµÑĢÐµ ÑħÐ¾Ð´
ĠÑĢÐµÐ»Ð¸ Ð³Ð¸Ð¾Ð·
Ð¾ÑĢÐ° Ñħ
ĠÑĨ Ð°ÑĢ
ĠÑģÑĤ Ð°ÑĤÑĮ
ĠÐ· Ð¾Ð»Ð¾ÑĤ
ĠÐ°Ð² ÑĤ
Ð¸Ð´ Ð°
ĠÐ²Ðµ ÑīÐµ
Ð»Ð°Ð² ÑıÐ½
a m
ÐĲ Ð½
ĠÑĢ Ð¾Ð¼
ÑĪ Ð»Ð¸
18 6
ĠÑģÑĤÑĢÐ° Ð½Ð°
Ñĥ ÑĢÑĥ
Ð¾Ð´ ÐµÐ¹ÑģÑĤÐ²
Ð¸Ñģ Ð°
ĠÐ³ ÑĥÐ±ÐµÑĢÐ½
Ð»Ð¸ Ð¹
ÑĢ ÐµÐ½Ð¸Ñı
ĠÐ½Ðµ Ð³Ð¾
Ġ199 0
Ð¶ Ð¸
Ð½Ð°Ð´ Ð»ÐµÐ¶
Ð»Ð° Ð¼
ÑĨÐ¸ ÑģÑĤ
ĠÐ¸Ð½ ÑģÑĤÐ¸ÑĤÑĥÑĤ
ĠÐ¾Ð± Ð¾Ð·Ð½Ð°Ñĩ
ĠÐºÑĥÐ»ÑĮÑĤ ÑĥÑĢ
ĠÐ¼ Ð°Ð»
Ð¡ ÑģÑĭÐ»ÐºÐ¸
Ñĩ Ð¸
Ð¾Ðº Ñģ
Ð¼ Ð¾Ð½
ÑĨ Ð¸Ðº
Ð°ÑĤ Ð¾Ñĩ
ĠÐ¾ÑģÐ½Ð¾Ð² Ðµ
Ð°ÑģÑģ Ð°Ð¶
Ð¾Ð± ÐµÐ»ÐµÐ²
ĠÐĴ Ð¸Ðº
ĠÐ¾Ð´ Ð½Ð¸Ð¼
ĠÐ¾ÑģÐ½Ð¾Ð² Ð½Ð¾Ð¼
ĠÐ½Ð° ÑĥÐº
ĠÑģÐ¸Ð¼ Ð²Ð¾Ð»
ĠÐ¿ÑĢ Ð¾Ð¿
ĠÐ³Ð»Ð°Ð² Ðµ
Ġ O
ÑĢÐ°Ð¶ ÐµÐ½Ð¸Ñı
ĠÐ¼Ðµ ÑģÑı
ĠÐ²Ð»Ð¸ ÑıÐ½
Ð¸Ð² ÑĪÐ¸ÐµÑģÑı
ĠÐ¿ÑĢÐµÐ´ Ð¿Ð¾Ð»
ÐµÑĢ Ð¸Ñı
ĠÐ´Ð°Ð½ Ð½ÑĭÐ¼
ĠÐ½ Ð¸Ðº
ĠÐĴÐ»Ð°Ð´ Ð¸Ð¼Ð¸ÑĢ
Ð°ÑĤ ÑĢÐ¸
ĠÑĤÐ°Ðº Ð¸Ñħ
Ġ |
ĠÐĴ ÐµÑĢÑħÐ¾Ð²
ĠÐ¾ÑģÑĤÑĢÐ¾Ð² Ð°
ĠÐ¾ Ñħ
ĠÐ· Ð½
ĠÑįÑĤ Ð¸
Ġ200 8
Ðº Ð°Ð½ÑĤ
Ðļ ÑĢÐ¾Ð¼Ðµ
ĠÐĳ Ð¾Ð»
Ð» ÑĥÑĩ
ĠÐ¶ÐµÐ»Ðµ Ð·
ĠÐ¿ÐµÑĢ ÐµÐ¼
Ð·Ð½ Ð¾Ð´Ð¾ÑĢÐ¾Ð¶
ĠÐ½Ð°Ð·ÑĭÐ²Ð° ÐµÐ¼
ĠÐ´ Ð°Ð»ÑĮ
ÐµÑĩ Ð°ÑĤ
ĠÐ´ÐµÐ¿ ÑĥÑĤ
ĠÐ¢ ÑĥÑĢ
Ð½Ð°ÑĢ ÑĥÐ¶
Ð½ ÐµÑĢ
ĠÐº Ð°Ð¿
ĠÐĴ ÐµÐ»Ð¸
Ð± ÑĢÐµ
ĠÑģÐ² ÑıÑī
ĠÐŀ Ðŀ
ĠÐ¼ ÑĥÐ¶
Ð°Ð»ÑĮ Ð½Ð¾Ðµ
ĠÐĿÐ¸ÐºÐ¾Ð» Ð°Ð¹
ĠÐ´ÑĢÐ° Ð¼Ð°ÑĤ
Ð» Ð¾Ð¿
Ðĳ Ð¾Ð»ÑĮÑĪ
Ð³ Ñĥ
ĠÐ±Ð¾Ð»ÑĮÑĪ Ðµ
ĠÐ· Ð½Ð°Ðº
ĠÐ¿Ð¾Ð» Ñı
Ġ201 1
Ð¾Ð» Ðµ
ĠÐ¾Ñĩ ÐµÑĢÐµÐ´
Ðļ Ð¾Ð¼
ĠÐ¸ Ð½Ð¾ÑģÑĤ
ĠÐ¿ÑĢÐ¸ Ð½Ð°Ð´Ð»ÐµÐ¶
ĠÐ¿Ð¾Ð»ÑĥÑĩ Ð¸Ð»
ĠÐļ Ð¾Ð»
Ð¸Ð² ÑĪÐ¸Ð¹
ĠÑĢÐ°Ð·Ð»Ð¸Ñĩ Ð½ÑĭÑħ
Ð¸Ð² Ð°ÐµÑĤ
ĠÐĴ Ð¾Ð»
ĠÑĥÑĩ ÑĢÐµÐ¶Ð´
Ð¸ÑģÑĤ Ð¾Ð²
ĠÐ²Ñĭ Ð´
ĠÑħ Ð¾ÑĤÑı
ĠÑĥ Ð»Ð¸
ĠÐ¼Ð¸ÑĢÐ¾Ð² Ð¾Ð¹
Ð¾Ð² Ð°Ð»
ĠÐĲÑĢ Ð¼
ÑĨ Ð¾Ð²
ĠÐ¾ÑĤ Ð¿ÑĢÐ°Ð²
ÑĥÐ±Ð»Ð¸ ÐºÐ¾Ð²
Ð¿ Ð°Ð¼ÑıÑĤÑĮ
ÑĥÐ´ Ð°
Ð°Ð½ Ð¸
âĢ Ļ
ĠÐ° Ðº
Ð¾Ñİ Ð·
Ð± Ñĥ
ĠÑģÐ² ÐµÑĤ
ĠÑģÐ¼ÐµÑĢ ÑĤÐ¸
ĠÐ¼Ð½Ð¾Ð³ Ð¸Ñħ
ÑĢÐ¸ Ð³
Ð» Ð¾Ðº
ĠÐĶÐ¶ Ð¾Ð½
ĠÐ£ÐºÑĢÐ° Ð¸Ð½Ñĭ
ĠÐ± Ð»Ð¸Ð·
ĠÐº ÑĢÐ°Ñģ
Ñı ÐµÑĤÑģÑı
ĠÐŁ Ð¾Ð»ÑĮÑĪ
Ð»Ðµ Ð²
ĠÐ¼Ð¸ ÑĦ
ĠÐ¿Ð» Ð°ÑĤ
Ñĳ Ð´
ĠÐ¿Ð¾Ð» ÑĳÑĤ
ĠÐµÐ² ÑĢÐ¾Ð¿ÐµÐ¹
Ð°Ð´ Ñĭ
ĠÐºÐ¾ÑĢÐ¾Ð» ÐµÐ²
ĠÐ¿ÑĢÐ¸ Ð²Ð¾Ð´
Ð²Ð° ÐµÑĤ
ÑĦÐ¾ÑĢ Ð¼Ð¸ÑĢÐ¾Ð²
ĠÑĦ ÐµÐ´ÐµÑĢÐ°
Ð½Ð°Ð»Ð¸ ÑģÑĤ
Ð¾ÑĤ Ñĭ
Ð¡ Ð¿
Ð¾Ð¿ Ð°Ñģ
ĠÐ½ ÐµÑĤ
ĠÐºÐ¾Ð½ Ðº
ĠÐ² Ð»Ð°ÑģÑĤÑĮ
ÑĪ Ð¸ÑĢ
ÐºÐ° Ð·ÑĭÐ²Ð°
ĠÐ·Ð° Ð¿ÑĢÐµ
ĠÐ¿Ð¾ÑĢ ÑıÐ´
ĠÑĤÐ°Ðº Ð¸Ðµ
ĠÐŁ ÐµÑĢÐ²
ĠÐ¼Ð½Ð¾Ð³ Ð¸Ðµ
Ð¸ Ð¾
ĠÐ¾ Ð·
ĠÐºÑĥÐ»ÑĮÑĤ ÑĥÑĢÑĭ
ĠÐ½ÐµÐºÐ¾ÑĤÐ¾ÑĢ ÑĭÐµ
ĠÑģ Ð¾Ñģ
ÑĳÐ½ Ð½Ð¾Ð¹
ĠÑįÐ¿ Ð¾Ñħ
Ð¾ Ð¸ÑĤ
ĠÐ¶Ð¸Ð² Ð¾Ð¿Ð¸Ñģ
Ð³ ÐµÐ»ÑĮ
ÑĨ Ð°Ð¼Ð¸
ĠÐ·Ð°Ð² ÐµÑĢÑĪ
Ġ1 00
ÑĩÐµ Ð¹
Ð¡ Ð¾Ð²
ĠÑĢÑĥ Ð±
ĠÑĢÐ°ÑģÑģ Ð¼Ð°ÑĤÑĢÐ¸
Ð°Ð» ÑĤ
ĠÐ´ Ð°ÑĤ
ĠÐ¿ÑĢÐµÐ´ÑģÑĤÐ°Ð² Ð»Ñı
ÑĨ Ð¾Ð³
ÑģÑĤ Ð¾Ð½
ĠÐºÐ¾Ð½ ÑģÑĤÐ¸ÑĤÑĥ
ĠÑĢÐµÐ»Ð¸ Ð³
Ð¾Ð¶Ð´ ÐµÐ½Ð¸Ðµ
ĠÐ¿ Ð¾Ð·Ð´
ÑģÑĤÐ²ÐµÐ½ Ð½Ð¾Ðµ
Ð»Ð¸ÑĤ ÐµÐ»ÑĮ
ĠÑĤÐµÑĩ ÐµÐ½Ð¸Ðµ
Ġ5 0
ĠÑıÐ·Ñĭ ÐºÐ¾Ð²
ĠÑĤ Ð²Ð¾ÑĢ
ĠÐ¿Ð¾Ð´ Ð³Ð¾ÑĤÐ¾Ð²
ÐĶ Ð¶
ĠÐ¿ÐµÑĢÐ² Ð°Ñı
Ð¸Ð±Ð»Ð¸ Ð¾ÑĤ
ĠÐ½Ð°ÑģÑĤÐ¾Ñı ÑīÐµÐµ
Ð² ÑĳÑĢ
ĠÐľÐ¾ÑģÐº Ð¾Ð²
ĠÑĢÐµ ÐºÐ¸
Ñİ ÑģÐµÑĢ
Ð£ Ð¼ÐµÑĢ
ÐµÐ½ Ð½
ĠÑģÐ¸Ð» Ñĭ
ĠÐ¼Ð¾Ð¼ ÐµÐ½ÑĤ
Ðķ ÑģÐ»Ð¸
ĠÐ¿ÑĢÐ¾Ð³ÑĢÐ°Ð¼ Ð¼
ĠÐ¿ÑĢÐ¸Ð½ Ð¸Ð¼
ĠÐ¿Ð¾Ð¿ ÑĥÐ»ÑıÑĢ
ÐĺÑģÑĤ Ð¾ÑĢÐ¸Ñı
ĠÐ² ÐµÑĢ
ĠÐ¿ÑĢ ÑıÐ¼
ĠÐ¾ÑĤ Ð²ÐµÑĤ
ÐŁ ÑĢÐµÐ´
Ð°ÑĢ Ñĭ
a c
ĠÐĲ Ð¼ÐµÑĢ
ĠÐ´Ð¸Ð¿Ð»Ð¾Ð¼ Ð°ÑĤ
i g
ĠÐĲÐ½ Ð³Ð»Ð¸
ĠÐ²Ð¸Ð´ Ð¾Ð²
ĠÐºÑĢÐµ Ð¿
Ð¸Ñĩ Ð°
Ð° ÑģÐ¿
ĠÐº Ð¸Ñģ
ĠÐºÐ¾ÑĢÐ¾Ð» Ñı
Ð¸Ñģ Ð¿
ĠÐ¾Ð± Ð½Ð°ÑĢÑĥÐ¶
ĠÐ¿Ð¾Ð¼Ð¾Ñī ÑĮÑİ
ÑģÑĤ Ðµ
ĠÑĦ Ð°ÐºÑĤ
ĠÐºÐ¾Ð½ ÑģÑĤÑĢÑĥ
ÐĴ Ñĭ
ÑĢ Ð¾ÑģÑĤ
Ðļ Ð°Ðº
Ð¾Ð» Ñı
Ġ200 7
ĠÐ¾Ð±ÑĭÑĩ Ð½Ð¾
Ñĥ ÐºÑĤ
ÐŁ ÑĢÐ¾
ĠÐ¿ÑĢÐµÐ´ ÑģÐµÐ´
Ð¸Ð½ ÑģÐºÐ¾Ð³Ð¾
Ġ2 4
ĠÐ¿ÐµÑĢ ÐµÐ¿
ĠÐ¡Ð² ÑıÑĤ
ĠÑģÑĤ Ð°Ð»Ð¾
ÑģÑĤÑĮ ÑıÐ½
7 8
Ð¸Ð·Ð° ÑĨÐ¸Ð¸
ĠÐ¸ Ð´
ÐµÐ· Ð´Ð°
ĠÐ¾ÑĢÐ³Ð°Ð½ Ð¸Ð·
ĠÐ² ÐµÐ»Ð¸
ĠÑģ Ð±Ð¾ÑĢ
ĠÑĤ ÑĢÑĥ
ĠÐŁ Ð°ÑĢÐ¸
ĠÑģ Ð¾Ð³Ð»Ð°
ĠÐºÐ¾Ð½ ÑĦ
ĠÐ¾Ð´ Ð½Ð¾Ð³Ð¾
ÑĢÐ° Ðº
ĠÐºÐ¾Ð¼Ð¿ ÑĮÑİÑĤ
ĠÐ± Ð¾Ð»
Ð½Ð° ÑģÑĤ
ĠÐ¾Ð´ Ð½Ð¾
ĠÐ¸Ð·Ð± ÑĢÐ°Ð½
Ġ J
ÑĪ ÑĳÐ»
ĠÐ¾Ð± Ð»Ð°ÑģÑĤ
ĠÐ½ Ð¾Ñģ
ĠÐ¸ÑģÐ¿Ð¾Ð»ÑĮÐ· ÑĥÐµÑĤÑģÑı
ĠÐ¿ÐµÐ² ÐµÑĨ
ÑģÐº Ð°Ð·
Ð³ ÐµÐ½ÑĤ
ĠÑĢ Ð¾ÑģÑĤ
ĠI V
ĠÑĤÐµÑĢ Ð¼Ð¸Ð½
u m
Ġ of
ĠÐ¼ ÐµÐ½ÑĮ
ĠÐ¿Ð¾Ð² ÐµÑĢÑħ
ĠÐ¡Ð¾Ð²ÐµÑĤ ÑģÐºÐ¾Ð³Ð¾
ĠÐ² ÐµÑĤ
Ð± ÐµÑĢ
ĠÐº Ð¸ÑĤÐ°Ð¹
ĠÐ·Ð°Ð² Ð¾Ð´
ÑĢ Ñİ
ĠÐ·Ð°Ñı Ð²
ĠÐ¿ ÑĢÐ°Ð·Ð´
ĠÐĴ Ð¾ÑģÑĤÐ¾Ñĩ
Ð° ÑĨÐ¸Ð¾Ð½
ĠÐ» Ð¸ÑĨ
ĠÐĴ Ð¸Ð»ÑĮ
ĠÐ·Ð½Ð°Ñĩ ÐµÐ½Ð¸Ðµ
ĠÐ²Ð¾Ð´ Ñĭ
ĠÐ¿ Ð°ÑģÑģÐ°Ð¶
Ð² ÑıÑī
ĠÐ» Ð°ÑĤ
ĠÐ´Ðµ ÑģÑıÑĤ
ĠÐ±ÐµÑĢ ÐµÐ³
Ð¼ Ð¾
Ġ c
Ġ199 1
ĠÐ²Ð¾ Ð¾ÑĢÑĥÐ¶
ĠÑģÐ¾Ð± ÑĢÐ°Ð½
Ð¾Ð· Ð°
ĠÑĪ Ð²ÐµÐ´
Ñĥ ÑģÑģ
ĠÐ¿Ð¾Ð» Ð½Ð¾ÑģÑĤÑĮÑİ
ĠÑĪÐºÐ¾Ð» Ñĭ
ÑıÐ± ÑĢÑĮ
ĠÐ¾Ð»Ð¸Ð¼Ð¿ Ð¸Ð¹ÑģÐºÐ¸Ð¹
Ð¾Ð´ Ð°ÑĢÑı
Ð»Ð¸ Ñı
Ð¸Ð¹ ÑģÐºÐ¾Ð³Ð¾
Ð¸Ð· Ð°Ð½ÑĤ
ĠÑı Ð¿Ð¾Ð½
ĠÐ½Ð°Ñģ Ð»ÐµÐ´
ĠÑģÐ²Ð¾ Ð¸
ÑĥÑİÑī Ð¸Ñħ
S B
Ð° Ñİ
ĠÐ¾Ð¿ ÑĥÐ±Ð»Ð¸ÐºÐ¾Ð²
ĠÐ¿Ð¾Ð¿ ÑĭÑĤ
ĠÐĴÐµÐ»Ð¸ÐºÐ¾Ð±ÑĢÐ¸ÑĤ Ð°Ð½Ð¸Ð¸
ĠÐĴ Ð°Ð»
Ġ200 9
ĠÐ¼ÐµÑĤ Ð°Ð»
Ġ [
Ð¾Ð± ÑīÐµ
ÑĢÑı Ð´
ÑĨÐ¸ ÑĦ
ÑĢÐ° Ð»
ÑĪ Ð»Ð°
ĠÐ¾Ð± Ð»Ð°ÑģÑĤÑĮ
Ġ201 2
ĠÐ² Ð¾ÑģÑĤÐ¾Ñĩ
ĠÐ² ÐµÑģ
ÑĢÐ° Ð³
Ð°Ð½Ð´ Ð°ÑĢÑĤ
Ð¸ÑĤ ÐµÑĤ
ĠÐŀ ÑĢ
ĠÐ¶ÑĥÑĢ Ð½Ð°Ð»Ð¸ÑģÑĤ
u t
i d
ĠÐ·Ð°Ð¿ Ð¸Ñģ
i r
Ðº Ð°Ð¼
Ð¾Ð² Ð¾Ð»ÑĮ
ĠÑĩÐµÐ»Ð¾Ð² ÐµÑĩÐµ
Ð½Ð¸Ðº Ð°Ð¼Ð¸
ÐĿ Ðµ
ĠÐ¡Ð°Ð½ ÐºÑĤ
Ġ U
ĠÐ¿Ð¾Ð»Ð¸ÑĤ Ð¸Ðº
ĠÑĥÐ½Ð¸Ð²ÐµÑĢÑģÐ¸ÑĤ ÐµÑĤ
ĠÐº Ð°ÑĢÑĤ
ĠÐ³ Ð»ÑĥÐ±
ĠÐĺ Ð½
ÐºÑĤ Ð¾ÑĢ
ĠÐ³Ð¾ÑģÑĥÐ´Ð°ÑĢ ÑģÑĤÐ²
ĠÐ¾Ðº ÑĢÑĥÐ¶
ĠÐ´Ð¸Ð½ Ð°ÑģÑĤ
ĠÐ´Ð¾ÑģÑĤ Ð¸Ð³
ĠÐ± ÑĥÐº
ĠÐŀ ÑĤ
ĠÐ¿ÐµÑĢÐ² Ð¾Ð³Ð¾
Ð°ÑĤ Ð¾Ð¼
ĠÐºÐ¾ÑģÐ¼ Ð¾Ð½Ð°Ð²
ĠÐ»Ð¸Ð± Ð¾
Ð¶ ÐµÐ½Ð¸Ñı
ĠÐ¼ ÑĭÑģ
Ð¸ÑĩÐµÑģÐº Ð¸Ð¼Ð¸
ĠÐº Ð»Ð¸
ĠÑĦ Ð»Ð¾ÑĤ
ĠÐ¿Ð°ÑĢÑĤ Ð¸Ñı
ÐµÑĢ Ð¸Ð¼
ĠÐ¼Ð» ÑĢÐ´
ĠÐľ Ð¾Ð½
ĠÑĢÐ°Ð·Ð²Ð¸ÑĤ Ð¸Ðµ
ÐµÐ½ ÑĨÐ¸Ð¸
ĠÐ¾ÑĢÐ³Ð°Ð½Ð¸Ð·Ð° ÑĨÐ¸Ð¸
ĠÐ¿ÑĢÐ¸ Ñĩ
Ð½ Ð¾Ð³
ĠÐ¿ ÑĤ
Ġ2 3
Ð¿ÑĢÐ¸ Ð¼ÐµÑĢ
ĠÐ°ÑģÑĤ ÑĢÐ¾Ð½Ð¾Ð¼
Ð°Ð¹ ÑĤ
ĠÐ¿ÐµÑĢ ÐµÑģ
ĠÐĲÑĦ ÑĢÐ¸
ĠÑĤ Ñĥ
ÑĦÐ¸ ÑĨÐ¸
ĠÐŁ ÑĢÐ¸
ĠÑĦÐ¸Ð»Ð¾ÑģÐ¾ÑĦ Ð¸Ð¸
ĠÑĦÐ¸Ð· Ð¸Ðº
Ðĵ Ð¾ÑĢÐ¾Ð´
Ð¾ÑĢ ÑĥÑģ
Ð¾Ð³ÑĢÐ°ÑĦ Ð¸Ð¸
ĠÐ¸Ð½Ð¾ÑģÑĤ ÑĢÐ°Ð½
Ġ s
ĠÐł Ð¤
ĠÐ·Ð° Ð³
ĠÐ¾ÑĤÑģ ÑĥÑĤÑģÑĤÐ²
ÑģÐº Ð¸
ÑĢÑĭ Ð²
ÑĥÐ»Ð¸ ÑĢÐ¾Ð²
ÑĦ Ð¾Ð½
Ð¾Ðº Ð¾Ð¼
ÑģÑĤÐ²ÐµÐ½ Ð½Ð°Ñı
ĠÐ¿ÑĢÐ¾ ÑħÐ¾Ð´
ĠÐ½ÐµÐ± Ð¾Ð»ÑĮÑĪ
Ð¾Ð» Ð¾Ð´
ĠÐ´ Ð¾ÑģÑĤÐ¸
Ñį Ð¹
Ð¾Ð² Ð°ÑĤÑĮ
ÑĮ ÐµÐ²
ĠÐ²Ð¾ÑģÑģÑĤ Ð°Ð½Ð¾Ð²
SB N
a d
ĠÐ» ÑĥÑĩ
ĠÐ¿Ð°Ð¼ ÑıÑĤÑĮ
ĠÑĢÐ°Ð± Ð¾Ñĩ
ĠÐ·Ð°Ñī Ð¸ÑĤ
Ð£Ð¼ÐµÑĢ ÑĪÐ¸Ðµ
ĠÐ² ÐµÑĢÐ¾
ĠÐĿ Ð¾Ð±ÐµÐ»ÐµÐ²
ĠÐ¿ÑĢÐ¾Ð² Ð¸Ð½
ÑĪ ÐµÐ¼
Ñģ Ð¸
ĠÑģÐ¾ÑĤ ÑĢÑĥÐ´
ĠÐ¾ÑĤ ÐºÐ°Ð·
ÑģÑĤÐ²ÐµÐ½ Ð½ÑĭÐ¼
ĠÐ½Ð°Ñĩ Ð¸Ð½Ð°
ĠÐĺÐ² Ð°Ð½Ð¾Ð²
ĠÐ³ Ð³
ĠÐ²Ð¾Ð· ÑĢÐ°ÑģÑĤ
ĠÐ²ÑĭÐ¿Ð¾Ð» Ð½
Ð°ÑģÑĤ Ñĭ
Ð¾ÑĢ Ð´
ĠÐ²Ð¾ÐµÐ½ Ð½ÑĭÐ¹
ÑĩÐµ Ð±
Ð°Ð² ÑĪÐ¸Ñħ
ĠÐ²Ð·Ð°Ð¸Ð¼ Ð¾Ð´ÐµÐ¹ÑģÑĤÐ²
ĠÐ¸Ð¼ ÐµÐ½
ĠÐ¼Ð¾ÑĢ Ðµ
ÐµÐ½Ð¸ ÑĤ
ĠÐºÐ¾Ð½ Ñģ
Â» ),
ĠÑĨÐµÐ½ÑĤ ÑĢ
ĠÐ Ļ
ÐµÐ¼ ÑĭÑħ
Ġ20 17
ĠÑģÑĤÐµÐ¿ ÐµÐ½Ð¸
ÑĥÐ» Ñĭ
ĠÑģ ÐµÑĤ
Ð½Ð¸ Ñİ
ĠÑĢÐ°Ð¹ Ð¾Ð½Ðµ
ÑĢÐ° Ñħ
ĠÐµ Ð¿Ð¸ÑģÐºÐ¾Ð¿
ĠÐ¿ÐµÑĢÐ² ÑĭÐ¼
Ð°ÑĢ Ðº
ÑĥÑĤ ÑĮ
ĠÐ¼Ð°ÑĢ ÑĪ
ĠÐĲÐ½ ÑĤ
ĠÐ»Ð¸ÑĤÐµÑĢÐ°ÑĤ ÑĥÑĢ
Ð¾Ð²Ð°Ð½ Ð¸Ð¹
ĠÐ¾Ð±ÑĢÐ°Ð· Ð¾Ð²Ð°Ð½Ð¸Ñı
ĠÑĤ Ð¾ÑĤ
Ð¸Ð¼ Ð¾
ĠÐŁ Ð¾Ð»
Ð¾Ð½Ð° Ñĩ
Ġ201 3
Ġ201 4
Ð¸Ð¼ ÐµÐ½
ĠÐ¿ÑĢÐ¸ ÑħÐ¾Ð´
Ð¸ÑĦ Ð¸ÐºÐ°
ĠÐ¼ÑĥÐ·Ñĭ ÐºÐ°Ð»ÑĮ
Ð³ Ð°ÑĢ
Ð°ÑİÑī Ð¸Ðµ
ĠÑĥ Ð¼ÐµÑĢ
ÐŁ ÑĢÐµ
ĠÑĦ Ð°Ðº
ĠÐĺ Ð²Ð°Ð½
ĠÑĥ Ð·
ĠÐ¾Ð± ÑĢÐ°Ñī
ĠÑģ Ð¾Ð³Ð»Ð°Ñģ
ĠÑģ ÑĩÑĳÑĤ
Ð± ÐµÑĢÐ³
Ġ20 18
ĠÐ´ÑĢÐ°Ð¼Ð°ÑĤ ÑĥÑĢÐ³
ĠÐ¿ÑĢÐ¸ Ð±
Ð¸Ð´ÐµÑĢ Ð»Ð°Ð½Ð´
Ġ2 6
Ð²Ð° ÐµÑĤÑģÑı
ÐµÑĢ Ð¾Ð¼
ĠÐ± Ð°Ð»
ĠÑģÑĤ Ð°Ð²
ĠÐľÐ¸Ñħ Ð°Ð¸Ð»
ĠÑģ ÑĬ
Ð¸ÑĨ Ð¸Ñı
ĠÑĨ ÐµÐ»ÑĮ
ĠÑģ Ð¾Ð³Ð»Ð°ÑģÐ½Ð¾
ĠÑĥÐ½Ð¸Ð²ÐµÑĢÑģÐ¸ÑĤ ÐµÑĤÐ°
Ð¼Ð¾ÑĤ ÑĢÑı
ĠÑĤ Ð¾Ð¿
ĠÐ´ÐµÑıÑĤÐµÐ»ÑĮ Ð½Ð¾ÑģÑĤÐ¸
ĠÐ¿ÑĢÐ¾Ð¸ÑģÑħ Ð¾Ð¶Ð´ÐµÐ½Ð¸Ñı
Ð¸Ð¼ Ð°
ÐŁ Ð¾Ð»
ÐµÐ½ Ð·
ÑĢÐ¸ ÑĨ
Ġ200 5
ĠÐĽÐµÐ½Ð¸ Ð½
ĠÐ¼ Ð¾Ñī
ÐºÐ°ÑĤ ÐµÑĢ
ĠÐ½Ð°Ð±Ð»Ñİ Ð´
ĠÑģ ÑĢÐ°Ð²Ð½
Ð¾Ð¿ Ð¾Ð»Ð¾Ð¶
ĠÐ¿ÑĢÐ¾Ð´ ÑİÑģÐµÑĢ
Ð¶ ÐµÐ½Ð¸Ðµ
Ð°ÑĤ ÐµÐ»ÐµÐ¼
ÐµÑĢÐ° ÑĤÐ¾ÑĢÐ°
Ð¾Ñĩ ÑĮ
ĠÐ¼Ð¾Ð» Ð¾Ð´
ĠÐ²Ñģ ÐµÐ¼
Ġ200 6
ĠÐļ ÐŁ
ĠÑĢÐ°Ð· Ð´ÐµÐ»
Ġ18 5
Ġ18 4
ĠÑĤ Ð°Ð¼
Ð¸Ð»Ð¸ Ð¹
ĠÑĨÐµÐ½ÑĤ ÑĢÐ°Ð»ÑĮ
ĠÑģ ÑĥÐ¼
ĠÐ¼ Ð°Ð½
Ñħ Ð°
ĠÐ½ Ð°ÑĤ
ÑĩÐµ Ð²
ĠÐ´Ð² Ðµ
ÑĢÐ° ÑĨÐ¸Ð¸
Ġ% .
ÑĳÐ½ Ð½Ð¾Ð³Ð¾
ÐłÐ¾Ð´ Ð¸Ð²ÑĪÐ¸ÐµÑģÑı
ĠÐ° Ð¿Ð¿
Ð½Ðµ Ñĩ
Ġ20 20
ĠÐŀÐŀ ÐĿ
ĠÐ± ÐµÑģÐ¿
Ġ200 4
ĠÑĤ Ð¾Ð½
Ð¾ÑĢ Ð¸
ĠÑĤ ÑĥÑĢ
ĠÑĢÐ° Ð¼
ĠÐ¿Ð¾ÑĤ ÑĢÐµÐ±
ÑĢÐ° Ð½Ð°
ĠÑģÐ¿ Ð¾ÑĢÑĤ
Ġ20 19
Ð»Ñı Ð½Ð´
ÑĢÐ¾ÑĤ Ð¸Ð²
ĠÑģÐ²ÑıÑī ÐµÐ½
Ð»ÐµÐ´ÑģÑĤÐ² Ð¸Ð¸
ĠÐĿÐ° ÑĨÐ¸Ð¾Ð½Ð°Ð»ÑĮ
ĠÐ¿ Ð°Ð¿
ĠÐ½Ð° Ð·ÑĭÐ²
Ġ201 5
ĠÐļÐ°ÑĢ Ð»
ÑĨ ÐºÐ¸Ð¹
Ð¸Ð»Ð¸ Ð¿Ð¿
ÐµÑĢÐ¼ Ð°Ð½
ÐºÐ¸ Ð¿
ÑĮ Ð¸
Ð¾Ð¿ ÑĢÐ¸
ĠÑģÐ¾ÑģÑĤÐ°Ð² Ðµ
ĠÐļÐ¾Ð½ÑģÑĤÐ°Ð½ÑĤ Ð¸Ð½
ĠÐ¼ Ð°ÑģÑĤ
Ð³ Ð»Ñı
Ð°ÑĤÐµÐ»ÑĮ Ð½Ð¾
Ñı Ð»
ĠÑģ ÑĥÑīÐµ
Ð³ Ð»Ð°Ð²
ĠÐ¾Ð± ÑĥÑĩ
ÐµÐ½Ð¸Ñı Ñħ
ĠÐ± Ð°Ð½
Ð¾Ð· Ð¼Ð¾Ð¶
ĠÑĩÐµ Ð³Ð¾
ĠÐ°Ð½ Ð³
ĠÐ± ÑĢÐ°ÑĤ
ĠÑģÑĤÐ°Ð½Ð¾Ð² Ð¸ÑĤÑģÑı
Ð´Ðµ Ð»Ð°
Ð¸Ð» ÐµÑĤ
ÐµÐ¾ÑĢ Ð³
ĠÐ³ÑĢÐµ ÑĩÐµ
ĠI SBN
ĠÑĦ ÑĢÐ¾Ð½
Ġ2 8
ĠÐ°Ð²ÑĤÐ¾Ð¼ Ð¾Ð±
ĠÐ¸ Ð³ÑĢÐ°
ĠÐ¼Ð½ ÐµÐ½Ð¸Ñİ
ĠÑĦÐ¸Ð»ÑĮ Ð¼
Ð½Ð° Ð¿ÑĢÐ¸Ð¼ÐµÑĢ
ĠÐ¸Ð½ÑĤÐµÑĢ ÐµÑģ
Ð¸ Ð»Ðµ
Ð½ Ð¸Ð¸
ĠÐ¿ÑĢÐ°Ð² Ð¾
. ).
Ñģ Ð²
ĠÐ³Ð¾ÑĢÐ¾Ð´ Ð¾Ð²
Ðµ ÑĪÐµ
ĠÐĲ Ð´
ÑĩÐ¸Ñģ Ð»ÐµÐ½
Ð¸Ð½ Ð°Ð¼
ĠÐ± Ð¸Ð±Ð»Ð¸Ð¾ÑĤ
Ð»Ñı ÐµÑĤÑģÑı
ĠÐ½Ð°Ñĥ ÐºÐ¸
ĠÐ¦ÐµÐ½ÑĤ ÑĢÐ°Ð»ÑĮ
ÐµÐ¹ Ð¼
ĠÐ´ ÑĥÑĪ
ĠÐ³Ð¾ÑģÑĥÐ´Ð°ÑĢ ÑģÑĤÐ²Ð¾
ĠÐ½ÐµÑģÐº Ð¾Ð»ÑĮ
ĠÐĵÐµÑĢ Ð¾Ð¹
ĠÐĳ Ð°ÑĢ
Ġ4 0
ĠÐ²Ð¾Ñģ Ð¿
ĠÐ´ÑĢÑĥÐ³ Ð¾Ð¹
ĠÐ·Ð°Ð² Ð¸ÑģÐ¸Ð¼
ĠÐ¦ Ðļ
ĠÐĿÐ¾Ð±ÐµÐ»ÐµÐ² ÑģÐºÐ¾Ð¹
Ñĥ Ð»Ð°
Ð¸Ð² Ð°ÐµÑĤÑģÑı
Ġ201 6
ÑģÑĤ ÑĢÐ¸Ð¹
ÑĢÐµ Ð³
ĠÐ¸ÑģÑģÐ»ÐµÐ´ Ð¾Ð²Ð°Ð½Ð¸Ñı
ÐĴ ÑģÐµ
Ð¸ÑģÑĤ Ñĭ
ĠÑģÐ²Ð¾ Ñĳ
Ġ Â°
ĠÐµ ÑģÑĤÐµ
ÑİÑī Ð°Ñı
ĠÐ³ ÑĢÑĥÐ·
Ð°Ðº Ð°
ĠÐ´Ð¾Ðº ÑĥÐ¼ÐµÐ½ÑĤ
ĠÑĢ Ñı
7 0
ĠÐºÐ¾Ð¼Ð¿ Ð°Ð½Ð¸Ð¸
Ð¼Ðµ Ñī
Ð» ÐµÐ½Ð¸Ñİ
ÐĿ Ð°Ð¿
ĠÑģ Ñĥ
ĠÑģÐ¾Ñĩ Ð¸Ð½
ĠÐĲ Ð¼
ĠÐĺ Ð¾Ð°Ð½
ĠÐ´Ð¾Ð¿ Ð¾Ð»Ð½
ÐµÐ½ ÑģÐºÐ¸Ð¹
Ð· ÐµÐ¼
ĠÑĥÑĩÑĳ Ð½ÑĭÐ¹
ĠÑģ ÑĭÐ½
ĠÐ¡ Ð¿
ĠÑģÐ°Ð¼ ÑĭÑħ
Ð° ÑģÐº
Ñī Ð¸Ðº
ĠÑĢÐ°Ð· Ð¼ÐµÑĢ
Â ²
Ñģ Ð¼
ĠÐŃ Ð¹
Ð¾Ð» Ð¸
ĠÑĥÑģÑĤ ÑĢÐ¾Ð¹
ĠÑģÐµÐ± Ðµ
ĠÐ° ÑģÑģ
ĠÐ¿ÑĢÐ¾Ð¸Ñģ ÑħÐ¾Ð´Ð¸ÑĤ
ÐºÐ¾Ð² Ð°
Ð°ÑģÑĤÑĢÐ¾ ÑĦÐ°
18 5
Î ±
ĠÐķ Ð³Ð¸Ð¿
ĠÐ° ÑĢÐ°Ð±
ĠÐ¿Ð¾ ÑģÐº
ĠÐ·Ð°Ñħ Ð²Ð°ÑĤ
Ð¸Ð¹ ÑģÐºÐ¸Ñħ
Ð¾ÑĤ ÑĢÐµÐ±
ĠÐ¿ÑĢÐ°Ð² Ð¾ÑģÐ»Ð°Ð²
ĠÐ´ Ð»Ð¸
Ð¸Ð¹ ÑģÐºÐ°Ñı
ĠÑĩÐ¸Ñģ Ð»ÐµÐ½
ĠÑģÑĥÑīÐµÑģÑĤÐ² ÑĥÐµÑĤ
ĠÐ¿Ð¾Ð½ Ð¸Ð¼
ĠÑĢÐ°Ð· Ð³
ĠÑģÐ°Ð¼ Ð¾
Ð¾Ð» Ñİ
ÑĢÐ¸ Ðº
Ð°Ð½ Ð½Ð°Ñı
ÑĢÑĥ Ñģ
ĠÐ¿ÑĢÐµ ÑģÑĤ
ĠÐ² Ð°ÑĢÐ¸
ĠT he
ĠÐ·Ð°Ð´ Ð°Ñĩ
Ð¾Ð´ Ð°ÑĤÐµÐ»ÑĮ
Ð¸ÑĨ ÐµÐ¹
Ð²ÐµÐ¹ ÑĨ
ĠÐ° Ð½Ð°
ĠÐ¾Ðº ÑĢÑĥÐ³
ĠÑģ ÐºÐ°Ð·
ĠÑĢÐµ ÑĪÐµÐ½Ð¸Ðµ
ĠÐ¾ÑģÐ² Ð¾Ð±
) :
ĠÐļ ÑĥÐ±
ÑĳÑĤ ÑĢ
ĠÐ¿Ð¾Ð± ÐµÑĢÐµÐ¶
ĠÐ¿Ð¾ÑģÐº Ð¾Ð»ÑĮÐºÑĥ
ĠÐ¿ÑĢÐ°Ð² Ð°
ĠÐ¸Ð¼Ð¿ ÐµÑĢÐ°ÑĤÐ¾ÑĢÐ°
ĠÐºÑĢÐµ ÑģÑĤÑĮÑıÐ½
Ð¶ Ð°
ĠÐ¿Ð¾Ð´ Ð¾Ð±
ĠÐ¿Ð¾ÑģÑĤ Ð°Ð²
ĠÐķÐ²ÑĢÐ¾Ð¿ Ðµ
ĠÐ¿Ð»Ð¾ÑīÐ°Ð´ Ð¸
ĠÐ¼ ÑĥÑĩÐµÐ½Ð¸
6 0
o s
Ġ 000
ÑģÐº Ð¾Ð²
Ð¸ÑĤ ÐµÐ»ÐµÐ¼
Ġ2 1
3 7
ĠÐ¿ÑĢ Ð¾Ñģ
ĠÐ½Ð°Ñģ ÐµÐ»
Ð°Ð¹ Ð´Ð¶
ÐµÐ½Ð¸Ñı Ð¼Ð¸
ĠÑĢÐµ ÑĦÐ¾ÑĢÐ¼
ÑĥÐ½ ÐºÑĤ
ÑĢÑĭ ÑĤ
Ðĵ Ð¾ÑģÑĥÐ´Ð°ÑĢ
ĠÑĥÐ¿ÑĢÐ°Ð² Ð»ÐµÐ½Ð¸Ñı
ĠÐ² Ð»Ð°Ð´
Ð¶Ð´ Ñĭ
ĠÐ²Ñĭ ÑĢÐ°Ð¶
ĠÐ¾ÑģÐ½Ð¾Ð² Ð°ÑĤÐµÐ»ÑĮ
ĠÐ´ÐµÐ¹ÑģÑĤÐ² Ð¸Ñı
Ġ K
Ðº Ð²
ĠÑĤÐµÐ»Ðµ Ð²Ð¸Ð´
ĠÐ³ÐµÑĢ ÑĨÐ¾Ð³
ĠÐ¸Ð·Ð¾Ð± ÑĢÐµÑĤ
ĠÐ²Ñģ ÐµÐ¹
ÐŁÐµÑĤ ÐµÑĢÐ±ÑĥÑĢÐ³
8 0
o t
Ð¾ÑĢ Ñĭ
ÐĿÐ° Ñĩ
ĠÐºÑĢÐ° Ð¹
ÑĤÐ¾ÑĢ Ð¾Ð¹
ĠÐ¾Ð±ÑĬ ÑıÑģ
ĠÐ¿Ð» ÐµÐ¼
ĠÐ´Ð°Ð½ Ð½ÑĭÑħ
Ð¸Ð½ Ð¾Ð¹
ÑĥÑİÑī Ð¸Ðµ
ĠÐ¿Ð¾ÑįÑĤ Ð¾Ð¼Ñĥ
ĠÑĩÐµÐ¼Ð¿Ð¸Ð¾Ð½ ÐºÐ°
ĠÑĤÐ¸Ð¿ Ð°
ÐµÐ½ Ð½Ð¾Ðµ
ĠÐ¾ ÑĨÐµÐ½
Ð¾ÑĤ Ð²Ð¾ÑĢ
ÐŁ Ð¾Ñĩ
ĠÐ¿ÑĢÐµÐ·Ð¸Ð´ÐµÐ½ÑĤ Ð¾Ð¼
Ð¾Ð» ÐµÐ²
ĠÑį ÑĦÑĦÐµÐºÑĤ
ĠÑħÑĥÐ´ Ð¾Ð¶Ðµ
Ðĺ Ð½
ĠÐ¼ÑĥÐ·Ñĭ ÐºÐ°Ð½ÑĤ
ĠÐ±ÑĢÐ¸ÑĤÐ°Ð½ ÑģÐºÐ¸Ð¹
ĠÑĤÑĢÐ°Ð´Ð¸ ÑĨÐ¸Ð¾Ð½
3 5
Ñĳ Ñģ
ÑĨ ÐµÐ½ÑĤ
ĠÐ¼ Ð¸Ðº
at ion
Ð°Ð½ Ð½Ð¾Ð¹
ĠÐ¾Ð´ Ð½Ð°
ĠÑģÐ¾Ð²ÐµÑĤ ÑģÐºÐ°Ñı
ĠÐ¯Ð¿Ð¾Ð½ Ð¸Ð¸
ÑĤÐ¾Ð½ Ð¾Ð¼
ĠÑĤÐ²Ð¾ÑĢ ÑĩÐµ
Ð°Ð¼ ÐµÑĢ
ĠÑĩ ÐµÑĤ
Ð¸ÑĤÐµÐ»ÑĮ Ð½ÑĭÐµ
Ð»Ð¸ Ð¶
ĠÐ¿ÑĢÐµÐ´ Ð¾ÑģÑĤÐ°Ð²
ÐµÐ½ Ð½Ð¾ÑģÑĤÐ¸
ĠÐ¼ Ð¾ÑģÑĤ
ĠÐĵ ÑĢÐµ
ÐĿ Ð¾
ĠÑģÐ¼ ÑĭÑģ
ĠÐĹÐµÐ¼ Ð»Ð¸
e m
Ð¾Ñģ ÑĦÐµÑĢ
Ð¾Ð· Ð½
ĠÑįÐºÑģÐ¿ ÐµÑĢÐ¸Ð¼
ÐµÑĢÐ± Ð°Ð¹Ð´Ð¶
ĠÐ¿ÑĢ Ð¾Ð³
ĠÐºÐ¾Ð¼Ð¿ Ð»ÐµÐºÑģ
ĠÐ¿ÑĢÐµÐ¿Ð¾Ð´ Ð¾Ð±
Ð°Ð½ Ð¾Ð¼
Ð½ Ð¸ÑĩÐµ
Ð´ Ð²
Ð¡ Ð¡
Ðŀ ÑĢ
ÑĢÐ° ÑĤÐ°
ĠÑĤ Ð¾Ð³Ð´Ð°
ÐµÐ´ Ð°
Ð¾Ð¿ Ð¾Ð»ÑĮ
Ðº Ð¸Ð¼
Ð¾Ð» Ñĭ
ĠÐ¿Ð¾Ð»Ð¸ÑĤ Ð¸ÑĩÐµÑģÐºÐ¸Ð¹
Ð° ÑĢÐµ
ĠÐ¿Ð¾Ñģ Ð²ÑıÑī
9 9
ĠÐ¾Ð± ÑĢÐ°ÑĤ
Ñģ Ð¾Ð»
ĠÑģ ÑĦÐ¾ÑĢÐ¼Ð¸ÑĢÐ¾Ð²
ĠÐĶ Ð¼Ð¸ÑĤ
ĠÐ°Ð´Ð¼Ð¸Ð½Ð¸ÑģÑĤ ÑĢÐ°ÑĤÐ¸Ð²
Ġ l
ĠÐ¸Ð· Ð¼ÐµÑĢ
ĠÐĵ Ð¾ÑĢ
ĠÐ·ÐµÐ¼ Ð»Ð¸
ĠÐ¿ÑĢ Ð¾Ð¶
Ðļ Ð¾ÑĢ
ÑĬ ÐµÐºÑĤ
âĢ ľ
ĠÐ¿ÑĢÐµ Ð¾Ð±ÑĢÐ°Ð·
ĠÐ¿Ð¾Ð» Ñĥ
ĠÑģÐ°Ð¼ Ð¾Ð»ÑĳÑĤ
ĠÐ´Ð¾ÑģÑĤ ÑĥÐ¿
ĠÐĺÑĤ Ð°Ð»Ð¸Ð¸
ĠÐ¸Ð½ Ð¶ÐµÐ½
ĠÐ¼Ð¾Ð½ Ð°ÑģÑĤÑĭ
ĠÐ³ Ð¸Ð¼
ĠÐ¸ÑģÐºÑĥÑģ ÑģÑĤÐ²Ð°
ĠÐ²Ð»Ð¸ÑıÐ½ Ð¸Ðµ
ĠÐºÐ°Ð¿ Ð¸ÑĤ
Ð½ ÑıÑĤ
ĠÐľ ÐµÐ¶Ð´ÑĥÐ½Ð°ÑĢÐ¾Ð´
ÑĮ ÐµÑĤ
ĠÐ¶ÐµÐ»Ðµ Ð·Ð½Ð¾Ð´Ð¾ÑĢÐ¾Ð¶
ĠÐ¿ ÑĥÐ½ÐºÑĤ
ĠÐł Ð¾Ð±
Ð¼ Ð°ÑĢ
ĠÑģ ÑĢÐ¾Ðº
ĠÐĺÐ· ÑĢÐ°
ĠÐ¿ÐµÑĢÐ² ÑĭÑħ
ĠÑĩÐµ ÑģÑĤÑĮ
Ð¸ ÑĢÐ°ÑĤ
ĠÐ¼ ÐµÑĢ
ĠÑĢÐµ Ð¹
ĠÐ¿ÐµÑĢÐ² ÑĭÐµ
ĠÐ²Ð¾Ñģ Ð¿ÑĢÐ¸
ĠÐ´ Ð½Ñı
Ð»Ð° Ð²Ð°
Ð°ÑĢÐ¸ Ð¸
Ġ198 0
ĠÐ° Ð¿
ĠÑĦÐ¾ÑĢ Ð¼Ð¸ÑĢÐ¾Ð²
Ð¾Ð¼ Ð¸Ð½Ð°
ĠÐ» Ð¾Ð³
ĠÐ¸Ð¼ ÐµÐ½Ð½Ð¾
ĠÐ»Ð¸Ð½ Ð¸Ð¸
o g
ĠÐ¡ ÑĢÐµÐ´
ĠÑĢÐ°Ð· Ð½ÑĭÑħ
ĠÐ¼ÐµÐ´ Ð¸ÑĨ
ÑĥÐ½ Ð´
ĠÐ¾ÑĩÐµÑĢÐµÐ´ ÑĮ
. ),
Ð°ÑİÑī Ð¸Ð¹
18 4
ÑĢÐ¾Ð² Ð°
Ð¼ Ð¾ÑĢ
Ð´ Ð°Ð²
Â» ;
ĠÐ¾ÑģÐ¾Ð± ÐµÐ½Ð½Ð¾
ĠÐ¿Ð¾ Ñį
ĠÐ¾Ð±ÑīÐµ ÑģÑĤÐ²Ð°
ĠÐ±Ð¾Ð»ÑĮÑĪÐ¸Ð½ ÑģÑĤÐ²Ð¾
ÐºÐ¸Ð¿ Ð°Ð¶
ĠÐ½ Ð¸Ð¼
ĠÐº Ð¾Ð´
ĠÐĲÐ½Ð³Ð»Ð¸ Ð¸
ĠÐ³ Ð¸Ð¿
ÑİÑī ÐµÐ¹
Ġ200 3
Ð² Ñĥ
ĠÐ²ÐµÑĢÐ¾ ÑıÑĤ
e c
Ð¾Ð± ÑĥÑģ
ĠÐ¿Ð¾ÑĤ ÐµÑĢ
Ð¾ÑģÑĤÐ¾Ðº Ðµ
Ġ2 7
ĠÐ¾ÑĤÐ½Ð¾ ÑģÑıÑĤ
Ð¾Ð² Ð°Ð»Ð¸
Ð»Ð° Ð³Ð°
Ġ( ),
ĠÐ³ Ð¸Ð´
ÑĤÐ¾ Ñĩ
Ġ18 0
ĠÐķ ÐºÐ°ÑĤÐµÑĢ
ĠÐĲÐ»ÐµÐºÑģÐ°Ð½Ð´ ÑĢÐ°
ĠÐ²Ð¾Ð·Ð´ ÑĥÑħ
i m
Ñĥ ÑĢÐ¸
ĠÑĥÑĩ Ð°
ĠÐ² ÐµÑĢÐ½
Ð¸Ñĩ Ð½Ð¾
ĠÐ¿ Ð¾Ð¶
ĠÑĤ Ð°Ð½
ĠÐ¿Ð¾ ÑħÐ¾Ð´
Ð½Ð¾Ð² ÑĢÐµÐ¼ÐµÐ½
ĠÐºÐ½ÑıÐ· ÑĮ
o p
Ð¾Ð² Ð¸Ñĩ
Ð²ÐµÑĢ Ð´
ĠÐļÐ¾Ð½ ÑģÑĤÐ¸ÑĤÑĥ
3 6
Ð¸ÑĤÐµÐ»ÑĮ Ð½ÑĭÐ¹
ĠÑģÑĤÐ°ÑĤ ÑĥÑģ
ĠÑĦÐµÐ´ÐµÑĢÐ° Ð»ÑĮ
ĠÐ¤ Ð¸Ð½
ĠÐ¾Ð±ÑĬ ÑĳÐ¼
X IX
ĠÑģ ÑĥÐ¿
ĠÑģÐ¾ÑģÑĤ Ð¾Ð¸ÑĤ
ĠÐŁÐµÑĤ ÑĢÐ°
ĠÑģÐ¾Ð² Ð¼ÐµÑģÑĤ
Ð¡ÑĢÐµÐ´ Ð¸
Ī Ĵ
ĠÑĢÐ°Ð· Ð±
ĠÑįÑĤ Ð¸Ð¼
ĠÑĢÐµÐ²Ð¾Ð»Ñİ ÑĨÐ¸Ð¸
ĠÐ¿Ð¾Ð»ÑĮÐ· Ð¾Ð²
Ð¾ ÑĨÐ¸
ĠÑģ Ð¾Ðº
Ð»Ð°Ð½Ð´ Ð¸Ð¸
ĠÐ¼Ð¾Ð´ ÐµÐ»ÑĮ
Ñı Ð³
Ðº ÑĥÐ¿
ÑĢÐ° Ð¹
ĠÐ´ Ð½ÐµÐ¹
ÑĢÐ¾Ñģ Ð»Ð°Ð²
ÑĨÐ¸Ðº Ð»Ð¾Ð¿
ĠÑĤ Ð¾Ð²
ĠÑĥ Ðº
ĠÑĨ Ð²ÐµÑĤ
ĠÐ´Ð¾Ð» Ð»Ð°
ÑĤ Ð¾Ð¶
ĠÑĢÐ°Ð· ÑĢÐµ
ĠÐ²Ñĭ ÑĩÐ¸Ñģ
ĠÑĥÐ± Ð¸ÑĤ
ĠÐ· Ð½Ð°Ð¼
ĠÐĺ Ð¼Ð¿
ĠÐ½ Ð¾ÑĢÐ¼
Ð»Ð¸ Ð¸
ĠÐŁ ÑĢÐ°Ð²
Ð¾Ñħ ÑĢÐ°Ð½
ÑĨÐ¸ÐºÐ»Ð¾Ð¿ ÐµÐ´
Ð¾Ñģ Ð½Ð¾Ð²
ĠÐºÐ°ÑĤ Ð¾Ð»
ĠÐ´ÑĥÑħ Ð¾Ð²
ĠÑĢÐ°Ð¼ ÐºÐ°Ñħ
Ġ2 9
ĠÐ²Ñĭ Ð²Ð¾Ð´
ĠÐ°ÑĢÐ¼ Ð¸Ñı
ĠÐ½ ÑĳÐ¼
Ð»Ð¸ Ð±Ð¾
Ġ20 21
ĠÑĤ ÑıÐ¶
Ð¸Ð½ Ð¸
ĠÐ¿ÐµÑĢ ÐµÐ½
is t
ĠÑĤÐ¾Ñĩ ÐºÐ¸
ĠÐ´Ð¸Ð½Ð°ÑģÑĤ Ð¸Ð¸
ĠÐ³ Ð»
ĠÑĦÑĥÐ½Ðº ÑĨÐ¸Ð¸
ĠÐ¾ Ð½Ð¾
ĠÐ¿ÐµÑģ ÐµÐ½
Ð² Ð¾Ð¹
ĠÐ´Ð°Ð»ÑĮ Ð½ÐµÐ¹
ĠÑģ ÑĦÐµÑĢ
ĠÑĤ ÑĢÐµÑĤÑĮ
i v
ĠÐ´ÐµÑıÑĤÐµÐ»ÑĮ Ð½Ð¾ÑģÑĤÑĮ
ĠÐĽ Ð°
ÑĢ Ð¾Ð³
ĠÐ¿ Ð°Ð´
ĠÑģ Ñħ
Ð»Ðµ Ñĩ
ĠÐºÐ½Ñı Ð¶Ðµ
ĠÐ´Ð² Ð¸Ð³
ĠÐ¿ÑĢÐµÐ´ÑģÑĤÐ°Ð² Ð»ÑıÐµÑĤ
Ð¾Ð² ÑĭÐ¼
ĠÐ¿ÑĢÐ¸ ÑĩÐ¸Ð½
ĠÐ¿Ð°ÑĢÑĤ Ð¸Ð¹
Ðµ ÑĢÐ°Ð½
ĠÐ° Ð·
Ð¸Ð² Ð°
ĠÐĺÑģÐ¿ Ð°Ð½Ð¸Ð¸
Ñİ ÑĢ
Ð°Ð»ÑĮ Ð½ÑĭÐ¼
ÐµÐ³ Ð´Ð°
ĠÐ±ÐµÐ· Ð¾Ð¿Ð°Ñģ
ĠÐ½ÐµÐ·Ð°Ð²Ð¸ÑģÐ¸Ð¼ Ð¾ÑģÑĤÑĮ
ĠÐ¼Ð½Ð¾Ð¶Ðµ ÑģÑĤÐ²Ð¾
ĠâĢ ŀ
Ġ2 2
ĠÐŀ Ð»Ð¸Ð¼Ð¿
Ñı Ð»Ð¸
ÑĪ Ð¸Ð¼Ð¸
ĠÐĴ ÐĴ
ĠÐ¿ÑĢÐ¸Ð¼ÐµÑĢ Ð½Ð¾
3 4
Ð»Ð¸ ÐºÑĤ
ĠÐ½Ð°Ñģ ÐµÐ»ÐµÐ½Ð¸Ðµ
ĠÑįÐ»ÐµÐºÑĤ ÑĢÐ¾Ð½
ĠÐ¿ÑĢÐ¸Ñģ Ð¾ÐµÐ´Ð¸Ð½
ĠÐ¶ Ð¸ÑĤÐµÐ»ÐµÐ¹
ĠÑĤÐµ Ð»Ð°
ÐµÑħ Ð½
ĠÐĽ Ð¸Ð²
Ġ f
ĠÐ¿ÑĢÐ¾ÑĤ ÐµÑģÑĤ
ĠÐĽ Ð¸ÑĤ
ĠÑģÐº ÑĥÐ»ÑĮ
ÑĥÑİÑī Ð¸Ð¹
Ð»Ð° Ð±
ĠÐļ ÑĥÑĢ
ĠÐ¿ÑĢÐ¾ÑĤ ÑıÐ¶
ĠÑĢÐ°Ð±Ð¾ÑĤ Ñĥ
Ġ197 0
ĠÑģÐµÐ²ÐµÑĢ Ð¾
ĠÐ²ÑĭÐ±Ð¾ÑĢ Ñĭ
Ð¸Ð½ ÑģÐºÐ°Ñı
ĠÐ¡ Ð°Ð¼
ĠÐ²Ð¾Ð·Ð¼Ð¾Ð¶ Ð½Ð¾ÑģÑĤÑĮ
ÑıÑĤ Ð¸Ð¹
Ġ m
Ñĭ Ð½Ðµ
ĠÐ¾ Ð·Ð½Ð°Ñĩ
ĠÐ²Ñĭ ÑĪÐµ
ĠÐºÐ² Ð°Ð½ÑĤ
Ð°Ð½ ÑģÐºÐ¾Ð¹
Ð³ ÑĢÐµÑģÑģ
ÑĦ Ð°Ð²
ĠÑģÐ¾ ÑĨÐ¸
Ð°Ð½Ð¸Ðµ Ð¹
ĠÐ¿Ð¾ÑģÑĤ Ð°Ð½Ð¾Ð²
ĠÑĢÐµ Ð°Ðº
ĠÐ¿ÑĢÐ¾Ð³ÑĢÐ°Ð¼ Ð¼Ñĭ
Ð°Ð¹ Ð»Ð¾Ð²
ĠÐ¿ÑĢÐµ ÐºÑĢÐ°
ĠÑģÐ¸ÑģÑĤÐµÐ¼ Ðµ
ĠÐ² ÐµÐ»Ð¸Ðº
Ð°ÑĤ Ð¸
ĠÐĵ ÐµÐ¾ÑĢÐ³
Ð¸ÑĤÐµÐ»ÑĮ Ð½ÑĭÑħ
ĠÐºÐ¸Ñģ Ð»Ð¾ÑĤ
ÐµÐ½ Ð½ÑĭÐ¼
ĠÑĢÐ° Ðº
Ð¸ÑĢÐ¾Ð² Ð°ÑĤÑĮ
ĠÐĽÐµ Ð¾Ð½
Ð°Ð» Ð¾Ð¼
ÐµÑĤ ÐµÐ»ÑĮ
ĠÐ² ÐµÑī
Ð¾ÑĤ Ðµ
Ð¸Ðº Ñģ
ĠÐ¶Ð¸Ð· Ð½ÑĮ
ĠÐ¾ÑĤÐ½Ð¾Ñģ Ð¸ÑĤÐµÐ»ÑĮÐ½Ð¾
Ð¿ Ð¾Ð·
ĠÐ¼ Ñĭ
ĠÑģÑĤ Ð°Ð½Ð´Ð°ÑĢÑĤ
ĠÐĽ Ð°ÑĤ
Ð·Ð° Ð¿Ð°Ð´
ĠÐ¾Ð±ÑĢÐ°Ð· Ð¾Ð²
ÑĢÐµ Ð·
Ñĳ Ð³
ĠÐ§ ÐµÑĢ
ÑĤÐ¾ÑĢÐ° Ñı
Ð¼Ð¸Ð½Ð¸ÑģÑĤ ÑĢ
i e
ĠÐ½Ð° ÑģÑĤÑĥÐ¿
ĠÐĵ ÑĢÐ¸
Ð¸ÑĨ Ñĥ
Ġ200 2
ĠÑĢÐµÐ²Ð¾Ð»Ñİ ÑĨÐ¸Ð¾Ð½
ÐµÑĢÐ° Ð»ÑĮ
Ðķ Ð³Ð¾
ĠÐ³ÑĢÑĥÐ¿Ð¿ Ð°
Ġ Î
ĠÑĢÑĥÑģ ÑģÐºÐ¾Ð¹
ĠXV III
a g
ĠÑĥ ÑĩÐµÐ±
Ð¸ÑĤÐµÐ»ÑĮ Ð½Ð¾Ð¹
ÑĥÑī Ð¸Ð¹
ĠÐ¿Ð¾Ð³ Ð¸Ð±Ð»Ð¸
ĠÑģÐµÐº ÑĢÐµÑĤ
ĠÐļ Ð°ÑĤ
Ï Ħ
ĠÐ¼ÐµÑģÑĤ Ðµ
Ñģ Ð¾
ĠÐ´ ÐµÐº
ĠÐ·Ð½Ð°Ñĩ ÐµÐ½Ð¸Ñı
ĠÐ¾Ñģ Ð°Ð´
ĠÐ±Ð¾Ð»ÑĮÑĪ Ð¾Ð¹
ĠÐ²ÑĭÐ± Ð¾ÑĢÐ°Ñħ
ÑĪ ÑĥÑİ
ĠÐ²Ñĭ Ð·Ð²
ĠÐ¿Ð¾Ðº Ð°
ĠÐ¡ÐµÐ²ÐµÑĢ Ð½Ð¾Ð¹
Ð°Ð»Ð¸Ð½ Ð¸Ð½
Ð» Ð»Ð¸
Ñĥ Ñı
ÑĨÐ¸Ñı Ñħ
ĠÐ´Ð¾ÑģÑĤ Ð°ÑĤÐ¾Ñĩ
ĠÐ°Ñį ÑĢÐ¾Ð¿
ÑĤ ÐµÐ½
ĠÐ´ ÐµÐ½
ĠÐºÐ¾ÑĢ Ð¿
Ðł ÑĥÑģ
Ð½Ð¸Ñĩ ÑĤÐ¾Ð¶
ĠÑĢ Ð¾Ðº
ĠÑĢÑĥÑģ ÑģÐºÐ¾Ð³Ð¾
ĠÑģÐ¾Ð²ÑĢÐµÐ¼ÐµÐ½ Ð½Ð¾Ð¹
ĠÐ² ÐµÐ»Ð¸Ñĩ
Ð¸ÑĤÐµÐ»ÑĮ Ð½Ð¾ÑģÑĤÐ¸
ĠÐ¢ ÑĢÐ¾
ĠÐºÐ¸Ð½Ð¾ Ð°ÐºÑĤ
ĠÐĿÐ¸Ðº Ð¾Ð»Ð°
ĠÑģ Ð¸Ð»Ð°
ĠÐŃ ÑĢ
ÑĤÐµ ÑĩÐµ
ÑĪ Ð¸
ĠÐŁ Ð¾ÑĢÑĤ
ĠÐ· Ð´ÐµÑģÑĮ
ĠÐĳ Ð¾Ð»ÑĮÑĪ
Ġ( ).
ÐµÐ»ÑĮ Ð³
Ð½Ð¾Ð² Ð°
Ð¾Ð½ Ñĥ
Ñĩ Ð°
ĠÐĽ Ð¾Ð½Ð´
ĠÐ¤ ÑĢÐ¸Ð´
ĠÐ¿Ð¾Ð¼Ð¾Ñī Ð¸
ĠÐ¿ÑĢÐ¾Ð¼ÑĭÑĪÐ»ÐµÐ½ Ð½Ð¾ÑģÑĤÐ¸
ĠÐ» Ð¸ÑĤ
ĠÐºÑĢÐ¸ÑĤ Ð¸Ðº
ĠÐ½Ð¾Ð² ÑĭÑħ
ĠÐ² Ð½Ð¸Ð¼
ĠÐ´ ÐµÐ²
ĠÑģ Ð»Ð°Ð²ÑıÐ½
Ð¾Ñģ Ðµ
ÑıÐ± ÑĢÐµ
ĠÐ±Ð»Ð°Ð³ Ð¾Ð´Ð°ÑĢÑı
ĠÐ½ÐµÑģÐºÐ¾Ð»ÑĮ ÐºÐ¸Ñħ
Ð°Ð» ÑİÑĤ
Ġ6 0
ÑģÐ¾Ð» ÑİÑĤ
Ġ196 0
ĠÐ½Ð°Ð·ÑĭÐ²Ð° ÐµÑĤÑģÑı
Ð¼ÑĥÐ½ Ð¸ÑģÑĤ
Ð Ļ
Ð°Ð´ Ð¶
ĠÑĤÐµÐ¾ÑĢ ÐµÑĤ
3 8
ĠÐ¤ Ð¸Ð»Ð¸Ð¿Ð¿
I V
ĠÐ¸Ð½ ÑĦ
ĠÑģÑĤÐ°Ð½ ÑĨÐ¸Ð¸
3 2
ĠÐ½ÐµÐ·Ð°Ð²Ð¸ÑģÐ¸Ð¼ Ð¾ÑģÑĤÐ¸
ĠÐ°ÐºÐ°Ð´ÐµÐ¼ Ð¸Ðº
ĠÐ½Ð° Ð»Ð¸Ñĩ
ĠÑĤ Ð°Ð±
Ġ200 1
ĠÐ¿ÑĢÐ°ÐºÑĤ Ð¸ÑĩÐµÑģÐºÐ¸
ĠÐ¿ÑĢÐ¸Ð½Ñı Ð»
ĠÐĴÐ¸Ðº ÑĤÐ¾ÑĢ
3 9
ĠÐ²Ðµ ÑģÑĮ
t er
ÑĤÐ° Ð±
Ð± Ð¸Ð½
ĠÑģÑĤ ÑĥÐ´
ĠÑĢÐµÑģÐ¿ÑĥÐ±Ð»Ð¸ ÐºÐ¸
ÐĿÐ°Ð¿ ÑĢÐ¸Ð¼ÐµÑĢ
ĠÐ¾Ð± Ð²Ð¸Ð½
Ð¾ÑģÑĤ ÑĮÑİ
Ð°Ð»Ð¸ Ñı
ĠÑĤ Ð¸ÑĤ
ĠÐ¤ ÑĳÐ´
ĠÐ· ÑĢÐµÐ½Ð¸Ñı
ÑĥÑĢ Ð³Ð°
ĠÐ°ÑĢÑĤÐ¸ÑģÑĤ ÐºÐ°
ĠÐº Ð»ÑĥÐ±
ĠÐ¼ ÐµÐ»
ÑģÑĤÐ² Ð¸Ñı
ĠI n
ĠÐ·Ð°Ñģ Ð»ÑĥÐ¶
ĠÐ²Ð¾Ð·Ð² ÑĢÐ°Ñī
Ġ n
ĠÐ¾ÑĤ Ðº
ĠÐ½Ðµ Ð¸Ð·
ĠÐĿ Ð°ÑĢÐ¾Ð´
ĠÑĥÑĢÐ¾Ð² Ð½Ñı
Ð½Ð¾Ð²ÑĢÐµÐ¼ÐµÐ½ Ð½Ð¾
ÑĳÐ½ Ð½ÑĭÐ¼
ĠÑĢÐ° Ð½ÐµÐµ
ĠÐ¿Ð¾Ð´ ÑĤ
ĠÐ¿Ð» Ð¾ÑĤ
Ð¢Ð°Ðº Ð¸Ð¼
Ñĥ Ð·Ñĭ
ĠÐ¿ÐµÑĢÐ² Ð¾Ðµ
ĠÐ½Ð¾Ð² ÑĭÐ¹
ĠÐ¿ÑĢÐ¾Ð´ ÑĥÐºÑĤ
ĠÑģÐ»Ð¾Ð² Ð¾
ĠÐ²ÐºÐ»ÑİÑĩ Ð°Ñı
ÐµÐ¼ ÑĭÐµ
ÑĢÐ¾Ð¿ Ð¾Ð»Ð¸ÑĤ
ĠÑĢÐ°Ð· Ð´
ĠÑįÐº Ð·
ĠÐ² Ð´
ÑĦ Ð¸ÑĨ
ĠÐ¾Ð± Ñģ
Ð°Ð½Ð´ Ð¸Ð´
ĠÑĪ ÐµÑģÑĤ
ĠÐłÐ¾ÑģÑģ Ð¸Ñı
ĠÐºÐ°Ð½ Ð°Ð´
ĠÑĨÐµÐ»ÑĮ Ñİ
ĠÑģ Ð´ÐµÐ»
ĠÐ¾Ð± Ð»Ð°Ð´Ð°
ÑĳÐ½ Ð½Ð°Ñı
ĠÐºÐ½Ð¸ Ð³Ð¸
Ð´ Ð°ÑĤ
ĠÐ¸Ð½ÑĦÐ¾ÑĢÐ¼Ð° ÑĨÐ¸Ð¸
ĠÑĢÐ°Ñģ ÑģÑĤÐ¾Ñı
ĠÐĳÐ¾ÑĢ Ð¸Ñģ
ĠÐĴÐµÑĢÑħÐ¾Ð² Ð½Ð¾Ð³Ð¾
Ð± Ð¾Ð»ÑĮ
ÑĢÐ¸ Ð¶
ĠÑģÐ¾Ð± ÑĭÑĤ
ĠÐºÐ¾Ð½ÑĤ ÑĢÐ¾Ð»
Ð¾Ð» ÐµÑĤ
ĠÐľ Ð°Ð¹
ĠÐļÐ°Ð· Ð°Ñħ
ÐµÐ´ ÐµÐ½Ð¸Ñı
ĠÐ²Ñĭ ÑĪ
ĠÐºÐ¾Ð½ ÐµÑĩ
ĠÐ´ÑĢÑĥÐ³ Ð¸Ð¼Ð¸
Ñģ Ð¾Ð¼
ĠÑģÑĤÑĢÐ°Ð½Ð° Ñħ
Ð¾Ð² Ð¾Ðµ
ĠÐ¾ÑĢ Ð±Ð¸ÑĤ
Ġt he
ĠÐº ÑĢÑĥÐ³
ĠÑħ Ð¾Ðº
Ð°Ð»Ð¸Ð·Ð° ÑĨÐ¸Ð¸
ÐµÐ» Ñİ
ĠÑģÐ¿ ÑĥÑĤ
ĠÐ°Ð» ÑĦÐ°Ð²
ĠÑģÑĤ Ð¾
Ð¸Ð»Ð¸ Ñı
ĠÐŀ ÑĤÐµÑĩÐµ
18 0
ĠÑģÐ¾ÑģÑĤÐ¾Ñı Ð½Ð¸Ñİ
Ð¸ÑĢÑĥ ÐµÑĤ
ĠÐ´Ð²Ð¸Ð¶ ÐµÐ½Ð¸Ðµ
ĠÐ¡ÐµÑĢÐ³ ÐµÐ¹
ĠÐºÐ¾Ð½ÑĦ Ð»Ð¸ÐºÑĤ
ĠÐ¾Ð± Ð»Ð°Ð´
Ñĥ Ð½Ð°
Ñĥ ÐºÐ¾Ð²
ÐµÐº Ð¾ÑĤÐ¾ÑĢ
Ð¸ÑĤÐµÐ»ÑĮ Ð½Ð¾Ð³Ð¾
ĠÐ´ÐµÑĤ ÐµÐ¹
ĠÐ¿ÑĢÐ¾Ð²Ð¾Ð·Ð³Ð»Ð° ÑĪ
ĠÐ¡ Ð¾Ð»Ð½
ÐµÐ² Ð¾Ð¹
ĠÐ¿Ð¾Ð» Ð½Ð¾Ð¼
Ð¸ÑĢÐ¾Ð² Ð°Ð½Ð¸Ñı
Ð²ÐµÑĢ Ð³
Ð²Ð° Ð¹
Ġ199 9
Ð¸ Ð°ÑĤ
ĠÐ¿Ð¾ Ñħ
Ð½Ð¾Ð¼ ÑĥÑĩÐµÐ½Ð¸
Ðº ÑĨÐ¸Ð¸
ĠÐ² Ð»Ð°ÑģÑĤ
ĠÑĤ Ð¾Ð¼Ñĥ
Ð¾Ñģ Ñı
ĠÑĩ ÑĥÐ²
ĠÑģÐ² Ð¸Ð´
ĠÐ¿ÑĢÐ¾Ð¸Ð·Ð²Ð¾Ð´ ÑģÑĤÐ²Ð°
Î ¿
ĠÑĥ Ð½Ð¸ÑĩÑĤÐ¾Ð¶
ĠÐ¿ÑĢ Ð¾Ñĩ
ÐµÐ» ÐµÐ½
ÐĲ Ð»ÐµÐºÑģ
ĠÐºÐ¾Ð½ÑĤ ÑĢ
Ñĥ Ð°Ð½
ĠÑĤÑĢÐ° ÐºÑĤ
ĠÑĥÑĩÐ°ÑģÑĤ Ð¸Ðµ
9 0
Ð²Ð° ÑİÑĤ
Ġ19 17
ĠÐĴ ÐµÐ½Ð³
ĠÐ¿Ð¾Ð´ Ð°Ð²
ĠÐº Ð°Ð±
ĠÑĤ Ð°Ð¹
ĠÐ¿ÑĢÐ°Ð² Ð¸Ð»Ð¾
Ġ199 2
ĠÑģÐ¸Ð» Ñĥ
ĠÐ² ÐµÐ»
ĠÑĤ Ð¾Ð»
ĠÐľ Ð°ÑĤ
Ð°Ð»ÑĮ Ð½Ð¸Ðº
ĠÐ¸Ð½ ÑģÑĤÑĢÑĥ
ĠÐ» Ð¸Ð´ÐµÑĢ
ĠÐŁ ÑĳÑĤÑĢ
Ðĳ Ñĭ
Ġ20 22
Ð¸ÑĤ ÑĥÐ°
ĠÐ¸ÑĤ Ð¾Ð³
ĠÑĥÑģÐ»Ð¾Ð² Ð¸ÑıÑħ
ĠÐ¼ Ð¾ÑĤ
ĠÐ¼ Ð°Ñģ
Ġ19 20
ĠÐ°Ð² ÑģÑĤÑĢÐ¸Ð¹
ĠÐ²Ð¾Ð· Ð³Ð»Ð°Ð²
ĠÑĨÐµÐ½ÑĤ ÑĢÐ°
ĠÐ°Ð¿Ð¿ Ð°ÑĢÐ°ÑĤ
ĠÐ¼Ð°ÑģÑĤ ÐµÑĢ
ĠÐ» Ð¸
ĠÐ» ÑĳÑĤ
ĠÑĥÐ¿ Ð¾ÑĤÑĢÐµÐ±
ĠÑģÑĩÐ¸ÑĤ Ð°ÐµÑĤÑģÑı
ĠÐ¾ÑĤÐ»Ð¸Ñĩ Ð¸Ðµ
Ð¸Ðº Ð¾
ĠÐ¿Ð¾ÑģÑĤ ÑĥÐ¿
ĠÑİ Ð³Ð¾
ĠÐĲÐ½Ð´ ÑĢÐµ
Ġ19 18
ĠÐ¿Ð¾Ð´ ÑĩÐ¸Ð½
Ð¾Ð¶ Ð´Ð°
ĠÑĦÐ¾ÑĢÐ¼ Ñĭ
ĠÐºÐ½Ð¸ Ð³
Ð¸Ð¼ ÑĥÑīÐµ
ĠÐĵÐµÐ½ ÑĢÐ¸Ñħ
ĠÐ½Ð° Ð¹
ĠÐºÐ¾ÑĤÐ¾ÑĢ Ð¾Ð¼Ñĥ
ĠÐ¿ÐµÑĢÐ² ÑĥÑİ
ĠÐ´ÐµÐ¼ Ð¾ÐºÑĢÐ°ÑĤ
ĠÐ¾ÑĤ ÑģÑĤÐ°Ð²
ĠÐ¿ÐµÑĢ ÐµÐ³
ĠÐĲÐ½ ÑĤÐ¾Ð½
ĠÑįÐºÑģÐ¿ ÐµÐ´
ÑĭÐ²Ð° ÐµÑĤÑģÑı
Ġ in
ĠÐºÐ¾ÑĤÐ¾ÑĢ ÑĭÐ¼
ĠÐ¾Ð´ Ð½
ĠÐ½Ð°Ð·Ð² Ð°Ð½Ð¸Ñı
Ðµ Ð¸
ÑĢÐ° Ð´
ĠÑģÐ²Ð¾ Ð¸Ð¼
ÑĥÐ» ÑĤ
ÑĥÐ»ÑĮ Ð¼Ð°Ð½
ÑĮÐµÑĤ Ð½Ð°Ð¼
ĠÐ° ÑĢÐµÑģÑĤ
Ð½Ð¾Ð² ÑĮ
ĠÐ²Ñģ ÐµÐ³Ð´Ð°
ĠÐ¿ÑĢÐ¾ÑģÑĤÑĢÐ°Ð½ ÑģÑĤÐ²Ð°
Ð½ Ð¸Ð·
ĠÐĶ Ð¾Ð½
ĠÐ¾ÑģÐ½Ð¾Ð² Ð°Ð½
ĠÑĩÐ¸Ñģ ÐµÐ»
ĠÐľ Ð¾Ð»
ĠÑĢÐµ Ñĩ
ĠÐ¼Ð°ÑĤÐµÐ¼Ð°ÑĤ Ð¸Ðº
ĠÐļÐŁ Ð¡Ð¡
ĠÐ°ÑĤ Ð¼
ĠÐ½Ðµ Ð¿
Ð¾Ð¶ Ð´Ðµ
ĠÑĤÐ°Ðº Ð¸Ð¼
ĠÑģÐ°Ð¼ ÑĭÐ¼
ĠÑģÑĤÑĢÐ¾Ð¸ÑĤÐµÐ»ÑĮ ÑģÑĤÐ²Ð¾
ĠÑĩ ÑĳÑĢ
Ñı ÑİÑĤ
ÑĥÐ¼ Ð°Ð½
er s
ĠÐ¿ÑĥÑĤ Ð¸
ĠÑĢÐ¸Ð¼ ÑģÐºÐ¸Ð¹
Ð± ÐµÐº
ĠÐ¿ÑĢÐ¸ Ð¾Ð±
Ð½Ð¸ ÑĨÐ¸Ð¿
Ð¾ÑģÑĤÐ¾ ÑıÑĤÐµÐ»ÑĮ
ÑģÑĤ Ð°Ð½Ð¾Ð²
ĠÐ· Ð¸Ð¼
ĠÑģÑĤ Ð¸Ñħ
ÑģÐ¿ ÐµÐºÑĤ
ĠÐĲÐ² ÑģÑĤ
ĠÐ¡ Ð¾
ĠÐ¡ Ð¡Ðł
ĠÐºÐ¾ÑĤÐ¾ÑĢ ÑĥÑİ
ÑĥÑģ ÑĥÐ»ÑĮÐ¼Ð°Ð½
ĠÐºÐ¾Ð½ ÑĨÐ°
ĠÐ½ÐµÐ´ Ð¾ÑģÑĤ
Ðº Ð¾Ðµ
Ġ and
ĠÐ¿Ð¾Ð»Ð¾Ð¶ ÐµÐ½Ð¸Ðµ
Ðµ Ð¾Ð´
Ð¼Ðµ ÑĪ
ĠÐ³Ð¾ÑģÑĥÐ´Ð°ÑĢÑģÑĤÐ²ÐµÐ½ Ð½Ð¾Ð³Ð¾
ĠÑĥÑĩÐ°ÑģÑĤ Ð½Ð¸Ðº
Ð½Ñİ Ñİ
t h
ĠÐĵ Ð¾Ð»
Ð°Ð´ Ðµ
Ð¸ÑĢÑĥ ÐµÑĤÑģÑı
ĠÐľ Ð¾ÑĢ
ĠÐĽ ÑĮ
ĠÐ¿ÑĥÐ±Ð»Ð¸ ÑĨÐ¸ÑģÑĤ
ĠÐ¼ÑĥÐ· ÐµÐ¹
ĠÐ¸Ð½ Ð¾Ð³Ð´Ð°
ĠÐ¿Ð¾Ð»ÑĥÑĩ Ð¸Ð»Ð°
Ð°Ð½ Ð½
ÐĿÐ° Ð¸Ð±Ð¾Ð»ÐµÐµ
ĠÐ·ÐµÐ¼ ÐµÐ»ÑĮ
ĠÐ¿ÐµÑĢÐµÐ´ Ð°Ñĩ
Ð°Ðº Ð¸
ĠÐ°Ð½ Ð°Ð»Ð¾Ð³
ĠÑĤÐµÑĢ Ð¼
ĠÐ² ÑģÑı
Ð¡ Ð¾
ĠÐ¶Ð¸Ð²Ð¾Ð¿Ð¸Ñģ ÐµÑĨ
ĠÐ¿ Ð»Ð¾
Ð¾Ð½ Ð¸Ð¼
Ðŀ Ð½Ð¸
ÑģÐº Ð¾Ð¿
ĠÑĩÐ°ÑģÑĤ ÑĮÑİ
ĠÑģÐ¾Ð± ÑģÑĤÐ²ÐµÐ½
ĠÐ¿ÐµÑĢÐ¸ Ð¾Ð´Ð°
ĠÐ¸Ñģ ÑħÐ¾Ð´
ĠÐ± Ñİ
ĠÐ¾Ð±Ñī ÐµÐ¹
ĠÑıÐ´ ÐµÑĢ
ĠÐĲ ÑĢÐ¸ÑģÑĤ
ĠÑĤÑĢÐ° Ð¼
Ġ b
ĠÑģÐ¾Ð·Ð´ Ð°Ð½
ÑģÑĤ ÐµÑĢ
ĠÐ± Ð¾ÐµÐ²
Ð¾Ñĩ Ð½ÑĭÑħ
Ġ199 6
9 6
Ñĩ Ð°Ñģ
ÐĶ Ðł
Ġ7 0
ĠÑħÐ¾ÑĢ Ð¾ÑĪ
ĠÐ· Ð°Ð»Ð¸
Ð°Ð» Ñĥ
ĠÐ¿Ð¾Ð´ ÑħÐ¾Ð´
ĠÑģÐ¸Ð½ ÑĤ
ĠÐ° Ð¼
ĠÑĦ Ð¸Ð³
ĠÐ²Ñĭ Ð´ÐµÐ»Ñı
ÐĶ ÑĢÑĥÐ³
ĠÐ°Ð² ÑĤÐ¾Ð½Ð¾Ð¼
ĠÑĢÐ°Ð·Ð»Ð¸Ñĩ Ð½ÑĭÐµ
Ð³ Ð½
ĠÐĿ ÑĮÑİ
ĠÐ¾ÑģÐ½Ð¾Ð² Ð½ÑĭÑħ
ĠÐ¿ÑĢÐ¾Ð¸Ñģ ÑħÐ¾Ð´
ĠÑĩÐµÑĤÑĭ ÑĢÑĳÑħ
Ð¸Ð² Ð°Ð»
ĠÐ£ Ð¸Ð»ÑĮ
ĠÐ´Ð¸ ÑĢÐ¸Ð¶
ĠÑįÐ»ÐµÐºÑĤ ÑĢÐ¸ÑĩÐµ
ĠÐ½Ðµ Ð¿Ð¾Ñģ
ĠÑĢÐµ Ðº
Ð°Ð½ÑĤ Ð°ÑģÑĤ
ĠÐ²Ð¾Ð¹ Ð½Ðµ
ĠÑģÐ»ÐµÐ´ ÑĥÐµÑĤ
ĠÐ¸Ð½Ð¶ÐµÐ½ ÐµÑĢ
ĠÐ¤Ð¸Ð½ Ð»ÑıÐ½Ð´
Ð°Ð½ ÑģÐ¾Ð²
Ðķ Ð²
ĠÐ¼Ð½Ð¾Ð³Ð¾ ÑĩÐ¸ÑģÐ»ÐµÐ½
ĠÐ½Ð¾Ð² Ð¾Ð³Ð¾
ĠÐł Ð¾ÑģÑĤ
ĠÑĢ Ð¾Ð´Ð°
ĠÐ¸Ð·Ð¾Ð± ÑĢÐ°Ð¶
ĠÐĲÐ· Ð¸Ð¸
Ñĥ ÑģÐºÐ°
ĠÐĺ Ñģ
ĠÑĤÐµÐ»ÐµÐ²Ð¸Ð´ ÐµÐ½Ð¸Ñı
u l
Ð¡ ÑĥÑīÐµÑģÑĤÐ²
ĠÐ¿ÑĢÐ¸ Ð±Ñĭ
Ð¸Ð² Ð°ÑİÑĤ
ĠÐ´Ð² ÑĥÐ¼
ÑĢÑĥ ÑĤ
ÑĢÑĥ ÑģÑģ
ĠÑĨÐµÐ» Ð¾Ð¼
Ñĩ Ð°ÑĤ
ÑģÐº Ð¾ÑĢÐµ
ĠÐ·Ð°ÐºÐ¾Ð½ Ð¾Ð´Ð°ÑĤÐµÐ»ÑĮ
ĠÐ²ÑĭÐ¿ ÑĥÑģÐº
ĠÐĺ ÑĢ
Ġ199 3
ĠÐ´Ð¾Ð± Ð°Ð²
o d
Ðº Ð½Ð¾Ð²
o w
Ñģ ÑĥÑĢ
ĠÐ² Ð½Ð¾Ð²ÑĮ
Ð¸Ð´ Ð¾Ð²
ĠÐ¿ÑĢÐµÐ´ÑģÑĤÐ°Ð² Ð¸ÑĤÐµÐ»ÑĮ
ÑģÑĤÐ² Ð°Ð¼Ð¸
ĠÐŃ Ð½
ĠÐ¾Ðº ÑĢÑĥÐ³Ð°
ĠÐľÐ¾ÑģÐº Ð²Ñĭ
ĠÐ´ Ð¶
Ð½Ð° Ð»Ð°
ĠÐĴ Ð¾
ĠÐ¤ÑĢÐ¸Ð´ ÑĢÐ¸Ñħ
ĠÐºÐ¾Ð¼ Ð¸ÑģÑģ
ĠÐ²ÐµÑĢÑģ Ð¸Ð¸
á ½
ĠÐ³ Ð°
ĠÐł Ð¾Ð¼
ÐµÐºÐ¾ÑĤÐ¾ÑĢ ÑĭÐµ
ÐµÑĢ Ð¸Ð¹
Ġ194 1
Ð¡ Ð¾ÑİÐ·
ĠÐ¿Ð¾Ð·Ð²Ð¾Ð» ÑıÐµÑĤ
ÐµÐ½ ÑĨÐ¸Ñı
ĠÑģ Ð¸ÑĤÑĥÐ°
ÐµÐ¼ Ð¸ÑĢ
ĠÐ¨ Ð²Ðµ
ĠÐ¿Ð¾Ð»ÑĥÑĩ Ð¸Ð»Ð¸
ÑĢÐ° Ð¶Ð´Ð°Ð½
ĠÐ¿Ð¾Ð² ÑĭÑĪ
ĠÑįÐºÑģÐ¿ÐµÑĢÐ¸Ð¼ ÐµÐ½ÑĤ
ĠÐļ Ð°Ð¼
ĠÐ¾ÑĦÐ¸ÑĨÐ¸Ð°Ð»ÑĮ Ð½Ð¾
Ð± ÐµÑĢÑĤ
Ð³ ÑĢÑĥÐ¿Ð¿
ĠÐ¾Ð±ÑĢÐ°Ð· Ð¾Ð²Ð°Ð½Ð¸Ðµ
ĠÐ´Ð¾Ð»Ð¶ ÐµÐ½
ÐµÐ» Ð°Ð½Ð´
ĠÐ§ ÐµÑħ
Ð¾Ð»Ð° Ð³Ð°
ĠÐ´Ð¾Ð»Ð¶ Ð½Ñĭ
ĠÐ½ Ð¾Ð¼
ÐµÐ¹ Ð½Ð°
ĠÐº Ð°Ð»
ĠÑģÑĤ ÑĢÐµÐ¼
Ð¸ÑĤÐµÐ»ÑĮ Ð½Ð¾Ðµ
ĠÑĢÑĥÑģ ÑģÐºÐ¸Ñħ
Ġ199 4
ĠÐ¥ ÑĢÐ¸ÑģÑĤ
ĠÑģÐ¸ÑģÑĤÐµÐ¼ Ñĥ
ĠS t
ĠÐłÑĥÑģ Ð¸
3 3
Ð¼ ÐµÐ´
ÐĿÐ° ÑĨÐ¸Ð¾Ð½Ð°Ð»ÑĮ
ĠÑģÐ¾Ð·Ð´ Ð°Ð½Ð¸Ñı
7 5
Ð¾Ð»ÑĮ ÑĦ
Ð¸Ð² Ð°Ð½Ð¸Ñı
ÐĿ Ð¸Ðº
ÑĥÐ¼ Ñĭ
Ð¢ Ðµ
ĠÐ®Ð¶ Ð½Ð¾Ð¹
ĠÐ¿ÑĢÐµÐ´ ÐµÐ»Ð°
ĠÐ¸ÑģÐ¿ ÑĭÑĤ
ÐĽ Ñİ
ÑĥÐº ÑĢÐ°ÑĤ
ĠÐ¯ ÑĢÐ¾ÑģÐ»Ð°Ð²
ĠÐ´ÐµÐ¿ÑĥÑĤ Ð°ÑĤÐ¾Ð²
Ð°ÑĢ Ð´Ð°
ĠÑĢÐ°Ð·Ð² Ð¸Ð²
Ġ198 9
ĠÐ¿ÑĥÑĤ ÐµÑĪÐµ
ĠÐ¡Ð¾Ñİ Ð·
ĠÐ¶Ð¸Ð²Ð¾ÑĤ Ð½ÑĭÑħ
Ðµ ÑģÐº
ÑģÑĤÐ² Ð¸Ðµ
ĠÐŀ ÐºÑĤ
ĠÑĤÐµÐ»Ðµ Ð²ÐµÐ´
ĠÐ²Ð¾ÑģÑģÑĤ Ð°Ð½Ð¸Ðµ
ĠÑģÐ¾Ð¾ÑĤÐ²ÐµÑĤÑģÑĤÐ² Ð¸Ð¸
ĠÑĤÐµÐ¼Ð¿ÐµÑĢÐ°ÑĤ ÑĥÑĢÐ°
ĠÐ¸ÑģÐ¿ Ð°Ð½
ÑıÑī Ð¸Ñħ
ÑĢÐ°Ð»ÑĮ Ð½ÑĭÐ¹
Ð°Ñı ÑģÑĮ
Ð¡ Ð²
ĠÐ½Ð°Ð·ÑĭÐ²Ð° ÑİÑĤ
9 5
Ðº Ð¸Ð½Ð°
Ð¸Ðº ÑĤ
ÐµÐ»Ð¸ ÑĤÑĮ
Î ½
Ð»Ñı ÑĤÑĮ
ÐĿ Ð°Ñģ
ĠÑĢÐµÐ´ Ð°Ðº
ĠÑįÑĤ Ð½
Ð½Ðµ Ð³
ĠÐ³Ð¾ÑģÑĥÐ´Ð°ÑĢÑģÑĤÐ²ÐµÐ½ Ð½Ð¾Ð¹
ĠÐ´Ð¾Ð»Ð»Ð° ÑĢÐ¾Ð²
ÑĨ ÐµÐ½Ð¸
ĠÐ¾Ð± Ð¾ÑĢ
ĠÐ²Ð°ÑĢÐ¸ Ð°Ð½ÑĤ
ĠÑģÐ²Ð¾ ÑĳÐ¼
Ð¿ ÑĢÐµÐ´
Ð»Ð¸ Ð½Ð°
ĠÑĤÐµ Ð¾ÑĢÐ¸Ñı
ĠÐºÐ¾ÑĢÐ°Ð± Ð»Ñı
Ð½Ð¾ Ð¾Ð±ÑĢÐ°Ð·
Ð¾Ð· Ñĭ
ĠÐ¾ÑģÑĤÑĢÐ¾Ð² Ð¾Ð²
ĠÐº ÑĢÐ¾Ð²
ĠÐ¢ Ð¸Ñħ
ĠÐ²Ð¾Ð¹ÑģÐº Ð°Ð¼Ð¸
ĠÑĤÑĢÑĥ Ð´Ð°
Ð± Ð°Ð½
ĠÐº Ð°Ð½Ð´Ð¸Ð´
ĠÑįÑĤ Ð¾Ð¼Ñĥ
ÐµÐ³ Ð¾ÑĢ
ÐĹ Ð¾Ð»Ð¾ÑĤ
ĠÐ»Ð¸ÑĤÐµÑĢÐ°ÑĤ ÑĥÑĢÑĭ
ĠÐ·Ð°Ð²Ð¸ÑģÐ¸Ð¼ Ð¾ÑģÑĤÐ¸
Ð´ ÐµÐ½Ð°
ĠÐļ Ð°Ð»Ð¸Ð½Ð¸Ð½
ĠÐĲ ÑĤ
ĠÐ¿ÐµÑĢ Ñģ
ĠÐ¾Ð±ÑĢÐ°Ð· Ð¾Ð²Ð°Ð½
Ð¿Ð¾Ð» Ð¸ÑĤ
Ġ194 5
ĠÐ¿ÑĤ Ð¸ÑĨ
ĠÐ½ÐµÐ¿Ð¾Ñģ ÑĢÐµÐ´
Ð¸Ð¹ ÑģÐºÐ¾Ð¹
ĠÐ´Ð² ÑĥÐºÑĢÐ°ÑĤ
ĠÐº ÑĢÑĭ
ÑĪ Ð¸Ð±
ĠÑģÐ² ÐµÑĤÐ°
Ġ% )
Ġ193 0
ĠÑĢÐ° ÑģÑĤÐ²
ĠÐ¶ Ð¸Ð´
ĠÐĲÐ² ÑģÑĤÑĢÐ°
ĠÑĥÐ± Ð¸Ð¹
ĠÐº ÑĥÐ¿
ÑĢÐ¸ ÑĦ
ÐµÐ¼ ÑĭÐ¹
Ð¸Ñģ Ð»Ð°Ð²
ĠÐ²Ð¿ Ð¾Ñģ
ĠÐ» ÐµÐ²
ÑĢÐ¾ Ð¸Ð·
ĠÑģÐ°Ð¼ Ð¾ÑģÑĤÐ¾ÑıÑĤÐµÐ»ÑĮ
ĠÑĢÐµ ÑĪÐµÐ½Ð¸Ñı
ĠÐ¸ÑģÐ¿Ð¾Ð»ÑĮÐ· ÑĥÑİÑĤÑģÑı
ĠÐ¼Ð°Ð³ Ð½Ð¸ÑĤ
ĠÐ½ ÑĭÐ½Ðµ
ĠÑģÑĥÑīÐµÑģÑĤÐ² Ð¾Ð²
Î ¹
Ð¸Ñı Ð¼Ð¸
ĠÐ¶ Ð°Ð½
Ð¢ ÐµÐ¼
Ð¿ ÐµÑĢ
Ñİ ÑīÐµÐµ
ÑĢÐ¸ Ð½Ð°
8 6
ĠÑĩ Ð¸ÑģÑĤ
ĠÐº Ð¾Ð¿
ĠÐ·Ð°Ð¿ÑĢÐµ Ñī
8 5
Ñį Ð»ÑĮ
ÐµÐ´Ð¸Ð½ Ðµ
ĠÐ½Ð°Ð·Ð½Ð°Ñĩ ÐµÐ½
Ð° Ð»ÐµÐºÑĤ
Ðº Ð»ÑİÑĩ
ĠÐ· Ð°Ð»
ĠÑħ ÑĢÐ°Ð½
ĠÐºÑĢÑĥÐ¿ Ð½ÑĭÑħ
ĠÐ²Ð¿Ð¾Ñģ Ð»ÐµÐ´ÑģÑĤÐ²Ð¸Ð¸
Ðĵ Ð»Ð°Ð²
Ð¸Ð¿ ÐµÐ´
Ð¸ÑģÑĤ Ð°Ð½
ÐµÐ»Ð¸ ÑĤ
ĠÑĨ ÐµÐ½
4 5
Ð°Ð½ Ð°Ð²
ĠÐĴ ÑĤÐ¾ÑĢÐ¾Ð¹
ĠÐ¿Ð°ÑģÑģÐ°Ð¶ Ð¸ÑĢ
ĠÐ°ÑĤÐ¼ Ð¾ÑģÑĦÐµÑĢ
ĠÑģ ÑĥÑĤ
Ð°Ð½ Ð´Ð°
ĠÐ¿ÑĢÐ¸ ÐºÐ°Ð·
ĠÐ¨ ÑĤ
ĠÑĢÐµÐ¶ Ð¸Ð¼
ĠÐĴÐµÐ»Ð¸ ÐºÐ¾Ð¹
Ã ©
Ð³ ÐµÑĢ
ÑĨ ÐºÐ¾Ð³Ð¾
Ð°ÑĢ ÑģÐºÐ¸Ð¹
Ñĳ Ð²Ð°
Ð¸Ð² ÑĪÐ¸Ñħ
Ġ8 0
ĠÑĩÐ»ÐµÐ½ Ð¾Ð²
ĠÐ²Ð¾Ð·Ð´ ÑĥÑĪ
ĠÐļ Ð¸ÑĤ
ĠÐ² ÐµÑĢÑħ
a v
Ðµ ÐµÐ²
Ñĥ ÑĢÐ¾Ð²
ĠÐ¾ ÑĢÑĥÐ¶
ĠÐ´ Ð¾Ð±Ñĭ
Ð°Ð¼ Ð°
Ġ199 5
ĠÑĢÐ°Ñģ ÑĪÐ¸ÑĢ
ÑĢÐ°Ð± Ð°ÑĤÑĭ
ĠÐ´Ð¾Ðº Ð°Ð·
Ñı ÑģÑĮ
XX I
ĠÐ²Ð¾Ðº ÑĢÑĥÐ³
ĠÐ¸Ð½Ð¾ÑģÑĤÑĢÐ°Ð½ Ð½ÑĭÑħ
ĠÑĤ Ñİ
Ðļ Ð¾Ð»
ĠÐ½Ð¾Ð² ÑĭÐµ
Ð°ÑİÑī ÐµÐ¹
ĠÐºÐ»Ð°ÑģÑģ Ð°
ĠÑįÐ»ÐµÐ¼ÐµÐ½ÑĤ Ð¾Ð²
ĠÐĽ ÐµÐ²
Ðĺ ÑģÐ¿
ĠÑĩÐ°Ñģ Ð¾Ð²
Ð¸Ð½ ÑĤ
ĠÑĩ ÐµÑĢÑĤ
Ð¶Ð´ Ðµ
Ġ% ),
ĠÐ² ÑģÐ¿
ÐµÑĢ ÑĮ
ĠÐº ÑĢÐ¾Ð¼Ðµ
ĠÐ°Ð± ÑģÐ¾Ð»ÑİÑĤ
7 6
Ñħ Ð¸Ð¼
ĠÐ¿Ð¾ÑĤ Ð¾Ð¼
ĠÑĥÑĢÐ¾Ð² ÐµÐ½ÑĮ
Ð¾ÑĢ ÐµÑĩ
Ð°ÑĤ Ð¾ÑĢÐ°
ÑĭÐ²Ð° ÐµÑĤ
ĠÑĨÐµÑĢÐºÐ¾Ð² ÑĮ
ĠÑģÐ²Ð¸Ð´ ÐµÑĤÐµÐ»ÑĮ
ĠÐ½ Ð°Ð½
ĠÑĪ Ð°Ñħ
Ð¸Ðº Ð¾Ð¹
ÑĳÐ½ Ð½Ð¾Ðµ
ĠÑĢÐ°Ð¹ Ð¾Ð½Ð°
ÐŀÑģÐ½Ð¾Ð² Ð½ÑĭÐµ
ÑĦÐ¸ÑĨÐ¸ ÑĢÐ¾Ð²
Ð»Ðµ Ð±
Ð¸Ð´ Ñĭ
ĠÑģ Ð±
ĠÑĢÐµ ÑģÑĥÑĢ
ĠÑĢÐ°Ð· ÑĢÑĥÑĪ
ĠÐ½Ð¾Ð² Ð¾Ð¹
ĠÑį Ð¼Ð¸
ĠÐĴ ÐµÐ½
ĠÑĤÐ°Ðº Ð¾Ð¹
Ð¾Ð»Ð¾Ð³ Ð¸ÑĩÐµÑģÐºÐ¸Ñħ
Ð¾ÑģÐº Ð¾Ð²
ĠÐ¿ÑĥÑĤ ÑĳÐ¼
Ñı ÑĢ
ĠÐ¿Ð¾Ð¼ ÐµÑī
ĠÐ´Ð¾Ð¼ Ð°
Ð¾ÑĢ Ð´Ð¶
Ð¶Ðµ Ð³Ð¾Ð´
Ð°ÑĢÐ¸ ÑģÑĤ
ĠÐ¼Ð¾Ð´ ÐµÐ»Ð¸
ĠÐ³Ð¾Ð» Ð¾ÑģÐ¾Ð²
ÑĢ Ð¾Ñĩ
Ñĩ ÐµÐ½
Ð¾Ð½ Ð¾Ð¼
ĠÐ²Ñĭ Ð´Ð°
ĠÐ·Ð°Ð½Ð¸Ð¼ Ð°ÐµÑĤ
Ñı ÑİÑĤÑģÑı
ĠÑĩÐµ Ð»
ĠÐ¿ÐµÑĢÐµÐ²Ð¾Ð´ ÑĩÐ¸Ðº
Ð¾ÑĢ ÑĦ
ÐĿ ÐµÑģ
ÐµÐºÑĤ Ð¾ÑĢ
ĠÐ¾Ð±ÑīÐµ ÑģÑĤÐ²ÐµÐ½Ð½ÑĭÐ¹
Ð»Ñı Ð½
Ð¾ÑģÑģ Ð¸Ñı
ĠÐ¿Ð¾Ð²ÐµÑĢÑħ Ð½Ð¾ÑģÑĤÐ¸
ĠÑĢÑı Ð´Ð°
ĠÐĴ Ð°ÑĢ
Ð´Ðµ Ð»Ðµ
ÑĨÐ¸Ð¾Ð½ Ð½Ð¾Ð¹
Ð¸ ÑĨÐ¸
ĠÐ¸ÑģÐ¿Ð¾Ð»ÑĮÐ· Ð¾Ð²Ð°Ð½Ð¸Ñı
Ð°Ð¼ÐµÑĢ Ð¸ÐºÐ°Ð½
Ð°Ð½ ÑĤÐ°
ĠÐ½Ð°Ñĩ Ð°Ð»Ð¸
ĠÐ²Ð¾Ð¹ Ð½Ñĥ
ĠÑĥÐ¼ ÐµÐ½ÑĮ
ĠÐ¼ ÑĭÑĪ
ĠÐ¿ÑĢÐ¾Ð³ÑĢÐ°Ð¼ Ð¼Ð¸ÑĢÐ¾Ð²
ĠÑĩÐµÑĤÑĭ ÑĢÐµ
ĠÐ¾ÑĤÐ½Ð¾ÑģÑıÑĤ ÑģÑı
ĠÐ¾ÑĤ Ð²
ĠÐ±Ð¾Ð»ÑĮÑĪ Ð¾Ðµ
ĠÐľ Ð°Ð½
ĠÐ¿ÑĢÐµÐ´ Ð¼ÐµÑĤ
ĠÐ¸ÑģÑģÐ»ÐµÐ´ Ð¾Ð²
ĠÐ±ÐµÐ» Ð¾ÑĢÑĥÑģ
ĠÑįÐ½ÐµÑĢÐ³ Ð¸Ð¸
Ð¾Ðº Ð¾Ð»
4 7
ĠÐ» ÑĮ
ĠÐŀ ÑģÑĤ
ĠÐ» Ð¸Ð´
ĠÐ¿Ð¾Ñģ Ð°Ð´
ĠÐ½Ð°ÑħÐ¾Ð´ ÑıÑĤÑģÑı
ĠÐ¶ÐµÐ½Ñī Ð¸Ð½
ÑģÑĤ Ð°
ÑĨ Ñĥ
Ð»Ð¾Ð² Ð°
ĠÐ¿ÑĢÐ°Ð² Ð»ÐµÐ½Ð¸Ñı
Ð¸Ð² Ð½ÑĭÑħ
ĠÑĢÐ°Ð· Ð¼
es s
ĠÐĴÐ¸Ð»ÑĮ Ð³ÐµÐ»ÑĮ
ĠÐ² Ð²
ĠÑģÐ¿ ÐµÐºÑĤ
ĠÐ¿Ð¾Ð»ÑĮ ÑģÐºÐ¸Ð¹
Ð¸Ð½ Ð´
ĠÐĿ Ð¾ÑĢÐ²
ĠÑģÐ¾Ð± ÑĭÑĤÐ¸Ñı
Ð½ÐµÐ² ÐµÐº
ĠÑģÐ°Ð¼ Ð¾Ð³Ð¾
ĠÑıÐ·Ñĭ ÐºÐ°Ñħ
9 7
ĠÐ¿ ÑĥÑģÑĤ
ĠÐ¾ ÑĪÐ¸Ð±
ĠÐ´Ð¸ ÑģÐº
ĠÐŁÐ¾ÑĢÑĤ ÑĥÐ³
ĠÐ¾ÑĤ Ð¼ÐµÐ½
ĠÐ´ÐµÐ¼ Ð¾Ð½
ÐŃÑĤ Ð¾ÑĤ
ĠÑĥ ÑĢÐ°Ð²Ð½
ĠÐľ Ð°ÑĢÑĤ
Ð¸ÑĤÐµÐ»ÑĮ Ð½Ð¾ÑģÑĤÑĮ
ĠÐ°Ð½ÑĤ Ð¸Ñĩ
Ð¾Ð½ Ð¾Ñģ
ÑĦ Ð¸Ð»ÑĮ
Ð¸Ð² Ð½Ð¾Ð¹
ĠÐļ Ð¸ÑĤÐ°
ÐĲ Ð»ÑĮ
ĠÐ¼Ð¸Ð½ Ð¸Ð¼
o c
Ð¾Ð± ÐµÐ´
ĠÐŁ Ð»Ð°ÑĤ
ĠÐ¸ Ð½Ð¸
Ġ199 8
ĠÐ¸ÑģÐ¿Ð¾Ð»ÑĮÐ·Ð¾Ð² Ð°ÑĤÑĮ
ĠÐ²Ð½ÑĥÑĤ ÑĢÐ¸
ĠÐ´Ð¾ÑģÑĤÐ°ÑĤÐ¾Ñĩ Ð½Ð¾
9 8
ÑģÑĤ Ð¾
ĠÑģÐ¾ Ð¾ÑĢÑĥÐ¶
ÐŃ ÑĤÐ¸
ĠÐ·Ð½Ð°Ñĩ Ð¸ÑĤÐµÐ»ÑĮÐ½Ð¾
ĠÐ¼Ñĥ Ð½Ð¸ÑĨÐ¸Ð¿
ÑĥÑī Ð¸Ñħ
ĠÑįÐ¿Ð¾Ñħ Ð¸
5 5
Î µ
ĠÐº ÑĢÐ¸Ð·
Ð¸Ð½ ÑĮ
ĠÐºÐ¾Ð½ ÑĦÐµÑĢ
Ðĵ Ð£
ÑİÑī Ð¸Ð¼
Ġ199 7
ĠÐ¿ÑĢÐ¾Ð¸Ð·Ð²Ð¾Ð´ ÑģÑĤÐ²Ð¾
Ð¼ Ð¾Ð²
Ð°Ð¼ ÑıÑĤ
ĠÐ¿Ð¾Ð· Ð¶Ðµ
ĠÐ²Ð¼ÐµÑģÑĤ Ð¾
Ġ a
ĠÐĲ ÐºÐ°Ð´ÐµÐ¼
ÐĿ ÐµÐºÐ¾ÑĤÐ¾ÑĢÑĭÐµ
Ð·ÑĭÐ²Ð° ÐµÑĤ
ĠÐ¾ÑģÑĤÑĢÐ¾Ð² Ðµ
ĠÐļ Ð¸ÐµÐ²
ĠÐ° ÑĦ
ĠÐ±ÐµÐ·Ð¾Ð¿Ð°Ñģ Ð½Ð¾ÑģÑĤÐ¸
ÑĤ Ð°Ðº
ÐµÑģ Ð°
Ð± ÑĢÑĮ
Ñĳ ÑĢÐ°
Ðŀ Ðº
Ð¸Ð»Ð¸ Ñī
ĠÑģÐ¾Ðº ÑĢÐ°Ñī
ĠÐ¾ Ð¶
ĠÐ± Ð»Ð¾Ðº
ÑĨÐ¸Ð¾Ð½ Ð½ÑĭÑħ
ĠÐ¸Ð½ÑĤ ÐµÐ»
ĠÐ¿ Ð°Ð»
Ðł ÐµÐ»Ð¸
ĠÐ¿ÑĢÐµÐ´ÑģÑĤÐ°Ð² Ð¸ÑĤÐµÐ»ÐµÐ¹
ĠÐ²Ð¾ÐµÐ½ Ð½ÑĭÑħ
ĠÐµÐ² ÑĢÐµÐ¹
ĠÐ·Ð° Ð±
ĠÑģÐµÑĢ ÐµÐ´Ð¸Ð½Ðµ
ĠXV I
ĠÑĥÑģÐ¿ ÐµÑĪ
Ð°Ð»ÑĮ Ð½Ð¾Ð¼
Ðº Ð»Ð¸
Ð² Ð°ÑĢÐ´
ĠÐ³ ÑĢÐ°Ð²
ĠÑį ÐºÐ¸Ð¿Ð°Ð¶
Ð¸Ð» Ð¾Ð²
ĠÐ¿Ð°Ð¼ÑıÑĤ Ð¸
ĠÐ°ÐºÐ°Ð´ÐµÐ¼ Ð¸Ð¸
ĠÐ²ÑĭÐ¿Ð¾Ð» Ð½Ñı
ĠÐ°Ð½Ð° Ð»Ð¸Ð·
Ð¢ Ðŀ
ĠÐ¼ ÑĥÑģÑĥÐ»ÑĮÐ¼Ð°Ð½
ĠÐ¿Ð¾Ñģ ÑĳÐ»
ĠÐĲÐ² Ð³ÑĥÑģÑĤ
4 8
ĠÐ¿ Ð¸Ñī
Ð¾Ð´ Ñĭ
Ð°Ð± ÑĢÐ¸
ĠÐ½ÐµÑĦ ÑĤ
ĠÑĥÑĩÐ° ÑģÑĤÐ²Ð¾Ð²
ĠÑħÐ¾Ðº ÐºÐµ
ĠÐ´ Ð½Ð¸
ĠÐ¾ÑĢ Ð³
Ð¸Ð½Ð³ Ð²
Ð°Ðº Ñĥ
ÑģÐ¿ Ð¾ÑĢÑĤÐ°
ĠÐĶ Ð¸
ĠÐ±ÑĥÐ´ Ð´
ĠÐ¸Ð·Ð¼ÐµÐ½ ÐµÐ½Ð¸Ñı
ÑĢÐµ ÑĩÐµ
ĠÐł Ð¸Ñĩ
Ð¸Ð·Ð° ÑĨÐ¸Ñı
ĠÐºÐ¾Ð½ÑĨ ÐµÐ¿
ĠÐĿÐ¾Ð² Ð³Ð¾ÑĢÐ¾Ð´
ÐĴ Ñģ
ĠÐŁ ÑĥÑĤ
ĠÐ¿ÑĢÐµ Ð¸Ð¼ÑĥÑīÐµ
Ð¤ ÑĢÐ°Ð½
Ð²Ðµ Ñī
Ñĳ Ð¶
ĠÐĳ Ð°Ð»ÑĤ
ÑĥÐ¼ Ð±
ÑĥÑī Ð°Ñı
ĠÐĺÐ½Ð´ Ð¸Ð¸
ĠÐ¿ÑĢÐµÐºÑĢÐ° Ñī
u b
Ġ ÑĨÐ¸ÑĦ
ĠÑģÐ»ÑĥÑĩ Ð°Ð¹
ĠÐ£Ð¸Ð»ÑĮ ÑıÐ¼
ĠÐ¾Ð³ ÑĢÐ¾Ð¼
ĠÐ°ÑĢÑħÐ¸ÑĤÐµÐºÑĤ Ð¾ÑĢ
ĠÐ´Ð¸Ð¿Ð»Ð¾Ð¼Ð°ÑĤ Ð¸ÑĩÐµÑģÐºÐ¸Ðµ
ÑģÑĤÐ² ÑĥÐµÑĤ
ĠÐ± Ð¾Ð»ÑĮ
ĠÐºÐ¾Ð¼Ð¿ Ð°Ð½Ð¸Ñı
ĠÐ²Ð· Ð³Ð»Ñı
ĠÐ½Ð°Ð¿ÑĢÐ°Ð² Ð»ÐµÐ½Ð¸Ñı
ĠÐ¼ÐµÑģÑĤ Ð°
Ð½Ñĥ Ð¶Ð´
ĠXV II
ĠÐ³Ðµ Ð¾Ð³ÑĢÐ°ÑĦ
ĠÐľÐ¸Ð½ Ð¸ÑģÑĤ
6 4
Ð¾Ð³ÑĢÐ° Ð´
ĠÐ¼Ð¾Ð½ Ð°ÑĢÑħ
ĠÐ´Ð¾ÑĢÐ¾Ð³ Ð¸
Ġ v
ĠÐ¼ ÐµÑĢÐµ
Ð¸Ð½ ÐµÐ½ÑĤ
ĠÐĵ Ð°
Ð¸Ð´ Ðµ
ĠÐ½Ð°Ñĩ Ð¸Ð½
ĠÐº Ð¾ÑĪ
ÑĪ Ð¸ÑģÑĮ
ÐŁ ÑĢÐ°Ð·Ð´
ĠÑģÐ¾Ð» Ð½ÐµÑĩ
Ð³ Ð¾Ð»ÑĮ
ĠÑĤ ÑĢÐµÐ½
ĠÐ½Ð°Ñģ ÑĩÐ¸ÑĤ
ĠÑĪÐ¸ÑĢÐ¾Ðº Ð¾
o v
Ð¾ÑĢ ÑıÐ´
ĠÐºÐ»Ð¸ Ð¼Ð°ÑĤ
ÑĢ Ð¾ÑĢ
ÐŁÐ¾Ñģ Ð»ÐµÐ´
ĠÐ¾Ð¿ÐµÑĢÐ° ÑĨÐ¸Ð¸
ÐŁÐ¾Ñĩ ÑĳÑĤ
Ðļ Ð°ÑĢ
ĠÑĢ ÑĭÐ½
ĠÑĥÐ´ Ð°Ð»Ð¾ÑģÑĮ
ĠÐŁ Ð¾Ñģ
ÐºÐ¾Ð² ÑģÐºÐ¸Ð¹
Ð°ÑĢÐ¸ Ñı
ĠÑįÐºÐ¾Ð½Ð¾Ð¼ Ð¸ÐºÐ¸
ĠÐ¿ÑĢÐ¾Ð¸Ð·Ð¾ÑĪ Ð»Ð¾
ĠÑģÑĥÐ± ÑĬÐµÐºÑĤ
ĠÑĥÐº ÑĢÐµÐ¿
Ð¸Ð½ ÑģÑĤÐ²Ð¾
ÐĿ Ðł
ĠÐĲÐ· ÐµÑĢÐ±Ð°Ð¹Ð´Ð¶
ĠÑĥÐºÑĢÐ° Ð¸Ð½ÑģÐºÐ¸Ð¹
Ð¸ÑĤÐµÐ»ÑĮ Ð½Ð°Ñı
ĠÐ¿Ð¾ÑģÐ»ÐµÐ´ Ð½Ð¸Ð¹
ĠÐľÐ°ÑĢ Ðº
Ġd e
Ñį ÑĢ
ĠÐĲ Ñħ
ĠÐ²Ðº Ð»Ð°Ð´
Ð¾Ð² ÐµÑĢ
Ð¾Ð´ Ð½Ñı
ĠÐ¡ Ð¾Ð»
ĠÐ±Ð¾Ð³ Ð¾ÑģÐ»Ð¾Ð²
Ð» Ð°Ð½ÑĤ
ĠÐ² ÐµÑĩ
Ð»Ð°Ð½Ð´ ÑģÐºÐ¸Ð¹
ÐµÐ½ Ð¾Ð¼
ĠÑĨ Ð¸Ðº
ĠÐ½Ð°Ñĩ Ð°Ð»Ð°ÑģÑĮ
ÑĨÐ¸Ð¾Ð½ Ð½ÑĭÐµ
ÑĨÐ¸Ñı Ð¼Ð¸
ĠÐ¼Ðµ Ð¶
ÐµÐ´ Ð¸
ĠÐĶ ÐµÐ¼
ĠÐ¾Ðº ÐºÑĥÐ¿
Ð¸ÑĤÐµÐ»Ñı Ð¼Ð¸
ĠÐ¾Ð±ÑĬÐµÐºÑĤ Ð¾Ð²
Ð¿ ÑĤÐ¾ÑĢ
Ð»ÐµÐ½ Ð½ÑĭÑħ
ĠÐĽÐµÐ½Ð¸ Ð½Ð°
Ð° ÐµÐ²
Ñĥ Ð¹
ĠÐ³ Ð¾ÑĤÐ¾Ð²
Ð°Ð»ÑĮ Ð´
ĠÐ²ÑĢÐµÐ¼ ÐµÐ½
Ð¾ÑĢÑĤ Ñĥ
ÑĦÐµÑĢ ÐµÐ½Ð´
ĠÐ·Ð°Ð¼ ÐµÑĤ
ĠÐ²ÑĢÐ° Ñĩ
ĠÐ¼ Ð°ÐºÑģÐ¸Ð¼
ĠÐŁ ÑĢÑĥÑģÑģ
ÐµÐ³ Ð¾Ð´Ð½Ñı
ĠÐ¿ÑĢÐ¸Ñģ ÑĥÑĤÑģÑĤÐ²
ĠÑģ Ð½Ð¸
ĠÑĢÐ° ÑģÐº
ÑĥÑİ ÑīÐµÐ³Ð¾
Ð¢ ÐµÑĢ
ÐºÑĢÐ°ÑĤ Ð½ÑĭÐ¹
8 8
ĠÐº ÑĤÐ¾
ÐµÑĢÐ° Ð¼Ð¸
ÑĥÐ¼ Ðµ
Ð» Ð¾Ð´
Ð¸ÑģÑĤ ÐºÐ°
ĠÐ²Ð¾Ð·Ð¼Ð¾Ð¶ Ð½Ð¾ÑģÑĤÐ¸
ĠÐ¿ ÐµÑĩÐ°ÑĤ
Ġ( ,
ĠÐļ Ð°
ĠÐ¾Ð¿ Ð°Ñģ
ĠÐ¿Ð¸Ñģ Ð°Ð»
ĠÐ¿Ð¾ÑģÐ»ÐµÐ´ Ð¾Ð²Ð°ÑĤÐµÐ»ÑĮ
ÐŁÐµÑĢÐ² ÑĭÐ¹
ĠÐ¾ Ð²
ĠÐ± Ð°ÑĢ
Ð¾ÑģÑĤ ÑĢÐ¾
ÑĤ ÑĢÐ°
ÐĲ ÐĿ
ĠÐĲÐ»ÐµÐºÑģ ÐµÐ¹
ĠÐºÐ½ÑıÐ· Ñı
ĠÑģÐ² Ñı
ĠÑĢÑĥÑģ ÑģÐºÐ¾Ð¼
ĠÐ»Ñİ Ð´Ð¸
ÑĦ Ð¸Ð·
Ð°Ð»ÑĮ Ð½ÑĥÑİ
ĠÐ²Ñĭ Ð½ÑĥÐ¶Ð´
ĠÐ¶ Ð¸Ð»
ĠÐ³ÑĢÐ°Ð½ Ð¸ÑĨÑĭ
e x
ĠÐ¡ Ð¸Ð¼
ÐµÐ½ÑĤ Ñĭ
ÐĲ Ðŀ
ĠÐ´Ð¾Ð»Ð¶ Ð½Ð¾ÑģÑĤÑĮ
ĠÐĹÐ°Ð¿Ð°Ð´ Ð½Ð¾Ð¹
ĠÐĲÐ¼ÐµÑĢ Ð¸ÐºÐ¸
ÑĢ Ð¾Ð¶
ÑĢÐ¸ ÐºÐ°Ð½
ĠÑĤ ÑĥÑĢÐµ
ĠÐ¡ ÐŁ
ÐĲ Ð´
Ð°Ð¹ Ð½
Ð¿ Ð°
ĠÑĢÐ°ÑģÐ¿ Ð¾Ð»Ð°Ð³Ð°
ĠÑĤÑĢÐ°Ð½ Ñģ
ĠÐ²ÑĭÐ±Ð¾ÑĢ Ð¾Ð²
ĠÐº Ð¸Ð»
ĠÐ± ÐµÐ¶
ĠÐ½Ð°ÑĢÐ¾Ð´ Ð½Ð°Ñı
ĠÐ¾ÐºÐµ Ð°Ð½Ð°
ĠÑıÐ·Ñĭ ÐºÐ¸
ÐŁÐ¾ ÑįÑĤ
ĠÑģÐµÑĤ Ð¸
e w
ĠÐ¿ Ð°ÑĤÑĢÐ¸
ĠÐļ Ð¸ÑĤÐ°Ð¹
Ðľ Ð°ÑĢ
ĠÐ´Ð¸ ÑĢÐµ
ĠÐ¾ÑĤ ÑĢÐ¸ÑĨ
ĠÐ» ÑĳÐ³
ĠÐĶ Ð°Ð½Ð¸Ð¸
ĠÐ¿ÑĢÐ¸Ð²Ð¾Ð´ Ð¸ÑĤ
ĠÑĢÐµÐ»Ð¸Ð³ Ð¸Ð¸
Ð½Ð¾Ð³ Ð¸Ðµ
Ðľ ÐµÐ¶Ð´ÑĥÐ½Ð°ÑĢÐ¾Ð´
ĠÐ½Ð°Ñĩ Ð°Ð»Ð¾ÑģÑĮ
ĠÐķÐ²ÑĢÐ¾Ð¿ ÐµÐ¹
ĠÐĳÐ¾Ð» Ð³Ð°
Ð½ ÐµÑĤ
ÐµÑĢ ÑĭÐ²
Ġ194 0
ĠÐ´ ÐµÑĢÐ¶
ĠÐ± Ð¾Ð¶Ðµ
ĠÐł Ð¾Ð´
ĠÐ³Ð»Ð°Ð² Ð½ÑĭÐ¼
ĠÐ±Ð¾Ð³ Ð°ÑĤ
ĠÐºÐ¾Ð¼Ð¿ÑĮÑİÑĤ ÐµÑĢ
ÐĿÐµÑģ Ð¼Ð¾ÑĤÑĢÑı
a b
ĠÐ´ Ð°Ð»Ðµ
Ð°Ð¼ ÐµÐ½
ĠÐłÐµÑģÐ¿ÑĥÐ±Ð»Ð¸ ÐºÐ°
ĠÑĦÐ¸Ð½ Ð°Ð½ÑģÐ¾Ð²
ĠÑģÐ²ÑıÑīÐµÐ½ Ð½Ð¾Ð¼ÑĥÑĩÐµÐ½Ð¸
Ð¾ Ñĥ
ÑĪ Ð°
Ġ1 000
ĠÐ· Ð°ÑĢ
ĠÐ¿ÐµÑĢ ÐµÑģÑĤ
ĠÐĸ Ð°Ð½
Ð² Ð°ÑĢ
ĠÑĢÐ°Ð· Ð½Ð¾Ð¾Ð±ÑĢÐ°Ð·
ĠÐ¾Ð¿ ÑĤ
ĠÐ¸ÑģÐ¿ Ð°Ð½ÑģÐºÐ¸Ð¹
ĠÐ¿Ð¾ÑģÑĤ ÐµÐ¿
ĠÐłÐ¸Ð¼ ÑģÐºÐ¾Ð¹
ĠÐĿÐ¾ÑĢÐ² ÐµÐ³
ÐµÐ¼ Ð¾Ð¹
Ð¾Ð»Ð¾Ð³ Ð¸ÑĩÐµÑģÐºÐ¸Ðµ
Ð± Ð½
ĠÑĩ ÐµÑĢ
ĠÐļ Ð°ÑĢÐ°
Ðľ ÐµÐ´
ĠÐ¾Ð¿ ÐµÑĢ
ĠÑģÐ²Ð¾Ð¹ ÑģÑĤÐ²Ð°
ĠÐ±Ð¸Ð±Ð»Ð¸Ð¾ÑĤ ÐµÐº
9 4
ĠÐ² ÐµÑĢÑĤ
Ð· Ðµ
ĠÐ³ ÐµÑĢÐ±
ĠÐľÐ°ÑĢÐ¸ Ñı
Ð² Ð°Ð»
ĠÐ² Ð¸Ð·
ÑĢÐ¸ Ñģ
Ð¾Ñģ Ð¿Ð¾Ð´
ĠÐĵ ÑĢÑĥÐ·
ĠÐŃ ÑģÑĤÐ¾Ð½
ÑĳÐ· Ð´
ĠÐĽÐ°ÑĤ Ð²
ÐĻ Ð¾ÑĢ
Ðº Ð¸Ð¼Ð¸
Ð¸ÑĤÐµÐ»ÑĮ ÑģÑĤÐ²Ð¾
Ð¸ÑĢÐ¾Ð² Ð°Ð½Ð¸Ðµ
ĠÐ¿Ð»Ð¾ÑīÐ°Ð´ ÑĮ
Ð¾Ñģ Ð¸Ð±Ð¸ÑĢ
ĠÑĦÐ¾ÑĢÐ¼ Ðµ
ÐŀÐ± Ñī
Ð»Ñĥ Ð³Ð¸
ÐµÐ½Ð³ ÐµÑĢ
ĠÐ¿ÑĢÐµÐ´Ð¿Ð¾Ð» Ð¾Ð¶
Ð°Ð» Ð»Ð¸
ĠÑģÐ¿ ÑĢÐ°Ð²
ĠÑģÐ¾Ð²ÐµÑĤ ÑģÐºÐ¾Ð¹
ĠÐ²Ð¾ÐµÐ½ Ð½Ð¾Ð³Ð¾
ĠÑģÐµÐ²ÐµÑĢ Ðµ
ĠÐ² Ð½
ĠÐ´Ð¸ Ð°Ð»ÐµÐºÑĤ
ĠÐ¿ÑĢÐ¸Ð½ÑıÑĤ Ð¾
ĠÑĢÐ°Ðº ÐµÑĤ
ĠÐ¸Ð½ÑģÑĤÑĢÑĥ Ð¼ÐµÐ½ÑĤ
ĠÐ³Ð¾ÑĢÐ¾Ð´ ÑģÐºÐ¾Ð³Ð¾
ĠÑģÐ¾Ð²ÑĢÐµÐ¼ÐµÐ½ Ð½ÑĭÑħ
ĠÐ¼Ð¾Ð» ÐµÐº
ĠÐ¾ÑĤÐ½Ð¾ÑĪ ÐµÐ½Ð¸Ð¸
Ð¾Ð¼ Ð±
Ð°Ñħ Ð°
ÐŁÑĢÐ°Ð² Ð¾ÑģÐ»Ð°Ð²
ĠÐ¡ ÐµÐ½
ĠÐ¿Ð¾Ð» ÑĳÑĤÐ°
ÑĳÐ½ Ð½ÑĭÐ¼Ð¸
ĠÐ¾Ð´ Ð½Ð¾Ð²ÑĢÐµÐ¼ÐµÐ½Ð½Ð¾
Ð¸Ð± Ð¾Ð»ÑĮÑĪ
ĠÐ³Ð¾ÑĢÐ¾Ð´ ÑģÐºÐ¾Ð¹
ĠÑģÐ¿ Ð¾ÑĢÑĤÐ°
ĠV I
ĠÑģÐ¾Ð· Ð´Ð°
ĠÐ¼Ð¸Ð»Ð»Ð¸ Ð¾Ð½Ð¾Ð²
ĠÐ¾ÑĤ Ð´ÐµÐ»
ĠÐ¿Ð¸ÑģÐ°ÑĤÐµÐ»ÑĮ Ð½Ð¸ÑĨÐ°
ĠÑģÐ¾ÑģÑĤÐ°Ð²Ð»Ñı ÑİÑĤ
ĠÐŁÑĢÐµ Ð·Ð¸Ð´ÐµÐ½ÑĤ
Ð¾Ð´ ÐµÐ»ÑĮ
ÐµÐ½Ð¸ Ð½
ĠÐ½Ðµ Ñĳ
Ð¸Ð» Ð»
ÑĳÐ½ Ð½Ð¾ÑģÑĤÑĮ
ĠÑģÐ¾Ð·Ð´ Ð°Ð²
ĠÐ´Ð²ÑĥÐ¼ Ñı
ĠÐ¸ Ð»
ÑıÑĤÑĮ ÑģÑı
ĠÐ¼Ð¸Ð½ ÑĥÑĤ
ĠÐ½ÐµÐ² Ð¾Ð·Ð¼Ð¾Ð¶
Ð³ Ð¾Ð»
ĠÑĩ Ð¸ÑĤ
ĠÐ¾Ð¿ ÑĭÑĤ
ĠÐ¾ÑĤÐ½Ð¾Ñģ Ð¸ÑĤÑģÑı
ĠÐĿÐ¸ÐºÐ¾Ð» Ð°Ñı
ĠÐ¿Ð¾Ð»Ð½Ð¾Ð¼ Ð¾Ñĩ
Ð² ÑĪÐ¸Ð¹
Ñĩ Ð½Ð¾
Ñİ ÑīÐµÐ³Ð¾
ĠÑĢÐµ ÑĦÐµÑĢÐµÐ½Ð´
ĠÑİ Ð³Ðµ
ĠÐĲÐ»ÐµÐºÑģÐ°Ð½Ð´ ÑĢÐ¾Ð²
ĠÑĩÐ»ÐµÐ½ Ñĭ
ĠÐ·Ð´ Ð°Ð½Ð¸Ñı
ĠÐ°Ð»ÑĦÐ°Ð² Ð¸ÑĤ
Ġ "
ÑĨ ÐµÑģÑģ
Ð¸Ð»Ð¸ Ð¸
ĠÑģÐ¾ ÑĨÐ¸Ð°Ð»Ð¸ÑģÑĤ
Ġ3 5
ĠÐ¿ÑĢÐ¾ÑĦÐµÑģÑģ Ð¸Ð¾Ð½
ĠÐ´Ð¸ÑĢÐ¸Ð¶ ÑĳÑĢ
ÐŃ Ðº
ĠÑģÐ¾Ð·Ð´ Ð°Ð½Ð¸Ðµ
ĠÑģÑĤÐ°ÑĤ Ð¸ÑģÑĤ
Ð·Ñĭ Ñĩ
ĠÐ²ÐºÐ»ÑİÑĩ Ð°ÐµÑĤ
ĠÐ²Ð¾Ð·Ð¼Ð¾Ð¶ Ð½Ð¾
ĠÑħÐ°ÑĢÐ°ÐºÑĤÐµÑĢ Ð¸ÑģÑĤ
ĠÐ°Ð²ÑĤÐ¾Ð¼ Ð°ÑĤ
ĠÑģÐ¾Ð³Ð»Ð° ÑĪÐµÐ½Ð¸Ðµ
ĠÐ·Ð½Ð°Ð¼ ÐµÐ½Ð¸ÑĤ
X V
Ð´ Ð¾Ð¼
ĠÐŁ Ð°
ĠÑħ Ð¾Ð´
ĠÐ¾ÑĢ Ð´ÐµÐ½Ð°
9 2
Ð· Ð¸Ð¸
ĠÐ» Ð°Ð³
Ðľ ÐµÑĤ
ÐµÑĢÐ½ ÐµÑĤ
ĠÐ³Ð¾Ð» Ð¾Ð²
ĠÐ¡Ð¾ ÑĨÐ¸Ð°Ð»Ð¸ÑģÑĤ
ÑĨÐ¸Ð¾Ð½ Ð½ÑĭÐ¹
Ð²ÐµÑģÑĤ Ð¸
Ð°Ð½ Ð½Ð¾Ðµ
ÐµÐ² ÑģÐºÐ¸Ð¹
ĠÐĵ Ð°ÑĢ
ÐĲÐ»ÐµÐºÑģ Ð°Ð½Ð´
Ð¾Ð» Ð½Ñı
Ð¾Ðº Ð¾
Ð¸Ð² Ñĭ
ĠÑĨÐµÐ½ÑĤ ÑĢÐ¾Ð¼
6 5
ĠÑģÑĤ ÑĢÐµ
ĠÐĴ Ð¸ÑĤ
Ð¼Ð¸ ÑĢÑĥ
ĠÐĽ Ð¸
ĠÐ¿ÑĢÐµ Ñģ
ĠÐ²Ñģ Ñİ
el l
ĠÐ¿ÑĢÐ¾ÑĦÐµÑģÑģ Ð¾ÑĢ
Ð¸Ð¼ Ð¾ÑģÑĤÐ¸
ĠÑģÐ¾Ð± Ð¾ÑĢ
ĠÐ¿ÑĢÐ¸ÑĢÐ¾Ð´ Ñĭ
ĠÐ¾Ð± Ð¾ÑĢÐ¾Ð½Ñĭ
Ð½Ð° Ð·Ð½Ð°Ñĩ
ĠÐ¢ ÑĢÑĥ
ĠÑĢÐµÐ·ÑĥÐ»ÑĮÑĤ Ð°ÑĤ
ĠÑģÐ¸Ð»ÑĮ Ð½Ð¾
ĠÐĵÑĢÐ¸ Ð³Ð¾ÑĢ
Ġ3 1
ĠÐ°ÑĢÐ¼ ÑıÐ½
ĠÑĤÑĢÐµÐ½ ÐµÑĢ
ĠÐ¿Ð¾ ÑıÐ²Ð»Ñı
ĠÐ¢ Ðµ
ĠÐ·Ð°Ð¿ Ð°Ñģ
ĠÐºÐ°ÑĤ ÐµÐ³Ð¾ÑĢ
ĠÐºÐ¾Ð½Ðº ÑĢÐµÑĤ
ĠÑģÑĤ Ð°Ð´
Ð³Ð¾ Ðµ
ĠÑĢÐ°Ð±Ð¾ÑĤ Ðµ
ĠÑģÐ¼ÐµÑĢ ÑĤ
Ñģ ÐµÐ½
Ð» Ð»Ðµ
ÑģÑĤ Ð°Ð½Ð°
ĠÐ² Ð²Ð¾Ð´
Ð¸ÑģÑĤ Ð°Ð½Ð°
Ð¾ ÑħÐ¾Ð´
Ð¸Ñģ Ð¾Ðº
ĠÐŁ Ð°Ð¿
ĠÑįÑĤ Ñĥ
ÐŃ ÑĤÐ°
Ð¸Ð³ ÑĢÐ°
ĠÐ½Ð°Ð·Ð² Ð°Ð½Ð¸ÐµÐ¼
ĠÐºÐ¾Ð½Ðº ÑĥÑĢ
ĠÐ½Ð°ÑĢÐ¾Ð´ Ð¾Ð²
ĠÑĪÐº Ð¾Ð»Ð°
ĠÐ¾Ð±Ð¾ÑĢ ÑĥÐ´
ÐºÐ° Ð·ÑĭÐ²
Ð¸Ð² Ð°ÑĤÑĮ
ĠÐł Ñĥ
ĠÑĢÑĥ Ðº
ĠÐ¿Ð¸ÑģÑĮ Ð¼ÐµÐ½
6 8
c e
Ð° ÑĨÐ¸Ñı
Ð°Ð½ Ð½Ð¾Ð³Ð¾
ĠÐ³ ÐµÑĢÐ¼Ð°Ð½
ÐµÐ¹ ÑĩÐ°Ñģ
ĠÑĢ Ð¾Ð»Ð¸
ĠÐ¸ÑģÐ¿Ð¾Ð»ÑĮÐ· Ð¾Ð²Ð°Ð½Ð¸Ðµ
ĠÑĤÑĢÐ°Ð½ ÑģÐ¿Ð¾ÑĢÑĤÐ°
ĠÑĥÑģÑĤÐ°Ð½Ð¾Ð² Ð»ÐµÐ½
ĠÐ½Ð°ÑĥÑĩ Ð½Ð¾
ĠÑĢÐ°ÑģÐ¿Ð¾Ð»Ð¾Ð¶ ÐµÐ½
u d
ĠÑģÑĢÐµÐ´ ÑģÑĤÐ²Ð°
Ð¿ Ð¸ÑĤ
ÑĨÐ¸Ð¾Ð½ Ð½Ð¾Ð³Ð¾
Ð·Ð° ÑĨÐ¸Ð¸
ĠÑĥÑĩ ÐµÐ½Ð¸
Ñħ Ð¾Ð²
Ð°ÑĤ Ð°ÑĢ
Ð°Ð² ÐºÐ°Ð·
ĠÐ¿Ð¾Ð» Ðµ
Ðŀ Ð½Ð°
Ð½Ð¸ ÑĨÑĭ
ĠÑĢÐ°ÑģÐ¿ ÑĢÐµÐ´
ÐµÐ± ÑĢÐ°
ĠÑģÐ¾ÑĤÑĢÑĥÐ´ Ð½Ð¸ÑĩÐµ
i b
i o
ĠÐ¡ Ðº
ĠÐ¾ÑĤ ÑĢÐ°Ñģ
ĠÑĢÐµ Ð°Ð»Ð¸Ð·
Ð°ÑĢÑĤ Ðµ
ĠÐļ ÑĢÑĭ
Ð²Ð° ÑİÑĤÑģÑı
ĠÐ¨Ð²Ðµ ÑĨÐ¸Ð¸
a y
Ñ ĸ
ÑĥÑģ Ð»Ð¾Ð²
Ð¾Ð²Ð°Ð½ Ñĭ
ĠÐ²ÐµÐº Ð¾Ð²
ĠÑĥÑģÐ¿ ÐµÑħ
Ð½ ÐµÐ½Ð¸Ñı
Ð¼ ÐµÐ¹
Ð³ ÐµÐ½
ĠÐ± ÑĢÐ°
ÐµÐ¼ Ð°
Ġ19 19
ĠÑĥÐ¿ Ð¾Ð¼Ð¸Ð½
ĠĠĠĠ ĠĠĠĠ
ĠÐ¿ÑĢÐµÐ´ÑģÐµÐ´ Ð°ÑĤÐµÐ»ÑĮ
ÐŁÑĢÐ°Ð·Ð´ Ð½Ð¸ÐºÐ¸
6 7
ĠÐ» ÐµÐ¶
ĠÐľ Ð°Ð»
ĠÐ¿Ð¾ÑģÐ»ÐµÐ´ Ð½Ð¸Ðµ
ĠÑĢÐ°Ð² Ð½
Ð½Ñĭ Ð½Ðµ
ĠÑĦ Ð¸Ð»
Ðļ ÑĢÑĥÐ¿
ĠÐ¶ ÐµÑĢÑĤ
ĠÐ¡ÑĤ Ð°Ð»Ð¸Ð½
ĠÑħÐ°ÑĢÐ°ÐºÑĤÐµÑĢ Ð¸Ð·
ĠÑĥÑĢÐ¾Ð² Ð½Ðµ
ĠÐ¾Ð´ Ð½Ð¾Ð¼
ĠÐ´Ð¾ ÑħÐ¾Ð´
ĠÐ´ÑĢÑĥÐ³ Ð¸Ð¼
ĠÐĶÐ¶ Ð¾ÑĢÐ´Ð¶
ĠÑĤÐµÐ°ÑĤ ÑĢ
Ð°Ð½ ÑģÐºÐ¾Ð³Ð¾
ÑĢÐµ Ñĩ
ĠÐ° Ð³
Ð»Ñı ÑĤ
ĠÐĿ Ð¸Ð´ÐµÑĢÐ»Ð°Ð½Ð´
ÑĢÐ°ÑĤ ÑĮ
ĠÑģÐ»ÑĥÑĩ Ð°Ñı
ĠÐ¸Ð·Ð± Ð¸ÑĢÐ°
ĠÐĴÐµÐ»Ð¸Ðº Ð¾Ð³Ð¾
ĠÐĴ ÑĮÐµÑĤÐ½Ð°Ð¼
ĠÑģÐ¾ÑģÑĤÐ°Ð² Ð¸Ð»
194 5
ĠÑĢÑĭ Ð±
á ¼
Ð» Ð»
Ð¼ Ð°Ð½Ð°
ĠÐºÐ¾Ð» Ð»ÐµÐºÑĤ
ĠÑįÐºÑģÐ¿ Ð»Ñĥ
ĠÐ»Ð¸ÑĤÐµÑĢÐ°ÑĤ ÑĥÑĢÐµ
ĠÐ±ÑĥÐº Ð²
ÑĢÐ¸ Ð¿
ĠÐ± ÐµÐ´
ÐŁ ÐµÑĢ
Ð¸Ð² Ð½ÑĭÐµ
ĠÑģÐ¾Ð·Ð´ Ð°Ð½Ð¸Ð¸
ÑģÑĤ ÑĢÐ¾Ð¹
Ð¸Ð´ Ñĥ
ÐµÐ»Ð¸ Ñı
ĠÐ½Ð°ÑĢÐ¾Ð´ Ð°
ĠÑĢÐµÐ³ ÑĥÐ»ÑıÑĢ
ĠÐº ÑĢÐ°ÑĤ
Ñį Ðº
Ð¸ÑĢÐ¾Ð² Ð°Ð»
ĠÑģÐ¾Ð²ÐµÑĤ ÑģÐºÐ¸Ñħ
ĠÐļÐ¸ÑĤ Ð°Ñı
Ð° ÑĳÑĤÑģÑı
Ð¾Ð½ ÐµÐ·
Ð°Ð² Ð°Ð»
ÐŀÐ± ÑĢÐ°Ð·
ĠÑĢÐ°Ð·ÑĢÐµ ÑĪ
ĠÐ²Ñĭ ÑģÑĤÐ°Ð²
Ð¡Ð¾Ð² ÑĢÐµÐ¼ÐµÐ½
ĠÐ½Ð¸ Ð¶Ðµ
Ð¸ÑĤ ÐµÑĤÐ°
Ð½Ð¸ ÐµÐ¼
ĠÐŁÐµÑĤ ÑĢÐ¾Ð²
ĠÑģÐµÐ¼ ÐµÐ¹
4 4
ĠÐĴÐ°Ñģ Ð¸Ð»Ð¸Ð¹
Ï ģ
ĠÑģ Ð´ÐµÐ»Ð°
ĠÐ¾Ð´ ÐµÑĢÐ¶
ĠÐ® ÑĢÐ¸Ð¹
ĠÐ² Ð»Ð°
Ð³ Ð¾ÑģÐ»Ð°Ð²
ĠÐ½Ð° Ð·
ĠÑĤ ÑĢÐµ
ĠÐĴ Ð¸Ð·Ð°Ð½ÑĤ
Ðł Ð¾ÑģÑģÐ¸Ñı
ĠÐ¯ Ð½
Ð§ Ð°ÑģÑĤ
ĠÑĢÑĥÐºÐ¾Ð²Ð¾Ð´ ÑģÑĤÐ²Ð¾Ð¼
ĠÑģÐ¾Ð· Ð½
ĠÐ¸Ð½Ð¸ ÑĨÐ¸
6 2
ĠÐĲ ÐĿ
ĠÑħ ÑĢÐ°Ð¼
ĠÐ¾Ð¿ Ð¿Ð¾Ð·
ĠÑĩÐ°ÑģÑĤ Ð¸ÑĨ
ĠÐ¿Ð¾Ð»Ð¸ÑĤ Ð¸ÐºÐ¸
ĠÑĥ ÐºÐ°Ð·ÑĭÐ²Ð°
Ð°ÑĤÐµÐ»ÑĮ Ð½ÑĭÑħ
ĠÐ½Ð¸Ðº Ð°Ðº
ĠÐ¾ ÑĦÐ¸ÑĨ
ĠÐ´ Ð¸Ð²
Ð¼Ð¸ Ñİ
ĠÐĽ ÐµÐ¹
ĠÐ¿Ð¾Ð´ ÑĢÐ°Ð·
5 4
Ð°ÑĢ Ð»ÑĮ
ĠÐ¿ÐµÑĢÐµ Ð¸Ð¼ÐµÐ½
ĠÐºÐ¾ÑĢÐ¾Ð» ÑĳÐ¼
8 7
ĠÐĵ Ð°Ð»Ð¸
ĠÑģÐ°Ð¼ Ð¾Ð¹
Ġ198 8
ĠÑĢÐ°Ð´Ð¸ Ð¾
Ð¸Ñģ Ð¸
ĠÑĦ Ð»Ð°Ð³
ĠÐ¿ÑĢÐµ Ð¶Ð´Ðµ
ĠÐ·Ð°Ð² Ð¾ÐµÐ²
ĠÐ²Ð¾ÐµÐ½ Ð½Ð¾Ð¹
ĠÑģÐ¾ÑģÑĤÐ¾Ñı Ð½Ð¸Ñı
ĠÐĵÑĢÐµ ÑĨÐ¸Ð¸
ĠÐŁ Ð¾Ð´
Ð¸ÑĨ Ð¸Ð¹
ĠÑģÑĢÐµÐ´ ÑģÑĤÐ²
ĠÐ¼Ð°Ð³ Ð¸ÑģÑĤ
ĠÐŁÐ¾Ð»ÑĮÑĪ Ð¸
Ð²ÑĳÑĢ Ð´
ĠÑģ ÑĥÑħ
Ð¿ Ðµ
Ð¸ÑĤ Ñĭ
ĠÐĺ Ð»ÑĮ
199 0
ĠÑįÐ½ ÑĨÐ¸ÐºÐ»Ð¾Ð¿ÐµÐ´
Ð¸Ð½Ð³Ð² Ð¸ÑģÑĤ
Ġ Ñī
Ð¾Ð² Ð¾
ĠÐ¾ÑĤ ÑĢÐ°Ð¶
ĠÐ¿ÑĢÐ¸ Ð´
ĠÐĿ Ð¾Ð²Ð¾Ð¹
ÑĢÐ°Ð· Ñĥ
ĠÐ¿ÐµÑĢÐµÐ² Ð¾Ð·
ĠÐŁÐ°Ð² ÐµÐ»
ĠÑĢÐ°Ð±Ð¾Ñĩ Ð¸Ñħ
ĠÐºÐ¾Ð½ÑĤÑĢ Ð¾Ð»ÑĮ
ĠÐ² Ð¾ÑģÑĤÐ¾Ðº
ĠÐ´Ð¾Ð» Ð³
ĠÐłÐ¾Ð± ÐµÑĢÑĤ
ĠÐ¾Ð·Ð½Ð°Ñĩ Ð°ÐµÑĤ
ĠÐ¡ ÐµÐ¼
ÐµÑģÑĤ Ð¸Ð²
ÐµÑĢÑģ Ð¾Ð½
Ġ9 78
Ġ195 0
ĠÐ²Ð¾ÑģÑģÑĤ Ð°Ð½Ð¸Ñı
Ðº Ð»Ð°Ð´
Ġ5 00
ĠÐµÐ´Ð¸Ð½ Ð¸ÑĨ
ĠÐł Ñĭ
ĠÐ¸Ð¼ ÐµÐ»
Ðĵ Ðµ
ĠÐ¸Ð³ ÑĢ
ĠÐĴÐĴ ÐŁ
ÑĥÑİÑī Ð¸Ð¼
ĠÐ¾Ð±ÑĬÑıÐ² Ð¸Ð»
ĠÐ¿ÑĢÐµÑģÑĤ Ð¾Ð»
ĠÐ¸Ð·Ð¾Ð±ÑĢÐµÑĤ Ð°ÑĤÐµÐ»ÑĮ
ĠÐ¿ Ð»Ð°Ð²
Ð¾Ð³ Ð¸Ð±
ÐºÐ¾Ð² ÑģÐºÐ¾Ð³Ð¾
ĠÐ¿ÑĢ Ð¾ÑĢ
ĠÐ¿ÑĢ Ð¾Ðº
ÐµÐ» Ð¾Ð²
ĠÑģÐ¾ÑģÑĤÐ°Ð² Ð°
ĠÑĤÐµÑĢÑĢÐ¸ÑĤÐ¾ÑĢ Ð¸Ñİ
Ġ9 0
ĠÐļÐ¾ÑĢ Ð¾Ð»ÐµÐ²
Ð°ÑĤ Ð¾Ð»
ĠÐĿ Ð°Ð¿
Ð¾ÑĢ Ð³Ð°Ð½
ĠÐ³ Ð¸Ð±
ĠÐ½Ð° Ð»Ð¾Ð³
Ð¸Ð½ Ð³Ð°
ÐŁ Ð¾Ð¼
ÑĥÑīÐµ Ð³Ð¾
ĠÐĲÐ½Ð´ ÑĢÐµÐ¹
ĠÐ¾ÑĤÐ½Ð¾ÑĪ ÐµÐ½Ð¸Ð¹
ĠÐ°Ð²ÑĤÐ¾Ð¼Ð¾Ð± Ð¸Ð»ÑĮ
Ðº Ð°Ðº
Ð»Ðµ ÑĢÐ°
ÐµÐ½Ð° Ñĩ
ÑĥÑħ Ð°Ð¼
ĠÐķÐ² Ð³
ÐĺÑģÑĤ Ð¾ÑĢ
ĠÐ¼Ð¸Ð½Ð¸ÑģÑĤ ÑĢ
ĠÐ¼Ð¸Ð½Ð¸ÑģÑĤ ÑĢÐ¾Ð²
Ð¾Ð´ Ð½
ÐµÐ¼ Ð¾Ð³Ð¾
ĠÐ¡ ÐĿ
Ð¸Ð» Ð¾ÑĤ
ĠÑĢ Ð¾Ð¶Ð´ÐµÐ½Ð¸Ñı
ĠÐ¤ ÐµÑĢ
ĠÐ³Ð¾ÑĢÐ¾Ð´ Ð°Ñħ
ĠÑģÐ°Ð¼ ÑĭÐ¹
199 1
ĠÐ¸ÑģÑģÐ»ÐµÐ´ Ð¾Ð²Ð°ÑĤÐµÐ»ÑĮ
ĠÐ¿ÑĢÐ¾Ð¸Ð·Ð²ÐµÐ´ ÐµÐ½Ð¸Ñı
ĠÐ¾ÑĤÐ´ÐµÐ»ÑĮ Ð½ÑĭÑħ
Ð² Ð¾Ð²
Ð¾ÑĢ Ð´Ð¸Ð½
ĠÑĨÐµÐ½ÑĤ ÑĢÐµ
ĠÐ¿ÑĢÐ¸Ñĩ ÑĳÐ¼
ĠÑĢÐ°Ð·Ð³ ÑĢÐ¾Ð¼
ĠÐ¶ ÐµÐ»
Ð¼Ð¸Ð½Ð¸ÑģÑĤ ÑĢÐ°
ĠÐĴÐ°Ñģ Ð¸Ð»ÑĮ
ĠÐŀÑĤÐµÑĩÐµ ÑģÑĤÐ²ÐµÐ½Ð½Ð¾Ð¹
ĠÐĴ Ð¾ÑĢÐ¾Ð½
ĠÐĵ Ñĥ
ĠÐ±Ð¾ÑĢÑĮ Ð±Ñĭ
ĠÐ¿ÑĢÐ¸ ÑĤ
ĠÐ·Ð°Ð² Ð¸Ñģ
ĠÐ´Ð°Ð½ Ð½ÑĭÐµ
ĠÐ¸Ð´Ðµ Ð¸
6 6
Ð¾Ð½ Ð¸Ðº
Ðĳ Ð¸
ĠÑģÑĥÐ´ Ð°
ĠÑģÐ¾Ð¾ÑĤÐ²ÐµÑĤ ÑģÑĤÐ²ÐµÐ½Ð½Ð¾
ĠÐ³ ÐµÐ½
ĠÐŁ Ð°ÑĢ
ĠÐµ Ð¶ÐµÐ³Ð¾Ð´
ĠÐ¦ ÐµÑĢ
ĠÐ¿Ð¾Ð· Ð½
ĠÐ½Ð°Ð±Ð»Ñİ Ð´Ð°
Ð¾Ð½ Ð¸Ð¸
Ð¸Ñĩ Ð½ÑĭÐµ
ĠÐ·Ð°Ð½ ÑıÑĤ
ĠÐ¸Ð·Ð²ÐµÑģÑĤ Ð½ÑĭÐ¹
ĠÐ½ ÑĥÐ¶
ĠÐ¼ Ð»Ð°Ð´
ÑĪ Ð°Ð»
ÑĢÐ°Ð½ ÑĤ
ĠÐ¾ÑĢ Ð´ÐµÐ½
Ġ197 9
ĠÐ¿ÑĢÐµÐ² ÑĭÑĪ
ĠÐ²Ð½Ð¸Ð¼ Ð°Ð½Ð¸Ðµ
ĠÐľ Ð¸Ð»
ĠÐĿ ÐµÐ²
ĠÐ¼ÐµÑĤ ÑĢÐ¾Ð²
Ð¼Ð¸Ð½Ð¸ÑģÑĤ ÑĢÐ¾Ð¼
ar d
ĠÐ¼ÐµÐ¶Ð´ÑĥÐ½Ð°ÑĢÐ¾Ð´ Ð½ÑĭÑħ
ĠÐ¸ÑģÑĤÐ¾Ñĩ Ð½Ð¸Ðº
ĠÑĤÐµÐ¿ Ð»Ð¾Ð²
ĠÐ·Ð°Ð» Ð¾Ð¶
i k
ĠÐ¸Ð· Ð»ÑĥÑĩ
ĠÐĵ Ð¾Ð½
ĠÐ¿ÑĢÐµ ÑģÑĤÑĥÐ¿
ĠÑĤÑĢÐ°Ð´Ð¸ ÑĨÐ¸Ð¸
ĠÐĴÐ¾ÑģÑĤÐ¾Ñĩ Ð½Ð¾Ð¹
ĠÐĺÐ¾Ð°Ð½ Ð½Ð°
ĠÑĢÐ°ÑģÑĤÐ² Ð¾ÑĢ
ĠÐ¾ ÑĨÐµÐ½Ð¸
ĠÐ± ÐµÑģÐº
ÐĴ Ð»Ð°Ð´
ĠÐ½Ðµ Ð¿ÑĢÐ¸
ĠÐľ ÐµÐ½
ĠÐĶ ÑĢÐµÐ²
Ġ198 7
ĠÐ¾Ð±ÑīÐµ Ð³Ð¾
200 0
ĠÐ¼Ð°ÑģÑģ Ñĭ
Ġâ ĪĴ
ĠÑģÐ²ÑıÑĤ Ð¾Ð¹
ĠÐ°Ð²ÑĤ Ð¾Ð±ÑĥÑģ
Ġ Y
ĠÐ¾ÑĤ ÑĢÑı
ĠÐĶÐ¶ ÐµÐ¹Ð¼
Ð»ÐµÐ¹ Ð±
ĠÑģÐ¾Ð» Ð´Ð°ÑĤ
ĠÐĴÑģ ÐµÐ¼Ð¸ÑĢ
ĠÐ¿ÑĢÐ¾Ð²Ð¾Ð·Ð³Ð»Ð° Ñģ
19 18
ĠÐ¾ÑģÐ½Ð¾Ð² Ð½Ð¾Ð¹
ĠÐ²ÑĭÑģ Ð¾ÑĤ
Ð¾Ñħ Ð¾Ð·ÑıÐ¹
ĠÑĤÑĥ ÑĢÐ¸ÑģÑĤ
Ñı Ð»Ð°
ĠÐ¿ Ð»ÐµÐ½
ÑĪ Ð¸Ð½
ĠÑħ ÑĢÐ¾Ð½
ÐŃ Ð¡
Ð°Ñī Ð¸Ñħ
Ð² Ð¸Ð·
ĠÐ² Ð°Ð»ÑİÑĤ
Ð¾ÑĢ ÑĥÑģÑģ
ÑĩÐµ Ðº
Ð²Ð° ÑĢÐµ
ĠÐ¾Ð¿ ÐµÑĢÐ°ÑĤÐ¾ÑĢ
ĠÐ¿ÐµÑĢÐ² Ð¾Ð½Ð°Ñĩ
ÐŃ ÐºÐ¾Ð½Ð¾Ð¼
ĠÐĴÐ»Ð°Ð´ Ð¸Ð¼Ð¸
ĠÐ°ÐºÑĤÐ¸Ð² Ð½Ð¾
Ð°ÑĢ Ð½ÑĭÑħ
ĠÐ·Ð° ÑģÐµÐ´
ĠÐ¿Ð¾Ñģ ÑĢÐµÐ´
ĠÐ³Ð¾ÑģÑĥÐ´Ð°ÑĢÑģÑĤÐ²ÐµÐ½ Ð½ÑĭÑħ
ĠÐºÐ°Ð¶Ð´ ÑĭÐ¹
ĠÐ¿ÑĢÐ¾Ð±Ð»ÐµÐ¼ Ñĭ
ĠÑħÐ¾Ð·ÑıÐ¹ ÑģÑĤÐ²Ð°
r u
ĠÐ¡ Ð°Ð²
ĠÑģÐ¾ Ð¾Ð±ÑīÐµ
Ġ194 4
Ð°ÐµÐ¼ ÑĭÑħ
Ð´Ð°Ð¼ ÐµÐ½ÑĤ
ĠÐ¿Ð¾Ð»Ñĥ Ð¾ÑģÑĤ
ĠÑģÐ¾Ð±ÑĭÑĤ Ð¸Ð¹
6 3
Ñİ Ð½
ĠÐ¿Ð¾ÑĤ Ð¾Ð¼Ñĥ
ĠÐ½ÐµÑĦ ÑĤÐ¸
ÐµÐ½ ÑģÐºÐ¾Ð³Ð¾
ĠÐ¼ Ð¼
ĠÐ¼ Ð¸ÑĤ
ĠÑĢÐµ Ð³Ð¸
ÐĲ Ð±
ĠÐ¢ Ð°Ð¹
Ð°Ð· Ð°
Ð»Ð¸Ð· Ð°Ð²
Ð¾ÑĢÐ² ÐµÐ¶
ĠÑĥÐ¼ÐµÐ½ÑĮ ÑĪ
ĠÑģ ÑĥÐ»ÑĤ
ĠÐļ Ð¸ÑĢÐ¸
ÐµÐ» Ñĳ
ĠÑģÐ»ÐµÐ´ÑĥÑİÑī Ð¸Ðµ
ĠÐºÑĢÑĥÐ¿Ð½ÐµÐ¹ ÑĪÐ¸Ñħ
ĠÑģÐºÑĥÐ»ÑĮ Ð¿ÑĤÐ¾ÑĢ
ÐŁÐ¾ÑįÑĤ Ð¾Ð¼Ñĥ
Ð°ÑĤ ÑĥÑĢ
ĠÑĢÐ°Ð· Ð¼ÐµÑī
ÑĬ ÑĳÐ¼
ĠÑĩÐµ ÑĪ
ĠÐ¾ÑģÐ½Ð¾Ð² Ð½ÑĭÐµ
Ð·Ð¸Ð´ Ð¸
ĠÐ¿Ð¾Ð½ ÑıÑĤÐ¸Ñı
ĠÐĺÐ¼Ð¿ ÐµÑĢÐ°ÑĤÐ¾ÑĢ
ĠÐ¿ÑĢÐµÐ¸Ð¼ÑĥÑīÐµ ÑģÑĤÐ²ÐµÐ½Ð½Ð¾
7 2
ĠÑĤ ÐµÐ»
Ð»Ñı ÑİÑĤ
Ð¸ÑĩÐµÑģÐº Ð¾Ð¼Ñĥ
Ðł Ðµ
ĠÐ¿Ð¾Ð² ÑĤÐ¾ÑĢ
ÐĿÐ°Ñĩ Ð°Ð»Ð¾
ĠÐ¡ÐŁ Ð±
Ġ )
Ð½ ÑĪÑĤ
Ð± Ð¾Ð¼
Ðľ Ð½Ð¾Ð³Ð¸Ðµ
ĠÐ¿ÑĢÐ¾ÑĤÐ¸Ð² Ð¾ÑĢÐµÑĩ
ĠÐ»ÑĳÑĤ ÑĩÐ¸Ðº
Ð¾Ð» ÑĳÑĤÐ°
ÑĨ Ð¸Ð½
Ð°Ð² ÑĪÐ¸Ðµ
Ðļ Ð°
Ðł Ð°ÑģÐ¿
ĠÐ²Ð¾ ÐµÐ½Ð°Ñĩ
ĠÐ²Ð¸Ð´ Ñĭ
ĠÐ¸ÑģÑģÐ»ÐµÐ´ Ð¾Ð²Ð°Ð½Ð¸Ð¹
Ð¦ ÐµÐ½ÑĤ
ĠÑĦÐ»Ð¾ÑĤ Ð°
ĠÐ¾ÑģÐ½Ð¾Ð² Ð¾Ð¿Ð¾Ð»Ð¾Ð¶
ĠÐ¿ÑĢÐµÐ´ÑģÑĤÐ°Ð² Ð»ÐµÐ½Ð¸Ñı
ĠÐ¿ÑĢÐ¾Ð´ ÑĥÐº
un d
ĠÐ¾Ð±Ñģ Ð»ÑĥÐ¶
ÑĨ ÐµÐ¼
ĠÐ½Ðµ Ð¿ÑĢ
ĠÐĳ ÑĢÐ°Ð·
ÑĢÐ¾ ÑĪ
ĠÑĤÑıÐ¶ ÑĳÐ»
Ð»Ð¸ ÑģÑĤ
Ñį Ð¼
ÑĥÐ¼ ÐµÑĢ
Ð¾ÑĢÐ¾Ð´ Ð°
ĠÐ²Ð¾ÐµÐ½ Ð½Ð¾
ĠÐ¿Ð¾ÑıÐ² Ð¸Ð»Ð¸ÑģÑĮ
ĠÐ¿Ð¾Ð»Ð¾Ð² Ð¸Ð½Ðµ
ĠÑħÐ¾ÑĢÐ¾ÑĪ Ð¾
Ð¾Ð· ÐµÑĦ
ĠÐ¢ Ð²ÐµÑĢ
ĠÐŃ Ð´Ñĥ
ĠÐľÐ¾ÑģÐºÐ¾Ð² ÑģÐºÐ¾Ð³Ð¾
ĠÐ¡Ð¾Ð»Ð½ ÑĨÐ°
Ð° ÑīÐµ
Ð¸Ð½ Ð¾Ð¼
ÑĤÐ° Ñħ
ĠÐĹ ÐµÐ»Ð°Ð½Ð´
ĠÐ»Ñİ Ð´
ĠÐ²ÐµÑīÐµ ÑģÑĤÐ²Ð°
Ð¸Ð½ Ð°Ñħ
ÐĴ ÑĭÑģ
ÑĥÐ» ÑģÑı
ĠÐŁÐµÑĤ ÐµÑĢÐ±ÑĥÑĢÐ³
ĠÑģÐ¿Ðµ ÑĨÐ¸Ð°Ð»Ð¸ÑģÑĤ
ĠÑģÑĤÑĢÐ¾Ð¸ÑĤÐµÐ»ÑĮ ÑģÑĤÐ²Ð°
ĠÐ·Ð°ÑģÐ»ÑĥÐ¶ ÐµÐ½Ð½ÑĭÐ¹
ĠÐ¿ÑĢÐ¾Ð³ÑĢÐ°Ð¼Ð¼Ð¸ÑĢÐ¾Ð² Ð°Ð½Ð¸Ñı
7 4
ĠÑģ Ð»Ð¸
Â» :
ĠÐļ Ð¸ÑĢ
ĠÐºÐ¾Ð¼Ð¿ Ð¾Ð½
ĠÑĥÐ¿ Ð¾Ð¼Ð¸Ð½Ð°
Ð» Ñĳ
Ð´ ÐµÐ»ÑĮ
ĠÐ¿Ð¾ Ð¸ÑģÐº
Ðĺ Ð½Ð´
ĠÐ¿Ð¾Ñģ ÐµÑī
ÑĥÐ³ Ð°Ð»ÑĮ
ĠÐ¸Ð·Ð± Ð¸ÑĢÐ°ÑĤ
ĠÐ¾Ð»Ð¸Ð¼Ð¿ Ð¸Ð¹ÑģÐºÐ°Ñı
ĠÑĤÐ¾Ð½ Ð½
ĠÐ¿ÑĢÐµÐ¿Ð¾Ð´Ð¾Ð± Ð½Ð¾Ð³Ð¾
h t
ĠÐŁ ÑĥÑĪ
ĠÐ¿ÑĢÐµÐ´ Ð½Ð°Ð·Ð½Ð°Ñĩ
ĠÐ¿Ð¾Ð»ÑĥÑĩ Ð¸Ð²
ĠÐ²Ð¸Ð´ Ð°
p h
Ñģ ÐµÐ²
Ñı Ð½Ðµ
ĠÐ¿ Ð¸ÑĤ
ĠÑĩÐ°ÑģÑĤ ÐµÐ¹
Ð°ÑİÑī Ð°Ñı
ĠÐ´ÐµÐ¹ÑģÑĤÐ² Ð¸Ð¹
ĠÐ¿ÑĢÐ¾ÑĤÑıÐ¶ ÐµÐ½Ð¸Ð¸
ĠÐ¿ ÑĭÑĤ
ÑĮ ÑĳÐ·
ĠÑģ ÐµÐ·
Ð± Ð°Ñĩ
ÐŁÑĢÐµ Ð·Ð¸Ð´ÐµÐ½ÑĤ
8 2
Ġ ÑĨÐ¸
Ð´ Ð¸Ðº
ĠÑģ Ð¾ÑĢ
ĠÐº Ð»Ð°Ð´
Ð¾Ð½ ÐµÑĩ
ĠÐ¿ÑĢÐ¾ ÑıÐ²
ĠÑĩÐ»ÐµÐ½ Ð¾Ð¼
Ð´ ÐµÑĢ
Ġ4 5
Ġ15 0
Ð°Ð»Ð¸Ð· Ð¼Ð°
ÑĢÐ¾Ð» Ð»ÐµÐ¹Ð±
ĠÐ¿ÑĢÐµÐ´Ð¿ÑĢÐ¸ Ð½Ð¸Ð¼
ĠÐ¿Ð¾Ð·Ð´ Ð½ÐµÐµ
ĠÐŁÐ°ÑĢÐ¸ Ð¶Ðµ
ĠÐ´Ð¾ÑģÑĤÐ¸ Ð³Ð°
ÑĢÐµ Ð·Ð²
ĠÐ¿Ð¾Ð½ ÑıÑĤÐ¸Ðµ
ĠÐĲÑĢÐ¼ ÐµÐ½Ð¸Ð¸
Ð¾ÑĢ Ð¾ÑĤÐ°
ĠÐ¡ Ð¼
ĠÐł ÑĥÐ¼
ĠÑģÐ¾Ð²ÐµÑĤ Ð°
ĠÐļÐ°Ð»Ð¸Ð½Ð¸Ð½ Ð³ÑĢÐ°Ð´
c t
ĠÑģ Ð»Ð°Ð²
ÐµÐ¼ Ð±
ĠÐ¿ÑĢ Ð¾ÑģÑĤÐ¾
ĠÐ¶ ÐµÐ½Ð°
ÐĶ ÐµÐ½ÑĮ
Ð¤ Ð¸Ð»Ð¾ÑģÐ¾ÑĦ
ĠÐ¼Ð°ÑĤ ÐµÑĢ
ĠÐ²ÑģÑĤÑĥÐ¿ Ð¸Ð»
ĠÐºÐ¾ÑģÐ¼Ð¾Ð½Ð°Ð² ÑĤ
Ð² Ð°ÑĤÑĮ
ÑĢÐ° Ñĩ
ĠÐ¾Ð± ÑĢÐ°Ð±Ð¾ÑĤ
ÑĢÐ¾Ð² Ð¾Ð´
ÐºÐ¾Ð½ ÑģÑĤÑĢÑĥ
ĠÐ³Ð»Ð° Ð²Ð°
ĠÐ³ Ð¸ÑĤ
ĠÑģÑĤ ÑĢÐ°ÑĤ
ÐŀÑģ Ð¾Ð±
ĠÐ¾ÑĢÐ³ Ð°Ð½Ð¾Ð²
Ð¾Ð¹ ÑĩÐ¸Ð²
ĠÐ½Ðµ ÑĥÐ´
ĠÑģÑĥÑīÐµÑģÑĤÐ² ÑĥÑİÑĤ
ĠÐ¿ÑĢÐ¾ÑģÑĤÑĢÐ°Ð½ ÑģÑĤÐ²Ð¾
ÐĴ Ð¾Ð·
Ð°ÑĤÐµÐ»ÑĮ ÑģÑĤÐ²Ð¾
ĠÑĦÐ¸Ð· Ð¸
Ð»Ð¾ÑĤ ÑĮ
ĠÐľÐ¸Ñħ Ð°Ð¹Ð»Ð¾Ð²
ÑĢÐº ÑĥÑĤ
ĠÐ±Ð¸ÑĤ Ð²Ðµ
ÑĢÐ° Ð¸Ð»ÑĮ
Ð¾Ð² Ð¾ÑĢÐ°
ĠÑģ ÐµÐ½
Ð¿ Ð¾Ñĩ
ĠÐļ Ð¸Ðµ
Ġ19 22
ĠÐĺ Ð½ÑĤ
Ð»ÐµÐ½ Ð½ÑĭÐµ
Ðĺ Ð½ÑĤ
Ð¾ÑģÐ¼ Ð¾Ð½Ð°Ð²
ĠÐ¾Ð±Ð»Ð°Ð´ Ð°ÑĤÐµÐ»ÑĮ
4 3
Ð¸Ð¼ Ð¾ÑģÑĤÑĮ
ĠÐ¡ Ð¸Ð±
ÐµÐ· Ð°
ÑģÐº Ð¾ÑĢ
Ð°ÑĤ ÑĤ
Ð°Ð»ÑĮ Ð½ÑĭÐ¼Ð¸
ĠÐľÐ¸Ñħ Ð°
ĠÐ¿ÑĢÐ¸Ð² ÐµÐ»Ð¾
ĠÑģÐ¾Ñģ ÐµÐ´
ĠÐ» Ð¸Ðº
ĠÑĤÐ¸Ð¿ Ð¾Ð²
ĠÐ¿ Ð°
ĠÐ½ Ð¸Ð¼Ð¸
Ð»ÑĮ Ð½ÑĭÐ¹
ĠÐ½Ð°Ð¿ Ð°Ð´
ĠÑĦÐ¸Ð· Ð¸ÐºÐ¸
ĠÐĲÑĢÐ¸ÑģÑĤ Ð¾ÑĤ
Ñİ Ð»ÑĮ
ÑĢÐ¸ Ð±
ĠÐ¸Ð¼ ÐµÑĤÑĮ
ĠÐ¸Ð½Ð´ Ð¸Ð²
ĠÐĶÐ¼Ð¸ÑĤ ÑĢÐ¸Ð¹
Ð½ Ð°Ð»
Ñĩ ÐµÑĢ
ĠÐ± ÐµÑģ
ĠÐ¡ Ñĥ
ĠÐ¿ÑĢÐ¸ Ð²ÐµÐ´
Ð¸Ð² Ð½Ð¾Ð³Ð¾
Ð½Ð¸Ðº Ðµ
ĠÑģÐ¾Ð²ÑĢÐµÐ¼ÐµÐ½ Ð½Ð¾Ð³Ð¾
Ñİ Ð¶
ĠÑĦ ÑĢÐ°Ð½
ĠÐŁ ÑĢÐ¾Ðº
Ð¸ÑģÑĤ ÑĢÐ¸ÑĢÐ¾Ð²
ÑĥÐ· ÐµÐ¹
ÑĥÐ· Ð½Ðµ
ĠÐ³Ð°Ð· Ð°
ĠÐ¸Ð³ ÑĢÑĭ
ĠÐŀÐ»Ð¸Ð¼Ð¿ Ð¸Ð¹ÑģÐºÐ¸Ñħ
ĠÐ¸Ð½ÑĤÐµÐ» Ð»ÐµÐºÑĤ
ĠÐ½Ð° Ð³ÑĢÐ°
Ð¸ÑĤ Ð¸
ĠÐ± Ð°ÑģÑģ
Ð¡ Ð¨ÐĲ
ĠÐ¸Ð¼ ÐµÐ»Ð¸
ÑıÑī Ð¸Ðµ
ĠÐ¿Ð¾Ð±ÐµÑĢÐµÐ¶ ÑĮÐµ
9 1
Ð² Ð°Ð»Ð¸
ĠÐ² ÑĢÐ°Ñī
ÐĲ Ð½Ð´
Ġ197 3
Ġ197 5
ÑĭÑĩ Ð°Ð¹
ĠÐĲÐ²ÑģÑĤ ÑĢÐ¸Ð¸
Ðļ Ð°Ð·
ÑĢÑı Ñģ
ĠÐ¡ÑĤ Ð°ÑĢ
199 2
ĠÐ±Ð¾Ð» ÐµÐ·
ĠÐ¼ÐµÐ½ÑĮ ÑĪÐµ
ÑĢÐµÐ·Ð² ÑĭÑĩÐ°Ð¹
8 3
ÑĨ Ð°Ð¼
ÐµÐ¹ Ñģ
ĠÐ¥ Ð¾ÑĢ
Ġ196 4
198 0
ĠÐ¿Ð¾Ð´ÑĤ Ð²ÐµÑĢÐ¶Ð´
ĠÐºÐ°Ð» ÐµÐ½Ð´
9 3
q u
ĠÐ´ Ð¾Ñĩ
ĠÑĤ Ð²ÑĳÑĢÐ´
ĠÐĶ Ð¾Ð¼
ĠÐĺ ÐµÑĢ
Ð¾Ñĩ Ð½ÑĭÐµ
Ġ17 0
ĠÐºÐ¾ÑģÐ¼ Ð¸ÑĩÐµÑģÐºÐ¾Ð³Ð¾
Ġ190 5
Ð¿ Ð»
Ð»ÑĮ Ð½Ð¾Ð³Ð¾
ĠÐ½Ð° Ð³
ÑĦ ÐµÑĢÐ°
ÐŁ Ð°Ð¼ÑıÑĤÑĮ
ÑģÑģ Ðµ
ĠÐ·Ð°Ðº ÑĢÐµÐ¿
Ð´ÐµÐ¼ Ð¾ÐºÑĢÐ°ÑĤ
ĠÐ»Ð¸Ð½ ÐµÐ¹
ĠÐ¸Ñģ Ð»Ð°Ð¼
ĠÐ¿ÑĢÐµÐ´Ð¿Ð¾Ð» Ð°Ð³Ð°
Ð¾ÑĢ Ð¾Ð¶
ĠÐ´ Ð¾ÑĩÑĮ
Ðĺ Ð¼Ð¿
ĠÐ¸Ð½ÑĤÐµÑĢ Ð¿ÑĢÐµ
Ñĭ ÑĪÐµ
ÑģÐº Ð°ÑĢ
Ð¾Ð³ ÐµÐ½
Ð¾Ð½ Ð¸
ÑĩÐµ ÑģÐºÐ¸Ñħ
ĠÐľ Ð°ÐºÑģÐ¸Ð¼
ĠÐ±Ñĭ ÑģÑĤÑĢÐ¾
ĠÐĶ Ñį
ÐŃ Ð½
Ð·Ð² ÐµÑģÑĤ
ĠÑħÐ¸Ð¼ Ð¸Ðº
ĠÑħÐ¾ÐºÐºÐµ Ð¸ÑģÑĤ
ÐµÑĢ Ð½Ð°
ĠÐ± Ð¾
ĠÐ¿ÑĢÐµÐ´ ÑĥÑģ
ĠÑĤÐµÑĢÑĢÐ¸ÑĤÐ¾ÑĢ Ð¸Ñı
Ð°ÑĤÐ¾ÑĢ Ð¾Ð²
ĠÑĦÑĥÐ½Ðº ÑĨÐ¸Ð¾Ð½
ĠÐ½Ð°ÑĨÐ¸Ð¾Ð½Ð°Ð»ÑĮ Ð½Ð¾Ð³Ð¾
ĠÐ± ÑĢÐ¾Ð½
Ðļ Ðŀ
ĠÐ½Ð°Ð¿ ÑĢÑı
Ð¾Ð² Ð°Ð½Ð°
ÑĨÐ¸Ð¾Ð½ Ð½Ð°Ñı
ĠÐĲÑĦÑĢÐ¸ ÐºÐ¸
ĠÐ¼Ð¸Ðº ÑĢÐ¾
4 2
ĠÐ¿ ÑıÑĤÑĮ
ĠÐ³ Ð°ÑĢ
ĠÑģÑĤ Ð°
Ð°Ñģ Ð°
ĠÐ²ÑĢÐµÐ¼ ÑĳÐ½
ĠÐ¼Ð¾Ð³ Ð»Ð¸
ĠÐºÐ¾Ð¼Ð°Ð½Ð´ Ð¾Ð²Ð°Ð½Ð¸ÐµÐ¼
ÐĳÐ¾Ð»ÑĮÑĪ Ð¸Ð½ÑģÑĤÐ²Ð¾
ÑĢÐ° Ð½Ñĭ
Ð¾Ð¼ Ð¿
ĠÑģÐ² ÐµÑĢÑħ
Ð¤ Ð¸Ð·
ĠÐ¼ÐµÑĤ ÑĢÐ¾Ð¿Ð¾Ð»Ð¸ÑĤ
ĠÑģÑĩÐ¸ÑĤ Ð°Ð»
ĠÐ¿Ð¾Ð±ÐµÐ´ Ñĥ
Ð½ Ð¾Ðº
Ð¾Ð²Ð°Ð½ Ð¸Ñİ
Ð½Ð°Ñĩ Ð°Ð»Ð°
ĠÐ¤Ð¸Ð½Ð»ÑıÐ½Ð´ Ð¸Ð¸
ĠÐ´Ð²ÑĥÐºÑĢÐ°ÑĤ Ð½ÑĭÐ¹
ĠÑĤ Ð¾Ð¹
ÑĩÐµ Ð»Ð¾Ð²
Ð¾Ð¿ ÑĢÐµÐ´
Ð°ÑĤÐµÐ»ÑĮ Ð½ÑĭÐµ
Ġ3 00
ĠÑıÐ·Ñĭ ÐºÐ¾Ð¼
ĠÐ¾ÑģÐ¾Ð± ÐµÐ½
ÐĿÐ°Ñģ ÐµÐ»ÐµÐ½Ð¸Ðµ
7 7
Ð¾Ð³ Ð°
ĠÑħ Ð¾Ð»
Ð°Ð½Ð¾Ð² Ð°
200 8
Ð» ÑĥÑĤ
Ð°Ð² ÑĪÐ°Ñı
ÑĥÑī ÐµÐ½
Ð¸ÑĢÐ¾Ð²Ð°Ð½ Ð½ÑĭÑħ
ĠÑĥÑģÐ»Ð¾Ð² Ð¸Ñı
ĠÑĤÐµÑħÐ½ Ð¾Ð»Ð¾Ð³
ĠÐŁÐ°ÑĢÐ¸ Ð¶
ĠÐ²Ð¾Ð·Ð´ÑĥÑħ Ð°
Ð½ ÐµÑģÑĤ
ĠÐ´ Ð»Ð¸Ð½
Ð¾ÑģÑĤ ÐµÐ¹
ĠÐ¿ÑĢÐ¸ ÑĪ
ĠÑĦÑĢÐ°Ð½ÑĨÑĥÐ· ÑģÐºÐ°Ñı
Ġ193 9
ĠÑĤÐµÐ¼Ð¿ÐµÑĢÐ°ÑĤ ÑĥÑĢÑĭ
Ð¸ Ð¾Ð»
Ð¾Ð¿ Ð¾Ð»
Ðŀ Ð¿
ĠÑģÐµÑĢ ÑĮÑĳÐ·
ĠÐļÐ°ÑĢ Ð»Ð°
ĠÑģÐ¾Ð²ÐµÑĢÑĪ Ð¸Ð»
Ð² Ð°Ð½Ð¸Ðµ
Ð² Ð¸Ð³
Ð· Ð´
ĠÐŁ ÑģÐºÐ¾Ð²
ÐĿ Ð°Ð·
ĠÑģÐ¿ Ð¸ÑģÐ¾Ðº
ĠÐ±Ð¾Ð»ÑĮÑĪ ÐµÐ²
Ġ198 6
ĠÐ´Ð¾Ð»Ð¶ Ð½Ð°
ĠÑģÐ¾Ð¿ ÑĢÐ¾Ð²
ĠÑģÐ»ÑĥÑĩÐ°Ñı Ñħ
ĠÐ¾ ÐºÐ°Ð·ÑĭÐ²Ð°
Ð¾Ñģ Ð¸ÑĦ
ĠÐľÐ¾ÑģÐº Ð²Ð°
ĠÐ°ÑĢÑħ Ðµ
ĠÐºÐ¾ Ð°Ð»Ð¸
ĠÑģÐºÐ¾ÑĢ Ð¾ÑģÑĤÑĮ
Ð¡Ð¾Ð² ÐµÑĤ
Ð²ÑĳÑĢ ÑĤ
ĠÐº Ð¾Ð»ÑĮ
Ñį Ð»ÐµÐºÑĤ
ĠÐºÐ¾ÑĢ Ð¾ÑĤ
ĠÐ¸Ð¼Ð¿ ÐµÑĢÐ°ÑĤ
ĠÐ¸Ð¼Ð¿ ÐµÑĢÐ¸Ñı
ĠÑĦÑĥÑĤ Ð±Ð¾Ð»ÑĮ
ĠÑģÐ¾Ñİ Ð·Ð°
- -
Ð°ÑĤ ÑĢ
ĠÑģÐ² ÑĭÑĪÐµ
ĠÐ¢ Ð¸Ð¼
ĠÑģÐ²ÑıÐ· ÑĮ
Ġ196 1
ĠÐ²Ð¾Ð·Ð´ ÐµÐ¹ÑģÑĤÐ²
ĠÐ¾ÑĤÑģÑĤÐ°Ð² ÐºÑĥ
Ð°Ð½Ð°Ð² Ð»Ð¸
ĠÐĲÑĢ ÑĤ
ÑĭÐ² Ð°ÑĤÑĮ
ĠÐ¾Ð±ÑıÐ· Ð°Ð½
Ðµ Ð³Ð¾
Ð» ÑĥÐ³
ÐĴ Ð¾ÑģÑĤÐ¾Ñĩ
Ðŀ ÑĦÐ¸ÑĨÐ¸Ð°Ð»ÑĮ
ĠÐ¿ÑĢÐµ Ð¾Ð±
ĠÐºÑĢÑĥÐ¿ Ð½ÑĭÐµ
Ð¸ÑĦÐ¸ÐºÐ° ÑĨÐ¸Ð¸
ÑĢ Ð¾Ð³Ð¾
Ð¾Ð³ Ð¾Ð½
ĠÐ¼ Ð°Ðº
ĠÐ¡ Ð°
ĠÐľ Ð°
ÑĬ ÐµÐ´Ð¸Ð½
ĠX II
ĠÐºÐ¾Ð»Ð¸ÑĩÐµ ÑģÑĤÐ²Ð°
ĠÐ¿Ð°ÑĢÐ° Ð¼ÐµÑĤ
ĠÑĢÑĥÐ± Ð»ÐµÐ¹
ĠÐ¿ Ð¸Ð°Ð½
ÐµÐ½ ÑĨÐ¸
Ð°ÑĤ Ð°Ð»ÑĮ
ĠÐ¸Ð· Ð¼ÐµÐ½Ð¸
ĠÐ¿Ð¾Ð´ Ð²Ð¾Ð´
ĠÑģÐ¾ÑģÑĤÐ¾Ñı Ð½Ð¸Ðµ
ĠÑĦÐ°ÐºÑĤ Ð¸ÑĩÐµÑģÐºÐ¸
ĠÐĴÐµÐ½Ð³ ÑĢÐ¸Ð¸
Ð½ Ð¾Ð¶
ĠÑģ Ð»Ð¾
Ð¿ ÐµÑĢÐ²
ÑĢÐµÐ¼ Ñı
ĠÐĺ ÑģÑĤ
Ð°ÑĢÐ¸ Ð¹
ĠÑģÐ¾Ð·Ð´ Ð°Ð½Ð°
ĠÑĢÐ°Ñģ ÑħÐ¾Ð´
ĠÐ¿ÑĥÑĤ ÑĮ
ĠÐ³Ð¾Ð» Ð¾Ñģ
ĠÐ½Ð°ÑĤ ÑĥÑĢÐ°
6 9
ĠÐº ÑĢÐ¸
ÑĢÑĥ Ñĩ
ĠÐ¾Ð´ Ð½Ñĥ
ĠÐºÐ¾Ð½ÑĨ ÐµÐ½ÑĤ
ĠÐ¿ÐµÑĢÐµÐ³ Ð¾Ð²Ð¾ÑĢ
ĠÐ¿ Ð¾ÑĢÐ¾Ð´
Ð½Ð¾ ÑıÑĢ
Ð»Ð° Ñħ
ĠÐ²Ð¾ ÑģÐº
ĠÑģÑĢÐµÐ´ Ñĭ
ĠÑģÑĥÑīÐµÑģÑĤÐ² Ð¾Ð²Ð°Ð½Ð¸Ñı
196 4
Ð°Ð»Ð¸Ð· Ð¼
6 1
7 1
Ð¸ Ð½Ð¾ÑģÑĤ
Ð¸Ð¹ ÑģÐºÐ¸Ðµ
Ðľ Ð°Ð¹
Ð°Ð»Ð° Ð¹
Ġ197 8
e v
Ð¸Ð½ Ñı
Ð¸Ð½ ÑģÐºÐ¸Ñħ
Ð°ÑĢ ÑĤÐ°
20 10
Ð¥ Ð¾ÑĤÑı
es t
ĠÐ±ÑĭÐ² ÑĪÐ¸Ð¹
ĠÐĳÐµÐ» Ð¾ÑĢÑĥÑģÑģ
ĠÐĵÐ¾ÑģÑĥÐ´Ð°ÑĢ ÑģÑĤÐ²ÐµÐ½Ð½Ð¾Ð¹
ĠÐ´ Ð¸Ð·
ĠÐ¡ Ð¾Ð±
Ðļ Ð»Ð¸
ĠÐ·Ð°Ðº Ð¾Ð½Ð°
ĠÑģÑĥÑīÐµÑģÑĤÐ² Ð¾Ð²Ð°Ð½Ð¸Ðµ
ĠÐµÐ² ÑĢÐµ
Ð½Ð°Ð´ ÑĨ
ĠÐ¿ÑĢÐ¾Ð²Ð¸Ð½ ÑĨÐ¸Ð¸
ÑĢÐµÐ³ Ð¸ÑģÑĤÑĢÐ¸ÑĢÐ¾Ð²
ĠÐĴÐ¸Ð»ÑĮÐ³ÐµÐ»ÑĮ Ð¼
. .
ĠÑĥ ÑģÑĤÑĥÐ¿
ÐµÐ» Ð»
Ð°Ð»Ð¸ Ð½Ð°
Ðļ ÑĢÐ°Ñģ
ĠÑĢÐ°Ð· Ð²ÐµÐ´
Ġ196 7
ÑģÑĤÑĢÐ° Ð»Ð¸Ð¹
ĠÐ·Ð°ÑıÐ² Ð¸Ð»
ĠÐ¼Ð°ÑĢÑĪ ÑĢÑĥ
Ð¼ Ð°Ð¹
ĠÐ³ ÐµÑĢÐ¾
Ð»Ð° Ð¹
ĠÐł Ð°Ð´
ĠÐ¿Ð¾Ð»Ð¸ÑĤ Ð¸ÑĩÐµÑģÐºÐ¸Ñħ
ĠÑģÑĭ Ð½Ð°
Ð°ÑĢ Ð½Ð¾Ð¹
ĠÐŁ ÑĢÐµÐ´
ĠÑĢÐµ Ð»ÑĮ
ÐĹ Ð´ÐµÑģÑĮ
ĠÐĿÐ¾Ð² Ð¾ÑģÐ¸Ð±Ð¸ÑĢ
ĠÑģÑĤÐ¾ÑĢÐ¾Ð½ Ñĥ
ĠÐļÐ¸ÑĤÐ° Ðµ
ĠÐ² ÑģÐºÐ¾ÑĢÐµ
ÐµÐ¼ Ñĭ
Ð¡ ÐµÐ²ÐµÑĢ
ĠÐ¿Ð¾ ÑĢÐ°Ð¶ÐµÐ½Ð¸Ðµ
ĠÐ¥ Ð°Ð¹
Ġ198 4
ĠÑĥÐ´ Ð¾Ð±
ĠÐ¿ÑĢÐ¸Ñģ Ð²Ð¾
ĠÐ³Ðµ Ð¾Ð¼ÐµÑĤ
ĠÐ¼ Ð¾Ð·
ÐĴ Ð¾Ñģ
Ðļ ÐŁ
ÑĤÐ¾ÑĢ Ð¾Ð²
Ġ194 2
ĠÐ½Ð°ÑĥÑĩ Ð½ÑĭÑħ
Ï ĥ
ĠÐ² Ð¸Ð·Ð°Ð½ÑĤ
ĠÐ¾ ÑĢÐ¸
ĠÐ½ Ð¸Ð¶
Ð¾Ð´ Ñĥ
ĠÑį Ð²Ð¾Ð»Ñİ
ÑĥÐ¿ ÑĢÐ°Ð²
Ġ198 3
196 9
ĠÑĤÐµÑħ Ð½Ð¸ÐºÐ¸
ĠÐ¾ÐºÐµ Ð°Ð½
ÐĲÐ»ÐµÐºÑģÐ°Ð½Ð´ ÑĢ
ĠÐ½Ð°Ð· Ð°Ð´
8 9
Ð¸Ðµ Ð¿Ð¸ÑģÐºÐ¾Ð¿
ĠÐ¿ÑĢ Ð¾Ð»
ĠÐļ Ð°Ð¿
ĠÐľ ÐµÐ´
Ðľ Ð°ÑĤ
ĠÐ¿Ð¾Ð»Ð¸ÑĤ Ð¸ÐºÐ°
ÐļÐ°ÑĤ Ð¾Ð»
Ð³ÑĢÑĥÐ¿Ð¿ Ñĭ
ĠÐ² Ð¾Ð»Ð½
Ð°ÑĢ ÐºÑĤ
ÑĢÑĥ Ð±
ÐĿÐ° ÑĥÐºÐ°
Ġ198 2
Ġ198 5
ĠÐ´ÐµÐ¹ÑģÑĤÐ² Ð¸Ðµ
ĠÑĤÐµÐ°ÑĤ ÑĢÐ°Ð»ÑĮÐ½ÑĭÐ¹
ĠÐ±ÑĥÐ´ ÑĥÑĤ
ĠÐ³ÐµÐ½ÐµÑĢÐ° Ð»Ð°
ĠÐ¸Ð¼ÐµÐ½ ÐµÐ¼
ÐµÐ½ ÑģÐºÐ¾Ð¹
Ð· Ñı
ĠÐ¾Ð± Ð¾ÑĢÐ¾Ð½
ĠÐ» ÐµÐ´
ĠÐ¿Ð¾ ÐµÐ·Ð´
ÑĥÐ³ Ð¾Ð»ÑĮ
ĠÐºÐ² Ð°Ð´
ĠÐļÐ¾Ð½ÑģÑĤÐ¸ÑĤÑĥ ÑĨÐ¸Ð¸
Ð² Ð°Ð½Ð¸Ñı
ĠÐ³Ð¾ÑģÑĥÐ´Ð°ÑĢ ÑģÑĤÐ²Ð¾Ð¼
Ðĵ Ðĳ
Ð¸ÑĢÐ¾Ð² Ð°Ð½Ñĭ
Ð§ Ð¸Ñģ
198 9
ĠÐ¿ÑĢÐµÐ´Ð¿ÑĢÐ¸ ÑıÑĤÐ¸Ð¹
ÑİÑīÐ¸Ñħ ÑģÑı
Ð² ÐµÑĤÐ°
ÐŁ Ð°Ð¼ÑıÑĤ
ĠÐ¿ÑĢÐ¸ Ð»Ð¾Ð¶
ÑģÑĤÐ²ÐµÐ½ Ð½ÑĥÑİ
ĠÑģÐ¿ Ð°Ñģ
ĠÐ¿Ð¾Ð»ÑĥÑĩ ÐµÐ½Ð¸Ñı
ĠÐ³ÑĢÐ° Ð¼
ĠÑĢÑıÐ´ Ð¾Ð¼
ĠÐ»Ð¸Ðº Ð²Ð¸Ð´
ĠÐ¼ Ð°Ðµ
ĠÐ½Ð° ÑĨÐ¸Ð¾Ð½
Ð°Ð² ÑĪÐµÐ¹
ĠÐ²Ñĭ ÑĤ
ĠÑĢ Ð¾Ð¶Ð´
Ðľ Ð¸ÑĢ
ĠÑĨ Ð°ÑĢÑı
Ð»Ð¸Ð½ Ð³
ĠÐ¿ÐµÑĢÐµÐ´Ð°Ñĩ Ð¸
ÑĢÐ¾Ð¸Ð· Ð²Ð¾Ð´
Ġ ÑĢÐ¸ÑĤ
Ð² Ð°Ñı
Ð· Ð±ÐµÐº
ĠÐ¼ Ð¾ÑģÐºÐ¾Ð²
ĠÐ¾ÑģÑĤ Ð°Ð½Ð¾Ð²
ĠÑģÐ²ÑıÐ· Ð°Ð½Ð¾
ÑģÐº Ð¾ÑħÐ¾Ð·ÑıÐ¹
Ð¸Ð² Ð½ÑĭÐ¹
Ð°ÑĤÐµÐ»ÑĮ Ð½Ð¾Ð¹
ĠÐ¸ÑģÐ¿Ð¾Ð»ÑĮÐ· ÑĥÑİÑĤ
ĠÐ½Ð¾Ð² Ð¾Ðµ
ĠÐ³ÑĢÐ°Ð¶Ð´Ð°Ð½ Ðµ
ĠÐ´Ð° ÑĳÑĤ
ĠÐŁÑĢÐµ Ð·Ð¸Ð´Ð¸
ĠÐĲÐ²ÑģÑĤÑĢÐ° Ð»Ð¸Ð¸
Ñĭ Ð»
ÑĪ ÑĤÐ°Ð±
ĠÐĲ Ð³
ĠÑħ ÑĢÐ¾Ð¼
ĠÐĺ Ð¾Ð³
Ðľ Ð¾Ð½
ĠÐ²Ð· ÑıÑĤ
ĠÐ³Ð»ÑĥÐ± Ð¾Ðº
ĠÐ² ÐµÐ½Ð³ÐµÑĢ
ÑĢÑĥ Ð¶Ðµ
ĠÐ¸Ð½ÑĤ ÐµÐ³
ĠÐĳÐ¾Ð³ Ð°
ĠÐ¿ÑĢÐ¸Ð· Ð½Ð°Ðº
Ġ ;
Ð¸ ÑĢÐµ
Ð» ÑĳÐ½
ĠÐ± ÑĥÑĢ
ÑĤÐ¾ÑĢ Ñĭ
ĠÐ·Ð°Ð² ÐµÐ´
ĠÐ¼ÑĥÐ·Ñĭ ÐºÐ¸
ĠÑįÐ»ÐµÐ¼ÐµÐ½ÑĤ Ñĭ
ĠÑģÐ¾Ð±ÑĢÐ°Ð½ Ð¸Ðµ
ĠÐ¾ÑģÐ²Ð¾Ð± Ð¾Ð¶Ð´
ĠÐ°ÑįÑĢÐ¾Ð¿ Ð¾ÑĢÑĤ
Ñģ ÐµÐ¼
ĠÑĥ Ð´Ð°
ĠÐĲ Ð»Ð¸
ÑĥÑģÑĤ Ñı
i p
ÑĢÐ° Ð¼Ð¸
ĠÐĵ ÐµÐ½ÐµÑĢÐ°
ĠÑĩÐ°ÑģÑĤ Ð¸ÑĩÐ½Ð¾
Ġ198 1
ĠÐ¸Ð·Ð²ÐµÑģÑĤ Ð½ÑĭÑħ
ĠÐ¼Ð°ÑĪ Ð¸Ð½
Ð¾Ð»ÑĮ Ðº
Ð¾Ð¿ Ð¸ÑĤ
ĠÐ·Ð° Ð±Ð¾Ð»
ÐºÐ¾Ð¼ Ð¿
Ġ196 5
ĠÐ²Ð»Ð¸ Ñı
ĠÑģÐºÐ¾ÑĢ Ð¾ÑģÑĤÐ¸
Ð»ÐµÐ´ÑģÑĤÐ² Ð¸Ðµ
Ð°Ð´Ð¶ Ð¸Ðº
ĠÐ°Ð²ÑģÑĤÑĢÐ¸Ð¹ ÑģÐºÐ¸Ð¹
ĠÐ¶Ð¸Ð´ Ðº
ÐµÐ»ÑĮ Ð´
ĠÐľ Ð°Ð³
Ð¸ÑĤÐµÐ»ÑĮ Ð½ÑĭÐ¼
ĠÑĨ Ð°ÑĢÑĮ
ĠÐķ Ð»Ð¸Ð·Ð°Ð²
ĠÐ¯ Ðº
ĠV II
ÐŁÐµÑĢÐ² ÑĭÐµ
ĠÐºÑĥÑĢ Ñģ
ĠÐ¸Ð·Ð¼ÐµÑĢ ÐµÐ½Ð¸Ñı
ĠÐ½ Ð¾ÑĢÐ²ÐµÐ¶
ĠÐ´ Ð»Ð¸ÑĤÐµÐ»ÑĮ
ĠÐ· Ð°ÑĢÑı
ĠÐĴ Ñĭ
ÐĲ Ð½ÑĤ
ĠÐ¸ÑģÑĤÐ¾ÑĢ Ð¸Ñı
ĠÐ·ÐµÐ¼ Ð»Ñı
ĠÐºÐ¸Ð» Ð¾Ð¼ÐµÑĤ
5 8
Ð½ ÐµÐ½Ð¸Ðµ
ĠÐ¿ Ð¸ÑĪ
ĠÐ² ÑģÑĤ
ĠÑģ ÐµÑĤÑĮ
ĠÐķ Ð¡
ĠÐ¸ÑģÑĤ Ð¸Ð½
ĠÑģÐ¾Ð´ÐµÑĢÐ¶ Ð¸ÑĤ
ĠÐ½ÐµÐ¿ÑĢ ÐµÑĢÑĭÐ²
Ð½ ÐµÐ¼Ñĥ
ÑĢ ÐµÐ½Ð¸Ðµ
ÐĽ Ðµ
ĠÑģÐ¾ÑģÑĤÐ¾Ñı Ð½Ð¸Ð¸
ĠÑģÐ²Ð¾Ð±Ð¾Ð´ Ñĭ
ĠÐºÐ¾ Ð¾ÑĢÐ´Ð¸Ð½
ĠÑģÑĢÐ°Ð²Ð½ ÐµÐ½Ð¸Ñİ
ĠÐ¿Ð¾ÑģÑĤÐµÐ¿ ÐµÐ½Ð½Ð¾
4 9
ÐµÑĢ Ñĥ
ĠÐĳ ÐµÐ»ÑĮÐ³
ĠÐĿ Ð¸Ð¶
ĠÐ¿Ð¾Ð² ÐµÐ´
ĠÐ¿Ð»Ð°Ð½ ÐµÑĤÑĭ
ĠÑĢÐ°ÑģÐ¿Ð¾Ð»Ð¾Ð¶ ÐµÐ½Ñĭ
ĠÐ¿Ð¾ÑĢÑıÐ´ ÐºÐ°
ÑĢÐ° Ð´Ð¸
Ð»ÐµÐ´ Ð¾Ð²Ð°ÑĤÐµÐ»ÑĮ
ÐŁÑĢÐ¸ Ð¼ÐµÑĢ
ĠÐ¸ÑģÑĤÐ¾ÑĢ Ð¸Ñİ
ĠÐ¿Ð¾Ð»Ð¸ÑĤ Ð¸ÑĩÐµÑģÐºÐ¾Ð¹
200 5
197 0
5 7
g e
Ð³ Ð¾Ð²Ð¾ÑĢ
Ð¾Ð³ Ð¸
ĠÐ± Ð°ÑĪ
ĠÐ» ÐµÐº
ĠÐĿ ÐĲ
200 4
ĠÑĦÐ¾ÑĢÐ¼ Ñĥ
ĠÑģÐµÐ¼ ÑĮÐ¸
ĠÐ¾ÑĢÐ³Ð°Ð½Ð¸Ð·Ð° ÑĨÐ¸Ð¹
ĠÑģÐ»ÑĥÐ¶ Ð±Ñĭ
ĠÐ¿ÑĢÐ¾ÑĪ Ð»Ð¸
ĠÐ»ÐµÐ³ ÐºÐ¾
ĠÐ¾Ð±ÑĥÑĩ ÐµÐ½Ð¸Ñı
a p
ĠÐ² ÑħÐ¾Ð´Ð¸ÑĤ
ĠÑĤ ÑĢÐ¾Ð»Ð»ÐµÐ¹Ð±
ĠÐ» Ð¸Ð½Ð³Ð²Ð¸ÑģÑĤ
ĠÑĤÐ°Ðº Ð¾Ð³Ð¾
Ð¸ÑĨ Ð¸Ð·Ð¼
ÑĥÑģ Ð°Ð»Ð¸
ĠÐ¨ Ð²ÐµÐ¹ÑĨ
Ġ196 2
ĠÐ´ÐµÐ¹ÑģÑĤÐ² ÑĥÐµÑĤ
ĠÐ²ÐµÑģÑĮ Ð¼Ð°
ÐŁÐ¾Ð¼ Ð¸Ð¼Ð¾
Ġ $
Ñĩ Ð¸ÐºÐ¾Ð²
ĠÐľ Ð¸ÑĢ
Ð°Ð½Ð¸Ñı Ñħ
ĠÐ¿Ð¾Ñģ ÐµÑĤ
Ð¸Ð³ Ð¸
Ġ197 1
Ġ197 4
ĠÑĦÑĥÐ½ Ð´Ð°Ð¼ÐµÐ½ÑĤ
193 8
Ñģ Ð¸Ð¼
ĠÐ½Ðµ Ð¾Ð´Ð½
ĠÑģÐ¾ÑģÑĤÐ¾Ñı Ð»ÑģÑı
ĠÐ¡Ð²ÑıÑĤ Ð¾Ð³Ð¾
Ð¾Ð·Ð° Ð¸Ðº
5 6
T he
Ð°Ð½ Ð½ÑĭÐ¼
ĠÐĳ ÐµÐ½
ĠÐĶ Ð°Ð²
ĠÑģÐ¾ÑģÑĤÐ¾Ñı Ñī
196 0
4 1
ĠÑģ ÑĢÐ°Ð·Ñĥ
Ġ19 00
ĠÑĢÐµ ÑĩÐ¸
ĠÐĵ Ð»Ð°Ð²
ĠÐ±Ð¾Ð»ÑĮÑĪ ÐµÐ¹
ĠÐ¿ÑĢÐ¾ÐµÐºÑĤ Ð°
ÑİÑīÐ¸Ðµ ÑģÑı
ÐµÐ½Ð½ Ð¸Ñģ
ĠÐº Ð°Ð»ÑĮ
ĠÐ¼ Ð¸ÑģÑģ
Ñį ÐºÐ¾Ð½Ð¾Ð¼
ĠÑĢÐµ ÐºÐµ
Ðļ Ð¾Ð³Ð´Ð°
ĠÑı ÑĢ
ÐĲ Ð»
ĠÑįÐº Ð²
ĠÑģÑĤÑĢÐ°Ð½ Ñĥ
Ð¾Ðº Ðµ
ĠÐ¤ Ð»Ð¾ÑĢ
ĠÑĢÐ°Ñģ ÑģÑĤÑĢÐµ
ĠÐ¼Ð½Ð¾Ð¶Ðµ ÑģÑĤÐ²Ð°
ÐµÐ½ ÑĨÐ¸Ð°Ð»ÑĮ
ÐµÑĢ ÑĤÐ°
ĠÐ´ Ñĭ
Ð¾ÑģÑĤ Ð°Ð½Ð¾Ð²
Ð¿ÑĢÐµ ÑģÑģ
ĠÐ´Ð°Ð»ÑĮÐ½ÐµÐ¹ ÑĪÐµÐ¼
Ð² Ð¸ÑĤ
ĠÑģ Ð¸Ð³
ĠÑģ ÐµÐ³Ð¾Ð´Ð½Ñı
ĠÐ¿ÑĢÐ¾ ÑħÐ¾Ð´Ð¸ÑĤ
Ġ194 3
ĠÐ¾Ð¿ÑĢÐµÐ´ ÐµÐ»ÐµÐ½Ð¸Ñı
ĠÐ¿Ð»Ð°Ð½ ÐµÑĤ
ĠÐ´Ð²Ð° Ð¶Ð´Ñĭ
ĠÐ¿Ð¾Ð³Ð¸Ð± ÑĪÐ¸Ñħ
ĠÐ¿ÑĢÐ¾Ð¶ Ð¸Ð²
Ð¶ Ñĥ
Ð¾Ð· Ð¾Ð²
ĠÐĵ ÑĢÐ°Ð¶Ð´Ð°Ð½
Ð¸Ñĩ Ð½Ð¾Ð¹
ĠÑģÐ¾Ð·Ð´ Ð°ÑĤÐµÐ»ÑĮ
ĠÐºÐ¾Ð½ÑĤ Ð¸Ð½ÐµÐ½ÑĤ
ĠÐ²ÐµÑīÐµ ÑģÑĤÐ²
ĠÐ²Ð·Ð°Ð¸Ð¼Ð¾Ð´ÐµÐ¹ÑģÑĤÐ² Ð¸Ñı
ĠÐĿÐ°Ð¿ Ð¾Ð»Ðµ
ĠÐ²Ð¾ÐµÐ½Ð°Ñĩ Ð°Ð»ÑĮÐ½Ð¸Ðº
ÐµÑĤ Ð¾Ð²
ĠÐŁ Ð¾Ð±ÐµÐ´
ÑĥÑİÑī ÐµÐ¹
Ġ193 8
ĠÐ·Ð°Ð¼ ÐµÑģÑĤ
ĠÐ¿Ð¾Ð»Ð¾Ð² Ð¸Ð½Ñĭ
ĠÐ·Ð°Ð¿Ð¸Ñģ Ð¸
Ð¾Ð²Ð¾Ð»ÑĮ Ð½Ð¾
ĠÐ¼ ÐµÑĤÐ°
ĠÐºÐ¾Ð½ Ð³ÑĢÐµÑģÑģ
ĠÐ½ÐµÑģ Ð¼Ð¾ÑĤÑĢÑı
ÑĢÐ° ÑĨÐ¸Ñı
ÑĨ ÐµÐ¿
ĠÐ¡ Ð¸Ð±Ð¸ÑĢ
ÐĴ Ð¾Ð¹
Ð¸ÑģÑĤ Ð°
ĠÐŀ Ð¼
ĠÐºÐ¾Ð¼ Ð¼ÑĥÐ½Ð¸ÑģÑĤ
194 1
ĠÑģÑĥÐ´ ÐµÐ±
Ð³Ð¾ÑĢ Ð¸ÑĤ
ĠÑĦÑĥÐ½Ðº ÑĨÐ¸Ð¹
ĠÐŃÐ¹ Ð½ÑĪÑĤ
ĠÐ²ÑĭÑĪ ÐµÐ»
8 4
Ðº Ð¾Ð»
ĠÐº Ð»Ñİ
ĠÑģÐ°Ð¼ Ð¾Ð¼
ĠÐ¼Ð¸ ÑĢÑĥ
Ġ196 8
193 7
ĠÑĥÐ¿ÑĢÐ°Ð² Ð»ÐµÐ½Ð¸Ðµ
ĠÑĢÐ¾Ð¼ Ð°Ð½
ĠÐ´Ð¸Ð² Ð¸Ð·
ĠÑģ ÐµÑģÑĤ
Ð¾Ñģ Ð²
Ð¾Ðº Ð¾Ð»Ð¾
ÐµÐ½Ð¸Ñı Ð¼
Ġ19 21
ĠÐł ÐĲÐĿ
Ðľ ÑĥÐ·Ñĭ
ĠÑģÑĢÐµÐ´ Ð½ÐµÐ¼
ĠÐ¼ÐµÑĤÐ¾Ð´ Ñĭ
ĠÐ¿Ð¾ÑĢÑĤ ÑĥÐ³Ð°Ð»ÑĮ
ĠÐ±ÐµÑĢÐµÐ³ Ñĥ
ĠÑģ Ð°Ð¹
Ð¾Ñģ Ð¸Ð¿ÐµÐ´
ĠÑĢÑĥÑģ ÑģÐºÐ°Ñı
ĠÐ¼ÐµÑģÑĤ Ð¾ÑĢ
ĠÐºÐ¾Ð» ÐµÐ±
ĠÑĤÑĢÐ° Ð´
ĠÐ¿ÑĢÐµÐ´Ð¿ÑĢÐ¸ ÑıÑĤÐ¸Ñı
ÐļÐ¾Ð½ Ñģ
ĠÐ²Ð½ÑĥÑĤÑĢÐµÐ½ Ð½Ð¸Ñħ
ĠÐ³Ð¸Ð¼ Ð½Ð°
Ð± Ñİ
ĠÐº Ð°Ñģ
ĠÐ´ ÑĢÑĥÐ³Ð°
ÑĪ ÐµÐ¼Ñĥ
ÐĴ Ð¼ÐµÑģÑĤ
ĠÐľ ÑĥÑħÐ°Ð¼
in d
ĠÐ¿ÑĢÐ¾ÑģÑĤÑĢÐ°Ð½ ÑģÑĤÐ²Ðµ
ĠÐ°Ð²Ð¸ Ð°ÑĨÐ¸Ð¾Ð½
ÐµÐ½ Ð´Ð°
ĠÐ³ ÑĥÐ¼Ð°Ð½
Ð¡ ÐµÐ¼
Ðļ ÑĥÐ»ÑĮÑĤ
Ð°ÑĢÐ° Ð³
ÑĢÐ¸ÑĤ ÐµÐ»ÑĮ
ĠÐ½Ð°ÑĢÐ¾Ð´ Ð½ÑĭÑħ
Ġ197 6
ĠÐ²ÑĤÐ¾ÑĢ Ð¾Ð³Ð¾
ĠÐºÐ¸Ð½Ð¾Ð°ÐºÑĤ ÑĢÐ¸ÑģÐ°
ĠÐĿÐ¾ÑĢÐ²ÐµÐ³ Ð¸Ð¸
ĠÐ±ÐµÑģÐº Ð¾Ð½ÐµÑĩ
ĠÐ³ Ð¾Ð½
Ð²Ð° Ð»Ð°
Ð¸ÑĨ ÐµÑĢ
ÐŁÐ¾ÑĩÑĳÑĤ Ð½ÑĭÐµ
ĠÑįÐºÑģÐ¿Ð»Ñĥ Ð°ÑĤÐ°
ĠÐ± Ð¸Ð·
Ð°ÑĤÑĮ Ñı
ĠÐ¤ ÑĢÐ°Ð½ÑĨ
ĠÑĤÐµÑĢ ÑĢÐ¾ÑĢ
ĠÑģÑĢÐµÐ´ Ð½ÐµÐ²ÐµÐº
Ð³ÑĢÐ° ÑĦ
ĠÐ·Ð¾Ð»Ð¾ÑĤ Ð°
ĠÐ¾Ð±ÑĬÑıÑģ Ð½Ñı
Ð°Ð½ ÑģÐºÐ°Ñı
Ð¾Ñģ Ñĭ
ĠÐ¡ Ð¾Ðº
ĠÐ¿ÑĢÐ¸ ÑĳÐ¼
ĠÐĳ Ð¾Ð¶
ĠÑħ Ð¾Ð»Ð¾Ð´
Ð¸Ð»Ð¸ ÑīÐµ
Ð¸Ñĩ Ð½ÑĭÑħ
ÐĹ Ð°Ð¿Ð°Ð´
ĠÐ¿ÑĢÐµÐ´ÑģÑĤÐ°Ð² Ð¸ÑĤÐµÐ»Ð¸
Ðķ ÑīÑĳ
ĠÐ°Ð²Ð¸ Ð°Ðº
ĠÐ½Ð°ÑĩÐ¸Ð½Ð° ÐµÑĤÑģÑı
ĠÐŁÐ¾ÑĢÑĤÑĥÐ³ Ð°Ð»Ð¸Ð¸
Ð¼ ÐµÑĤÑĭ
ĠÑģ ÑħÐ¾Ð´
Ñĳ Ð¼Ð°
Ġ19 25
Ð°Ð´ ÑĨ
Ð½Ðµ ÑĪ
ĠÑıÐ½ Ð²Ð°ÑĢÐµ
Ð½ Ð¸Ð¼Ð¸
ĠÐ½Ð° Ðº
ĠÐ²Ñĭ Ð´ÐµÐ»
ÐĿ Ð¾Ð²
ÑģÑĤÐ²ÐµÐ½ Ð½Ð¾Ð¼
Ð¸ÑĢ ÑĤÑĥ
ĠÑĪ Ð²ÐµÐ¹ÑĨ
ÐºÑĢÑĭ ÑĤ
ÑĢÐµÑĤ Ð¸Ð¹
ÑģÑĥ Ð¶Ð´
Ð»ÐµÐº Ð¾Ð¿Ð¸ÑĤ
ĠÐ¿Ð¾ÑģÑĤÐ¾ÑıÐ½ Ð½Ð¾
ĠÑĦÑĢÐ¾Ð½ ÑĤÐ°
ĠÐ¿ÑĢÐ¾ÑĤÐµÑģÑĤ Ð°Ð½ÑĤ
ĠÐ¿ Ð°ÑĤ
ĠÑĤ ÑĢ
ĠÑĩ ÑĢÐµÐ·Ð²ÑĭÑĩÐ°Ð¹
ĠÐ¸Ð¼Ðµ ÐµÑĤÑģÑı
197 6
ĠÐŁÐµÑĢÐ² Ð¾Ð¹
5 2
Ð¾Ð³ Ð¾ÑĢ
ĠÐļ Ð¾ÑģÑĤ
ĠÐ½Ðµ Ð³
Ð°ÑĤÐµÐ»ÑĮ Ð½Ð¾Ð³Ð¾
ĠÐ²Ð¾ÐµÐ½ Ð½ÑĭÐµ
ĠÐ´ÐµÐºÐ° Ð±ÑĢÐµ
ĠÐ²Ð¿ Ð»Ð¾ÑĤÑĮ
ĠÐºÐ¾Ð½ÑĨ Ñĥ
ÐµÐ²Ð¸Ñĩ Ð°
ĠÐĴÐ»Ð°Ð´Ð¸Ð¼Ð¸ ÑĢÐ°
Ð¾ Ð¾Ð±
Ð² Ð¾Ð»ÑĮ
ÑĮ ÑıÐ½
ĠÑĢÐ° Ð±Ð¾
Ð°Ð² Ð°
Ð½Ð° Ð±
ĠÐĴ Ð¾Ð¹
Ð°ÑĢÐ¸ Ð½
196 8
Ð¸ÑĢÐ° Ð¼Ð¸
ĠÐ¸ÑģÐºÑĥÑģ ÑģÑĤÐ²
ĠÑĥÐ¿ÑĢÐ°Ð² Ð»Ñı
ĠÐ½ÐµÐ¸Ð· Ð²ÐµÑģÑĤ
Ġ Z
ÑĢ Ð¾ÐµÐºÑĤ
Ð± Ð»Ð¸Ð·
ĠÑĩ Ð°ÑīÐµ
ÐŁÐµÑĢÐ² Ð°Ñı
ĠÐ½ÐµÐ¾Ð±ÑħÐ¾Ð´Ð¸Ð¼ Ð¾
ĠÑģÐ¼ÑĭÑģ Ð»Ðµ
ĠÐ´ÐµÐ½ ÐµÐ¶
Ð² Ð°ÑĤÑĭ
ĠÐµ Ð¹
Ð°Ð»Ð¸ ÑĤ
Ðŀ ÑģÑĤ
ĠÐŃ Ð´
Ġ194 6
ĠÐ°Ð²Ð³ÑĥÑģÑĤ Ðµ
199 4
ĠÐ´Ð¾Ð»Ð¶ Ð½Ð¾ÑģÑĤÐ¸
ĠÐºÐ½Ð¸ Ð³Ðµ
ĠÐ¿ÑĢÐµ ÐºÑĢÐ°ÑĤ
Ð¸ÑĢÐ¾Ð²Ð°Ð½ Ð½ÑĭÐµ
ĠÐĺÐ²Ð°Ð½Ð¾Ð² Ð¸Ñĩ
ĠÑģÐ¸Ð»Ð° Ð¼Ð¸
ĠÐ²Ð´ Ð¾Ð»ÑĮ
ĠÐ½Ð° Ð¼
ĠÐ¡ Ð¸ÑĢÐ¸
ÐŁ Ð¾Ð»Ð¸ÑĤ
ĠÐ°Ð² ÑģÑĤÑĢÐ°Ð»Ð¸Ð¹
ĠÑģÑĤÐ¾Ð» ÐºÐ½Ð¾Ð²
ĠÑĢÐ°Ð¹Ð¾Ð½ Ð°Ñħ
ĠÐ¶ÐµÐ»ÐµÐ· Ð½Ð¾Ð¹
ĠÐ³Ð¸Ð¿ Ð¾ÑĤ
ĠÐ¾Ð± Ð¸ÑĤ
Ð¾Ðº ÐºÐ¾
ĠÐĳ Ð°Ð¹
ÐĿ Ð°ÑĢÐ¾Ð´
ĠÑģÐµÑĢ Ð¸Ð¸
ĠÑįÐ»ÐµÐºÑĤ ÑĢÐ¾
ĠÐ¼ÑĥÐ¶ ÑĩÐ¸Ð½
ĠÑĩÐ¸ÑģÐ»ÐµÐ½ Ð½Ð¾ÑģÑĤÐ¸
ĠÑĤÑĢÐ°Ð¼ Ð²Ð°Ð¹
ĠÐ¡Ð¸Ð± Ð¸ÑĢÐ¸
Ñĩ ÑĳÑĤÐ°
Ð»Ð¸ Ðº
ĠÑĥ Ð»ÑĥÑĩ
Ð½Ð¾Ð¼ Ð¾ÑĢ
ĠÐĹ Ð°Ð²
197 9
ĠÐ±Ð¾Ð»ÑĮÑĪÐ¸Ð½ ÑģÑĤÐ²Ð°
Ġ ),
ĠÐ¿ Ð»Ð°
ĠÐ½ Ð¸Ð´ÐµÑĢÐ»Ð°Ð½Ð´
Ð°ÑĤ Ñĥ
Ð¸Ð½ ÑģÐºÐ¸Ðµ
Ġ19 29
Ð½ÐµÐ¹ ÑĪÐ¸Ñħ
ĠÐ¼ÐµÑģÑĤ Ð½ÑĭÑħ
Ġ196 3
199 3
ĠÐ½Ð°ÑĨÐ¸Ð¾Ð½Ð°Ð»ÑĮ Ð½Ð¾Ð¹
ĠÐĺÐ· Ð´
ĠÐ½Ð°Ð¿Ð¸Ñģ Ð°Ð»
ÑģÐ² Ð¸ÑĤ
ĠÐķÐ³Ð¸Ð¿ ÑĤÐ°
Ð¼ÐµÑĢ ÑĤ
Ð¾Ð»Ð¾Ð³ Ð¸ÑĩÐµÑģÐºÐ¾Ð¹
ĠÑĢÐ°Ñģ ÑģÐºÐ°Ð·
ĠÐ·Ð°Ð¼ ÐµÐ½
ÑģÑĤÑĢÑĥ ÐºÑĤ
ĠÐ¿ÐµÑģ Ð½Ð¸
ĠÐ¼ÑĭÑģ Ð»Ð¸
ÑĢ Ð³
ÑĤ ÐµÑĢÐ½
Ð´ Ð»Ñı
Ð¾ÑĢ Ð¾
Ð°Ð¼ Ð¿
Ð¸Ð² Ð¾Ð²
ĠÐ·Ð° ÑĢÐµÐ³Ð¸ÑģÑĤÑĢÐ¸ÑĢÐ¾Ð²
ĠÐ´Ðµ Ð»Ðµ
ĠX IV
Ġ193 7
ĠÐ·Ð°ÐºÐ¾Ð½ Ñĩ
ĠÐ¼ÐµÑģÑı ÑĨ
ĠÐ¾Ð¶ Ð¸Ð´
ĠÐľÐ¸ÑħÐ° Ð¸Ð»Ð°
ĠÑģ Ð°Ð´
Ð¿ ÑĥÑģÐº
ĠÐº ÑĥÐ±
ĠÐ± Ð°Ð½Ðº
Ġ19 26
ĠÐŁ Ð¾Ð»ÑĮ
Ðĺ Ð·Ð²ÐµÑģÑĤ
ĠÐ¿Ð¾ÑģÐ»ÐµÐ´ Ð¾Ð²
199 6
ĠÐ¿ÑĢÐ¾Ð³ÑĢÐ°Ð¼ Ð¼Ðµ
ĠÐ¸ÑģÐºÑĥÑģ ÑģÑĤÐ²Ð¾
ĠÐ¾ÑģÑĥÑīÐµÑģÑĤÐ² Ð»Ñı
ĠÑĤÐ¾ÑĢÐ³Ð¾Ð² Ð»Ð¸
ĠÐ´Ð¸Ð½ Ð°Ð¼
ĠÐ·Ð°Ð²Ð¸Ñģ Ð¸ÑĤ
ĠÑĢÐµÐ³Ð¸ Ð¾Ð½Ð°
Ð¸ Ð³Ð°
ĠÐ¸Ð· Ð³Ð¾ÑĤÐ¾Ð²
ÐĹ Ð°ÐºÐ¾Ð½
ĠÐ¿Ð¾Ð»ÑĥÑĩ Ð¸ÑĤÑĮ
Ġ197 2
Ð²Ð¸ Ð³Ð°
ĠÐ³ÑĢÐ°Ð½ Ð¸ÑĨ
ĠÐ±Ð¾Ð» Ð³Ð°ÑĢ
Ð² Ð¾Ð·
Ð¼ Ð¾Ð¹
ĠÑģ Ð»Ð°Ð±
ĠÐ± Ð¾Ñı
ĠÐ± ÐµÑģÑģ
ĠÐ¿ÑĢ Ð¾Ð·
ĠÐļ Ð°Ð±
ĠÑĢÐ°Ð±Ð¾ÑĤ Ð°Ð»
Ġ197 7
Ð°Ð»Ðµ ÑģÑĤ
ĠÑģÐµÐ»ÑĮ ÑģÐºÐ¾ÑħÐ¾Ð·ÑıÐ¹
Ð² ÐµÐ½
Ñĭ ÑĤÐ°
ÑĢÐµ ÑĤÐ°
ĠÐĴ ÑĭÑģ
Ð¾Ñĩ Ð½Ð¾Ð¹
ĠÐ¿ÑĢÐ¾Ð² ÐµÑĢ
200 2
ĠÐ¾ÑĢÐ³Ð°Ð½Ð¸Ð·Ð° ÑĨÐ¸Ñı
ĠÐ¿ÑĢÐµÐ´ÐµÐ»Ð° Ñħ
ĠÐºÑĢÐ¸Ð· Ð¸Ñģ
Ñģ Ð¼ÐµÐ½
Ð´ Ð¾Ðº
ĠÐ² Ð¸Ð½
Ð¾Ð½ ÑģÐºÐ¸Ð¹
Ð¸ÑĤ Ð²Ð°
Ð°Ð¼ ÐµÑĤ
ĠÐ¿ÑĢÐµ ÑģÐ²Ð¸ÑĤ
Ð°Ð³ Ð½Ð¸ÑĤ
ĠÐ±Ð¾Ð»ÑĮÑĪ ÑĥÑİ
ĠÑģÐº Ð»Ð¾Ð½
ÑıÑī Ð¸Ð¹
ĠÐ°ÑĢÑħ Ð¸ÐµÐ¿Ð¸ÑģÐºÐ¾Ð¿
ĠÐ·Ð´ Ð°Ð½Ð¸Ðµ
ĠU n
ĠÐ¿ÑĢÐ°Ð² Ð¸Ð»Ð°
197 2
194 4
ĠÐ¿ÑĢÐµÐ´Ð»Ð¾Ð¶ Ð¸Ð»
ĠÐ±Ð¸ÑĤ Ð²Ð°
ĠÐłÑĥÐ¼ ÑĭÐ½
i an
r an
u x
ĠÐ² Ð¸ÑĨÐµ
ĠÑģ ÐµÑĢÐ±
ÐŁ Ð¾Ð²
Ð¸Ð² Ð°ÑİÑĤÑģÑı
Ġ19 28
ÑĥÑĤ Ð°
Ðĳ Ð»Ð°Ð³
ĠÐ¿ÑĢÐ¾ÑĤÐ¸Ð² Ð¾Ð¿Ð¾Ð»Ð¾Ð¶
ĠÐ´Ð¾Ð»Ð¶ Ð½Ð¾
8 1
o b
Ñĩ ÐµÐ½ÐºÐ¾
ĠÐ¾ÑĤ Ð¼ÐµÑĤ
ĠÐľ Ð¾
ĠÐłÐ¾ÑģÑģ Ð¸ÐµÐ¹
194 0
ĠV III
ĠÐłÐ¸Ñĩ Ð°ÑĢÐ´
Ð½ Ð¾Ð·
ĠÐ¡ ÐµÐ²
ĠÐĲ Ð¹
ĠÑĨ ÐµÐ»Ð¸
en s
ĠÑĢÐ°Ð¹ Ð¾Ð½Ð¾Ð²
ĠÐºÐ°Ð· Ð½
ĠÐ³ÑĥÐ±ÐµÑĢÐ½ Ð¸Ð¸
ĠÐ³ÑĥÐ±ÐµÑĢÐ½ Ð°ÑĤÐ¾ÑĢ
ĠÐ¿ Ð»Ð°ÑģÑĤ
ĠÐ´ ÐµÐ»Ð¾
ÑĢÐ°Ð½ ÑģÐ¿Ð¾ÑĢÑĤ
Ð¼Ð¸ ÑĢ
ĠÐŀ Ð»ÑĮ
ĠÐ¿ÑĢÐ¸ÑħÐ¾Ð´ Ð¸ÑĤÑģÑı
Ð± Ð¾Ð¹
Ð¸Ðº Ð¾Ð¼
ÐĶ ÑĢÐµÐ²
ĠÐºÐ¾Ð¼ Ð¼Ñĥ
Ġ20 23
ĠÑģÐ²Ð¾ Ð¸Ð¼Ð¸
ĠI X
ĠÐ¸ÑģÐ¿Ð¾Ð»ÑĮÐ· Ñĥ
ĠÑĢÐ¾ÑģÑģÐ¸Ð¹ ÑģÐºÐ¾Ð³Ð¾
ĠÑĢÐ°Ð±Ð¾ÑĤ Ð°
ĠÐ¾Ð±ÑīÐµ ÑģÑĤÐ²Ð¾
ĠÐľÐ¾ÑģÐº Ð²Ñĥ
ÑģÑĤÐ²Ð¾Ð² Ð°Ð»
ÑĮ ÐµÑĢÐ°
ĠÐ¼ Ð°Ð»Ð¾
Ð½Ð¾ ÑĪÐµÐ½Ð¸Ñı
ĠÐ¡ Ð»Ð¾Ð²
ĠÐºÐ°Ðº Ð¾Ð¹
197 4
ĠÐºÐ°ÑĤ Ð°ÑģÑĤÑĢÐ¾ÑĦÐ°
ÑĢÐ°Ð³ Ð¼ÐµÐ½ÑĤ
Ð½ÐµÐ³ ÑĢÐµÑĩÐµ
ĠÐ³ÑĢÐ°Ð² Ð¸ÑĤÐ°
i f
Ñħ ÑĤ
ĠÑģÑĤ ÐµÐ½
ÐµÑģÑĤ ÑĮ
Ð»Ñİ Ð´
20 11
ĠÐ¿Ð¾Ðº ÑĢÐ¾Ð²
Ð¸ÑĢÑĥ ÑİÑĤ
ĠÐ°ÑĢÑħÐ¸ÑĤÐµÐºÑĤ ÑĥÑĢÑĭ
ĠÐ²Ð¾Ð·Ð½Ð¸Ðº Ð½Ð¾Ð²
ĠÐ³Ð»Ð° Ñģ
ĠÑĦÐ°Ðº ÑĥÐ»ÑĮÑĤ
ÐµÐ½ Ð½ÑĭÐ¼Ð¸
ĠÐ´ Ð°Ð»
Ð¼Ð¸ ÑĢÐ°Ð»
ÐºÐ¾Ð² Ð½Ð¸Ðº
Ðĺ Ð¼ÐµÐ½
ĠÐ±Ð¾Ð»ÑĮÑĪ Ð¸Ñħ
ĠÐ¾ÑĤÐºÑĢÑĭÑĤ Ð¸Ðµ
Ðĸ ÐµÐ»Ðµ
ĠÐ¿Ð°Ð¼ÑıÑĤ Ð½Ð¸Ðº
ÑĥÑį ÑĢ
ĠÐ¿ÑĥÐ±Ð»Ð¸ ÐºÐ°
ÑĨ Ð¾
ĠÐ· Ð¾Ð½Ñĭ
ĠÐļ Ð¸Ð¿
Ð°ÑĤÐµÐ»ÑĮ Ð½ÑĭÐ¹
ĠÑģÐ¾Ð²ÐµÑĤ ÑģÐºÐ¾Ð³Ð¾
ĠÐ»ÑİÐ± Ð¾Ð¹
ĠÑĦÐ¾ÑĤ Ð¾Ð¼
C l
Ñģ Ð°Ð¼
ĠÐ½Ð° ÑģÑĤ
ĠÐ½Ð° Ð±Ð¾ÑĢ
20 12
ĠÑĢÐ°Ð¹ Ð¾Ð½Ñĭ
ĠÐ½Ð°ÑĥÑĩ Ð½Ð¾Ð¹
ĠÐ¢ÑĥÑĢ ÑĨÐ¸Ð¸
Ï Ģ
Ð¾Ð¼ ÐµÑĢ
ĠÐ¾Ð± Ð¾ÑģÐ½Ð¾Ð²
ĠÐĴ Ð¾Ð·
Ðĳ ÐµÐ»
ĠÐ³Ð¾ÑĢÐ¾Ð´ Ð¾Ð¼
Ð£ Ñĩ
Ġ193 6
ĠÐ¿Ð°ÑĢÐ° Ð»Ð»Ðµ
ĠÐłÐ¾ÑģÑĤ Ð¾Ð²
ĠÐ½Ð°ÑĩÐ¸Ð½ Ð°Ñı
ĠÐ²ÑĢÐµÐ¼ÐµÐ½ ÐµÐ¼
Ð³ Ð¸Ð·
ĠÐ¡ Ð¸Ð½
ĠÐļ Ð¾Ð¿
Ġ19 14
ĠÐ¿ÐµÑĢ ÐµÐº
ĠÐ´Ð¾Ð» Ð»
Ġ195 8
ĠÐĲÑĦ Ð³Ð°Ð½
e g
Ñħ Ð¸
Ð¸Ð² Ð½Ð°Ñı
ĠÐĴ ÑĢÐµÐ¼ÐµÐ½
Ð°Ð»Ð¸ ÑĦ
ĠÐĵ Ð°Ð³Ð°
Ðł Ð°
ĠÐ²Ð¾ Ð¾Ð±ÑīÐµ
Ð°Ð³ Ð¾ÑĢ
ĠÑĢÐµÐ³ Ð¸ÑģÑĤ
ĠÐ·Ð½Ð°Ðº Ð¾Ð¼
ĠÐ¸Ð½Ð¸ÑĨÐ¸ Ð°ÑĤÐ¸Ð²
ÑĤ ÑĢÐ¸
Ð¾ÑĤ Ð¾Ñĩ
Ð°Ð² ÑĪÐµÐ³Ð¾
ĠÐĺ Ð³Ð¾ÑĢ
Ðľ Ðĺ
ĠÐºÐ¾Ð¼ Ð¼ÐµÐ½ÑĤ
ĠB o
ĠÐ½ÐµÐ¿Ð¾ÑģÑĢÐµÐ´ ÑģÑĤÐ²ÐµÐ½Ð½Ð¾
ÐłÐµÐ»Ð¸ Ð³Ð¸Ð¾Ð·
ĠÐ¿Ð°ÑĤÑĢÐ¸ Ð°ÑĢÑħ
7 3
Ï Ĥ
ĠÐ´ Ð¸Ñģ
ĠÑĦ Ð¸ÑĢ
Ð¸Ð² ÑĪÐ°Ñı
Ġ19 24
ĠÑĢÐ°Ð· Ð°
ĠÐ¢ Ñĥ
ĠÐ¢ Ð¾Ð»
ĠÐ¿ÑĢÐµÐ´ ÑĪÐµ
Ð¸Ñĩ Ð½ÑĭÐ¹
ĠÐ¸Ñİ Ð»Ðµ
ĠC h
ĠÐ²ÑħÐ¾Ð´ ÑıÑĤ
ĠÐºÑĢÐµÐ¿ Ð¾ÑģÑĤÐ¸
ĠÐ»Ð¸ÑĤÐµÑĢÐ°ÑĤÑĥÑĢ Ð½ÑĭÐ¹
ĠÑģÑĤÑĢÐ°ÑĤ ÐµÐ³
ÑĢÐ° ÑĦ
ĠÐ¸ Ð±Ð½
ĠÐ¾ÐºÑĤ ÑıÐ±ÑĢÐµ
ĠÑĢÐ°ÑģÑģ Ð¼Ð¾ÑĤ
ĠÐļÐ°Ð·Ð°Ñħ ÑģÑĤÐ°Ð½
5 3
Ð± ÑĥÐ´
ÑĢÐ¸ Ñİ
Ð¾Ð± ÑĢÐ°Ð¶
ĠÐľ ÐµÐºÑģ
ĠÐĳ ÑĢÐ¸ÑĤÐ°Ð½
ÑĢÐ°Ð² Ð¾
ĠÐĿ Ðµ
ĠÐ¿Ð¾Ð´ Ð²ÐµÑĢÐ³
ĠÐ¿ÑĢÐµ Ð¿
ĠX III
Ð°Ð± Ð¸Ð»ÑĮ
ĠÐ¤ÑĢÐ°Ð½ ÑĨÐ¸Ñı
ÑĭÐ²Ð° ÑİÑĤ
ĠÑĤÐµÐ»ÐµÐ²ÐµÐ´ ÑĥÑīÐ°Ñı
Ġ w
Ðº Ð¼
ĠÐ´ ÑĢÑĥÐ¶
ĠÐ´ Ð¾Ð²Ð¾Ð»ÑĮÐ½Ð¾
Ð¾ÑĢÐ° ÑĤÐ¾ÑĢ
200 9
198 4
ĠÑĥÐ´ Ð°ÑĢ
ĠÐ¿Ð¾Ð»Ð¾Ð¶ ÐµÐ½Ð¸Ñı
ĠÐºÐ°Ð¶Ð´ Ð¾Ð³Ð¾
ĠÐ¿ÑĢÐµÐ² ÑĢÐ°Ñī
5 9
Ð» Ð¾Ð³Ð¾
ĠÑģ Ð¾Ð¼
ĠÐ¼ Ð»ÐµÐºÐ¾Ð¿Ð¸ÑĤ
Ð¸Ð² Ð½Ð¾
ĠÐĴ ÐµÑĢ
ĠÐ¸Ð½ Ð´Ñĥ
ĠÐ¾ÑĤÐ½Ð¾ ÑĪÐµÐ½Ð¸Ðµ
Ġ195 7
193 9
ĠÐ¸Ñģ ÑĩÐµ
ÐŁÐµÑĤÐµÑĢÐ±ÑĥÑĢÐ³ Ðµ
ÐŀÑĢ Ð´ÐµÐ½
ÐµÐ½ Ð½ÑĥÑİ
Ð³ Ð¾Ð½
ĠÑĤ ÐµÐ»Ð¾
ÑĩÐµ Ñģ
ÑĩÐµ ÑģÐºÐ¸Ð¹
ĠÐĳ ÑĢÑİ
ĠÐºÐ¾Ð¼ Ð¸ÑĤÐµÑĤ
ĠÑĢÑĥÑģ ÑģÐºÐ¸Ðµ
ĠÐ¾Ðº ÑĢÐ°
Ðķ Ð´Ð¸Ð½
ĠÑįÐºÑģÐ¿ Ð¾ÑĢÑĤ
ĠÐ²ÑĭÑģÐ¾Ðº Ð¾Ð¹
ĠÐ°Ð²Ð¸ Ð°ÑĨÐ¸Ð¸
ĠÐ¿ÐµÑĢÑģ Ð¾Ð½Ð°
ĠÐĳÐ¾Ð»Ð³Ð° ÑĢÐ¸Ð¸
ĠÐ´Ð°Ð»Ðµ Ðµ
T P
Ð¸ Ð¾Ð¼
Ð¸ Ð¾Ð½Ð°
Ð· Ð¸
ÐºÐ° Ð´
ÐµÐ· Ð´Ðµ
ĠÐºÐ¾Ð¼ Ð¼ÐµÑĢ
Ð¸Ð¿ Ð¿
ÑĦÐ¸ Ð¾Ð¿
ĠÐ¿ÐµÑĢÐµÐ¿ Ð¸ÑģÐ¸
. -
20 20
ĠÑĢÐ°ÑģÐ¿ÑĢÐ¾ÑģÑĤÑĢÐ°Ð½ ÐµÐ½Ð¸Ðµ
ĠÐ¿ÑĢÐ¾Ð¸Ð·Ð²ÐµÐ´ ÐµÐ½Ð¸Ð¹
ĠÐĺÐµÑĢ ÑĥÑģÐ°Ð»Ð¸
o k
ĠÑĤ ÐµÐ½Ð½Ð¸Ñģ
ĠÐ¿ÑĢÐ¾ ÑĦ
ĠÑģÐ°Ð¼ Ð¾Ð»ÑĳÑĤÐ°
ĠÑģÐµÑĢ ÐµÐ´
Ġ193 3
196 7
198 8
ĠÐ¿Ð¾Ð´Ð¿Ð¸Ñģ Ð°Ð½
ĠÑĦÐ¾ÑĢ Ð¼Ð°
ĠÐ½Ð° ÑĨÐ¸ÑģÑĤ
ÑĩÐµ ÑģÐºÐ¾Ð¹
ÐµÐ² ÑģÐºÐ¾Ð³Ð¾
ĠÐķ Ð»ÑĮ
Ġ193 5
ĠÐ°ÑĢÐ¼ Ð¸ÐµÐ¹
ĠÐ½ÐµÐ± ÐµÑģ
ĠÐĺÐ² Ð°Ð½Ð°
ĠÐºÐ¾Ð½ÑģÑĤÐ¸ÑĤÑĥ ÑĨÐ¸Ð¸
ĠÐ¿Ð¾Ð±ÐµÑĢÐµÐ¶ ÑĮÑı
ĠÐĶÐ¶ÐµÐ¹Ð¼ Ñģ
Ð¾Ð³ Ð¾Ð²Ð¾ÑĢ
Ð¾Ðº Ð¸
ĠÐĴ Ð¸Ð½
Ð¸Ð· Ð¼Ðµ
ĠÐł Ð°
ĠÐĺ Ð¾ÑģÐ¸ÑĦ
Ðľ Ð¸Ð½
ĠÐ¥ Ð°ÑĢ
ĠÐ§ ÑĳÑĢ
ĠÐ²ÐµÐºÐ° Ñħ
ĠÑģÑĩÐ¸ÑĤ Ð°ÑİÑĤ
ÐŁÐµÑĢÐ² Ð¾Ðµ
ÑįÐ½ ÐµÑĢÐ³
ĠÑģÐ¾Ð¾Ð±Ñī ÐµÐ½Ð¸Ñı
ĠÐ¸ÑģÐºÐ»ÑİÑĩ ÐµÐ½Ð¸ÐµÐ¼
ĠÐ²ÑģÑĤÑĢÐµÑĩ Ð°ÑİÑĤÑģÑı
ĠÐºÐ¸Ð½Ð¾Ð°ÐºÑĤ ÑĳÑĢ
ĠÐľÐ¾Ð» Ð´Ð°Ð²
Ġ g
ĠÑĢÐµ Ð¼
Ð°ÑĤÐµÐ»ÑĮ Ð½Ð¾Ðµ
ĠÐ¿Ð¾Ðº Ð¸Ð½
196 2
Ð¼Ð¸Ð½Ð¸ÑģÑĤ ÑĢÐ°ÑĤÐ¸Ð²
ĠÐ²Ð· ÑĢÑĭÐ²
ĠÑĩÐµÑĤ Ð²ÐµÑĢ
ĠÐ¼ ÑĥÐ»ÑĮÑĤ
ĠÐ¼ Ð°ÑĢÑĤÐµ
ÐĲ Ðł
Ð·ÑĭÐ²Ð° ÑİÑĤ
ĠÐ³Ð»Ð°Ð² Ð½ÑĭÐ¹
Ð¼Ñĥ Ð·Ñĭ
ĠÐºÐ½Ð¸ Ð³Ð°
ĠÑģÐ¾Ð¿ ÑĢÐ¾ÑĤÐ¸Ð²
Ð¸ÑģÐ¿ ÑĭÑĤ
ĠÐĲÐºÐ°Ð´ÐµÐ¼ Ð¸Ð¸
Ð¸ Ð°Ð½Ð°
Ð· Ð¸Ñı
Ð¿ ÐµÐ²
ĠÐµ Ð³Ð¸Ð¿
ĠÐĳ ÑĢÑĥ
Ð¾Ð²Ð°Ð½ Ð¾
ĠÐ³Ð»Ð°Ð² Ñĭ
Ð°ÑĤÐµÐ»Ñı Ð¼Ð¸
ĠÐ¿ÑĢÐ¸ÑĢÐ¾Ð´ Ðµ
ÐĴ Ð¾Ð»
ĠÑģÑĤ Ð¾Ñı
ĠÐĵ Ð²
ĠÐ¢ Ð¾ÑĢ
Ðĳ Ð¾Ð»ÐµÐµ
Ð¸ÑĢÐ¾Ð² Ð°Ð»Ð¸
Ð¸Ð¾Ð½ ÐµÑĢ
ĠÐ²ÑģÐµ Ð¾Ð±Ñī
in e
ĠÑĥÐ¿ ÑĢÐ°Ð·Ð´
197 3
ĠÑģÑĩÐ¸ÑĤ Ð°ÑĤÑĮ
ĠÐ²Ð¾Ð¿ÑĢÐ¾Ñģ Ñĭ
ĠÑģ Ð¼ÐµÑĪ
ĠÐŁ Ð°Ð»
ÐµÐ½ÑĮ Ñİ
ĠÑĥÑĩ ÐµÐ½Ð¸Ðµ
ĠÐ£ Ð·Ð±ÐµÐº
ĠÑģÐ¾ÑģÑĤÐ°Ð² Ð¸Ð»Ð°
ĠÐ¡Ð² ÑıÑī
ĠÐĺÐ·ÑĢÐ° Ð¸Ð»Ñı
ĠÐºÐ¾ÑĢÐ¿ ÑĥÑģ
ĠÐºÐ°Ð½Ð°Ð´ ÑģÐºÐ¸Ð¹
Ðº ÑĨÐ¸Ñı
Ð¾Ð´ Ð¸Ð½Ð°Ð¼
ĠÐŁ Ð¾
ÑĥÑİ ÑīÐµÐµ
ĠÐ¸ÑģÐ¿ Ð¾Ð»Ð½Ñı
ĠÐ¾ÑģÐ½Ð¾Ð² Ð°Ð½Ð°
ĠÐ¿Ð» Ð¾Ð´
ĠÑģÐµÐ½ÑĤ ÑıÐ±ÑĢÐµ
Ġ193 4
ĠÐĲÐ± Ð´
ĠÐ¾ ÑĢÐ¸Ð³
ĠÐŀ Ð´Ðµ
199 5
Ð»ÐµÑĤ ÑĢÑıÑģ
ĠÐ¾ÑģÐ¾Ð± ÐµÐ½Ð½Ð¾ÑģÑĤÐ¸
ĠÑĢÐ¸ Ñģ
ĠÐ¸ ÑĢ
Ð½Ð¾ÑģÑĤ ÑıÐ¼Ð¸
ĠÐ¿ÐµÑĢÐ² Ð¾Ð¼
200 6
ĠÑģÐ¼ Ð¾Ð³
ĠÐºÑĢÐµ ÑģÑĤ
ĠÑĢÑĥÐºÐ¾Ð²Ð¾Ð´ Ð¸ÑĤÐµÐ»ÑĮ
ĠÐ¸Ð½ÑģÑĤÐ¸ÑĤÑĥÑĤ Ð°
ĠÑĢÐµÑĦÐ¾ÑĢÐ¼ Ñĭ
ÑĤ Ð¸Ð½Ð³
ÑĪ ÐµÐ³
ĠÐ± Ð»Ð°
ÐµÐ¼ Ð¾Ð½
Ð¾ÑģÑĤ Ð°Ð½
Ð¾Ðº ÑĥÐ¿
ÐµÑĢÐ° Ð¼
ĠÐ¤ ÑĢÐ°Ð½ÑĨÑĥÐ·
Ð¾Ð»Ð¾Ð³ Ð¸ÑĩÐµÑģÐºÐ¸Ð¹
Ð°Ð½ÑĤ Ðµ
Ð¾ÑģÐº Ð¾Ð»ÑĮÐºÑĥ
ĠÑĥÑģ Ð¸Ð»Ð¸
Ð°ÐµÐ¼ ÑĭÐµ
ĠÐ¶ÑĥÑĢ Ð½Ð°Ð»Ð°
ĠÐ¿Ð¾ÑģÑĤÑĢÐ¾ ÐµÐ½
ĠÐ¾ÐºÐ¾Ð½Ñĩ Ð°ÑĤÐµÐ»ÑĮÐ½Ð¾
ĠÐ¼ÐµÑģÑı ÑĨÐµÐ²
ĠÑįÐ¿Ð¾Ñħ Ñĥ
ĠÐ¿Ð°ÑģÑģÐ°Ð¶ Ð¸ÑĢÐ¾Ð²
Ð¾Ð² Ð¾Ð¼
ÑĨ Ðº
Ð¡ Ð»Ð¾Ð²
ĠÐ¾Ð± ÑģÑĥÐ¶Ð´
ÑĤÑĮ ÑģÑı
Ġ196 6
ĠÑĤÐ¾ÑĢ Ð¶Ðµ
ĠÑĤÑĭÑģÑıÑĩ Ð¸
Ð°Ð¼Ð± Ð»Ðµ
ĠÐ´ÐµÑģÑıÑĤ Ð¸Ð»ÐµÑĤ
ĠÑıÐ¿Ð¾Ð½ ÑģÐºÐ¸Ð¹
ÑģÑĤ Ð¸
ĠÑģ ÐºÐ°
ÑĩÐµ Ð³Ð¾
ĠÐĴ ÐµÐ½Ðµ
Ð»ÐµÐ½ Ð½ÑĭÐ¹
ÑĢÐ¾ ÑĦ
ĠÐ´Ðµ ÑıÑĤ
ÑĳÑĢ ÑĤ
20 14
Ġ196 9
ĠÑģÐ¼ÐµÑĢ ÑĤÑĮ
ÑİÑīÐ¸Ð¹ ÑģÑı
ĠÐ±Ð¾ÑĢÑĮ Ð±Ðµ
ÐŀÐº Ð¾Ð»Ð¾
Ð² Ð¾ÑģÑĤÐ¾Ñĩ
Ñĳ ÑģÑĤ
ÑĩÐµ ÑģÐºÐ¸Ðµ
ÑĢÐ¾Ð¼ ÑĭÑĪÐ»ÐµÐ½
ĠÐ±Ð¾Ð»ÑĮÑĪ Ð°Ñı
ĠC om
ĠÐ·Ð°Ñģ Ð»ÑĥÐ³Ð¸
ĠÑįÐºÐ¸Ð¿Ð°Ð¶ Ð°
ĠÐ¿ ÐµÑĩ
ĠÐ° Ð³ÐµÐ½ÑĤ
ĠÑĦ Ð¾Ð»ÑĮÐº
Ð°ÑĤÐµÐ»ÑĮ ÑģÑĤÐ²Ð°
ĠÐ¾ÑģÑĤ Ð°ÑĳÑĤÑģÑı
Ġ194 7
ĠÐĵÐµÑĢÐ¼ Ð°Ð½Ð¸Ñı
ĠÐĲÐ¼ÐµÑĢ Ð¸ÐºÐµ
ÑĤÐµÑĢÐ½ Ð°ÑĤÐ¸Ð²
ÐµÑĢ ÑģÑĤÐ²Ð°
ĠÑĦ Ð°Ð½ÑĤÐ°ÑģÑĤ
Ð¸Ð² Ð°Ð½Ð¸Ðµ
Ġ19 23
ĠÐŀ Ð½
ĠÑģÐ¿ Ð¸ÑģÐº
196 3
ĠÐ¼Ð¾Ð½ Ð°Ñħ
194 6
ĠÐ¿Ð¾Ñĩ ÑĤÐ¾Ð²
ĠÐºÐ¾Ð½Ñģ ÐµÑĢÐ²
ĠÐ¿ Ð¸Ð»Ð¾ÑĤ
Ð± ÑĢÐ°Ð½
ĠÐļ Ð°Ð»
ĠÐļ ÑĢÐ¸ÑģÑĤ
ĠÐŁ Ð»Ð°Ð½
ĠÐµ Ð´Ð¸
ĠÐ·Ð° Ð¸Ð¼
ÐºÑĥ Ð»Ñı
ĠÑĢÐ¾ÑģÑģÐ¸Ð¹ ÑģÐºÐ¸Ñħ
Ġ193 2
194 3
ĠÐ½Ð¸Ðº Ð¾Ð³Ð´Ð°
4 6
Ðº ÐµÑģÑĤ
ĠÐ² Ð°Ð³
ĠÐ¾Ð± ÑĥÑģÐ»Ð¾Ð²
ĠÑĢÐµ ÐºÐ¾ÑĢ
Ðľ Ð°ÑĢÑĤ
Ðľ Ð¾ÑģÐº
200 3
ĠÐ·Ð² ÑĳÐ·Ð´
ÐĶÑĢÑĥÐ³ Ð¸Ðµ
ĠÐļ ÐµÑĢ
ĠÑį ÑģÑĤ
ÑģÑģ Ð°
ĠÐ·Ð°Ðº ÑĢÑĭÑĤ
ĠÐ±ÑĥÐ´ ÑĥÑī
ĠÑĥÑĩÑĳ Ð½ÑĭÑħ
ĠÐ¿Ð°ÑĢÐ»Ð°Ð¼ÐµÐ½ÑĤ Ð°
ĠÐ±Ð°Ð· Ðµ
ĠÐ²Ð¾Ðº Ð·
ĠÐ±Ð¸Ð±Ð»Ð¸Ð¾ÑĤ ÐµÐºÐ°
ĠÐ±Ñİ Ð´Ð¶
Ð¿ ÐµÑĢÐ²ÑĭÐµ
ĠÐ¼ Ð¾
ĠÐ± ÑĥÐ¼
ĠÐĿ Ð°Ñĩ
Ð¢ Ð¾Ð¼
ĠÑĥÑĩ ÐµÐ½Ð¸Ñı
Ð¿Ð¸Ñģ Ð¾Ðº
Ð¾ÐºÑĢÐ°ÑĤ Ð½Ð¾
ĠÐ¡ÐµÐ²ÐµÑĢ Ð¾
ĠÐ¿Ð¸ÑģÑĮ Ð¼Ð¾
Ð³ Ñģ
ĠÐ¿Ð¾Ð» ÐºÐ¾Ð²Ð¾Ð´
ĠÐ¿Ð¾Ðº Ð¾Ð»
ĠÐ¸Ð·Ð²ÐµÑģÑĤ Ð½Ð¾
ĠÐ¾Ð±ÐµÑģÐ¿ÐµÑĩ ÐµÐ½Ð¸Ñı
Ð°ÑģÑĤÑĢÐ¾ ÑĦ
ÑĪÐµÐ³ Ð¾ÑģÑı
ĠÐ³ Ð¾Ð¼
ĠÐ± Ð°ÑģÐº
ÐĴ ÐµÐ»Ð¸Ðº
ĠÐĵ Ð°Ð»
ÑİÑī Ð¸Ð¼Ð¸
ÐºÐµ Ð¿ÑĤ
Ġ194 8
ĠÐ·Ð´ Ð¾ÑĢÐ¾Ð²
ĠÐ°Ð»ÑĮ Ð±Ð¾Ð¼
ĠÐ·Ð°Ð¿ÑĢÐµ ÑĤ
ĠÐŃÑģÑĤÐ¾Ð½ Ð¸Ð¸
ÐļÑĢÑĥÐ¿ Ð½ÐµÐ¹
ĠÐ± Ð¾ÑĢÑĤÑĥ
Ġ% ).
ĠÐ¸Ð·ÑĥÑĩ ÐµÐ½Ð¸Ñı
ĠÑĢÐ°ÑģÑĤ ÐµÐ½Ð¸Ð¹
ĠÐ¿ÑĢÐµÐ¿Ð¾Ð´ Ð°Ð²
ĠÐ¾Ð¿ÑĢÐµÐ´ÐµÐ»Ñı ÐµÑĤÑģÑı
Ð¾ÑģÑĤ Ð¾Ñı
ĠÐ¾ÑĤ ÐµÑĨ
ĠÐ¾ÑĤ ÑĨÐ°
Ð¸ÑĢÐ¾Ð² ÐºÐ¸
ĠÐ¾ÑģÐ½Ð¾Ð² Ð°Ð½Ð¸Ñı
ĠÐºÐ¾ÑĢ ÑĢÐµ
ĠÑģÑĥÐ´ Ð¾Ð²
Ð¸Ð·Ð¼ Ð¾Ð¼
ĠÐ¸Ð¼Ð¿ÐµÑĢÐ°ÑĤÐ¾ÑĢ Ð¾Ð¼
ĠÐ¿ÑıÑĤ Ð¸
ĠÑĤÑĢÐ¾Ð»Ð»ÐµÐ¹Ð± ÑĥÑģ
â ĪĴ
Ð¸ ÑģÐºÐ°
ĠÐº ÑĢÐ¸ÑģÑĤ
ĠÐ³ Ð¾
Ð¸Ðº Ð°Ð¼Ð¸
ĠÐ¡ ÑĥÐ´
ĠÐļ Ð»Ð¸
ĠÐ¸Ð· Ð³Ð½
19 20
Ðļ Ð»Ð°ÑģÑģ
Ðľ Ð¸Ñħ
ĠÐĲÑĢ Ð³ÐµÐ½ÑĤ
ĠÐ¿Ð¾Ð¼Ð¾Ñī ÑĮ
ĠÑģÐ¾Ñĩ ÐµÑĤ
ĠÐĴÐµÐ»Ð¸ ÐºÐ¸Ð¹
ĠÐŁÑĢÐ°Ð² Ð¸ÑĤÐµÐ»ÑĮ
ĠÐ² ÐµÑĢÑħÐ¾Ð²
ĠÐ´ Ð¸ÐºÑĤ
ĠÐ½Ð° Ð¸Ð±Ð¾Ð»ÑĮÑĪ
Ð§ ÐµÑĢÐµÐ·
197 5
Ġ195 6
ĠÐ±Ð¾Ð»ÑĮÑĪÐ¸Ð½ ÑģÑĤÐ²Ðµ
ĠÐºÐ¾ÑģÐ¼Ð¾Ð½Ð°Ð² ÑĤÐ¾Ð²
ĠÐµÐ¿Ð¸ÑģÐºÐ¾Ð¿ Ð°
Ð¡ÑĥÑīÐµÑģÑĤÐ² ÑĥÐµÑĤ
5 1
Ðº ÑĥÐ»ÑĮÑĤ
ÑĪ ÐµÐ´
ĠÐ¾ÑĤ ÑĢÑıÐ´
ĠÐ±Ñĭ ÑģÑĤ
ĠÐ±Ð¾Ð»ÑĮÑĪ Ð¸Ðµ
ĠÐ¿Ð°ÑĢ Ð¾Ð²
196 1
197 1
ĠÐ¿ÑĢÐ¸Ð½ÑıÑĤ Ð°
ĠÐ¿Ð¾Ð·Ð²Ð¾Ð» Ñı
ĠÑıÐ² Ð»ÐµÐ½Ð¸Ñı
ĠÐ²ÐµÑĢÑģ Ð¸Ñı
ĠÐ¢ÑĢÑĥ Ð´Ð°
ĠÐ¸Ð½Ð´Ð¸Ð² Ð¸Ð´Ñĥ
Ñĭ Ð´
ÐµÑĤ Ð¾Ð¼
ÑĢÑĥ ÐµÑĤ
ÐµÐ»ÑĮ Ñģ
ÑģÑĤÐ²ÐµÐ½ Ð½Ð¾ÑģÑĤÐ¸
ĠÐĺ ÑĢÐºÑĥÑĤ
Ð¾Ñĩ Ð½ÑĭÐ¹
ĠÐ¼Ð¾ÑĢ ÑģÐºÐ¾Ð¹
199 9
196 6
ĠÑĤÐ¾Ñĩ ÐºÐ°
ĠÐ¿ÑĢÐ¾ÑĨÐµÑģÑģ Ðµ
ĠÑģÐ¾Ð· ÑĭÐ²Ð°
ĠÐłÑĥÑģ ÑģÐºÐ¾Ð¹
ĠÑĦÐ¸Ð½ Ð°Ð½Ñģ
ĠÐ°Ð½Ð³ Ð»Ð¾
ĠÐ¿Ð¸Ð°Ð½ Ð¸ÑģÑĤ
a e
Ð° Ð·Ñĭ
ĠÐ¾ Ð´Ðµ
19 17
ÐµÐ»Ð¸ Ð¹
ÑĢÑı Ð´Ñĥ
ĠÐ¸Ð½ÑĤ ÐµÑĢÐ²
196 5
ĠÐĺÐ½ ÑģÑĤÐ¸ÑĤÑĥÑĤ
ĠÐŁÑĢÐµÐ·Ð¸Ð´Ð¸ ÑĥÐ¼Ð°
Ñģ Ð½Ð¾
ĠÑģ Ð½Ð¾Ð²Ð°
ÐµÐ¼ Ð¾ÑĢÐ¸
ĠÐ¡ Ð¾ÑĦ
ÐµÐ¹ ÑĤ
ÑĢÐ¾Ð² Ð¾Ð»ÑĮ
ÐĹ Ð°ÑĤ
al l
ĠÐŁÐµÑĤ ÑĢ
ĠÑĦÑĥÐ½Ðº ÑĨÐ¸Ð¾Ð½Ð°Ð»ÑĮ
ĠÐ°Ð» Ð³
ĠÐļÑĢÐ°Ñģ Ð½Ð¾Ð¹
ÐĵÐ¾ÑĢÐ¾Ð´ Ð°
ĠÑģ Ð¼ÐµÐ½
ĠÐ± Ð¾Ð¼Ð±
ĠÐ¾ÑĤ ÑģÑĤÑĥÐ¿
ĠÐ¶ ÐµÑģÑĤ
Ġ3 2
ĠÐ°Ð½ Ð°ÑĢÑħ
ĠÐ±Ð¾Ð»ÑĮÑĪ Ð¸Ð¼
ĠÐ¿Ð¾Ð· Ð¸ÑĨÐ¸Ð¸
198 2
Ð¾ÑģÑĤÐ¾Ðº Ð°
ĠÐºÐ² Ð°ÑĢÑĤ
ĠÐ´Ð¾Ð³ Ð¾Ð²Ð¾ÑĢÐ°
ĠÐ¿ÑĢÐ¾ÑĪ ÑĳÐ»
ĠÐĺÐ½Ð´ Ð¾Ð½ÐµÐ·
ĠÐ¢Ð¾Ð¼ Ð°Ñģ
ĠÐĲÑĤ Ð»Ð°Ð½ÑĤ
ĠÐ³Ð¸ÑĤ Ð°ÑĢÐ¸ÑģÑĤ
0 4
ĠÐ½Ð° ÑĢÑĥÑĪ
ÐµÐ² Ð¾Ð»Ñİ
Ġ19 27
Ð´Ð² Ð¸Ð³
ĠÑĦÐ¾ÑĤÐ¾Ð¼ Ð¾Ð´ÐµÐ»ÑĮ
Ðº ÐµÑĢ
Ð¾Ð¼ Ð¾Ð½
ĠÐ¿ÑĢÐ¾ ÑıÐ²Ð»Ñı
ĠÐĲÐ½ Ð½Ð°
ĠÐĲÐ½ Ð°ÑĤÐ¾Ð»
ĠÑģÐº Ð»Ð°Ð´
ÑĢÐ¸ Ð¼
ĠÐ¿ÑĢÐµ ÑĤ
ĠÐ¦ Ð·
ĠÐ¾ÑĤÐ½Ð¾ÑĪ ÐµÐ½Ð¸Ñİ
ĠÐ¦ÐµÐ½ÑĤÑĢÐ°Ð»ÑĮ Ð½Ð¾Ð¹
ĠÐ¤ÑĳÐ´ Ð¾ÑĢ
7 9
Ð° ÑĢÐµÐ²
ĠÐ½ Ð¾Ð¼Ð¸Ð½
ĠÐº Ð»ÐµÑĤ
ÑĢÐ¸ Ñĩ
ÑĢÐ¸ ÑĨÐ°
ĠÑĩ ÑĥÐ´
ĠÑĨ ÐµÐ¿
ĠÐ¿Ð¾Ðº ÑĢÑĭ
200 7
ĠÐ°Ð¿ÑĢÐµ Ð»Ðµ
ÑĢÐ¾Ð¹ ÐºÐ¸
195 6
ĠÑĢÐ¾ÑģÑĤ Ð°
Ð°Ñİ ÑīÐµÐµ
ĠÑģÑĦÐµÑĢ Ðµ
ĠÐºÐ²Ð°Ð½ÑĤ Ð¾Ð²Ð¾Ð¹
ĠÐĽÐ¾Ð½Ð´ Ð¾Ð½Ðµ
Ð½ ÑĳÐ¼
ĠÐŁ ÐµÑĢÑģ
ĠÑģÐ²Ð¾ ÐµÐ¼Ñĥ
Ġ194 9
Ð½ÑĥÑĤ ÑĮ
it y
ĠÐ¼ÐµÐ½ Ñı
ĠÑħÐ¸Ð¼ Ð¸Ð¸
ĠÐ³Ð»Ð° Ð·
ĠÐ¸ Ð´ÐµÐ¹
Ð¶ ÐµÐ¹
ĠÐ¾Ñģ Ð²Ð¾
ÐµÐ³ Ð¾Ð²
ĠÐºÐ¾Ð» Ð»ÐµÐº
ĠÐ¿Ð¾Ð¼ Ð¾Ð³
ĠÐ¿Ð¾Ð¿ ÑĥÐ»Ñı
197 7
ĠÐ¾ÑģÑĤÑĢÐ¾Ð² Ð°Ñħ
194 2
ĠÐ´Ð¾Ð¼ Ð¸Ð½
ĠÑģ Ð¸Ñħ
ÐµÐ¼ Ð°Ñı
ĠÐ²Ð¾ ÑĪÐ»Ð¸
ĠÑĢÐ°Ð·Ð²Ð¸ÑĤ Ð¸Ð¸
Ġ190 6
ĠÐĽÑİ Ð´Ð¾Ð²
ĠÐĽÐ°ÑĤÐ² Ð¸Ð¸
Ñı Ñĩ
ĠÐľ ÑĥÑĢ
ĠÐ±Ñĭ ÑĤ
ĠÑĢÐµ ÐºÐ¾Ð¼
ĠÐºÐ¾Ð½ ÐµÑĨ
ĠÐ® Ð³Ð¾ÑģÐ»Ð°Ð²
ĠÐ¸Ð½ÑĤ ÐµÐ½Ñģ
ĠÐºÐ¾Ð½ÑĤ Ð°ÐºÑĤ
ĠB e
ĠÐ³Ð°Ð· ÐµÑĤÑĭ
ĠÐºÑĢÐ° Ñı
ĠÐ¿ÑĢÐ¸Ð½Ð°Ð´Ð»ÐµÐ¶ Ð¸ÑĤ
ĠÐ³ Ð¾ÑģÐ¿Ð¾Ð´
ĠÐ¿ÑĢÐ¸ Ð¿Ð¸Ñģ
Ðļ Ð¸ÑĤÐ°Ð¹
ĠÑħ ÑĢÐ°
Ðĳ Ð¾Ð³
ĠÑĦÐ¾ÑĢ Ð¼Ð¸ÑĢÑĥ
ĠÐ¸Ð´ ÐµÐ½ÑĤ
ĠÐĴÐ°Ð» ÐµÐ½ÑĤ
ÑĮ Ð¼Ð¸
Ñħ Ð¾
Ð»ÑĮ Ð½ÑĭÑħ
ĠÐ± Ð»Ð¸Ð¶
Ð°Ð»ÑĮ Ð½Ð¾ÑģÑĤÐ¸
ÑĥÑĢ Ð¾Ð¹
ĠÐ·Ð° ÑģÑĤÐ°Ð²
ĠÐĺ ÑĢÐ°Ð½
Ð°ÑĢÐ° Ð±
ĠÐºÐ¾Ð½ÑĨ ÐµÑĢÑĤ
Ġ195 9
ĠÐ¸Ð´ ÑĳÑĤ
ÑģÑĤÐ¾ ÑıÑĤÐµÐ»ÑĮ
ĠÑģÐµÑĢÐµÐ´ Ð¸Ð½Ñĭ
Ġ k
ĠÑģ Ð½Ð°ÑĩÐ°Ð»Ð°
ĠÑĢÐµ Ð¿
Ðĺ Ð¼
ĠÐ¼ÐµÑĤ ÑĢÐ¾
an t
193 0
ĠÐ³Ð¾ÑĢ Ñĭ
Ð¯ Ð·Ñĭ
ĠÐ£ÐºÑĢÐ° Ð¸Ð½Ðµ
Ð½Ð°Ð»Ð¸ Ð·Ð°
ĠÐ²ÐµÐ»Ð¸ ÑĩÐ¸Ð½
ĠÐ²ÐµÐ» Ð¾ÑģÐ¸Ð¿ÐµÐ´
ĠÐ· Ð¾Ð½
ĠÐ¡ ÐµÑĢÐ±
ĠÐĵ Ð°Ð²
ĠÐ¥ Ð°ÑĢÑĮ
ĠÐ¸Ð¼Ð¿ ÐµÑĢ
ÐµÑĢÐ± ÑĥÑĢÐ³Ð°
195 0
ĠÐµÐ² ÑĢÐ¾
ĠÐ¾ÑģÐ² Ð¾Ð±Ð¾Ð´
ÐĴÐ»Ð°Ð´ Ð¸Ð¼Ð¸ÑĢ
Ð· ÐµÐ½
ĠÑĦ Ð°Ð¼Ð¸
ĠÐ»ÐµÑĤ Ð¾Ð¿Ð¸Ñģ
ĠÑģÑĤÑĢÐ°Ð½ Ð°Ð¼Ð¸
or d
ĠÐ»Ð¸Ð½ Ð¸Ñı
ĠÐ¾ÑģÐ°Ð´ ÐºÐ¾Ð²
ÐŃÐºÐ¾Ð½Ð¾Ð¼ Ð¸ÐºÐ°
ĠÐºÐ²Ð°Ð´ ÑĢÐ°ÑĤ
ĠÑģ ÐµÐºÑĤ
ĠÐŁ Ð°Ðº
ÐµÑĢÐ° Ñħ
ĠÐĽ Ð°Ð²
ĠÑģÐ¾ÑģÑĤÐ¾Ñı Ð»Ð°ÑģÑĮ
ĠÑģÑĤÐ¾Ð» ÐµÑĤ
ĠÑģÑĤÐ¾Ð» Ð¸ÑĨÑĭ
ĠÑĪÐ²ÐµÐ´ ÑģÐºÐ¸Ð¹
ĠÑįÐºÑģÐ¿ÐµÐ´ Ð¸ÑĨÐ¸Ð¸
e p
ÑģÐ¿ ÐµÑĢÐ°Ð½
ĠÐ½Ð¾Ð² Ð°Ñı
ĠÑĤÐµÑĢÑĢÐ¸ÑĤÐ¾ÑĢ Ð¸
200 1
ĠÐ²ÐµÐ»Ð¸ ÐºÐ¸Ð¹
ĠÐ²Ð¾ÑģÐ¿ÑĢÐ¸ Ð½Ð¸Ð¼
Ð¾ Ð¾Ð±ÑĢÐ°Ð·
Ð¿ Ð¾Ð³Ð¸Ð±
ÑĨ Ð¾Ð¼
Ð¾Ð½ ÑģÐºÐ¾Ð³Ð¾
Ð½Ð¾ ÑĪ
ĠÐĴ Ð°Ð²
ĠÑĢÐµ Ð°Ð»Ð¸Ð·Ð°ÑĨÐ¸Ð¸
ĠÐĳ Ð°Ð»
ĠÐ¿ÑĢÐµÐ´ÑģÑĤÐ°Ð² Ð»ÐµÐ½Ñĭ
ĠÑĢÐµÐ· ÐºÐ¾
ĠÐ·Ð°Ð½ ÑıÐ»
ĠÑģÐµÑĢ Ð²ÐµÑĢ
ĠÐ·ÐµÐ¼ Ð»Ðµ
ĠÐ¼Ð¾Ð½ ÐµÑĤ
ĠA ir
ĠÐºÐ½ÑıÐ¶Ðµ ÑģÑĤÐ²Ð°
ÐµÑģÑĤÐ¸Ð² Ð°Ð»ÑĮ
Ð¸Ð¼ Ðµ
Ñį ÑĦ
ÐĴ Ð°Ð¶
ĠÐ» Ð¾Ð´
ĠÐŁ Ð»ÑĥÑĤ
ÑĥÑĩ Ð¸
Ðĵ Ð¾ÑĢ
ĠÐ¾ÑģÐ½Ð¾Ð² Ð°Ð½Ð¸Ð¸
ĠÐŃ Ð»ÑĮ
ĠÐ¯ ÐºÐ¾Ð²
ĠÐ¸Ð¼Ðµ ÑİÑĤÑģÑı
Ð»ÐµÑĤ Ð¸Ñı
Ð»ÐµÑĤ Ð²Ð¾ÑĢ
ĠÐ½Ð°Ð¿ÑĢÐ°Ð² Ð»ÐµÐ½Ð¸Ð¸
ĠÑĢÐµÑģÐ¿ÑĥÐ±Ð»Ð¸ ÐºÐ°Ð½
ĠÐļÐ¾Ð» ÑĥÐ¼Ð±
ĠÑĩÐ¸ÑģÐ»ÐµÐ½ Ð½Ð¾ÑģÑĤÑĮ
ĠÐ¾Ð±Ð»Ð°Ð´Ð° ÐµÑĤ
Ð¾ Ð¾ÑĤ
Ð¾Ð² Ð°Ð»Ð°
ĠÐ¾ ÑħÑĢÐ°Ð½
ÑĦ Ð¸ÐºÑģ
ĠÐ· ÐµÑĢ
ĠÐ¾Ð± Ð¼ÐµÐ½
ĠÑĦ Ð°Ð±ÑĢÐ¸
ĠÐĲ ÑģÑģ
ĠÐ» Ð¾Ðº
ĠÐ» Ð°Ð±
ĠÑĢÐµ ÐºÐ¾Ð½ÑģÑĤÑĢÑĥ
ĠÑĤÐ°Ðº Ð¾Ðµ
Ð¸ÑĢÐ¾Ð² Ð°Ð½Ð°
ĠÑĤÐµÑĢÑĢÐ¸ÑĤÐ¾ÑĢ Ð¸Ð¹
197 8
ĠÐ²Ð¿ Ð°Ð´
198 1
ĠÐ¸Ð½ÑĦ ÑĢÐ°
Ð± Ð¾Ð²
Ð¾Ð½ Ð³
ĠÐ³ Ð»Ð°Ð³
ĠÑĤ ÑĢÐ°Ð²
ÑģÑĤÐ²ÐµÐ½ Ð½Ð¸Ðº
ĠÐ´Ð¾Ð¼ Ð°ÑĪ
ro s
ĠÐ¾ Ñī
ĠÐ¼ Ð°
ÑģÑĤÐ² ÑĥÑİÑĤ
Ð¾ÑĤ Ð°Ð½
Ð°Ðº Ð¾Ð²Ð°
Ð½Ð¾ÑģÑĤ ÑıÑħ
ĠÐ¿ÐµÑĢ ÐµÑĢÐ°
Ð°Ð´ Ð¸
ĠÑĢÐ°Ð· Ð½ÑĭÐµ
Ð¸ÑĢÑĥ ÑİÑĤÑģÑı
ĠÐºÑĥÐ»ÑĮÑĤ ÑĥÑĢÐµ
ĠÐ³Ð¾ÑĢ Ð¸Ð·
ĠÐ¼ÐµÐ¶Ð´ÑĥÐ½Ð°ÑĢÐ¾Ð´ Ð½Ð¾Ð³Ð¾
ĠÐ¿Ð°Ð¿ Ð°
ĠÐĵÐ¾ÑĢ Ð±Ð°Ñĩ
ĠÐŁÑĢÑĥÑģÑģ Ð¸Ð¸
Ð¸ ÑĨÐ¸Ñİ
ĠÑģ ÑĥÑī
ÑĢÐµ Ð¶
ÐµÐ¼ Ð¾Ðµ
ÑĩÐµ ÑģÑĤÐ²Ð°
ĠÑģÑĤ ÑĢÐ¾Ðº
ĠÐļ Ñĳ
Ð¾Ðº Ð¾Ð²
ĠÐ¨ Ð¾ÑĤ
ĠÐ¾Ð¿ÑĢÐµÐ´ ÐµÐ»ÐµÐ½Ð¸Ðµ
ĠÐ¿ÑĢÐ¸Ð¼ÐµÐ½ ÐµÐ½Ð¸Ñı
ĠÐ±ÑĭÐ² ÑĪÐµÐ³Ð¾
Ð¾ÑģÐ¿ ÐµÐºÑĤ
ĠÐºÐ¾Ð½ÑĦÐµÑĢ ÐµÐ½ÑĨÐ¸Ð¸
ÑģÑĤ Ð°Ð½Ð¸Ðµ
ĠÐ³ ÑĢÑĥ
ĠÐ³ Ð²Ð°ÑĢÐ´
Ð¾ÑĤ Ð¾
Ð¸Ð¼ ÑĭÑħ
ĠÐ¾Ð± Ðµ
Ð¸ÑĩÐµ Ð³Ð¾
ĠÑĢÐ°Ð· ÑĥÐ¼
ĠÑģÐ¿ Ð¸ÑĢ
ĠÐ¾ÑĢÐ³Ð°Ð½ Ñĭ
ĠÑĩÐµÐ»Ð¾Ð²ÐµÐº Ð¾Ð¼
ĠÑģÐ²Ð¾Ð¹ ÑģÑĤÐ²
ĠÐ¾ÑģÑĥÑīÐµÑģÑĤÐ² Ð»ÑıÐµÑĤÑģÑı
ĠÐ¿ÑĢÑıÐ¼ Ð¾
ĠÐ¿ÑĢÐµÐ´ÑĥÑģ Ð¼Ð°ÑĤÑĢÐ¸
Â ³
Ð¾Ð² Ð»ÐµÑĤÐ²Ð¾ÑĢ
ÐµÐ² ÑĭÑħ
ÐµÐ² ÑĢÐ¾Ð¿ÐµÐ¹
Ġ19 11
ĠÐ¢ Ð¸ÑĤ
ĠÐ°ÑĢ Ð¼Ð¸Ñİ
20 16
20 13
ĠÑĤÐµÐ»Ðµ Ð²Ð¸Ð·
ĠÑģÑĤÐ°Ð½ ÑĨÐ¸Ñı
ĠÐ¿ÑĢÐ¸Ð· ÑĳÑĢ
ĠÐ¿ÑĢÐµÐ´ÑģÑĤÐ°Ð²Ð»Ñı ÑİÑĤ
ĠÐĲÑĦÑĢÐ¸ ÐºÐµ
ĠÐ²Ð¾Ð·ÑĢÐ°ÑģÑĤ Ðµ
ec t
ĠÐ»Ð¸ÑĤ Ð¾Ð²ÑģÐºÐ¸Ð¹
ĠÐ¾ÑĢÑĥÐ¶ Ð¸Ñı
ĠÐ²Ð¾ÑģÐº ÑĢÐµÑģ
ÐļÐ¾Ð½Ñģ ÑĥÐ»Ñĭ
Ð¡ Ðº
ÐºÐ° Ð·Ð°
ĠÐĿ Ð°ÑĢ
ĠÐ§ ÐµÑĩ
ĠÐ°Ð» Ð³Ð¾ÑĢÐ¸ÑĤ
ĠÑģÐ¿Ðµ ÑĨÐ¸
ĠÐ¼Ð°ÑĤÐµÐ¼Ð°ÑĤ Ð¸ÐºÐ¸
ĠÑģÐ¸Ð¼ Ð¼ÐµÑĤ
ĠÐ¼ÐµÑĤÐ¾Ð´ Ð¾Ð²
ĠÐºÐ°Ð¼ Ð¿
ĠÐ²Ð»Ð¸Ñı Ð½Ð¸ÐµÐ¼
Ð»ÑĮ Ñı
Ð½Ð¾ ÑĪÐµÐ½Ð¸Ðµ
Ðļ ÐĲ
ĠÐĳ Ð°Ð½
ĠX I
ar t
ĠÐ½Ð¾Ñı Ð±ÑĢÐµ
ĠÐ´Ð²Ð¾ÑĢ ÑıÐ½
Ð¾Ð½ Ñĩ
ĠÐ± ÐµÐ³
ĠÐ» Ð¸ÑĤÐ¾Ð²
ĠÐĽ Ð¸ÑĤÐ¾Ð²
ĠÐ¦ Ð¸ÑĨÐµÑĢ
ÑĥÑī Ð¸Ðµ
ÑıÑī ÐµÐ¹
ĠÑģÑĥÐ´ ÑĮ
ĠÑĢÐ°Ð·ÑĢÐ°Ð±Ð¾ÑĤ ÐºÐ¸
ĠÐ²Ð½ÐµÑĪ Ð½ÐµÐ¹
ĠÐ¤ÑĳÐ´ Ð¾ÑĢÐ¾Ð²
ĠÐŀÐºÑĤ Ð°Ð²
ĠÐ¸Ð» Ð»Ñİ
Ð¸ÑĤ Ðµ
Ð»Ð° Ñģ
ÐŁ Ð¾ÑģÐºÐ¾Ð»ÑĮÐºÑĥ
ĠÐŁ Ð°Ð½
ÑıÑĤ ÐµÐ¶
ĠÐ²Ñĭ ÑĪÐ»Ð°
ÑĢÐ°Ð· Ð¸Ð»ÑĮ
ĠÐ¸Ð½ Ð²ÐµÑģÑĤ
ĠÑĢÐ¾ÑģÑģÐ¸Ð¹ ÑģÐºÐ¾Ð¹
ĠÐºÐ° ÑĦ
ĠÐ¿ÑĢÐ¾Ð³ÑĢÐ°Ð¼ Ð¼Ð°
ĠÐĽÐµÐ½Ð¸Ð½ Ð³ÑĢÐ°Ð´
ĠÐķÐ²Ð³ ÐµÐ½Ð¸Ð¹
u p
Ñĭ Ð¶
ÐŁ ÑĢÐµÐ¼
ĠÐ¿ÑĢÐ¸ Ð·Ð²
ĠÐ¿Ð¾Ð´ Ð²ÐµÑĢ
ĠÑģÐ¾Ð¾ÑĤÐ²ÐµÑĤÑģÑĤÐ² ÑĥÐµÑĤ
= "
ĠÐ² ÑĥÐ»
Ñħ Ð¾Ð¶Ð´ÐµÐ½Ð¸Ðµ
ÑĢÐ¸ ÐºÐ°
ÐŁ Ð°ÑĢ
ĠÐĴ Ð°Ð½
ĠÐĳ ÑĥÑĢ
ĠÐĺ Ð¸Ñģ
ĠÐ´Ðµ ÑģÑı
ĠÐ·Ð°Ðº ÑĢÑĭ
ĠÑĤÐµÐ¾ÑĢ Ð¸Ñİ
ĠÐ´ÑĢÐµÐ² Ð½Ð¸Ñħ
ĠÐ½Ð°ÑĨÐ¸Ð¾Ð½Ð°Ð»ÑĮ Ð½ÑĭÐ¹
ĠÐ¿Ð¾Ð´Ð¿Ð¸Ñģ Ð°Ð»Ð¸
ĠÑĪÐ°Ñħ Ð¼Ð°ÑĤ
ĠÑģÐ½Ð¸ Ð¶
ĠÐ¶ÐµÑĢÑĤ Ð²
0 5
Ñĩ Ð¸Ð½Ñĭ
Ð± Ð°ÑĤ
ĠÐĳ Ð¾Ñģ
ĠÐĿ Ð¸
ĠÑģÐ¿ ÑĥÑģÑĤÑı
ĠÐ½Ð°Ñĩ Ð°Ð»Ð¸ÑģÑĮ
198 5
as s
ĠÐ¿Ð¾Ð»ÑĮÐ· Ñĥ
ÑĢÐ°Ð²Ð¾ Ð¾ÑħÑĢÐ°Ð½
ÑĢÐ° Ð»Ð¸
Ñĩ ÑĳÑĢ
ĠÐ° Ð½Ð°Ð»Ð¸Ð·Ð°
ĠÑĥ Ð»ÑĮ
Ð¾Ð± Ð½Ð¾Ð²
ĠÑĦ Ð°Ð·
ĠÑį Ð²
ĠÐŁ Ð¾Ð»Ð¸ÑĤ
ĠÐĳ ÑĢÐ¾Ð´
ĠÐ²Ð¾Ð¹ Ð½
ĠÐ´ÑĢÑĥÐ³ Ð¾Ð¼
ĠÐ¡ÑĤ ÐµÐ¿
ĠÐ´Ð¸ ÑĦ
199 7
199 8
ĠÐºÐ¾ÑģÐ¼ Ð¾Ñģ
ĠÐ¿Ð¾Ð´Ð´ÐµÑĢÐ¶ ÐºÑĥ
Ð¸Ð»Ð¸Ñī Ð°
Ð½ Ð¾Ð¶Ðµ
ĠÐ± Ð¾ÑĢ
ÐŁ Ð¾Ð¿
ÐŁ ÑĢÐ¾ÑĤ
ĠÐļ Ð°Ð»Ð¸
ÑģÑĤÐ²ÐµÐ½ Ð½ÑĭÐ¼Ð¸
ÐĶ Ð¾Ð¼
ĠÑģÐ¾Ð·Ð´ Ð°Ð»
ĠÑįÐºÐ¾Ð½Ð¾Ð¼ Ð¸ÑĩÐµÑģÐºÐ¾Ð³Ð¾
ĠÐ³ÑĢÐ°Ð¶Ð´Ð°Ð½ ÑģÐºÐ¾Ð¹
ĠÐ·Ð´ Ð°Ð½Ð¸Ð¹
ĠÑģÐ²ÑıÑĤ Ð¾Ð³Ð¾
ĠÐ¼ÑĥÐ· ÐµÑı
ĠÑģÑĤÑĢÑĥÐºÑĤ ÑĥÑĢÑĭ
ĠÐĵÑĢÑĥÐ· Ð¸Ð¸
Ġ á¼
Ð» Ð¾Ð¹
ĠÑģ ÑĢÐ°Ð¶
ĠÐº Ð¸ÑĢ
ĠÐ½Ð° ÑĪÐµÐ¹
ĠÐ¿ÑĢ Ð¾ÑģÐ¿ÐµÐºÑĤ
ĠÐ¸Ð· ÑĢÐ°Ð¸Ð»ÑĮ
ĠÐ¿Ð¾Ð» ÐµÐ·
Ð½Ð¾Ð² Ð¸Ð´
ĠÐ·Ð°Ðº Ð¾Ð½Ñĭ
ĠÐļÐ¾ÑĢ Ð¾Ð»ÑĮ
ĠÐ½Ð°Ð¿ÑĢÐ°Ð² Ð»ÐµÐ½
Ð¿Ð¾Ñģ Ð»ÐµÐ´ÑģÑĤÐ²Ð¸Ð¸
ĠÑģÐ¾ÑĩÐ¸Ð½ ÐµÐ½Ð¸Ð¹
ĠÐ¾ÑĤÐ² ÐµÑĩ
ÑģÐµÐ² Ð´
ÐļÐ»Ð¸ Ð¼Ð°ÑĤ
Î º
ĠÑĦÑĢÐ°Ð½ÑĨÑĥÐ· ÑģÐºÐ¾Ð³Ð¾
ĠP r
ĠÐ·Ð² ÑĥÐºÐ¾Ð²
ĠÑĤÐµÐ¿ ÐµÑĢÑĮ
ĠÐºÐ¸ÑĤÐ°Ð¹ ÑģÐºÐ¸Ð¹
ĠÑģÐ¾Ð²Ð¼ÐµÑģÑĤ Ð½Ð¾
ĠÐ¡ÐĿ Ðĵ
ĠÐŃÐ´Ñĥ Ð°ÑĢÐ´
ĠÐºÐ»Ñİ ÑĩÐµÐ²
Ð° Ñĥ
ĠÑħ Ð¾ÑĤ
ĠÐ¢ ÐµÑĢ
ĠÐŃ Ð¿
Ð¿ÑĢÐµ Ð·Ð¸Ð´ÐµÐ½ÑĤ
ĠÑģÐµÑĢ Ðµ
ĠÐµÐ´Ð¸Ð½ Ð¸ÑĨÑĭ
ĠÑģÐµÐ²ÐµÑĢ Ð½Ð¾Ð¹
ĠÐļÑĢÐ°Ñģ Ð½Ð¾ÑıÑĢ
ĠÐ¼Ð¾Ð¼ ÐµÐ½ÑĤÐ°
ĠÐ·Ð°Ñī Ð¸Ñī
ĠÐºÑĢÐµÐ¿ Ð¾ÑģÑĤÑĮ
ĠÐĳÐµÐ»Ð¾ÑĢÑĥÑģÑģ Ð¸Ð¸
Ð³ ÑĢÐ°Ð½
Ð°ÑĢ Ð½ÑĭÐµ
ÐµÐ½ÑĤ Ð¾Ð¼
ĠÐĵ Ð°Ð¹
ĠÐĳ ÐµÑĢÐ½
Ð»Ð¾ ÑĢÐ°
ĠÑģÐ¾Ð² Ð¿Ð°Ð´
ĠÐ¿ÑĢÐ°Ð² Ð¸Ð»ÑĮ
ĠÑĥÑģÑĤ Ð°Ð½Ð°Ð²Ð»Ð¸
ÐŃÑĤ Ð¸Ð¼
ig n
ĠÑĥÑģÑĤÑĢÐ¾Ð¹ ÑģÑĤÐ²Ð°
ĠÐºÐ°Ð½Ð´Ð¸Ð´ Ð°ÑĤ
Ð¸Ð²ÑĪÐ¸Ñħ ÑģÑı
ĠÐ¾ÑĢÐ¸Ð³ Ð¸Ð½
Ð½ Ð¾Ð¿
ĠÐ² Ð¾ÑģÑĮ
ĠÐ² Ð¾ÑģÑĤÐ¾ÐºÐµ
Ð³ Ð¾ÑģÑı
ÐµÐ¹ ÑģÐºÐ¸Ð¹
Ġ19 13
Ðŀ ÐºÑĤ
ĠÐ¸Ð·Ð²ÐµÑģÑĤ Ð½ÑĭÐµ
ĠÑģÑĩÐ¸ÑĤ Ð°ÐµÑĤ
ĠÐ¸Ð·Ð¾Ð± ÑĢÐ°Ð¶ÐµÐ½Ð¸Ñı
il l
ĠÑĦÑĢÐ¾Ð½ ÑĤ
ĠÐ°ÑģÑģ Ð¾ÑĨÐ¸
ĠÐ½Ð°Ð»Ð¸Ñĩ Ð¸Ðµ
Ñĥ Ð³Ð°
ĠÐ¸ Ð¼Ð¸
Ñİ Ð¹
Ð°ÑĢ Ð¼
ĠÑĦ Ð¸Ð»Ð¸
Ġ19 12
ĠÑģÐ»Ð¾Ð² Ð°Ð¼
ĠÐºÑĥÐ»ÑĮÑĤ ÑĥÑĢÐ°
Ð¯ Ð½
ĠÐ¡ÐµÐ²ÐµÑĢ Ð½Ð¾Ð³Ð¾
ĠÑģÐ¾Ñģ ÑĢÐµÐ´
ĠÐ¿Ð¾Ð´Ð³Ð¾ÑĤÐ¾Ð² ÐºÐ¸
ĠÑģÐ²ÑıÑīÐµÐ½Ð½Ð¾Ð¼ÑĥÑĩÐµÐ½Ð¸ ÐºÐ°
ÑĩÐµÐ»Ð¾Ð² ÐµÐº
Ð¸Ð² ÑĪÐµÐ¹
ĠÑĢÐµÑģÐ¿ÑĥÐ±Ð»Ð¸ ÐºÐ°
ĠÑģÑĭ Ð³ÑĢÐ°
ĠÐ¿Ð¾ÑĤÐµÑĢ Ð¿
ĠÐķÐºÐ°ÑĤÐµÑĢ Ð¸Ð½
ĠÐ±Ð°ÑģÐº ÐµÑĤ
ĠÑĤ ÑĢÐ¾Ð¿
Ð¸Ð» Ð»Ð°
ĠÐĳ Ð¸ÑĢ
ĠÐĺ ÑĢÐ°
ĠÐ²Ð¾Ð´ Ð°
ĠÑģÐ¾Ð¾Ð±Ñī ÐµÐ½Ð¸Ðµ
ĠÐŀÑģ Ð¼Ð°Ð½
ĠÑģÑĥÑīÐµ ÑģÑĤÐ²ÐµÐ½Ð½Ð¾
ĠÑģÐ°Ð¼Ð¾ ÑĥÐ¿ÑĢÐ°Ð²
ÐŀÐ±Ñī Ð°Ñı
Ð¸ÑģÑĤ Ð¾ÑĢ
Ð¼Ð¸ ÑĢÐ°
ĠÐ·Ð°Ðº Ð¾Ð½Ð¾Ð²
or k
ĠÐ¸Ð·Ð²ÐµÑģÑĤ ÐµÐ½
198 7
195 8
ÐµÑĢÐµÐ´ ÐºÐ¾
ĠÐ½ÐµÐ¾Ð±ÑħÐ¾Ð´Ð¸Ð¼ Ð¾ÑģÑĤÐ¸
ĠÐ¼Ð°ÑĪ Ð¸Ð½Ñĭ
ĠÐ·Ð½ Ð°Ð½Ð¸Ñı
ĠÐ¼ÑĥÐ·ÑĭÐºÐ°Ð»ÑĮ Ð½ÑĭÐ¹
ĠÐŁÐ»Ð°ÑĤ Ð¾Ð½Ð°
ĠÑģÐµÑĢÐµ Ð±ÑĢÑı
ĠÐ½ Ð¸ÑĩÐµÐ³Ð¾
Ð¾ÑĤ Ð¸Ð¿
ÐµÐ» Ð»Ð¸
Ð½Ð¾Ð² ÐµÑģ
ÑĤÐ° Ð¹
ĠÐłÐ¸Ð¼ Ðµ
ĠÐ½Ð°ÑģÑĤÐ¾Ñı Ñī
ĠÑĩÐµÑĤ Ð²ÑĳÑĢÑĤ
ĠÐ·Ð°Ð±Ð¾Ð» ÐµÐ²
Ġ h
ÑĤ ÐµÑħÐ½
ĠÐ´ ÐµÐ»ÐµÐ½Ð¸Ðµ
ĠÐ³ Ð°Ð»
ĠÐ¸Ð· Ð»Ð¾Ð¶
ĠÐł Ð°Ð·
Ð³Ð¾ ÑĢÐ°
ÐµÑĨ ÐºÐ¸Ð¹
ĠÑıÐ²Ð»Ñı Ð»ÑģÑı
ÐµÐ»Ñı Ñħ
195 7
Ġ190 8
ĠÐ¿ÑĢÐ¾Ð¼ÑĭÑĪÐ»ÐµÐ½ Ð½Ð¾ÑģÑĤÑĮ
ĠÐłÐ¸Ð¼ Ð°
Ð¡Ð¿ Ð¾ÑĢÑĤ
ĠÐ·Ð°ÑīÐ¸ÑĤ Ñĭ
ĠÐ½ÐµÑĥÐ´ Ð°Ñĩ
0 1
b er
Ð± Ð¾Ð½
Ð°Ð»Ð¸ Ð¹
Ð¤ Ð¾ÑĢÐ¼
ĠÑĥÐ´ Ð°Ð»
ĠÐ¾ÑĤÐ´ ÑĭÑħ
ĠÑģÐ¿Ðµ ÑĨÐ¸ÑĦ
ĠÐ¼Ð¾Ð½Ð°ÑģÑĤÑĭ ÑĢÑı
ĠÐ´Ð¸ÑĢÐµ ÐºÑĤÐ¾ÑĢ
Ð² Ð¾Ð½
Ð¾Ð² ÑĥÑİ
ÑĢÐ¸ ÑĤÐ°
Ð»Ðµ Ñģ
ÑĢÑĥ ÑĪÐµÐ½Ð¸Ðµ
Ð¡ Ð¸Ð±Ð¸ÑĢ
Ð¡ Ð¿Ð¸ÑģÐ¾Ðº
ĠÐ¡ ÐµÑĢ
ĠÑĩ ÑĳÑĤ
ÐŁ Ð¾Ð·
19 19
ĠÐ¢ Ð°Ð½
Ġ4 00
ĠÑģÑĢÐµÐ´ Ðµ
ĠÐ¾Ð±ÑīÐµ ÑģÑĤÐ²ÐµÐ½Ð½Ð¾Ð³Ð¾
ĠÐ¶ÐµÐ½Ñī Ð¸Ð½Ñĭ
ĠÐµÐ²ÑĢÐ¾Ð¿ÐµÐ¹ ÑģÐºÐ¸Ñħ
ĠÑģÑĥ Ð²ÐµÑĢ
ÑģÑı ÑĩÐµ
ÑĩÐµ ÑģÐºÐ¾Ð³Ð¾
Ñį Ð»
ĠÐ¾Ð± Ñĭ
ĠÐ¿ÑĢÐ¸ Ð³Ð»Ð°
ĠÑħ ÑĢÐµÐ±
ĠÐ¤ Ðµ
Ð°Ð½Ð´ Ð¸Ð½
Ð°Ð»Ð° Ñħ
Ð·Ð° Ð¿
ĠÐĹ Ð°Ðº
ĠÑģÐ¾Ð± Ð¾ÑĢÐ°
Ð¸ÑģÑģ Ð»ÐµÐ´Ð¾Ð²Ð°ÑĤÐµÐ»ÑĮ
ÐºÑĢÐ° Ñģ
ĠÑĥÑģÑĤ Ð¾Ð¹ÑĩÐ¸Ð²
194 7
ĠÑįÐºÐ¾Ð½Ð¾Ð¼ Ð¸ÑĩÐµÑģÐºÐ¾Ð¹
ĠÑĢÐ°Ð² ÐµÐ½
Ð°Ñİ ÑīÐµÐ³Ð¾
Ð¾Ð² Ð°Ð»Ð¾
ĠÑĥ ÑĢÐ¾Ð¶
ÐĴ Ð½ÐµÑĪ
ÑģÐ¿ Ð¾ÑģÐ¾Ð±
ĠÐ¾Ñģ ÑĥÐ¶Ð´
ÐĹ Ð°Ð¿
Ð¿Ð¾Ð» Ð½
ÑıÑī Ð°Ñı
198 6
ĠÐ¿Ð¾Ñĩ ÑĳÑĤ
ĠÐ²ÑĭÐ¿ ÑĥÑģÑĤ
ĠÑģÐ¾Ð´ÐµÑĢÐ¶ Ð°Ð½Ð¸Ðµ
ĠÐ¼ÐµÑĢ Ð¾Ð¿ÑĢÐ¸
ĠÑģ ÐºÐµÐ¿ÑĤ
Ð¿ Ð°ÑĤ
ÐµÐ´ ÑĮ
ĠÐĶ Ð°Ð»ÑĮ
ÐŃ Ð»ÐµÐºÑĤ
ĠÑģÑĤÐ¾Ð» Ð¸ÑĨÐµÐ¹
ĠÐºÐ°Ð¶Ð´ Ð¾Ð¹
ĠÑģÐ»ÐµÐ´ÑĥÑİÑī Ð¸Ð¹
Ð¾Ð»Ñĭ Ð¿
ÑĢÐ¸ÑĦ Ð¼ÐµÑĤ
ĠÑģ Ð°Ð½
ĠÐ½Ð° Ð¸Ð¼ÐµÐ½
Ġ19 10
ĠÐ²Ñģ Ð»ÐµÐ´ÑģÑĤÐ²Ð¸Ðµ
ĠÐ²ÑĢÐµÐ¼ ÐµÐ½Ð°
ĠÑĢÐ¾Ð´ Ð¸Ð»ÑģÑı
ĠÐ¿Ð¾ÑıÐ² Ð¸Ð»ÑģÑı
ĠÐ¿ÑĢÐµÐ² ÑĢÐ°ÑĤ
ĠÐ¾Ð±Ð¾Ð·Ð½Ð°Ñĩ ÐµÐ½Ð¸Ñı
Ð¸ÑĦÐ¸ÐºÐ° ÑĨÐ¸Ñı
ĠÑĤÐ¸ÑĤ ÑĥÐ»
ĠÐ¼Ð½Ð¾Ð³Ð¾ÑĩÐ¸ÑģÐ»ÐµÐ½ Ð½ÑĭÐµ
Ð¼ Ð¾Ð¼
Ð°ÑĢ Ð½ÑĭÐ¹
ÐµÐ»ÑĮ Ð·Ñı
ĠÐĳ ÑĥÐ´
ĠÐ¾Ð´ Ð¾Ð±
ÑģÐºÐ° Ð·ÑĭÐ²
ĠÑĥÑģ Ð»ÑĥÐ³
ĠÐ¿ÐµÑĢÐµÐ² Ð¾ÑĢÐ¾ÑĤ
ĠÑįÐ»ÐµÐºÑĤ ÑĢÐ¾Ð¼
ĠÑĦÐ¸Ð· Ð¸ÐºÐµ
ĠÐ¿ÑĢÐ¾Ð¼ ÐµÐ¶
ĠÑĥÐ³ ÑĢÐ¾Ð·
ĠÐ¾Ð±ÑĬÐµÐºÑĤ Ñĭ
ĠÐĴÐ¾ÑĢÐ¾Ð½ ÐµÐ¶
u g
ĠÐ¼ Ð¾ÑĢÐ°
ÐµÐ¹ ÑģÐºÐ¾Ð³Ð¾
ĠÑģÐ² ÐµÐ´ÐµÐ½Ð¸Ñı
ĠÐºÐ¾Ð¼ Ð¼ÑĥÐ½
ĠÐĲÐ½ Ð³
ĠÐ¿ÑĢÐ¾ÑĨÐµÑģÑģ Ð¾Ð²
ĠÑĪÑĤ ÑĥÑĢ
ĠÐ´Ð¶ Ð°Ð·
Ð¾ÑģÐ¼Ð¾Ð½Ð°Ð² ÑĤ
Ð¸Ð½Ð¾ÑģÑĤ ÑĢÐ¾
Î »
Ð½ Ð¾ÐºÐ¾Ð¼
ĠÐ¿ Ð°Ðº
ÐµÐ½ Ð½Ð¾ÑģÑĤÑĮ
ĠÐ½ ÑĥÐ¶Ð´
ÑĢÐµ Ð»Ð¸
ĠÐ´ Ð¾Ð¶Ð´
Ð»Ð° Ð¼Ð¸
19 25
ĠÑģÐ¾Ð² Ð¾ÐºÑĥÐ¿
ĠÐ¾ÑģÐ½Ð¾Ð² Ð°ÑĤÐµÐ»ÐµÐ¹
ĠÐ½Ð¾Ð² ÑĭÐ¼
ĠÐ·ÐµÐ¼ Ð»ÐµÑĤÑĢÑıÑģ
Ġ190 7
ĠÐ»ÐµÑģ Ð°
ĠÐ¿Ð¾Ð³Ð¸Ð± Ð»Ð¾
ĠÐ´ÐµÑĢÐµÐ² ÑıÐ½
ĠÑįÑĤÐ° Ð¿
ĠÐ¿Ð¾Ð»Ñı ÑĢ
ĠÐ½ÑĭÐ½Ðµ ÑĪ
ĠÐ½ Ð¾Ñĩ
ÑĩÐµ ÑģÑĤÐ²Ð¾
ĠÐ¾Ð± Ð¾Ð±Ñī
Ðŀ ÑģÐºÐ°ÑĢ
ĠÐŃ Ð¼Ð¸
ĠÐ® Ð¿Ð¸ÑĤ
ĠÐ°Ð½Ð³Ð»Ð¸Ð¹ ÑģÐºÐ°Ñı
ĠÐ¾ÑĤÐºÑĢÑĭÑĤ Ð¸Ñı
ĠÑĥÐ»Ð¸ ÑĨÐµ
ĠÐĿÐĲ Ð¢Ðŀ
Ð» ÑĥÑĪ
Ñı ÑĩÐµÑģ
ÑĦ Ð°Ð½ÑĤÐ°ÑģÑĤ
ĠÐ¤ ÐµÐ´
ĠÐ¸Ñİ Ð½Ðµ
ĠÐ¿ÑĢÐµÐ´ÑģÑĤÐ°Ð² Ð»ÐµÐ½
ĠÑĦÐµÐ²ÑĢÐ° Ð»Ðµ
ĠÐ¿ÑĢÐ¾Ð¸Ð·Ð¾ÑĪ ÑĳÐ»
ĠÐ°Ð´Ð¼Ð¸Ð½Ð¸ÑģÑĤ ÑĢÐ°ÑĨÐ¸Ð¸
ÐĲÑĢ Ñħ
ĠÑĦÐ¾ÑĢÐ¼Ð¸ÑĢÐ¾Ð² Ð°Ð½Ð¸Ñı
ĠÐĹÐµÐ»Ð°Ð½Ð´ Ð¸Ð¸
ÐĺÐ¼ÐµÐ½ Ð½Ð¾
l es
ĠÑį Ð¼Ð¾
19 21
ĠÑĢÐ°Ð· Ð´ÐµÐ»Ñı
ÑİÑī ÑĥÑİ
Ð¾Ð»Ð¾Ð³ Ð¸ÑĩÐµÑģÐºÐ¾Ð³Ð¾
ĠÐ´Ð² Ð¾Ð¹
ĠÐ½ÐµÐ¼ Ñĥ
194 9
ĠÐ±ÑĢÐ¸ÑĤÐ°Ð½ ÑģÐºÐ°Ñı
Ð±Ð¸ ÑīÐµ
ĠÑĪÐµÑģÑĤ ÑĮ
ĠÐĺÐ¾Ð³ Ð°Ð½Ð½
ĠÐ²ÑģÑĤ ÑĢÐµÑĤ
ĠÐ¼Ð»ÐµÐºÐ¾Ð¿Ð¸ÑĤ Ð°ÑİÑīÐ¸Ñħ
ÑĮ ÑĳÐ²
Ñĩ Ð°Ð½
ĠÐ½Ð° ÑĢÑıÐ´Ñĥ
Ð°Ðº Ð¸Ð¸
Ð¸Ð¼ Ð¾Ð¹
Ð¾Ð± Ð°
Ġ19 16
ÑĢÐ°Ð½ Ñģ
ĠÐĵ ÑĢÐ¾Ð·
ĠÐ°ÑĢ Ð³
ĠÐ¾ÑģÐ½Ð¾Ð² Ð½ÑĭÐ¼
ĠÐ¿Ð°Ð¼ÑıÑĤ Ð½ÑĭÐµ
ĠÐ·Ð°Ð¿Ð°Ð´ Ðµ
ÐŁÑĢÐ¾ Ð¸Ð·
ĠÐ´Ð¾ÑģÑĤÐ¸ Ð¶ÐµÐ½Ð¸Ñı
ĠÐ´ÐµÐ¼Ð¾Ð½ ÑģÑĤÑĢÐ°
ĠÐ´ Ð¸ÑģÑģ
ĠÑĤ ÐµÑģÑĤ
Ð¾Ð± Ð¸Ð»ÑĮ
Ð¾ÑģÑĤ Ð¾ÑıÐ½
ĠÐ¿Ð¾Ð´ Ð·ÐµÐ¼
ĠÐ°Ð² ÑĤÐ¾ÑĢÐ°
Ð§ Ð»ÐµÐ½Ñĭ
ĠÐ½Ð°Ð·Ð² Ð°Ð½
ĠÐ¸Ð·Ð²ÐµÑģÑĤ Ð½Ñĭ
Ġ190 4
Ð°Ñī Ð¸Ðµ
ĠÐ¾ÐºÐ¾Ð½Ñĩ Ð°Ð½Ð¸Ñı
ĠÐ¿ÑĢÐ¾Ð¿ Ð¾Ð²ÐµÐ´
ĠÐ³Ð» Ð¾Ð±
ĠÑĤÐ°Ð± Ð»Ð¸
ĠÐĽÑĮ Ð²Ð¾Ð²
Ð° ÑĨ
ĠÐ± ÑĢÐ°Ð·Ð¸Ð»ÑĮ
ÐĴ Ð¸Ðº
ÐµÐ² ÑĢÐ°Ð»ÑĮ
ĠÐļ ÐĵÐĳ
19 22
ÐµÑģ Ð»Ð¸
ĠÐĿÐ° ÑĥÐºÐ°
ĠÑģÑĤÐ¾ÑĢÐ¾Ð½ Ðµ
ĠÑİÐ¶ Ð½Ð¾Ð¹
ĠÑģÐµÐ»ÑĮ ÑģÐºÐ¾Ð³Ð¾
ĠÐ¾ÑĤÑģÑĥÑĤÑģÑĤÐ² Ð¸Ðµ
Ð° Ð¾
Ð¿ Ð¾Ð»ÑĮ
ĠÐ½ Ñĥ
Ð± ÐµÐ»
ÐŁ ÑĢÐ¾Ð´
ĠÐ¸Ð· Ð½Ð°Ñĩ
ÐºÐ¾Ð² ÑĮ
Ð´Ðµ Ð³
ÑĥÑħ Ð°
ĠÑģÐ²ÑıÐ· Ð°Ð½
ĠÐĴÐµÐ»Ð¸ÐºÐ¾Ð±ÑĢÐ¸ÑĤ Ð°Ð½Ð¸Ñı
Ð°Ð»Ð¸Ð·Ð° ÑĨÐ¸Ñı
ĠÑģÐ¾Ð±ÑĢÐ°Ð½ Ð¸Ñı
ĠÑģÑĤÐ° ÑĢÐµÐ¹
ÐĹÐ°ÑĤ ÐµÐ¼
+ +
Ð¼ ÐµÐ½Ð°
Ð¶ Ð½ÑĭÐ¹
Ð°Ð´ ÑĮ
ĠÐĽ Ð¸Ð½
ĠÐ¢ Ð°Ð´Ð¶Ð¸Ðº
Ð²ÐµÑĢ Ñħ
ÑĮÑı Ð¼Ð¸
ĠÐºÐ¸Ð½ ÐµÐ¼Ð°ÑĤ
ĠÐ¾ÑĤÐ»Ð¸Ñĩ Ð°ÐµÑĤÑģÑı
ĠÐ½Ð°ÑĩÐ¸Ð½Ð° ÐµÑĤ
ĠÑĢÑı Ð´Ðµ
ĠÑĤ Ñı
ÑĢÑĥ Ð³Ð¾Ðµ
ÐµÐ»ÑĮ ÑĦ
ĠÑĢÐµ Ð±
ÑĥÑĢ Ñģ
ÐµÐº Ð¸
ĠÑĪ Ð¸ÑĢÐ¸
Ð¾ÑĢÐ° Ð¼Ð¸
ĠÐ¸ÑģÑĤÐ¾ÑĢ Ð¸ÑĩÐµÑģÐºÐ¸Ñħ
in ux
ĠÑĢÐµÐ»Ð¸Ð³Ð¸Ð¾Ð· Ð½ÑĭÑħ
ÐļÐ¾Ð¼ Ð¿
ĠÐŁÐ¾Ð»ÑĮÑĪ Ðµ
ĠÑĨÐµÐ½ÑĤÑĢÐ°Ð»ÑĮ Ð½Ð¾Ð¹
ĠÑĥÑģÑĤÑĢÐ¾Ð¹ ÑģÑĤÐ²Ð¾
ĠÐ¿ÑĢÐµÐ¾Ð± Ð»Ð°Ð´Ð°
ÐłÐµÐ»Ð¸Ð³Ð¸Ð¾Ð· Ð½ÑĭÐµ
ĠÑģ Ð¾ÐºÑĢÐ°ÑĤ
ĠÑģ ÑĢÐ°Ð¶ÐµÐ½Ð¸Ðµ
ÑĨ Ð²ÐµÑĤ
Ð°ÑĤ Ð¸ÑģÑĤ
ÑĦ Ð¸Ð»Ð¾ÑģÐ¾ÑĦ
ĠÑĥ ÑģÐºÐ¾ÑĢ
Ð¡ Ð¸ÑģÑĤÐµÐ¼
ĠÑĦ ÑĢÐ°Ð³Ð¼ÐµÐ½ÑĤ
Ð¸Ð² Ð°Ð»Ð¸
Ð°Ð´ Ñĥ
ÐĲ ÑĤ
ÑĳÐ½ Ð½ÑĥÑİ
ÐĹ Ð½Ð°Ñĩ
ĠÐ¿Ð°ÑĢ Ðº
ĠA n
ĠÐ¿Ð¾ÑıÐ² Ð¸Ð»Ð°ÑģÑĮ
ĠÐ²Ð»Ð¸ÑıÐ½ Ð¸Ñı
ĠÐĽÐµÐ¹ Ð±
Ġ Ã
ĠÐ½ ÐµÐ½
ĠÐ¿ÑĢ Ð¾Ð½Ð¸Ðº
ĠÐľ ÐµÑĢ
ĠÐĵ ÐµÑĢÐ°
Ðļ Ð½Ð¸
ĠÐĳ ÑĢÐ°
ĠÐ¿Ð¾Ð» Ð½Ð¾
ĠÑĪ Ð¾ÑĤ
Ð¾ÑĦ Ð¸
ĠÐ¾ÑĤÐºÑĢÑĭ Ð»ÑģÑı
ĠÑĤÐµÐ»Ðµ ÑĦÐ¾Ð½
ĠÐ¾ÑĤÐ½Ð¾Ñģ Ð¸ÑĤÐµÐ»ÑĮÐ½Ð¾ÑģÑĤÐ¸
ĠÐ¿ÑĢÐ¸Ð¼ÐµÐ½ ÑıÐµÑĤÑģÑı
ĠÐ´ÐµÐ»Ð° ÐµÑĤ
ĠÐ¿Ð»Ð°ÑĤ ÑĦÐ¾ÑĢÐ¼
ÐĿÐ¸Ðº Ð¾Ð»
ĠÐĵÑĢÐ¸Ð³Ð¾ÑĢ Ð¸Ð¹
ÐĳÐ¸ Ð¾Ð³ÑĢÐ°ÑĦÐ¸Ñı
ÐĴÐ¼ÐµÑģÑĤ Ðµ
ĠÐ²Ñĭ ÑģÐºÐ°Ð·
ĠÐĶ Ð¸Ð¾Ð½
Ð³ÑĢÐ° Ð´Ð°
ĠÐ½Ð°ÑħÐ¾Ð´ Ð¸Ð»ÑģÑı
ĠÐ´Ð¾ÑģÑĤ Ð°Ð²
ĠÑĢÐµÐ·ÑĥÐ»ÑĮÑĤ Ð°ÑĤÑĭ
ĠÐ°Ð²ÑĤÐ¾ÑĢ Ð¾Ð²
ĠÐºÐ°Ð· Ð°Ñħ
ĠÐ¿ÑĢÐ¸Ð¼ÐµÐ½ Ñı
ĠÐ²ÑģÑĤÑĢÐµÑĩ Ð°ÐµÑĤÑģÑı
ĠÐĵÐµÐ¾ÑĢÐ³ Ð¸Ð¹
o ur
Ðµ ÐµÐ²Ð¸Ñĩ
ĠÐ² ÐµÑĢÑĪ
ÐµÐ´ Ð»Ð¸Ð²
ĠÐ¿ÑĢÐ¸ Ð³Ð¾Ð²Ð¾ÑĢ
Ð¸Ð· ÐµÐ¼
ĠÐŁ ÑĮÐµÑĢ
ĠÐĳ Ð¸Ð±Ð»Ð¸
ÑīÐµ Ð³Ð¾ÑģÑı
ÑĳÐ½ Ð½Ð¾ÑģÑĤÐ¸
Ð°Ð½ÑĤ Ñĭ
ĠÑģÑĢÐµÐ´ Ð½ÐµÐ¹
ĠÐ¿Ð¾Ð»ÑĥÑĩ Ð°ÐµÑĤ
ĠÑİ ÑĢÐ¸Ð´
Ġ193 1
194 8
Ġ195 3
ĠÐ´ÑĢÐµÐ² Ð½ÐµÐ³ÑĢÐµÑĩÐµ
ĠÐ¾Ð±ÑĬÐµÐºÑĤ Ð°
ĠÐļÐ°Ð½ Ð°Ð´Ñĭ
ĠÑĤÑĥÑĢ Ð½Ð¸
ĠÐ½Ð°ÑģÐµÐ» ÐµÐ½Ð¸ÐµÐ¼
Ð½Ð¾ÐºÐ¾Ð¼ Ð°Ð½Ð´
Ð» ÑĳÑĤ
ÑĢÑĥ ÑīÑĳ
ÐĴ ÑĤÐ¾ÑĢÐ°Ñı
ĠÐŁ Ð¾Ð¿
19 29
Ðł Ð°Ð½
ĠÑħ Ð°Ð½
ÑĳÐ½ Ð½Ð¾Ð¼
ĠÐ¿ÑĢÐµ Ð¶
Ġ3 6
ĠÑģÐµÐ¼ ÑĮÐµ
ĠÑĤÐµÐºÑģÑĤ Ð°
ĠÐ¸ÑģÐºÐ»ÑİÑĩ Ð¸ÑĤÐµÐ»ÑĮÐ½Ð¾
ĠÐľÐ¾ÑģÐºÐ¾Ð² ÑģÐºÐ¾Ð¹
ĠÐ¿ÑĢÐµÐ´ÑģÐµÐ´ Ð°ÑĤÐµÐ»Ñı
ĠÐºÑĢÐ°Ð¹ Ð½Ðµ
ĠÐ¡Ð¾ÑĨÐ¸Ð°Ð»Ð¸ÑģÑĤ Ð¸ÑĩÐµÑģÐºÐ¾Ð³Ð¾
0 3
ĠÐ¿ÑĢ Ð¾Ð·Ð°Ð¸Ðº
Ð¸ÑĤÐµÐ»ÑĮ Ð½ÑĥÑİ
ĠÐ¿Ð¾Ñģ ÐµÐ»ÐµÐ½Ð¸Ñı
ĠÑĢÐ°Ð±Ð¾ÑĤ Ð°ÐµÑĤ
193 4
ĠÐ½Ð°ÑĨÐ¸Ð¾Ð½Ð°Ð»ÑĮ Ð½ÑĭÑħ
ĠÐ¿ÑĢÐ¾ÑĨÐµÑģÑģ Ð°
ĠÐ²ÑĭÑģÑĤÑĥÐ¿ Ð¸Ð»
ĠÐ¾Ð±ÑĬÐµÐ´Ð¸Ð½ ÐµÐ½Ð¸Ñı
ĠÐ¿Ð¸ÑģÑĮ Ð¼Ð°
ĠÐ¿ÑĢÐ¾Ð²ÐµÐ´ ÐµÐ½Ð¸Ñı
ĠÐ¼Ð¸ÑĦ Ð¾Ð»Ð¾Ð³Ð¸Ð¸
Ð» Ð°ÑĤÑĭ
ĠÑģ ÐµÐ¹ÑĩÐ°Ñģ
Ð¾Ð» Ð¾Ñĩ
Ð¡ ÐµÑĢÐ³
ĠÑģÑĤ ÐµÐº
ĠÐļ Ð°ÑģÑĤ
ĠÐĿ ÐµÐ¿
ĠÐ±Ð¾Ð»ÑĮÑĪ Ð¾Ð³Ð¾
an g
en d
ĠÐ½ÐµÐ¼ÐµÑĨ ÐºÐ¸Ñħ
ĠÐ¸Ð½Ð´ ÑĥÑģÑĤ
ĠÐ²Ð¾Ð·Ð² ÑĭÑĪ
ĠÐ»Ð°ÑĤ Ð¸Ð½
ĠÐ´ÑĥÑĪ Ð¸
ĠÑģÐ¾ÑģÑĢÐµÐ´ Ð¾ÑĤÐ¾Ñĩ
0 2
Ðº Ð°ÑĢ
ĠÐ¼ ÐµÑĩ
ĠÐĲ Ð¿
ĠÐĿ ÐµÐ¼
Ð²Ð° ÑĢÐ¸
ĠÐĺ ÑģÐ°
ÐĽ Ñĥ
Ð¾Ð·Ð´ Ð½ÐµÐµ
ĠÑĥÑĤ Ð²ÐµÑĢÐ´
ĠÐĳÐµÑĢ Ð»Ð¸Ð½
ĠÑıÐ´ ÑĢÐ°
l d
Ð»Ñı Ð»
Ð¾Ð¶ Ð°Ð¹
ĠÐ¿ÑĢÐµ Ð±Ñĭ
ĠÐ¸Ð·Ð´ Ð°ÑĤÐµÐ»ÑĮ
ĠÐ¿ÑĢÐ¸Ð¼ÐµÐ½ ÐµÐ½Ð¸Ðµ
Ð°ÑİÑīÐ¸Ñħ ÑģÑı
Ð½ÐµÑĢ ÑĥÑģ
E T
a st
Ðº ÑĥÑİ
ĠÐ¼ Ð°Ð¹
ĠÐļ ÐĿÐł
ĠÐ½Ð°Ñĩ Ð°Ð»ÑģÑı
195 4
ĠÐ·Ð² Ð°Ð½Ð¸Ðµ
ĠÐ¾ÑĤÐ´ÐµÐ»ÑĮ Ð½ÑĭÐµ
ĠÑģÐµÐºÑĢÐµÑĤ Ð°ÑĢÑĮ
ĠÐ¿Ð¾ÑģÑĢÐµÐ´ ÑģÑĤÐ²Ð¾Ð¼
ĠÑĤ ÐµÑĢÐ°
Ð°Ð² ÑĪÐµÐµ
ĠÐĶ Ð°Ð½
ÑĤÐ° ÑĨÐ¸Ð¸
Ðĺ Ñģ
20 18
ĠÐ¼ÐµÑģÑĤ Ð°Ñħ
ĠÑĢÐ°Ð±Ð¾ÑĤ Ð°ÑĤÑĮ
ĠÐ¿Ð¾Ð´Ð¿Ð¸Ñģ Ð°Ð»
ĠÑĦÑĥÑĤÐ±Ð¾Ð» Ñĥ
ĠÐ¿Ð°ÑĢÐ»Ð°Ð¼ÐµÐ½ÑĤ ÑģÐºÐ¸Ñħ
Ð¾Ð² ÑĭÐ¼Ð¸
ĠÐº Ñĥ
ĠÑģÑĤ Ð¸Ð»Ðµ
ĠÐ» Ð¾Ð¶
ÐºÐ¾Ð² Ð¾Ð¹
Ðĺ ÑĤ
ĠÐ³Ð»Ð°Ð² Ð½ÑĭÑħ
ĠÐ»Ð¸ÑĤÐµÑĢÐ°ÑĤ ÑĥÑĢÐ°
ĠÐ¸ÑģÑĤÐ¾Ñĩ Ð½Ð¸ÐºÐ¾Ð²
ĠÐ¿Ð¾ÑĢÑıÐ´ ÐºÐµ
ĠÐļ Ð°ÑģÐ¿
ĠÐ¿ÐµÑĢ ÐµÐ¶
Ðł Ð°Ñģ
Ðľ ÐµÐ½
ÑĥÑīÐµ Ðµ
ÑĥÑī ÐµÐ½Ð°
ĠÐ¼ÐµÐ´ Ð°Ð»ÑĮ
ĠÑĤÑĭ ÑģÑıÑĩÐµ
ĠÐ¿ÑĢÐ¸Ð· Ð½Ð°
ĠÐ½Ð°ÑĩÐ°Ð» Ð¾Ð¼
ĠÐºÐ¾Ð½ÑģÑĤÑĢÑĥ ÐºÑĨÐ¸Ð¸
Ð¾ÑĢ ÑıÐ¶
ÐµÐ¼ ÑĭÐ¼
ĠÐļ Ð¸ÑĢÐ¾Ð²
ĠÐľ Ð°ÐºÑģ
ĠÐŁ Ð°ÑĤÑĢÐ¸
Ð¸ÑģÑĤ ÑģÐºÐ¾Ð¹
ĠÑħ Ð»Ð¾ÑĢ
Ðĺ ÑģÐº
Ðĺ ÑģÑģÐ»ÐµÐ´
Ð£ ÑģÑĤÐ°Ð½Ð¾Ð²
ĠÐ½Ð¾Ð² ÑĥÑİ
ĠÑģÐ²ÑıÐ· Ð°Ð½Ñĭ
Ð¾Ñħ Ð¸Ð¼
ĠÐ´Ð°Ð½ Ð½Ð¾Ð¹
193 3
Ð¡ÑĢÐµÐ´ Ð½ÑıÑı
ĠÐ¾ÑģÐ²Ð¾Ð± Ð¾Ð¶Ð´ÐµÐ½Ð¸Ñı
ĠÐ°ÑĦ ÑĢÐ¸ÐºÐ°Ð½
ÐļÐ° Ð¶Ð´
Ñĥ ÑĤÐ¾Ñĩ
ĠÑģ ÐµÑĢÐ²
ĠÑĤ Ð¾Ð¶Ðµ
Ð¾Ð»ÑĮ Ð´
19 24
ĠÐĶ Ð¾ÑģÑĤÐ¾
ÑĥÐ»ÑĮ ÑĦ
ĠÑĩÐ°ÑģÑĤ Ð¸ÑĨÑĭ
ĠÐ´Ð¾Ð» Ñı
ÑĢÐ¾Ñģ Ð¾Ð²
Ð²Ðµ Ð»Ð°
ĠÐ°Ð½Ð³Ð»Ð¸Ð¹ ÑģÐºÐ¾Ð³Ð¾
ÐµÑĢÐµ Ð³Ð°
ĠÑģÐ¾Ð³Ð»Ð° ÑĪÐµÐ½Ð¸Ñı
ĠÐ·Ð°ÑħÐ²Ð°ÑĤ Ð¸Ð»Ð¸
ĠÐ³ÑĢÐ°Ð¼ Ð¼Ð°ÑĤ
ÐĸÐµÐ»Ðµ Ð·Ð½Ð¾Ð´Ð¾ÑĢÐ¾Ð¶
Ð» ÑĭÑħ
ĠÐ¿ ÑĮ
ĠÐº Ð¾Ð¶
ÑģÑĤÐ² Ð¾Ð²Ð°Ð½Ð¸Ñı
ÑģÑı Ñī
ĠÐ» ÐµÐ¹
ĠÐĴ ÐµÑĢÑħ
ĠÐĵ Ð¸Ð»ÑĮ
ÐĿ ÐµÐ¼
ÑģÑĤÐ²ÐµÐ½ Ð½Ð¾ÑģÑĤÑĮ
ĠÑĥÑĩ Ð¸ÑĤ
ÐºÑģ Ð¸Ð¾Ð¼
ĠÐ¡ÑĤ Ð°Ð»Ð¸Ð½Ð°
ĠÐ¿Ð¾ÑģÐ»ÐµÐ´ Ð½ÐµÐ³Ð¾
ĠÐ¸Ð·Ð´ Ð°Ð½Ð¸Ñı
ĠÐ¾Ð´Ð½Ð¾ Ð¸Ð¼
ĠÐ½ÐµÐ´Ð¾ÑģÑĤ Ð°ÑĤÐ¾Ñĩ
ĠÑĤÐµÐ»ÐµÐ²ÐµÐ´ ÑĥÑīÐ¸Ð¹
ĠÑĨÐ¸ÑĦ ÑĢÐ¾Ð²
Ð³ Ð¸Ñı
Ð°Ð² Ð¾Ð´
ĠÑį ÑģÐ¿ÐµÑĢÐ°Ð½
Ð¸ÑģÑĤ Ð°Ð½Ðµ
ÐĶ Ð°
ÐĶ ÐµÐ¿
ÑĢÑĭ Ð²Ð°
ĠÐ³Ð¾ÑĢÐ¾Ð´ ÑģÐºÐ¸Ñħ
ĠÐ¾ÑģÐ½Ð¾Ð² Ñĥ
ĠÑģÐ°Ð¼ Ð°Ñı
ĠÑģÐº ÑĢÐ¸Ð¿
ĠÐ¿ÑĢÐµÐ¼ Ð¸Ð¹
Ð»Ð°Ð½Ð´ Ð¸Ñı
195 9
ÑģÑĥ Ð°
ĠÐ´Ð¾ÑĢÐ¾Ð³ Ð°
ÑĤÐµÑĢ ÑĢÐ¸ÑĤÐ¾ÑĢ
ĠÐŁÐ°Ð² Ð»Ð°
ĠÐ¿Ð¾Ð¿ÑĭÑĤ ÐºÐ¸
ĠÐ´ÑĥÑĪ Ñĥ
ĠÐ¼Ð¾Ð½Ð°ÑģÑĤÑĭ ÑĢÑĮ
ĠÐĽÐ¸ÑĤ Ð²Ñĭ
ĠÐ¿ Ð¸ÑĢÐ°Ð¼Ð¸
ĠÐº Ð°Ð´
ĠÑĤ Ð°
ĠÑĥ Ð½Ð¸Ð²ÐµÑĢÑģ
ĠÐ¡ Ð²ÐµÑĤ
ÐµÐ´ Ð¾Ð²
ĠÑģÐ¾Ð·Ð´ Ð°ÑĤÑĮ
ĠÑĦÑĥÐ½Ðº ÑĨÐ¸Ñı
ĠÑĢÐµÐ²Ð¾Ð»Ñİ ÑĨÐ¸Ñı
ĠÑģÑĤÑĢÑĥÐºÑĤ ÑĥÑĢÐ°
ĠÐ¼ÐµÑģÑı ÑĨÐ°
ĠÐ¿ÐµÑĢÐµÐ¼ ÐµÑī
ĠÐ¿ÑĢÐ¸Ð± Ð»Ð¸Ð·
ĠÑĢÐµÐ°Ðº ÑĨÐ¸Ð¸
ĠÐ¿Ð¸ÑĪ ÐµÑĤ
Ð¿ Ñģ
âĢ ¯
ĠÐ½Ð° Ð¼ÐµÑĢ
ĠÐľ Ð°Ñħ
Ðĺ Ñħ
er m
193 6
ĠÑĥÐ»Ð¸ ÑĨ
ac k
Ð°ÑİÑīÐ¸Ðµ ÑģÑı
Ð³Ð»Ñı Ð´
ĠÐ¸ÑĤÐ¾Ð³ Ð°Ð¼
ĠÑģÑĥÐ»ÑĤ Ð°Ð½
Ð² Ð¾ÑģÑĤÐ¾ÐºÐµ
ĠÐ¾Ð± ÑĪÐ¸ÑĢ
ĠÐĿ Ð¸Ð³
ĠÐ¤ ÑĢÐµÐ´
ÑĥÐ± ÐµÐ¶
ĠÑģÐ¸ÑģÑĤÐµÐ¼ Ð¾Ð¹
Ð¾Ð¶Ð´ ÐµÐ½Ð¸Ð¸
ĠÑıÐ½ ÑĤ
Ġ190 3
ĠÑģÐ¿Ð¾ÑģÐ¾Ð± ÑģÑĤÐ²Ð¾Ð²
ĠÐ·Ð°Ð¿Ð°Ð´ Ð½Ð¾Ð¹
ĠÐ¿ÑĢÐ¸Ð½Ñı Ð»Ð¸
ĠÐ³Ð¾Ð²Ð¾ÑĢ Ð¸ÑĤ
ĠÑģÐ¾ÑĨÐ¸Ð°Ð»ÑĮ Ð½Ð¾Ð¹
ÑĤ ÐµÐ»ÑĮ
Ñİ Ð´Ð°
ÑĪ Ð°Ð²
Ð¡ ÑĥÐ´
Ðł Ñĥ
ĠÐ¶ ÑĳÑģÑĤ
Ð°ÑĤÐµÐ»ÑĮ Ð½ÑĭÐ¼
Ð°ÑİÑī Ð¸Ð¼
ĠÑģÐ²ÑıÐ· Ð°Ð½Ð½ÑĭÐµ
198 3
ĠÑģÐ¼ ÐµÐ½Ð¸
ĠÐ²Ð¾ÑģÐ¿ Ð¸ÑĤ
ĠÐļÐ°Ð·Ð°Ñħ ÑģÑĤÐ°Ð½Ð°
ĠÐ´ÐµÑĢÐ¶ Ð°Ð²
ĠÑĦÑĥÑĤÐ±Ð¾Ð»ÑĮ Ð½ÑĭÐ¹
ÐĳÐ»Ð°Ð³ Ð¾Ð´Ð°ÑĢÑı
Ñĩ Ð¶
Ð¾Ð² Ð¾Ð´
ÑĦ ÑĢÐµÐ´
ĠÑģÑĤ Ð¸Ð»Ñı
ÐµÐ» Ñĭ
ĠÐł ÐµÐ¹
ĠÑĪ Ð°Ð³
ĠÐ¼Ð¾ÑĢ ÐµÐ¿
ĠÑĢÐ°Ð² Ð½Ð¾
ĠÐ²Ð½Ðµ Ñģ
ĠÐ½ÐµÐ²Ð¾Ð·Ð¼Ð¾Ð¶ Ð½Ð¾
ĠÑĦÐ¸Ð» Ð¾Ð»Ð¾Ð³
ĠÐ´Ð¸Ñģ ÑĨÐ¸Ð¿
y th
ĠÑģ Ð¾Ð»Ð½
ĠÐ´ ÐµÐ»Ð¸ÑĤ
ĠÑĥ Ð½Ð¸Ðº
ÐµÐ² Ð¾Ð´
ĠÐ¿ÑĢÐ¸ ÑĪÑĳÐ»
ĠÑį ÑģÑĤÑĢÐ°
19 28
ÑıÑĤ Ð¾Ð¹
ĠÑĤÐµÐ»Ðµ ÐºÐ°Ð½
ÑĢÐ°Ð·Ð´ Ð¾
ĠÐ¦ÐµÑĢ ÐºÐ²Ð¸
ĠÐ¾ÑĢÐ¸ ÐµÐ½ÑĤ
ÐľÑĥÐ·Ñĭ ÐºÐ°
ĠÑĤÐµÐ»ÐµÐ²Ð¸Ð· Ð¸Ð¾Ð½
. ;
Ð¾ÑĢ Ð¾Ð¼
ĠÐ¼ Ð°ÑĤÑĮ
Ð°ÑĤ ÐºÐ¸
ÑĢÑĥ ÐµÑĤÑģÑı
Ðľ Ð°Ð½
Ðľ Ð¾ÑĢ
ÐµÐ· Ð¾Ð¿Ð°Ñģ
ĠÐºÐ¾Ð¼ Ð¸ÑĤÐµÑĤÐ°
20 17
Ð°ÑĤÐ¾ÑĢ Ñĭ
193 2
Ð°ÑĢÐ°ÐºÑĤ ÐµÑĢ
ĠÐ·Ð°Ð½Ð¸Ð¼ Ð°ÑİÑĤ
ĠÐĺÐ¾Ð°Ð½ Ð½
ĠÐºÐ°Ð± Ð¸Ð½
ĠÐĺÑĢ Ð»Ð°Ð½Ð´Ð¸Ð¸
ĠÐ¥ÑĢÐ¸ÑģÑĤ Ð°
ĠÐµÐ¶ÐµÐ³Ð¾Ð´ Ð½Ð¾
ĠÐ½ÑĥÐ¶ Ð½Ð¾
ÑĢ Ð¾Ð¶Ð´ÐµÐ½Ð¸Ñı
ÑĢ ÑįÐ½
ÐµÐ½ Ð½Ð¾Ð¼
Ð¾Ð² ÑģÐºÐ¾Ð³Ð¾
ĠÐ¼ ÐµÑĢÑĭ
ĠÑĥ Ð»
ÐºÐ¾Ð½ ÑĤ
ÐĽ ÐµÐ²
ĠÐĹ Ð°ÐºÐ¾Ð½
ĠÐ¾ÑĤÐºÑĢÑĭ ÑĤÐ¾
ĠÐ¶Ð¸Ð· Ð½
ĠÑģÐµÐ¼ ÑĮ
ĠÑĢÐ°ÑģÐ¿Ð¾Ð»Ð¾Ð¶ ÐµÐ½Ð°
ĠÐ¸ÑĤÐ¾Ð³ Ðµ
ĠÑĤÑİ ÑĢÑĮ
Ð¼ Ð±
ÐµÐ½ ÑĨÐµÐ²
Ñĩ ÑĤÐ¾
Ð¿ ÑĢÐ¾
Ð¾Ð´ ÐµÑĢÐ¶
ÐĴ ÐĶ
ĠÑģÑĤ Ð°ÑĢÑĤ
ĠÐ¿ÐµÑĢ ÑģÐ¾Ð½
ĠÐ¿Ð¾Ð» Ñİ
ĠÐĽ Ð¾ÑĢ
ĠÐ¦ ÐµÐ·
ĠÐºÐ»Ð°ÑģÑģ Ð¸ÑĩÐµÑģÐºÐ¾Ð¹
195 5
ĠÑĤÐµÑħÐ½ Ð¾Ð»Ð¾Ð³Ð¸Ð¸
ĠÐ¿ÑģÐ¸Ñħ Ð¾Ð»Ð¾Ð³
ĠÐ¿Ð»Ð¾ ÑģÐº
ÐĿÐ°ÑĨÐ¸Ð¾Ð½Ð°Ð»ÑĮ Ð½ÑĭÐµ
ĠÐĴÐ¸Ð·Ð°Ð½ÑĤ Ð¸Ð¸
Ð¾Ð» Ð»
ÑĩÐµ ÑģÐºÐ°Ñı
Ð¸Ð¼ Ð¸ÑĢÐ¾Ð²
ĠÐ¡ Ð¾ÐµÐ´Ð¸Ð½
ĠÑģÑĤ ÑĥÐ¿
ÐĿ ÐĶÐł
ÑĤÐ¾ÑĢ Ð¾Ð¼
Ġ7 5
Ð¸ÑĢÐ¾Ð²Ð°Ð½ Ð½ÑĭÐ¹
ĠÐ¼ÐµÑħÐ°Ð½ Ð¸ÐºÐ¸
ĠÐ·Ð°Ð´Ð°Ñĩ Ð¸
ĠÐ°Ð¿ Ð¾ÑģÑĤ
ĠÐ²ÑĭÑĩÐ¸Ñģ Ð»Ð¸ÑĤÐµÐ»ÑĮ
ĠÐĴÐĴ Ð¡
ĠÑģÐ´ÐµÐ» Ð°ÑĤÑĮ
ĠÐ¿ÑĢÐ¾Ð´ÑĥÐº ÑĨÐ¸Ð¸
ĠÐ³ Ð¾ÑģÑĤ
Ð¸Ð² Ð½Ð¾Ðµ
ĠÐĵ Ð°Ð±
Ðļ Ð¾ÑģÐ¼
ĠÐ¤ ÐµÐ¾Ð´
Ð¸Ñĩ Ð½Ð°Ñı
Ð¾Ñı Ð·ÑĭÑĩ
Ð°Ð³ ÑĢÐ°
ĠÐ¼ÐµÑģÑĤ Ð½Ð¾Ð³Ð¾
ĠÐ´Ð°Ð½ Ð½ÑĭÐ¹
Ð¸ÑĢÐ¾Ð²Ð°Ð½ Ð½Ð¾Ð¹
ĠXX I
ĠÐºÐ»Ð°Ð´ Ð±Ð¸ÑīÐµ
ÑĦ Ð¸Ð¼
Ðļ Ð¡
Ð°Ð¿ Ð°Ð·
ĠÐ¿Ð¸Ñģ Ð°ÑĤÐµÐ»Ñı
ĠÑĢÐ°Ð·Ð²Ð¸ÑĤ Ð¸Ñİ
193 5
ĠÐ°ÑĢÑħÐ¸ÑĤÐµÐºÑĤ ÑĥÑĢ
ÑĪÑĤ ÐµÐ¹Ð½
ĠÐ³ÑĢÐ°ÑĦ Ð¸Ðº
ÐĹÐ¾Ð»Ð¾ÑĤ Ð¾Ð¹
Ñģ ÐµÐ»
ĠÐ¼ ÑĥÐ´
ÑĪ Ð»Ð¾
Ð°ÑĢÐ° ÑĤÐ°
Ġ195 5
ĠÐ¿ÑĢÐ¾Ð¸Ð·Ð¾ÑĪ Ð»Ð°
ĠÐ·Ð°Ð³ ÑĢÑı
ĠÐĽÐµÐ¾Ð½ Ð¸Ð´
ĠÑĤÐµÑĢÐ¼ Ð¾Ð´Ð¸Ð½Ð°Ð¼
ĠÐľÐ°ÑĢÑĤ Ð¸Ð½
ĠÐ¿ ÐµÑĤ
ĠÐ± Ð¾Ð¹
Ð°ÑĢ Ð½Ð¾Ð³Ð¾
ĠÑĥ Ð²Ð¸Ð´
Ð½Ð° Ñħ
ÐºÐ¾Ð² ÑĭÑħ
ÐĶ Ð¸
ĠÐ¾Ðº ÑĢÐµÑģÑĤ
Ð²ÐµÐ´ ÐµÐ½Ð¸Ðµ
ĠÐ¼Ð½ ÐµÐ½Ð¸Ðµ
ĠÐ¸ÑģÐ¿Ð¾Ð»ÑĮÐ· Ð¾Ð²Ð°Ð½Ð¸ÐµÐ¼
ÐµÑģÑģ Ð°
ĠÐ³Ð»Ð°Ð² Ð¾Ð¹
ĠÐ´Ð°Ð½ Ð½Ð¾Ð³Ð¾
ĠÐļÐ¾Ð½ Ð³Ð¾
ĠÐ¼Ð¸ÑĢÐ¾Ð² Ð°Ñı
ĠÐ¼ÐµÐ¶Ð´ÑĥÐ½Ð°ÑĢÐ¾Ð´ Ð½Ð¾Ð¹
ĠÐĵÐ¾ÑģÑĥÐ´Ð°ÑĢ ÑģÑĤÐ²ÐµÐ½Ð½Ð¾Ð³Ð¾
ĠÑħÐ¾Ð·ÑıÐ¹ ÑģÑĤÐ²Ð¾
ĠÐ¼Ð°Ð» ÐµÐ½ÑĮ
ĠÐļÐ¾Ð½ÑģÑĤÐ°Ð½ÑĤÐ¸Ð½ Ð¾Ð¿Ð¾Ð»ÑĮ
ĠÐ¾Ð±ÑĬÑıÑģ Ð½
ĠÐŀÐºÑĤ ÑıÐ±ÑĢÑĮ
ĠÐºÐ°ÑĤÐµÐ³Ð¾ÑĢ Ð¸Ð¸
ĠÑĥÐ¿ÑĢÐ°Ð·Ð´ Ð½
ĠÐ¾Ñī ÑĥÑī
ÑĢ Ð¾Ð½Ð°
ĠÐ½ ÐµÐ»ÑĮÐ·Ñı
ĠÐ´ ÐµÑĢ
ĠÐ¿ÑĢ Ð¾Ðµ
ĠÐĲ Ð´Ð°Ð¼
Ðĵ ÐµÑĢ
Ð½Ð°Ðº Ð¾Ð¼
ĠÑģÐµÐ¼ Ð¸
ĠÐ½ÐµÐ¹ ÑĤ
ĠÑĤÑĥ ÑĢÐ¸Ð·
ĠÐĵÐµÐ½ÑĢÐ¸Ñħ Ð°
ÐĲÐ´ Ð¼Ð¸Ð½Ð¸ÑģÑĤÑĢÐ°ÑĤÐ¸Ð²
Ñħ ÑĥÐ´
ĠÑĤ ÐµÐ½Ð´
Ġ19 15
ĠÑĨ Ð¸ÑĤ
Ðĳ Ð¾ÑĢ
ĠÐ¡ÑĤ ÐµÑĦ
ĠÐ¿Ð¾Ðº ÑĥÐ¿
ĠÐ¼Ð¸Ð»Ð»Ð¸ Ð¾Ð½Ð°
ĠÑĥÐ»Ð¸ ÑĨÑĭ
ĠÐ² Ð¸ÑĢÑĤÑĥ
ĠÐº Ð¾ÑģÑĤ
Ð»ÐµÐ½ Ð½Ð¾
ĠÐ²Ð¾Ð· Ð¾Ð±Ð½Ð¾Ð²
Ð¸Ð·Ð¼ Ð¾Ð²
Ð²Ð¸Ð¶ ÐµÐ½Ð¸Ðµ
0 6
Ð» Ð°Ð½Ð°
Ð² Ð°Ð´
ĠÐ½ Ð¾ÑĩÑĮ
Ð»Ð¸ ÐºÐ°
ĠÐ´ ÑĭÑħ
ĠÑĢÐ° Ð´Ð¸Ðº
ÑģÑģ Ñĭ
ĠÐ¿Ð¾Ð´ Ð½Ñı
ĠÐ¿ÑĢÐµÐ´ Ð¿Ð¾Ñĩ
Ð»Ñİ Ð¼Ð¸Ð½
Ð»ÐµÑĤ Ð½Ð¸Ð¹
ĠÑĥÑĢÐ¾Ð² Ð½ÐµÐ¼
ĠÐºÐ² Ð°ÑĢ
ÑģÐµÑĢ Ð¾ÑģÑģÐ¸Ð¹
ĠÑĤÑĢÐµÐ± Ð¾Ð²Ð°Ð½Ð¸Ñı
ĠÐºÐ¸Ñģ Ð»
ĠÑĢÐµÑĩ ÑĮ
a k
ÐµÑĢ ÐµÐ¹
ĠÐĴ ÐµÑģÑĤ
Ðŀ Ð´Ð¸Ð½
ĠÐ½Ð°Ñĩ Ð°Ð»ÑĮ
ĠÐłÐ¾ÑģÑģ Ð¸Ñİ
ĠÐ³ÑĢÐ° Ð¼Ð¾ÑĤ
ĠÑİ Ð³
ÐµÑĢÐ¸ Ð¾Ð´
ĠÐ¸Ð·Ð´ Ð°Ð½Ð¸Ðµ
190 5
ĠÑģÑĤÐ°ÑĤÑĮ Ð¸
ĠÐ¿ÑĢÐ¸ÑĩÐ¸Ð½ Ð¾Ð¹
ÑĦÐ¸Ð»ÑĮ Ð¼
ĠÐ¡Ð¾Ðº ÑĢÐ°ÑĤÐ°
Ñĥ ÑĢÐ¸ÑģÑĤ
Ð¾Ð³ Ð¸Ð±Ð»Ð¸
ĠÐ½Ð° ÑĥÐºÐ°
ĠÐ¾ÑĤ ÑĤ
ĠÐļ Ñĥ
Ð»ÐµÐ½ Ð´
ÐĶ ÐµÑĤ
ĠÐ¥ Ð¾Ðº
ĠÐ¿ÑĢÐ¾Ð´ Ð°Ð¶
ÐºÐ¾Ð¼ Ð°
ĠÐ¿ÐµÑĢÐµ Ð¸Ð·
ĠÑĥÑĩÑĳ Ð½ÑĭÐµ
ĠÑĨÐ°ÑĢ ÑģÑĤÐ²Ð°
ĠÐ²Ð¾Ð¾ÑĢÑĥÐ¶ ÑĳÐ½Ð½ÑĭÑħ
ĠÑģÐ¿Ð¾ÑĢÑĤ ÑģÐ¼ÐµÐ½
ĠÐ²ÐµÑĢÐ½ ÑĥÐ»ÑģÑı
ĠÐºÐ¸ÑģÐ»Ð¾ÑĤ Ñĭ
ow s
ĠÐĳÐµÐ»ÑĮÐ³ Ð¸Ð¸
Ð¸ Ð»ÐµÐ¹
ĠÐ² ÑĤÐ¾ÑĢÐ°Ñı
ĠÑģ Ð°Ð¹ÑĤ
Ð± Ð»
ÑĪ ÐºÐ¾Ð¼
ÑĢÑĥ ÑĪÐµÐ½Ð¸Ñı
Ð¡ Ð¸Ð¼
ĠÐ½Ðµ Ð¿Ð¾Ð´
Ðļ Ð°Ð½
Ðł Ðĵ
ĠÑĦÑĢÐ°Ð½ÑĨÑĥÐ· ÑģÐºÐ¾Ð¹
ĠÑģÐµÑĢ Ð´
ĠÐµÐ´Ð¸Ð½ ÑģÑĤÐ²ÐµÐ½Ð½ÑĭÐ¹
ĠÑįÐºÐ¾Ð½Ð¾Ð¼ Ð¸ÑģÑĤ
ĠÐ±Ð¾Ð³ Ð¾Ð²
ĠÐ³ÑĢÐ°Ð½ Ð¸ÑĨÐµ
ÑĨÐµÐ½ ÐºÐ°
ĠÑĪÑĤ Ð°ÑĤ
ĠÐ²ÑĭÐ´ Ð²Ð¸Ð½
ĠÑĤÐ¾Ð¿ Ð»Ð¸
ĠÐ²ÐµÑĢÐ¾ÑıÑĤ Ð½Ð¾
ĠÐ¼Ð°Ñģ ÑĪÑĤÐ°Ð±
ĠÐ² ÐµÑģÑĤ
Ð»ÑĮ Ð½Ð¾Ð¹
Ð¡ Ð»ÐµÐ´
ĠÐ¡ Ð°ÑĤÑĥÑĢ
ÐµÐ´ ÐµÐ»ÑĮ
ĠÐľ ÐĵÐ£
Ð¢ ÑĢÐ¸
ĠÑģÑĤÑĢÐ° Ð½Ð¾Ð¹
ĠÐ¿ÐµÑĢÐµÐ´ Ð°
Ð±Ð¾Ð» Ð¸ÑģÑĤ
ĠÐºÐ°ÑĤ Ð°ÑģÑĤÑĢÐ¾ÑĦ
ĠÐ¾Ð¿Ð¸Ñģ Ð°Ð½Ð¸Ñı
ĠÐ³ÐµÑĢ Ð¾Ð¹
ĠÐ±Ð°Ð½ ÐºÐ¾Ð²
ÑĤÐµÐ½ Ð°Ð½ÑĤ
ÐŁÑĢÐ°Ð²Ð¾ÑģÐ»Ð°Ð² Ð¸Ðµ
ÐĿÐ¸ÐºÐ¾Ð» Ð°Ð¹
0 8
c he
| -
Ðº Ð¾Ð»ÑĮ
ĠÑģ Ð½
ÑĦ Ð¸Ð½
ĠÐ· Ð½Ð°
ĠÐ· Ð¾Ð½Ðµ
Ð¸Ð» Ð»ÐµÑĢ
ÐµÐ½ÑĮ Ðµ
ĠÑģÐ²ÑıÐ· Ð°Ð½Ð½ÑĭÑħ
ĠÐ´Ð¸ Ð°Ð»Ð¾Ð³
ĠÐ·ÐµÐ¼ Ð»Ñİ
ĠÐ·Ð°Ð¼ ÐµÑĩ
ĠÐ¼ÐµÐ¶Ð´ÑĥÐ½Ð°ÑĢÐ¾Ð´ Ð½ÑĭÐ¹
ÐĴÑĭ Ð¿ÑĥÑģÐº
ÐŀÐ±ÑĢÐ°Ð· Ð¾Ð²Ð°Ð½Ð¸Ðµ
ÐļÑĥÐ»ÑĮÑĤ ÑĥÑĢÐ°
1 00
Î ¼
ĠÐĲ Ðº
ĠÐł Ð¾Ð¶Ð´Ðµ
Ðł ÐµÐ·
ÐµÑģ Ð¸
Ð¸ÑĢÐ¾Ð² Ð°Ð½Ð¾
ĠÐ¾ÑģÐ½Ð¾Ð² Ñĭ
ĠÑĢÐ°ÑģÐ¿ Ð¾ÑĢÑıÐ¶
ĠÐ§ Ð°ÑĢÐ»ÑĮ
ĠÐ¿Ð°ÑĢÑĤ Ð¸Ð·
ĠÐ¿ÑĢÐ°Ð²Ð¸ÑĤÐµÐ»ÑĮ ÑģÑĤÐ²Ð¾Ð¼
Ð°ÑĤÐ¾ÑĢ Ð¸Ð¸
ĠÑĦÐ¾ÑĤ Ð¾Ð³ÑĢÐ°ÑĦ
ĠÐ»ÐµÐ³ ÐµÐ½Ð´
ĠÐ°ÑĤÐ¾Ð¼ Ð¾Ð²
ĠÐ¿ÑĢÐ°Ð·Ð´ Ð½Ð¸Ðº
ÑıÑīÐ¸Ñħ ÑģÑı
ĠÐ¸Ð½ÑĦÑĢÐ° ÑģÑĤÑĢÑĥÐºÑĤ
l ic
Ð¾ ÑıÑĤ
ĠÐ½ ÑĢÐ°Ð²
ÑĨ ÐºÐ¾Ð¹
Ġ1 20
Ñī Ð¸ÐºÐ¾Ð²
Ð»Ñı ÑİÑĤÑģÑı
ĠÐ» Ð¸ÑĨÐ°
Ðł Ð¸Ð¼
ĠÐ¸ÑģÐ¿ Ð¾Ð²ÐµÐ´
ĠÐ¾ÑģÑĤ Ð°Ð»ÑĮÐ½ÑĭÐµ
ĠÐ¦ Ð¸Ð¾Ð»
ÑĥÑİÑī Ð°Ñı
ĠÐ»ÐµÑĤ Ð¾Ð¼
ĠÐ½ÐµÐ¼ÐµÑĨ ÐºÐ°Ñı
ĠÐ¿Ð¾Ð½ ÑıÑĤ
ĠÐ³Ð°Ð· ÐµÑĤÐ°
ĠÑģÐ¾Ð²ÐµÑĢÑĪ ÐµÐ½Ð½Ð¾
ĠÐºÑĢÑĥÐ¿Ð½ÐµÐ¹ ÑĪÐ¸Ð¹
ĠÐ´ÐµÐ¿ÑĥÑĤ Ð°ÑĤ
ĠÐ¼ÐµÑĤÐ°Ð» Ð»
ĠÐļÑĢÑĭ Ð¼
Ð¾ÑĦÐ¸ ÑĨÐ¸Ð°Ð»ÑĮ
ĠÑģ ÑİÐ¶
ĠÐ½Ð° ÑģÑĤÑĢÐ¾
Ð¡ Ð¾Ð·Ð´
ÐĴ ÐµÑģ
Ð¸Ð² Ð¸Ð»Ð¸
ĠÑį ÑģÐº
ĠÐł Ð°Ð¼
ĠÐ¿Ð¾Ñģ Ð¾Ð»ÑĮ
Ġ6 5
or t
ĠÑĥÐ´ Ð¾Ð²Ð»ÐµÑĤÐ²Ð¾ÑĢ
Ġ189 5
190 8
ĠÐ²ÑĭÑħÐ¾Ð´ Ð°
ĠÑĢÐµÐ³Ð¸Ð¾Ð½ Ðµ
ĠÐ½Ð°Ð·ÑĭÐ² Ð°Ð»Ð¸
ĠÐļÐ¸Ðµ Ð²Ðµ
ÐĺÐ¼Ð¿ ÐµÑĢÐ°ÑĤÐ¾ÑĢ
ĠÐ³Ð¾ ÑĢÐ°Ð·Ð´Ð¾
ĠÑģÐ¿ÐµÑĨÐ¸ Ð°Ð»Ð¸Ð·
Ð² ÑĢÐ°Ñī
ÐµÐ½ Ð³Ð°
Ð³ Ð´Ðµ
ĠÐ¼ ÑıÐ³
ĠÑĥ ÑģÑĤÑĮ
ĠÐļ ÑĢÐµÐ¼
ĠÐ¿ÐµÑĢ ÐµÑĩ
ĠÐºÐ¾Ð¼ Ð½
ĠÐ´ÐµÐ¹ÑģÑĤÐ² ÑĥÑİÑĤ
ĠÐ´ÑĢÐµÐ² Ð½ÐµÐ¹
ĠÐ¾Ð¿ÐµÑĢÐ° ÑĨÐ¸Ñı
av a
ĠÐĳÑĢÐ°Ð· Ð¸Ð»Ð¸Ð¸
ĠÐ¾ ÑĦÐ¾ÑĢÐ¼
Ð¾ÑĤ ÑĤ
ÐĴ Ð¿ÐµÑĢÐ²ÑĭÐµ
ÐµÐ² Ð½Ð¾Ð²
Ð¸Ð² Ð°Ñı
ĠÐľ Ð°Ð²
ĠÐľ Ð°Ð»ÑĮ
ĠÐ¿ÑĢÐµÐ´ ÑĭÐ´
Ð¢ Ð¾Ð³Ð´Ð°
Ġ3 3
ĠÑģÐ¾Ð± Ð¸ÑĢÐ°
ĠÐ°Ð´ Ð²
ĠÑĢÐ°ÑģÐ¿ÑĢÐ¾ÑģÑĤÑĢÐ°Ð½ ÐµÐ½Ð¸Ñı
Ð»Ð¾ÑīÐ°Ð´ ÑĮ
ÐĲÐ² Ð³ÑĥÑģÑĤ
ĠÐ±ÑĥÐº Ð²Ñĭ
ĠÐ²ÐµÐ»Ð¸Ñĩ Ð¸Ð½Ñĭ
Ð´ Ð°Ð½
Ñĩ Ð¸ÐºÐ°
Ð¿ Ð°ÑĢÑĤ
Ð½Ð¾Ð² Ð¾Ð´
ÑĢÐ¾Ð´ ÑĥÐºÑĤ
ĠÐ¿ÑĢÐ°Ð² Ð¸Ð»
Ð¿Ð¾Ð» Ð½Ðµ
ĠÐ²ÑĤÐ¾ÑĢ Ð¾Ð¼
Ġ195 2
ĠN ew
ĠÐ°Ð± ÑģÑĤÑĢÐ°
Ð·Ð°Ð¿Ð°Ð´ Ðµ
ĠÐŁÐ°Ð¿ Ð°
ĠÐ² ÐµÐºÑĤÐ¾ÑĢ
ĠÑģ ÐµÑģÑģ
ĠÐ¾ ÐºÑģ
ĠÑĤ ÑĢÐµÑĤÐ¸Ð¹
Ð¸Ð¼ Ñĭ
Ð¸Ð¼ ÑĭÐµ
Ð°Ð² ÑĪÐ¸Ð¼
Ðŀ Ðŀ
ÐĲ Ð¹
ÐµÐ· Ð¶
ĠÑģÐ»ÑĥÑĩ Ð°ÐµÐ²
ĠÑĢÐµÐ¶ Ð¸Ð¼Ð°
ĠÑģÑĤÐ°ÑĤÑĮ Ðµ
ĠÑģÐºÑĥÐ»ÑĮ Ð¿ÑĤ
ÑĢÐ¸Ð± ÑĥÑĤ
Î ¬
ĠÑģ Ð½Ð¸Ð¼
ĠÑģÑĤ Ð¾Ð¸ÑĤ
Ð¾Ð¿ ÑĥÑĤ
Ðĺ Ðļ
Ð¸ÑĢ Ñĭ
ĠÐ¿Ð¾Ð»ÑĥÑĩ Ð°ÑİÑĤ
ĠÐ¿ÑĢÐµÐ·Ð¸Ð´ÐµÐ½ÑĤ ÑģÐºÐ¸Ñħ
ĠÐ¿Ð°ÑĢÑĤ Ð½
Ġ195 4
ÐŀÐ´ Ð½Ð¸Ð¼
ĠÐ¼Ð°ÑģÑģ Ð°
ĠÐĴÐ»Ð°Ð´ Ð¸Ð¼Ð¸ÑĢÐ¾Ð²
ĠÑĥÐ½Ð¸Ð²ÐµÑĢÑģÐ¸ÑĤ ÐµÑĤÐµ
ĠÐ»Ð¸Ð½ Ð¸Ð¹
ĠÐľÐ°ÑĢÐ¸ Ð¸
ĠÐ½Ð° Ð´Ðµ
ĠÐ¡ Ð¸
ĠÐ¾Ð± Ð¾
Ð½Ð° Ñģ
ĠÐ¿Ð¾ Ñı
ĠÐŁ Ð¸ÑĤ
Ð´Ð° Ñħ
ĠÑģÐ°Ð¼ Ð¾Ðµ
ĠÐ¾Ð±ÑĬ ÑıÐ²Ð»Ñı
ĠÐľÐ¾ÑģÐº Ð¾Ð²ÑģÐºÐ¸Ð¹
ĠÐµÐ´Ð¸Ð½ Ð¸ÑĨÐ°
ĠÐ´Ð¾Ð¼ Ðµ
ĠÑģÑĤÐ¾Ð» Ð¸ÑĨÑĥ
ĠÐ¼Ð¸Ð½Ð¸ÑģÑĤ ÑĢÐ°
ĠÐ¢ÑĥÑĢ Ðº
ĠÐľÐµÐ¶Ð´ÑĥÐ½Ð°ÑĢÐ¾Ð´ Ð½ÑĭÐ¹
ĠÐĲÐ»ÐµÐºÑģÐ°Ð½Ð´ÑĢÐ¾Ð² Ð¸Ñĩ
Ð· Ñĥ
Ð³ Ð¾ÑģÑĥÐ´Ð°ÑĢ
ÑĢÐ¸ ÐµÐ¹
Ð¾ÑĤ Ð²ÐµÑĤ
ĠÑĩ Ð¸Ð½Ð¾Ð²
Ð¾Ð¿ Ð¾ÑģÑĤÐ°Ð²
ĠÑģÐ² Ð¾Ð´
ÐĲ Ð¼
ĠÑĩÐ¸Ñģ Ð»Ñĥ
ĠÐ½Ð°ÑĢÐ¾Ð´ Ð½Ð¾Ð³Ð¾
ĠÐ½Ð°Ð·Ð² Ð°Ð»
Ð»Ð¾Ð¶ ÐµÐ½Ð¸Ñı
Ð°Ð²ÑĪÐ¸Ð¹ ÑģÑı
ĠÐľÐ°Ðº ÐµÐ´
ĠÐ²ÑģÐµÐ¼ Ð¸
ĠÐ·Ð°Ð»Ð¸ Ð²Ð°
F C
ĠÐ¿ Ð°Ð½
ÑģÐº Ñĥ
ÐµÑĤ Ð¸ÐºÐ¸
Ð¸Ð¹ ÑģÐºÐ¾Ð¼
19 14
19 23
ĠÐĳ Ð¾Ð½
ĠÑģÐ² ÐµÑĢÐ³
Ð°ÑģÑĤ Ð¾Ð²
ĠÐ¢ Ñİ
ÐµÐ»Ð¸ Ð½
ÑĥÐ½ Ð³
ÑĦÐ¾ÑĢÐ¼ ÑĥÐ»Ð¸ÑĢÐ¾Ð²
Ð»Ð°ÑĤ Ð¾Ð½
ĠÐ¼Ð°ÑĤÐµÑĢÐ¸ Ð°Ð»Ð¾Ð²
ĠÐºÐ¾Ð½ÑģÑĤÑĢÑĥ ÐºÑĤÐ¾ÑĢ
ĠÑģÐ¾Ð³Ð»Ð° ÑĪ
ĠÐ¿ÐµÑĢÐµÐ½ Ð¾Ñģ
ĠÐ§ÐµÑħ Ð¾ÑģÐ»Ð¾Ð²
ĠÐŀÑģÑĤ ÑĢÐ¾Ð²
ĠÐ¿Ð¾Ð²ÐµÐ´ ÐµÐ½Ð¸Ðµ
. );
0 9
Ð¾ ÑĨÐ¸Ðº
ĠÑģ ÑģÑĭÐ»
ĠÐ¿ÑĢÐ¸ Ð¼ÐµÐ½Ð¸
ÐµÑĢÐ° ÑĢ
ĠÐ¤ Ð»Ð°Ð²
Ðľ ÐµÑģÑĤ
ÐµÐ· Ð´Ð¾Ð²
ĠÐŃ Ð»Ð¸
on d
ĠÐ¿Ð¾ÑģÐ»ÐµÐ´ Ð½Ð¸Ñħ
ĠÐ¿Ð¾Ð¿ Ð°Ð´
ÑĭÐ²Ð° ÑİÑĤÑģÑı
ĠÐ¡Ð¾Ð²ÐµÑĤ ÑģÐºÐ¾Ð¹
ÐŁÐµÑĤ ÐµÑĢÐ±ÑĥÑĢÐ³Ð°
ĠÑĢÐµÐ³Ð¸Ð¾Ð½ Ð¾Ð²
ĠÐ½Ð°ÑĩÐ°Ð» Ñĥ
ĠÑģÑĬ ÐµÐ·Ð´
ÐĴÑģÐµ Ð³Ð¾
ĠÐ´ÐµÐ½ ÐµÐ³
ĠÐ½Ð°Ð¹ ÑĤÐ¸
ĠÐ»Ð¸Ð´ ÐµÑĢÐ¾Ð²
ĠÐ¿Ð¾Ð»ÑĥÐ¾ÑģÑĤ ÑĢÐ¾Ð²
ĠÐĲÑĢÐ¸ÑģÑĤÐ¾ÑĤ ÐµÐ»Ñı
ÐĿÐ°Ð· Ð²Ð°Ð½Ð¸Ðµ
Ñģ ÐµÐ»ÑĮ
Ð² Ð¾ÑģÑĤ
ÑĢÐ° ÑĪ
ĠÐ´ ÑĥÐ±
ĠÐ¾Ð± ÑģÑĤÐ¾ÑıÑĤÐµÐ»ÑĮ
ĠÐĴ Ð°ÑĪ
Ġ2 50
ĠÐĳ Ð¾
Ðĵ ÑĢÐ°Ð¶Ð´Ð°Ð½
ÑĨÐ¸Ð¾Ð½ Ð½Ð¾
ÐµÑĩ ÐµÐ½Ð¸Ñı
ÑıÐ½ ÑĥÑĤ
ĠÐºÐ¾Ð¼Ð¿ Ð¸Ð»Ñı
Ð³ÑĢÐ° Ð´Ðµ
ĠÐ²Ð¾ÑģÑĤÐ¾Ñĩ Ð½Ð¾Ð¹
ĠÐ½Ð°Ð¹ Ð´
ĠÑģÐ´ÐµÐ»Ð° Ð»
Ð¾Ð¼Ð¾Ð½ Ð¾ÑģÐ¾Ð²
c i
ĠÐ¸ Ð¾Ð½
ĠÑģ ÐµÐ²
Ð°ÑĤ Ð¾
ĠÐľ Ð°Ð´
Ðł Ð¾ÑģÑģÐ¸Ð¹
Ð½Ðµ Ð¿
Ð¾Ð»Ð¾Ð³ Ð¸ÑĩÐµÑģÐºÐ°Ñı
ĠÐ¼Ð¾ÑĢ ÑģÐºÐ¸Ñħ
ÑĦÐ¾ÑĢ Ð´
ĠÐ½ÐµÐ¼ÐµÑĨ ÐºÐ¾Ð³Ð¾
195 2
ĠÑĢÐ°Ð² Ð½Ð°
ĠÐ¼Ð½Ð¾Ð¶Ðµ ÑģÑĤÐ²
ĠÐ¿Ð°ÑĢÐ° Ð´
ÐºÑĢÐ°ÑĤ Ð½Ð°Ñı
ĠÐºÐ¾ÑĢÐ¾Ð»ÐµÐ² ÑģÑĤÐ²Ð°
ĠÐ¾ÑĤÐºÐ°Ð· Ð°Ð»ÑģÑı
ĠÑģÐ¿ÑĥÑĤ Ð½Ð¸ÐºÐ¾Ð²
Ðº Ð»
ĠÐ¿ Ð°Ð»ÑĮ
Ð± ÑĥÑĢÐ³Ð°
Ð¾Ð½ ÑģÐºÐ¾Ð¹
ĠÐ¼ ÑıÑĤÐµÐ¶
ÑĩÐµ Ð²Ð¸Ð´
Ð¸Ð· Ð¼Ñĥ
ĠÐ²Ñĭ ÑĢÐ¾Ñģ
Ðľ ÐµÐ¶Ð´
ÑĨÐ¸Ð¾Ð½ Ð½Ð¾Ðµ
ĠÐ¿ÑĥÑĤ ÐµÐ¹
ĠÑģÑĤÐ¾Ð» Ð¸ÑĨÐµ
ĠÐºÐ°Ð½ ÑĨ
ĠÐĴÑģ ÐµÐ»
ĠÐĿÐ¸ÐºÐ¾Ð»Ð° ÐµÐ²Ð¸Ñĩ
Ð¸Ð²Ð°Ð» ÐµÐ½ÑĤ
ĠÐĵÑĢÐ°Ð¶Ð´Ð°Ð½ ÑģÐºÐ¾Ð¹
ÐĶÐµÐ¿ ÑĥÑĤ
Ð¸ ÑĦÐ¸ÑĨÐ¸ÑĢÐ¾Ð²
Ð¾Ð» Ð°Ð³
ĠÐ¾ÑĤ Ð²ÐµÑĢ
ĠÐļ Ð°Ð²
Ð¸Ð² Ð½ÑĭÐ¼
ĠÐ·Ð° ÑĦÐ¸ÐºÑģ
Ðľ Ð°ÑĢÐ¸
Ð»ÐµÐ½ Ð½Ð¾ÑģÑĤÑĮ
ĠÐ¾ÑĢ ÐºÐµÑģÑĤ
ĠÐ¼Ð½Ð¾Ð³ Ð¾ÐºÑĢÐ°ÑĤ
195 3
ĠÐ°Ð» Ðº
e b
l in
ÑĢ Ð¾Ð³ÑĢÐ°Ð¼
Ð¸Ð² ÑĪÐ¸Ðµ
ĠÐ» Ðµ
ĠÐ²Ñĭ Ð·
ĠÐĳ Ð°
Ð°Ð³ Ð°Ð½
ÑĤÐ¸ ÑĦ
ĠÐ¸ÑģÐº Ð¾Ð¿
ĠÐ³ÑĢÑĥÐ¿Ð¿ Ñĥ
ĠÐ°ÑĢÑħ Ð¸Ð¿
ĠÐ¾Ð±Ñī Ð¸Ð½
of t
ĠÐ»Ð¸Ñĩ Ð½Ð¾ÑģÑĤÐ¸
ĠÐ¼Ð°ÑĪ Ð¸Ð½Ð¾ÑģÑĤÑĢÐ¾
ĠÐ¿ÑĢÐ¾Ð²Ð¾Ð·Ð³Ð»Ð°ÑĪ ÐµÐ½Ð°
p r
Ñĥ Ð»Ðµ
Ð² ÑĪÐ¸Ñħ
ĠÐ¼ Ð¸ÑģÑĤ
ĠÑĦ ÐµÐ¾Ð´
ĠÐĺ Ð»
ĠÐ¤ Ð¸Ð»
ĠÑĨ Ð²ÐµÑĤÐ°
ĠÐ¿ÑĢÐ¾Ð² ÑĳÐ»
ĠÐ·Ð°Ð² Ð¾Ð´Ð°
ĠÐ¾Ð±Ñī Ð¸Ð½Ñĭ
ĠÐ´ÐµÐ½ÑĮ Ð³Ð¸
ĠÑģÐ¿Ð¾ÑģÐ¾Ð± Ð½Ð¾ÑģÑĤÑĮ
ĠÐ²Ð¾Ð¿ÑĢÐ¾Ñģ Ð°Ð¼
ĠÐĽÑĥ Ð¸
ÐŁÑĢÐµÐ´ ÑģÑĤÐ°Ð²
ÐŀÑĢ Ð³Ð°Ð½
ÐĺÑģÐ¿ Ð¾Ð»ÑĮÐ·
ĠÐ±Ð»Ð¸Ð¶ Ð°Ð¹
Ñĥ Ð¶Ðµ
ĠÐ² Ð°Ð½
ĠÑģ Ð¾Ð¶
ĠÑģ Ð°Ð¼Ð¸
Ð°Ð½ ÑĩÐ¸Ð²
Ð¾ÑĤ Ñĥ
ĠÐŁ Ð°Ð»ÐµÑģÑĤ
19 12
ĠÐ¢ ÑĢÐ¸
ÐµÐ»Ð¸ Ð»
Ð¾Ð»Ð¾Ð³ Ð¸Ñİ
ÑĥÐ· Ð¾Ð²
Ġ4 8
ĠÐºÐ¾Ð» Ð»ÐµÐ´
ĠÑģÐ¾Ð·Ð´ Ð°Ð½Ñĭ
190 7
ĠÐ¾ÑĢÐ³Ð°Ð½Ð¸Ð· Ð¾Ð²Ð°Ð½
Ð¸ÑģÐ¿ÑĭÑĤ Ð°ÑĤÐµÐ»ÑĮ
ÑģÑĤ ÑĢÐ°Ð½
ĠÐ½ ÐµÑĢÐµÐ´ÐºÐ¾
ĠÐ¡ Ð¾Ð´
ĠÐ¡ Ð¾Ð»Ð¾Ð²
Ð¸ÑĩÐµ ÑģÑĤÐ²Ð¾
19 13
Ð¾Ñĩ Ð½Ð¾
ÐŁÑĢÐ¸ Ð½
Ð§ ÐµÐ»Ð¾Ð²
ĠÐ¾Ð±Ñī ÐµÐ¼
ĠÐºÐ¾ÑĢÐ¾Ð» ÐµÐ²Ð°
ĠÐĵÐµÑĢÐ¼ Ð°Ð½Ð¸ÐµÐ¹
ĠÐ¾Ð¿Ð¸Ñģ Ð°Ð½Ð¸Ðµ
0 7
ĠÐ³ ÐµÑĤ
ÐµÐ¼ Ð¾ÑģÑĤÐ¸
Ð¸Ñģ ÑģÐ°
ĠÐĵ Ð°Ð¼Ð±
ĠÐ²ÑĭÑģ Ð°Ð´
ĠÐ·Ð°Ð½ ÑıÐ»Ð¸
ĠÑĥÑĩÐ°ÑģÑĤ Ð½Ð¸ÐºÐ¾Ð²
195 1
ĠÐ°Ð´ ÑĢÐµÑģ
ĠÑĥÐ± ÐµÐ¶Ð´
ĠÐ²Ð¾Ð» Ð½Ñĭ
ĠÐ¿ÑĢÐ¸Ð² ÐµÐ»Ð¸
ĠÐºÐ¾ÑĢÐ°Ð± Ð»ÐµÐ¹
ĠÐ¼ÑĥÑĩÐµÐ½Ð¸ ÐºÐ°
ĠÐĵÐ² Ð¸Ð½Ðµ
ÑįÑĦ ÑĦÐ¸ÑĨÐ¸
Ð¿ Ð°Ð½
ÑĨ ÐµÑĤ
Ð¾Ð½ Ñģ
Ð¾Ð½ Ð¸Ñı
ĠÑĤ ÐºÐ°Ð½
ĠÐ¿ÑĢ Ð¾ÑģÑĮ
ĠÐľ Ñį
ĠÐ¿Ð¾ ÑıÑģ
ĠÐĶ Ð¾Ð±
ÑĥÑĩ ÐµÐ½Ð¸Ðµ
ÐĽ ÐµÐ½Ð¸Ð½
ĠÐ¾ÑĤÐºÑĢÑĭ ÑĤÐ°
Ð¦ ÐµÑĢ
ĠÐºÐ°Ð½ Ð°Ð»
ĠÐºÐ¾Ð¼Ð°Ð½Ð´ Ñĭ
ĠÐ¿ÑĢÐ¾ÑĪ Ð»Ð°
ĠÐ½Ð°ÑģÐ»ÐµÐ´ Ð¸Ñı
ĠÐ²ÐµÐ»Ð¸Ðº Ð¾Ð³Ð¾
ĠÐ§ÐµÑħ Ð¸Ð¸
ÐµÐ½ ÐµÐ²
ĠÐº ÑĢÐµÐ´
ĠÐº Ð¾Ð´Ð°
ĠÐ³ ÑĢÐ¸
ĠÐ° ÑĢÐ¸ÑĦÐ¼ÐµÑĤ
ĠÑģÑĤ Ð°Ð±Ð¸Ð»ÑĮ
ĠÐ¿ÑĢÐ¸ Ð³Ð¾ÑĢÐ¾Ð´
ĠÐľ Ð¸
ÑĢÐ°Ð½ Ð¶
19 27
19 26
ĠÐ²Ñĭ ÑĢÐ°Ð·
ĠÐĳ Ð°Ð²
ĠÐ¿ÑĢÐµ Ð¾Ð´
Ðĳ ÐµÐ·
ĠÐķ Ð³Ð¾
ĠÐ¿Ð¾Ð±ÐµÐ´ Ñĭ
ĠÑĢÐ°Ð´Ð¸ Ð¾ÑģÑĤÐ°Ð½
ĠÐ¿ÑĥÐ±Ð»Ð¸ Ñĩ
ĠÑĢÐ°ÑģÑģÑĤÐ¾Ñı Ð½Ð¸Ðµ
ĠÐ¼Ð¾ÑĤ Ð¾ÑĨÐ¸Ðº
ĠÐ²ÐµÑĢÑĤ Ð¾Ð»ÑĳÑĤ
ĠÑĢÐ¸ÑĤ Ñĥ
ÑĤ Ð¾Ð±Ñĭ
ÑĢÐµ Ð»
ÑģÑĤÐ² Ð¸Ð¹
ÑĤÐ° Ð±Ð°
ÑıÐ½ ÑĮ
ĠÐ£ Ñį
ĠÐ¿ÐµÑĢÐµÐ² Ð¾ÑĢÐ¾ÑĤÐ°
ĠÐºÐ¾ÑģÐ¼ Ð¸ÑĩÐµÑģÐºÐ¸Ñħ
ĠÐ¿Ð¾Ð´Ð´ÐµÑĢÐ¶ ÐºÐ¸
ĠÐ»ÑİÐ± Ð¾Ð²
ĠÑĥÑģÐ»Ð¾Ð² Ð¸Ð¹
ĠÐºÐ°ÑĢ Ð´Ð¸Ð½
ĠÐļÑĥÐ± ÐºÐ°
ĠÑĢÐµÐ²Ð¾Ð»ÑİÑĨÐ¸Ð¾Ð½ ÐµÑĢ
ÐľÐµÐ´ Ð°Ð»ÑĮ
ĠÐĿÐ¸Ð´ÐµÑĢÐ»Ð°Ð½Ð´ Ð¾Ð²
ĠÐ¸ÑģÑĩÐµ Ð·
ĠÑĦÐ¾Ð»ÑĮÐº Ð»Ð¾ÑĢ
ĠÑĢÐµÐºÐ¾ÑĢ Ð´
ĠÐ±Ð¾Ð¼Ð± Ð°ÑĢÐ´
A S
Ġ *
Ġ st
Ð² ÐºÐ»ÑİÑĩ
ĠÐ² ÑĢÐµÐ´
ĠÑģ Ð¶
ĠÐ³Ð¾Ð´ Ð¾Ð¼
ĠÐĴ ÑıÑĩÐµÑģ
ĠÐĳ Ð°Ñħ
Ðĳ ÐµÑĢ
ĠÐ§ Ð¸Ð»Ð¸
ĠM ic
ĠÑģÐµÐ¼ ÑĮÑı
ĠÐĴÐ»Ð°Ð´ Ð¸Ð²
ĠÐ½ÐµÐ´ ÐµÐ»Ð¸
ĠÐĴÐµÑĢÑħÐ¾Ð² Ð½ÑĭÐ¹
ĠÐ¿ÑĢÐ°Ð·Ð´ Ð½Ð¾Ð²
ĠÐ¿ÑĢÐ°Ð²Ð¾ÑģÐ»Ð°Ð² Ð½Ð¾Ð¹
ĠÑĤÐ²Ð¾ÑĢÑĩÐµ ÑģÑĤÐ²Ð°
ĠÑģÑĤÑĥÐ´ ÐµÐ½ÑĤÐ¾Ð²
ĠÑģÐ¸Ð½ÑĤ ÐµÐ·
ĠÐ´Ð¾ÑģÑĤÐ¸Ð³Ð° ÐµÑĤ
ĠÐ² Ð¿Ð¾Ð»Ð½Ðµ
ĠÑģ ÐµÐ»Ðµ
ĠÐº Ð³
ĠÐ± ÐµÐ»ÑĮÐ³
ĠÐ¾Ð± Ð»Ð°
ĠÑį ÑĦ
ĠÐ½Ðµ Ð¾Ð¿
ĠÐł ÑĥÐ´
Ðļ ÑĥÑĢ
Ð°ÑĤÐµÐ»ÑĮ Ð½Ð°Ñı
Ð¢ ÐµÐ»Ðµ
Ðĳ Ð¾Ð»
20 15
ĠÐ¶Ðµ Ð»Ð°
ĠÐºÐ½Ð¸ Ð³Ñĥ
ĠÐ·Ð´ ÑĢÐ°Ð²Ð¾Ð¾ÑħÑĢÐ°Ð½
ĠÐ°Ð½ÑĤ ÑĢÐ¾Ð¿
ĠÑıÐ² Ð»ÐµÐ½Ð¸Ð¹
ĠÐŀÐ± ÑĬÐµÐ´Ð¸Ð½
ĠÐ¿Ð¾ÑĢÑıÐ´ Ð¾Ðº
ĠÐ°Ð½Ð³ Ð»Ð¸Ñĩ
ĠÐ°ÑĢÐµÑģÑĤ Ð¾Ð²Ð°Ð½
ĠÑģÑĥÑĤ Ð¾Ðº
ĠÑģÐ»Ð¸ ÑĪÐºÐ¾Ð¼
ĠÐ½ÐµÐ¾Ð´Ð½ Ð¾ÐºÑĢÐ°ÑĤÐ½Ð¾
á ¿
Ġ r
ĠÐ ©
ĠÐ¿ Ð°Ð»Ðµ
Ð»Ðµ Ð³Ð°
ĠÐ¡ Ð°Ñħ
ĠÐ¾Ð± Ð½Ð¾Ð²
Ð¾Ðº Ð¾Ð¹
Ð¾Ð¿ ÑĢÐ¾Ñģ
ÐĿ ÐµÐ¿
ĠÐ¿Ð¾Ð´ Ñģ
ĠÐºÐ¾ÑĤÐ¾ÑĢ ÑĭÐ¼Ð¸
Ð¸Ñĩ Ð½Ð¾ÑģÑĤÑĮ
Ġ3 4
ĠÐ°Ð¼ÐµÑĢÐ¸ÐºÐ°Ð½ ÑģÐºÐ¾Ð¹
ĠÑģÑĢÐµÐ´ Ð½ÐµÐ³Ð¾
ĠÐ²Ð¾Ð´ Ñĥ
or ld
ĠÑĦÐ¸Ð»Ð¾ÑģÐ¾ÑĦ Ð¸Ñı
ĠÐ´Ð¾Ðº ÑĤÐ¾ÑĢ
Ġ189 6
ĠÐºÐ°Ð· Ð°Ñĩ
190 6
ĠÑĩÑĥÐ² ÑģÑĤÐ²
ĠÐĺÐ½Ð´Ð¾Ð½ÐµÐ· Ð¸Ð¸
ĠÑģ Ð½Ð¸Ð·
Ð°ÑĤ ÐµÐ»Ñİ
Ð£ Ð¶Ðµ
Ð¾Ð·Ð´ ÑĥÑĪ
ĠÐ¿ÑĢÐ¾Ð´ Ð¾Ð²Ð¾Ð»ÑĮ
ĠÑĢÐ°Ð² Ð½Ð¾Ð²ÐµÑģ
ĠÐ¾Ð¿ÐµÑĢÐ° ÑĨÐ¸Ð¹
ĠÑĦÐ¸Ð»ÑĮ Ð¼Ð°
ĠÐŀÑģ Ð½Ð¾Ð²
ĠÐĲÐ½ÑĤ Ð°ÑĢÐºÑĤ
ter n
Ð¼ ÐµÐ»ÑĮ
Ð¾Ð² ÐµÑī
Ð»Ñı Ñħ
ĠÑĥ ÑħÐ¾Ð´
Ð¸Ð» Ð¾Ð²Ð°
Ð°Ð»ÑĮ Ð½Ð¾ÑģÑĤÑĮ
ĠÐĳ ÑĥÑĤ
Ð½Ð¸ Ð³Ñģ
ĠÑĢ Ð¾Ð¶Ð´Ð°
ÑĢÐ¾Ð¼ Ð°
ĠÐ¾Ð±ÑīÐµ ÑģÑĤÐ²Ðµ
ĠÐµÐ´Ð¸Ð½ ÑģÑĤÐ²ÐµÐ½Ð½ÑĭÐ¼
193 1
ĠÐ´Ð¾ÑĢ Ð¾Ð¶
ĠÐ¿Ð¾ÑģÑĤÐ°Ð½Ð¾Ð² Ð»ÐµÐ½Ð¸Ðµ
ĠÐĳÐ¾Ð»ÑĮÑĪ Ð¾Ð¹
ĠÑĤÐµÐ¾ÑĢÐµÑĤ Ð¸Ðº
ĠÑĥÐ¿Ð¾Ð¼Ð¸Ð½ Ð°Ð½Ð¸Ðµ
ĠÑĥÐ»ÑĥÑĩ ÑĪ
Ð¿ Ð¾Ð²
ĠÐļ ÐĿÐĶÐł
ĠÐ¿Ð¾ ÑĩÐ¸ÑĤ
19 10
ĠÑı Ðº
ÑĥÐ½ ÑĮ
Ð£ ÐºÑĢÐ°
Ð¡ÑĤ Ð°ÑĢ
Ġ190 9
ĠÑģÑĤÑĢÑĥÐºÑĤ ÑĥÑĢ
ĠÐ°Ñį ÑĢÐ¾Ð´
ĠÐ½Ð°ÑģÑĤÑĥÐ¿ Ð»ÐµÐ½Ð¸Ðµ
ĠÐºÑĢÐ¾Ð² Ð¸
ĠÐĴÐ°ÑĢ ÑĪÐ°Ð²
ÐŁÐ°Ð¼ÑıÑĤ Ð½Ð¸Ðº
ĠÐ±Ð¸Ð· Ð½ÐµÑģ
ĠÑĪÐ²ÐµÐ¹ÑĨ Ð°ÑĢÑģÐºÐ¸Ð¹
Ġ et
Ð³ Ð¾ÑĤ
Ñĳ Ð¹
ĠÐ¡ Ð¸ÑĨÐ¸
Ð¸Ñħ Ð°
ĠÐ¾ÑĤ Ð¿
ĠÐļ Ð»Ð°
ÑĥÐ¼ ÐµÐ½ÑĤÐ°
ĠÐĶ Ñİ
ĠÐ¼Ð°ÑĢ ÐºÑģ
ĠÐ¿Ð¾Ð»Ð¸ÑĤ Ð¸ÐºÑĥ
ĠÑįÐ»ÐµÐºÑĤ ÑĢÐ¾Ð²
ĠÐ²ÐºÐ»ÑİÑĩ Ð°ÑİÑĤ
ĠÑĪÐºÐ¾Ð» Ðµ
ĠÐ²ÑĭÑģÑĤÑĥÐ¿ Ð°ÐµÑĤ
Ð½Ð¸ÑĨ ÐµÐ¹
Ð¸Ð²ÑĪÐ¸Ð¹ ÑģÑı
Ð´ÐµÐ»Ðµ ÐµÐ²
ĠÐ¿ÑĢÐµÑģ Ð»ÐµÐ´
ĠÐ¸Ð·Ð±Ð¸ÑĢÐ°ÑĤ ÐµÐ»ÑĮ
ĠÑģÐ¾ÑĢ ÐµÐ²Ð½Ð¾Ð²
/ /
o og
Ðµ Ð³Ð°
ĠÐ² Ð¾Ð¶Ð´
ĠÑģ Ð¼Ðµ
ĠÐ½Ð° ÐºÐ°Ð·
ĠÐ¡ ÐµÐ½ÑĤ
ĠÐ¿ÑĢÐ¸ Ð¼
ĠÐ½Ðµ Ð·Ð½Ð°Ñĩ
Ð¸Ñĩ Ð¸
ĠÑĢÐ°ÑģÐ¿ Ð¾Ð»Ð°Ð³
ĠÑĢÐ°Ñģ ÑĩÑĳÑĤ
or m
ĠÑĥÑģ Ð¸Ð»
ĠÐºÑĢÑĥÐ¿ Ð½ÑĭÐ¹
ĠÐ¼Ð¾Ð´ ÐµÑĢÐ½
ÐŁÐµÑĢÐ² ÑĭÐ¼
ĠÑģÐ¾ÑģÑĤÐ°Ð²Ð»Ñı Ð»Ð°
ĠÐ±ÐµÑģÐ¿ Ð»Ð°ÑĤ
ex t
ĠÐµÐ³Ð¸Ð¿ ÐµÑĤ
ĠÐŁÐ»ÑĥÑĤ Ð°ÑĢÑħ
S O
ĠÑģ Ð´
Ñĳ Ðº
ĠÐ¾ÑĤ Ð±
ĠÐĴ ÑģÐµÑĢÐ¾ÑģÑģÐ¸Ð¹
ĠÐ¿Ð¾Ð´ ÑĢÐ¾Ð±
Ð¸Ñĩ Ð½ÑĭÐ¼
Ðĵ Ð¾Ð»
Ġ3 7
ĠÑģÐ°Ð¼ ÑĭÐµ
ÐĹ ÐµÐ¼
er n
er t
ĠÑģÐ¾ÑģÑĤÐ¾Ñı Ð»Ð¾ÑģÑĮ
ĠÑĥÐ³ Ð»ÐµÑĢ
Ġ189 0
ĠÐ¿ÑĢÐ¾Ð³ ÑĢÐµÑģÑģ
Ð¤ÑĢÐ°Ð½ ÑĨÐ¸Ñı
ĠÐ´Ð¾Ñĩ ÐµÑĢÐ¸
ĠÐ¿ÐµÑĢÐµÐ³Ð¾Ð²Ð¾ÑĢ Ñĭ
ĠÐ»Ð°Ð± Ð¾ÑĢÐ°ÑĤÐ¾ÑĢ
ĠÑĢÐµÐ± ÑĳÐ½
e ing
ĠÐ¿ ÑģÐµÐ²Ð´
ĠÑģ Ð°Ñħ
Ð¸Ð½ Ð³Ð¾Ð²
ĠÐļ Ð°Ð½ÑĤ
ĠÐļ Ð°ÑĢÐ¸
Ð¸Ð² Ð½Ð¾ÑģÑĤÑĮ
Ðĳ ÑĥÐ´
Ð¸Ð¿ Ð°ÑĤ
ĠÐŃ Ð»
ÐĿÐ° ÑĥÑĩ
ĠP ro
ĠÐĿÐ¾Ð² Ð°Ñı
ĠÐĹÐµÐ¼ Ð»Ðµ
ĠÑģÐ¾ÑĨÐ¸Ð°Ð»ÑĮ Ð½ÑĭÑħ
ĠÐ°Ð»ÑĮ ÑĤÐµÑĢÐ½Ð°ÑĤÐ¸Ð²
ĠÑĥÑĩÑĢÐµÐ¶Ð´ ÐµÐ½Ð¸Ð¹
ĠÐ²ÑģÐµÐ¼ Ð¸ÑĢ
ĠÐ¸Ð·Ð»ÑĥÑĩ ÐµÐ½Ð¸Ñı
Ð¾Ð¿ÑĢÐµÐ´ ÐµÐ»
Ã ¼
Ġ ÏĦ
Ð± Ð°Ñģ
ĠÐº Ð¸ÑĢÐ¸
ĠÑĤ Ð°ÑĤÐ°ÑĢ
Ð¸Ð½ ÑĨÐµÐ²
ÐµÐ¼ Ðµ
ĠÐ¾ÑĤ ÐµÑĩÐµ
Ð½Ð¸Ðº Ð¾Ð²Ð°
ÐĶ ÐµÐ¹ÑģÑĤÐ²
ĠÐ´ÑĢÑĥÐ³ Ð¾Ð³Ð¾
ĠÐ¸Ð¼Ð¿ ÑĥÐ»ÑĮ
190 4
ĠÐ¸Ð½Ð´ ÐµÐ¹
ĠÐ½Ð°Ð·Ð½Ð°Ñĩ ÐµÐ½Ð¸Ñı
ĠÑĦÐ¸Ð»ÑĮ Ð¼Ðµ
ĠÐĺÑĤ Ð°Ð»Ð¸
ĠÑģÑĤÐ¸Ñħ Ð¾ÑĤÐ²Ð¾ÑĢ
ĠÐ½Ð¾Ð¼ ÐµÑĢ
ÐµÐ»ÑĮÐ´ Ð¼Ð°ÑĢ
ĠÐ° ÑĢÐ¸ÑģÑĤ
ÐµÐ² Ð°Ñı
ĠÐ¿Ð¾Ñģ Ð»ÑĥÐ¶
Ð¸ÑĢÐ¾Ð² Ð°Ð»Ð°
ĠÐ¾ÑģÐ½Ð¾Ð² Ð¾Ð¹
Ð°Ð¿ Ð¿
ÑĥÑħ Ð¾Ð²
ĠÐ¿Ð¾Ð² ÑģÑĤÐ°Ð½
ĠÐ¾ÑĤÐºÑĢÑĭ Ð»
ĠÐ½ÐµÐ¼ÐµÑĨ ÐºÐ¾Ð¹
ĠÐ·Ð² ÑĥÑĩ
ĠÐºÐ¾Ð¼Ð°Ð½Ð´ Ð¸ÑĢ
ĠÑģÑĥÐ± Ð±Ð¾ÑĤ
ĠÐºÐ¾Ð»Ð¾Ð½ Ð¸
ĠÐ¶Ð¸Ð²Ð¾Ð¿Ð¸Ñģ Ð¸
ĠÐŀÑģÐ¼Ð°Ð½ ÑģÐºÐ¾Ð¹
ĠÐºÐ¸Ð½ÐµÐ¼Ð°ÑĤ Ð¾Ð³ÑĢÐ°ÑĦ
Ðº Ð°Ð»
ĠÐº Ð°ÑĢÑĮ
ÐµÑĤ Ð¸ÐºÐ°
Ð°Ð² Ð°ÑĤÑĮ
ĠÐ¿ÑĢÐ¸ ÑģÑĤÑĥÐ¿
ĠÐĶ ÐµÐº
ĠÐĽ Ð¸Ð±
ĠÑģÐ¾Ð²ÐµÑĤ ÑģÐºÐ¸Ðµ
Ġ6 00
ÑģÑĤÐ²Ð¾Ð² Ð°ÑĤÑĮ
ĠÐ²ÐµÐ´ Ð¾Ð¼
ĠÐ¿ÑĢÐ°ÐºÑĤ Ð¸ÐºÐµ
ĠÐ±Ð°Ð½ ÐºÐ°
ĠÐºÐ¾Ð½ÑĤÑĢÐ¾Ð» Ñı
ĠÐ¡Ð¾Ð» Ð½ÐµÑĩ
ĠÐ½Ð°Ð±Ð»ÑİÐ´Ð° ÐµÑĤÑģÑı
ĠÐºÐ°ÑĦ ÐµÐ´
ĠÐ° ÐºÑģÐ¸Ð¾Ð¼
ĠÐ¿ÑĢÐ¸ ÐºÐ»Ð°Ð´
ĠÐ¿Ð¾Ð» Ð½Ð¾Ð¹
ĠÐ¢ Ð¸Ð±
ĠÐ°ÑĢ Ð³ÐµÐ½ÑĤ
ĠÐ¥ Ð¾Ð»
on t
ĠÐ¿Ð¾Ð»Ð¸ÑĤ Ð¸ÑĩÐµÑģÐºÐ¸Ðµ
ÑĭÐ² Ð°Ð»
ĠÐ°Ð½Ð³Ð»Ð¸Ð¹ ÑģÐºÐ¾Ð¼
ĠÐ±Ð¾Ð³ Ð°
ĠÐ¿ÑĢÐ¾ÑĨÐµÑģÑģ Ñĭ
ĠÑĥÐ¿Ð¾Ð¼Ð¸Ð½Ð° ÐµÑĤÑģÑı
ĠÐ½Ð°Ð³ÑĢÐ° Ð¶Ð´
ĠÐ¨Ð¾ÑĤ Ð»Ð°Ð½Ð´Ð¸Ð¸
u st
ĠÐ² ÐµÐ½
ĠÑģ Ð½ÑıÑĤ
ĠÐº Ð»Ð°Ð²
ÐµÐº Ð¾Ð¼
Ð¸ÑĨ Ð¸ÐµÐ¹
Ð¸ÑĨ Ð¸Ð·Ð¼Ð°
Ð¼Ð¿ Ð¸ÑĢÐ¸
ĠÑģÐ¾ÑħÑĢÐ°Ð½ Ð¸Ð»Ð¸ÑģÑĮ
ĠÐ¿ÑĢÐµÐ² Ð¾Ñģ
ĠÐĴÑģ ÐµÐ²
ĠÐ²Ð¾Ð·Ð³Ð»Ð°Ð² Ð¸Ð»
Ġ ).
ĠÐ´ Ñĥ
Ð¡ Ð¢
ĠÑĢÑĥ ÐºÐ¸
ĠÐºÐ¾Ð¼Ð¿ Ð°Ð½Ð¸Ð¹
ĠÐ¸ÑģÐ¿Ð¾Ð»ÑĮÐ· ÑĥÐµÑĤ
in t
ĠÐ¡ÑĤ Ð¾Ð»ÑĭÐ¿
ĠÐ´Ð¸ Ð°Ð¿Ð°Ð·
ÑģÐ¾Ð² ÐµÑĤ
ĠÐ¼Ð°ÑģÑģ Ð¾Ð²Ð¾Ð¹
ĠÑĢÑĥÐºÐ¾Ð²Ð¾Ð´ ÑģÑĤÐ²Ð¾
ĠÑģÐ¸Ð½ ÑĤÐ¾
ĠÐŀÑĢ Ð³Ð°Ð½
ĠÐ¾ÑĤÐº Ð»Ð¾Ð½
ĠÐ¼Ð¾Ð· Ð³Ð°
ĠÐºÐ¾Ð¾ÑĢÐ´Ð¸Ð½ Ð°ÑĤ
Ð±Ð»Ð¸Ð· Ð¸
ĠÐ¿ÑĢÐµÑģÐ²Ð¸ÑĤ ÐµÑĢÐ°
ĠÐĺÐ³Ð¾ÑĢ ÑĮ
ÑĩÑĳÑĢ Ðº
Ġ e
Ñı Ð½Ð¾Ð¹
Ð³ ÑĥÐ±ÐµÑĢÐ½
ÑĢÐµ ÑĪ
Ð»Ðµ ÐºÐ°
ĠÐĴ Ð°ÑĤ
ĠÑĢÐµ ÐºÐ°
Ðŀ Ð±Ñĭ
Ð¼ÐµÑĢ ÑĤÑĮ
ĠÐ²Ñģ ÐµÐ¼Ñĥ
Ġ3 8
ĠÐ® Ð³Ð¾
ĠÐ·Ð°Ð¿ ÑĥÑģÐº
ĠÐ³ÑĢÐ° Ð´
ĠÑģÐ²ÑıÐ· Ð°Ð½Ð°
ĠÑĦÐ¸Ð»Ð¾ÑģÐ¾ÑĦ Ð°
ĠÐ¾ÑĤÐºÑĢÑĭÑĤ ÑĭÐ¹
ĠÑģÐ¾Ð´ÐµÑĢÐ¶ Ð°ÑĤ
ĠÐĴÐ°Ñģ Ð¸Ð»Ð¸Ñı
ĠÐĵÐµÐ½ ÑĢÐ¸
ĠÐµÐ²ÑĢÐµ ÐµÐ²
ĠÐ½Ð¸Ð´ÐµÑĢÐ»Ð°Ð½Ð´ ÑģÐºÐ¸Ð¹
ÐŀÐºÑĤ ÑıÐ±ÑĢÑĮ
r i
Ð´ Ð¾Ð½
ĠÐ² ÑĢÑĥÑĩ
ĠÑĥ ÐºÐ°Ð·ÑĭÐ²
Ð¸Ñģ Ð¾Ð²
ĠÑĦ Ð»Ð°Ð³Ð°
ĠÐĳ Ð°ÑĤ
ĠÐ¶ Ð¸ÑĤÐµÐ»Ð¸
ĠÐ¿Ð¾Ð´ Ð½Ð¸Ð¼
ĠÐ´Ðµ Ð»ÑıÑĤ
ĠÐ¥ Ð¾ÑģÐµ
ĠÐ°Ð¼ÐµÑĢÐ¸ÐºÐ°Ð½ ÑģÐºÐ¸Ñħ
ĠÐ¿ÑĢÐµÐ´ÑģÑĤÐ°Ð² Ð»ÐµÐ½Ð¸Ðµ
ĠÐ¡ÑĤ Ð°Ð½
ĠÐ´Ð¸ Ð°Ð³
ĠÐ¼Ð½Ð¾Ð³ Ð¾Ð¼
Ð°ÑĤÐ¾ÑĢ Ð¾Ð¼
ĠÐ¿ÑĢÐ¸Ð½Ñı Ð»Ð°
ĠÐ¾Ð±Ð»Ð°ÑģÑĤ ÐµÐ¹
ĠÐ¿ÑĢÐµÐ´ÐµÐ»Ð° Ð¼Ð¸
ĠÐŁÑĢÐµÐ·Ð¸Ð´ÐµÐ½ÑĤ Ð°
Ð±Ñİ ÑĢÐ¾
Ð¾ÑĢÐ¾ Ð°ÑģÑĤ
ĠÐ¿Ð¾Ð»ÐºÐ¾Ð²Ð¾Ð´ ÐµÑĨ
ĠÐĲÐ½Ð°ÑĤÐ¾Ð» Ð¸Ð¹
ĠÐ¼Ð¾ÑĢÐµÐ¿ Ð»Ð°Ð²
Ð¼ ÑĭÑģ
Ð¾Ð½ ÑĮ
Ð¶ Ð½ÑĭÑħ
Ð°ÑĢ Ð¾Ð²Ð°
19 16
ĠÐ¸Ð¼ Ð¼Ð¸
al ign
ĠÐ¿ÑĢÐ¸Ð½ÑıÑĤ Ð¸Ñı
ÑģÐµÐ´ Ð°ÑĤÐµÐ»ÑĮ
ÐĺÑģÑĤ Ð¾Ñĩ
Ð½Ð¸ÑĨ Ñĥ
ÐĳÐ¾Ð»ÑĮÑĪ Ð°Ñı
ĠÑģÑĬ ÐµÐ·Ð´Ð°
ĠÐ¿ÑĢÐµÐ¾Ð±ÑĢÐ°Ð· Ð¾Ð²Ð°Ð½Ð¸Ñı
ĠÑĢÐµÑģÑĥÑĢ ÑģÐ¾Ð²
ind ows
Ġ <
ÑĢ ÑĭÐ¹
ÑĤ ÑĢÐ¾Ð¿
Ñĥ ÐºÐ¸
ÐĴ ÑĤÐ¾ÑĢ
ÑĥÐ´ Ð¸
ĠÐĿ ÑĮÑİÑĤ
ĠÑģÐ¸ÑģÑĤÐµÐ¼ Ð°ÑĤ
ĠÐĵÐµÑĢÐ¼ Ð°Ð½
ĠÐ³ÑĢÐ°Ð½ Ð¸ÑĨÑĥ
ĠÑĢÐ°ÑģÐ¿ÑĢÐ¾ÑģÑĤÑĢÐ°Ð½ ÐµÐ½Ñĭ
Ġ189 7
Ġ189 9
ĠÐ²Ð¾Ð¿ÑĢÐ¾Ñģ Ñĥ
Ð»ÐµÐº ÑģÐ°
ĠÑģÑĤÐµÐ¿ ÐµÐ½ÑĮ
ÑĥÐ¶Ð´ ÐµÐ½Ð¸Ñı
ĠÑģÐ¾ÑĨÐ¸Ð°Ð»ÑĮ Ð½Ð¾
ĠÐ¿ÑģÐ¸Ñħ Ð¾Ð»Ð¾Ð³Ð¸Ð¸
ĠÐ½Ð°Ð·ÑĭÐ²Ð°ÐµÐ¼ ÑĭÐ¹
ÑĥÑĢÐ¾Ð² ÐµÐ´
ĠÐĶÐµÐ¼ Ð¾ÐºÑĢÐ°ÑĤ
ĠÐ·Ð°ÑĢ ÑĥÐ±ÐµÐ¶
ĠÐºÐ°Ð»ÐµÐ½Ð´ Ð°ÑĢÑĮ
s k
Ð¾ Ð¾ÐºÐµ
Ð½ Ð¾ÑĢ
Ñģ Ð¾ÑİÐ·
ĠÑģ ÑĦÐ¾ÑĢÐ¼ÑĥÐ»Ð¸ÑĢÐ¾Ð²
Ñİ Ð½ÑĮ
Ð»Ðµ Ð¿
ĠÐļ Ð°Ð¼Ð±
Ð½Ð¸Ðº Ð°Ð¼
ÐµÐ· Ð´Ñĭ
ĠÐ¸Ð½ÑĤ ÐµÑĢÐ½ÐµÑĤ
ĠÐ¾Ð¿ÑĢÐµÐ´ ÐµÐ»Ð¸ÑĤÑĮ
ĠÐ½Ð°ÑħÐ¾Ð´ Ð¸Ð»Ð¸ÑģÑĮ
ĠÐ¾Ð´Ð¸Ð½ Ð°ÐºÐ¾Ð²
ĠÑįÐºÐ¾Ð½Ð¾Ð¼ Ð¸ÐºÐµ
ĠÑħÐ°ÑĢÐ°ÐºÑĤ ÐµÑĢÐ°
ĠÐ·Ð² ÑĥÐº
ĠÐ¸ÑģÐ¿Ð¾Ð»ÑĮÐ·Ð¾Ð² Ð°Ð»
ĠÐ¸ÑģÐ¿Ð¾Ð»ÑĮÐ·Ð¾Ð² Ð°ÑĤÑĮÑģÑı
ĠÑĢÐ°Ð½ Ð½Ð¸Ñħ
ĠÑģÐ»ÐµÐ´ÑĥÑİÑī Ð¸Ð¼
ĠÐ¿ÑĢÐ¾Ð¸ÑģÑħ Ð¾Ð¶Ð´ÐµÐ½Ð¸Ðµ
ĠÐĿÐ°ÑĨÐ¸Ð¾Ð½Ð°Ð»ÑĮ Ð½ÑĭÐ¹
ÐĺÐ½ Ð¾Ð³Ð´Ð°
ĠÐ²Ð² ÑĳÐ»
ĠÑĥÐºÐ°Ð·ÑĭÐ²Ð° ÐµÑĤ
Ñı ÑīÐµÐ³Ð¾
ĠÐº Ð¸Ð¿
ĠÐº Ð°Ð²Ð°Ð»
ÑĢÐ¸ ÑĨÑĭ
ÐµÑĤ ÑĤ
Ð¸Ð¼ Ð¸ÑĤ
ĠÐļ ÐµÐ½Ð½
ĠÑį ÑĢÑĭ
ĠÐĳ Ð°Ð±
ĠÐĿ Ð°Ð²
ĠÐ²Ð¾Ð¹ ÑģÐºÐ¾
ÐĹ Ð´
ĠÐ¸Ð¼Ðµ Ð»Ð°
ĠÐ²Ð¾Ð´ Ðµ
ĠÑĪÐº Ð¾Ð»ÑĮ
ĠÐ·Ð°ÑĤ ÑĢÑĥÐ´
Ð½ÑĮ ÑĪÐµ
ĠÑģÑĭ Ð½Ð¾Ð²
ĠÐĹÐµÐ¼ Ð»Ñı
ĠÐĴÐ°Ð» ÐµÑĢÐ¸Ð¹
ĠÐ½ÐµÑĦÑĤ ÐµÐ¿
ĠÐ¤ÐµÑĢ Ð´Ð¸Ð½
ĠÐ¿ÑĢÐµÐ²ÑĭÑĪ Ð°ÐµÑĤ
ĠÐļÐ°Ð»Ð¸Ð½Ð¸Ð½Ð³ÑĢÐ°Ð´ ÑģÐºÐ¾Ð¹
Ð¼ÑĥÐ·Ñĭ ÐºÐ°Ð½ÑĤ
Ð°Ð½Ð´Ð¸Ð½ Ð°Ð²
S t
Ð½ Ð¸Ð½
ĠÐ¿ ÐµÐ½Ñģ
ÐµÐ½ ÑģÐºÐ°Ñı
Ñĩ Ð»ÐµÐ½
ĠÐ´ ÑĢÑĥÐ·
Ð»Ð° Ð¶Ð´
Ð¸Ð» Ñĭ
ĠÐ¿ÑĢÐµÐ´ Ð»Ð°Ð³Ð°
Ð¸Ñĩ Ð½Ð¾Ð³Ð¾
ĠÐ£ Ð½Ð¸Ð²ÐµÑĢÑģÐ¸ÑĤ
ĠÐ¿ÑĢÐµÐ´ÑģÑĤÐ°Ð² Ð»ÐµÐ½Ð°
Ġ190 1
ĠÐ¿Ð¾Ð´Ð´ÐµÑĢÐ¶ Ð¸Ð²
Ġ189 8
ĠÐ¿ÐµÑģ Ð½Ñı
ĠÐĵÐµÑĢ ÑĨ
ĠÐ½Ð°Ñĥ ÐºÐµ
ĠÐ·Ð¾Ð»Ð¾ÑĤ Ð¾
ĠÐ¿ÑĢÐ¸Ð½Ð¸Ð¼ Ð°ÐµÑĤ
Ð¾Ð¿ÑĢÐ¸ ÑıÑĤ
ĠÐ¿Ð¾Ñį ÑĤÐ°
ĠÐ¿ÐµÑĩÐ°ÑĤ Ð¸
ĠÐľÑĥÑħÐ°Ð¼ Ð¼
ĠÐ°Ð²Ð¸Ð°Ðº Ð¾Ð¼Ð¿
ĠÐ½ÐµÐ³ Ð°ÑĤÐ¸Ð²
ĠÐ¡Ð²ÑıÑī ÐµÐ½Ð½Ð¾Ð¹
ÐŃÑĤÐ¸Ð¼ Ð¾Ð»Ð¾Ð³Ð¸Ñı
ÐĸÐµÐ»ÐµÐ·Ð½Ð¾Ð´Ð¾ÑĢÐ¾Ð¶ Ð½ÑĭÐ¹
Ġ '
Ñĥ ÑĦ
Ð¾Ð» Ð¾Ð¼
ÑĢÐ¸ Ð°Ð½
ĠÐ° Ð»ÑİÐ¼Ð¸Ð½
ĠÑĢÐ° Ð½ÑĮÑĪÐµ
ÐĴ Ð¿Ð¾ÑģÐ»ÐµÐ´ÑģÑĤÐ²Ð¸Ð¸
ÑĢÐ°Ð½ Ð¸Ñı
ĠÐĵ Ð¸ÑĤ
ĠÑĨ ÐµÐ»ÑıÑħ
ĠÑĨ Ð¸Ð²Ð¸Ð»Ð¸
Ð°ÑĢÑĤ Ð°Ð¼
ĠÐĹ ÐµÐ²
Ġ4 4
ĠÑĢÐ°Ð±Ð¾ÑĤ Ð°ÑİÑĤ
ĠÐ¾Ð±ÑīÐµ Ðµ
ĠÐ³ÑĢÑĥÐ¿Ð¿ Ðµ
ĠÐ½Ð°Ð·ÑĭÐ²Ð° ÑİÑĤÑģÑı
ĠÐ¿Ð¾Ð´Ð´ÐµÑĢÐ¶ ÐºÐµ
ĠÑģÐ¾ÐµÐ´Ð¸Ð½ ÐµÐ½Ð¸Ñı
Ð½Ð°ÑģÑĤ Ð°Ñģ
ĠÐ¼Ð°ÑĢÑĪ ÑĢÑĥÑĤ
ĠÐĵÑĥ ÑģÑĤÐ°Ð²
ĠÐ¡Ð¼ Ð¾Ð»
ĠÑĤÐµÑħÐ½Ð¾Ð»Ð¾Ð³ Ð¸Ð¹
ĠÐ¨Ð²ÐµÐ¹ÑĨ Ð°ÑĢÐ¸Ð¸
V I
Ð¼ ÑĥÑĤ
ĠÑĤ Ñĳ
ĠÐ° Ð²Ð°
ĠÑģÑĤ Ð¸Ð»ÑĮ
ĠÐļ Ð¾
ĠÐĲ Ñģ
ÑģÐ¿ Ð¾Ð½Ð´
ÑĨÐ¸ Ð´
ÐµÐº ÑģÑĥ
ÐĲ ÑĦ
ĠÐĽ ÑĥÐºÐ°
ĠÐŃ ÑĦÐ¸Ð¾Ð¿
Ð¼Ñĭ Ð½
ĠÐ²ÑĤÐ¾ÑĢ Ð¾Ðµ
Ð´ÐµÑĢÐ¶ Ð¸Ð²
ĠÐ¿Ð¾ÑĢ ÑĥÑĩ
ĠÐ²ÑĭÑģÐ¾Ðº Ð¾
ĠÐ¾Ð±ÑĬÑıÐ² Ð¸Ð»Ð°
ĠÐ·Ð°Ñħ Ð²Ð°
Ð±ÑĥÑĢÐ³ Ðµ
ĠÐ¿ÑĢÐ¾Ð¿ Ð¾ÑĢ
ĠÑĢÑĥÐ± ÐµÐ¶
Ð°Ð²ÑĪÐ¸Ñħ ÑģÑı
Ð¢ÐµÑĢ ÑĢÐ¸ÑĤÐ¾ÑĢ
ĠÐľÐ¸ÑħÐ°Ð¹Ð»Ð¾Ð² Ð¸Ñĩ
ĠÐºÐ¸Ð»Ð¾Ð¼ÐµÑĤ ÑĢÐ¾Ð²
ĠÑģÐ°Ð¹ ÑĤÐµ
Ð¡ Ð¡Ð¡Ðł
ĠÐ¾Ð± Ð¾ÑĢÐ¾ÑĤ
ĠÐľ Ð¾Ð¶Ð°Ð¹
Ðł Ð¾Ð¼
Ð¢ ÑĢÐ°Ð½ÑģÐ¿Ð¾ÑĢÑĤ
ĠÐ¿Ð¾Ð² ÐµÐ´ÐµÐ½Ð¸Ñı
ÐŀÐ± ÑīÐµ
Ġ190 2
ĠÐľÐ°ÑĢ ÑĪÐ°Ð»
ĠÑĤÐµÐºÑģÑĤ Ð¾Ð²
ra m
ĠÑģÐ¾ÑĩÐ¸Ð½ ÐµÐ½Ð¸Ñı
Ð¾Ð³Ð¾Ð½ ÑīÐ¸Ðº
ÑĤÐµÑĢÑĢÐ¸ÑĤÐ¾ÑĢ Ð¸
Ð¼ Ð°Ñħ
ĠÑģ ÑĨÐµÐ½
Ñĳ ÑĢÐ¾Ð²
Ð°Ð² ÑĤ
Ðļ Ð¸Ð½Ð¾
ĠÑĢÐ°Ð· ÑĢÐ°Ð±Ð°ÑĤÑĭ
ĠÐ¢ Ð°Ðº
Ð°Ð¿ Ð°
Ð¸Ð½Ð¾ Ñĩ
ĠÐ²ÑĭÑģ ÑĪÐ¸Ñħ
ĠÐ³Ð»Ð°Ð² Ð½Ð¾ÐºÐ¾Ð¼Ð°Ð½Ð´
ĠÐ¤ÑĢÐ°Ð½ ÑģÑĥÐ°
ĠÑĢÐ°Ð·Ð»Ð¸Ñĩ Ð½ÑĭÐ¼Ð¸
ĠÐ¿ÑĢÐ¾ÑĨ ÐµÐ´
ĠÑĤÐ¾Ñĩ Ð½Ð¾
ĠÐ²ÑĭÑģÐ¾Ðº Ð¸Ñħ
ĠÐºÐ°Ð½ Ð°Ð»Ð°
ĠÐ¸Ð´Ðµ Ñı
Ð½Ð¾Ñģ Ð»Ð°Ð²ÑıÐ½
ĠÐ·Ð½Ð°ÑĩÐ¸ÑĤÐµÐ»ÑĮ Ð½Ð¾Ð¹
ĠÐ¾Ð¿ÑĥÐ±Ð»Ð¸ÐºÐ¾Ð² Ð°Ð»
ĠÐ¿Ð¾Ð¿ÑĭÑĤ ÐºÐ°
ĠÑĤÑĢÐ°Ð´Ð¸ÑĨÐ¸Ð¾Ð½ Ð½Ð¾
ĠÐ¿ÑĥÐ½ÐºÑĤ Ñĭ
ÑĢ Ð¾ÑģÑģ
Ð² Ð°ÑĢÑĮ
ĠÐ» ÐµÐºÑģ
ĠÐ¶ ÐµÐ½Ð¸
ĠÐĺ ÑĢÐ°Ð½Ð°
ÑĢÐ¾Ð¼ ÐµÑĤ
ĠÑģÐ» ÑĥÑĪ
Ðķ Ð¡
ĠÑĨÐµÐ½ÑĤ ÑĢÐ¾Ð²
ĠÐ¿ÐµÑĢÐµÐ² ÐµÐ´
ĠÐ²ÑĭÐ¿ Ð°Ð´
ĠÐºÐ¾Ð½ÑģÑĤÐ¸ÑĤÑĥ ÑĨÐ¸Ñı
ĠÐľÐ°ÑĤ ÐµÑĢÐ¸
ĠÐ¿ÑĢÐ¸Ð¾Ð± ÑĢÐµÑĤ
ĠÑģÐ¸ÑĤÑĥÐ° ÑĨÐ¸Ð¸
ĠÐŁÑĥÑĤ Ð¸Ð½
ÐŁÑĢÐ°Ð²Ð¾ÑģÐ»Ð°Ð² Ð½ÑĭÐµ
Ñģ Ð¾ÐµÐ´Ð¸Ð½
Ð¾Ð² ÑģÐºÐ¾Ð¹
Ð¶ ÐµÐ´
ĠÐ± Ð¾ÑĤÐ°Ð½
Ð¡ ÐµÐ½ÑĤ
ÐµÐ² Ð¾
ĠÐļ Ñį
ĠÐ¾Ðº Ð¸Ñģ
Ð¸Ð½Ð³ ÑĤÐ¾Ð½
ĠÑĢÐ°ÑģÑģ ÑĩÐ¸ÑĤ
ĠÐ¸Ð·Ð¼ÐµÐ½ ÐµÐ½Ð¸Ð¹
ĠÑħÑĢÐ¸ÑģÑĤÐ¸Ð°Ð½ ÑģÑĤÐ²Ð°
ĠÑĤÑĢÐµÐ± ÑĥÐµÑĤ
ĠÐ¿ÑĢÐµÐ´Ð»Ð¾Ð¶ ÐµÐ½Ð¸Ðµ
oog le
l a
Ã ¡
ĠÑģ ÐºÐ¾Ð½Ñĩ
ÐµÑĢ Ð¿
ĠÐĳ ÑĥÐ»
ĠÑħ Ð»ÐµÐ±
ĠÐ¥ Ð°Ð½
ĠÑĥÑĩ Ð¸Ð»Ð¸ÑīÐµ
ĠÐĹ Ð°
Ġ4 3
ĠÐºÐ¾ÑģÐ¼ Ð¸ÑĩÐµÑģÐºÐ¸Ð¹
ĠÐ¿Ð¾Ð³ Ð»Ð¾Ñī
ĠÐ»ÑİÐ± Ð¾Ð³Ð¾
ĠÑģÐ²ÑıÑĤ Ð¸ÑĤÐµÐ»Ñı
ĠÐºÐ¾Ð¼Ð¸ÑģÑģ Ð¸Ð¸
ĠÐ·Ð°Ð³ÑĢÑı Ð·Ð½
ÐĴÑĭÐ¿ÑĥÑģÐº Ð½Ð¸ÐºÐ¸
ĠÐ¡Ð¾Ð´ ÑĢÑĥÐ¶Ðµ
e y
Ð¾Ð» Ð³Ð¾
ĠÑĤ Ð¸
Ð°ÑĢ Ð½Ð°Ñı
Ñį ÑĤÐ°
ÐµÐ½ÑĤ Ðµ
Ðł Ð¾ÑģÑĤ
ÑĥÑģ Ð¾Ð²
ĠÐ¾Ð´ Ð½Ð¾Ð¼Ñĥ
Ð¸ÑĢÐ¾Ð² ÐºÐ°
20 22
Ð³ÑĢÐ° ÑĢ
ĠÐ¿Ð¾Ð¼ Ð¸Ð¼Ð¾
ĠÑĥÑĩÐ°ÑģÑĤ Ð¸Ñı
ĠÐ¸Ð½ÑĤÐµÑĢ ÑĦ
ÑĩÐ°ÑģÑĤ ÑĥÑİ
ĠÑĥÑĩÑĢÐµÐ¶Ð´ ÐµÐ½Ð¸Ñı
Ð¾ÐºÐ¾Ð¼ Ð¾ÑĤ
ĠBo eing
yth on
O S
ÑĤ Ð°Ð²
ĠÐ¿ ÐµÑħ
ÑģÐº Ð¾Ð»ÑĮÐºÐ¾
Ð°ÑĢ Ð¾Ð¼
Ġ1 30
Ñĳ Ð¶Ð¸
ÐŁ Ð°ÑĢÐ°
ĠÐ¿ÑĢÐ¸ Ð·ÑĭÐ²
ĠÐĳ Ð°Ð³
Ðĺ Ð¼Ðµ
ĠÑĪ ÐµÑģÑĤÐ¸
ĠÑģÐ¿ ÐµÑĨ
ÑĢÐ¾Ð¿ Ð¾Ð»
Ð°ÑİÑī ÑĥÑİ
ĠÐ¼Ð¾Ð½ ÐµÑĤÑĭ
ĠÐ´Ð¾Ð¼ Ð¾Ð²
ĠÐ¸Ð³ ÑĢÐ¾Ðº
ĠÐºÐ¾ÑĢÐ°Ð± Ð»ÑĮ
ĠÐ¾Ð¿ÑĢÐµÐ´ÐµÐ»Ñı ÐµÑĤ
ĠÐ¿ÑĢÐ¾Ð¿ Ð°Ð³
ĠÐķÐ³Ð¸Ð¿ ÐµÑĤ
ĠÐ¼ÑĥÑĩÐµÐ½Ð¸ ÐºÐ¾Ð²
ĠÑĦÐµÐ´ÐµÑĢÐ°Ð»ÑĮ Ð½Ð¾Ð³Ð¾
ĠÐĳÐ¾Ð»ÑĮÑĪ Ð¾Ð³Ð¾
ĠÑĥÑģÐ¿ÐµÑĪ Ð½Ð¾
ĠÑĢÐ°ÑģÐ¿Ð¾Ð»Ð°Ð³Ð° ÐµÑĤÑģÑı
ĠÐ¿Ð¾Ð·Ð½ Ð°Ð½Ð¸Ñı
ÐŀÑĦÐ¸ÑĨÐ¸Ð°Ð»ÑĮ Ð½ÑĭÐ¹
ÐľÐ¸Ñħ Ð°Ð¸Ð»
ĠÐ½Ð° Ð²
ĠÐ· Ð¾
Ð¾Ð± Ð¾ÑĢÐ¾ÑĤ
ÐµÐ¹ ÑģÐºÐ¾Ð¹
ĠÐ½Ðµ ÑĢÐ°Ð²
ÑĬ ÐµÐ·Ð´
ÐµÐ»Ðµ Ñģ
ĠÐ¿Ð¸Ñģ Ð°ÑĤÐµÐ»ÐµÐ¹
ĠÑİ ÑĢÐ¸ÑģÑĤ
ĠÐ²Ð¾Ð´ Ð¾Ð¹
ĠÐ²Ð¾Ð´ Ð¾ÑĢÐ¾Ð´Ð°
ĠÐ³Ð»Ð°Ð² Ð½Ð¾Ð¹
Ð¸ÑĢÐ¾Ð²Ð°Ð½ Ð½Ð¾Ð³Ð¾
ĠÑģÐ»ÑĥÐ¶ Ð±Ñĥ
ĠÑĪÐºÐ¾Ð» Ñĥ
ĠÐ±Ð¸ Ð¾Ð³ÑĢÐ°ÑĦ
ĠÐļÐ¾Ð¼ Ð¼ÑĥÐ½Ð¸ÑģÑĤ
ĠÐŁÐµÑĢ Ñĥ
ĠÐ¾ÐºÑĢÑĥÐ¶ Ð°ÑİÑīÐµÐ¹
ĠÐķÐ³Ð¸Ð¿ ÑĤÐµ
ation al
ĠÑģÐ¼ÑĭÑģ Ð»
ĠÐ¿ÐµÑĢÐµÐ½ ÐµÑģ
ĠÐ³Ð» Ð¾Ð±ÑĥÑģ
ÑİÐ½ Ñħ
ĠÐ¿Ð¸ÑĤ Ð°Ð½Ð¸Ñı
ĠÐ²ÑĭÑĤ ÐµÑģ
ĠÐĿÐ°Ñĩ Ð°Ð»Ð¾
Ï ħ
Ñı Ð»Ð¸ÑģÑĮ
ĠÑģ Ð°Ð½Ðº
Ñħ Ð¾Ð¶Ð´ÐµÐ½Ð¸Ñı
ĠÐ¼ Ð°Ð¼
Ñĳ ÑĢÑĭ
ÐŁ ÑĥÑĤ
ĠÐļ Ð°Ð²ÐºÐ°Ð·
ÐĿ Ð¾Ð²ÑĭÐ¹
Ðĺ Ð¼ÐµÐ½Ð¸
ĠÐŀ Ð´
ĠÐºÐ¾Ð¼ ÐµÐ´
Ð¾Ð²Ð°Ð½ Ð½ÑĭÐµ
ĠA l
ĠP h
ic a
ĠÐ°Ð´ ÑĢÐµ
Ð²Ð°ÑĤ ÐµÐ¼
ĠÐ¸ÑģÐ¿Ð¾Ð»ÑĮÐ·Ð¾Ð² Ð°Ð»Ð¸ÑģÑĮ
ĠÐ´Ð¾Ð± ÑĢÐ¾Ð²Ð¾Ð»ÑĮ
ĠÑĥÑĤÐ²ÐµÑĢÐ¶Ð´ Ð°ÐµÑĤ
ĠÐ¿Ð¾ÑĢÑĤ ÑĢÐµÑĤ
ĠÐ¾ÐºÐ¾Ð½Ñĩ Ð¸Ð»
ĠÐ´Ð°Ð² Ð»ÐµÐ½Ð¸Ñı
ÐļÐ¾Ð¼ Ð¼ÐµÐ½ÑĤ
ĠÐĺÐ·ÑĢÐ° Ð¸Ð»ÑĮ
ĠÐŃÑĢ Ð½
C O
ĠÐ´ ÑĥÐ¼
ÐĴ Ð·
ÐµÐ´ Ñĭ
ĠÐĳ ÑĢÐ°Ð½
ÐĲ Ð·
Ð»Ñİ Ð·
ÐĹ Ð°Ð²
Ð²ÐµÐ´ ÐµÐ½Ð¸Ñı
ĠA r
ĠÐ½Ð°Ð¿ÑĢÐ°Ð² Ð»ÐµÐ½Ð¸Ðµ
ĠÑģÐ¾Ð» Ð¸
ĠÐĳÐ¾Ð» Ð¸Ð²
ĠÐµÐ²ÑĢÐ¾Ð¿ÐµÐ¹ ÑģÐºÐ¾Ð¹
ĠÑģÐ¾ÑĨÐ¸ Ð°Ð»
ĠÐ´Ð¸ÑĢÐµ ÐºÑĤ
ĠÐ¿ÑĢÐµÐ´Ð¿ÑĢÐ¸Ð½Ð¸Ð¼ Ð°ÑĤÐµÐ»ÑĮ
ĠÐ¼ÐµÑĤÑĢÐ¾Ð¿Ð¾Ð»Ð¸ÑĤ ÐµÐ½Ð°
ĠÐ¤ÑĢÐ°Ð½ÑĨ Ð¸ÐµÐ¹
ĠÐ´Ð¸ÑĦ ÑĦÐµÑĢ
Ð± Ð°Ñħ
Ð³ Ð¸Ð½
Ð¾Ð¼ Ð¾Ð½Ð¾Ñģ
Ð»ÑĮ Ð½Ð¾
ĠÐ¸Ð· Ð²
ĠÐł Ðµ
ÐĿ Ð°Ð³ÑĢÐ°
ĠÐ¤ ÑĢÑįÐ½
ÐµÐ· Ð°Ð²Ð¸ÑģÐ¸Ð¼
ÐĿÐ° ÑĩÐ¸Ð½
ĠÐ¾Ð±ÑĢÐ°Ð· ÑĥÑİÑĤ
at e
ĠÑģÑĤÐ¾Ð» Ð¸ÑĨÐ°
ĠÑģÑĤÐ°ÑĤ ÐµÐ¹
ĠE n
ĠÑħÐ¾ÑĢ Ð²Ð°ÑĤ
ĠÐ»Ð¸ÑĨ ÐµÐ½Ð·
ĠÐ¼ÐµÑĤÐ°Ð» Ð»Ð¾Ð²
ĠÐ±Ð¸Ð±Ð»Ð¸Ð¾ÑĤÐµÐº Ð¸
ĠÑĨÐ¸ ÑĢ
ĠÐ² Ð°Ð»
Ð»ÑĮ Ð½ÑĭÐµ
Ð»Ð° Ð¼Ð°
ĠÐľ Ð°Ñģ
19 00
Ð¾Ñĩ Ð½Ð¾Ð³Ð¾
ĠÐ¤ Ð¸Ð´
ĠÐ¤ ÐłÐĵ
ĠÑĥÑĩ ÑĳÑĤ
ĠÑĥÑģÑĤ ÑĢÐ¾
ĠÐ¿Ð¾Ð¿ ÑĢÐ°Ð²
Ð¢Ð°Ðº Ð¸Ðµ
ĠÐ¿ÐµÑĢÐµ ÑĪÐ»Ð°
ÑĭÐ² Ð°Ð»Ð¸
ĠÐºÐ°ÑĩÐµ ÑģÑĤÐ²Ð°
ÐŁÐµÑĢÐ² Ð¾Ð½Ð°Ñĩ
ĠÐ¶ÑĥÑĢ Ð½Ð°Ð»
ĠÐĺÑĤ Ð°Ð»Ð¸Ñı
ĠÐŁÐ°Ð² Ð»Ð¾Ð²
ĠÐ½Ð¾Ñģ Ð¸ÑĤ
ĠÐ»ÑĥÑĩ ÑĪÐµ
ĠÐ¿ÑĢÐ¸Ð± Ð»Ð¸Ð¶
ĠÐ·Ð°Ð¸Ð¼ ÑģÑĤÐ²
Ñģ ÑĢÐµÐ´
ĠÐ¿ Ð°Ð½Ðº
ĠÐ° ÑģÐ¿ÐµÐºÑĤ
ĠÐ¡ Ð°Ð»ÑĮ
ĠÐ» Ð°Ð²
ĠÐ·Ð° ÑĩÐ°ÑģÑĤÑĥÑİ
ĠÐ¿ÑĢÐµ ÐµÐ¼
ĠÐ£ Ñĩ
Ġ4 2
Ðķ Ñĳ
Ð¡ÑĤ Ð¾Ð»
ÑĦÐ¾ÑĢÐ¼ Ð°ÑĤ
Ð¸Ñī Ð°
ĠÐ¿Ð¾ÑģÑĤÑĢÐ¾ ÐµÐ½Ð°
ĠÐ´Ð¾Ð¿ ÑĥÑģÐº
ĠÐ¿Ð°ÑĢÐ»Ð°Ð¼ÐµÐ½ÑĤ Ðµ
ĠÐĽÑĥ Ð½Ñĭ
ÐµÐºÑģ Ð¸ÐºÐ°Ð½
ĠÐ²ÑĭÐ¿Ð¾Ð»Ð½ ÐµÐ½Ð¸Ñı
ÐĵÐ¾ÑģÑĥÐ´Ð°ÑĢ ÑģÑĤÐ²Ð°
iv e
ÐĻÐ¾ÑĢ Ðº
ĠÐ»ÐµÐ¶ Ð¸ÑĤ
ĠÐ»ÑİÐ´ ÑĮÐ¼Ð¸
ĠÑģÐµÐ· Ð¾Ð½
m ent
Ġ &
ĠÑģ ÑĩÐ°ÑģÑĤ
ÑĨ Ð¸Ð½Ð°
ÐµÑĤ Ñĥ
ÑĦ ÐµÐºÑĤ
ĠÐ± ÑĢÐ°ÑĤÐ°
ÐŁ Ð°
ĠÐľ Ñĥ
ĠÐ¿Ð¾ ÐµÐ·Ð´Ð°
ĠÐł Ð°Ð¹
ĠÐ¿Ð¾Ð´ ÑĩÑĳÑĢÐº
ĠÐ¿ÑĢÐ¾ÑĤ Ð¾ÐºÐ¾Ð»
Ð»Ð¾Ð¶ ÐµÐ½Ð¸Ðµ
Ġ195 1
ÑĭÐ² Ð°Ð»Ð¾ÑģÑĮ
un g
ÐŁÑĢÐ°Ð² Ð¸ÑĤÐµÐ»ÑĮÑģÑĤÐ²Ð¾
ĠÑĢÐµÐ¹ ÑĤÐ¸Ð½Ð³
ĠÑĤÐ¾Ð² Ð°ÑĢÐ¾Ð²
ĠÐ¿ÑĢÐ¾Ð» Ð¸Ð²
B S
ÐµÑĢ ÑģÑĤÐ²Ð¾
ĠÑĤ ÐµÐº
ĠÐ± ÐµÑĢÐµÐ³Ð°
ÐµÐ¼ ÐµÑĢÐ¾Ð²
ĠÐĴ Ð°Ð»ÑĮ
ĠÐºÐ¾Ð¼ Ð±Ð¸Ð½
ĠÐĹ Ð¾Ð»Ð¾ÑĤ
ĠÐ¿Ð¾ÑģÑĤ Ð°
ĠÐ¼ÐµÑģÑĤ Ð½ÑĭÐµ
Ð¸ÑĢÑĥ ÑĢÐ³
ĠÑĩÐµÐ¼Ð¿Ð¸Ð¾Ð½ Ð°ÑĤÐ°
ĠÑĦÐ¸Ð· Ð¸ÑĩÐµÑģÐºÐ¸Ñħ
ĠÐ²ÑĭÐ¿ ÑĥÑģÐºÐ°
ĠÐ·Ð°ÐºÐ»ÑİÑĩ Ð°ÐµÑĤÑģÑı
ĠÐ¿ÑĢÐ¸Ñĩ Ð¸Ð½Ðµ
ĠÐ¿ÑĢÐµÑģÑĤ Ð¾Ð»Ð°
ĠÐ¶Ð°Ð½ ÑĢÐ°
ÐľÐµÐ¶Ð´ÑĥÐ½Ð°ÑĢÐ¾Ð´ Ð½ÑĭÐµ
ÐĺÐ¼ÐµÐ½Ð¸ Ð½Ñĭ
ÑĦ ÑĥÐ½
Ð¸Ð½ Ð°Ð¼Ð¸
Ñį Ð½ÑĮ
ÐĴ ÑģÐºÐ¾ÑĢÐµ
ĠÐŁ Ð¾Ñĩ
Ð¸ÑģÑĤ Ð°Ð¼Ð¸
Ðł Ð°Ð´
ĠÐ¸Ð¼ ÐµÐ½Ð°
Ðľ ÑĥÐ·ÐµÐ¹
Ð½Ð¾Ð¼ ÐµÑĢ
ĠÐ¾ÑģÐ½Ð¾Ð² Ð°Ð»
ĠÐĹ Ð°Ð¿
Ġ6 4
ĠÐ¿Ð¾ÑģÐ»ÐµÐ´ Ð½ÐµÐµ
ĠÑģÐ¸Ð» Ð¾Ð¹
ĠÐºÐ°Ð½ Ð¾Ð½
Ð¸ÑĤÐµÐ»Ñı Ð¼
Ð¿Ð¾Ñģ Ð»Ðµ
ĠÐ¾Ñħ Ð¾ÑĤ
ĠÐ¾Ð· ÐµÑĢÐ°
ĠÐ¿ÑĥÑĤÐµÑĪÐµ ÑģÑĤÐ²ÐµÐ½Ð½Ð¸Ðº
ĠÐĲÐ·ÐµÑĢÐ±Ð°Ð¹Ð´Ð¶ Ð°Ð½Ð°
ĠÐĴÑĮÐµÑĤÐ½Ð°Ð¼ Ð°
ĠÐ°ÑĢÑħÐµ Ð¾Ð»Ð¾Ð³
Ð¡ÐµÑĢÐ³ ÐµÐ¹
ĠÐ¿ÑĮ ÐµÑģ
ĠÑįÑģÐ¿ÐµÑĢÐ°Ð½ ÑĤÐ¾
ĠÐ¸ Ð½ÑĭÑħ
Ð¾ÑĢ Ð¾ÑĪ
Ġ1 25
ĠÐŁ ÐµÑĢÐ¼
ÑĢÐ°Ð² Ð½Ð¸Ð²
Ð¸ÑĤÐµÐ»ÑĮ Ð½ÑĭÐ¼Ð¸
ĠÐ¸Ð¼ ÐµÐ²
ÐĶ Ð¾Ðº
Ðĺ Ð²Ð°Ð½
ĠÑĩÐ°ÑģÑĤ Ð½ÑĭÑħ
ĠÐ²ÑĭÑģ ÑĪÐµÐ³Ð¾
ĠÑħÐ¸Ð¼ Ð¸ÑĩÐµÑģÐºÐ¸Ñħ
ĠÐ¾Ð±ÐµÑģÐ¿ÐµÑĩ ÐµÐ½Ð¸Ðµ
ĠÐ³Ð¾Ð²Ð¾ÑĢ ÑıÑĤ
ĠÐºÑĢÐµÐ¿ Ð¾ÑģÑĤ
ĠÐ²ÑĭÐ½ÑĥÐ¶Ð´ ÐµÐ½
ÐĴÐ¾Ð¹ Ð½Ð°
ĠÐłÑĥÐ¼ÑĭÐ½ Ð¸Ð¸
ÐłÐ° Ð±Ð¾ÑĤ
Ð´ Ñı
ĠÐ¸ Ð½Ð¾Ð¹
Ð¾Ð» Ñĩ
ĠÐ´ Ð¾Ð½
Ð»Ñı Ð»Ð¸
Ð¾Ð± ÐµÐ´Ð°
ÐĴ Ð°Ñģ
Ð½Ð¸Ðº Ñĥ
ĠÐ¿Ð¾Ð» ÑĥÑĪ
ÐĿ Ð¸
ĠÐ¿Ð¾Ð² Ð¾Ð´Ñĥ
ĠÐ½ÐµÐºÐ¾ÑĤÐ¾ÑĢ Ð¾Ðµ
ĠÑģÐ»ÑĥÐ¶ Ð¸ÑĤ
ĠÐ¸ÑģÑĤÐ¾Ñĩ Ð½Ð¸ÐºÐ¾Ð¼
ĠÐ¼Ð¾Ð»Ð¾Ð´ ÑĳÐ¶Ð¸
ĠÑĥÑĩÐµÐ± Ð½ÑĭÑħ
ĠÐ±Ð¾ÐµÐ² ÑĭÑħ
ÑĢÐ¸ ÑĢÑĥ
ĠÐ´ ÑĢÑĥÐ³Ð¾Ðµ
Ð¸Ð½ ÑģÐºÐ¾Ð¼
ÐŁ Ð¾Ð·Ð´Ð½ÐµÐµ
ĠÐ¿ÑĢÐ¾ÑĤ Ð¾Ðº
ĠÐ¼ÐµÑĤ Ð¾Ð´Ð°
ĠÑģÑĥÐ´ Ñĭ
ĠÐ¤ÑĢÐ°Ð½ Ñģ
ÐĲÑĢ Ð¼
ĠÐ¶ÐµÐ»ÐµÐ· Ð½ÑĭÑħ
ĠÐ¾Ð±Ð»Ð°Ð´Ð° ÑİÑĤ
ĠÑĩÐµÑĢÑĤ Ñĭ
ĠÐºÐ¾Ð½ÑĨÐµÐ¿ ÑĨÐ¸Ð¸
ÐĻÐ¾ÑĢ ÐºÐµ
ĠÐ¥Ð°ÑĢÑĮ ÐºÐ¾Ð²
ÐŁÐ¾Ð· Ð¶Ðµ
ĠÐ² ÐµÑĢÑĭ
ÑĨ ÐºÐ°Ñı
Ð¶ Ð°Ð½
Ð¸Ð² Ð½Ð¾ÑģÑĤÐ¸
ĠÐĵ ÑĥÐ¼
ĠÐŀ Ð»ÐµÐ³
ĠÑĩÐ¸Ñģ Ð»Ð¾Ð¼
ÑĥÑī ÐµÐ¹
Ð¥ Ð¸Ð¼
Ġ8 00
ĠÐ¤ÑĢÐ°Ð½ Ðº
ĠÑģÐ¾Ð²ÑĢÐµÐ¼ÐµÐ½ Ð½ÑĭÐµ
ĠÑĤÑĢÑĳÑħ ÐºÑĢÐ°ÑĤÐ½ÑĭÐ¹
ĠÐ¿ÑĢÐ¾ÑģÑĤ ÑĭÑħ
ĠÐ°Ð¼ Ð¼Ð¸
ĠÐ±ÐµÐ»Ð¾ÑĢÑĥÑģ ÑģÐºÐ¸Ð¹
ĠÐĴÐ°ÑģÐ¸Ð»ÑĮ ÐµÐ²Ð¸Ñĩ
ĠÑĢÐ¸Ñģ ÑĥÐ½
u e
ÑĮ ÑģÑı
Ð»Ð¸ Ð½Ðµ
ĠÐ´ Ð¾Ñģ
Ð¸Ð½ ÐºÐ¸
Ð»Ñı ÑĨÐ¸Ð¸
Ðł ÑıÐ´
ÐĿ Ð¾Ð²Ð°Ñı
Ð¾Ñı Ð²
ÐĹ Ð°Ðº
ĠÐ¸ÑģÑĤÐ¾ÑĢ Ð¸ÑĩÐµÑģÐºÐ¾Ð¹
ĠÐ¡ÑĤ Ð¸Ð²
Ð§ ÐµÑĢ
or y
Ð¯ Ð¿Ð¾Ð½
ĠÐ²ÑĭÑģÐ¾Ðº Ð°Ñı
Ġ188 0
Ð® Ð¶
ĠÐ¿ÑĢÐµÐ´ÑģÐµÐ´ Ð°ÑĤÐµÐ»ÐµÐ¼
ĠÐ¼Ð°ÑĢÑĪ Ð°Ð»
ÐļÐ¾ÑĢ Ð¾Ð»ÑĮ
ĠÐ·Ð°Ð± Ð°ÑģÑĤÐ¾Ð²
ĠÐ¿Ð¾Ð»Ð½Ð¾Ð¼Ð¾Ñĩ Ð¸Ð¹
ĠÑĢÑĥÐº Ð¾Ð¿Ð¸Ñģ
ĠÑĩÐµÑĪ ÑģÐºÐ¸Ð¹
ĠÐŁÑĥÑĪ ÐºÐ¸Ð½Ð°
ĠÐºÑĢÐ¸ÑģÑĤ Ð°Ð»
ĠÑģ ÑĦÐµÑĢÐ°
Ñħ Ðµ
ĠÐ´ ÑĥÐ¼Ñĭ
Ð½Ð¾ Ñĩ
Ð°ÑĢ ÑģÐºÐ¾Ð³Ð¾
Ð¸Ñģ Ðµ
ĠÐļ Ð°Ð´
Ð¾Ðº ÑĢÐ¾Ð²
ĠÑĢÐµ Ð¿ÑĢÐµÑģÑģ
ĠÐ¾Ñģ Ð²ÐµÑī
Ðĵ ÐµÐ½
ĠÐ³Ð¾ÑĢÐ¾Ð´ Ñĥ
ĠÐĹ Ð²
ĠÐĹ Ð¸Ð¼
ĠÑĢÐ°ÑģÐ¿ Ð°Ð´Ð°
ĠÐ¿ÑĢÐ¸Ð½ ÑıÑĤÑĮ
ĠÐ¿Ð¾ÑįÑĤ ÐµÑģÑģÐ°
ĠÐ±ÑĥÐ´ ÑĥÑīÐµÐ³Ð¾
ĠÐ¿Ð¾Ð³ ÑĢÐ°Ð½Ð¸Ñĩ
ĠÐ³Ð¾Ð» Ð»Ð°Ð½Ð´
ĠÑĢÐµÐ¶ Ð¸ÑģÑģ
ÑĩÐ¸Ñģ Ð»ÐµÐ½Ð¸Ñı
190 3
ĠÐ¿ÑĢÐ¾Ð¼ÑĭÑĪÐ»ÐµÐ½ Ð½ÑĭÑħ
ĠÐ²Ð¾Ð¿ÑĢÐ¾Ñģ Ð¾Ð²
ĠÐĲÐ» Ð±
ĠÑĢÐ¾Ð¼ Ð°Ð½Ð°
ĠÐºÐ¾Ð½ÑģÑĤÑĢÑĥ Ðº
ĠÐĶÐ¼Ð¸ÑĤ ÑĢÐ¸
ĠÑĢÐµÑĦÐµÑĢÐµÐ½Ð´ ÑĥÐ¼
ĠÑįÐ»ÐµÐºÑĤÑĢÐ¾Ð¼ Ð°Ð³Ð½Ð¸ÑĤ
ĠÐºÐ¸ÑĢÐ¸ Ð»Ð»Ð¸
u re
Ð¾Ð¹ ÑĤÐ¸
ĠÐ¼ ÐµÐ¼Ð¾ÑĢÐ¸
ĠÐ¡ Ð°ÐºÑģ
ÐµÐ² ÑĭÐµ
ĠÐ¾ÑĤ Ð¼ÐµÐ½Ð¸
ĠÐľ Ð¸Ðº
ĠÐŁ Ð¾Ð³Ð¸Ð±Ð»Ð¸
19 11
Ðļ ÑĢÐ¸ÑĤ
ĠÐºÐ»Ð°ÑģÑģ Ð¾Ð²
ĠÐ·Ð² Ð°Ð½Ð¸Ñı
ĠÐ¸ÑģÐ¿Ð¾Ð»ÑĮÐ·Ð¾Ð² Ð°Ð»Ð¸
ĠÐĽÑİ ÐºÑģ
ĠÐ¾Ð±Ð»Ð°ÑģÑĤ ÑıÑħ
ĠÐ·Ð°Ð³ Ð¾Ð²Ð¾ÑĢ
ĠÐ²Ð»Ð°ÑģÑĤ ÑĮÑİ
ÐĿÐ°ÑĩÐ¸Ð½ Ð°Ñı
Ð² ÑģÐµ
ÑĮ ÐµÐ²Ð°
ĠÐ± Ð¾ÑĢÑĤ
Ð°Ð² ÑĪÐ¸ÐµÑģÑı
ÐĴ Ð°Ð»
ÐĿ Ðĺ
Ðľ Ð°Ðº
Ġ3 9
ĠÑģÐ¾Ð·Ð´ Ð°Ð½Ð¾
ĠÑįÐºÐ¾Ð½Ð¾Ð¼ Ð¸ÑĩÐµÑģÐºÐ¸Ñħ
ĠÐĽÑİ Ð±
ĠÐ¸Ð½ÑĦÐ¾ÑĢÐ¼Ð° ÑĨÐ¸Ñİ
ĠÐ¾ÐºÐ°Ð· Ð°Ð»Ð¸ÑģÑĮ
ĠÐ²Ð²ÐµÐ´ ÑĳÐ½
ĠÐ¾ÑĤÐ¼ÐµÑĩ Ð°ÐµÑĤ
ĠÐ¿ÑĤ Ð¸ÑĨÑĭ
ĠÐ¼Ð¾ÑĤ Ð¸Ð²
ĠÐ¿Ð¾Ð»Ð½Ð¾Ð¼Ð¾Ñĩ Ð¸Ñı
ĠÐ¿ÑĢÐ¾Ð²Ð¾Ð·Ð³Ð»Ð°Ñģ Ð¸Ð»
ĠÐ¿Ð¾Ð»ÑĥÐ¾ÑģÑĤ ÑĢÐ¾Ð²Ð°
ĠÐŁÑĢÐ°Ð²Ð¸ÑĤÐµÐ»ÑĮ ÑģÑĤÐ²Ð°
ĠÐ¢ÑĥÑĢÐº Ð¼ÐµÐ½Ð¸
Ã ¤
Ðµ Ð¶Ðµ
19 15
ĠÑĢÐ°Ð· Ð±Ð¸ÑĤ
ÐĶ ÐµÐ¼
ÐºÐ¾Ð½ ÐµÑĨ
20 19
ĠÐ¸ÑģÑĤ ÑĢÐµÐ±
ĠÑģÐ¾Ð± ÑģÑĤÐ²ÐµÐ½Ð½Ð¾
ĠÑģÐ¾Ð·Ð´ Ð°Ð½Ð¸Ñİ
ĠÐ²Ð¾Ð´ Ð¾
ĠÐºÐ°Ð· Ð°ÐºÐ¾Ð²
ĠÐ¸Ð·Ð¼ÐµÐ½ ÐµÐ½Ð¸Ðµ
ĠÑģÐ¾ÐµÐ´Ð¸Ð½ ÐµÐ½Ð¸Ð¹
ĠÐ´Ð²Ð¾ÑĢ ÐµÑĨ
ĠÐ¿Ð»ÐµÐ¼ ÑĳÐ½
ĠÐ¾ÑģÐ½Ð¾Ð²Ð¾Ð¿Ð¾Ð»Ð¾Ð¶ Ð½Ð¸Ðº
ĠÐ¿ÑĢÐ¸ÑĪ Ð»Ð¾ÑģÑĮ
T A
ÑĢÐ° Ð½Ð¾
ĠÑģ Ð½Ðµ
Ð¾Ð¼ Ð¾Ð³
ĠÐ· ÐµÐ»Ñĳ
Ð¡ ÑĤÐ°
Ð¾Ð± Ð¸
ĠÐ¿Ð¾Ð´ Ð²Ð¸Ð¶
ÑĬ ÑıÐ²
ÑĥÑĪ ÐºÐ°
ĠÐ¾Ð±ÑīÐµ ÑģÑĤÐ²ÐµÐ½Ð½ÑĭÑħ
ĠÑĥÑģÑĤÐ°Ð½Ð¾Ð² Ð»ÐµÐ½Ñĭ
ĠÑģÐ¾ÑģÑĤÐ°Ð²Ð»Ñı Ð»Ð¸
ĠÐ·Ð°Ñı Ð²Ð»Ñı
ĠÐ½Ð°Ð·ÑĭÐ²Ð°ÐµÐ¼ ÑĭÐµ
ĠÐ¿ÑĢÐ¾Ð´ÑĥÐºÑĤ Ð¾Ð²
Ð¢Ðµ Ð¾ÑĢÐ¸Ñı
ĠÑįÐºÐ² Ð¸Ð²Ð°Ð»ÐµÐ½ÑĤ
ĠÑģÐµÐ² ÐµÑĢÐ°
ÐĶÐµÐ¿ÑĥÑĤ Ð°ÑĤÑĭ
s p
Ġ x
ĠÐ² Ð±Ð»Ð¸Ð·Ð¸
Ð¾Ð² Ñĭ
Ñħ ÑĢÐ¾Ð½
Ð°Ð½ Ñĥ
Ð°Ð½ Ð½Ð¾Ð¼
ÑĨ ÐºÐ¸Ñħ
ĠÑĦ Ð°Ð¹
ÐµÐº ÑģÐ°
ĠÑĢÐ°Ð· Ð½Ð¾Ð²Ð¸Ð´
ĠÑħ Ð¸Ñī
Ð¼ÐµÐ½ ÐµÐ½Ð¸Ðµ
ĠÐ¸Ð¼Ð¿ Ð¾ÑĢÑĤ
ĠÑįÐº ÑĢÐ°Ð½
Ð½ÑĥÑĤ ÑĢÐµÐ½
ĠÐ·Ð°Ð¼ ÐµÐ½Ð¸
ĠÐĸ Ð°Ðº
ĠÐ»Ð¸ÑĤÐµÑĢÐ°ÑĤ ÑĥÑĢÐ¾Ð²ÐµÐ´
ĠÐºÐ¸Ð½ Ð¾Ð¿
Ġ189 4
ĠÐ·Ð°ÐºÐ»ÑİÑĩ ÑĳÐ½
ĠÐ²Ð½ÑĥÑĤÑĢÐµÐ½ Ð½ÐµÐ¹
ĠÑĨÐ°ÑĢ ÑģÑĤÐ²Ð¾
ĠÑģÐ±Ð¾ÑĢ Ð½Ð¾Ð¹
ĠJ ava
ĠÐļÐ¸ÑĢ Ð³Ð¸Ð·
ĠÐ¸Ð½Ð¸ÑĨÐ¸Ð°ÑĤÐ¸Ð² Ðµ
i es
Ðº Ð¾ÑģÑĤÑĮ
ĠÐ² ÐµÑģÑĤÐ¸
Ð¸Ð¹ ÑģÐºÐ¸Ð¼
ĠÑģÑĤ ÑĢÐ¾Ð¹
ĠÐ¿Ð¾Ð· Ð²Ð¾Ð½
ĠÑĥÑĤÐ²ÐµÑĢÐ¶Ð´ Ð°Ð»
ĠÐ¶ÐµÐ½Ñī Ð¸Ð½Ð°
Ð²ÐµÑĢÐ´ Ð»Ð¾Ð²
ĠÐ´ÐµÐº Ð»Ð°
ĠÐ¤Ð»Ð°Ð² Ð¸Ð¹
Ñģ Ð»ÑĥÐ¶
Ð² ÐµÐ»Ð¸
ÑģÑĤ ÑĢÐ¸ÑĢÐ¾Ð²
ĠÐ¿ ÑĢÑĥÑģ
ĠÐ½Ð° ÑĢÐº
Ð°ÑĢ ÑĳÐ¼
ÐĶ Ðµ
ĠÐºÐ¸Ð½Ð¾ ÑĤÐµ
ĠÐ²Ð¿ ÐµÑĩÐ°ÑĤ
ĠÑģÑĤÐ°Ð½Ð¾Ð² ÑıÑĤÑģÑı
ĠÐ²ÑģÑĤÑĥÐ¿ Ð¸Ð»Ð°
ĠÐ¾Ð· ÐµÑĢÐ¾
ĠÑģÑĥÐ¿ ÑĢÑĥÐ³Ð°
ĠÐ¿Ð¾Ñħ Ð¾Ð¶
Ð¡ÑĥÑīÐµÑģÑĤÐ² ÑĥÑİÑĤ
ÐľÐµÐ¶Ð´ Ñĥ
M L
Ð³ Ð°Ð¼
ÑĪ ÐµÐ²
Ð¾ÑģÑĤ ÐµÐ¿
ÐŁ Ð»Ð¾ÑīÐ°Ð´ÑĮ
Ð¸Ð² ÑĪÐ¸ÑģÑĮ
Ð½Ð° Ð»Ðµ
ĠÐĶ Ð²Ð¾ÑĢ
Ð½Ð¸ ÑĨÐµ
ĠÐĽ Ð°Ð´
Ð¸Ð»Ð¸ Ð·
Ð¢ ÑĥÑĢ
ĠÐ£ Ð¾Ð»
ĠÐ·Ð½Ð°Ñĩ ÐµÐ½Ð¸Ð¹
ÑĭÐ² Ð°Ñı
ĠÐ¸Ð·Ð´ Ð°Ð»
ĠÑĥÑģÑĤÐ°Ð½Ð¾Ð² Ð»ÐµÐ½Ð°
ÐµÑĢÐµÐ² Ð¾Ð´
ĠÐ¿Ð¾Ð´Ð³Ð¾ÑĤÐ¾Ð² ÐºÑĥ
op h
ĠÑģÑĦÐµÑĢ Ñĭ
ĠÐ²Ð»Ð°ÑģÑĤ ÐµÐ¹
ĠÐºÑĢÐ¸Ð· Ð¸ÑģÐ°
ĠÐ¾ÑģÐ½Ð¾Ð²Ð¾Ð¿Ð¾Ð»Ð¾Ð¶ Ð½Ð¸ÐºÐ¾Ð²
ĠÐ±Ð»Ð° Ð³Ð¾
Ð¸ ÑīÐµ
Ð¹ ÑĤÐ¸
Ð· ÑĮ
Ð¿ Ð»Ð¸
Ð± Ð¾Ð»ÑĮÑĪ
ĠÐ´ Ð°ÑĤÐ°
ĠÑģÑĤ ÑĢÐ¾Ð³Ð¾
Ð¸Ð² ÑĪÐ¸Ð¼
ĠÐ·Ð° ÑģÑĤÑĢÐ¾Ð¹
Ð¾Ñĩ Ð½Ð°Ñı
ĠÐ¢ ÐŃ
ÐµÑĩ Ð¸
ĠÑĩÐµ ÑĩÐµÐ½
Ġ5 5
ĠÑĢÐ°Ð±Ð¾ÑĤ Ð°Ñħ
ÐŁÐ¾ Ñħ
Ð°ÑİÑī Ð¸Ð¼Ð¸
ĠÑĤÑĢÐ° Ð³
ĠÑĥÐ³ Ð¾Ð»Ð¾Ð²
ĠÑĢÐ¸Ð¼ ÑģÐºÐ¾Ð³Ð¾
ĠÐºÐ¾Ð»Ð¾Ð½ Ð¸Ð¸
ĠÐľÐ¾Ð½ Ð³Ð¾Ð»
ĠÐ¾Ð±ÑĢÐ°Ñī ÐµÐ½Ð¸Ðµ
ĠÐ²Ð¾ÑģÐ¿ Ð¾Ð¼Ð¸Ð½
ĠÐ²ÐµÑĢÐ½ ÑĥÑĤÑĮ
ĠÐ±ÑĢÐ¾Ð½ Ð·
ĠÐ³Ð¾ÑĢÐ¸Ð· Ð¾Ð½ÑĤ
Ġ i
Ð³ Ð¾Ð¼
Ð¸ÑĤ Ð¾Ð¼
Ð¸Ð½ ÑĤÐµÑĢ
ÐŁ Ð»Ð°Ð½
ĠÐ¸Ð· Ð¾Ð±ÑĢÐ°Ð·
ĠÐľ Ð¸ÑĪ
ÐµÐ» Ð»Ð°
ÐµÐ· Ñĥ
ĠÐ²Ð¾ ÑĪÐ»Ð°
ĠÑĢÑĥ Ð¼ÑĭÐ½
Ð¤ ÑĥÐ½
ĠÐ¼ÐµÑģÑĤ Ð½Ð¾ÑģÑĤÐ¸
ÑĥÑĪ ÐºÐ¸
ĠÐĲÐ² ÑĢÐ°
ĠÐ¼Ð¸ÑĢÐ¾Ð² ÑĭÑħ
190 9
ĠÐºÐ¾ ÑįÑĦÑĦÐ¸ÑĨÐ¸
Ġ187 0
ĠÐ´Ð»Ð¸ Ð½Ñĭ
ĠÐ¿Ð¾Ñį Ð·Ð¸Ð¸
ĠÐ¿Ð¾ÑģÑĳÐ» Ð¾Ðº
ĠÐķÐ²ÑĢÐ¾Ð¿ÐµÐ¹ ÑģÐºÐ¾Ð³Ð¾
Ð» Ð¾ÐºÐ°
Ð°Ð½ Ð½ÑĭÐ¼Ð¸
Ð¾Ð¼ Ð°
ĠÐ¾Ð± Ð°
ĠÐĴ ÐļÐŁ
ĠÐł Ð°ÑģÑģ
ĠÐ¿ÑĢÐµÐ´ ÑģÐºÐ°Ð·
Ð¸ÑĨ ÐºÐ¸Ð¹
ĠÑģÐ¾Ð² ÐµÑī
Ġ4 9
ĠÐ¾Ð±ÑĢÐ°Ð· Ð¾Ð²Ð°ÑĤÐµÐ»ÑĮ
Ð§ ÑĤÐ¾Ð±Ñĭ
ĠÐ±ÑĢÐ¸ÑĤÐ°Ð½ ÑģÐºÐ¾Ð¹
ĠÐ²Ð¾Ð·Ð½Ð¸Ðº Ð°ÐµÑĤ
ĠÐ²Ð°Ð¶ Ð½ÑĭÐ¼
ĠÑĤÑĢÑĥ Ð±
ĠÐ¸Ð³ÑĢÐ° ÐµÑĤ
ĠÐ¿Ð¾ÑħÐ¾Ð´ Ð°
ĠÑģÐ¸Ð½ÑĤ Ð°ÐºÑģ
ĠÐ¿ÑĢÐ¸Ð±Ñĭ Ð»
Ð£ÑģÑĤÐ°Ð½Ð¾Ð² Ð»ÐµÐ½Ñĭ
ĠÑģ Ð¼ÐµÑī
Ð¿ Ð»Ð°Ð½
ĠÐ¼ Ð¾Ð³Ð»Ð°
ĠÐ¡ ÐľÐĺ
ĠÐ¾ÑĤ ÑħÐ¾Ð´
ĠÐļ ÑĢÐ°
Ð¸ÑģÑĤ ÑģÐºÐ¸Ñħ
ĠÑĢÐµ Ð·Ð¸Ð´
Ðł ÐµÐ³
ÑģÑĤÐ²Ð° Ñħ
ĠÐ¥ ÑĢÑĥÑīÑĳ
ĠÑģÐ²ÑıÐ· ÐµÐ¹
ĠÑģÐ¾Ð²ÑĢÐµÐ¼ÐµÐ½ Ð½Ð¾Ð¼
ĠÑĥÑģÑĤÐ°Ð½Ð¾Ð² Ð¸Ð»Ð¸
Ðĸ Ð¸Ð²
ĠÑĦÐ¾ÑĤ Ð¾
ĠÑģÐ¸Ð¼Ð²Ð¾Ð» Ð¾Ð²
Ð±ÐµÑĢ ÑĤÐ°
ĠÐĵÐ¾Ð½ ÐºÐ¾Ð½
a h
Ðµ Ð»Ð°Ð³
ĠÐ² Ð¾Ð²
Ñħ Ñĥ
ÐµÐ»ÑĮ Ð½ÑĭÑħ
Ð¾Ð± Ð¾Ð´Ð°
ĠÐĵ ÐĶÐł
ÑĥÑĤ ÑģÑı
ĠÐķ Ð»ÐµÐ½Ð°
ĠÑĤÐµÑĢ Ð¼Ð¸ÑĤ
Ð°ÑĤÐ¾ÑĢ Ð¸
ĠL inux
Ġ188 9
ĠÑħÑĢÐ¸ÑģÑĤÐ¸Ð°Ð½ ÑģÑĤÐ²Ð¾
ĠÐ¾ÑĤÐ¼ÐµÑĩ Ð°ÐµÑĤÑģÑı
ĠÐļÐ¾Ð½ÑģÑĤÐ°Ð½ÑĤÐ¸Ð½ Ð¾Ð¿
ag e
ĠÐĿÐ°ÑĢÐ¾Ð´ Ð½Ð¾Ð¹
ÐĳÑĭ Ð»
ĠÐĶÐ°Ð² Ð¸Ð´
ĠÐ®Ð³Ð¾ÑģÐ»Ð°Ð² Ð¸Ð¸
ÐµÐ½ Ð¾Ð²
Ð¾Ð¼ Ð°ÑĤ
ĠÐ¡ Ð°ÑĢ
ĠÐĶ Ð¶Ðµ
Ð°Ð½Ð¸Ñı Ð¼Ð¸
ÑıÐ½ Ð¸Ñı
Ð¾Ð²Ð¾ÑĢ Ð¾ÑģÑģÐ¸Ð¹
ĠÐ¸ÑģÐºÑĥÑģ ÑģÑĤÐ²Ðµ
ĠÑģÐ¾Ð´ÐµÑĢÐ¶ Ð°Ð½Ð¸Ñı
ĠÐ¿Ð¾ÑıÐ² Ð¸Ð»Ð¾ÑģÑĮ
ĠÑģÐºÐ¾ÑĢ Ð¾ÑģÑĤ
Ġ- >
ĠÐ²Ð¾Ðº Ð°Ð»Ð¸ÑģÑĤ
ĠÐľÐ¸Ð½Ð¸ÑģÑĤ ÑĢÐ¾Ð²
Ð¢ÐµÑĢ Ð¼Ð¸Ð½
ĠÐ¿Ð¾Ð´ÑĢÐ°Ð· ÑĥÐ¼
Ð¡Ð»Ð¾Ð² Ð¾
ĠÐ¸Ð·Ð½Ð°Ñĩ Ð°Ð»ÑĮÐ½Ð¾
Ð§ÐµÐ»Ð¾Ð² ÐµÐº
Ð»Ð¸ Ñģ
ĠÐ° Ñģ
ĠÑĢÐ° ÑĨÐ¸Ð¾Ð½Ð°Ð»ÑĮ
ÐŁ Ð¾ÑĤ
Ð½Ð° ÑĩÐµ
ĠÐ» Ð°Ð½Ð´
ĠÑģÐ² Ð¸Ð½
ĠÐĿ Ðļ
Ð½Ðµ Ð·
ÐµÑģ ÑĥÑį
ĠÐ²Ñģ ÑĳÐ¼
ĠÐ¥ Ñĥ
ĠÐ³Ð¾ÑģÑĥÐ´Ð°ÑĢÑģÑĤÐ²ÐµÐ½ Ð½ÑĭÐµ
ĠÑĦÐ¸Ð· Ð¸ÑĩÐµÑģÐºÐ¾Ð¹
ĠÑģÑĤÐ¾ÑĢÐ¾Ð½ Ð½Ð¸ÐºÐ¾Ð²
ĠÑĤÑĢÐµÐ± ÑĥÐµÑĤÑģÑı
ĠÑĥÐ»Ð¸ ÑĨÐ°
ĠÐ½Ð°ÑĤ ÑĢÐ¸Ñı
ĠÐķÐºÐ°ÑĤÐµÑĢ Ð¸Ð½Ð°
ÐľÐµÐ¶Ð´ÑĥÐ½Ð°ÑĢÐ¾Ð´ Ð½ÑĭÐ¹
ĠÐĶÑį Ð²Ð¸Ð´
ĠÐ³Ð°ÑĢ Ð¼Ð¾Ð½
ros oft
Ð¾Ð» Ð¾ÑģÐ¾Ð²
Ð¾Ð± ÑĢÐ°Ð¶ÐµÐ½Ð¸Ñı
Ð°Ð» Ðº
Ð°Ð»ÑĮ Ð½Ð¾Ð¼Ñĥ
ĠÐĶ Ð°ÑĢ
ĠÐ¾Ð¿ Ð¸ÑĢÐ°
ĠÐŃ Ð´Ð²
Ġ4 6
Ð¿ÑĢÐµ Ð»ÑĮ
ĠÑģÑĢÐµÐ´ Ð½ÑıÑı
ĠÐļÐ¾ÑĢ ÐµÐ¸
190 1
ĠÐŀÐ± ÑīÐµ
ĠÐ°ÑĤÐ¼Ð¾ÑģÑĦÐµÑĢ Ñĭ
ĠÑģÑĤÑĢÐµ Ð»
ĠÐ¾ÑĤÑĢÐ°Ñģ Ð»Ð¸
Ð°ÑĢÐ°Ð³ ÑĥÐ°
Ð± Ð¸Ð½Ð°
ÑĨ Ð·
Ð¶ Ð¸Ð²
Ð¾Ð»ÑĮ ÑģÐºÐ¸Ð¹
ĠÑĪ ÑĤÐ°Ð±
ĠÐ¡ÑĤ ÑįÐ½
ĠÑģÑĩÐ¸ÑĤ Ð°ÑİÑĤÑģÑı
Ġd er
ĠÐ²Ð·Ð°Ð¸Ð¼Ð¾Ð´ÐµÐ¹ÑģÑĤÐ² Ð¸Ðµ
ĠÐ³ÑĢÑĥÐ· Ð¾Ð²
ĠÐºÐ°Ð½Ð°Ð´ ÑģÐºÐ°Ñı
ĠÐĲÐ½Ð´ÑĢÐµ Ñı
ĠÐ²Ð·Ð³Ð»Ñı Ð´Ñĭ
ĠÐ³Ð°ÑĢ Ð½Ð¸Ð·
ĠÐŁÐ¾Ð±ÐµÐ´ Ñĭ
ĠÐļÑĳ Ð½Ð¸Ð³Ñģ
Ð¾Ð¼Ð¾Ð½Ð¾Ñģ Ð¾Ð²Ð°
ĠÐ´ Ð½ÑĳÐ¼
ĠÐ¼ Ð½Ðµ
Ð¸Ð½ ÑģÐºÐ¾Ðµ
ĠÐł Ðļ
ÐĿ ÐµÐ´
ĠÐĿ Ð°Ð´
Ð¾Ñĩ ÐµÑĤ
ĠÐ¢ Ðľ
Ð°Ð½ÑĤ Ð¾Ð²
ĠÑģÐ¾Ð± ÑģÑĤÐ²ÐµÐ½Ð½ÑĭÐµ
ĠÐ¾Ð±ÑĬ ÑĳÐ¼Ð°
Ġ4 7
Ð°ÑĪ Ð°
ĠÐ´Ð¸ Ð°Ð¼ÐµÑĤ
ĠÐ¿Ð°ÑĢ Ð¾ÑħÐ¾Ð´
ĠÐ¿ÑĢÐ¾Ð³ÑĢÐ°Ð¼ Ð¼Ñĥ
ĠÑģÑĩÐ¸ÑĤ Ð°Ð»Ð¸
ĠÐ¼ÐµÐ´ Ð¸
ĠÐ½ÐµÐ·Ð°Ð²Ð¸ÑģÐ¸Ð¼ Ð¾
ĠÐ·Ð½Ð°ÑĩÐ¸ÑĤÐµÐ»ÑĮ Ð½Ð¾Ðµ
Ð²Ð¸Ð¶ ÐµÐ½Ð¸Ñı
ĠÐ¿ÑĢÐµÐ´Ð¿Ð¾Ð» Ð°Ð³
ĠÐ·Ð½ Ð°Ð½Ð¸Ð¹
ĠÐ°Ð½Ð° Ð»Ð¸ÑĤ
ĠÑĤÐ¾Ð² Ð°ÑĢÑĭ
ĠÐ¿ÐµÑĢÐ²Ð¾Ð½Ð°Ñĩ Ð°Ð»ÑĮÐ½Ð¾
ĠÐŃÐ¹Ð½ÑĪÑĤ ÐµÐ¹Ð½Ð°
ĠÐĵÐ°Ð³Ð° ÑĢÐ¸Ð½Ð°
ĠÑįÑģÑĤÑĢÐ° Ð´
Ñĩ Ð¸ÐºÐ¸
Ñĩ ÑĥÐº
ĠÐº ÑĢÐµÐ¼
Ð»Ñı Ñı
Ñį Ð´
Ð¾Ðº ÑĤ
ĠÐĵ ÐµÐ³
ÐĿ Ð°Ð´
ÑĥÐ± Ð¸ÑĤ
Ðĺ Ð²
Ð¾Ð»Ð¾Ð³ Ð¸ÑĩÐµÑģÐºÐ¾Ðµ
ĠÐ£ Ð³
ÐµÐ¼Ð¿ Ð»Ñı
ĠÐ´Ð°Ð½ Ð½Ð¾Ð¼
ĠÐ¿Ð¾ÑģÐ»ÐµÐ´ Ð½ÐµÐ¹
Ð¼ÐµÑĩ Ð°ÑĤÐµÐ»ÑĮ
ÑģÑĤÐ²Ð¾Ð² Ð°Ð»Ð¸
ĠÐ¿ÑĢÐ¾Ð´Ð¾Ð»Ð¶ Ð¸ÑĤÐµÐ»ÑĮÐ½Ð¾ÑģÑĤÑĮ
ĠÐ¸Ð´Ðµ Ñİ
ĠÐ¾ÑĦÐ¸ÑĨÐ¸Ð°Ð»ÑĮ Ð½ÑĭÐ¼
ĠÑģÐ²Ð¾Ð±Ð¾Ð´ Ñĥ
ĠÐ½Ð¸Ð· Ð¼ÐµÐ½
ĠÐ¿ÐµÑĢÐµÑħÐ¾Ð´ Ð°
ĠÐ¼ÐµÑĤÐ°Ð» Ð»Ð¸
ĠÑĦÐ¸Ð»ÑĮÐ¼ Ð¾Ð²
ĠÐļÐ°ÑĤ Ð°ÑģÑĤÑĢÐ¾ÑĦÐ°
ĠÑĥÐ±Ð¸Ð¹ ÑģÑĤÐ²Ð¾
ĠÑģÐ¾ÑĤÑĢÑĥÐ´Ð½Ð¸ÑĩÐµ ÑģÑĤÐ²Ð°
ĠÐĺÐ¸Ñģ ÑĥÑģÐ°
y s
Ġ âĢ¦
ÐµÐ½ ÑģÑĤÐ²Ð°
ĠÑģ Ð»Ð°
ĠÐ³ Ð¾ÑĢÐ°Ñħ
ĠÐ¡ Ð¾Ð¼
ĠÐ¡ Ð¾ÐºÑĢÐ°ÑĤ
Ð¾Ð± Ð¾ÑĢ
ÐĴ Ð¾Ð·Ð¼Ð¾Ð¶
ĠÐ¿ÑĢÐ¸ Ð±ÑĢÐµ
ĠÑĤÐ°Ðº Ð¾Ð¼
Ð°Ð¼Ð¸ Ð»ÑĮ
ÑĢÐ¾Ñģ Ð°
en ce
Ð°Ð»Ðµ Ð¹
Ð¸ÑĦ Ð°Ð³Ð¾ÑĢ
ĠÐ²Ð· ÑıÐ»
ĠÐºÐ¾Ð½ÑĤ ÐµÐºÑģÑĤ
ĠÐ¾ÑĤÐ´ ÐµÐ»ÐµÐ½Ð¸Ñı
ĠÐ²Ð°Ð¶ Ð½ÐµÐ¹
ĠÑĤÐµÐ¿ Ð»Ð¾
ĠÐ¿Ð°Ð´ ÐµÐ¶
ĠÐ¿ÑĢÐµÐ´Ð¼ÐµÑĤ Ð¾Ð²
Ð§Ð¸Ñģ Ð»ÐµÐ½Ð½Ð¾ÑģÑĤÑĮ
Â ·
Î ¯
Ð² ÑĭÑģ
ĠÑģ Ð¾Ð»ÑĮ
ÐµÑĢ Ñı
ÐµÑĢ Ð¸Ðº
ĠÐ½Ð° Ð¼ÐµÑģÑĤ
ĠÐ± ÑĢÐ¸Ð³
ÐŁ ÐµÑĢÐµÐ´
ĠÑĦ Ð¸ÐºÑģ
ĠÐ¿ÑĢÐ¸ ÑĢÐ¾ÑģÑĤ
ÐµÑĢÐ° ÑĨÐ¸Ð¸
ĠÐ¾Ñģ Ð»Ð°Ð±
ÐºÐ¾Ð² ÑĭÐµ
ĠÑģÐ¿ Ð¾ÑĢ
ĠÐ¿Ð¾Ðº Ð¾ÑĢ
ĠÐ¿Ð¾Ðº Ð»Ð¾Ð½
at h
ĠÑĥÑĩÐ°ÑģÑĤ Ð¸ÐµÐ¼
ĠÐłÐµÑģÐ¿ÑĥÐ±Ð»Ð¸ ÐºÐµ
ĠÐ¿Ð¾ÑıÐ² Ð»ÐµÐ½Ð¸Ñı
ĠÐ¾Ð±ÑĬÐµÐ´Ð¸Ð½ ÐµÐ½Ð¸Ðµ
ĠÐ´Ð²Ð¾ÑĢ ÑĨÐ°
ĠÐ¡ÑĢÐµÐ´ Ð¸Ð·ÐµÐ¼
ĠÐ¥Ð¾ÑĢ Ð²Ð°ÑĤ
ĠÐ¾Ð±ÑıÐ·Ð°Ð½ Ð½Ð¾ÑģÑĤÐ¸
ĠÐ¡Ð¸ÑĢÐ¸ Ð¸
ĠÐ¿ÐµÑĢÐµÑĢÐ° Ð±Ð¾ÑĤ
Ð» Ð»Ð¾Ð²
Ð· Ð¾ÑĢ
Ñħ Ð¾Ð·
Ð¿ Ð¾ÑģÑĤ
Ð± Ð°ÑĢ
ÐµÑĤ Ð¾
ĠÑĥ Ñī
ĠÑĤÐ°Ðº Ð°Ñı
Ð°Ð½Ð´ Ñĭ
ĠÐ¾Ð¿ ÐµÑĢÑĭ
ĠÐ´Ð² Ð°Ð´ÑĨ
ĠÐ¿Ð¾ÑģÑĤ ÑĢÐ°Ð´
ĠÐ¨ Ð°ÑĢ
ÑıÐ· ÑĮ
ĠÐ¾ÑģÑĤ Ð°Ð»ÑĮÐ½ÑĭÑħ
ĠÐĲÐ»ÐµÐºÑģ ÐµÑı
ĠÐ¿ÐµÑĢÐµÐ² Ð¾Ð´Ðµ
Ð²Ð¸Ð´ Ñĥ
ĠÑģÑĤÐ°Ð½ ÑĨÐ¸Ð¹
ĠÐĲÐ»ÑĮ Ð±ÐµÑĢÑĤ
ĠW indows
ĠÐ¯Ð¿Ð¾Ð½ Ð¸Ñı
ĠÐ±Ð¾ÑĢÑĮ Ð±Ð°
ĠÐ´Ð»Ð¸ Ð½Ð°
ĠÑģÑĥÐ¿ ÐµÑĢ
ĠÐ°Ð· Ð¾ÑĤÐ°
ĠÐ°ÑįÑĢÐ¾Ð¿ Ð¾ÑĢÑĤÐ°
ĠÑĤÐ¾Ð» ÐºÐ¾Ð²
ĠÐ¿ÐµÑĢÑģ Ð¸Ð´
ĠÐĵÐ° Ð¸ÑĤÐ¸
ÐĴÐ¾Ñģ ÑģÑĤÐ°Ð½Ð¸Ðµ
ÑĤ Ð¾Ð½Ð°
Ñĭ Ð¿
Ð· ÐµÑĢ
ĠÑĤ Ð°Ð»
ĠÐ° Ð³ÑĢÐ°ÑĢ
ĠÐ¿ÐµÑĢ ÑģÐ¿ÐµÐºÑĤ
ĠÐ²Ñĭ ÑĢÐ°Ð¶ÐµÐ½Ð¸Ñı
ĠÐĳ Ð¸ÑĤÐ²Ð°
ĠÐĶ Ð¾Ð»
ĠÐĶ Ð¾Ð¼Ð¸Ð½
Ð°Ð¹ Ð½ÐµÑĢ
ĠÐ²Ð· ÑıÐ»Ð¸
ÐµÑĢÐµ Ñı
ĠÐ°Ð²ÑĤÐ¾ÑĢ Ñĭ
ĠÐ½Ð°ÑĥÑĩ Ð½Ð¾Ð³Ð¾
ĠÑģÐ¿Ð¾ÑģÐ¾Ð± Ð½Ð¾ÑģÑĤÐ¸
ĠÐ¿ÑĢÐ¸ÑĢÐ¾Ð´ Ð½ÑĭÑħ
ĠÐ¾Ð±ÐµÑģÐ¿ÐµÑĩ Ð¸Ð²
ĠÐ¿ÑĢÐ¾Ð±Ð»ÐµÐ¼ Ð°
ĠÑĦÐ¾ÑĤ Ð¾Ð³ÑĢÐ°ÑĦÐ¸Ð¸
ĠÐ¡Ð²ÑıÑĤ Ð¾Ð¹
ĠÐ¾ÑĤÑģÑĥÑĤÑģÑĤÐ² ÑĥÐµÑĤ
ĠÐ¸Ð½ÑĤÐµÑĢÐµÑģ Ð¾Ð²
Ġl a
ĠÐķÐºÐ°ÑĤÐµÑĢ Ð¸Ð½Ñĭ
ĠÐºÐ¾ÑĢÐ¿ ÑĥÑģÐ°
ÐĿÐ°ÑĨÐ¸Ð¾Ð½Ð°Ð»ÑĮ Ð½ÑĭÐ¹
ĠÐŁÐ¾Ð»Ð¸ÑĤ Ð±ÑİÑĢÐ¾
ĠÐ°ÑĢÐ³ ÑĥÐ¼ÐµÐ½ÑĤ
ĠÐ§Ð°ÑĢÐ»ÑĮ Ð·
Ã ¶
Ð¸ ÑģÑı
Ðº ÑĢÐµÐ¿
Ñı Ð·ÑĭÑĩ
Ð¾Ð´ Ð¾Ð¼
Ð¸Ð¹ ÑģÐºÐ¾Ðµ
ÐĴ ÑĤ
ĠÐ¿ÑĢÐ¸ Ð±Ð¾ÑĢ
ĠÐŁ Ð¸ÑĢ
Ð¢ Ð°Ð¹
Ð£ ÐºÐ°Ð·
ĠÐ¿ÑĢÐ¾Ð¸Ð· Ð²Ð¾Ð»ÑĮ
ĠÐ²ÑĭÑģ Ð¾ÑĤÐµ
ĠÑħÑĥÐ´Ð¾Ð¶ Ð½Ð¸ÐºÐ¾Ð²
ĠÐ²ÑĭÑģÑĤÑĥÐ¿ Ð»ÐµÐ½Ð¸Ñı
ĠÑģÐºÐ¾ÑĢ Ð¾ÑģÑĤÑĮÑİ
ĠÑģÑĬ ÑĳÐ¼
Ð¾Ð»Ñİ Ð±
ĠÑģÐ¿ÑĢÐ°Ð² ÐµÐ´Ð»Ð¸Ð²
ĠÐ¡Ð¾Ð»Ð½ÐµÑĩ Ð½Ð¾Ð¹
Ð° Ð¸
Ðº Ð¾ÑĤÐ¾ÑĢ
ĠÐ¸ ÐºÐ¾Ð½
ĠÑģ ÐµÐ¹
ĠÐ´ Ð¸Ðº
ÐĴ ÑĤÐ¾ÑĢÐ¾Ð¹
ĠÑĦ Ð¾ÑĢÑĤ
ĠÑĦ ÐµÐ½Ð¾Ð¼
ĠÐ» Ð¸ÑģÑĤ
ÑĨÐ¸ Ð°Ð½
Ðļ Ð°Ð¼
ĠÐ¿Ð¾Ð» Ð°Ð³Ð°
ÐĲ ÑģÑĤ
ÐºÐ¾ Ð½Ñĭ
ÐŃ Ð¹
ĠÑģÐ¸ÑģÑĤÐµÐ¼ Ð°Ñħ
ĠÐ·Ð°Ð¿ Ð¾Ð²ÐµÐ´
ĠÐ³ÑĢÑĥÐ¿Ð¿ Ð¾Ð¹
ĠÐ´ÐµÐ¹ÑģÑĤÐ² Ð¸ÑĤÐµÐ»ÑĮÐ½Ð¾ÑģÑĤÐ¸
ĠÐ·ÐµÐ¼ Ð»ÐµÐ´
ĠÐ´Ð¾Ðº ÑĤÐ¾ÑĢÐ°
ĠÐ¾ÑĤÐ´ Ð°Ð»
ĠÑĢÑĥÐºÐ¾Ð²Ð¾Ð´ Ð¸ÑĤÐµÐ»ÐµÐ¹
ĠÐ¿Ð¾ÑģÑĤÑĢÐ¾ ÐµÐ½Ñĭ
ĠÑĢÐµÐ´ ÐºÐ¾
ĠÐ¿ÑĢÐ¾Ð²Ð¾Ð´ Ð¸ÑĤÑģÑı
ĠÐ±Ð¸ÑĤ Ð²Ñĭ
ĠÐ¼ÐµÐ´Ð¸ÑĨ Ð¸Ð½Ðµ
ĠÐ²Ð½Ð¸Ð¼ Ð°Ð½Ð¸Ñı
ĠÐ¸ÑģÑģÐ»ÐµÐ´Ð¾Ð² Ð°ÑĤÐµÐ»Ð¸
ĠÑįÐ»ÐµÐºÑĤÑĢÐ¾ ÑįÐ½ÐµÑĢÐ³
ĠBe at
o u
p e
ÑĢÐ° ÑĨÐ¸Ñİ
ÑĢÐµ Ð»ÑĮ
Ð¾Ð½ ÑĤÐ°
ĠÐ¡ Ð¸Ð»
ĠÐŁ ÑĢÐµÐ¼
ĠÐĵ Ð¾ÑĢÐ¾Ð´
ĠÐĵ ÑĢÐµÐ½
ĠÐ²Ñĭ ÑıÐ²
ĠÐĳ ÐµÐ»Ð°
ĠÐ¿Ð¾Ð» Ð½Ð¾Ðµ
ĠÐ¿Ð¾Ð» Ð°Ð³
ĠÐ·Ð° ÑĢÐ°Ð±Ð¾ÑĤ
ĠÐ²Ð¾ ÑĪÑĳÐ»
ÐµÑĩ ÐµÑĢ
ĠÐ¿ÑĢÐ°Ð² Ð¾Ð¼
Ð°ÑĢÑĤ Ð¸Ð¹
ĠÑĢÐ°Ð±Ð¾ÑĤ Ð½Ð¸ÐºÐ¾Ð²
ĠÑįÐ»ÐµÐºÑĤ ÑĢÐ¾Ð´
ĠÐ·Ð°Ð´ ÐµÑĢÐ¶
ĠÐ¾ÑĤÐ»Ð¸Ñĩ Ð°ÑİÑĤÑģÑı
Ġ188 7
ĠÐ¿ÑĢÐ¾ÐµÐºÑĤ Ñĥ
ĠÐ½ÐµÑĦ ÑĤÑĮ
ĠÐ¾Ð±ÑĢÐ°Ñī ÐµÐ½Ð¸Ñı
ĠÑģÐ¾Ð±ÑģÑĤÐ²ÐµÐ½ Ð½Ð¾ÑģÑĤÐ¸
XV III
ĠÐ¿Ð¾ÑıÐ²Ð»Ñı ÐµÑĤÑģÑı
Ð½ Ð°ÑĢÐ¾Ð´
Ñģ Ð°Ð½ÑĤ
ÑĢ ÑĳÐ»
Ð» ÑĭÐµ
Ð¿ Ð°ÑĢÑħ
Ð¾Ð¼ Ð¾ÑĢÑĦ
ĠÐ± Ð¾ÐºÑģ
ĠÑĦ Ð¸Ð½ÑģÐºÐ¸Ð¹
Ð¸Ð² ÑĪÐµÐ³Ð¾
ĠÐĴ Ð¾ÑģÑĤÐ¾ÐºÐ°
Ðł Ñĭ
ĠÐĽ ÐµÐ±
Ð°Ð½Ð¸Ñı Ð¼
ÑĢÐ¾ Ñī
ĠÐ¿ÑĢÐ°Ð² Ð»ÐµÐ½Ð¸Ðµ
ĠÐ¸ÑģÐ¿ ÑĢÐ°Ð²
ĠÐºÐ¾ÑĢ Ð¾Ð½
ĠÑĢÑĥÑģ ÑģÐºÐ¾
ĠÐ·Ð°Ð¿ Ð¸ÑģÑĮ
ĠÐ¾Ð±Ñī ÐµÐ½Ð¸Ñı
ĠÐ´Ð¾Ðº Ð»Ð°Ð´
ÑĦÐ¾ÑĢÐ¼Ð° ÑĨÐ¸Ð¸
ĠÐ¾Ð±ÑĬÑıÐ² Ð»ÐµÐ½Ð¾
ĠÐ¿ÑĢÐ¸Ð¼ÐµÑĢ Ñĥ
Ð±ÐµÑĢ Ð³Ð°
ĠÐ¾Ð±ÑĥÑĩ ÐµÐ½Ð¸Ðµ
Ð¸ÑĨÐ¸ Ð½Ñĭ
ĠÐ¼Ð¸Ð½Ð¸Ð¼ ÑĥÐ¼
ĠÐ°Ð½Ð³Ð»Ð¸Ñĩ Ð°Ð½
i z
ĠÐ² Ð¼ÐµÑĪ
Ð¿ Ð°ÑĢ
ÐµÑĢ ÐµÐ¼
ĠÐ½ ÐµÐ²ÐµÑĢ
Ð¾Ð´ Ð¾Ð±
Ð¡ ÑĩÐ¸ÑĤ
Ð¸Ð· Ð´
ĠÐµ Ð´
ĠÐ¿Ð¾Ð» ÐµÐ¼
ÐĿ ÐķÐ¡
ÐĲ Ð¿ÑĢÐµÐ»ÑĮ
ĠÐĽ ÑİÑĤ
Ð¼Ð° Ð³
ĠÐ£ ÑĢ
Ġ% ;
ĠÐ°Ð¼ÐµÑĢÐ¸ÐºÐ°Ð½ ÑģÐºÐ¾Ð³Ð¾
ĠÐ§ ÐµÑĢÐ½
ĠÑģÐ»Ð¾Ð² Ð°ÑĢÑĮ
ĠÑĤÐ¸Ð¿ Ñĭ
ĠÑĤÐ¾Ñĩ ÐºÐµ
ĠÐ¼Ð¸ÑĢÐ¾Ð² Ð¾Ð³Ð¾
ro m
ĠÐ¸ÑģÑĤÐ¾Ñĩ Ð½Ð¸ÐºÐ¸
ĠÐĴÐ¾Ð» Ð³Ð¸
ig ht
ĠÐ¿ÑĢÐ¾ÑħÐ¾Ð´ Ð¸Ð»
ĠÑģÐºÐ°Ð· Ð°Ð»
ĠÐ¿ÑĢÐ¾Ð³ Ð¾Ð»Ð¾ÑģÐ¾Ð²
ĠÐ´ÐµÐº ÑĢÐµÑĤ
ĠÐ¿Ð¾Ð´ÑĤ Ð²ÐµÑĢÐ´
Ð¢Ðµ Ð°ÑĤÑĢ
ÑĤÐ°Ðº Ð¶Ðµ
ĠÑĤÑĥÑĢÐ¸ÑģÑĤ Ð¾Ð²
ĠÐ¾ÑĤÐ´ÑĭÑħ Ð°
Ð¡Ð¸ÑģÑĤÐµÐ¼ Ð°
ĠÐ¿ÑĢÐ¸Ð±Ð»Ð¸Ð· Ð¸ÑĤÐµÐ»ÑĮÐ½Ð¾
Ñİ ÑģÑĤ
ĠÐ³ ÑĢÐ¾Ð¼
Ñī Ð¸ÑĨÐ°
ÑĢÑĥ Ð½
ĠÑģÑĤ ÑĢ
Ðĺ Ð§
Ðĵ ÐµÐ½ÐµÑĢÐ°
ĠÑģÐ°Ð¼ Ð°
Ð¾Ð²Ð°Ð½ Ð½ÑĭÑħ
ĠÐ²Ð¾ÐµÐ½ Ð½Ð¾Ðµ
ĠÐ¿Ð¾ÑĤ ÐµÐ½ÑĨÐ¸
ĠÐ¾Ð±Ñī Ð°Ñı
ĠÐ½ÐµÐºÐ¾ÑĤÐ¾ÑĢ ÑĭÐ¼
ĠÐľÐ°ÑĢ ÑģÐ°
ĠÐ°ÑģÑĤ ÑĢ
ĠÐ¿ÑĢÐ¸Ð½ÑĨÐ¸Ð¿ Ð¸
ĠÐºÐ¾Ð½ÑģÑĤÑĢÑĥ ÐºÑĤ
ĠÐ½ÐµÐ±Ð¾Ð»ÑĮÑĪ Ð¾Ð¹
ĠÐ°Ð· ÐµÑĢÐ±Ð°Ð¹Ð´Ð¶
ĠÐ¾Ð±ÑĢÐ°Ð±Ð¾ÑĤ ÐºÐ¸
ÐµÐ·Ð¾Ð¿Ð°Ñģ Ð½Ð¾ÑģÑĤÐ¸
ÐĿÐķÐ¡ ÐļÐŀ
N S
ĠÑģÑĤ ÑĢÐ¾Ð³
ĠÐľ Ð¸ÑĤ
Ð¸ÑĤÐµÐ»ÑĮ Ð½Ð¾Ð¼
ÐĶ Ð¾Ð½
Ð¤ ÐµÐ²ÑĢÐ°Ð»ÑĮ
ĠÑģÑĤÑĢÐ° Ñħ
ĠÐ¿ÑĢÐµÐ¼ Ð¸Ñı
ĠÐ±ÑĥÐ´ ÑĥÑĩÐ¸
Ð¸ÑĦ ÐµÑģÑĤ
ĠÐ´Ð²Ð¸Ð¶ ÐµÐ½Ð¸Ð¸
ĠÑģÑĤÐ°ÑĤ ÑĥÑģÐ°
ĠG oogle
ĠÑģÐµÐº ÑĥÐ½
ĠÐļÐ¾Ð½ÑģÑĤÐ°Ð½ÑĤ Ð¸Ð½Ð°
ĠÐ³ÑĢÐµÑĩÐµ ÑģÐºÐ¾Ð³Ð¾
ĠÐ´Ð»Ð¸ Ð½Ð¾Ð¹
ĠÐ¿ÑĢÐ¸ÐºÐ°Ð· Ñĥ
ĠÑģÐ¾Ð·Ð½ Ð°Ð½Ð¸Ñı
ĠÐĺÑģÑĤ Ð¾ÑĢÐ¸Ñı
ĠÐľÐ¾Ð»Ð´Ð°Ð² Ð¸Ð¸
ĠÐ¿ÑĢÐ¾Ð¼ÐµÐ¶ ÑĥÑĤÐ¾Ñĩ
ĠÐ®Ð¿Ð¸ÑĤ ÐµÑĢÐ°
ĠÑĤÑĳ Ð¿Ð»
Ñģ Ð±ÑĥÑĢÐ³
Ðº Ð¾ÑģÐ¼Ð¾Ð½Ð°Ð²ÑĤ
ÐµÐ½ ÑĨÐ¸Ñİ
Ð± ÐµÐ¶
Ð³ Ð¾Ð´Ð°
ĠÐ¼ Ð¸Ð³
ĠÐ¡ Ð¸Ð»ÑĮ
ĠÐ¾Ð± ÑĢÑı
Ð¸ÑģÑĤ ÑģÐºÐ°Ñı
ĠÐĵ Ð²Ð°ÑĤÐµÐ¼
ĠÐ¢ Ð°Ð¸Ð»
Ð¢ Ð°Ð¼
Ġ18 12
ĠÑģÐ¾Ð± ÑģÑĤÐ²ÐµÐ½Ð½ÑĭÑħ
Ð¸ÐºÐ° ÑĨÐ¸Ð¸
Ġ4 1
ÑĥÐ» Ñĥ
ĠÐ²ÑĭÑģ Ð¾ÑĤÑĭ
ÐµÑħ Ð°Ð»
ĠÐ³Ð»Ð°Ð² Ð½Ð¾Ð³Ð¾
ĠÑģÐ»Ð¾Ð² Ð°Ð¼Ð¸
Ð°ÑĢÐ´ Ð¾
ĠÐľÐ°ÑĢ Ð¾ÐºÐºÐ¾
ĠÐ·Ð´ Ð°Ð½Ð¸Ð¸
Ð°ÐµÐ¼ ÑĭÐ¹
190 2
ĠÑģÐ²ÑıÑĤ ÑĭÑħ
ĠÑĤÐµÐºÑģÑĤ Ñĭ
ĠÐ¼Ð°ÑĤÐµÑĢÐ¸ Ð°Ð»Ð°
ĠÐ½ÐµÐ¾Ð±ÑħÐ¾Ð´Ð¸Ð¼ Ð¾ÑģÑĤÑĮ
Ð¾Ð¿ÑĢÐ¸ Ð¼ÐµÑĩÐ°ÑĤÐµÐ»ÑĮ
ĠÑģÐ°Ð¼Ð¾Ð»ÑĳÑĤ Ð¾Ð²
ĠÐ´Ð²Ð¸Ð³ Ð°ÑĤÐµÐ»Ñı
ĠÑĢÐ°Ð±Ð¾ ÑĩÐµÐ¹
ĠÐ°Ð»Ð³ ÐµÐ±ÑĢÐ°
ĠÐ³Ð¾ÑģÑĤ Ð¸Ð½
Ð¾ Ð¸Ð½
Ð½ Ð¾Ð´
ĠÐ² Ð¸ÑĢÑĥ
ĠÐ³ ÑĢÐµÐ±
ÑĦ ÑİÑĢ
ĠÐ± Ð»Ð¾Ð³
Ð°Ð¼ Ð¸Ð½
ĠÐ¡ Ð°Ð´
Ð¸Ñģ Ð»Ð¾ÑĤ
ĠÐļ Ð²
ĠÐļ ÑĢÐ¸
ĠÑĦ ÐµÑģÑĤÐ¸Ð²Ð°Ð»ÑĮ
ĠÐĲ ÑĢÐ°Ð±
Ð¾Ð¿ Ð¾ÑĤ
Ð¸Ð· Ð½ÑĮ
ĠÐ²Ñĭ Ð¸Ð³
ĠÐ¿Ð¾Ð» Ð¸ÑĨÐ¸Ð¸
ĠÐĿ Ð°ÑĤ
ĠÐ¿Ð¾Ð´ Ð¼
ĠÐ¢ Ð°
ĠÐ¢ Ð°ÑĤÐ°ÑĢ
Ðĵ ÐµÑĢÐ¼
Ð°ÑĢÐ¸ ÑĨÑĭ
ĠÑĢÐµÐ· ÐµÑĢÐ²
ĠÐĲÐ»ÐµÐºÑģÐ°Ð½Ð´ ÑĢÐ¸Ð¹
ic h
ĠÐĿÐ¾Ð² Ð¾Ð³Ð¾
ĠÑĢÐµÑģÐ¿ÑĥÐ±Ð»Ð¸ Ðº
ĠÐ¿Ð»Ð¾ÑīÐ°Ð´ ÑĮÑİ
ĠÐĲÐ»ÑĮ ÑĦÑĢÐµÐ´
ĠÑĤÑĢÑĥÐ´ Ñĭ
Ġ186 0
Ð¾ÑģÐ¿ Ð¾ÑģÐ¾Ð±
ĠÐ½Ð°Ð±Ð»ÑİÐ´ ÐµÐ½Ð¸Ñı
ĠÐ¾ÑĨÐµÐ½ ÐºÐ°Ð¼
ĠÐ²ÐµÑī ÐµÐ¹
ĠÐ¿Ð»Ð¾ÑĤ Ð½Ð¾ÑģÑĤÑĮ
ĠÑĢÐ°ÑģÑģÑĤÐ¾Ñı Ð½Ð¸Ñı
ĠÐ²ÑĭÑģÐ¾ÑĤ Ð¾Ð¹
ÐµÐ½ Ð¾Ñģ
ÑĦ ÑĤ
ĠÐľ Ð¾Ð½ÑĤ
ĠÐ¿ÐµÑĢ ÐµÐ»
ĠÐ¢ Ð¾Ðº
Ðĺ ÑİÐ»ÑĮ
Ð½Ñı Ð»
ĠÐŀ Ð³
Ðĳ Ð°ÑĢ
ÐµÐµ Ñħ
ĠÑĥÑĩ ÑĢÐµÐ´
ÑıÐ½ Ð¸Ðµ
ĠÐ½Ð°Ñĩ Ð°Ð»ÑĮÐ½Ð¸Ðº
Ð¼Ñĭ ÐºÐ°
ĠÑĦÐ¾ÑĢÐ¼ ÑĥÐ»Ð¸ÑĢÐ¾Ð²
ĠÐĿÐ¸Ðº Ð°ÑĢÐ°Ð³ÑĥÐ°
ĠÐ´Ð¾Ð¿ ÑĥÑģÑĤ
ĠÐ¿ÑĢÐ¸Ð·Ð½ Ð°Ð»
ĠÑģÑĤÐ°ÑĤÑĮ Ñı
ĠÐĴÐ¾Ð» Ð³
ĠÐ¾Ð· ÑĳÑĢ
ÐĶÐ¶ Ð¾Ð½
ĠÐ¡Ð¿ Ð°Ñģ
ĠÐ·Ð°ÑħÐ²Ð°ÑĤ Ð¸Ð»
ĠÑģÑĥÐ²ÐµÑĢ ÐµÐ½Ð¸ÑĤ
ĠBeat les
I n
ĠÐ³ Ð¸Ð³
ĠÐ¼ ÐµÐºÑģÐ¸ÐºÐ°Ð½
ĠÐľ Ð°Ð»Ð°Ð¹
ĠÐĵ Ð¾Ð¼
ĠÐĳ Ñį
ĠÐ¿Ð¾Ð´ ÑĬÑĳÐ¼
ÐĶ ÐµÐºÐ°
ĠÐŃ Ð¼
ÐµÐºÐ° ÐµÑĤ
ÐĹ Ð²
ĠÐ¾Ð±ÑĢÐ°Ð· ÑĥÐµÑĤ
ĠÑĥÐ¿ Ð¾Ð¼
ĠÐ³Ð°Ð· ÐµÑĤ
ĠÐ¸ÑģÐ¿Ð¾Ð»ÑĮÐ·Ð¾Ð² Ð°Ð½Ð¸Ð¸
Ġ189 2
ĠÑĩÐ°Ñģ Ð°
ĠÑĢÐ¾Ð¼ Ð°Ð½ÑĤ
Ġ| |
ÑĢÐ¾ÑģÑĤ Ð°Ð½
ĠÑĩÐµÐ»Ð¾Ð²ÐµÑĩÐµ ÑģÑĤÐ²Ð°
iv ers
ĠÑĥÑĢÐ°Ð²Ð½ ÐµÐ½Ð¸Ð¹
ĠÐ³ÐµÐ½ ÐµÑĤ
ĠÐ·Ð°ÑģÐµÐ´ Ð°Ð½Ð¸Ð¸
ĠÐ½Ð°ÑģÑĤ Ð¾Ð»ÑĮÐºÐ¾
ÐŁÑĢÐ¾Ð´ Ð¾Ð»Ð¶
ĠÐ¼ÐµÑĤÐ°Ð»Ð» ÑĥÑĢÐ³
ĠÐ± ÑĥÑħ
ĠÐ¾ÑĤ Ð²ÐµÑĢÐ³
ÐŁ Ð¾ÑĢÑĤ
ĠÐŁ ÑıÑĤ
Ð¾Ñĩ Ð°Ð¹
ĠÐ²ÑĢÐµÐ¼ ÐµÐ½Ð½ÑĭÑħ
ĠÐ²Ð¾Ð´ Ð¾ÑĢÐ¾Ð´
ĠÐ¼Ð¾ÑĢ ÐµÐ¼
ĠÐ·Ð°Ð½ ÑıÐ»Ð°
ĠÐĲÑĢ ÐºÑĤ
ĠÐ¿ÑĢÐµÐ¼ ÑĮÐµÑĢÐ°
ĠÐ²Ð· ÑĢÐ¾Ñģ
ic al
ĠÐĿÐ¾Ð² ÑĭÐ¹
ĠÐ¸ÑģÐ¿Ð¾Ð»ÑĮÐ·Ð¾Ð² Ð°Ð»ÑģÑı
ĠÑħÑĢÐ¸ÑģÑĤÐ¸Ð°Ð½ ÑģÐºÐ¾Ð¹
Ġ187 9
ĠÐ°ÑĤÐ¾Ð¼ Ð°
ĠÐľÐµÐ¶Ð´ÑĥÐ½Ð°ÑĢÐ¾Ð´ Ð½Ð¾Ð¹
ĠÐ¢ÑĢÐ¾ ÑĨÐºÐ¸Ð¹
ĠÐ½ÐµÐ´Ð¾ÑģÑĤ Ð°ÑĤ
ĠÐ·Ð°Ð»Ð¸ Ð²
ĠÑģÐ¾Ð¾ÑĢÑĥÐ¶ ÐµÐ½Ð¸Ñı
ĠÑģÑĥÑħ Ð¾Ð¿ÑĥÑĤ
ĠÐ²ÑĥÐ» ÐºÐ°Ð½
ĠÐĴÑıÑĩÐµÑģ Ð»Ð°Ð²
f f
Ð» ÑĭÐ¹
Ðº Ð¾ÑģÑĤÐ¸
ĠÐ² Ð¾Ð»ÑĮ
Ð»ÑĮ Ð½ÑĭÐ¼
ĠÐ´ Ð¸ÑģÐ¿
ĠÐ²Ñĭ Ð·ÑĭÐ²Ð°ÐµÑĤ
ĠÑĤÐ°Ðº Ð¸Ð¼Ð¸
Ð»Ñİ Ð±
Ð°ÑĢÑĤ Ð¸Ñı
ĠÐ´Ð² Ð¾
Ð¾Ð»ÑĮÐ· Ð¾Ð²
ĠÐ½Ð°ÑĢÐ¾Ð´ Ð½Ð¾Ð¹
ĠÑĢÐ°Ð·Ð²Ð¸ÑĤ Ð¸ÐµÐ¼
ĠÐ¿Ð°ÑĢÐ»Ð°Ð¼ÐµÐ½ÑĤ ÑģÐºÐ¸Ðµ
ĠÐ¿ÑĢÐ¾ÑĪ Ð»Ð¾Ð¼
ÐºÐ¾ÑĢ Ð¾Ð»ÑĮ
ĠÐ»Ð¸Ð± ÐµÑĢÐ°Ð»ÑĮ
ÐŁÑĢÐ¾ Ð¸Ñģ
ĠÐ°Ð´Ð¼Ð¸Ð½Ð¸ÑģÑĤÑĢÐ°ÑĤÐ¸Ð² Ð½Ð¾
ĠÐĴÐ¾ Ð¾ÑĢÑĥÐ¶
ĠÐ¾Ð±Ð¾ÑĢÑĥÐ´ Ð¾Ð²Ð°Ð½Ð¸Ðµ
ĠÐĵÐ¾ÑĢÐ±Ð°Ñĩ ÑĳÐ²
ÐĴÐ½ÐµÑĪ Ð½ÑıÑı
ĠÐļÐ°Ð¼Ð± Ð¾Ð´
t ion
Ð°Ð½ ÑģÐºÐ¸Ñħ
Ð°ÑĤ Ð»ÐµÑĤ
ÐµÐ¹ ÑģÐºÐ°Ñı
ĠÑģÑĤ Ð¾Ð»ÑĮ
ĠÐļ ÑĢÐµ
ĠÐļ Ð¸Ð¼
Ð¸Ð² ÑĪÐµÐµ
ĠÐ½Ðµ Ð¾ÑĤ
ĠÐĲ Ð¿Ð¾Ð»
ĠÐľ ÑİÐ½Ñħ
Ðľ Ð°ÐºÑģÐ¸Ð¼
Ð°Ð¹ Ð´
Ð¢ Ð¾ÑĢ
ÐµÑĩ ÐµÐ½Ð¸Ðµ
ĠÐ·Ð°Ðº Ð°Ð·
ĠÐ¿Ð¾Ð·Ð²Ð¾Ð» ÑıÑİÑĤ
ĠÐ²ÐµÐ´ ÑĳÑĤ
ĠÑģÐºÐ¾ÑĢ ÐµÐµ
ÑĦÐµÑģÑģ Ð¸Ð¾Ð½
Ð¿ÑĢ Ð¾Ñĩ
ĠÐ¾ÐºÐ°Ð· Ð°Ð»ÑģÑı
ĠÐ¿ÑĢÐ¾ÑħÐ¾Ð´ ÑıÑĤ
ĠÑĥÑĢÐ°Ð²Ð½ ÐµÐ½Ð¸Ñı
ĠÐĳÐ°Ð»ÑĤ Ð¸Ð¹ÑģÐºÐ¾Ð³Ð¾
ÐļÐ°ÑĢ Ð»
ÐĺÐ½ÑĤ ÐµÑĢ
ĠÑĦÐ°Ð¼Ð¸ Ð»Ð¸Ñı
ĠÐ±Ð°ÑģÐºÐµÑĤ Ð±Ð¾Ð»Ð¸ÑģÑĤ
ĠÐ¿ÑĢÐµÐ²Ð¾Ñģ ÑħÐ¾Ð´
c l
ĠÐ½Ð° ÑĢ
Ġ( ;
ĠÐ° Ð´Ð°
ĠÐľ ÐµÑĤ
ĠÐĺ Ð¾ÑĢÐ´
ĠÐ¸Ð¼ ÑĥÑīÐµ
Ð°ÑĢÐ° Ð¿
ĠÐ® Ð½
ĠÐ²Ð¾Ð¿ Ð»Ð¾Ñī
ĠÐºÐ¾Ð¼Ð°Ð½Ð´ Ð¸ÑĢÐ°
ĠÑģÐ²Ð¾Ð±Ð¾Ð´ Ð½Ð¾Ð¹
ĠÐ¾Ð±ÑĬÑıÐ² Ð»ÐµÐ½
189 6
ĠÐ¿ÑĢÐµÐ´Ð»Ð¾Ð¶ ÐµÐ½Ð¸Ñı
ĠÐ¸Ð½ÑĦÐ¾ÑĢÐ¼Ð° ÑĨÐ¸Ñı
ĠÑıÐ² Ð»ÐµÐ½Ð¸Ðµ
ĠÐ²Ð½ÑĥÑĤÑĢÐµÐ½ Ð½ÐµÐ³Ð¾
ĠÐ¿Ð¾Ð¿ÑĥÐ»ÑıÑĢ Ð½Ð¾ÑģÑĤÑĮ
ĠÑĩÐµÐ»Ð¾Ð²ÐµÑĩÐµ ÑģÐºÐ¾Ð³Ð¾
ĠÐ¿Ð¾Ñħ Ð¾ÑĢÐ¾Ð½
ĠÐ·Ð¸Ð¼ Ð¾Ð¹
ĠÐłÐ¾Ð¼ Ð°Ð½Ð¾Ð²
ĠÐºÐ¾ÑĪ ÐºÐ¸
ĠÐ¿ÐµÑĢÐµÐ¸Ð¼ÐµÐ½ Ð¾Ð²Ð°Ð½
Ð½Ð°Ð´ÑĨ Ð°ÑĤ
ĠÑģÑĢÐ°Ð¶ ÐµÐ½Ð¸Ð¸
ĠÐĳÐ¸Ð±Ð»Ð¸ Ð¸
ĠÐĴÑģÐµÐ» ÐµÐ½Ð½Ð¾Ð¹
Ð²ÐºÐ»ÑİÑĩ Ð°Ñı
e k
Ñ £
ĠÐ½Ð° Ð·ÐµÐ¼
ĠÐ½Ð° Ð¾Ð±Ð¾ÑĢÐ¾ÑĤ
Ð¾ÑĤ Ð¾Ð¿
ĠÐ¾Ð± ÐµÑī
ĠÐĲ ÑĢÐ°Ð²
Ð½Ð° Ñī
ĠÐĳ ÑĢÐ¸ÑĤ
ĠÑĢÐ°Ð· Ð¾ÑĢ
ĠÐ¾Ñģ Ð¸
ĠÐºÐ°Ðº Ð¸Ñħ
Ð»Ð°Ð² Ð´
ĠÑĢÑĥ ÐºÐ°Ñħ
Ð·Ð° ÑĨÐ¸Ñı
ĠÑģÐ¾Ð± ÑģÑĤÐ²ÐµÐ½Ð½Ð¾Ð¹
er v
ÑĳÐ» ÑĤ
ĠÐ°Ð´ Ð¼Ð¸ÑĢÐ°Ð»
ĠÐ¼ÐµÐ´ Ð¸ÑĨÐ¸Ð½Ñĭ
ĠÐ´ÑĢÐµÐ² Ð½ÐµÑĢÑĥÑģ
ĠÑĢÑĥÐºÐ¾Ð²Ð¾Ð´ ÑģÑĤÐ²Ð°
ĠÐ¿Ð°Ð¼ÑıÑĤ Ð½Ð¸ÐºÐ¾Ð²
ĠÐ¾ÐºÐ°Ð· Ð°Ð»Ð°ÑģÑĮ
ĠÐ±Ð¾ÑĢÑĮ Ð±Ñĥ
ĠÐ¾ÐºÑĢÑĥÐ³ Ð¾Ð²
ĠÐºÑĢÐ°Ð¹ Ð½ÐµÐ¹
ĠÑĤÐµÑĢÐ¼ Ð¸Ð½Ð°
ĠÐ¸ÑģÑģÐ»ÐµÐ´Ð¾Ð² Ð°ÑĤÐµÐ»ÐµÐ¹
Ð¼ÐµÐ¹ ÑģÑĤÐµÑĢ
ÐµÑĢÐ°ÑĢ Ñħ
ÐĺÑģÑĤÐ¾Ñĩ Ð½Ð¸ÐºÐ¸
Ð°Ð½ Ð½Ð°
Ð°Ð½ Ð°Ñģ
ÑĩÐµ ÑģÑĤ
ĠÐ¿ÑĢÐ¸ ÑģÑĤÐ°Ð²
ĠÐ» ÑĭÐ¶
ĠÐ¿ÐµÑĢ ÐµÐ±
ÑĤÐ¾ Ðµ
ÑİÑĤ ÐµÑĢÐ°Ð½
Ðľ Ð¾Ð»
Ðľ Ð°ÑĢÐº
Ð¢ Ð¾
ĠÐ¥ ÑĥÐ°Ð½
ÐµÐ¿ ÑĤ
ÑĥÑİÑī Ð¸Ð¼Ð¸
ĠÑįÐºÑģÐ¿ Ð¾ÑĢÑĤÐ°
ĠÐ²ÑĭÑģÐ¾Ðº Ð¸Ð¼
ĠÑįÐ»ÐµÐ¼ÐµÐ½ÑĤ Ð°
ĠÐ·Ð°Ð¿Ð°Ð´ Ð½ÑĭÑħ
ĠÐ·Ð°ÐºÐ»ÑİÑĩ ÐµÐ½Ð¸Ñı
ĠÐ´Ð°ÑĤ ÑģÐºÐ¸Ð¹
ĠÐ¿Ð°Ð¿ Ñĭ
ĠÑįÐºÑģÐ¿ÐµÐ´ Ð¸ÑĨÐ¸Ñı
ĠÑģÑĥÑĤ Ð¸
ĠÑĢÐµÐ·ÑĥÐ»ÑĮÑĤÐ°ÑĤ Ð°Ð¼
Ð°ÑĤÐ°Ð»ÑĮ Ñı
ĠÐ¼ÐµÑģÑĤÐ¾ÑĢ Ð¾Ð¶Ð´ÐµÐ½Ð¸Ñı
ĠÐ´ÐµÐ»ÑıÑĤ ÑģÑı
ĠÐ¿Ð¾Ð´ÑĢÐ°Ð·ÑĥÐ¼ ÐµÐ²
Ñı Ð·Ñĭ
ĠÑģ Ð½Ð°Ð±
Ð»Ð¸ Ð³
Ñİ ÑĢÐ¸
ÑĪ ÐµÐ½ÐºÐ¾
ĠÐ½Ð° Ð³ÑĢÐ°Ð´
Ñī Ð¸ÐºÐ¸
ĠÐ· Ð¾ÑĢÐ¾Ð°ÑģÑĤ
ÐµÐ»ÑĮ Ð½ÑĭÐ¹
Ð¾Ð· Ðµ
ĠÐĵ Ð°Ð½
ĠÐĳ ÑĥÑĢÐ³
Ðł Ð¾Ð±
Ð¾Ð»Ð¾Ð³ Ð¸
ĠÐĹ Ð°Ñħ
ĠÐ¡ÑĤ ÑĢÑĥÐ³Ð°
ĠÑĤÐµÐ°ÑĤ ÑĢÐ°Ð»ÑĮ
ĠÑĢÐµÐ·ÑĥÐ»ÑĮÑĤ Ð°ÑĤÐ¾Ð²
ĠÐºÐ¾Ð»Ð¸ÑĩÐµ ÑģÑĤÐ²Ð¾Ð¼
ĠÐ¸Ð·Ð¾Ð± ÑĢÐ°Ð¶ÐµÐ½Ð¸Ðµ
ĠÐ¾ÑģÑĥÑīÐµÑģÑĤÐ² Ð»ÑıÐµÑĤ
ĠÐĽÑİ Ð´Ð²Ð¸Ð³
ÑĩÐ°ÑģÑĤ Ð¸
ĠÐŁÑĢÐ°Ð² Ð¾ÑģÐ»Ð°Ð²
ĠÑģÐ¸ÑĤÑĥÐ° ÑĨÐ¸Ñı
ĠÑįÐ½ÑĨÐ¸ÐºÐ»Ð¾Ð¿ÐµÐ´ Ð¸Ñı
ĠÑģÐ¾Ð¿ÑĢÐ¾Ð² Ð¾Ð¶Ð´
ĠÐ²ÐµÐ½Ð³ÐµÑĢ ÑģÐºÐ¸Ð¹
ÐĵÑĢÐ°Ð¶Ð´Ð°Ð½ ÑģÐºÐ°Ñı
ĠÑĥÐ³Ð»ÐµÑĢ Ð¾Ð´Ð°
b o
ĠÐĲ ÑģÑĤ
ÑĢÐ¾Ð² Ð°Ð½Ð¸Ñı
Ð¸Ð´ ÐµÐ¼
ÑĥÑĢ Ð½ÑĭÐ¹
ĠÑħ ÑĥÐ½
ĠÑĢ Ð¾Ñģ
Ð¢ Ð¾Ð»ÑĮÐºÐ¾
ĠÐºÐ¾Ð½ Ð²
Ð´Ðµ ÑĪ
ĠÐ¿Ð¾Ñģ ÐµÐ»
ÑĨÐ¸Ð¾Ð½ Ð½ÑĭÐ¼
ĠÐ¾ÑĢ ÑĦ
ĠÐºÐ¾Ð¼Ð¿ Ð»ÐµÐºÑģÐ°
ĠÐĶÐ¶ Ð¾Ð½Ð°
ĠÐ·Ð½Ð°Ñĩ Ð¸ÑĤ
ĠÐ½Ð°ÑħÐ¾Ð´ Ð¸Ð»Ð°ÑģÑĮ
ĠÐ±ÐµÐ· ÑĢÐ°Ð±Ð¾ÑĤ
ĠÑĩÐ»ÐµÐ½ Ð°Ð¼Ð¸
ĠÑģÐ¾Ð´ ÐµÐ¹ÑģÑĤÐ²
ÑıÑģ Ð½
ol og
ÑģÑĤÐ°Ð½ÑĤ Ð¸Ð½
ĠÑĤÐµÑĩ ÐµÐ½Ð¸Ñı
ĠÐ¿Ð¸ÑģÑĮ Ð¼Ðµ
ĠÐ¿ÑĢÐ¸Ð½Ð¸Ð¼ Ð°ÑĤÑĮ
ĠÐ³ÐµÑĢÑĨÐ¾Ð³ Ð°
ĠÑįÐºÐ· ÐµÐ¼Ð¿Ð»Ñı
ĠÐłÑĥ ÑģÑĮ
ĠÐĶÑĢÐµÐ² Ð½ÐµÐ¹
ĠÐ¢Ð°Ð¹ Ð²Ð°Ð½
ĠÐ½Ð°Ð¿ÑĢÑı Ð¶
ĠÐĴÐ¾Ð· ÑĢÐ¾Ð¶Ð´ÐµÐ½Ð¸Ñı
ĠÐ·ÐµÐ¼Ð»ÐµÑĤÑĢÑıÑģ ÐµÐ½Ð¸Ðµ
Ðº ÐµÐ¹
Ð² ÑĤÐ¾ÑĢ
Ð¼ Ð¾Ð´
ĠÐ¾ ÑĩÐµÐ²Ð¸Ð´
ĠÐº Ð°Ð»Ð¸
Ð»ÑĮ Ð½Ð°Ñı
ÐµÑĤ Ð¸
Ð°ÑĢ Ñĥ
ĠÑĥ Ð²ÐµÑĢ
ĠÐļ ÑĥÐ·
Ðł Ðļ
ÐµÑģ Ð¾ÑİÐ·
ĠÑĢÑĥÑģ ÑģÐºÐ¸Ð¼
Ð½Ñĥ Ð²
ar y
ÐŀÐ´ Ð½Ð¾Ð²ÑĢÐµÐ¼ÐµÐ½Ð½Ð¾
Ġ189 1
ÐĴÐ¾ Ð¾ÑĢÑĥÐ¶
Ġ188 5
ĠÐ¸Ð·ÑĥÑĩ ÐµÐ½Ð¸Ðµ
ĠÐĲÐ» Ð¶
Ð¡Ð°Ð¼ Ð°Ñı
ĠÐ±ÑĢÐ°ÑĤ ÑĮÐµÐ²
ĠÐĲÐ´ Ð¾Ð»ÑĮÑĦ
ĠÐ¿Ð¾Ð»ÑĮÐ·Ð¾Ð² Ð°ÑĤÐµÐ»Ñı
ĠÐ½ÐµÐ¸Ð· Ð¼ÐµÐ½
ĠÐ²ÑĭÐ´ÐµÐ»Ñı ÑİÑĤ
ĠÐ´Ð²ÑĥÐºÑĢÐ°ÑĤ Ð½Ð°Ñı
ĠÑĥÑĩÐ°ÑģÑĤÐ²Ð¾Ð² Ð°Ð»
ĠÐŁÑĥÑĤ Ð¸Ð½Ð°
ĠÑģÑĤÐ°Ð´ Ð¸Ð¾Ð½
ĠÑħÐ°ÑĢÐ°ÐºÑĤÐµÑĢÐ¸Ð· ÑĥÐµÑĤÑģÑı
Ð§Ð°ÑģÑĤ ÑĮ
ĠÑģÐ¾Ð¾Ð±ÑīÐµ ÑģÑĤÐ²Ð°
ĠÐķÐ»Ð¸Ð·Ð°Ð² ÐµÑĤÐ°
ĠÑĢÐµÐºÐ¾Ð¼ ÐµÐ½Ð´
Ġ z
Ð½ ÑĥÐ»
Ð¾Ð½ Ð°Ñģ
ĠÐ± Ð°Ñģ
Ð¸Ðº Ð°Ð¼
Ð¾Ð± ÐµÑĢÐµÐ¶
ÐŁ ÐµÑĢÑģ
ĠÐ¿ÐµÑĢ ÐµÐµÑħ
ĠÐĳ Ñĥ
Ð¸Ñĩ Ð½Ð¾ÑģÑĤÐ¸
Ð¢ ÐµÐ¾ÑĢ
Ð¾ÑĦ Ð¸Ð·
ĠÑĢÐ°Ñģ ÑĪÐ¸
ĠÐµÐ´Ð¸Ð½ Ð¾Ð³Ð¾
ĠÐ¿ÐµÑĢÐµ ÑħÐ¾Ð´Ð¸ÑĤ
ĠÑĢÐµÐ³ ÑĥÐ»Ð¸ÑĢÐ¾Ð²
Ġ188 8
189 5
ĠÐ¾Ð±ÐµÑģÐ¿ÐµÑĩ Ð¸Ð²Ð°ÐµÑĤ
ĠÐ¾ÑĤÑģ ÑĩÑĳÑĤÐ°
ĠÐ·Ð½Ð°ÑĩÐ¸ÑĤÐµÐ»ÑĮ Ð½ÑĭÐµ
ĠÐ´ÐµÑĢÐµÐ² ÑĮÐµÐ²
ÐłÐ°Ð· Ð²Ð¸ÑĤ
ĠÐ»ÑĥÑĩ ÑĪÐ¸Ñħ
ĠÐ²Ð¾Ð·ÑĢÐ°ÑģÑĤ Ð°
ĠÐ°Ð¿Ð¿ Ð°ÑĢÐ°ÑĤÐ°
ĠÐĿÐ°ÑĨÐ¸Ð¾Ð½Ð°Ð»ÑĮ Ð½Ð¾Ð³Ð¾
ĠÐ¼Ð¾ÑģÑĤ Ð°
ĠÑĢÐµÐ´Ð°Ðº ÑĤÐ¾ÑĢ
ĠÐºÐ¾Ð½ÑĦÐµÑĢ ÐµÐ½ÑĨÐ¸Ñı
ĠÑģÐ²Ñı Ð·ÑĭÐ²Ð°
ÐŃÐ½ ÐµÑĢÐ³
ĠÐºÐ¾Ð°Ð»Ð¸ ÑĨÐ¸Ð¸
ĠÐ¢Ð¾Ð» ÑģÑĤ
ĠÐ¿ÑĢÐµÑĤ ÐµÐ½Ð´
ÑĢÐµ Ðº
ÑĢÐ¸ Ð¿Ð¿
ĠÐ´ Ð°ÑĤÑĮ
ĠÐ³ ÑĥÐ±
ĠÐ· Ð²ÐµÑĢ
ĠÐĲ Ð½Ð°ÑģÑĤÐ°Ñģ
ĠÐ¿Ð¾ ÑĢÐ°Ð¶
ÑģÑģ Ð¾Ð½
ĠÐĶ Ðµ
ĠÐ·Ð°Ðº Ð°Ð½ÑĩÐ¸Ð²
ĠÐ¼Ð½ ÐµÐ½Ð¸Ñı
ĠÐ½ÐµÐ¼ÐµÑĨ ÐºÐ¸Ðµ
ĠÐºÐ¾Ð»Ð¸ÑĩÐµ ÑģÑĤÐ²Ñĥ
ĠD e
ĠÑģÑĤÐ°ÑĢ ÑĪÐ¸Ð¹
ĠÑĥÑĤÐ²ÐµÑĢÐ¶Ð´ ÑĳÐ½
ÑĢÐ¾Ð± Ð»ÐµÐ¼
ĠÑĢÐ°Ð·Ð³ Ð¾Ð²Ð¾ÑĢ
ĠÐ¾Ð¿ÑĤ Ð¸Ð¼
ĠÐ½Ð¾ÑĢÐ²ÐµÐ¶ ÑģÐºÐ¸Ð¹
ĠÐºÐ°Ð·Ð½ ÑĳÐ½
ĠÐ¿ÑĢÐµÐ¿ ÑıÑĤ
ĠÐ¿ÑĢÐµÐ¾Ð´ Ð¾Ð»
ÐŀÐ±Ñĭ ÑĩÐ½Ð¾
Ð¢ÐµÑĢÑĢÐ¸ÑĤÐ¾ÑĢ Ð¸Ñı
y st
ÑĢÐ° Ð»Ð°
Ð± ÐµÐ·
ĠÐº ÑĥÐ´Ð°
ÐµÐ¼ ÑĮ
Ñī Ð¸Ð½Ñĭ
Ð°Ð» Ð¾Ð½
ĠÑģÑĤ ÐµÐ½Ñĭ
ÐŁ ÑĢÐ¾Ð²
ÐŁ ÑĢÐ¾Ð¼ÑĭÑĪÐ»ÐµÐ½
ĠÐ» Ð¸Ð²
ĠÐ» Ð¾ÐºÐ¾Ð¼Ð¾ÑĤ
ĠÐ¿Ð¾Ð» Ð½Ð¾Ð³Ð¾
ÐĲ Ð²Ð¸
Ð½Ð¾Ð² ÐµÐ½Ð¸Ðµ
ĠÐ¢ Ð°ÑĢ
ĠÑĨ ÐµÐ»ÐµÐ¹
Ð¾Ñı Ð±ÑĢÑĮ
20 21
Ð¾Ð²Ð°Ð½ Ð½Ð¸
ĠÐ¿Ð¾ÑĢ ÑĤÐ°
ĠÐ²ÑĭÑģÐ¾Ðº Ð¸Ð¹
ĠÐ³ÑĢÐ°Ð½ Ð¸ÑĨÐ°
ĠÑģÐ¾ÑħÑĢÐ°Ð½ ÐµÐ½Ð¸Ñı
ĠÑģÐ»ÑĥÐ¶ Ð¸Ð»
ĠF M
ĠÑģÑĤÑĢÐ¾Ð¸ÑĤÐµÐ»ÑĮ ÑģÑĤÐ²Ðµ
ĠÐ¼Ð°ÑĤÐµÑĢÐ¸ Ð°Ð»Ñĭ
ĠÐºÐ¾ÑĢÐ°Ð± Ð»Ðµ
ĠÐºÑĢÑĥÐ¿Ð½ÐµÐ¹ ÑĪÐ°Ñı
ĠÐ»Ð¸Ñĩ Ð½Ð¾
ĠÐĴÐ¸Ðº Ð¸Ð¿ÐµÐ´
ĠÐ¿ÑĢÑıÐ¼ Ð¾Ð¹
ĠÐ°ÑģÑģ Ð°Ð¼Ð±Ð»Ðµ
ĠÐ´Ð¸ÑģÐº ÑĥÑģÑģ
ĠÐľÐ¸Ð½Ð¸ÑģÑĤ ÐµÑĢÑģÑĤÐ²Ð°
ĠÐ¾Ð¿Ð¿Ð¾Ð· Ð¸
ĠÑģÐ¿ÐµÑĨÐ¸Ð°Ð»Ð¸ÑģÑĤ Ð¾Ð²
-- --
i al
Ñģ Ð¸Ñı
ĠÐ¿ Ð°ÑĢÐ¸
ĠÐļ Ð°Ð¹
ĠÐļ ÑĢÐ¾Ð½
Ð¾Ðº Ñĥ
ĠÐŁ Ð¾Ð¼
ÐĲ Ð¡
Ð¸Ñĩ Ð½Ð¾Ðµ
ÑĥÑģ Ð¾Ð¼
ĠÐŀ Ðº
ĠÐ® ÐĿÐķÐ¡ÐļÐŀ
Ð¥ ÑĢÐ¸ÑģÑĤÐ¸Ð°Ð½
ĠÑģÐµÑĢ Ð¸Ð¹
ĠÑĦÐ¸Ð· Ð¸ÐºÐ°
ĠÐ¸Ð·Ð± ÐµÐ¶
ĠÐºÑĢÐ¸ÑĤ Ð¸ÐºÐ¾Ð²
ĠÐ¿ÑĢÐ¾Ð¸Ð·Ð²ÐµÐ´ ÐµÐ½Ð¸Ðµ
ĠÐ±ÑĭÐ² ÑĪÐ°Ñı
ĠÑĪÑĤ Ð°ÑĤÐ°
ĠÐ¾ÑĤÐ½Ð¾ÑĪÐµÐ½Ð¸Ñı Ñħ
ĠÐ¸ÑģÐ¿Ð¾Ð»Ð½ Ð¸ÑĤÐµÐ»ÑĮ
ĠÑģÐ¿ÐµÑĨÐ¸Ð°Ð»ÑĮ Ð½Ð¾
ĠÑĢÐ°ÑģÑģÐ¼Ð°ÑĤÑĢÐ¸ Ð²
ĠÐ¢ÑĢÐ¾ ÑĨÐºÐ¾Ð³Ð¾
ĠÐ·Ð°ÑģÐ»ÑĥÐ¶ ÐµÐ½Ð½Ð°Ñı
ĠÐ±Ð°ÑģÑģ ÐµÐ¹
ĠÐ¾Ð±Ð¾ Ð¸Ñħ
a z
Ġ Q
Ñı Ñı
ÑģÑĤÐ² Ð¸ÐµÐ¼
Ð¡ Ð°Ð½
ĠÐ¡ Ð°Ð±
ÐŁ Ð¾Ð½
ĠÐļ Ð°ÑĢÐµ
ĠÐ» Ð¾ÑĪ
ĠÐľ Ð°Ð»Ð¸
ĠÐŁ ÐµÐº
Ð¼Ð¸ Ð½Ñĭ
ĠÐ²Ñĭ Ð²ÐµÐ´
Ð²Ð° ÑĢÐ¸ÑĤÐµÐ»ÑĮ
ĠÐ¿ÑĢÐµÐ´ Ð²Ð¾Ð´
ÑĢÐ¾ ÑģÐºÐ¾Ð¿
Ð°Ð¿ ÑĤ
ĠÑįÐº ÑģÑĤ
ĠÐ¿Ð¾ÑĤ ÐµÑĢÐ¸
ĠC l
ĠÐļÐ¾Ð½ Ð³ÑĢÐµÑģÑģ
ĠÐ¿ÐµÑĢÐµÐ´ Ð°Ð²
ĠÐ½Ð°Ð´ Ð¿Ð¸Ñģ
ĠÐ¼ÑĥÐ·Ñĭ ÐºÐ°
ĠÐ¸Ð´Ðµ Ð¾Ð»Ð¾Ð³
ĠÐºÐ½ÑıÐ· ÐµÐ¼
ĠÐ¿Ð¾Ð·Ð²Ð¾Ð» Ð¸Ð»Ð¾
189 7
us s
ent er
ĠÐĽÐ¾Ð½Ð´ Ð¾Ð½
ĠÑģÑĥÑīÐµÑģÑĤÐ²Ð¾Ð² Ð°Ð»Ð¾
Ð°Ð½Ð°Ð² Ð»Ð¸Ð²
ĠÐºÐ¾Ð»Ð»ÐµÐºÑĤ Ð¸Ð²
ĠÐ¾ÑĦÐ¸ÑĨ ÐµÑĢÐ¾Ð²
ĠÐ¸Ð½ÑĤÐµÐ»Ð»ÐµÐºÑĤ Ñĥ
ĠÑħÑĢÐ¾Ð¼ Ð°ÑĤ
ĠÐĿÐ°Ð¿Ð¾Ð»Ðµ Ð¾Ð½Ð°
ĠÐ¿Ð¸Ð»Ð¾ÑĤ Ð¸ÑĢÑĥ
ÐľÐ¾ÑģÐº Ð²Ð°
ÐĳÐ¾ÑĢ Ð¸Ñģ
o st
Ñģ Ð°Ð¼Ð±
Ðº ÑĥÑĢ
Ð¿ ÐµÑĢÐµÐ´
ĠÑĩ ÑĳÐ¼
ÐµÐ´ Ð¶
ĠÐ¾Ð± Ð¾Ð»Ð¾Ñĩ
ĠÐļ Ð¾Ð·
ĠÐ¿ÑĢÐ¸ ÑģÑı
ĠÐĴ Ð¾Ñģ
ĠÐĴ ÑĤÐ¾ÑĢÐ°Ñı
Ð¸Ð· Ð²ÐµÑģÑĤ
ĠÐ²Ñĭ ÑĢÐ°Ð±Ð¾ÑĤ
ÑĥÐ¼ ÐµÐ½
ĠÐĶ Ð·
Ð¸Ñĩ Ð¸Ð½Ð¾
ĠÐ¨ ÐµÐ»
ĠÐĲÐ½ Ð½Ñĭ
ĠÐ¾Ð±ÑĢÐ°Ð· Ð¾Ð²Ð°Ð½Ð¸ÐµÐ¼
ĠÐ¼Ð°ÑĢ Ðº
ĠÐ¿Ð¾Ð»Ð¸ÑĤ Ð¸ÐºÐµ
Ð»ÐµÑĤ Ð¸Ñİ
Ð¸ÑĦ Ð°
Ð¡ÑĤ ÑĢÐ¾
ĠB r
ÑĥÐ»Ð¸ ÑģÑĮ
ĠÑĢÐµÑĪ ÐµÐ½Ð¸Ð¹
ĠÐłÑĥÑģ ÑģÐºÐ¾Ð³Ð¾
ĠÐ³Ð¾Ð²Ð¾ÑĢ Ð¸ÑĤÑĮ
ĠÑģÑĤÑĢÑĥÐºÑĤ ÑĥÑĢÑĥ
ĠÐ¾Ñħ Ð²Ð°ÑĤÑĭ
ĠÐ¿Ð¾Ð²ÐµÑĢÑħ Ð½Ð¾ÑģÑĤÑĮ
ĠÐ°Ð²ÑĤÐ¾Ð¼Ð¾Ð± Ð¸Ð»ÐµÐ¹
ĠÐ³Ð° ÑĢÐ°Ð½ÑĤ
ĠÐ¾Ð´ÐµÑĢÐ¶ Ð°Ð»
ĠÐ¿ÑĢÐ¸ÑģÐ²Ð¾ ÐµÐ½Ð¾
ĠÐ¶Ð¸Ð´Ðº Ð¾ÑģÑĤÐ¸
Ð°ÑĤÑĮÑı Ð½Ð°
ĠÐļÐµÐ½Ð½ ÐµÐ´Ð¸
Ð¡ÐµÐ½ÑĤ ÑıÐ±ÑĢÑĮ
ÐļÐ¾Ð¼Ð¼ÐµÐ½ÑĤ Ð°ÑĢÐ¸Ð¸
N ET
n e
Ð» Ð¾Ð±
ĠÑģ Ð¸Ð´
Ð¿ Ð¾ÑĢÑĤ
ĠÐ¡ ÑĤÐ°
ĠÐ¡ Ð¸Ð³
ĠÐ¡ Ð²ÐµÑĢÐ´Ð»Ð¾Ð²
Ð¾Ð± ÑĭÑĤ
ÐµÐ¹ Ð·Ð°
ÐĴ Ð¾Ð´
ĠÐŁ Ð°ÑĢÐ°
ĠÐ²Ñĭ ÑħÐ¾Ð´Ð¸ÑĤ
ĠÑħ Ð°Ð»Ð¸ÑĦ
Ð¢ ÑĢÐ°Ð´Ð¸
ĠÐ¿Ð¾ÑģÑĤ Ñĥ
Ðķ ÑģÑĤÑĮ
ĠÐ¿Ð¾Ð»Ð¸ÑĤ Ð¸ÑĩÐµÑģÐºÐ¾Ð³Ð¾
ĠÐ¾ÑĤÐºÑĢÑĭ Ð»Ð°ÑģÑĮ
ĠÐ¼Ð¸Ð½ ÐµÑĢÐ°Ð»ÑĮ
ĠÐ¾Ð±Ñī Ð¸Ð¹
ĠÐ²ÑĭÑģÐ¾Ðº Ð¾Ð³Ð¾
Ġ189 3
ĠÐ±ÐµÑģÐ¿ Ð¾ÑĢÑıÐ´
ĠÐ¿ÑĥÐ½ÐºÑĤ Ð¾Ð²
ĠÐ²Ð¾ÑģÐ¿ÑĢÐ¸ ÑıÑĤÐ¸Ñı
ĠÐºÐ¾ÑĢÐ¿ Ð¾ÑĢÐ°
ĠÐ¾Ð¿Ð¿Ð¾Ð· Ð¸ÑĨÐ¸Ð¸
ĠÐ¾ÑĤÑĢÑı Ð´Ð°
ĠÐ¼ÐµÑĤÐ° ÑĦÐ¸Ð·
ĠÐ·Ð´ÑĢÐ°Ð²Ð¾Ð¾ÑħÑĢÐ°Ð½ ÐµÐ½Ð¸Ñı
ÐĶÐµÐºÐ° Ð±ÑĢÑĮ
p le
ĠÐ¿ ÐµÑī
ÑĮ ÐµÐ¼
ÐµÐ½ ÑģÑĤÐ²Ð¾
ĠÐ½ Ð¾Ð³
ĠÐ¼ Ð¾ÑĤÐ¾ÑĢ
ĠÐ¼ ÑıÑģ
Ð°Ðº Ð¾
ĠÐļ ÑĢÐµÑģÑĤ
ÑĢÐ°Ð½ ÐµÐµ
ĠÐĵ Ð¾ÑĢÑĮ
ĠÐĳ ÐµÐ¹
ÐĶ Ð²Ð°
ÐĶ ÐµÐ»Ðµ
Ð¢ ÐĴ
Ð°Ñģ Ð»ÑĥÐ¶
ĠÐ£ ÐºÐ°Ð·
ĠÐ® ÐĲÐł
ĠÐ½Ð°ÑĢÐ¾Ð´ Ñĭ
ĠÐ´ÐµÐ¹ÑģÑĤÐ² Ð¸ÑĤÐµÐ»ÑĮÐ½Ð¾
is h
ĠÐ·Ð² ÑĥÐºÐ°
ĠÐ¿ÑĢÐ¸Ð·Ð½ Ð°Ð²
ĠÐļÐ°Ð½ Ð°Ð´Ðµ
ĠÐĵÐ¾ÑģÑĥÐ´Ð°ÑĢ ÑģÑĤÐ²ÐµÐ½Ð½ÑĭÐ¹
ÐŁÑĢÐµÐ´ Ð¿Ð¾Ð»
ĠÐ´Ð¾ÑģÑĤÐ¸ Ð¶
ĠÐ´ÐµÐ² ÑıÑĤ
ĠÐºÐ¾Ð½ÑĦÐ»Ð¸ÐºÑĤ Ð°
ĠÐ¿ÑĢÐ¾Ñĩ Ð¸Ñħ
ĠÐ²ÐµÑĢÑĤ Ð¸Ðº
ÐŃÐº ÑģÐ¿
ĠÐ¸Ð½Ð´ÑĥÑģÑĤ ÑĢÐ¸
Ð¶ÐµÐ´ Ð½ÐµÐ²
Ð°ÑĢ ÑģÐºÐ¾Ð¹
ĠÐľ Ð¾Ñħ
ĠÑħ Ð°
ĠÑĩÐµÐ»Ð¾Ð²ÐµÐº Ñĥ
ÑĥÐ»Ñı ÑĨÐ¸Ð¸
Ð¸ÑģÐº Ð¸
ĠÐ·Ð°ÐºÐ¾Ð½ Ð¾Ð¼ÐµÑĢ
ĠÑģÐ¾Ð´ÐµÑĢÐ¶ Ð°Ñī
ĠÐ´Ð¾ÑĢÐ¾Ð³ Ðµ
ÑĪÑĤ Ð°Ð´
ĠÐ²Ð²ÐµÐ´ ÐµÐ½Ð°
ĠÐ¿ÑĢÐ¾Ð²Ð¾Ð·Ð³Ð»Ð°ÑĪ ÑĳÐ½
ĠÐ½Ð°Ð½ ÐµÑģ
ĠÐ¿Ð¾ÑĤÐµÑĢÐ¿ ÐµÐ»
A R
i re
Ð¾Ð² Ð°Ð½Ð¸Ð¸
ĠÑģ Ð°ÑĤ
Ð¸Ð½ Ðº
Ð¸Ð¼ ÐµÑĤ
Ð°Ð» Ð°ÑĤ
ĠÐł Ð¾Ð·
Ð¸Ð´ Ð¶
ĠÑĢÐ°Ð· Ð½ÑĭÐ¼
ĠÐĺ ÑĢÐ°Ðº
Ð»ÐµÐ½ Ð½Ð¾Ð¹
Ð½Ñı Ð¼Ð¸
Ð¼Ð° ÑĪ
ĠÐ¥ Ð°Ð±
ĠÐ²ÑģÐµ Ð¾Ð±
ĠÑģÑĢÐµÐ´ Ð½Ð¸Ñħ
ĠÐ¿ÑĢÐ¾ÑĤÐ¸Ð² Ð¾Ð¿Ð¾ÑģÑĤÐ°Ð²
ĠÐ·ÐµÐ¼ Ð½Ð¾Ð¹
ĠÐ·Ð°ÐºÐ¾Ð½ Ð¾Ð¼
ĠÐ²ÑĭÐ¿ ÑĥÑī
ÐŀÑģÐ½Ð¾Ð² Ð½Ð¾Ð¹
ÐŀÑģÐ½Ð¾Ð² Ð½ÑĭÐ¼Ð¸
ĠÐºÐ½ÑıÐ· ÐµÐ¹
ĠÐ±Ð¸ Ð¾Ð»Ð¾Ð³
ĠÑģÐ¾ÑĨÐ¸Ð°Ð»ÑĮ Ð½Ð¾Ð³Ð¾
ĠÐ¿Ð¾Ð»ÑĮ ÑģÐºÐ¾Ð³Ð¾
ĠÐ¾ÑĤÐ¿ÑĢÐ°Ð² Ð¸Ð»ÑģÑı
ĠÑģÑĢÐ°Ð²Ð½ Ð¸ÑĤÐµÐ»ÑĮÐ½Ð¾
ĠÐºÐ»ÑĥÐ± Ð°
ÑģÐµÐ½ Ð¾ÑĦ
ĠÑĤÑĢÐ°Ð´ Ð¸ÑĨÐ¸Ñı
ĠÐĲÐ±Ð´ ÑĥÐ»
ĠÐĵÐµÑĢÑĨ ÐµÐ³Ð¾Ð²
ÑĢÐ° ÑģÐ¿
Ð± Ð¸Ð»Ð¸
ĠÐº Ð¸ÐµÐ²
Ð¾Ð½ Ð°Ñħ
ĠÑĤ Ð¾ÑĢÐ¼
ĠÐ· Ð¼Ðµ
Ð°Ð» Ð»
ĠÑĦ Ð°ÑĢ
ĠÑĦ Ð¾Ð½Ð´
ĠÐ½Ðµ ÑģÐ¾Ð²
ĠÐŁ ÑĢÐ°
ÐµÑĢÐ° ÑĨÐ¸Ñı
ÑĥÑĢ Ð¾Ð¶Ð´
ĠÐĶ Ð°Ð³
Ġ5 1
Ġ5 2
Ġ5 4
ĠÐ¼Ð°ÑĢ ÐºÐ¸
ĠÐ¼Ð¾ÑĢ Ñİ
ĠÑĦÐ¸Ð»Ð¾ÑģÐ¾ÑĦ Ð¾Ð²
Ġ188 1
189 9
ĠÑģÐ»ÐµÐ´ÑĥÑİÑī Ð¸Ñħ
ĠÐ±ÐµÑĢÐµÐ³ Ð¾Ð²
ÑĨÐ¸ÐºÐ»Ð¾Ð¿ÐµÐ´ Ð¸Ñı
ĠÐĿÐ¸ÐºÐ¾Ð»Ð° ÐµÐ²
ĠÐ²Ð»Ð° Ð¶
ĠÐŁÑĢÐ¾Ðº Ð¾ÑĦ
ĠÑįÐºÑģÐ¿Ð»ÑĥÐ°ÑĤÐ° ÑĨÐ¸Ñİ
ĠÐ½Ð°Ðº Ð¾Ð¿
P L
l i
Ð½ ÐµÐ½
Ðº Ð»Ð°ÑģÑģ
ÐµÐ½ ÑģÑĤÐ²
ĠÐ´ Ð½ÐµÐ²
ĠÑģÑĤ Ð¸Ð¼
ĠÑį Ð½Ð´
Ð°Ð»ÑĮ ÑģÐºÐ¸Ð¹
ĠÑģÐ² ÐµÐ´
ĠÐ¿Ð¾Ð» Ð¾Ñģ
ĠÐ¿Ð¾Ð» ÐºÐ¾Ð²
ÑĥÑĤ Ð¸
ÐµÐº ÑĨÐ¸Ð¸
ĠÐ¾Ñģ Ð½Ð°Ñī
ĠÐºÐ¾Ð¼ Ð°Ð½Ð´Ð°
ĠÐ¾ÑģÐ½Ð¾Ð² Ð½Ð¾Ð³Ð¾
ĠÐĶÐ¶ Ð¾Ð·ÐµÑĦ
Ð¸ÑĪ Ð¸Ð½
ĠÑĥÑģÑĤ ÑĢÐ°Ð½
Ð°Ñĩ Ð¸
ĠÑĦÐ¾ÑĢÐ¼ Ð°Ð»ÑĮÐ½Ð¾
ĠÐ¿ÐµÑĢÐµ ÑĪÐ»Ð¸
ĠÐ¼ÐµÐ¶Ð´ÑĥÐ½Ð°ÑĢÐ¾Ð´ Ð½ÑĭÐµ
ĠÐ¿ÑĢÐ¸Ð² Ð»ÐµÑĩ
ÑĢÐ¸Ð· Ð¼
Ð°ÑĢÐ°ÑĤ Ð¾Ð²
ĠÐ²Ð½ÐµÑĪ Ð½Ð¸Ñħ
ĠÐ¸Ð³ÑĢÐ° Ñħ
ĠÐ¦ÐµÐ½ÑĤÑĢÐ°Ð»ÑĮ Ð½Ð¾Ð³Ð¾
ÐļÐ°Ð· Ð°Ñħ
ĠÐºÐ°Ð»ÑĮ ÐºÑĥÐ»Ñı
ĠÐĺÐµÑĢÑĥÑģÐ°Ð»Ð¸ Ð¼
Ð¯Ð½ Ð²Ð°ÑĢÑĮ
Î ·
Ð½ Ð¸Ñģ
ÑĢ ÐµÐ½ÑĤ
ĠÐ½ ÐµÑĢÐ²
ĠÑĥ Ð¶
ÐµÐ»ÑĮ Ð½ÑĭÐµ
ĠÐ¾ÑĤ ÑĩÑĳÑĤ
ĠÐľ Ð¾Ðº
ĠÐĵ Ð¾Ñģ
ĠÐ²Ñĭ ÑģÐºÐ°Ð·ÑĭÐ²
ĠÐĿ ÐµÑĢ
ĠÐĶ Ð°
ĠÐĶ Ð¸Ð¼Ð¸ÑĤ
Ð½Ð¸ Ð½Ñĭ
Ðľ Ð¡
Ð¸Ñĩ ÑĮ
ĠÐ¿Ð¾Ñģ Ð»
Ðĵ Ð°Ð·
ĠÑģÐ¾ÑģÑĤ Ð¾ÑıÑĤ
ĠÐ²Ð¾Ð· Ð»Ðµ
ĠÐŃ ÑĤÐ¾
ĠÑģÐ¾Ð± Ð»ÑİÐ´
Ġ5 3
ĠÐ¼ÐµÑģÑĤ Ð¾Ð¼
ĠÐ¸ÑģÑĤÐ¾ÑĢ Ð¸
ĠÐ½Ð¾Ð² Ð³Ð¾ÑĢÐ¾Ð´
ĠÐ´Ð¾ÑģÑĤ Ð¾Ð²ÐµÑĢ
ĠÐ°ÑĢÑĤ Ð¸Ð»Ð»ÐµÑĢ
ĠÐ¿ÑĢÐ¾Ð¼ ÑĭÑģ
ĠÑĦÑĥÐ½Ðº ÑĨÐ¸Ñİ
ĠÐ¿Ð¾ÑıÐ² Ð»ÐµÐ½Ð¸Ðµ
189 8
ĠÐĳÐµÑĢ Ð»Ð¸Ð½Ðµ
ĠÐ´ÐµÐ»Ð° Ð¼
ĠÑģÐ¿ÐµÑĨÐ¸Ð°Ð»ÑĮ Ð½ÑĭÐµ
ĠÐ¾Ñħ ÑĢÐ°Ð½Ñĭ
ĠÐ²ÐµÑĤ ÑĢÐ°
ĠÑĩÐµÐ»Ð¾Ð²ÐµÑĩÐµ ÑģÐºÐ¾Ð¹
ĠÑģÐºÐ°Ð· Ð°ÑĤÑĮ
ĠÑįÑĤÐ½ Ð¾Ð³ÑĢÐ°ÑĦ
ĠÐ°Ð»ÑĦÐ°Ð²Ð¸ÑĤ Ñĥ
ÐľÐ°ÑĤ ÐµÐ¼Ð°ÑĤ
ÐļÐ°ÑĤÐ¾Ð» Ð¸ÑĩÐµÑģÐºÐ¸Ðµ
ĠÑģÐºÑĢÐ¸Ð¿ Ð°Ñĩ
ĠÑįÑģÐº Ð°Ð´
ĠMic rosoft
Ð¾ ÑĨÐ¸Ð¸
Ñĥ Ð¸
Ð¼ Ð°Ð·
Ð»Ð¸ Ð½Ð´
Ð¸ÑĤ Ð°Ð½
Ñį Ð¿
ĠÐ¾Ð± ÐµÐ·
ĠÐĴ Ð¸Ð»
ĠÐ²Ñĭ ÑĢÐ°Ð¶ÐµÐ½Ð¸Ðµ
ĠÐ¢ Ð°Ð¼
ĠÐĲÐ½ ÑĢÐ¸
ÐµÐ¼Ð¿ ÐµÑĢÐ°ÑĤ
ĠÐ¸ÑģÑĤÐ¾ÑĢ Ð¸ÑĩÐµÑģÐºÐ¾Ð³Ð¾
ĠÐµÐ´Ð¸Ð½ ÑģÑĤÐ²Ð°
ĠÑįÐºÑģÐ¿ Ð¾Ð·
ÐļÐ°ÑĤ Ð°ÑģÑĤÑĢÐ¾ÑĦÐ°
ĠÐ½Ð°Ð± ÐµÑĢÐµÐ¶
ĠÐ¾Ð¿ÑĢÐµÐ´ÐµÐ» ÑĳÐ½Ð½ÑĭÑħ
ĠÑģÐ²Ð¾Ðµ Ð¾Ð±ÑĢÐ°Ð·
ĠÐ¿Ð»Ð°ÑĤ Ð¾
ĠÐºÐ¾Ð¼Ð¿ÑĮÑİÑĤ ÐµÑĢÐ¾Ð²
ĠÐ´Ð¾ÐºÑĥÐ¼ÐµÐ½ÑĤ Ð¾Ð²
ĠÐ´Ð¾ÑģÑĤÑĥÐ¿ Ð°
ĠÐ±ÐµÐ¶ Ð°Ð»
ĠÑĤÐµÑĢÑĢÐ¾ÑĢ Ð¸ÑģÑĤ
ÑĳÑĢÑĤ Ð²
ĠÐ±ÑĥÐ¼ Ð°Ð³
ÐŁÐµÑĢÐ²Ð¾Ð½Ð°Ñĩ Ð°Ð»ÑĮÐ½Ð¾
r y
Ð¾ ÑĨÐµÐ½ÑĤ
ÐµÐ½ ÐµÐ¹
ÑĢÐ° Ñı
ĠÐ¸ ÐµÑĢÐ°ÑĢÑħ
Ð¿ ÑģÐ¸Ñħ
ÐŁ Ð°Ð²
ÐŁ ÐµÑĢÑģÐ¾Ð½
ĠÐľ Ðµ
ĠÑı Ñģ
Ðł ÐµÑģÐ¿ÑĥÐ±Ð»Ð¸
ĠÐĶ Ð¾Ð³Ð¾Ð²Ð¾ÑĢ
ÐĲ Ð¼ÐµÑĢÐ¸ÐºÐ°Ð½
ĠÐ¥ ÑĢÐ¸ÑģÑĤÐ¸Ð°Ð½
ÑĥÑģÑĤ ÑĢÐ¾Ð¹
ÐµÐ»Ñı Ð¼Ð¸
ĠÐ¸Ð¼Ðµ ÑİÑīÐ¸Ðµ
Ð§ ÑĤÐ¾
ĠÐ²Ð¾Ð´ Ð¾ÑħÑĢÐ°Ð½
ĠÐ¿ÑĢÐ°Ð²Ð¸ÑĤÐµÐ»ÑĮ ÑģÑĤÐ²Ñĥ
ĠÐ¼Ð½Ð¾Ð³ Ð¾Ð»ÐµÑĤ
ĠÐ°Ð²ÑĤÐ¾ÑĢ Ð¸ÑĤÐµÑĤ
Ġ188 2
ĠÐĲÐ»ÑĮ ÑĦÐ¾Ð½
ĠÐ²Ð°Ð¶ Ð½ÑĥÑİ
ĠÐĽÑİ Ð´
ĠÐ³Ð¾Ð²Ð¾ÑĢ Ñı
ĠÐ²Ð²ÐµÐ´ ÐµÐ½Ñĭ
ĠÐĳÐ¾ÑĢ Ð¸ÑģÐ°
ĠÐ¿Ð»ÐµÐ¼ ÐµÐ½Ð°
ĠÐĽÐ¸Ð² Ð¸Ð¸
ĠÐ¾Ð±ÑĢÐ°Ð·Ð¾Ð² Ð°Ð½Ð°
ĠÐ·Ð°Ð¿Ð°Ñģ Ñĭ
Ð»Ñĳ Ð¹
ĠÐ±Ð¾Ð»ÐµÐ· Ð½Ð¸
ĠÐ¿ÑĢÐ¸Ð³Ð»Ð° ÑĪ
ĠÑĤÐ¾Ð¿Ð»Ð¸ Ð²Ð°
ĠÐĴÐ°ÑĪ Ð¸Ð½Ð³ÑĤÐ¾Ð½
ÐµÐ»ÑĮÐ´Ð¼Ð°ÑĢ ÑĪÐ°Ð»
Ñģ ÐµÑĢÐ¸
Ñĥ Ð¸Ð»
Ñı Ð»ÑģÑı
ĠÐ¿ ÑĭÑĤÐ°
ĠÐ¾ ÑĢÑĥÐ´
ÑĢÐµ Ð²Ð¾Ð»Ñİ
ĠÐ½Ð° ÑĪÐµ
Ñĳ Ð½Ð¾Ð²
Ð½Ð° Ð¹
ĠÐ¿Ð¾ ÐµÐ·Ð´Ð¾Ð²
ĠÐŁ ÐµÐ´
ÑĢÐ¾Ð² ÑģÐºÐ¸Ð¹
ĠÑĢÐµ ÐºÑĥ
ĠÐĵ Ð°Ð¼
ÑĥÑĢ Ð½ÑĭÐµ
ÐĿ Ð¾ÑıÐ±ÑĢÑĮ
ĠÐĿ Ð°Ð·
Ð»ÐµÐ½ Ð½Ð°Ñı
ÐĶ Ð¾Ð½Ñĥ
ĠÐ¿ÑĢÐµÐ´ÑģÑĤÐ°Ð² Ð¸ÑĤÐµÐ»ÑıÐ¼Ð¸
ÑĥÑĪ Ð¸
ĠÐ³Ð¾ÑģÑĥÐ´Ð°ÑĢÑģÑĤÐ²ÐµÐ½ Ð½ÑĭÐ¼
ĠÑĢÐ°Ñģ ÑĪ
Ð¾Ð±Ñĭ Ñĩ
ĠÑįÐºÐ¾Ð½Ð¾Ð¼ Ð¸ÑĩÐµÑģÐºÐ¸Ð¹
ĠÐłÐµÑģÐ¿ÑĥÐ±Ð»Ð¸ ÐºÐ¾Ð¹
ĠÑĥÐ³ Ð»Ðµ
ĠÐ¿Ð¾Ð´Ð´ÐµÑĢÐ¶ ÐºÐ°
ĠÑĥÐ¼ Ð½Ð¾Ð¶
ĠÐ¾ÑĦÐ¸ÑĨÐ¸Ð°Ð»ÑĮ Ð½Ð¾Ð¹
ĠÐ·Ð½Ð°ÑĩÐ¸ÑĤÐµÐ»ÑĮ Ð½ÑĥÑİ
ĠÐ¿ÑĢÐ¾Ð²Ð¸Ð½ ÑĨÐ¸Ð¹
Ġf or
Ð¾Ð¶Ð´Ðµ ÑģÑĤÐ²
ĠÑĢÐµÐ³ÑĥÐ»ÑıÑĢ Ð½Ð¾
ĠÑģÐ¾Ð¿ÑĢÐ¾Ð² Ð¾Ð¶Ð´Ð°
ĠÐĲÑĢÑĤ ÑĥÑĢ
ĠÑįÐ²Ð¾Ð»Ñİ ÑĨÐ¸Ð¸
ĠÑģÐºÐ¾Ð½Ñĩ Ð°Ð»ÑģÑı
ĠÐ¡Ð¾Ð´ÑĢÑĥÐ¶Ðµ ÑģÑĤÐ²Ð°
Ð»ÑĮ Ð½Ð¾Ðµ
Ð»Ðµ Ñı
ÐŁ ÑĳÑĤÑĢ
ĠÐ¿ÑĢÐ¸ Ð»Ð°Ð³
ÐµÐº ÑĢÐµÑĤ
Ð²Ð° Ð¶
Ðľ Ð¾Ð¶
Ðĵ Ð¸Ð´
ĠÑĢÐ°Ñģ ÑģÐºÐ°
ĠÐºÐ»Ð°ÑģÑģ Ð¸ÑĦÐ¸ÐºÐ°ÑĨÐ¸Ð¸
ĠÐļÐ¾ÑĢ ÐµÑı
Ðĸ Ð°Ð½
ĠÑģÐ»ÑĥÐ¶ Ð¸ÑĤÑĮ
ĠÑĢÐµÑĪ ÐµÐ½Ð¸ÐµÐ¼
ĠÐ¿ÑĢÐ¾ÑĪ ÐµÐ´
ĠÑĪÐ¸ÑĢÐ¾Ðº Ð¾Ðµ
ĠÐ²Ð¾Ð·Ð² ÑĢÐ°ÑĤ
Ð¾ÑĢÐ¸ ÐµÐ½ÑĤ
ĠÑħÑĥÐ´Ð¾Ð¶Ðµ ÑģÑĤÐ²ÐµÐ½Ð½ÑĭÐ¹
ÐłÑĥÑģ ÑģÐºÐ¸Ð¹
ĠÐ²Ð´ Ð¾Ñħ
ul t
Ð°Ð¼ÐµÑĢÐ¸ÐºÐ°Ð½ ÑģÐºÐ¸Ð¹
ĠÐ¿Ð¾ÑıÐ²Ð»Ñı ÑİÑĤÑģÑı
ĠÐ¸ÑģÑĤÐ¾ÑĩÐ½Ð¸Ðº Ð°Ñħ
ĠÐºÐ¾Ð¼Ð¼Ñĥ Ð½Ð¸ÐºÐ°
ĠÐ¿ÐµÑĢÐµÑĩ Ð¸Ñģ
ĠÐĺÑĤÐ°Ð»Ð¸ Ñİ
Ð· Ð°Ðº
ĠÐ¼ Ð¸Ð»Ð¸
ĠÐ± Ð°Ð·Ñĭ
ĠÐµ Ð¿Ð°ÑĢÑħ
ĠÐ¿Ð¾Ð» ÐµÐ¹
ĠÐ¿Ð¾Ð»ÑĥÑĩ Ð¸Ð»Ð¾
ĠÐ¿ÐµÑĢÐµ ÑĪÑĳÐ»
ĠÑģÐµÐ²ÐµÑĢ Ð½ÑĭÑħ
ÑģÑĤÐ¾Ñı Ñī
ĠÐ°ÐºÐ°Ð´ÐµÐ¼ Ð¸Ñı
Ġ187 8
ĠÑĤÐµÐ¼Ð¿ÐµÑĢÐ°ÑĤ ÑĥÑĢÐµ
ĠÐ³ÑĢÐµÑĩÐµ ÑģÐºÐ¾Ð¹
ĠÑĦÐ¾ÑĢÐ¼Ð¸ÑĢÐ¾Ð² Ð°Ð½Ð¸Ðµ
ĠÐ²ÑģÐ¿ Ð¾Ð¼Ð¾Ð³
ĠÑĢÐµÑģÑĥÑĢ ÑģÑĭ
ĠÐ½Ð°ÑģÑĩÐ¸ÑĤ ÑĭÐ²Ð°ÐµÑĤÑģÑı
ĠÑĩÐµÑĢ ÐµÐ¿
ĠÐ³ÐµÑĢÐ± Ð°
ĠÐ»ÑİÐ´ ÑıÐ¼
ĠÐ¿ÐµÑĢÐµÐ³Ð¾Ð²Ð¾ÑĢ Ð¾Ð²
B C
ĠÐ¸ ÑģÐºÐ°
ĠÑģ ÐµÐ´ÑĮ
ĠÑĤ ÑĳÐ¼
ĠÑĥ Ð½
ÐŁ ÐµÑĢÐ¸Ð¾Ð´
Ð¸Ð» ÐµÐ¼
ÐĿ Ðļ
Ð¾Ñĩ Ð¸Ð½
ĠÐ¿ÑĢÐµÐ´ Ð¾ÑĤ
ÐĶ Ð¾ÑģÑĤ
Ð¸Ð³ Ðµ
ÑĥÑħ Ð¸
ĠÐ® Ð»Ð¸
Ġ7 00
ĠÐºÐ¾ÑģÐ¼ Ð¸ÑĩÐµÑģÐºÐ¾Ð¹
ĠÑĤÐµÑħ Ð½Ð¸Ðº
ÑģÑĤÐ°Ð½ ÑĨÐ¸Ð¸
ÐŁÐ¾Ð´ Ð¾Ð±
ĠÑģÐ¿ÐµÑĨÐ¸Ð°Ð»ÑĮ Ð½ÑĭÑħ
ĠÐ¶ÐµÐ»ÐµÐ· Ð½Ð°Ñı
ĠÑģÐ±Ð¾ÑĢ Ð½Ð°Ñı
id e
Ð¾Ð·Ð½ Ð°Ð½Ð¸Ñı
ĠÑģÐ¾Ð·Ð´Ð° ÑĳÑĤ
ĠÐ¢Ðµ Ð¾Ð´Ð¾ÑĢ
ĠÑģÑĤÐ¾Ð»ÐµÑĤ Ð¸Ñı
ÐĲÑĢÑħ Ð¸ÑĤÐµÐºÑĤ
ĠÐ±ÑĢÐ°Ð·Ð¸Ð»ÑĮ ÑģÐºÐ¸Ð¹
ĠÐ´ÐµÐ»Ð¸ÑĤ ÑģÑı
] ,
Ġ re
Ðº Ð¾Ð¿
Ð°Ð½ ÑģÐ°
Ð³ Ð°ÑĤÑĭ
Ð¶ ÐµÐ½ÐµÑĢÐ°
ĠÐ± Ð°ÑĤÐ°Ð»ÑĮ
ĠÐ¸Ð· Ð´Ð°
ÑĢÐ¾Ð² Ð¾Ð¹
Ð¸Ð± Ð»ÐµÐ¹
ÐŃ Ð¿
an n
ĠÐ¿Ð¾Ðº ÑĢÑĭÑĤ
ĠÑĨÐµÐ½ÑĤ ÑĢÑĭ
ĠÐ´ÑĢÐµÐ² ÐµÑģ
ĠÐĿÐ° ÑĨÐ¸Ð¹
Ð°ÐµÐ¼ Ð¾Ð³Ð¾
ĠÑģÐ»Ð¾Ð¶ Ð½Ð¾ÑģÑĤÐ¸
Ð½Ð¾Ñģ Ð»ÑĥÐ¶
ĠÐ®Ð¶ Ð½Ð¾Ð³Ð¾
ĠÐ¿ÑĢÐ¾Ð²Ð¾Ð´ ÑıÑĤÑģÑı
ĠÐ¾ÑĤÐ¼ÐµÑĩ Ð°Ð»
ĠIn t
ÑĥÐ»ÑĤ Ð°Ð½
ĠÑģÐ¾ÑĤÑĢÑĥÐ´Ð½Ð¸ÑĩÐµ ÑģÑĤÐ²Ðµ
ĠÐ¤ÑĢÐ°Ð½ÑĨÑĥÐ· ÑģÐºÐ¾Ð¹
ĠÐĽÐ¾ÑĢ ÐµÐ½
ĠÐ°ÑĢÐ¸ÑģÑĤ Ð¾ÐºÑĢÐ°ÑĤ
N U
ÑĦ Ð¸Ð»
ÐµÐ¼ Ð¾ÑģÑĤÑĮ
ÐĴ Ð¸Ð»ÑĮ
ĠÑģÑĤ Ð°ÑĢÐ¸
ĠÐļ Ð»Ð¾Ð´
Ð¾Ðº ÑĥÐ·Ð½Ðµ
ĠÐ½Ðµ Ð¿ÑĢÐ°Ð²
ĠÐĲ Ð¼ÐµÑĢÐ¸ÐºÐ°Ð½
ĠÐŁ Ðŀ
ĠÑĢÐµ Ð°Ð»ÑĮÐ½Ð¾ÑģÑĤÐ¸
ÑĤÐ¾ ÑĦ
ĠÐĵ Ð£
ĠÐĶ ÐµÐ²
ĠÑĢÑĥ Ñĩ
ĠÐŃ ÐºÐ²
ĠÑģÐ¾Ð²ÐµÑĤ ÑģÐºÐ¾
Ð¾ÑĦ Ðµ
Ð¿Ð¾Ð» ÐºÐ¾Ð²Ð½Ð¸Ðº
ĠÐ¸Ð·Ð²ÐµÑģÑĤ Ð½Ð°Ñı
ĠÐ¶Ð¸Ð² ÑĭÑħ
ĠÐ¿Ð»Ð°Ð½ Ðµ
ĠÐ¸ÑĤÐ°Ð»ÑĮÑıÐ½ ÑģÐºÐ°Ñı
Ġ187 6
ĠÐºÐ½ÑıÐ¶Ðµ ÑģÑĤÐ²Ð¾
ĠÑģÐ¾ÑĨÐ¸ Ð¾Ð»Ð¾Ð³
ĠÐ²ÐµÐ»Ð¸Ñĩ Ð¸Ð½Ð°
ĠÑħÑĢÐ°Ð½ ÐµÐ½Ð¸Ñı
ĠÐ¼ÑĭÑĪ Ð»ÐµÐ½Ð¸Ñı
ĠÐ½Ð¸ÐºÐ°Ðº Ð¸Ñħ
ĠÐ¾ÑĦÐ¸ÑĨ ÐµÑĢ
ĠÐ¿ÐµÑĢÐµÐ²Ð¾Ð· ÐºÐ¸
Ñģ Ð»Ð¾Ð²
Ðº Ð²ÐµÐ¹
Ñİ Ðº
ĠÐ¼ Ð³
ĠÐ¼ Ð¾Ð±Ð¸Ð»ÑĮ
Ð¾Ð¶ Ð°Ð½
Ð½Ð¸Ðº Ð°Ñħ
ĠÐ¿Ð¾Ð» Ð¾ÑĤ
Ðĺ ÑİÐ½ÑĮ
ĠÑģÐµÑĢ ÐµÐ±ÑĢÐ°
ĠÑĥÐ± ÐµÐ´
ĠÑĪÐºÐ¾Ð» Ð°Ñħ
ĠÐłÐ¸Ð¼ ÑģÐºÐ¸Ð¹
ĠÐ¶ÑĥÑĢ Ð½Ð°Ð»Ðµ
ĠÑģÐ¾ÑģÑĤÐ°Ð²Ð»Ñı Ð»
ĠÐ·Ð°Ñħ Ð²Ð°ÑĤÑĭ
ĠÐļÐ°Ð· Ð°Ð½Ð¸
ĠÐŁÐµÑĢÐ² Ð°Ñı
ĠÐ¼ÐµÐ½ÑĮ ÑĪÐµÐ¹
ĠÐĳÐ°ÑĢ ÑģÐµÐ»
ĠÐ¾ÑĨÐµÐ½ ÐºÐ¸
ĠÐ²ÑĭÑĩÐ¸Ñģ Ð»ÐµÐ½Ð¸Ñı
ĠÐ¿ÑĢÐµÐºÑĢÐ° Ñģ
ÐĳÑĭ Ð»Ð¸
ĠÐ³Ð¸Ð± ÐµÐ»Ð¸
Ð½ ÐµÑĢÐ°
Ð» Ð»Ð°
ĠÐ¿ Ð°ÑģÑĤ
ĠÑģ Ð¾ÑģÐ»Ð¾Ð²
ĠÐ± Ð°ÑĢÐ°
Ð¸Ð¼ Ð¿
ĠÑį ÐºÑģ
ÑĢÐ¾Ð² Ð°Ð½Ð¸Ðµ
Ðŀ Ð¿ÑĢÐµÐ´
ĠÐ¤ Ð¸ÑĩÐ¸Ð½Ð¾
ÑĥÐ½ ÑĤ
Ð·Ð° Ð±
ÑĤÐ¸ Ð¾Ñħ
ĠÐ¦ Ð°ÑĢ
Ð¾ÑĪ ÑĳÐ»
ĠÑĩÐµÐ¼Ð¿Ð¸Ð¾Ð½ Ð°ÑĤ
ĠÐ¿ÑĢÐ¾Ð¸Ð·Ð²Ð¾Ð´ ÑģÑĤÐ²Ñĥ
ĠÐ¼Ð°ÑģÑģ Ð¾Ð²ÑĭÐµ
ĠÐ³ÑĢÐ°Ð¶Ð´Ð°Ð½ Ð¸Ð½
ĠÑģÐ¿Ð¾ÑģÐ¾Ð± Ð¾Ð¼
ĠÐ·Ð°Ð½Ð¸Ð¼ Ð°ÐµÑĤÑģÑı
ĠÐ£ÐºÑĢÐ° Ð¸Ð½Ð°
ĠÐ¼Ð°Ð³ Ð°Ð·
ĠÑįÑĤÐ° Ð¿Ðµ
ĠÐ±Ð°Ð» ÐµÑĤ
ĠÐ°ÑĢÐ°Ð± ÑģÐºÐ¸Ð¹
im e
ĠÐĲÐ½ÑĤÐ¾Ð½ Ð¸Ð¾
ĠÐŁÐ¾Ñģ Ð¿Ð¾Ð»Ð¸ÑĤ
ct ion
Ð¼Ð°Ð¹ Ð¾ÑĢ
ĠÐ²Ð¾Ð·Ð½Ð¸ÐºÐ½Ð¾Ð² ÐµÐ½Ð¸Ñı
ĠÐ¿ÑĢÐ¾ÑĦ ÑģÐ¾ÑİÐ·
ĠPr ess
i um
Ñģ Ð¾Ð½Ð°
ĠÐ¿ÑĢÐ¸ Ð¾ÑĢ
ĠÐľ Ð¾Ð³
Ð»Ð°Ð² Ð°ÑĤ
ĠÐķ ÑĢ
ĠÐŃ Ðº
ĠÑıÐ²Ð»Ñı Ð»Ð¸ÑģÑĮ
ĠÐ¸Ð¼Ðµ ÑİÑīÐ¸Ñħ
Ð¸ÑĢÐ¸ Ð¹
is s
ĠÐ¸Ð·Ð´ Ð°Ð²
ĠÐ½Ð°ÑĥÑĩ Ð½ÑĭÐµ
ĠÐ¿Ð°Ð¼ÑıÑĤ Ð½Ð¸ÐºÐ¸
Ġ188 4
ĠÐ¿Ð¾Ð±ÐµÐ´ Ð°
ĠÑĢÐ°ÑģÑģÐ¼Ð°ÑĤÑĢÐ¸ Ð²Ð°ÐµÑĤÑģÑı
ĠÐ±Ð°Ð» ÐµÑĤÐ°
ĠÐľÐµÐ¶Ð´ÑĥÐ½Ð°ÑĢÐ¾Ð´ Ð½Ð¾Ð³Ð¾
ĠÐ¾Ð±ÑĢÐ°Ð·Ð¾Ð² Ð°Ð½Ð¸Ð¸
ĠÐ²Ð¾Ð·Ð³Ð»Ð°Ð² Ð»Ñı
ÑģÑĤÐµÑĢ Ð´Ð°Ð¼
ĠÑĥÐ±Ð¸Ð¹ ÑģÑĤÐ²Ð°
ĠÐĴÐµÐ½ ÐµÑĢÑĭ
ĠÐ¸Ð·Ð±Ð¸ÑĢÐ°ÑĤ ÐµÐ»ÐµÐ¹
ĠÐ±Ð¾Ð»ÑĮÑĪÐµÐ² Ð¸ÐºÐ¾Ð²
ĠÐĳÐ¾Ð¶ Ð¸ÐµÐ¹
ĠÐ´ÐµÑģÑıÑĤÐ¸Ð»ÐµÑĤ Ð¸Ñı
ĠÐ¾Ð±Ñĭ ÐºÐ½Ð¾Ð²
ĠÐŃÐ´Ð² Ð°ÑĢÐ´
Ð¿ÑĢÐ¾Ñĩ ÐµÐ¼
Ñĩ Ñĥ
Ñĩ Ð¸Ð½Ð°
Ñħ Ð°Ð·
ĠÑĤ ÑıÐ³
ĠÐ· ÑĥÐ±
ÐĴ ÐµÑĢ
ÐĴ Ð¾ÑģÑĤÐ¾Ðº
ĠÑį ÑģÑĤÐ¾Ð½
ĠÐŁ Ð¾ÑĤ
ĠÐĶ Ñĥ
ÐĲ Ðĵ
ÐĶ Ð¼Ð¸ÑĤ
Ðĺ Ð´Ðµ
ĠÐ´Ðµ Ð±
Ð´Ðµ Ð»ÑıÐµÑĤ
ÑĥÐ· Ðµ
ĠÐ¨ Ð°Ñħ
ĠÐ¨ Ð°ÑĢÐ»ÑĮ
ĠÐ¾Ð±ÑĢÐ°Ð· ÑĥÐµÑĤÑģÑı
Ġ5 6
ĠÐ²Ð¾ÐµÐ½ Ð½Ð¾ÑģÐ»ÑĥÐ¶
ÐµÑħ Ð°Ð½
ĠÐĲÑĢ ÐºÐ°Ð´
ĠÑģÑĥÐ´ Ð½Ð¾
ĠÐ·Ð°Ð¼ Ð¾Ðº
ĠP ython
ĠÐ¿ÑĢÐ¾Ð¸Ð·Ð²Ð¾Ð´ ÑģÑĤÐ²Ðµ
188 9
ĠÑįÐ½ÐµÑĢÐ³ ÐµÑĤ
Ð°ÑĦ ÑĢÐ¸ÐºÐ°Ð½
ĠÐ²Ð²ÐµÐ´ ÐµÐ½Ð¾
Ð¾ÑģÐ¿ Ð¸ÑĤ
ĠÐ¦Ð¸ÑĨÐµÑĢ Ð¾Ð½Ð°
ÐĴÐ¸Ðº ÑĤÐ¾ÑĢ
ĠÑĪÐ¾ÑĤ Ð»Ð°Ð½Ð´ÑģÐºÐ¸Ð¹
ĠÐ¿ÑĢÐµÐ±Ñĭ Ð²Ð°Ð½Ð¸Ñı
ĠÐ¡Ð°ÑĤÑĥÑĢ Ð½Ð°
S T
Ð± Ð°Ð»ÑĤ
ĠÐ¼ Ð°Ð½Ð´
Ð¸Ð¹ ÑĨÑĭ
ÐºÐ° Ð»Ð°
ÐµÐ² Ð¾Ð³Ð¾
Ð¸ÑĩÐµ Ð¹
Ð¾Ð¿ Ð°
ĠÐ¿Ð¾Ð´ Ð»Ð¸Ð½
Ðľ Ð°ÑģÑģ
ĠÐ¿ÑĢÐµÐ´ Ð»Ð°Ð³
ĠÑĩÐ°ÑģÑĤ ÑıÑħ
ĠÐ¨ ÐµÐ²
ĠÐ¿Ð¾Ðº ÑĥÑĪ
ĠÑİ Ð³Ñĥ
ĠÐ·Ð½Ð°Ñĩ ÐµÐ½Ð¸Ð¸
ĠÐ¼Ð¾ÑĢ ÑĦ
ĠS p
ĠÑģÑĥÑīÐµÑģÑĤÐ² Ð¾Ð²Ð°Ð»Ð¸
Ð½ÑĥÑĤ Ð°
Ð²Ð°Ð½ Ð³
ĠÐ½Ð°Ð¿ÑĢÐ°Ð² Ð»ÐµÐ½Ð¸Ð¹
Ġd es
ĠÑĢÐµÑĪ ÐµÐ½Ð¸Ñİ
ĠÐºÐ°Ð¶Ð´ Ð¾Ð¼
ĠÐ³Ð¾ÑģÑĥÐ´Ð°ÑĢÑģÑĤÐ² Ð°Ð¼Ð¸
ĠÐ²ÑĭÐ·Ð² Ð°Ð»Ð¾
ÐłÑĥÑģ ÑģÐºÐ¸Ðµ
ĠÐ²Ð½ ÐµÐ´
ĠÑįÐ½ÑĨÐ¸ÐºÐ»Ð¾Ð¿ÐµÐ´ Ð¸Ð¸
ĠÐ§ÐµÑħÐ¾ÑģÐ»Ð¾Ð² Ð°ÐºÐ¸Ð¸
ĠÑıÐº Ð¾Ð±Ñĭ
] .
Ð± Ð¾Ð»ÐµÐµ
Ð¾ÑĢ Ð¶
ĠÑĤ ÑĢÐ¾Ð½
ÐºÐ° Ñģ
ĠÐļ Ð¾ÑĤ
Ð¸Ð² Ðµ
ÑģÑĤÐ²ÐµÐ½ Ð½Ð¾Ð¼Ñĥ
Ð¾Ñĩ ÐºÐ°
Ð»Ð¾Ð² ÑĭÑħ
ĠÐ¾Ð¿ ÑĥÑģÑĤ
ÐµÑĨ ÐºÐ¾Ð¹
ĠÐ¾ÑģÐ½Ð¾Ð² Ð°Ð½Ð¾
Ð°ÑĢÑı Ð´Ñĥ
ĠÐ¿ÑĢÐ¸Ð½ ÑĨ
ĠÐ»ÐµÑĤ Ð¾
ĠC O
ĠÐ¸Ð·Ð²ÐµÑģÑĤ Ð½Ð¾Ð¹
Ð³Ð¾Ð² Ð¾ÑĢÐ°
ĠÐºÐ½Ð¸ Ð¶
ĠÑĥÑģÑĤÐ°Ð½Ð¾Ð² Ð¸Ð»
ĠÐ¾Ð¿Ð¸Ñģ ÑĭÐ²Ð°ÐµÑĤ
ĠÐ¾ÑģÑĤÐ°Ð² Ð°Ð»ÑģÑı
ĠÐ¿Ð¾Ð»Ð¾Ð² Ð¸Ð½Ð°
ĠÐĺÑģÐ¿ Ð°Ð½Ð¸Ñı
ĠÐ¾Ð³ÑĢÐ°Ð½Ð¸Ñĩ ÐµÐ½Ð¸Ñı
ĠÐ¼Ð¸Ð»Ð»Ð¸ Ð°ÑĢÐ´
ÐĳÐ¾Ð»ÑĮÑĪ Ð¾Ð¹
ĠÐĴÐ¾ÑģÑĤÐ¾Ñĩ Ð½Ð¾
ĠÐĻ ÐµÐ¼
ĠÑģÐµÐºÑĢÐµÑĤ Ð°ÑĢÑı
ĠÑģÐ»Ð°Ð²ÑıÐ½ ÑģÐºÐ¸Ñħ
ĠÐĽÑĮ Ð²
Ð´ÐµÐ»Ðµ ÐµÐ²Ð°
ĠÐŁÐµÑĤÑĢÐ¾Ð² Ð¸Ñĩ
ĠÐŁÑĥÑĪ ÐºÐ¸Ð½
ĠÑģÐ»Ð°Ð² Ñĭ
ĠÐ·Ð´Ð¾ÑĢÐ¾Ð² ÑĮÑı
1 20
I D
a in
Î ³
Ð½ Ð¸ÑģÑĤ
Ð¾ÑĢ Ð¼Ð¸ÑĢÐ¾Ð²
ĠÐ° Ð¼Ð¸Ð½
Ñį Ð½Ð´
ĠÑĢÐ° Ð´
ÐŁ Ð¸ÑģÑĮ
ĠÐł ÐµÐ²Ð¾Ð»Ñİ
ĠÐĵ Ð¾ÑĤ
ĠÐŀ ÐĲÐŀ
ÑĨÐ¸Ð¾Ð½ ÐµÑĢ
ĠÐºÐ¾Ð» Ð»ÐµÐ³
ĠÐ½ÐµÐ¼ Ð½Ð¾Ð³Ð¾
Ð§ ÑĳÑĢ
ĠÑĢÐµÐ· Ð¾Ð»Ñİ
Ġ8 5
ĠÐºÐ¾ÑģÐ¼ Ð¾ÑģÐ°
ĠÑĥÑĩÐ°ÑģÑĤ Ð¾Ðº
Ð±Ð¾Ð» Ð¾Ð²
ĠÐ³ÐµÐ½ÐµÑĢÐ° Ð»ÑĮÐ½ÑĭÐ¹
ĠÐ²Ð»Ð¸ ÑıÑĤÐµÐ»ÑĮ
189 2
ĠÐ½ÐµÐ¹ ÑĤÑĢÐ°
ĠÐĵÐµÐ½ Ð½Ð°Ð´
ĠÐľÐ°Ðº Ðº
ÐĲÑĢ ÑĤ
ĠÑĢÐµÐ»Ð¸Ð³Ð¸Ð¾Ð· Ð½Ð¾Ð¹
ĠÐ·Ð°ÑīÐ¸ÑĤ Ñĥ
ĠÐ³Ð¸Ð´ ÑĢÐ¾
ĠÑĢÐ°ÑģÑģÑĤÐ¾Ñı Ð½Ð¸Ð¸
ĠÐłÐ¾Ð¼ Ð°Ð½
ĠÐºÐ»Ð¸Ð¼Ð°ÑĤ Ð°
ĠÐ¾Ð¿ÐµÑĢ Ð½ÑĭÐ¹
ĠÐ¿ÑĭÑĤ Ð°Ð»ÑģÑı
ĠÑįÑģÑĤ ÐµÑĤ
- ,
Ñģ Ð¸Ð´
Ð³ Ð¸ÑĤ
ĠÐ¼ Ñį
ĠÐ½Ð° ÑĪÐ¸Ñħ
ĠÐ· Ð¾Ð½Ð°
Ð¸Ð¼ ÑĭÐ¹
ĠÐ¾ÑĤ Ð¾Ð¶Ð´ÐµÑģÑĤÐ²
Ð¾Ð»ÑĮ ÑģÐºÐ¾Ð³Ð¾
ĠÐ¿Ð¾Ð» ÐºÐ°
ĠÐĶ ÐµÐ»
Ðľ Ð°
Ð»ÐµÐ½ Ð½Ð¾Ð³Ð¾
ÐºÐ¾Ð² Ð°Ñı
ÑĳÐ½ Ð½Ð¾Ð¼Ñĥ
Ð¤ ÐĲ
ĠÑģÐ¾ÑģÑĤÐ°Ð² Ð¸Ð»Ð¸
ĠÐ¸ÑģÐ¿Ð¾Ð»ÑĮÐ· ÑĥÑı
ĠÑĢÐµÐ·ÑĥÐ»ÑĮÑĤ Ð°ÑĤÐ¾Ð¼
ĠÐ´ÑĢÐµÐ² Ð½Ð¾ÑģÑĤÐ¸
ĠÐ»ÑİÐ± ÑĭÑħ
ĠÑĥÑĩÑĳ Ð½Ð¾Ð³Ð¾
ĠÐ¶ÑĥÑĢ Ð½
ĠÐļÑĢÐ°Ñģ Ð½Ð¾Ð³Ð¾
ĠÑĦÐµÐ´ÐµÑĢÐ° ÑĨÐ¸Ð¸
Ð¡Ð¿ Ðµ
ĠÐĿÐ°ÑĨÐ¸Ð¾Ð½Ð°Ð»ÑĮ Ð½Ð¾Ð¹
ĠÐ°Ð½Ð³ Ð»
ĠÐ¿Ð»ÐµÐ¼ ÑıÐ½
ĠÐ¿Ð¾Ð¶ Ð°ÑĢ
ĠÐ¢Ð¸Ñħ Ð¾Ð³Ð¾
ĠÐ²Ð¾ÑģÐºÑĢÐµÑģ ÐµÐ½ÑĮÐµ
Ġ und
ÑĢ Ð¾Ðµ
Ñĭ Ð»Ð°
ĠÐ¿ Ðµ
Ð¿ Ð°ÑĢÐ°
Ð¾Ð´ Ð²Ð¸Ð¶
Ð»Ð¸ Ð½Ñĭ
ÐµÐ¼ Ð»ÐµÐ¼
ĠÑĥ ÑħÑĥÐ´
ÐŁ ÑĢÐ¾ÑĤÐ¸Ð²
ĠÐ¿ÑĢÐ¸ ÑĪÐ»Ð¸
ĠÐľ Ð°Ð·
ĠÐŁ Ð¾Ð²
ĠÐ¢ Ð°Ð»
ĠÐ¢ ÑĢÐµÑĤÑĮ
ÐµÐ»Ð¸ Ð»Ð¸ÑģÑĮ
Ð»ÐµÐ½ Ð½Ð¾Ðµ
Ġ18 30
Ð²ÐµÑĢ Ð¶ÐµÐ½
Ð·Ð² ÑĥÑĩ
ĠÐºÐ¾Ð» ÑĳÑģ
ĠÐºÑĢÑĥÐ¿ Ð½ÑĭÐ¼
ÑĤÐµ Ð¾ÑĢ
ĠÑĢÐ°Ð·Ð»Ð¸Ñĩ Ð¸Ñı
ĠÐ¸Ð·Ð´ ÐµÐ»Ð¸Ð¹
Ġ188 6
Ġ187 5
Ġt o
ĠÐ±Ð¸ Ð¾ÑħÐ¸Ð¼
ÐºÐ°ÑĤ Ð¾Ð»
ac e
ĠÐ²ÐµÐ»Ð¸Ñĩ Ð¸Ð½Ðµ
ĠÑĤÑĢÐ°Ð¼ Ð²Ð°
ĠÐ¾Ð±Ð¾ÑĢÑĥÐ´ Ð¾Ð²Ð°Ð½Ð¸Ñı
Ñı ÑīÐµÐµ
ÐµÐ½ Ð°ÑĤ
Ð¾Ð² ÑģÐºÐ°Ñı
ĠÐ¸ ÐºÐ¾Ð½Ñĭ
Ð¾ÑĢ Ð³
ĠÐ± Ñĥ
Ð¸Ð¼ Ð¾Ðµ
ĠÑĥ Ð´ÐµÑĢÐ¶
ÐŁ ÑĢÐ¾Ð³ÑĢÐ°Ð¼
ÐŁ Ð¾ÑıÐ²
ĠÐ¿ÑĢÐ¸ Ð²Ñĭ
ĠÑį ÑģÑģÐµ
ĠÐĵ ÐµÐ¹
ĠÐ¿Ð¾Ð» Ð½ÑĭÐ¹
ÐĲ ÐºÑĤ
Ðĵ ÑĢÐ¸
ĠÐ²Ð¾Ð· ÑĢÐ¾Ñģ
ĠÑįÐºÑģÐ¿ ÐµÑĢÑĤ
ĠÐ¿ÑĢÐ¾Ð´Ð¾Ð»Ð¶ Ð°ÐµÑĤ
ĠÑĢÐµÑģÐ¿ÑĥÐ±Ð»Ð¸ ÐºÐ¾Ð¹
ĠÑģÐ¾Ð· Ð²
re e
Ġ186 3
ĠÐ¿ÑĢÐ¸Ð½ÑĨÐ¸Ð¿ Ñĭ
ĠÑĥÐ²ÐµÐ»Ð¸Ñĩ ÐµÐ½Ð¸Ðµ
ĠÐ½ÐµÐ±Ð¾Ð»ÑĮÑĪ Ð¸Ñħ
ĠÐ³Ð¸Ð¼ Ð½Ð°ÑģÑĤ
ĠÑģÐ°Ð¼Ð¾ÑģÑĤÐ¾ÑıÑĤÐµÐ»ÑĮ Ð½Ð¾
ĠÐ³ÑĥÐ¼Ð°Ð½ Ð¸ÑĤ
ĠÑĩÑĢÐµÐ·Ð²ÑĭÑĩÐ°Ð¹ Ð½Ð¾
ĠÑģÑĤÐ¾Ð»ÐºÐ½Ð¾Ð² ÐµÐ½Ð¸Ñı
Ð¯Ð·Ñĭ ÐºÐ¸
Ð²Ð°ÑĢÐ¸ Ð°Ð½ÑĤ
ĠÐºÐ¾Ð»Ð»ÐµÐ´ Ð¶
ĠÐ¤ÐµÑĢÐ´Ð¸Ð½ Ð°Ð½Ð´
ÐĴÐ¾Ð¾ÑĢÑĥÐ¶ ÑĳÐ½Ð½ÑĭÐµ
ÐĶÐµÐ»Ðµ Ð³Ð°ÑĤÑĭ
Ð¸ Ð¾ÑĤ
ĠÐ² ÐµÐ±
Ñħ Ð¾Ð»
Ð³ Ð¸Ð´
Ð¾Ñģ ÑĦ
Ð¡ ÐµÐ»ÑĮ
Ð¡ Ð°Ð»ÑİÑĤ
ĠÐ¡ Ð°Ð»
ÐµÐ´ ÐµÐ²
ĠÐļ Ð½Ð¸
ĠÐļ ÑĥÐ·Ð½Ðµ
ĠÑĦ ÑĢÐ°Ðº
ĠÐ¿Ð¾ ÑĢÐ°Ð¶ÐµÐ½Ð¸Ñı
ĠÐĵ Ð¾Ð´
ĠÐ²Ñĭ ÑĪÐ»Ð¸
Ðŀ Ð½Ð¾
ÐµÑģÑĤ Ðµ
ĠÐ¸Ð¼ ÑĳÐ½
ÐĹ Ð°Ñħ
Ð£ ÑĤ
ĠÑģÑĤÑĢÐ° Ð´
ĠÐ¿Ð¾Ð² Ðµ
Ð¸ÑĪ ÑĮ
ĠÐ²ÑĤÐ¾ÑĢ Ð¶ÐµÐ½Ð¸Ñı
ĠÐ³ÑĢÐ°Ð¶Ð´Ð°Ð½ ÑģÐºÐ¸Ñħ
ĠÑĥÐ³ Ð¾Ð»ÑĮ
ĠÑĢÐµÑĪ Ð¸Ð»
ĠÐ¿Ð¾Ð´Ð¿Ð¸Ñģ Ð°Ð½Ð¾
Ð® ÑĢÐ¸Ð¹
ĠÐ¿ÑĢÐ¾Ð¸Ð·Ð¾ÑĪ Ð»Ð¸
ĠÐ´ÐµÑĢÐµÐ² Ð½Ð¸
ĠÐ¼ÑĥÑĩÐµÐ½Ð¸ Ðº
ÐºÐ² Ð°ÑĢÑĤ
ĠÐ¿Ð¾Ð»ÑĮÐ·Ð¾Ð² Ð°ÑĤÐµÐ»ÐµÐ¹
ÐĹÐ¾Ð»Ð¾ÑĤ Ð°Ñı
ĠÑįÐ¼Ð¸ Ð³ÑĢÐ°
ĠÐ¿Ð¾ÐºÐ¾Ð» ÐµÐ½Ð¸Ñı
ĠÐĵÐ°Ð² ÑĢÐ¸
ĠÑĤÐµÑĢÐ° ÐºÑĤ
ĠÐĴÐ»Ð°Ð´Ð¸Ð¼Ð¸ÑĢÐ¾Ð² Ð¸Ñĩ
ĠÑĥÑĩÑĳÑĤ Ð¾Ð¼
l o
â Ħĸ
Ð¸ Ð°
Ñģ Ð¸Ñģ
Ð¾ÑĢ Ð´ÐµÐ½
ĠÐ´ ÐµÐ»ÑĮ
Ġ1 28
ĠÐ¡ Ð¸Ð´
ĠÐĴ ÑģÐµ
Ð¸Ð· Ð¼Ñĭ
ĠÐ¶ ÐµÐ½Ñĭ
Ð°ÑģÑĤ ÑĮ
Ðĵ Ð¾Ð´
ĠÐ°Ð½ ÑģÐ°Ð¼Ð±
ĠI P
ÑĥÑĪ Ð°
on g
ÑĮÑı Ñħ
Ð·Ð½ Ð°Ð¼ÐµÐ½
ĠÐ²ÑĤÐ¾ÑĢ ÑĭÐ¼
ĠÐ¾Ð³ Ð½Ñı
ÑħÐ°Ð½ Ð³ÐµÐ»ÑĮ
ÐŀÑģÐ½Ð¾Ð² Ð½Ð°Ñı
ÑĢÐ¸ÑĩÐµ ÑģÐºÐ¾Ð¹
ĠÐ¼Ð°Ð» ÑĭÑħ
ĠÑĢÐµÐ»Ð¸Ð³ Ð¸Ñı
ĠÐ¾ÐºÑĢÑĥÐ³ Ðµ
ĠIn tern
ĠÐ¼Ð½Ð¾Ð³Ð¾ÑĩÐ¸ÑģÐ»ÐµÐ½ Ð½ÑĭÑħ
l and
Ñģ ÑĢÐ¾Ðº
Ñĩ Ð¸ÑģÑĤ
Ð¾ÑĢ Ð±
ÑĦ Ñĥ
ĠÐ± ÑĢÐ¾Ñģ
Ñī Ð¸Ð½Ð°
Ð¸Ð¼ ÑĭÐ¼
Ð¸Ñģ Ñĭ
ĠÑģÑĤ Ð°ÑĢÐ°
ĠÐ¿ÑĢÐ¸ Ð²ÐµÐ»Ð°
ĠÐĲ ÐºÑģ
ÐµÐ½ÑĤ Ð°Ð¼Ð¸
Ð½Ð¸ Ð»Ð¸
ĠÐ¤ Ð¾Ð¼
ĠÐ¾Ð´ Ð¸Ð½Ð¾Ñĩ
ĠÐ³Ð¾ÑĢÐ¾Ð´ ÑģÐºÐ¸Ðµ
ĠÐºÐ¾Ð¼Ð¿ Ð°Ð½Ð¸ÐµÐ¹
ĠÑĥÐ¿ Ð°Ð´
ĠÐ³ÑĢÐ° ÑĦÐ°
ĠÑģÐ¾ÑģÑĤÐ¾Ñı Ð»Ð¸ÑģÑĮ
ĠÐ¸Ð·Ð²ÐµÑģÑĤ Ð½Ð¾ÑģÑĤÑĮ
ĠÑģÐ¼ Ð¾ÑĤ
ĠÐ½ÐµÐ´ Ð°Ð²
ÐŀÑĤ ÐºÑĢÑĭÑĤ
188 7
ĠÐĲÑĢÐ¼ Ð¸Ð¸
ĠÐ²ÐµÑī Ð¸
ĠÐ¾Ð´Ð½ Ð¾Ð·Ð½Ð°Ñĩ
ĠÑģÐµÐ¼ÐµÐ¹ ÑģÑĤÐ²Ð°
ĠÐĶÐ¸Ð¾Ð½ Ð¸Ñģ
ÑģÐ¾ÐµÐ´Ð¸Ð½ ÐµÐ½Ð¸Ðµ
Ð ©
Ð¿ Ñĭ
Ð³ Ð¾Ð»Ð¾Ð²
Ñİ Ñģ
ĠÐ± Ð¾Ð¼
ĠÐļ ÐµÐ¼ÐµÑĢÐ¾Ð²
ĠÐŁ ÑĢÐ¸Ð½
ĠÐĵ ÑĢÐ°Ð½
ĠÐĵ ÑĥÐ´
ĠÐĳ ÑĥÑħ
Ð¢ Ð¸Ð¿
ĠÐŃ ÑĤ
ÑĤÐ¸ ÐµÐ¼
ĠÐ¸ÑģÑĤÐ¾ÑĢ Ð¸ÑĩÐµÑģÐºÐ¸Ð¹
ĠÐ·Ð°Ð² Ð¸
Ġ15 00
ĠÐ¼Ð¸Ð½ ÐµÑĢÐ°
Ð²Ð¸ Ð»ÐµÐ³
ĠÐ¸ÑģÑģÐ»ÐµÐ´ Ð¾Ð²Ð°Ð½Ð¸Ðµ
ĠÑĤÐ¾Ñĩ Ð½ÑĭÑħ
ĠÐ·Ð°Ð´ Ð°
ĠÐ¼Ð¸ÑĢ Ð½ÑĭÐ¹
ĠÐ²ÐµÐ´ ÑĥÑīÐ¸Ñħ
189 4
ÑĥÑį Ð»ÑĮ
ĠÐ¿Ð°ÑĢÑĤÐ¸Ð¹ Ð½ÑĭÐ¹
ĠÐ°Ð»ÑĦÐ°Ð² Ð¸ÑĤÐ°
ĠÐ¿ÑĢÐµÐºÑĢÐ°Ñī ÐµÐ½Ð¸Ð¸
ĠÑĦÐ¸Ð·Ð¸ Ð¾Ð»Ð¾Ð³
ĠÐŁÐµÑĤÑĢ Ð¾Ð³ÑĢÐ°Ð´
Ð¦ÐµÑĢ ÐºÐ¾Ð²ÑĮ
r at
ÑĢ Ð¾Ð¶Ð´
ĠÐ½ Ð¸ÑĤ
ÑĨ Ð°ÑĢ
Ð»Ð° Ð¶
Ð¾ÑĤ Ð¾Ð¹
Ġ1 10
Ð»Ðµ Ðµ
ĠÐĴ Ð¸ÑĢ
ĠÐµ Ð¶ÐµÐ´Ð½ÐµÐ²
ĠÐĳ Ð¸
ĠÑĢÐ°Ð· Ð½
ĠÐ¿Ð¾Ñģ Ð¾Ð±
ĠÐ¾Ð¿ Ð»Ð°ÑĤÑĭ
ĠÐ¾ÑģÐ½Ð¾Ð² Ð°Ð½Ð½ÑĭÐµ
ÑģÑĤÑĮ ÑıÐ½Ðµ
ic s
ĠÐ¡Ð¾Ð²ÐµÑĤ Ð¾Ð²
ĠÑĢÐ°ÑģÐ¿Ð¾Ð»Ð¾Ð¶ ÐµÐ½Ð¾
ĠÐ´ÐµÑĤ Ð¸
ĠÐ¾ÑĦÐ¸ÑĨÐ¸Ð°Ð»ÑĮ Ð½ÑĭÑħ
ĠÐ¿ÑĢÐ¸Ð² Ð»ÐµÐº
Ð¡Ð°Ð¼ ÑĭÐ¹
Ð»ÐµÐ³ Ñĩ
ĠâĢ ĵ
ĠÐŁÐµÑĢÐ² ÑĭÐ¹
ĠÐ¿Ð¾Ð´Ð³Ð¾ÑĤÐ¾Ð² ÐºÐµ
ĠÐ¿ÐµÑĢÐµÐ¿ ÑĢÐ°Ð²
ĠÐ½Ð°ÑĩÐ¸Ð½Ð° ÑİÑĤ
ÐĵÐ¾ÑģÑĥÐ´Ð°ÑĢ ÑģÑĤÐ²ÐµÐ½Ð½ÑĭÐ¹
ĠÐ²Ð»Ð°Ð´ ÐµÐ½Ð¸Ñı
ĠÑĤÐ°Ð½ ÑĨÐ¾Ð²
ĠÐ¡Ð¾Ð»Ð½ ÑĨÐµ
ÐłÐµÐ»Ð¸ Ð³Ð¸Ñı
ĠÑģÐ¾Ð¿ÑĢÐ¾ÑĤÐ¸Ð² Ð»ÐµÐ½Ð¸Ðµ
ĠÐĳÑĢÐ° ÑĥÐ½
Ð² Ð¾Ñģ
ÑģÑĤ Ð°ÑĢ
Ð³ ÑĥÐ½
ĠÐ¼ Ð°Ð»ÑĮ
ÑĪ Ñĥ
Ð¸Ð½ ÐµÐ¹
ÑģÑĤÐ² Ð°Ð¼
ĠÐ± ÑĢÐ°Ðº
ÐµÐ¼ Ð±ÑĥÑĢÐ³
ĠÑĥ Ð·Ð½
ÐĴ ÐµÐ½Ð³
Ð¾Ð¿ ÑĢÐ¾Ð²Ð¾Ð´
ĠÐĴ ÐµÑĢÐ½
ĠÐł ÑĥÐ±
ĠÐł ÐµÐ¹Ð½
Ð²Ð° Ð»Ð°ÑģÑĮ
ĠÑħ Ð»Ð¾Ð¿
Ð¾Ñĩ ÐºÐ¸
ĠÐ¿ÑĢÐµÐ´ ÐµÐ»Ñĭ
ĠÐ¿ÑĢÐµÐ´ Ð²Ð°ÑĢÐ¸ÑĤÐµÐ»ÑĮ
ĠÐ²Ð¾ ÐµÐ²
Ð¸ÑĢÐ¾Ð² Ð°Ð»Ð¾ÑģÑĮ
Ð¤ Ð¸Ð»ÑĮ
ĠÐ¾ÑĤÐ½Ð¾ ÑģÑıÑī
ĠÑĥÐ¿ ÑĢÐ¾Ñī
ĠÑĤÐµÐ»Ðµ ÑģÐºÐ¾Ð¿
ĠÐ½ÐµÐ· Ð°ÐºÐ¾Ð½
ĠÑįÐ¿ Ð¸Ð·
ĠÐ²Ð¾Ð» Ð¸
Ġ187 7
ĠÑĢÐµÐ»Ð¸Ð³Ð¸Ð¾Ð· Ð½ÑĭÐ¹
ĠÐ¿Ð°Ð´ ÐµÐ½Ð¸Ñı
ÐļÐ¾Ð» Ð¸ÑĩÐµÑģÑĤÐ²Ð¾
ĠÐºÐ¾ÑĪ ÐµÐº
ĠÐ²ÑĢÐ°Ñī ÐµÐ½Ð¸Ñı
ĠÐ»ÐµÐ³ÐºÐ¾ Ð°ÑĤÐ»ÐµÑĤ
ĠUn ivers
ĠÐŀÐºÑĤÑıÐ±ÑĢÑĮ ÑģÐºÐ¾Ð¹
ĠÐ±Ð¾Ð¼Ð±Ð°ÑĢÐ´ Ð¸ÑĢÐ¾Ð²
a il
Î Ń
ĠÐ¾ ÐºÐ°Ð·ÑĭÐ²
Ð³ ÑĢÐ¾Ð¼
ĠÐ´ Ð¾Ð¶
Ð¾Ð¹ Ð´
ĠÐ³ Ð¾Ñģ
ĠÐ³ Ð¾ÑĤ
ĠÑĦ Ð°ÑĪ
Ð¸Ð· Ð½
ÑĢÐ¾Ð² ÑĭÑħ
ĠÐ²Ñĭ ÑĢÐ°Ñī
Ðļ Ð²
ĠÐĳ Ð°Ðº
ĠÑı ÑĢÐº
ĠÐĿ Ð¾Ð²Ð¾ÑĢÐ¾ÑģÑģÐ¸Ð¹
Ð½Ðµ Ð³Ð¾Ð´
Ð¸Ð»ÑĮ Ñı
ĠÐ´Ð² Ð¾ÑĢÐµ
Ġ5 7
ĠÐ·Ð°Ð¿ ÑĢÐ¾Ñģ
ĠÐķÐ² Ð°Ð½Ð³
ĠÐ´ÐµÐ¹ÑģÑĤÐ² Ð¸ÐµÐ¼
or g
ĠÐĲÑĢ ÑħÐ¸Ð¼
ĠÑģÑĥÐ´ Ð¾ÑħÐ¾Ð´
ĠÐ°Ð½Ð³Ð»Ð¸Ð¹ ÑģÐºÐ¾Ð¹
ĠÐ¾ÑģÐ¾Ð± Ð¾
ĠÐľÐ°ÑĢ ÐºÐ°
ĠÑģÐ¾Ð¾ÑĤÐ²ÐµÑĤÑģÑĤÐ² ÑĥÑİÑīÐ¸Ñħ
ĠÐ¿Ð¾Ð±ÐµÐ´ Ð¸ÑĤÐµÐ»ÑĮ
ĠÐ¾Ð¿ÑĢÐµÐ´ÐµÐ» ÑĳÐ½Ð½Ð¾Ð¹
ĠÐ²Ð¾Ð·Ð½Ð¸Ðº Ð»Ð°
ĠÑĤÐ¾ÑĢÐ³Ð¾Ð² Ð»Ñı
ĠÐĳÐ¾Ð³ Ð¾Ð¼
ĠÑģÐ¾Ð¿ Ð¾ÑģÑĤÐ°Ð²
ĠÐ¼ÐµÑħÐ°Ð½ Ð¸Ð·Ð¼
ĠÐ¾ÑĨÐµÐ½ ÐºÐµ
ĠÐļÑĥÑĢ Ð³Ð°Ð½
ĠÑĢÐ°Ðº ÐµÑĤÑĭ
ĠÐ¾Ð´Ð½ Ð¾Ð¿
ĠÐ¾ÐºÐºÑĥÐ¿ Ð°ÑĨÐ¸Ð¸
ÑģÐ¿Ð¾Ð½Ð´ ÐµÐ½ÑĤ
ĠÑĥÐ³Ð»Ðµ Ð²Ð¾Ð´
Ġ j
ĠÐ¿ Ð»Ð¾Ð²
Ð°Ð½ ÑģÐºÐ¸Ðµ
Ð°Ð½ Ð½ÑĥÑİ
ĠÐ± Ð¾Ð»Ð¾ÑĤ
Ð°Ðº Ð¾Ð¼
Ð¸Ð¼ Ð¾Ð¼Ñĥ
ÐµÐ´ ÐµÑĢÐ°ÑĤ
ĠÑĦ Ð¾Ð½Ðµ
Ð¸Ð» ÑĳÐ²
Ð½Ð¾ÑģÑĤ ÑıÐ¼
Ð¼Ð¸ Ð´
ĠÐĵ ÐŃÐ¡
ĠÐ²Ñĭ Ð·ÑĭÐ²
ÐºÐ¸ ÑĢ
ĠÐ¤ ÐµÐ»Ð¸
Ð½Ñı Ð·ÑĮ
ĠÑįÑĤ Ð¸Ð¼Ð¸
ÐµÑĩ ÑĮ
ĠÑĢÑĥ Ð´
ÐµÑĨ ÐºÐ¾Ð³Ð¾
Ð¤ Ð¸Ð½
ÐŃ Ð¼
ÐĽ Ð°ÑĤ
ÐŁÑĢÐ¸ Ð¼ÐµÑĤÑĭ
ÑĢÑĥÐ¿Ð¿ Ð°
ĠÐ¿Ð°ÑĢ ÑĥÑģ
ĠÐ·Ð°Ð¼ ÐºÐ°
ĠÐµÐ´Ð¸Ð½ Ð¾Ð¹
Ð¾Ð±ÑĢÐ°Ð· Ð¾Ð²Ð°ÑĤÐµÐ»ÑĮ
ĠÐ²Ð· ÑĢÑĭÐ²Ð°
ÑĢÐ¾Ð¹ ÐºÐ°
ÐŀÐ´ Ð½Ð°
ÐµÑĢÐµ ÑĪ
ĠÑĥÐ´ Ð¾ÑģÑĤÐ¾
ĠÐ¸ÑģÐºÑĥÑģ ÑģÑĤÐ²ÐµÐ½Ð½Ð¾Ð³Ð¾
ĠÑģÑĤÐ°ÑĢ ÑĪÐµ
ĠÑģÐ¾ÑĨÐ¸Ð°Ð»ÑĮ Ð½ÑĭÐµ
ĠÑģÑĤÑĢÑĥÐºÑĤ ÑĥÑĢÐµ
ĠÐ¸ÑģÑĤÐ¾ÑĢÐ¸Ðº Ð¾
ĠÐ¿ÑĢÐµÐ¿Ð¾Ð´Ð¾Ð± Ð½Ð¾Ð¼ÑĥÑĩÐµÐ½Ð¸
ĠÑĢÐµÐ¶Ð¸Ð¼ Ðµ
ĠÐĲÐ²Ð³ÑĥÑģÑĤ Ð°
ÐĵÐµ Ð¾Ð³ÑĢÐ°ÑĦÐ¸Ñı
ĠÐ¡ÐµÐ² Ð°ÑģÑĤ
ĠÐ¿ÑĢÐ¾Ðµ Ð·
ĠÐ½Ð°ÑĢÐº Ð¾ÑĤ
ĠÑģ ÐµÐ»Ð¾
ĠÐ¾ ÑĢÐ°
Ñİ ÑĪ
Ð¾Ð³ Ðµ
ĠÐ¼ ÐµÐ¼Ñĥ
ÑĦ Ðµ
Ð¸Ð½ ÐºÐ°
ĠÐ± Ð¾Ðº
ÑĩÐµ ÑģÐºÐ¾Ðµ
ÐĴ Ð¸ÑĤ
Ð¸Ñģ Ð¿Ð¾Ð»Ð½
ĠÐļ Ð»Ð°Ð²Ð´
Ð¾Ðº Ð¾Ð½
Ð½Ð° ÑĨÐ¸Ð¾Ð½Ð°Ð»ÑĮ
ĠÐ¸Ð· Ð¾Ð»
ĠÐĵ Ð¸Ð±
ĠÐĳ Ð¾Ð±
ĠÑħ Ð¸ÑĢÑĥÑĢÐ³
ĠÐ¤ Ð¸Ð»Ð¾ÑģÐ¾ÑĦ
ÑĥÐ»ÑĮ ÑĤÐ°
ÐĽ ÐµÑĤÐ¾Ð¼
Ð£ ÑĩÐ°ÑģÑĤ
ĠÑģÐ¾Ð± Ð¾ÑĢÐµ
ĠÐĶÐ¶ Ð¾Ð²Ð°Ð½Ð½Ð¸
ĠÑĥÑĩÐ°ÑģÑĤ ÐºÐ¸
ĠÐĲÐ² ÑģÑĤÑĢÐ¾
ÐµÑĢÐµ ÑħÐ¾Ð´
ĠÐ¿Ð¾Ð´Ð´ÐµÑĢÐ¶ Ð¸Ð²Ð°ÐµÑĤ
ĠÐ±ÑĢÐ¸ÑĤÐ°Ð½ ÑģÐºÐ¾Ð³Ð¾
ĠÐ¿ÑĢÐ¸Ð·Ð½ Ð°Ð½Ð¸Ðµ
ĠÐŁÐ¾Ð»ÑĮÑĪ Ð°
ĠÑĢÐ°ÑģÑģÐ¼Ð°ÑĤÑĢÐ¸ Ð²Ð°ÑĤÑĮ
Ġ184 8
ĠÑģÑĥÐ¿ ÑĢÑĥÐ³
ĠÐ¾Ð±Ñģ ÐµÑĢÐ²
Ð»ÑıÑĤÑĮ ÑģÑı
ĠÐ´Ð°Ð»Ðµ ÐºÐ¾
ĠÐ±ÑĥÐ´ÑĥÑī ÐµÐ¼
ĠÐ°Ð±ÑģÑĤÑĢÐ° ÐºÑĤ
B M
c om
Ñģ ÐµÑĢÐ²
ĠÐ¸ ÑĥÐ´
ĠÐ³ ÐµÑĢÐ¼
Ð°Ñı Ð½
ÑĩÐµ ÑģÐºÐ¾
Ð¸Ð¼ Ð¾Ð³Ð¾
ĠÐ¿ÑĢÐ¸ Ð²ÐµÑģÑĤÐ¸
Ðļ Ð°Ð¿
Ðŀ ÐºÐ¾Ð½Ñĩ
ÐĲ Ð³
ĠÑĪ Ð¿
ÑĨÐ¸Ð¾Ð½ Ð½ÑĥÑİ
ÐĿÐ° Ð¸Ð±Ð¾Ð»ÑĮÑĪ
ĠÑģÐ¾ÑģÑĤÐ°Ð² Ð¸Ð»Ð¾
ĠÐ¡ÑĤ Ð°Ð²
ĠA m
ĠÐ½Ð°Ð´ Ð¾
ĠÐ¾Ð±Ñī Ð¸Ð¼
Ð¸ÑĢÐ° ÑģÐ¿
ĠÑĨÐµÑĢ ÐºÐ²ÐµÐ¹
ĠÐľÐ°ÑĢ Ð³Ð°
ĠÐ¿ÑĢÐ¸Ñģ ÑĥÑĤ
ÐŀÑģÐ½Ð¾Ð² Ð°Ð½
Ð¿Ð¾Ñģ Ð»ÐµÐ´
ĠÐ¿ÑĢÐ¾ÐµÐºÑĤ Ð¾Ð²
189 1
ĠÑĤÐ¾ÑĢÐ³Ð¾Ð² ÑĭÑħ
Ð¼ÑĥÐ½ Ð´
ĠÑĥÐºÐ°Ð· Ð¾Ð¼
ĠÐºÑĢÑĥÐ¿Ð½ÐµÐ¹ ÑĪÐ¸Ð¼
ĠÑĢÐµÐ³Ð¸Ð¾Ð½ Ð°Ñħ
ĠÐ¿Ð¾ÑģÑĤÐ¾ÑıÐ½ Ð½Ð¾Ð¹
ĠÐ¼ÑĭÑģ Ð»ÑĮ
Ð¾Ð·Ð½ Ð°Ð½Ð¸Ðµ
ÑĢÐ°Ð±Ð°ÑĤÑĭ Ð²Ð°
ĠÐ²ÑĭÐ´Ð° ÑİÑīÐ¸Ð¹ÑģÑı
Ð¾ÑĢÑıÐ´ Ð¾Ñĩ
ĠÐ³ÐµÐ¾Ð¼ÐµÑĤ ÑĢÐ¸Ð¸
ĠÐ¼ÑĥÐ»ÑĮÑĤ Ð¸Ð¿
ĠÐŁÐµÑĤÑĢ Ð¾Ð³ÑĢÐ°
ĠÐ´ÐµÑģÑı ÑĤÑĮ
ÐļÐ°Ð¶Ð´ ÑĭÐ¹
ĠÐ¼Ð¾ÑĢÐµÐ¿Ð»Ð°Ð² Ð°ÑĤÐµÐ»ÑĮ
a ch
Ñĥ Ð½Ðµ
Ñħ Ð°Ð¹
Ñħ ÑĢÐ¸ÑģÑĤÐ¸Ð°Ð½
Ð°Ð½ ÑĨÐµÐ²
Ð± ÑĢÐ¾Ð²
Ð¾Ð³ Ð¾Ð²
ĠÑĤ ÑĢÐ¾
Ð¡ Ð¼ÐµÑĢÑĤÑĮ
ĠÐ¾Ð± ÑģÑĤÐ°Ð½Ð¾Ð²
Ð¾Ð· Ð·
ĠÐľ Ð°ÑģÑģ
ĠÐĴ Ð¾ÑģÑĤÐ¾ÐºÐµ
ĠÐł ÐµÐ³
ĠÐł Ð°Ð±
ĠÐ²Ñĭ Ð³Ð¾Ð´
ĠÐĳ ÐµÑĢÑĤ
Ðł Ð°ÑģÑģ
Ð¶Ð´ Ñĥ
ĠÐĽ ÐµÑģ
Ðľ Ð¸ÑĦ
ĠÐ¾Ð¿ ÑĢÐ°Ð²
ĠÐ²Ð¾Ð· Ð²ÐµÐ´
ĠÐ½Ð°Ð¿ Ð¸ÑĤ
ĠÐ® ÑĢÐ¸Ñı
Ð¥ Ð°ÑĢÐ°ÐºÑĤÐµÑĢ
ÑĢÐ°Ñģ ÑģÑĤÑĢÐµ
ĠÐ¿Ð¾Ð¼ ÐµÑģÑĤ
ĠÐ´Ð¾ÑģÑĤ Ð¾Ð¸Ð½
Ð´ÐµÐ» ÐµÐ½Ð¸Ðµ
ĠÐķÐ²ÑĢÐ¾Ð¿ Ñĥ
ĠÐ¿ÑĢÐ¸Ð² ÑĳÐ»
ÐļÐ¾Ð½ ÑģÑĤÐ°Ð½ÑĤÐ¸Ð½
ĠÐ®Ð¶ Ð½Ð°Ñı
ĠÑģÐ¾Ð¾Ð±Ñī ÐµÐ½Ð¸Ð¹
ĠÑĢÑĭ Ð±Ñĭ
ĠÐ²Ð¾ÑģÑĤÐ¾Ñĩ Ð½ÑĭÑħ
ĠÑģÐ²Ñı Ð·ÑĭÐ²
ĠÐ¾ÑĢÐ´ÐµÐ½ Ð¾Ð¼
ĠÐ¾Ð±Ð»Ð°Ð´Ð°ÑĤÐµÐ»ÑĮ Ð½Ð¸ÑĨÐ°
ĠÐ¼Ð¸ÐºÑĢÐ¾ ÑģÐºÐ¾Ð¿
ĠÑħÑĢÐ° Ð¼Ð°
ĠÐ¸Ð»Ð»Ñİ ÑģÑĤÑĢÐ°
ĠÐĿÑĮÑİÑĤ Ð¾Ð½Ð°
ÐĿÐ°Ð³ÑĢÐ° Ð´Ñĭ
. Â»
i le
ÑģÑĤ Ð¸Ð½
Ð¾Ð» Ðº
Ð½Ð¾ ÑĤ
Ð¸Ð¼ Ð¾Ð²
ÐµÐ»ÑĮ Ð½Ð¾Ð³Ð¾
ĠÐ¿ÑĢÐ¸ Ð¼Ð¸ÑĤ
ĠÑį Ð¼Ð¿Ð¸ÑĢÐ¸
ĠÐŁ ÑĢÐ¾ÑĤ
Ð¸ÑģÑĤ ÑģÐºÐ¾Ð³Ð¾
Ð¸ÑģÑĤ ÑģÐºÐ¸Ðµ
ĠÐ¶ Ð°ÑĢ
ÑĢÑı Ð¶
ĠÐ¤ Ð°ÑĢ
ÑĢÐ°ÑĤ Ñĭ
ĠÐ¿Ð¾Ñģ ÐµÐ»ÐµÐ½Ð¸Ðµ
ĠÑĪ ÑĤÐ°Ð±Ð°
ĠÐ¥ Ð°
Ð°ÑĢÐ¸ ÑĦ
ĠÐ³Ð¾ÑģÑĥÐ´Ð°ÑĢ ÑģÑĤÐ²Ðµ
ĠÐĹ Ð½Ð°Ð¼
ĠÐ²ÑĭÑģ ÑĪÐµÐ¹
ĠÐ¿Ð¾ÑģÐ»Ðµ Ð²Ð¾
ĠÐ¾ÑĢÐ³Ð°Ð½ Ð¾Ð¼
Ð¸Ð·Ð° ÑĨÐ¸Ñİ
Ð°Ð»Ðµ ÐºÐ¾
ĠÐ¿Ð¾ÑĤ ÐµÐ½ÑĨÐ¸Ð°Ð»ÑĮ
ĠS M
ĠÑĦÐ¸Ð»Ð¾ÑģÐ¾ÑĦ ÑģÐºÐ¸Ñħ
ĠÐ¸Ð·Ð²ÐµÑģÑĤ Ð½Ð°
ĠÐ¶Ð¸Ð² ÑĥÑĤ
ĠÑģÐ¼ ÐµÑģÐ¸
ĠÐ»ÑİÐ± Ð²Ð¸
ĠÑĥÐ¿ÑĢÐ°Ð² Ð»ÐµÐ½Ð¸ÐµÐ¼
Ð¼Ð¾ÑĤ ÑĢ
ĠÐ£ÐºÑĢÐ° Ð¸Ð½ÑģÐºÐ¾Ð¹
Ð°ÐµÐ¼ Ð¾Ð¹
ÐļÐ¾Ð½ ÑģÑĤÐ¸ÑĤÑĥ
ĠÐĲÐ± Ñĥ
ĠÑįÐ½ÐµÑĢÐ³ Ð¸Ñı
ĠÐ³Ð»Ð° Ð·Ð°
ĠÐ¡ÐµÑĢÐ³ ÐµÑı
ĠÐºÐ¾Ð½ÑģÑĤÐ¸ÑĤÑĥ ÑĨÐ¸Ñİ
ĠÐ¿ÑĢÐ¾ÑĤÐµÑģÑĤ Ð°
ĠÐĵÐµÐ¾ÑĢÐ³ Ð¸Ñı
ĠÐ¤ÑĢÐ¸Ð´ÑĢÐ¸Ñħ Ð°
ĠÐĴÐ¸Ð»ÑĮÐ³ÐµÐ»ÑĮ Ð¼Ð°
ĠÑĨÐ¸Ðº Ð»
ĠÐ±Ð°ÑĢ Ð¾ÐºÐºÐ¾
ĠÐ¼Ð¾Ð»ÐµÐº ÑĥÐ»
ĠÑĢÐµÑĦÐµÑĢÐµÐ½Ð´ ÑĥÐ¼Ðµ
ĠÐ¥Ð°Ð¹ Ð´ÐµÐ³
ĠÐ±ÑİÐ´Ð¶ ÐµÑĤÐ°
ĠÐĺÐ½ÑģÑĤÐ¸ÑĤÑĥÑĤ Ð°
Ðº Ð¾Ð¼Ñĥ
Ð´ ÐµÐ½ÑĮ
ĠÑģ ÐµÑĢÐ¸
ĠÐ½Ð° Ð²Ð¾Ð´
Ð¡ Ð¾Ð»
ÐµÐ² ÑĤÐ¾Ð½
ĠÑį Ð¼Ð±
ĠÑĤÐµ Ñģ
ÐĶ Ð¾Ð±
Ðĺ Ð¾Ð°Ð½
ÑĢÐ°ÑĤ Ð°ÑĢÑĮ
Ð¸ÑĢÐ¾Ð² Ð°Ð½Ð¸Ð¸
Ð¾Ð²Ð°Ð½ Ð½ÑĭÐ¹
ĠÐ¾ÑģÑĤ Ð°Ð»ÑģÑı
Ð¥ ÑĥÐ´
ĠÑĤÐµÐ°ÑĤ ÑĢÐµ
ĠÐ¾Ð±Ñī Ð¸Ñħ
ĠÐ³Ð°Ð· Ð¾Ð²
ĠÐ¡ÐµÐ²ÐµÑĢ Ð½Ð°Ñı
ÐŀÑĤ Ñģ
ĠÑģÐ²Ð¾Ð±Ð¾Ð´ Ð½Ð¾Ð³Ð¾
ĠÐ´Ð¾Ð³ Ð¼Ð°ÑĤ
ĠÐ¿Ð¾Ð±ÐµÐ´ Ð¸Ð»
ĠE x
ĠÑĢÐ°Ð½ ÐµÐ½
ĠÐľÐ°ÑĢÐ¸ Ð½Ðµ
ĠÐ´ÐµÐ¿ Ð°ÑĢÑĤÐ°Ð¼
ĠÐ³ÐµÑĢ Ð¾Ñı
ed ia
ĠÐ²ÑĭÐ´ ÐµÐ»Ð¸ÑĤÑĮ
ĠÐ´ÑĥÑĪ Ð°
ĠÐ³ÑĢÑĥÐ· Ð¸Ð½ÑģÐºÐ¸Ð¹
ĠÐ¿Ð¾Ð´Ð¾Ð± Ð½ÑĭÑħ
ĠÐĴÐµÐ½ ÐµÑģÑĥÑį
ĠÑĢÑĭÐ½ ÐºÐ°
ĠÐĺÐ½ÑĤ ÐµÑĢÐ½
Ð¶Ñĥ Ð°Ð·
ĠÐ·Ð°Ð¼ÐµÑģÑĤ Ð¸ÑĤÐµÐ»ÑĮ
ĠÐķÐ»ÑĮ ÑĨÐ¸Ð½
ĠÐĲÑģÑģ Ð°Ð¼Ð±Ð»Ðµ
) )
Ï Į
Ð¾ Ð¸
ĠÐ¸ Ð½Ð°ÑĩÐµ
ÑĪ Ð°Ñħ
Ð¾Ñģ Ð¾Ð¼
ĠÐ° Ð³ÑĢÐµÑģÑģ
Ñį ÑĪ
ÐĴ ÐµÐ»ÐµÑģ
ĠÐ½Ðµ ÑģÑĤ
ĠÐĵ Ð¸Ð¿Ð°ÑĤ
ĠÐ²Ñĭ Ð²
ĠÑħ Ð²Ð¾ÑģÑĤ
ĠÐ¾Ñģ Ð°Ð´Ñĭ
Ðľ Ð°Ð»
Ðĵ ÐµÐ¾ÑĢÐ³
ĠÑĪ ÐµÑĢ
ĠÐ¿ÑĢÐ¾ÑĤ ÐµÐºÑĤ
ĠÐĲÐ½ ÑĤÐ¸Ð¾Ñħ
ĠÑģÐº Ð¾Ð»ÑĮÐºÐ¾
ÑĪÐ¸Ñħ ÑģÑı
ĠÑİ Ð³Ð°
ĠÐ¼Ð°ÑĤ ÐµÑĢÐ¸Ð¸
Ð¸ÑĢÑĥ Ñı
Ġ9 5
ĠÐ¸Ð·Ð²ÐµÑģÑĤ Ð½ÑĭÐ¼
ĠT h
ĠÐ³Ð¾Ð» ÑĥÐ±
Ð¯ Ð²Ð»Ñı
ĠÑħÑĥÐ´Ð¾Ð¶ Ð½Ð¸ÐºÐ°
ĠÐ·Ð°Ð½Ð¸Ð¼ Ð°Ð»ÑģÑı
Ð³Ð»Ð° Ð´ÐµÑĪ
ĠÐ¾ÑĦÐ¸ÑĨÐ¸Ð°Ð»ÑĮ Ð½Ð¾Ðµ
Ð¸Ð»Ð»Ð¸ Ð¾Ð½
Ġ186 8
ĠÐĳÐµÐ» Ð¾ÑĢÑĥÑģ
ĠÑĦÐ¾Ð½ Ð´Ð°
ĠÐ¸ÑģÐ¿Ð¾Ð»Ð½ ÐµÐ½Ð¸Ðµ
ĠÐ·Ð½Ð°Ðº Ð¾Ð²
ĠÐ²Ð¾Ð¾ÑĢÑĥÐ¶ ÑĳÐ½Ð½ÑĭÐµ
ĠÑĦÐ¸Ð·Ð¸Ðº Ð¾
ĠÑģÑĢÐ¾Ðº Ð¾Ð¼
ĠÑħÐ°ÑĢÐ°ÐºÑĤÐµÑĢÐ¸ÑģÑĤ Ð¸ÐºÐ¸
ĠÐ¿ÑĢÐµÐ´Ð¿Ð¾Ð»Ð°Ð³Ð° ÐµÑĤ
ĠÐ´Ñĭ ÑĢÑĭ
ĠÑģÐµÐ³Ð¾Ð´Ð½Ñı ÑĪ
Ð±ÑĥÐ´ ÑĮ
ĠÐľÑĥÑĢ Ð¼Ð°Ð½
ĠÐ½ÐµÐ¾Ð¿ Ð»Ð°ÑĤÐ¾Ð½
ĠÐ¡ÑĤÑįÐ½ Ð»Ð¸
ĠÑįÐ»ÐµÐºÑĤÑĢÐ¾ÑįÐ½ÐµÑĢÐ³ Ð¸Ð¸
u al
Ï ĩ
Ð½ Ð°ÑĤ
Ð°Ð½ ÐºÐ°
Ð»Ð¸ ÑĦ
Ð¾Ð½ ÑĤÐ¾Ð²
Ð¸Ð¼ ÐµÐ½ÑĮ
ĠÐ¾Ð± Ð¼ÐµÐ½Ð°
ĠÑģÑĤ Ð°Ð²ÑĪÐ¸Ð¹
ĠÐļ Ð°ÑĢÑĤ
ĠÑĦ Ð»Ð¾ÑĢ
ĠÑı Ð¹
ĠÐĿ Ð°Ñģ
ĠÐ£ ÑģÐ¿
Ġ5 8
Ð¼Ð°ÑĤ ÐµÐ¼Ð°ÑĤ
ĠÐ·Ð°Ð² Ð¾Ð´Ðµ
Ð°Ñĩ Ð°
ĠÐ¼Ð¾Ð½ Ð³Ð¾Ð»ÑĮ
ĠÐ¾Ñĩ Ð¸ÑģÑĤ
ĠÐ¿Ð¾Ñĩ Ð²Ñĭ
Ð³Ðµ Ð¾Ð³ÑĢÐ°ÑĦ
ĠÐ²Ð¾Ð¿ÑĢÐ¾Ñģ Ð°
ĠÐ°ÑģÑĤ ÐµÑĢÐ¾
ĠÑĤÐµÐ¼Ð¿ÐµÑĢÐ°ÑĤ ÑĥÑĢ
ĠÐ±ÑĭÐ² ÑĪÐ¸Ñħ
Ġ186 1
ĠÐ¸ÑģÑĤÐ¾Ñĩ Ð½Ð¸ÐºÐ°
Ð¡Ð°Ð¼ ÑĭÐµ
ĠÐ¿ÑĢÐ¾Ð²ÐµÐ´ ÐµÐ½Ð°
ĠÐºÐ¾ÑĢÐ¾Ð»ÐµÐ² Ñĭ
ĠÐ¾Ð±Ð»Ð°ÑģÑĤ Ð½Ð¾Ð³Ð¾
ĠÐ½ÐµÐ±Ð¾Ð»ÑĮÑĪ Ð¸Ðµ
ad io
ĠÑĤÐ²Ð¾ÑĢÑĩÐµ ÑģÑĤÐ²Ð¾
ĠÐ¼ÐµÐ» ÐºÐ¸Ñħ
ÐĳÑĭ Ð»Ð¾
ÐĴÑģ Ñĳ
ĠÑĢÐ°ÑģÐ¿ÑĢÐµÐ´ ÐµÐ»
ĠÐŁÐµÑĤÐµÑĢÐ±ÑĥÑĢÐ³ Ðµ
ĠÐ±Ð°ÑģÑģ ÐµÐ¹Ð½Ð°
ĠÐ½Ð°Ðº Ð»Ð¾Ð½
ĠÐĴÑĢÐµÐ¼ÐµÐ½ Ð½Ð¾Ð³Ð¾
ĠÐļÐ»Ð¸ Ð¼ÐµÐ½ÑĤ
ĠÑģÐ°Ð¼Ð¾ÑĥÐ¿ÑĢÐ°Ð² Ð»ÐµÐ½Ð¸Ñı
ĠÐ¿ÐµÑĢÐµÐ¸Ð· Ð±ÑĢÐ°Ð½
ĠÐ°Ð»Ðº Ð¾Ð³
Ðº Ð¾ÑĤ
Ð»Ð¸ Ð¶Ðµ
Ð°ÑĤ Ð»Ð¾Ð½
ĠÐ½Ð° ÑĪÐµÐ³Ð¾
ĠÑĤ Ð¾Ðº
ĠÐ° Ð¼Ð¿
Ð»Ðµ Ñħ
ĠÐ¾Ð± Ð»ÐµÐ³Ñĩ
ĠÐľ Ð»Ð°Ð´
ĠÐŁ Ð¸Ñģ
ĠÐĵ ÐµÐ²
ĠÐ²Ñĭ Ð´ÐµÑĢÐ¶
ĠÐ¶ Ð°Ð»
ĠÐºÐ¾Ð¼ Ð¸Ðº
ÑĢÐ¾Ð´ Ð¸Ð»ÑģÑı
ÐŃ ÑĢ
ÐĽ ÐµÐ¹
ĠÐ¸ÑģÑĤ Ð¸Ð½Ñĭ
ĠÐ´Ð¾Ð» Ð³Ð¾Ðµ
ĠÐ¾Ð±ÑīÐµ ÑģÑĤÐ²ÐµÐ½Ð½Ð¾Ð¹
Ð»ÐµÐ¹ ÑĤÐµÐ½Ð°Ð½ÑĤ
ĠÑįÐºÐ¾Ð½Ð¾Ð¼ Ð¸ÐºÐ°
ĠÐ¿Ð¾Ð½ Ð¸Ð¶
ĠÐľÐ°ÑĢ Ñģ
Ð°ÐµÐ¼ Ð°Ñı
ĠÑħÐ¸Ð¼ Ð¸ÑĩÐµÑģÐºÐ¾Ð¹
ĠÑİÐ¶ Ð½ÑĭÑħ
ĠÐ½Ð¾ÑĢÐ¼ Ñĭ
ĠÐľÐ°Ð¹ ÐºÐ»
ĠÑĢÐ°ÑģÑĪÐ¸ÑĢ ÐµÐ½Ð¸Ðµ
ĠÐłÑĭ Ð±
ĠÐºÐ¾ÑģÐ¼Ð¾Ð½Ð°Ð²ÑĤ Ð¸ÐºÐ¸
ĠÐĺÐ½ÑĤ ÐµÑĢÐ½ÐµÑĤ
ĠÐ½Ð°ÑĨÐ¸ÑģÑĤ ÑģÐºÐ¾Ð¹
ĠÐ¡ÐµÑĢÐ± Ð¸Ð¸
a u
Ñģ Ð¾Ð±
ĠÐ¾ Ð·Ð½Ð°Ð¼ÐµÐ½
ĠÑĤ Ð¾ÐºÐ°
ÑĩÐµ Ð»
ĠÑĥ ÑĪÑĳÐ»
Ð¸Ñģ Ð»Ð°Ð²Ð°
ĠÐ³Ð¾Ð´ Ð°Ð¼Ð¸
ĠÐ¾ÑĤ Ð»Ð¾Ð¶
ĠÐļ Ð°ÑģÑģ
ĠÐ½Ðµ Ð¾Ð¿ÑĢÐµÐ´ÐµÐ»
ĠÐĶ ÐµÐ½Ð¸
Ð¢ Ð¾Ð¿
ĠÐºÐ°Ðº Ð¸Ð¼
Ð°Ð»Ð° ÐºÑĤ
ĠÐ½Ð°Ð·Ð² Ð°ÑĤÑĮ
ĠÐ²Ð¾ÐµÐ½ Ð½ÑĭÐ¼
Ġ9 9
ĠÐ¿ÐµÑĢÐµÐ´ Ð°Ð»
ĠÐ½Ð°Ð·ÑĭÐ²Ð° ÐµÑĤ
ĠÐ¸Ð·Ð´ Ð°Ð½
ĠÐ´ÑĢÐµÐ² Ð½Ðµ
ĠL e
ĠÐĺÐ½Ð´ Ð¸Ñı
188 1
ĠÑĢÐ°Ð± Ð¾Ð²
ĠÐ¿ÐµÑĢÐµÐ¼ Ð¸ÑĢÐ¸
ĠÐ¾ÑĤÑģÑĥÑĤÑģÑĤÐ² Ð¸Ñı
ĠÑģÐ¾Ð±ÑĭÑĤ Ð¸Ðµ
ĠÑĩÑĳÑĢ Ð½Ð¾Ð¹
ĠÑĦÐ¸Ð³ ÑĥÑĢÐ¸ÑģÑĤ
ĠÑĤÑİ ÑĢÐº
ĠÐ¾Ð² Ð»Ð°Ð´
ĠÐ°ÑĢÐ¼ÑıÐ½ ÑģÐºÐ¸Ð¹
ĠÐ´Ð¸ÐºÑĤ Ð°ÑĤ
ĠÐ¿Ð¾Ð´Ð²ÐµÑĢ Ð³Ð°
ĠÐ²Ð¾ÑģÑĮ Ð¼Ð¸
Ð¸Ð²ÑĪÐµÐ¹ ÑģÑı
i er
Ã Ń
ĠÑģ Ð¸Ð±Ð¸ÑĢ
Ð¾Ð´ Ð¸Ð½
ĠÐ´ Ð¾Ð²
Ñī Ð¸ÐºÐ°
Ð»Ñı Ð¼Ð¸
Ð»Ñı ÑĨÐ¸Ñı
ĠÑĥ ÑģÑĤÐ°Ð²
ÐµÐ»ÑĮ Ð½Ð¾
ĠÐ¿ÑĢ Ð¾Ð»ÐµÑĤ
ÐĴ Ð¿ÑĢÐ¾ÑĩÐµÐ¼
ĠÐĲ ÑĢÐ°Ð³
ĠÐľ Ð°Ð¼
ĠÑĢÐµ Ð°Ð³
ĠÑĢÐ°Ð· ÑĢÑı
ĠÑĤÐµ ÑģÐ½Ð¾
Ðľ Ðŀ
ĠÐºÐ°Ðº Ð¸Ðµ
Ð°Ð½Ð´ Ðµ
Ð°Ñģ Ð¾Ð²
Ð°Ð»Ð° Ñı
Ð¸Ð¾Ð½ Ð¾Ð²
ĠÐ¿ÑĢÐ¾Ð² ÐµÑģÑĤÐ¸
ĠÐ¼ÐµÑĤ ÑĢÐ°
ĠÐ¿Ð¾Ð»Ð¸ÑĤ Ð¸ÑĩÐµÑģÐºÐ°Ñı
ÑĥÑī Ð¸Ð¼
ĠÐĲÐ»ÐµÐºÑģ ÐµÐµÐ²
Ð³Ð»Ð¸ ÑģÑĮ
ĠÐ²Ð¾ÐµÐ½ Ð½ÑĥÑİ
ĠÐ¿Ð¾ÑĤ Ð¾Ðº
ĠÑįÐ»ÐµÐºÑĤ ÑĢÐ¾ÑĤ
Ð¡ÑĤ ÑĢÐ°Ð½Ð°
ĠÐ¼Ð¾Ð» Ð¸ÑĤ
ĠÐ¿ÑĢÐ¾Ð´Ð¾Ð»Ð¶ Ð°Ð»
ĠÑĢÐµÑģÐ¿ÑĥÐ±Ð»Ð¸ ÐºÐµ
Ġ188 3
ĠÑģÐ»Ð¾Ð¶ Ð½ÑĭÑħ
ĠÑģÐ¾ÑģÑĤÐ°Ð²Ð»Ñı Ð»Ð¾
ĠÐ±Ð»Ð°Ð³ Ð¾Ð´
Ġ187 4
Ġ186 4
il os
ĠÐļÐ¾Ð¼ Ð¸ÑģÑģ
ĠÐ²ÐµÑĢÑģ Ð¸Ð¹
ĠÐ»Ð¸ÑĤÐµÑĢÐ°ÑĤÑĥÑĢ Ð½Ð¾Ð³Ð¾
ĠÐ¾ÑĤÐº ÑĥÐ´Ð°
ĠÐ¿Ð¾Ð´Ð°Ð² Ð»Ñı
ĠÐ¿Ð¾ÑģÐ°Ð´ ÐºÑĥ
ĠÐ¿Ð°Ð» Ð°ÑĤÑĭ
ĠÑħÐ°ÑĢÐ°ÐºÑĤÐµÑĢÐ¸ÑģÑĤ Ð¸ÐºÐ°
ĠĠĠĠĠĠĠĠ ĠĠĠĠĠĠĠĠ
ĠÑĤÑĢÐµ ÑĥÐ³Ð¾Ð»ÑĮ
ĠÐ¸Ð½ÑĤÐµÐ»Ð»ÐµÐºÑĤ Ð°
ĠÐ¸Ð¼Ð¿ÐµÑĢÐ°ÑĤ ÑĢÐ¸ÑĨÑĭ
ĠÑĤÐµÐ½Ð½Ð¸Ñģ Ð¸ÑģÑĤ
ĠÐ»ÐµÑĤÐ¾Ð¿Ð¸Ñģ Ð¸
ÐŁÑĢÐµÐ¼ Ð¸Ñı
ĠÑĤÑĥÑĢÐ¸Ð· Ð¼Ð°
yst em
o h
Ð° Ð¶Ð´
ÑģÑĤ Ð¸ÑĨÐ¸Ð¸
ĠÐ¿ ÑĢÐ°
ÐµÐ½ Ð´Ðµ
Ð· Ð¸ÑĤ
ĠÐ³ Ð¾ÑĢÐ°
ĠÑĢÐ° ÑģÑģÐ»ÐµÐ´
ĠÑĦ Ð°Ð¹Ð»Ð¾Ð²
ĠÐ» Ð°Ð·
Ð½Ð¸ Ð±ÑĥÐ´ÑĮ
ĠÐĽ Ð¸Ð³Ð¸
ĠÐĺ Ð¼
ÐµÑĢÐ¼ Ð°Ñħ
ĠÐ²ÑĭÑģ ÑĪÐµÐµ
ĠÐ¿ÑĢÐ¾ÑĤÐ¸Ð² Ð½Ð¸ÐºÐ°
ĠÐ³Ð¾ÑģÑĥÐ´Ð°ÑĢÑģÑĤÐ²ÐµÐ½ Ð½Ð°Ñı
Ð°Ð»Ðµ Ðµ
Ð¾Ð»Ð¾Ð¶ ÐµÐ½Ð¸Ðµ
ĠÐ¼Ð¾Ð³ Ð»Ð¾
ĠÐºÐ¾Ð½ÑĤ Ð¸Ð½
ic e
ĠÑģÑĤÐ¾Ð» Ðº
ÑĥÐ»Ð¸ ÑĢÑĥ
ĠÑĥÐ³ Ð»ÐµÐº
ĠÐ¡ÐµÐ²ÐµÑĢ Ð½Ð¾Ð¼
ĠÐ¿ÑĢÐ¾Ð¼ÑĭÑĪÐ»ÐµÐ½ Ð½Ð¾Ð³Ð¾
ĠÑĨÐµÐ» Ð¾ÑģÑĤ
ĠÑĥÐºÑĢÐ° Ð¸Ð½ÑģÐºÐ°Ñı
ĠÐ¾ÐºÐµ Ð°Ð½Ðµ
ĠÐ¿ÑĢÐ¸Ð½Ð°Ð´Ð»ÐµÐ¶ Ð°ÑĤ
ĠÐ°Ðº ÑĥÑģÑĤ
ĠÐĴÐ¸Ð»ÑĮ Ð½Ñİ
id ae
ĠÐ¼ÑĥÐ·ÑĭÐºÐ°Ð»ÑĮ Ð½ÑĭÑħ
ĠÐĺÐ·ÑĢÐ° Ð¸Ð»Ðµ
Ð°ÑİÑīÐ¸Ð¹ ÑģÑı
ĠÐĴÐ¾ ÐµÐ½Ð½Ð¾
ĠÑĢÑĭÐ½ Ð¾Ðº
Ð¤Ð¸Ð»Ð¾ÑģÐ¾ÑĦ Ð¸Ñı
ĠÐ¾ÐºÐ°Ð·ÑĭÐ²Ð° ÐµÑĤÑģÑı
ĠÐŃÐ¹Ð½ÑĪÑĤ ÐµÐ¹Ð½
ĠÐ°Ð²Ð¸Ð°Ðº Ð°ÑĤ
Ð½Ð¾Ð¶Ðµ ÑģÑĤÐ²Ð¾
ĠÐĺÑĢÐ° ÐºÐ°
ĠÐĴÑģÐµÐ² Ð¾Ð»Ð¾Ð´
ÐŁÐµÑĢÑģÐ¾Ð½ Ð°Ð»Ð¸Ð¸
Ðº Ð½ÑĥÑĤ
ÐµÐ½ Ñĥ
ĠÐ¾ Ð·Ð²ÑĥÑĩ
Ð³ ÐµÑĢÐ°
ĠÐ´ Ð¸ÑģÑĤÐ°Ð½
ĠÐ° ÑĥÐ´
Ð»Ðµ ÑģÑĤ
ĠÑĥ ÐµÐ·Ð´
ÐµÐ»ÑĮ ÑĤ
ÐŁ ÐµÑģ
ĠÐ¿ÑĢÐ¸ Ð²Ð¸Ð»ÐµÐ³
ĠÐĳ ÐµÐº
ĠÐĳ Ð»Ð¸Ð¶
ĠÐĳ Ð°ÐºÑĥ
ĠÐ¿Ð¾Ð» Ðº
ÑĥÑģ ÑģÑĤÐ²Ð¾
ĠÐºÐ¾ÑĢ ÑĢÑĥÐ¿
ĠÑĢÑĥÑģ ÑģÐºÐ¸Ð¼Ð¸
Ð¾Ð¶Ð´ ÐµÐ½Ð¸Ð¹
ĠÑĢÐ°Ð±Ð¾ÑĤ Ð°Ð»Ð¸
ĠÑĤÐ¾ ÑĩÐµÐº
Ð¾ÑĪ Ð¸
ĠÐ¿Ð¾Ð· Ð½Ð°ÐºÐ¾Ð¼
ar e
ĠÐ´Ð¾Ðº ÑĥÐ¼ÐµÐ½ÑĤÐ°
ĠÐ¼ÑĥÐ·Ñĭ ÐºÑĥ
ĠÐ¿Ð¾Ð½ ÑıÑĤÐ¸Ð¹
ĠÐ³Ð¾Ð» Ð»Ð°Ð½Ð´ÑģÐºÐ¸Ð¹
ĠÑģÐ¾Ð´ÐµÑĢÐ¶ Ð¸ÑĤÑģÑı
Ð¼Ð¸ÑĤ Ð°Ð¶
Ġ186 7
ĠÐºÑĥÑĢ Ð¾ÑĢÑĤ
ĠÐ´Ð°Ð² Ð»ÐµÐ½Ð¸Ðµ
ĠÐ°Ð²ÑĤ Ð¾Ð³Ð¾Ð½ÑīÐ¸Ðº
ĠÐ°ÑģÑĤÑĢÐ¾Ð½Ð¾Ð¼ Ð¸Ð¸
ĠÑĤÑĢÐµÑĤÑĮ ÐµÐ¹
ĠÐĽÐ°ÑĤ Ð¸Ð½ÑģÐºÐ¾Ð¹
ĠÑģÐ¿ÑĥÑĤ Ð½Ð¸Ðº
ĠÐ¾ÑĢÑĥÐ¶ Ð¸Ðµ
ĠÑģÐ¾Ð·Ð´Ð°Ð² Ð°ÑĤÑĮ
ĠÑĦÑĢÐ°Ð½ ÐºÐ¾Ð²
ĠÐ½Ð°ÑĨÐ¸Ð¾Ð½ Ð°Ð»Ð¸ÑģÑĤ
ĠÐ¿ÑĥÐ±Ð»Ð¸ÐºÐ° ÑĨÐ¸Ð¸
ĠÐĲÑĢÐ³ÐµÐ½ÑĤ Ð¸Ð½Ñĭ
ĠÐĽÑİÐ´Ð¾Ð² Ð¸ÐºÐ°
ÐłÐµÐ· ÑĥÐ»ÑĮÑĤ
! Â»
i x
r on
Ð² Ð¾ÑģÑĤÐ¾Ðº
ÐµÐ½ Ðº
ÐµÑĢ Ð´
ĠÐ¾ ÑĦ
ĠÐ´ Ð°ÑİÑĤ
Ð°ÑĢ ÐºÐ°
Ð¸Ðº Ð¸Ð¼
ĠÐ¡ ÑĥÑħ
ĠÐļ ÑĥÑĤ
Ð¶Ðµ ÑģÑĤÐ²Ð¾
ĠÐ¶ Ð¸ÑĤÑĮ
ÐĲ Ñį
ÑĳÐ½ Ð½Ð¾
Ð½Ñı Ñħ
ĠÑĪ Ð¾ÑģÑģ
ÑĢÑĭ Ð¼
Ð¸ÑĢÐ¾Ð² Ð°Ð»Ð¸ÑģÑĮ
Ð¾ÑĢÐ° ÑĩÐ¸Ð²
ÑĢÐ¾Ð´ Ð°
ĠÐ²Ð¾Ð· Ð¼
ĠÐ²Ð¾Ð· Ð±
Ð¸Ð¾Ð½ ÐµÑĢÐ¾Ð²
ĠÐ¾ÑģÑĤ Ð°Ð½
Ð¿ÑĢÐ¸ Ð½ÑıÑĤ
ĠÐ¼ÐµÑĤ ÐµÐ¾ÑĢ
ar s
Ð¸ÑĢÐ¾Ð²Ð°Ð½ Ð½Ð°Ñı
ĠÐ³Ð¾ÑĢ Ð½ÑĭÑħ
Ð½ÐµÐ² Ð¾ÑģÑĤÐ¾Ñĩ
ĠÑĢÐ¾Ð´ ÑģÑĤÐ²ÐµÐ½
ĠÐ½Ð°ÑĥÑĩ Ð½ÑĭÐ¹
ĠÐ°ÑĤ ÑĢÐ¸Ð±ÑĥÑĤ
ĠÑģÐ»Ð¾Ð¶ ÐµÐ½Ð¸Ñı
ĠÐ¼Ð°Ð½ Ð¸Ñħ
ĠÐ·Ð°Ð²Ð¸ÑģÐ¸Ð¼ Ð¾ÑģÑĤÑĮ
ÐĵÐ¾ÑģÑĥÐ´Ð°ÑĢ ÑģÑĤÐ²ÐµÐ½Ð½Ð°Ñı
ĠÑĢÐ°Ð·Ð± Ð¸Ð»
ĠÐĽÐ° Ð¾ÑģÐ°
ĠÑıÐ´ÐµÑĢ Ð½Ð¾Ð³Ð¾
ĠÐ¿Ð¾ÑģÐ°Ð´ ÐºÐ¸
ĠÑģÐ¾Ð¾ÑĢÑĥÐ¶ ÐµÐ½Ð¸Ð¹
ĠÐĴÑģÐµÐ¼Ð¸ÑĢ Ð½Ð¾Ð³Ð¾
ĠÐ¼Ð¸ÑĤ ÑĢÐ¾Ð¿Ð¾Ð»Ð¸ÑĤ
ĠÐ¸Ð½ÑĤÐµÑĢÐ¿ÑĢÐµ ÑĤ
ĠÐ¸Ð¼Ð¿ÐµÑĢÐ°ÑĤ ÑĢÐ¸ÑĨÐ°
ÐļÐ°ÑĤÐ¾Ð» Ð¸ÑĨÐ¸Ð·Ð¼
ĠÑįÐºÑģÐ¿Ð»ÑĥÐ°ÑĤÐ° ÑĨÐ¸Ð¸
ĠÐ¾Ð±ÑĬÑıÑģÐ½Ñı ÐµÑĤÑģÑı
ĠÑĢÐµÐ¼ ÐµÑģ
ÐŁÑĢÐ¾Ð¸Ð· Ð²Ð¾Ð´
ĠÐºÑĢÐµÐ´ Ð¸ÑĤ
p er
Ð¾ ÑĢÐ°ÑĤ
Ðµ Ñİ
ĠÑģ ÐµÐ»Ð°
ÑĢÐ¸ Ð´Ð¶
ĠÐł Ð¾ÑĤ
ĠÑĢÐµ ÑĦÐ¾ÑĢÐ¼Ð°
ĠÐ¿Ð¾Ð» ÐºÐ¾Ð²Ð½Ð¸Ðº
ĠÐ¤ Ð¾ÑĢ
Ð¢ Ð¾Ð»
ÐĹ Ð°Ð¼
ĠÐºÐ¾Ð¼Ð¿ Ð°ÐºÑĤ
ĠÐ¾ÑģÑĤ Ð°Ð»Ð¸ÑģÑĮ
ĠÐ´Ð¾Ð» Ñİ
an a
ĠÐ³Ð¾ÑģÑĥÐ´Ð°ÑĢÑģÑĤÐ²ÐµÐ½ Ð½Ð¾Ð¼
ĠÐĲÐ² ÑģÑĤÑĢÐ¸Ð¹
ĠÐºÑĢÐµ ÑģÑĤÐ¾Ð½
ĠÐ³ÑĢÐ°Ð½ Ð¸Ñĩ
ĠL a
ĠÐ¾ÑĢÐ³Ð°Ð½Ð¸Ð·Ð° ÑĨÐ¸Ñİ
189 3
ĠÐ±Ð»Ð°Ð³ Ð¾Ð¿ÑĢÐ¸ÑıÑĤ
ÑĮÑİÑĤ ÐµÑĢ
ĠÐĹÐµÐ¼ Ð»Ñİ
ĠÐºÑĥÐ»ÑĮÑĤÑĥÑĢ Ð½ÑĭÑħ
ĠÐ½Ð°Ð·ÑĭÐ²Ð°ÐµÐ¼ ÑĭÑħ
ĠÐ¾Ð±Ð½Ð°ÑĢÑĥÐ¶ ÐµÐ½Ñĭ
ĠÐºÐ¸ÑĤÐ°Ð¹ ÑģÐºÐ¾Ð¹
ĠÐ´ÐµÑģÑıÑĤ ÐºÐ¾Ð²
ĠÐ½Ð°Ð·ÑĭÐ² Ð°ÑĤÑĮ
ĠÐ½Ð°ÑģÐµÐ» ÑĳÐ½Ð½ÑĭÑħ
ĠÐ¾Ð±ÑĢÐ°ÑĤ Ð½Ð¾
ĠÐ°Ð· Ð¾ÑĤ
ÐµÑĢÐ°Ð»ÑĮ Ð´
ĠÐ¿ÑĢÐ¸ÑģÑĥÑĤÑģÑĤÐ² ÑĥÐµÑĤ
ĠÐ¿Ð¾Ð´ÑĢÐ°Ð· Ð´ÐµÐ»Ñı
ÐĵÐµ Ð¾Ð³ÑĢÐ°ÑĦ
ĠÐļÐ°Ð»Ð¸ ÑĦÐ¾ÑĢ
ĠÑĦÐ¸Ð»Ð¸ Ð°Ð»
ĠÐ°ÑĢÐ³ÐµÐ½ÑĤ Ð¸Ð½ÑģÐºÐ¸Ð¹
ÐĵÐµÑĢÐ¼ Ð°Ð½Ð¸Ñı
ĠÐºÑĢÐµÑģÑĤÐ¾Ð½ Ð¾Ñģ
C H
ĠÐ¿ Ð°Ð½ÑĤÐµ
Ð¿ Ð¾Ð¿
ÑĪ Ð°ÑĦ
ÑĦ ÑĢÐ°Ð½ÑĨÑĥÐ·
Â» );
ĠÑĩ ÐµÐ¼Ñĥ
ĠÐ¾ÑĤ ÑĢÐµÐ·
ĠÐĲ Ð¡Ð¡Ðł
ĠÐĵ ÑĢÐ°
ĠÐĵ ÑĢÐ¸Ð³
ĠÐ²Ñĭ Ð³Ð»ÑıÐ´
Ðļ ÑĢÐµ
Ðľ Ñĭ
ĠÐŀ Ð¿
ĠÐ¥ Ð°Ð¼
ĠÑıÐ²Ð»Ñı Ð»Ð°ÑģÑĮ
Ð¿ÑĢÐ¸ Ð½
ĠÑģÐº Ð²ÐµÑĢ
ĠÐ½ÐµÐ¼ ÐµÐ´
on s
ĠÐ¿Ð°ÑĢÑĤ Ð¸Ñİ
ĠÑģÐ»ÐµÐ´ ÑģÑĤÐ²Ð¸Ðµ
Ð¿Ð¸Ñģ Ð°Ð½Ð¸Ðµ
ĠÐºÐ»Ð°ÑģÑģ Ñĭ
ĠÑįÐ»ÐµÐ¼ÐµÐ½ÑĤ Ð°ÑĢÐ½ÑĭÑħ
Ð½Ð¾Ñģ Ð¸ÑĤ
ĠÐ³Ð¾Ð²Ð¾ÑĢ Ð¸Ð»
188 2
ĠÐŁÐµÑĢ Ð¼Ð¸
ĠÑģÐ²ÑıÑīÐµÐ½ Ð½Ð¸Ðº
ĠÐ¤Ð¸Ð»Ð¸Ð¿Ð¿ Ð°
ĠÑĢÐ°ÑģÐ¿Ð¾Ð»Ð°Ð³Ð° ÑİÑĤÑģÑı
ÐĽÐµ Ð¾Ð½
ĠÐ±ÑİÐ´Ð¶ ÐµÑĤ
ĠÐ¸Ð½ÑĤÐµÑĢÐ² ÑĮÑİ
ĠÐ±ÐµÐ»ÑĮÐ³ Ð¸Ð¹ÑģÐºÐ¸Ð¹
Ð¼ ÑĥÑİ
ĠÐ¸ ÑĢÐ°Ð½
ÑĨ Ð°Ñħ
Ð¾Ð¼ Ð½
ĠÑĤ ÑĢÐµÐ¼Ñı
ÑĦ Ð°Ð»ÑĮ
Ð¸ÑģÑĤ Ð¾Ð¼
ĠÐĵ Ð¾Ð½Ð´
ĠÐĵ Ð¾ÑģÐ¿Ð¾Ð´
ĠÐĳ ÐµÑģÑģ
ÐĶ Ð°Ð»ÑĮ
Ð¸Ñĩ ÐµÐ¼
ĠÐ°Ð½ ÑĤÐ¸
ĠÐ¿Ð¾ÑģÑĤ ÑĢÐ¾Ð¹ÐºÐ¸
ĠÐ¿Ð¾Ð² ÑĢÐµÐ¶Ð´
Ġ6 3
ĠÐ¸Ð·Ð²ÐµÑģÑĤ Ð½Ð¾Ð³Ð¾
ĠÐĸ ÐµÐ½ÐµÐ²
ĠÐ·Ð°ÑĤ Ð¼
Ð²Ð¸Ð½ ÑĤ
ĠÐ½ÐµÐ´ Ð¾Ð²Ð¾Ð»ÑĮ
ĠÑĢÐ°Ð½ Ð½ÐµÐ³Ð¾
ĠÐľÐ¸Ð½ ÑģÐºÐµ
ĠÑģÐ»ÐµÐ´ÑĥÑİÑī ÐµÐ¼
ĠÐ±ÑĭÐ² ÑĪÐµÐ¹
ĠÐ¿ÑĢÐ¸Ð½ÑĨÐ¸Ð¿ Ð¾Ð²
187 8
ĠÐ´Ð°Ð² Ð»ÐµÐ½Ð¸ÐµÐ¼
ĠÐºÑĥÐ»ÑĮÑĤÑĥÑĢ Ð½Ð¾Ð³Ð¾
Ð¸ÑģÐ¿ Ð¾Ð²ÐµÐ´
ĠÐ³ÑĢÐµÑĩÐµ ÑģÐºÐ¸Ð¹
ĠÑħÑĥÐ´Ð¾Ð¶Ðµ ÑģÑĤÐ²ÐµÐ½Ð½Ð¾Ð¹
ÐļÐ¾ÑĢ Ð¾Ð»ÐµÐ²
ĠÐ¿ÑĢÐ¾Ð´ÑĥÐºÑĤ Ñĭ
ĠÑĨÐ¸Ðº Ð»Ð°
ĠÐľÑĥÑħÐ°Ð¼ Ð¼ÐµÐ´
Ð¡ÐµÐ¼ ÑĮÑı
ĠÐļÐ¾ÑģÑĤ Ð°
ĠÑĦÐ°ÐºÑĥÐ»ÑĮÑĤ ÐµÑĤ
ĠÐ¿Ð»Ð¾Ð´ Ð¾ÑĢÐ¾Ð´
ĠCom p
ĠÐ´Ð¸ÑģÑģ ÐµÑĢÑĤÐ°
ÐļÐ½Ð¸ Ð³Ð°
ĠÐ°Ð´Ð² ÐµÐ½ÑĤ
ĠÑĢÐµÐ±ÑĳÐ½ ÐºÐ°
ĠÑģÐ»Ð° Ð±Ð¾
Ã ³
Ð² Ð¾Ð·Ð´ÑĥÑĪ
ĠÑģ ÐµÐ¿
ĠÐ½ ÐµÑĢ
ÑĨ ÐºÐ¸Ðµ
ĠÐ½Ð° ÑĢÑĥÑĪÐµÐ½Ð¸Ñı
Ġ1 27
ĠÐ· ÑĢÐ¸ÑĤ
Ð»Ñı ÑĢ
ĠÑĩ ÑĥÑĤÑĮ
ÐµÐ² ÑĭÐ¼
ĠÐł Ð¾Ð½
Ðļ Ð¸Ð½
ĠÐĶ Ð¾ÑĢ
ĠÐ¸Ð¼ Ð¼ÑĥÐ½
Ð¢ Ñĥ
ÑĥÑģ Ñĭ
ĠÑĢÐ°ÑģÐ¿ Ð°Ð´
ĠÐ§ Ð¶
ÑıÑī Ð¸Ð¼
ĠÑİ ÑģÑĤÐ¸ÑĨÐ¸Ð¸
ĠÑĢÐµÐ· Ð¾Ð½
ĠÑģÐ¾ÑģÑĤÐ¾Ñı Ð½Ð¸Ð¹
ĠÑģÐ»ÐµÐ´ Ð¾Ð²Ð°ÑĤÐµÐ»ÑĮ
ĠP l
ĠÑĤÐ¾Ñĩ ÐºÑĥ
ĠÐ¾ÑĤÐºÑĢÑĭÑĤ Ñĭ
ĠÑĢÐ°ÑģÐ¿Ð¾Ð»Ð¾Ð¶ ÐµÐ½Ð½ÑĭÐ¹
ĠÐ²Ð¾Ð·Ð½Ð¸Ðº Ð»Ð¸
ĠÐ¾Ð±ÐµÑģÐ¿ÐµÑĩ Ð¸ÑĤÑĮ
ÐĲÐ² ÑĤÐ¾ÑĢ
ĠÐ¾Ð±Ð½Ð°ÑĢÑĥÐ¶ Ð¸Ð»
ĠÐ»Ð°ÑĤ ÑĭÑĪ
ĠÐŁÑĢÐ¸ Ð±Ð°Ð»ÑĤ
ĠÑĤÐ°Ð¼ Ð¾Ð¶
ĠÐĳÐ°ÑĢ Ð±
ĠÐ´Ð¾ÐºÑĥÐ¼ÐµÐ½ÑĤ Ñĭ
ĠÑĢÐ°Ð·Ð¼ÐµÑĢ Ñĭ
ĠÑģÑħ Ð¾Ð¶
ĠÑĦÐ¸Ð³ ÑĥÑĢ
ÐĽÑİ Ð±
ĠÐ´Ð¾Ð±Ñĭ ÑĩÐ°
ĠÑĢÐ°ÑģÑĪÐ¸ÑĢ ÐµÐ½Ð¸Ñı
ĠÐ´ÐµÐ¼Ð¾Ð½ ÑģÑĤ
ĠÐ¿Ð¾ÑģÐ»ÐµÐ´Ð¾Ð²Ð°ÑĤÐµÐ»ÑĮ Ð½Ð¾ÑģÑĤÐ¸
Ð°Ð²ÑĪÐ°Ñı ÑģÑı
ĠÐ´ÐµÑģÑı ÑĤÐ¸
ĠÐ¡ÑĤÐ°Ð½ Ð¸ÑģÐ»Ð°Ð²
ĠÐľÐ¾Ð½Ð³Ð¾Ð» Ð¸Ð¸
ĠÐľÐ°ÑĢÐ¸Ð½Ðµ ÑģÐºÐ¾
? Â»
Ð± Ð°Ð»
ÑĢÐµ Ð»Ð°
Ð¡ Ð²ÐµÑĤ
ĠÐ¡ Ðµ
Ð¸Ð» Ñİ
ĠÐĴ Ð¡
ĠÐĵ Ð¸Ð¿Ð¿
ĠÐĶ ÑĥÐ¼Ñĭ
ĠÐ¾Ð¿ ÑĢÐ¾Ð²
Ðĳ Ð¾
ĠÐķ ÑĦ
Ð¤ Ð°ÐºÑĤ
ĠÐĹ Ð¸Ð½Ð¾Ð²
ÐĿÐ° Ð±
ĠÑĦÑĢÐ°Ð½ÑĨÑĥÐ· ÑģÐºÐ¸Ñħ
ĠÑĥÑģ Ð»ÑĥÐ³Ð¸
Ð¾Ñİ Ð·Ð°
ĠP ar
ĠÐ¼Ð°ÑģÑģ Ð¾Ð²ÑĭÑħ
ĠÐ¾Ð¿Ð¸Ñģ ÑĭÐ²Ð°
ĠÑħÑĢÐ¸ÑģÑĤÐ¸Ð°Ð½ ÑģÐºÐ¸Ð¹
ĠÑĤÐµÑħÐ½ Ð¸ÑĩÐµÑģÐºÐ¸Ñħ
Ġ186 5
Ð±ÑĢÐµ ÑħÑĤ
ĠÐĲÑĢÐ¼ ÑıÐ½
ĠÐ¾ÑĤÑģÑĥÑĤÑģÑĤÐ² ÑĥÑİÑĤ
ĠÐŁÐ¾Ð» ÑĤÐ°Ð²
ĠÐ²Ð»Ð°Ð´ ÐµÐ»ÑĮ
ĠÐ¿ÑĢÐ¾ÑĤÑıÐ¶ ÑĳÐ½Ð½Ð¾ÑģÑĤÑĮ
ĠÑģÐµÐºÑĢÐµÑĤ Ð°ÑĢÑĳÐ¼
ĠÑģÑĥÑĤ ÐºÐ¸
Ð¦ÐµÐ½ÑĤ ÑĢ
Ð°Ð²ÑĪÐµÐ¹ ÑģÑı
ÑĭÐ» ÐºÐ¸
ĠÐ·Ð°Ð²ÐµÐ´ ÐµÐ½Ð¸Ð¹
ĠÐķÐ»Ð¸Ð·Ð°Ð² ÐµÑĤÑĭ
ĠÐļÐ¸Ð¿ ÑĢ
ĠÑģÑĥÑī Ð½Ð¾ÑģÑĤÐ¸
ĠÐĳÐ¾Ñģ Ð½Ð¸Ð¸
ĠÐ¦ÐµÐ· Ð°ÑĢÑĮ
C P
Å ¡
Ð¸ Ð¾Ð½Ñĭ
Ðº ÑĢÐ¾Ð¼Ðµ
Ð² Ð¸Ð½Ð°
ĠÐº Ð°Ð½ÑĤ
ÑĢÐµ Ð²Ð°
Ð»Ð¸ Ð²Ð¾
ĠÐ³ ÑĥÑģÑĤ
ÑĦ ÑĢÐ¸Ð´
Ð°ÑĢ Ð½Ð¾Ðµ
ĠÑģÑĤ Ñĭ
ÐŁ ÑĥÑĪ
ĠÐļ Ð°Ñģ
ĠÐ» ÑİÑĤÐµÑĢÐ°Ð½
ĠÐľ ÐµÐ»
ÑĢÐ¾Ð² ÑĭÐµ
Ð¾Ñĩ Ð½Ð¾Ðµ
ĠÐ¢ ÑĥÐ½
ĠÐ¤ ÐµÑĢÐ½
ÐºÐ¾Ð² Ð¾Ð³Ð¾
ÐĶ Ð¾Ð»
ÐĶ Ð°Ð»ÐµÐµ
ĠÐ¾Ð¿ ÑĭÑĤÐ°
ĠÑĪ Ð°ÑĤÑĤ
Ð°Ð»Ð° Ð¼Ð¸
ĠÐ¾ÑģÐ½Ð¾Ð² Ð½ÑĭÐ¼Ð¸
Ð¨ Ð¸ÑĢ
ĠÐ§ Ðµ
ÑĢÐ¾Ð½ Ð¾Ð²
ĠÐ¿ÑĢÐ¸Ð½ ÑĨÐµÑģÑģ
it h
ĠÐ²ÑĭÑģÐ¾Ðº Ð¸Ðµ
ĠÐ´ÑĢÐµÐ² Ð½Ð¸Ðµ
ĠÐĲÐ½Ð´ ÑĢÐ¾Ð¿
ĠÑģÐµÐº ÑģÑĥ
ĠÐĳÐ¾Ð³ Ð¾ÑĢÐ¾Ð´
ĠÐ¿ÑĢÐ¸Ð½ÑĨÐ¸Ð¿ Ð°
ÐłÐ°Ð· Ð»Ð¸Ñĩ
ĠÐŁÐ°ÑĢÐ¸ Ð¶Ð°
ĠÑģÑĬ ÐµÐ·Ð´Ðµ
ĠÑĤÐ°Ð¼ Ð¿Ð»Ð¸
ÑİÑīÐ°Ñı ÑģÑı
ĠÑĤÐ¾Ð² Ð°ÑĢÐ¸
ĠÐłÐ¸Ñĩ Ð°ÑĢÐ´Ð°
ĠÐ¢Ð²ÐµÑĢ ÑģÐºÐ¾Ð¹
ĠÐ¿Ð°ÑĢÐ°Ð¼ÐµÑĤ ÑĢÐ¾Ð²
ĠÐ·Ð°ÑħÐ²Ð° Ñĩ
ĠÐ¿ Ð»Ñı
ÐµÐ½ ÑģÐ°
Ð¾Ð½ Ð°Ð¼Ð¸
Ð°ÑĢ ÑģÐºÐ°Ñı
Ð°Ð² Ð¸
ĠÐľ Ð¸ÑĢÐ¾Ð²
ĠÐŁ Ð¾ÑĢ
ĠÐł Ð¾Ñģ
ĠÑĢÐµ Ð°ÐºÑĤ
ĠÐĽ ÑĥÐº
ĠÐ¿Ð¾Ð´ Ð»ÐµÐ¶
ÐµÐ»Ð¸ Ð²
ĠÑĤÐµ Ð·
ĠÑĥÑĩ Ð¸Ð»Ð¸ÑīÐ°
Ð¿ÑĢÐµ Ð¶
ĠÐ²Ð¸Ð´ Ñĥ
ÐŁÐ¾ ÑħÐ¾Ð´
ĠÐ²Ð¾Ñģ ÑħÐ¾Ð´
ĠÐ½Ð°Ð´ ÑĳÐ¶
ĠÐ¾Ñĩ ÐµÑĢ
ĠÐļÐ°ÑĢ Ð¾Ð»
ĠÐ¡ÐµÐ²ÐµÑĢ Ð½ÑĭÐ¹
ĠÐ¼Ð°ÑĤÐµÐ¼Ð°ÑĤ Ð¸ÑĩÐµÑģÐºÐ¾Ð¹
ĠÐ¿ÑĢÐµÐ² ÑĭÑģ
ĠÐ²Ð°Ð¶ Ð½ÑĭÑħ
ĠÐ¼ÐµÑħÐ°Ð½ Ð¸ÐºÐ°
ĠÐ¿Ð¾ÐºÐ°Ð· Ð°Ð»
ĠÐ¾Ð±ÑıÐ· Ð°ÑĤÐµÐ»ÑĮÐ½Ð¾
ĠÐŁÑĢÐ¸ Ð¼Ð¾ÑĢ
ĠÐ¿ÑĢÐ¾Ð¶ Ð¸Ð²Ð°ÐµÑĤ
ĠÐ¿Ð»Ð¾ÑĤ Ð½Ð¾ÑģÑĤÐ¸
ĠÐ¿Ð¾ÑģÑĤÑĥÐ¿ Ð¸Ð»
ĠÐĽÑĮ Ð²Ð°
ĠÐ¿ÑĢÐ¸Ð±Ñĭ Ð»Ð¸
ĠÐ°ÑĤÐ¼Ð¾ÑģÑĦÐµÑĢ Ðµ
ĠÑįÐ¼Ð¸ Ð³
ĠÐŁÐ»Ð°ÑĤ Ð¾Ð½
ĠÑĢÑĭÐ½ ÐºÐµ
ĠÐ´Ð¾ÑħÐ¾Ð´ Ð¾Ð²
ĠÐ¾ÑĤÑĢÑı Ð´Ñĭ
ÐĿÐ°ÑĢÐ¾Ð´ Ð½ÑĭÐ¹
ĠÐĳÑĢÐ¸ÑĤÐ°Ð½ ÑģÐºÐ¾Ð¹
ÐľÐ¸Ð½ Ð¸ÑģÑĤ
ĠÐºÐ¾Ð½ÑģÐµÑĢÐ² Ð°ÑĤÐ¸Ð²
ĠÐŀÑĢÐ³Ð°Ð½ Ð¸Ð·Ð°ÑĨÐ¸Ð¸
ĠÐĹÐµÐ² ÑģÐ°
ĠÐĽÑĥÐºÐ° ÑĪÐµÐ½ÐºÐ¾
c enter
f t
ĠÑģ ÑĢÐ°Ð¶ÐµÐ½Ð¸Ñı
ÑĨ ÐµÐ»
ĠÐ´ Ð·
ĠÑĤ ÐµÑĤ
Ð½Ð¾ ÑģÑıÑĤ
Ð»Ð° Ð·
Ġ( -
Ġ1 29
Ð°Ð² ÑĪÐ¸ÑģÑĮ
Ð¸Ñħ Ð¾Ð¾ÐºÐµ
ĠÑĦ ÐµÑĢ
ĠÐ» Ñĥ
ĠÐĴ ÐĺÐ§
ÑĢÐ°Ð½ Ð¾Ð²
ÑģÐ¿ ÐµÑĪ
ĠÐŁ Ð»Ð¾ÑĤ
Ðļ ÑĥÐ±
ĠÐ¿Ð¾Ð» ÑĥÐ¿
ĠÐ¶ Ð¸Ð»Ð¸
Ð½Ð¾Ð² Ð¾Ð¹
ĠÑĢ Ð¾Ð·
Ð¸Ñĩ Ð½ÑĭÐ¼Ð¸
ĠÐ¾Ð¿ ÐµÑĢÐ°ÑĤ
ĠÐŃ ÐºÐ¸Ð¿Ð°Ð¶
ĠÐ½Ð°Ð¿ ÑĢÐ¾ÑĤÐ¸Ð²
ÑĮÑİ ÑĢÐ¸Ð½
ĠÐ²Ð¸Ð´ Ð¾Ð¼
Ġ6 2
ĠÐ·Ð°Ð½Ð¸Ð¼ Ð°Ð»
ÑıÑģ Ð»Ð°Ð²
Ð»ÐµÑĢ Ð¾Ð¼
ĠÐ°ÑģÑĤ ÑĢÐ¾Ð½
ĠÑģÑĭ Ð½Ð¾Ð¼
ĠÐ¼Ð°ÑĤÐµÑĢÐ¸ Ð°Ð»
ÐĲÐ² ÑĤ
ĠÐ¾Ð±ÑıÐ· Ð°ÑĤÐµÐ»ÑĮ
ĠÐ¶Ð¸Ð²Ð¾ÑĤ Ð½ÑĭÐµ
ĠÑĢÐµÐ»Ð¸Ð³Ð¸Ð¾Ð· Ð½ÑĭÐµ
ĠÐ·Ð½ Ð°Ð½Ð¸Ðµ
ĠÐ´Ð¾ÑģÑĤÐ¸Ð³ Ð»Ð°
ĠÐ¼Ð¾Ñī Ð½Ð¾ÑģÑĤÑĮÑİ
ĠÐŃÐ¹ Ð·ÐµÐ½
ĠÐ¿ÑĢÐµÐ´Ð¿Ð¾Ð»Ð¾Ð¶ Ð¸ÑĤÐµÐ»ÑĮÐ½Ð¾
ĠÐ¼Ð¾Ð»ÐµÐº ÑĥÐ»ÑıÑĢ
ĠÑĦÐ¸ÑĢ Ð¼Ñĭ
ÐĴÐµÐ»Ð¸Ðº Ð¾Ð±ÑĢÐ¸ÑĤ
ĠÐŁÐ»ÑĥÑĤÐ°ÑĢÑħ Ð°
ĠÐºÐ»Ð°Ð² Ð¸ÑĪ
ĠÐŃÑĢÐ½ ÑģÑĤ
ĠÐļÑĳÐ½Ð¸Ð³Ñģ Ð±ÐµÑĢÐ³
ilos oph
ÑĤ ÐµÑĢÐ°
Ð¼ ÐµÑĤÐ°
Ð´ Ð¸ÑĤ
ĠÐ² Ð¾ÑģÑģ
ĠÐ² Ð¾ÑĢÐ¾ÑĤ
ĠÐº Ð¾Ñģ
Ð¸Ð½ ÑģÐºÐ¸Ð¼
Ð¡ Ð°
Ð°Ð² ÑĪÐ¸Ð¼Ð¸
ÐĴ ÐµÐ´
ĠÐ¿ÑĢÐ¸ ÑģÐ¿Ð¾ÑģÐ¾Ð±
ĠÐĽ Ð¾Ñģ
ÑĥÐ± Ð¸Ð¹
Ð¸Ð½Ð° Ð»Ðµ
ĠÑģÐ¾Ð²ÐµÑĤ ÑģÐºÐ¾Ðµ
ĠÐ¾Ð±ÑĢÐ°Ð· Ð°
ĠÑģÐ¾Ð·Ð´ Ð°Ð»Ð¸
it ion
ĠÑħÑĥÐ´Ð¾Ð¶ Ð½Ð¸ÑĨÐ°
Ð´ÐµÐ½ Ð±ÑĥÑĢÐ³
ĠÑģÐ¾Ð» Ñĳ
ĠÐ±Ð¸ Ð°ÑĤÐ»Ð¾Ð½
ĠW orld
ÑĢÐµÐ³ ÑĥÐ»Ð¸ÑĢÐ¾Ð²
ĠÐļÑĥÐ± Ñĭ
ĠÐ³Ð¸Ð´ ÑĢÐ¾Ðº
ĠÑĢÐ°Ð·Ð± Ð¸Ð»ÑģÑı
ĠÐºÐ°ÑĤÐ¾Ð» Ð¸ÑĩÐµÑģÐºÐ¸Ð¹
ĠÐ²Ð¾Ð·Ð´ÑĥÑĪ Ð½ÑĭÑħ
ĠÐ²ÐµÑĢÑħ Ð½ÐµÐ¹
ĠÐ½ÐµÑĦÑĤ Ñı
Ð¡Ð¾Ð²ÑĢÐµÐ¼ÐµÐ½ Ð½ÑĭÐµ
ĠÐ´ÐµÑıÑĤ ÐµÐ»ÐµÐ¹
ĠÐļÐ¾Ð»ÑĥÐ¼Ð± Ð¸Ð¸
ÐŁÑĢÐ¾Ð¸Ñģ ÑħÐ¾Ð¶Ð´ÐµÐ½Ð¸Ðµ
D e
H P
d e
ÑĤ ÑĥÑĢÐµ
Ð´ Ð½ÐµÐ²
ÑĢÐ° Ð·Ñĭ
Ð¾Ð· Ð°Ð²
ĠÑĦ Ð°Ñģ
ĠÐ» Ð°
Ð°Ð´ Ð¾ÑĢ
ÑĢÐµÐ¼ ÐµÐ½Ð¸
Ð¾Ñĩ Ð½Ð¸Ðº
ĠÐ¤ Ñĥ
Ð¸ÑĨ ÑĪÐµ
ÑĢÐ¾Ð´ ÑİÑģÐµÑĢ
ĠÐ½ÐµÐ¼ ÑĨÐµÐ²
ĠÐĲÑĢ Ñħ
Ð¾Ñī Ð¸
âĢ¦ Â»
ĠÑĢÐ°Ð·ÑĢÐ°Ð±Ð¾ÑĤ ÐºÐµ
ĠÐ¿ÑĢÐ¸Ð·Ð½ Ð°Ð½
188 0
ĠÐ¾ÐºÐ°Ð· Ð°Ð»Ð¾ÑģÑĮ
ĠÐ²Ð²ÐµÐ´ ÐµÐ½Ð¸Ðµ
ĠÐ¼Ð°ÑĪ Ð¸Ð½Ð°
ĠÑģÐ¸Ð¼Ð²Ð¾Ð» Ð¾Ð¼
ĠÐ½Ð°Ð·ÑĭÐ²Ð°ÐµÐ¼ Ð°Ñı
ĠÐĺÐ½ Ð³
ĠÐ·Ð°Ð³ Ð¾Ð»Ð¾Ð²
ÐŁÐ¾Ð» ÑĥÑĩ
ĠÐµÑģÑĤÐµ ÑģÑĤÐ²ÐµÐ½Ð½ÑĭÑħ
ĠÐĲÐ¼ ÑģÑĤÐµÑĢÐ´Ð°Ð¼
ĠÐ½Ð°ÑģÑĤÑĥÐ¿ Ð»ÐµÐ½Ð¸Ñı
ĠÐ½Ð°Ð»Ð¸Ñĩ Ð¸Ð¸
Îµ Î¹
Ð²ÐµÑī ÐµÐ½Ð¸Ñı
ĠÐ°Ð³ Ð»Ð¾Ð¼
ĠÐ¼Ð°Ð³Ð¸ÑģÑĤ ÑĢÐ°Ð»ÑĮ
ĠÐ»Ð¸ÐºÐ²Ð¸Ð´ Ð°ÑĨÐ¸Ð¸
ĠÐļÐ¾Ð¼Ð¼ÑĥÐ½Ð¸ÑģÑĤ Ð¸ÑĩÐµÑģÐºÐ¾Ð¹
n a
Ð°Ð½ Ð¸Ð¼
Ð¾ÑĢ Ð¼Ð°
ÑĨ ÐµÑĢ
Ð¾Ð³ ÑĢÐ°Ð½Ð¸Ñĩ
ÑĩÐµ Ðµ
Ð¡ Ð¸Ð½
ĠÐ¾ÑĤ ÑĢÐ°Ð²
ĠÑģÑĤ Ð°Ð½Ð´
ĠÐ¢ ÑĥÐ»
ÐĶ Ð¸Ð½Ð°Ð¼
ĠÐ¿ÑĢÐµ Ð¼Ð¸Ñİ
ĠÐ´ÑĢÑĥÐ³ ÑĥÑİ
ĠÐ½Ð°Ð¿ Ð¾Ð¼Ð¸Ð½Ð°
ĠÐ¿Ð¾ÑģÐ»ÐµÐ´ ÑĥÑİÑīÐ¸Ðµ
ĠÑģÐ»Ð¾Ð² Ð¾Ð¼
Ð¸ÑģÐº Ð¾
ĠÑįÐºÑģÐ¿ Ð¾Ð½
ĠÐĲÐ² ÑĢÐµ
ĠÐ½ÐµÐºÐ¾ÑĤÐ¾ÑĢ ÑĭÐ¼Ð¸
Ð¿Ð¾Ð´ Ð¾Ð±
ĠÐ°Ð» ÑħÐ¸Ð¼
ĠÐ³ÑĢÐ°Ð½ Ð¸ÑĨÐµÐ¹
ĠÐ½ÐµÐ´ ÐµÐ»Ñİ
ĠÐ¸ÑģÐ¿Ð¾Ð»ÑĮÐ·Ð¾Ð² Ð°Ð»Ð°ÑģÑĮ
ÐŀÑĤ ÐµÑĨ
ĠÐ¾Ð¿Ð¸Ñģ Ð°Ð»
ĠÐºÑĢÐ¸ÑĤ Ð¸ÐºÐ¸
ĠÐ¾Ð¿ÐµÑĢÐ° ÑĨÐ¸Ñİ
ĠÐ²Ð¾Ð» ÐµÐ¹
Ġ187 1
Ġ187 2
ĠÑĤÐ¾ÑĢÐ³Ð¾Ð² ÑĭÐµ
ĠÑģÐ¾ÑĤ Ð²Ð¾ÑĢ
ĠÑģÐ¸Ð¼Ð²Ð¾Ð» Ð¸Ð·
ĠÐ¼ÑĭÑģ Ð»Ð¸ÑĤ
ĠÑĨÐµÐ½ÑĤÑĢÐ°Ð»ÑĮ Ð½ÑĭÑħ
âĢľ ,
ÑİÑīÐµÐ¹ ÑģÑı
ĠÐ²Ð¾Ð·Ð´ÑĥÑħ Ðµ
ĠÑģÐ¿ÑĥÑĤ Ð½Ð¸ÐºÐ°
ĠÐ·Ð°Ð»Ð¸ Ð²Ðµ
ĠÐ»ÑĮ Ð´Ð°
ĠÐ½Ð°ÑģÑĩÐ¸ÑĤ ÑĭÐ²Ð°Ð»Ð¾ÑģÑĮ
ĠÐ¾ÑĤÐ´ÐµÐ» ÐµÐ½Ð¸Ðµ
ĠÐ¿Ð¸ÑģÑĮÐ¼ÐµÐ½ Ð½Ð¾ÑģÑĤÐ¸
ĠÐ¾ÑģÐ¾Ð±ÐµÐ½ Ð½Ð¾ÑģÑĤÐµÐ¹
ĠÐľÐµÐºÑģ Ð¸ÐºÐ¸
ĠÐĿÐµ Ð°Ð¿
ĠÐ±ÑĭÑĤ Ð¸Ñı
ĠÐ°ÑģÑģÐ¾ÑĨÐ¸ Ð°ÑĨÐ¸Ð¸
ĠÐĽÐµÐ¹Ð± Ð½Ð¸ÑĨ
ÐĲÐ´Ð¼Ð¸Ð½Ð¸ÑģÑĤÑĢÐ°ÑĤÐ¸Ð² Ð½Ð¾Ðµ
ĠÐ¿Ð¾Ñı ÑģÐ°
ÐŁÑĢÐ¸Ð½ ÑĨÐ¸Ð¿
ĠÐ¿ÑĢÐ¾Ð¿Ð¾ÑĢ ÑĨÐ¸Ð¾Ð½Ð°Ð»ÑĮ
ĠÐ¿ÑĢÐµÐ´Ð²Ð¾Ð´ Ð¸ÑĤÐµÐ»ÑĮ
s ch
Ðº Ð¾ÑģÐ¼
Ð± ÑĥÑĢ
ÑĢÐµ ÐºÐ¸
Ð¸Ð¹ ÑĨÐµÐ²
Ð»Ð° Ñı
Ð»Ð° ÑĩÐ¸Ð²
ĠÐ± Ð°ÐºÑĤ
Ð°ÑĢ Ð½Ð¾
Ð¸Ðº ÑģÐ°
Ð°Ð² Ð»Ð¾Ð²
ĠÐ¿ÑĢÐ¸ Ð»ÐµÐ³Ð°
ĠÐĴ Ð°Ð³
ÑĢÐ°Ð½ Ð¸Ðµ
ĠÐŁ Ð°Ñģ
ĠÐĽ Ð¾ÑĤ
Ð½Ðµ ÑģÐ°
ÐµÐ»Ð¸ Ð»Ð¸
Ð¢ ÑĢÑĥÐ´
ĠÐ´Ðµ ÑĦÐ¸ÑĨ
Ġ18 50
Ðĳ ÑĢÐ°ÑĤ
ĠÐ¼Ðµ ÑĪ
ĠÐ´ÑĢÑĥÐ³ Ñĥ
Ð²Ð¾Ð´ Ð°
ĠÐ¿Ð¾Ð»ÑĥÑĩ Ð¸Ð²ÑĪÐ¸Ð¹
ĠÑİ Ð±Ð¸
ĠÐ¿ÑĢÐ¾Ð¸Ð·Ð²Ð¾Ð´ Ð¸ÑĤÑģÑı
ĠÑģÐ¾Ð²ÑĢÐµÐ¼ÐµÐ½ Ð½ÑĭÐ¹
ĠÐ¼ÐµÑģÑĤÐ¾ Ð¸Ð¼
ĠÐ¾Ð±ÑĬÑıÐ² Ð¸Ð»Ð¸
ĠÐ¿ÑĢÐ¸Ð² ÑıÐ·
ĠÐ²Ð°Ð¶ Ð½ÐµÐ¹ÑĪÐ¸Ñħ
Ġ186 9
Ð¿ÑĢ Ð¾Ð³ÑĢÐ°Ð¼
ĠÐ¿Ð¾ÐºÐ°Ð· Ð°Ð»Ð¸
ĠÐ¦ÐµÐ½ÑĤ ÑĢ
ĠÐ¸Ð½Ð¾ÑģÑĤ ÑĢÐ°Ð½ÑĨ
ĠÑģÑĥ ÑĦÑĦ
ĠÐ¿Ð¾Ð´Ð¾Ð± Ð½ÑĭÐµ
Ð¾ÑĤÐµ Ð·Ñĭ
ĠÐ¼Ð°Ñģ ÑĪ
ĠÐ´ÐµÐ¼Ð¾ÐºÑĢÐ°ÑĤ Ð¸Ð¸
Ð½ÐµÐ²ÐµÐº Ð¾Ð²
ĠÐµÐ²ÑĢÐµÐ¹ ÑģÐºÐ¾Ð³Ð¾
ÐŁÐ¾ÑģÐ»ÐµÐ´ Ð½Ð¸Ð¹
ÐĴÐ¾Ð· Ð½Ð¸Ðº
Ð¤Ð¸Ð· Ð¸ÐºÐ°
ĠÐ¿Ð¾ÑģÐµÑĤ Ð¸Ð»
ĠÐ¿Ð¾ÐºÑĢÐ¾Ð² Ð¸ÑĤÐµÐ»ÑĮ
ĠÐ°Ð»Ð³ ÐµÐ±
ĠÑĢÐµÐºÐ¾Ð¼ ÐµÐ½Ð´Ð°
ĠÑĤÑĭÑģÑıÑĩÐµ Ð»ÐµÑĤÐ¸Ñı
ĠÐ°Ð»ÑİÐ¼Ð¸Ð½ Ð¸Ñı
ĠÑĤÑĢÐ°Ð³ ÐµÐ´
ĠÐĵÑĢÐ¸Ð³ Ð¾ÑĢÐ¸Ñı
t e
Ä ±
Ġ Ïĥ
Ð³ ÑĢÐ°Ð½Ð¸Ñĩ
Ð¡ ÐµÐ¹ÑĩÐ°Ñģ
Ð¸Ð² Ð°ÑĤÑĮÑģÑı
ĠÐ½Ðµ ÑĢÐ°Ð·
ĠÐĽ Ð¸Ñħ
Ðľ Ð°ÑĢÐ¸Ñı
Ðĵ ÑĢÐ°Ð½
ĠÑģÐ¾Ð± ÑģÑĤÐ²ÐµÐ½Ð½Ð¾Ð³Ð¾
ĠÑģÑĢÐµÐ´ Ð½Ð¸Ð¹
ĠÑĤÐµÐ¾ÑĢ Ð¸Ð¹
ĠÐ¾Ð³ Ð¾Ð½ÑĮ
ĠÐ·Ð² ÐµÐ·Ð´Ð°
ĠÑģÐ¾Ð¾ÑĤÐ²ÐµÑĤÑģÑĤÐ² ÑĥÑİÑīÐ¸Ðµ
ĠÐ¿Ð¾ÑģÑĤÑĢÐ¾ ÐµÐ½Ð¾
ĠÑģÐ²Ð¾Ð±Ð¾Ð´ Ð½Ð¾
ĠÐºÐ°Ð¶Ð´ Ð°Ñı
ĠÐ»ÐµÑģ Ð¾Ð²
186 4
ĠÐ¿ÑĢÐ¾Ð³ÑĢÐ°Ð¼Ð¼ Ð½Ð¾Ð³Ð¾
ĠÐ¾Ð¿ÑĥÐ±Ð»Ð¸ÐºÐ¾Ð² Ð°Ð½
ĠÑĦÐ°Ðº ÑĤÐ¾ÑĢÐ¾Ð²
ĠÐ¿Ð¾Ð½Ð¸Ð¼ Ð°Ð½Ð¸Ðµ
Ð¾Ð·Ð½ Ð°Ð²
ĠÐ¿ÑĢÐ¾Ð¸ÑģÑħÐ¾Ð´ ÑıÑĤ
ĠÐ¼Ð¾Ð½Ð°ÑĢÑħ Ð¸Ð¸
ĠÐ²ÑĭÐ½ÑĥÐ¶Ð´ ÐµÐ½Ñĭ
ĠÑĢÐµÑĦÐµÑĢÐµÐ½Ð´ ÑĥÐ¼Ð°
ĠÐ·Ð½Ð°Ð¼ÐµÐ½Ð¸ÑĤ ÑĭÐ¹
ĠÐ½Ð°Ð³ ÑĢÑĥÐ·
ÐĴÐ¾ÑģÑĤÐ¾Ñĩ Ð½Ð¾Ð¹
ĠÑĢÐ°Ð±Ð¾ ÑĩÐµÐ³Ð¾
ĠÐ¼Ð½Ð¾Ð³Ð¾ÐºÑĢÐ°ÑĤ Ð½ÑĭÐ¹
ĠÑģÐ»ÐµÐ´Ð¾Ð²Ð°ÑĤÐµÐ»ÑĮ Ð½Ð¾
ĠÐ² Ð°ÑĢÑĮ
Ñĩ Ð¾
ĠÐ½Ð° ÐºÐ¾Ð½ÐµÑĨ
ĠÑĤ Ð¾Ð¶Ð´Ðµ
Ġ1 15
Ð»Ðµ Ð²Ð°
Ð»Ñı Ð»Ð¸ÑģÑĮ
Ð¾Ð»ÑĮ Ð½ÑĭÐ¹
Ð¾Ð¶ Ð¸Ð´
ĠÐ» Ð¸ÑĦ
ĠÐ²Ñĭ Ð¶
ĠÐĳ ÐµÐ·
ĠÐ¿Ð¾Ð» Ð¸ÑĨÐµÐ¹
ĠÑĢÐ°Ð· ÑĥÐ¼Ð°
ĠÐĺ Ð±
ĠÐ¿Ð¾Ð´ Ð¿Ð¾Ð»ÑĮ
Ðĵ ÑĢÑĥÐ·
ÑĥÐº Ð¾ÑĤ
ĠÐ²Ð¾Ñģ ÐµÐ¼ÑĮ
Ġ7 2
ĠÐ²Ð¾ÐµÐ½ Ð½Ð°Ñı
ĠÐ¿Ð¾Ð· Ð¸ÑĨÐ¸Ñİ
ĠÑģÐµÐ²ÐµÑĢ Ñĥ
ÑĢÐ°Ð·Ð´ ÐµÐ»ÐµÐ½Ð¸Ñı
Ðĸ Ð¸Ð·Ð½ÑĮ
ĠÐ¼Ð¸ÑĢÐ¾Ð² Ð¾Ð·Ð·
ĠÐ·Ð°Ð¿Ð°Ð´ Ð½Ð¾
ĠÐ·Ð°ÐºÐ»ÑİÑĩ Ð¸Ð»Ð¸
ĠÐ¾Ð±ÑĭÑĩ Ð½ÑĭÑħ
ĠÐĹÐ°Ð¿Ð°Ð´ Ð½Ð¾
ĠÐ°ÑĤÐ¾Ð¼ Ð½Ð¾Ð¹
ÑĪÑĥÑİ ÑģÑı
ĠÐ´Ð¾Ð±Ñĭ ÑĩÐ¸
ÐŁÐ¾ÑĩÑĳÑĤ Ð½ÑĭÐ¹
ĠÐ¿ÑĢÐ¸Ð´ Ð²Ð¾ÑĢ
ĠÐļÐ¸Ðµ Ð²Ð°
ĠÐ¯Ðº Ð¾Ð±
ĠÐ¿ÑĢÐ¾Ð¶Ð¸Ð² Ð°Ð»Ð¾
ĠÐ¸Ð¼Ð¿ÐµÑĢ Ð¸ÐµÐ¹
ĠÐ¯ÐºÐ¾Ð² Ð»ÐµÐ²
Ð¾Ð½Ñĩ Ð¸Ð»
ĠÑĥÑĢÐ¾Ð¶ Ð°Ð¹
ĠÐ¿ÑĢÐµÐ¾Ð±Ð»Ð°Ð´Ð° ÑİÑĤ
ĠÐ¿Ð»Ð¾ÑģÐº Ð¾ÑģÑĤÐ¸
ĠÑįÑĦ Ð¸ÑĢ
Ð¾ ÑĢÐ°ÑĤÐ¸Ð²
Ð½ ÐµÐºÑģ
Ñģ Ð¸ÑģÑĤÐµÐ¼
Ð»Ð° Ð»
ĠÐ¡ Ð¼Ð¸ÑĤ
ÐĴ Ð¡
Ð¸Ñģ Ð¾Ð¼
ĠÐļ Ð¸ÑĪÐ¸Ð½
ĠÐľ ÑĥÐ·ÐµÐ¹
ĠÑĢÐµ ÑģÑĤÐ°Ð²
ĠÐĽ Ð¾Ð¼Ð¾Ð½Ð¾ÑģÐ¾Ð²
ÑĢÐ¾ ÑĢÐ°
ĠÑĨ ÐµÐ½Ð·
ĠÐ²Ð¾ Ð¸Ð½ÑģÐºÐ¾Ð¹
ĠÐ¸Ð½ Ð´Ð¾
ĠÐ°ÐºÑĤ Ñĥ
Ġ5 9
ĠÐ¿Ð» Ð°Ð½Ð°
Ġ6 8
ĠÑĥÑģÑĤ ÑĢÐ°
ĠÐ¼Ð¾ÑĢ ÑģÐºÐ¾Ð³Ð¾
ĠÐĲÑĢ ÑħÐ°Ð½Ð³ÐµÐ»ÑĮ
ĠÑĦÐ¾ÑĢÐ¼ Ð¾Ð¹
is p
ĠÑģÑĤÑĢÐ¾ ÐµÐ½Ð¸Ñı
ĠÑĥÐ³ Ð»Ñı
ĠÑģÐ»ÑĥÐ¶ Ð±Ðµ
ĠÐ´Ð¾Ð± ÑĢÐ¾Ð´
ĠÐºÑĢÐ¸ÑĤ Ð¸ÐºÐµ
ĠÐĽÑĥ ÑĨÐ¸Ð¹
ĠÐ¿ÑĢÐ¸Ð½Ñı Ð»Ð¾
ĠÑģÐ¸Ð»ÑĮ Ð½Ð¾Ðµ
ĠÑİÐ¶ Ð½Ð¾Ðº
ĠÐ¸ÑģÐ¿Ð¾Ð»Ð½ ÐµÐ½Ð¸Ñı
ĠÐ·Ð½Ð°Ðº Ð¸
ĠÑģÐ±Ð¾ÑĢ Ð½Ð¸Ðº
ĠÐ¿Ð¾Ð²ÐµÑĢÑħ Ð½Ð¾ÑģÑĤ
ĠÐ¿ÑĢÐ¸ÑħÐ¾Ð´ Ð¸Ð»Ð¾ÑģÑĮ
ĠÑĤÑĢÐµÑĤÑĮ ÐµÐ³Ð¾
ĠÐ²Ð»Ð°ÑģÑĤ ÑıÐ¼Ð¸
ĠÐºÐ¾Ð¼Ð¸ÑģÑģ Ð¸Ñı
ĠÑĢÐ°Ð·Ð¼ ÐµÑĢÐ°
Ð¸Ð³ÑĢÐ° ÑĦ
ĠÑĥÑĩÐµÐ½Ð¸ ÐºÐ¾Ð²
ĠÐ¼Ð»Ð°Ð´ ÑĪÐ¸Ð¹
ĠÐ¿ÑĢÐµÐ´ÑĪÐµ ÑģÑĤÐ²ÐµÐ½
ĠÐŀÐºÑĤÐ°Ð² Ð¸Ð°Ð½
lin es
ĠÐĲÐ»Ð± Ð°Ð½Ð¸Ð¸
ÐłÐµÑģÐ¿ÑĥÐ±Ð»Ð¸ ÐºÐ°
ÐĴÐµÐ»Ð¸ÐºÐ¾Ð±ÑĢÐ¸ÑĤ Ð°Ð½Ð¸Ñı
w w
Ðµ ÐµÐ¼
Ð» Ð¾Ð½Ð°
Ð± Ð°ÑĤÐ¸
Ð¾Ñģ ÐµÐºÑģÑĥ
ĠÑĥ Ð´ÐµÐ»Ñı
ĠÐ¡ Ðĺ
ÐĴ ÑĢÐµÐ¼Ñı
ÐµÐ² ÐµÐ´
ĠÐľ ÑģÑĤ
Ð¾Ð¿ ÑĢÐ°Ð²
ĠÐŁ ÑĢÐ¾
ĠÐ¿Ð¾Ð» Ð¾ÑģÑĭ
Ðŀ ÑģÐº
ÐĲ ÑĢÐ¸ÑģÑĤ
ÑĢÑı Ð½
ĠÐ¿ÑĢÐ¾ Ñħ
ĠÐºÐ°Ðº Ð¾Ð³Ð¾
ĠÐŀ ÑĢÐ´
ÐµÑģ Ð»Ð°Ð²
Ð°Ð½Ð¾Ð² Ð¸Ñĩ
ÐŁÑĢÐ¸ Ð¼ÐµÐ½ÐµÐ½Ð¸Ðµ
Ð½Ñĥ Ð»Ð¸
ÐµÐ½Ð´ ÐµÑĢ
ĠĠ Ġ
ĠÑĢÐ°Ð·Ð»Ð¸Ñĩ Ð½ÑĭÐ¼
ĠÐ²Ð¾Ð·Ð¼Ð¾Ð¶ Ð½ÑĭÑħ
ĠÑģÐ¾ÑĤ Ð½Ð¸
ĠÑģÐ¾ÑİÐ· Ðµ
ĠÐ¿ÑĢÐ¾ÑģÑĤ ÑĭÐµ
ĠÐĲÑĢÐ¼ ÐµÐ½Ð¸Ñı
ĠÐ¼Ð¾Ð»Ð¾Ð´ ÑĳÐ¶
ĠÐ·Ð°Ð´Ð°Ñĩ Ð°
ĠÐ¿ÑĢÐ¾Ð³ Ð½Ð¾Ð·
á½ °
ĠÐ¾ÑĪÐ¸Ð± Ð¾Ðº
ÐĴÑģ ÐµÐ¼Ð¸ÑĢ
ĠÐ²Ð·Ð³Ð»Ñı Ð´Ð¾Ð²
ĠÐ¿ÑĢÐ¾ÑĢ Ð¾ÐºÐ°
ÐłÐ°ÑģÐ¿ ÑĢÐ¾ÑģÑĤÑĢÐ°Ð½
ĠÑģÐµÐ· Ð¾Ð½Ð°
ĠÐ¤ÑĢÐµÐ´ ÐµÑĢÐ¸Ðº
ĠÐ²ÑĭÐ¿Ð°Ð´ Ð°ÐµÑĤ
ÐŁÐ¾Ñħ Ð¾ÑĢÐ¾Ð½
Î ¸
Ñģ Ð°Ð½
ĠÐ² Ð¸Ðº
ĠÐ² ÐµÐºÑĤ
ĠÐ² ÑĢÐ°ÑĤÐ°ÑĢÑĮ
Ð¿ ÑĢÐ¾Ð¸Ð·Ð²Ð¾Ð´
ĠÐº ÑĥÑħ
ĠÐ½Ð° Ð²Ð¸Ð³Ð°
ĠÑĤ ÐµÐ¼Ð°ÑĤ
ÑĦ Ð°Ðº
Ð°ÑĢ Ñİ
ÐµÐ»ÑĮ Ð½Ð¾Ð¹
ĠÐ¾ÑĤ Ð´ÐµÐ»Ð°
ÐŁ Ð¡
ĠÐļ ÑģÐµÐ½Ð¾ÑĦ
ĠÐ» ÑĥÐ½
ĠÐ» ÐµÑĤÐ°
ĠÐ²Ñĭ Ð·ÑĭÐ²Ð°
Ðł Ð°Ð¹
ĠÐĶ ÑĥÐ½Ð°
ÑĥÐ½ Ð´Ð°
ĠÐ²ÑĢÐµÐ¼ ÐµÐ½Ð½Ð¾
ĠÐ´ÑĢÑĥÐ³ Ð°Ñı
ĠÐ°Ð½ Ð¸Ð¼Ðµ
ÑĨÐ¸Ð°Ð»ÑĮ Ð½Ð°Ñı
ĠÐ¿Ð¾Ð² ÐµÑģÑĤÐ¸
ĠÐ¼Ð¾ÑĢ ÑģÐºÐ¸Ðµ
ĠÐ´ÐµÑıÑĤÐµÐ»ÑĮ Ð½Ð¾ÑģÑĤÑĮÑİ
Ð¢Ð°Ðº Ð°Ñı
ÐµÐ½Ð´ Ð¶
ĠÐºÐ¾ÑģÐ¼ Ð¾ÑģÐµ
ĠÐ²Ð· Ð»ÑĳÑĤ
ĠÐ¿Ð¾Ñĩ Ð²
ĠB l
ĠÑĩÐ»ÐµÐ½ Ð°
ĠÐ¼Ð¾Ð´ ÐµÐ»ÐµÐ¹
ĠÑĥÑģÑĤÐ°Ð½Ð¾Ð² Ð¸ÑĤÑĮ
ĠÐºÐ¾Ð»Ð¸ÑĩÐµ ÑģÑĤÐ²Ðµ
Ð´ÐµÐ½ Ñģ
ĠÐ¼Ð°ÑĤÐµÐ¼Ð°ÑĤ Ð¸ÑĩÐµÑģÐºÐ¸Ñħ
ĠÐĵÐµÑĢ Ð¾Ñı
ĠÐ²ÑĭÐ± Ð¾ÑĢÐ°
ĠÑĪÐ¸ÑĢÐ¾Ðº Ð¾Ð¼
ÐºÐ¾ÑĢ ÑĢÐµ
ĠÑĢÑĭ Ð±Ð¾Ð»Ð¾Ð²
ĠÐ¿ÑĢÐ¾Ð²ÐµÐ´ ÐµÐ½Ñĭ
ĠÑĥÐ½Ð¸Ð²ÐµÑĢÑģÐ¸ÑĤÐµÑĤ Ð¾Ð²
ĠÑĤÐ²Ð¾ÑĢÑĩÐµ ÑģÑĤÐ²Ðµ
ĠÐ¼ÐµÐ» Ð¾Ð´
ĠÑħÐ¾Ðº ÐºÐµÐ¹
ĠÑģÑĤÐ¾ Ð¸Ð¼Ð¾ÑģÑĤÑĮ
ĠÐ±Ñİ ÑĢÐ¾
ĠÐ¾ÑĪÐ¸Ð± ÐºÐ¸
ĠÑĥÑĩÐ°ÑģÑĤÐ²Ð¾Ð² Ð°Ð»Ð¸
ĠÐĿÐ¸Ð´ÐµÑĢÐ»Ð°Ð½Ð´ Ñĭ
ÑįÐº ÑģÐ¿
Ð§Ð¸Ñģ Ð»Ð¾
ÑĥÑįÑĢ ÑĤÐ¾
ĠÐ¿Ð¾ÐºÐ¸Ð½ ÑĥÐ»
ĠÑĥÐ»ÑĮ ÑĤÑĢÐ°
ĠÐ½ÐµÐ¿Ð¾Ð´ Ð²Ð¸Ð¶
ĠÑģÐ²ÐµÑĢÐ³ Ð½ÑĥÑĤ
ĠÐĳÐµÐ»Ð° ÑĢÑĥ
ĠÐ²Ð´Ð¾Ñħ Ð½Ð¾Ð²
Ð» ÐµÑĢÐ¾Ð²
Ñĥ Ð·Ð°
Ð² Ð¸Ð»Ð¸
Ð² ÑĢÐ°ÑĤ
ĠÐº ÑĢÑĥÐ¶
ĠÐ± Ð»Ð¸Ð¶Ðµ
Ġ1 26
ÐĴ Ð¾Ð¿ÑĢÐ¾Ñģ
ÐŁ ÑĢÐ¾ÐµÐºÑĤ
Ð¾Ð¿ ÑĢÐ¾ÐµÐºÑĤ
ÑĢÐ¾Ð² ÐµÐ½ÑĮ
ĠÐ±Ñĭ ÑĤÐ¾Ð²
ÑĥÐ´ Ð¸Ñı
ĠÐ·Ð° Ð¶
ÐµÐº Ð¾Ð²
Ð¶Ðµ Ð³Ð¾ÑĢÐ¾Ð´
ĠÑĢÐ°Ð· Ð½ÑĭÐ¼Ð¸
ĠÐĶ ÑĥÐ±
Ð½Ð¸ Ð³Ð¾Ð²
ĠÐĽ Ð¸Ð´
ÑĳÐ½ Ð½Ð¾ÑģÑĤÑĮÑİ
Ð¢ ÑĢÐ¾
Ð°Ñģ Ð°Ð½
ĠÐ§ Ð°Ð½
ĠÑģÑĢÐµÐ´ Ð½Ð¸Ðµ
ĠÑĥÐ¿ Ð¾ÑĢÑıÐ´Ð¾Ñĩ
ĠÐ²ÑĭÑģ Ð¾ÑĤÐ°
ĠÐ¼Ð½Ð¾Ð³ Ð¸Ð¼Ð¸
ĠÐ·Ð°ÐºÐ¾Ð½ Ñĥ
ÑģÑĤÑĢÐ° ÑħÐ°Ð½
ĠÐ´Ð¾Ðº ÑĤÑĢÐ¸
ĠÑģÐ¿Ð¾ÑģÐ¾Ð± Ð½Ñĭ
ĠÐºÐ°Ð· Ð½Ð¸
ĠÑģÐ¾Ð» Ð´
ĠÐ²ÐµÐ´ ÑĳÑĤÑģÑı
188 6
ĠÐ¿ÑĢÐ¾ÑĦÐµÑģÑģ Ð¾ÑĢÐ°
ĠÑıÐ´ ÑĢÐ¾
ĠÐĽÐµÐ½Ð¸Ð½ Ð³ÑĢÐ°Ð´Ðµ
ĠÐ¡ÑĢÐµÐ´ Ð½ÐµÐ¹
ĠÑĢÐµÐ°Ðº ÑĨÐ¸Ñı
ÐķÐ² ÑĢÐ¾Ð¿ÐµÐ¹
ĠÐ²Ð¸Ð· Ñĥ
Ð¦ÐµÐ½ÑĤ ÑĢÐ°Ð»ÑĮ
ĠÐ¾Ð±ÑģÐ»ÑĥÐ¶ Ð¸Ð²Ð°Ð½Ð¸Ñı
ĠAir lines
Ð³ÑĢÐ°Ð½ ÑĤÐ¾Ð²
ĠÐŃÑĦÐ¸Ð¾Ð¿ Ð¸Ð¸
ÑĢÐ°ÑģÑģÑĤÑĢÐµ Ð»ÑıÐ½
o x
Ð½ Ð¾Ð»Ñĭ
Ðº Ð°Ð½Ð°
Ð¾Ð² Ð°Ð»Ð¾ÑģÑĮ
Ð¾Ð» ÐµÐ¹
Ð¾Ð³ Ð°ÑĤ
ĠÑĤ ÑĢÐ¾Ð¹
ĠÐ± Ð¸ÑĢ
Ð¾Ð± Ð¸Ð»Ð¸
Ð°Ð² ÑĪÐµÐ³Ð¾ÑģÑı
Ð¸Ñģ Ð»Ð¾Ð²
ĠÐ¾Ð± ÑħÐ¾Ð´
ÐŁ Ðļ
ÐŁ ÑĢÐ¾Ð±Ð»ÐµÐ¼
ĠÐļ ÑĥÐ²
Ð¾Ðº Ð¾ÑĢ
Ð¾Ð· ÐµÐ»Ð°Ð½Ð´
ĠÐ¿ÑĢÐ¸ Ð²ÐµÑĢÐ¶ÐµÐ½
ĠÐĴ Ð¸ÑĪ
ĠÑģÐ² ÐµÑĢÐ¶
ĠÐĿ Ð¾ÑĢÐ¼
ĠÐĽ Ð¾Ð¼Ð¾Ð½Ð¾ÑģÐ¾Ð²Ð°
ĠÐĺ ÑģÐº
Ðĳ ÑĭÐ²
ÐµÑĨ ÐºÐ°Ñı
ĠÐ£ Ð»ÑĮÑı
ĠÑĢÐ°Ð·Ð² Ð¸Ð²Ð°ÐµÑĤÑģÑı
Ð°ÑĪ Ðº
ĠÑĤÐ¾Ð¼ Ð°Ñħ
ĠÐ¿Ð¾ÑģÐ»ÐµÐ´ Ð½Ð¸Ð¼
ĠÐ¾Ð±Ñī Ð¸Ðµ
ĠÐ²Ð· ÑıÑĤÑĮ
ÑĭÐ² Ð°Ð»Ð¸ÑģÑĮ
Ð¡ÑĤ Ð°Ð»Ð¸Ð½
ĠÐłÐ¾ÑģÑģÐ¸Ð¹ ÑģÐºÐ°Ñı
ÑģÑĤÐ²Ð¾Ð² Ð°Ð»Ð°
ĠÐ£ÐºÑĢÐ° Ð¸Ð½Ñĥ
ĠÐ¾ÑĦÐ¸ÑĨÐ¸Ð°Ð»ÑĮ Ð½ÑĭÐ¹
ĠÐ®Ð¶ Ð½Ð¾Ð¼
188 8
ĠÐ²ÑħÐ¾Ð´ Ð¸Ð»Ð¸
ĠÐ´ÐµÐ» Ð°ÑĤÑĮ
ĠÐ¿ÑĢÐ¸Ð½Ð¸Ð¼ Ð°Ð»
ĠÐŀÑĢ Ð´ÐµÐ½
ĠÐºÐ¾Ð½Ñģ ÑĥÐ»
ĠÐ°ÑĢÐ°Ð± ÑģÐºÐ¸Ñħ
ĠÑĤÐ¸ÑĤ Ð°Ð½Ð°
ĠÑĤÑĢÐµ ÑĤÐ¸
ĠÑģÐ¼Ð¾Ð³ Ð»Ð¸
ÐŁÐ°ÑĢ Ð»Ð°Ð¼ÐµÐ½ÑĤ
ĠÑģÐ¾Ð²Ð¾ÐºÑĥÐ¿ Ð½Ð¾ÑģÑĤÑĮ
ĠÐ´ÐµÐ¼Ð¾Ð½ÑģÑĤÑĢÐ° ÑĨÐ¸Ð¸
ĠÑĤÐ¸ ÑĢÐ°Ð¶
Ñģ Ð¸Ð½
ĠÐ² Ð°ÑģÑģ
ĠÐ¸ Ð±Ð¾
Ð¿ ÑĢÐ¾ÑĤ
ÐµÑĢ ÐºÑĥ
ĠÐ´ Ð°ÑĤÑĭ
ĠÑĤ ÑĥÑĤ
Ð¡ Ð²Ð¾Ð¹
ĠÐ¾ÑĤ ÑĩÐ°ÑģÑĤÐ¸
ĠÐļ Ð°Ð»ÑĮ
ĠÐļ ÑĥÐºÐ°
Ð¾Ðº Ð·
Ð¾Ðº Ð¸ÑģÐ»Ð¾ÑĤ
ĠÐ½Ðµ Ð¿Ð¾Ð»
Ð½Ð° ÑĥÑĩ
ĠÐľ ÐµÑģ
Ð¾Ð¿ ÐµÑĢÐ°ÑĤÐ¾ÑĢ
ĠÐĴ Ð¦
ĠÐ¢ ÑĢÐ°Ð½
ĠÐ¿ÑĢÐµÐ´ Ð¿Ð¸Ñģ
ĠÐ¸Ð½ ÑĦÐ¾ÑĢÐ¼Ð°ÑĤ
ĠÑĩÐ°ÑģÑĤ Ð½ÑĭÐµ
ÐµÐ½ÑĮ Ñı
ĠÐ¾ÑģÐ½Ð¾Ð² Ð°Ð½Ð½ÑĭÐ¹
ĠÐ£ Ð¸Ð»
ĠÐķÐ² ÑĢÐ¾Ñģ
ĠÐ¿Ð°ÑĢ ÐºÐ¾Ð²
Ð¸ÑĦ Ð¸Ðº
ĠÑįÐ»ÐµÐºÑĤ ÑĢÐ¾ÑģÑĤÐ°Ð½
it e
ĠÐ³Ð°Ð· ÐµÑĤÐµ
ĠÑħÐ°ÑĢÐ°ÐºÑĤÐµÑĢ Ð½Ð¾
ÐµÐ»Ð° Ñı
ĠÐ¿ÑĢÐ¸Ð½ÑıÑĤ Ñĭ
Ġ187 3
188 3
ĠÐĳÐµÐ» Ð¾Ð³Ð¾
ĠÐĴÑģ ÐµÑģÐ¾ÑİÐ·
ĠÐ¿Ð¾Ð¿ÑĭÑĤ ÐºÑĥ
ĠÐ¶ÑĥÑĢÐ½Ð°Ð»Ð¸ÑģÑĤ ÐºÐ°
ĠÐ¶ÐµÐ»ÐµÐ·Ð½Ð¾Ð´Ð¾ÑĢÐ¾Ð¶ Ð½ÑĭÑħ
ĠÐ´Ð²Ð¸Ð³ Ð°ÑĤÐµÐ»ÑĮ
ĠÐ²ÑĭÐ´ÐµÐ»Ñı ÑİÑĤÑģÑı
ĠÐłÑĭ Ð±Ð¸Ð½
ĠÐ¡ÐĿ Ðļ
ĠÐºÐ¾Ð¼Ð¿Ð¾Ð½ ÐµÐ½ÑĤÐ¾Ð²
ĠÐºÐ¾Ð½ÑĨÐµÐ½ÑĤ ÑĢÐ°ÑĨÐ¸Ð¸
ĠÑĢÐµÐ»ÑĮ ÐµÑĦ
ĠÐ»ÐµÐº Ð°ÑĢ
ĠÑĢÐ°ÑģÑģÑĤÑĢÐµ Ð»ÑıÐ½
ĠÐ¿Ð¾ÑĢÑĤÑĥÐ³Ð°Ð»ÑĮ ÑģÐºÐ¸Ð¹
ĠÑģÐ¾Ð¿ÑĢÐ¾ÑĤÐ¸Ð² Ð»ÐµÐ½Ð¸Ñı
Ð¾ÑģÑĤÐ¾Ñı Ð½Ð¸Ðµ
ĠÐ¾Ð±Ðµ Ð¸Ñħ
ĠÐ¡Ð¾Ð»Ð¾Ð² ÑĮÑĳÐ²
Ġ align
Ðº Ð¾Ð±
Ðº ÑĥÐ¼
ÑĮ Ñĳ
ĠÐ² ÑĥÐ·Ð¾Ð²
ĠÑģ Ð¾ÑģÑĥÐ´
ÐµÑĢ Ð¸Ð½Ð°
ĠÐº Ð»Ð¸Ð½
ĠÑĤ Ð°ÑĤ
Ð¾Ñģ ÑĦÐµÑĢÐ°
ĠÐ± Ð°Ð¹ÑĤ
Ð¡ ÐµÐ³Ð¾Ð´Ð½Ñı
ĠÐ¡ Ñĭ
Ð°Ð² ÑĤÐ¾ÑĢ
ĠÐŁ Ð°ÑĤ
ÐĲ Ðº
ÐĲ ÐºÐ°Ð´ÐµÐ¼
ĠÑĤÐµ Ð¾Ð»Ð¾Ð³
ĠÐ¤ Ð¸Ð»Ð¸
ĠÑĪ ÑĢÐ¸ÑĦ
ĠÑģÐ¾Ð± Ð¸ÑĢÐ°ÑĤ
ĠÑģÐ» Ð¾Ð¹
ĠÐ¸ÑģÑĤÐ¾ÑĢ Ð¸ÑĩÐµÑģÐºÐ¸Ðµ
ĠÐĲÐ»ÐµÐºÑģ ÐµÐµÐ²Ð¸Ñĩ
ĠÐ¿Ð°ÑĢ Ñĭ
ĠÑĥÑĩÐ°ÑģÑĤ Ð¸Ð¸
ĠÑĢÐ¸ ÑĦ
Ð¿ÑĢÐ°Ð² Ð»ÐµÐ½Ð¸Ðµ
ĠÐ½Ð°ÑĨÐ¸Ð¾Ð½Ð°Ð»ÑĮ Ð½Ð°Ñı
ĠD C
ĠÐ¿Ð¾Ð»Ð¾Ð¶ ÐµÐ½Ð¸Ð¸
Ð°ÑĤÐµÐ»Ñı Ð¼
ĠÑĢÑıÐ´ Ñĥ
as e
ĠÑĢÐ¸Ð¼ Ð»ÑıÐ½
ĠÐ³ÑĢÐµ ÐºÐ¾Ð²
ĠÐ¿ÑĢÐ¸Ð· ÐµÐ¼
ĠÑħÐ¾ÑĢ Ð¾
am e
ĠÐ¼ÑĥÐ¶ ÑĩÐ¸Ð½Ñĭ
ĠÐ¼ÐµÐ½ÑĮ ÑĪÐ¸Ð½
ĠÐ²Ð¾ÑģÑģÑĤÐ°Ð½Ð¾Ð² Ð»ÐµÐ½Ð¸Ñı
ĠÐ°ÑģÑģ Ð¾ÑĨÐ¸Ð¸
ĠÐ°Ð´Ð¼Ð¸Ð½Ð¸ÑģÑĤÑĢÐ°ÑĤÐ¸Ð² Ð½ÑĭÐ¹
ĠÐ²ÐµÑĢÐ¾ÑıÑĤ Ð½Ð¾ÑģÑĤÐ¸
ĠÐĺÐ¼Ð¿ ÐµÑĢÐ¸Ð¸
Ð§Ð°ÑģÑĤ Ð¾
Ð¤Ð¸Ð»Ð¾ÑģÐ¾ÑĦ Ñĭ
ĠÐºÐ¾Ð»ÑĮ ÑĨÐ°
ĠÑģÐµÑģÑĤ ÑĢÐ°
ĠÑģÐ¸Ð¼Ð¼ÐµÑĤ ÑĢÐ¸Ð¸
ĠÐ¤ÐµÐ¾Ð´ Ð¾Ñģ
ĠÑĥÑī ÐµÑĢÐ±
ÐłÐ°Ð·Ð²Ð¸ÑĤ Ð¸Ðµ
Ð¿ÑĢÐµÐ¶ Ð½ÐµÐ¼Ñĥ
l y
Ñĭ Ñī
ĠÐ² Ð²Ð¸Ð´Ñĥ
Ð¿ Ð¸Ð½
Ð¾Ð´ Ð¸
ĠÐº ÐµÐ´
Ñİ ÑīÐµÐ³Ð¾ÑģÑı
ĠÑĤ Ñī
ĠÐ· Ð»Ð°
ĠÐ¡ Ð°Ð½ÑĤ
Ð¸Ñģ ÑĦ
ĠÐ¾ÑĤ ÑģÑĤÑĢÐ°Ð½
ĠÐ½Ðµ Ð¾ÑĦÐ¸ÑĨÐ¸Ð°Ð»ÑĮ
ĠÐľ ÐµÑģÑģ
ĠÐ¿Ð¾Ð´ ÐºÐ»ÑİÑĩ
ĠÐ¢ Ð¾Ð±
ĠÐ¿ÑĢÐµÐ´ Ð¼ÐµÑĤÑĭ
Ð¤ ÑĢÐ°Ð½ÑĨÑĥÐ·
ĠÐ¨ Ð²
Ð¾Ð²Ð°Ð½ Ð½Ð¾Ð¹
on e
Ġ6 6
Ð»ÐµÑĤ Ð½ÐµÐ³Ð¾
ĠÑģÑĩÐ¸ÑĤ Ð°Ð»Ð¾ÑģÑĮ
ÑģÑĭ Ð»Ð°
Ð¸ÑĢÐ¾Ð²Ð°Ð½ Ð½Ð¾Ðµ
ĠÐ½ÐµÐ·Ð°Ð²Ð¸ÑģÐ¸Ð¼ Ð¾Ð¹
ĠÑħÐ°ÑĢÐ°ÐºÑĤÐµÑĢ Ð½Ñĭ
ĠD o
ĠÐ´ÐµÑĤ ÐµÐºÑĤ
ĠÐ²ÑĭÑģÑĤÑĥÐ¿ Ð°Ð»
ĠÐ²Ð¾Ð·Ð½Ð¸Ðº Ð°ÑİÑĤ
ĠÑģÑĭ ÑĢ
ĠÑĦÐ¸Ð»ÑĮ Ð¼Ñĭ
ĠÐ®Ð¶ Ð½ÑĭÐ¹
ĠÐ¿Ð¾ÐºÐ°Ð· Ð°ÑĤÐµÐ»ÑĮ
ĠÑģÐ¾ÐµÐ´Ð¸Ð½ Ñı
ĠÑĢÐµÐ»Ð¸Ð³ Ð¸Ð¹
ĠÐ¾Ð¿ÑĥÐ±Ð»Ð¸ÐºÐ¾Ð² Ð°Ð½Ð°
ĠÑģÑĥÐ¼ Ð¼Ñĥ
ĠÑĥÑģÑĤÑĢÐ¾Ð¹ ÑģÑĤÐ²
ĠÐ¿ÑĢÐ°Ð²Ð¾ÑģÐ»Ð°Ð² Ð½ÑĭÐ¹
ĠÐ¾ÑĢÐ±Ð¸ÑĤ Ñĭ
ĠÑģÑĤÐ¾ Ð¸Ð¼Ð¾ÑģÑĤÐ¸
ĠÐ²Ð°ÑĢÐ¸Ð°Ð½ÑĤ Ð¾Ð²
ĠÑģÑĤÐ°Ð´ Ð¸Ð¸
ĠÐ¾ÑĢÐ¸ ÐµÐ½ÑĤÐ°
ĠÐºÐ°Ð±Ð¸Ð½ ÐµÑĤ
ĠÐ¦Ð¸Ð¾Ð» ÐºÐ¾Ð²ÑģÐºÐ¾Ð³Ð¾
ĠÑĢÐµÐ¹ÑĤÐ¸Ð½Ð³ Ðµ
ĠÑĢÐµÐ¶Ð¸ÑģÑģ ÑĳÑĢÐ°
ÐļÐ°Ð·Ð°Ñħ ÑģÑĤÐ°Ð½
I N
j ect
ĠÐ ¹
Ð¸ ÑĢÐ¾
Ð¾Ð² Ð¸ÑĩÐ°
ĠÐ¸ Ð²
ĠÑģ Ð¸Ð½Ð³
ĠÐº Ð¾Ð³
ĠÐ± Ð°Ð¹
ĠÑĥ ÑĢ
ĠÐ¡ Ð°ÑĢÐ°
Ð¾Ð± ÑĢÐµÑĤ
ÐµÐ¹ ÑģÐºÐ¸Ñħ
ÐŁ Ð¾ÑģÑĤ
ĠÐļ ÑĥÐ¿
ĠÐĶ Ð¸Ð½
ĠÐ¢ Ð°ÑĤÑĮÑıÐ½Ð°
ÐºÐ¾Ð² ÑģÐºÐ°Ñı
ĠÐ¿Ð¾Ñģ Ð»Ð°Ð½
ĠÐ¿ÑĢÐ°Ð² Ð¸ÑĤÐµÐ»ÐµÐ¼
Ð½ÐµÐ¹ ÑĪÐ¸Ðµ
ĠÐ½Ð¾Ð² Ð¾Ð¼Ñĥ
Ð³ÑĢÐ° Ð±
ĠÐ¿Ð°ÑĢ Ð¾Ð¼
ÑĭÐ² Ð°ÑĤÑĮÑģÑı
Ð²Ð¸Ð´ Ð¸Ð¼Ð¾Ð¼Ñĥ
ĠÐ¼Ð°ÑģÑģ Ñĥ
ÑĪÐ°Ñı ÑģÑı
ĠÐ¸Ð·Ð´ ÐµÐ»Ð¸Ñı
ĠÐ¼Ð°ÑĤÐµÐ¼Ð°ÑĤ Ð¸ÐºÐ°
ĠÐ¼Ð¸Ð½Ð¸ÑģÑĤ ÐµÑĢÑģÑĤÐ²Ð°
189 0
Ð°Ñī Ð¸ÑĤ
ĠÐ¿ÐµÑĢÐµÐ²Ð¾Ð´ Ñĭ
ĠÐ¿ÑĢÐ¾Ð²Ð¾Ð´ Ð¸Ð»Ð¸ÑģÑĮ
187 9
ĠÐºÐ°Ð¿Ð¸ÑĤ Ð°Ð½
ĠÐ²ÑĭÐ²Ð¾Ð´ Ñĥ
ĠÐ¿Ð¾Ð´ÑĩÐ¸Ð½ ÐµÐ½Ð¸Ñı
ĠÐ¸Ð½ÑģÑĤÑĢÑĥÐ¼ÐµÐ½ÑĤ Ð¾Ð²
ĠÐ½Ð°Ð»Ð¾Ð³ Ð¾Ð²
ĠÐ²Ð¾Ð·Ð´ÐµÐ¹ÑģÑĤÐ² Ð¸Ñı
ĠÐ³Ð¾Ð»Ð¾Ñģ Ð¾Ð²Ð°Ð½Ð¸Ñı
ĠÐºÐ°Ñģ Ð°ÐµÑĤÑģÑı
ĠÐĳÑĢÑĥ Ð½Ð¾
ĠCom m
ÐłÐ°Ð½ ÐµÐµ
ĠÐŀÑģÑĤÑĢÐ¾Ð² Ð¾Ð²
ĠÐ¡Ð°Ð»ÑĮ Ð²Ð°Ð´
ĠÐŁÐ¾ÑģÐ¿Ð¾Ð»Ð¸ÑĤ Ð¾Ð¹
ĠÑĥÑħÑĥÐ´ ÑĪ
ÐĺÐ¾Ð°Ð½ Ð½
Ġ y
Ð¸ Ð¾Ð»Ð¾Ð³
Ñĭ ÑģÐº
ĠÐ² Ð¾ÑĤ
ĠÐº Ð°Ð»Ð¸Ñı
ÐµÑĤ Ð¾Ð½
ÐµÑĤ ÐµÐ»Ð¸
Ð°ÑĤ ÑĢÐ°
Ð°ÑĢ Ð½ÑĭÐ¼
Ġ1 23
ĠÐ· Ð»Ð¾
ĠÑģÑĤ Ð¾Ð»ÑĮÐºÐ¾
ĠÐļ ÐµÐ¿
ĠÐ¿ÐµÑĢ ÐµÑĢ
Ð³Ð¾ ÑĦ
Ð°ÑģÑĤ ÐµÑĢ
ĠÐĽ ÐµÐ´Ð¾Ð²
Ð´Ðµ Ñģ
ĠÐ¾ÑģÐ½Ð¾Ð² Ð½Ð°Ñı
ĠÐ½Ð°Ñĩ Ð°ÑĤÑĮ
ĠI BM
Ð°Ð± Ð¸Ð»Ð¸
ĠÐºÐ¾Ð» ÐµÑģ
ĠÐ¿Ð¾Ð² Ð»Ð¸Ñı
ĠÑĤÐµÑĢÑĢÐ¸ÑĤÐ¾ÑĢ Ð¸ÑıÑħ
Ġ7 4
ĠÑĤÐµÐ»Ðµ ÑĦ
ĠÐ·Ð°Ð¼ ÑĥÐ¶
ĠÐ¼Ð°ÑģÑģ Ð¾Ð²Ð¾Ðµ
ĠÐ¼ÑĥÐ·Ñĭ ÐºÐµ
ĠÐ°Ð²ÑĤÐ¾ÑĢ Ð¾Ð¼
ĠÐĿÐ¾Ð² Ð¾ÐºÑĥÐ·Ð½Ðµ
ĠÐ³ÑĢÐ°Ð½ Ð¶
ĠÐ½ÐµÐ´ Ð°Ð»ÐµÐºÐ¾
ĠÐ»ÑİÐ± Ð¾Ðµ
ĠÐ¸Ð½Ð´ Ð¸Ð¹ÑģÐºÐ¸Ð¹
ĠÑĨÐµÐ» ÑĭÐ¹
ĠÐ½Ð°ÑģÑĤÐ¾Ñı ÑīÐµÐ³Ð¾
ĠÑĥÐºÑĢÐ° ÑĪ
ĠÐ¾Ð±Ð¾Ð·Ð½Ð°Ñĩ ÐµÐ½Ð¸Ðµ
ĠÑĢÐµÐ»Ð¸Ð³ Ð¸ÐµÐ¹
ĠÑĪÐ²ÐµÐ´ ÑģÐºÐ°Ñı
ĠÐ·Ð°ÑīÐ¸ÑĤ Ðµ
ĠÐ¾ÑĤÐºÐ°Ð· Ð°ÑĤÑĮÑģÑı
ĠÑĢÐ°Ð·Ð´ÐµÐ» ÐµÐ½Ð°
ĠÑģÑĥÐ¼ Ð¼Ñĭ
ĠÐĶÐ¼Ð¸ÑĤ ÑĢÐ¸Ñı
ĠÑĢÐµÐ¹ Ñħ
ĠÑģÑħ Ð¾Ð»
ĠÑįÐ»ÐµÐºÑĤÑĢÐ¾Ð½ Ð½Ð¾Ð¹
ÐľÐµÐ´ Ð¸ÑĨ
XV II
ĠÑħÑĢÐ°Ð¼ Ð¾Ð²
ĠÐ°ÑĢÑħÐ¸ÐµÐ¿Ð¸ÑģÐºÐ¾Ð¿ Ð°
ĠÐķÐ»ÑĮ ÑĨÐ¸Ð½Ð°
ĠÐ²Ð¾ÐºÐ· Ð°Ð»
ĠÐĽÑİÐ´Ð¾Ð² Ð¸Ðº
ĠÑĢÐµÐºÐ¾Ð½ÑģÑĤÑĢÑĥ ÐºÑĨÐ¸Ð¸
ĠÑģÑĭÐ³ÑĢÐ° Ð»
Ð¯Ð¿Ð¾Ð½ Ð¸Ñı
ĠÐºÐ°Ð»Ð¸ Ð±ÑĢÐ¾Ð²
Ð¾ÑĩÐ¸Ð½ ÐµÐ½Ð¸Ñı
Ð¼ Ð°Ð´
Ð´ Ð°Ð»ÑĮ
Ð¾ÑĢ Ðº
ĠÐ³ ÑĢÐ¾Ð·
ĠÐ¼ Ð¸Ð³ÑĢÐ°
ÐµÐ¼ ÑĭÐ¼Ð¸
Ð¡ Ð¾ÐµÐ´Ð¸Ð½
ĠÑĩ ÐµÑĢÐ½
ÐŁ ÑĢÐ¾Ðº
ĠÑį Ñģ
ĠÐĴ ÐµÑĤ
ĠÐ¢ Ð¸ÑĢÐ°ÑģÐ¿
Ð¸ÑĢÐ¾Ð² Ð°Ð»ÑģÑı
ĠÐ¥ Ð¾
ĠÐŃ Ð²
ĠÐºÐ¾ÑĢ Ð¾Ð½Ð°
ÑĢÐ¾Ð¿ Ð°Ð²Ð»Ð¾Ð²
ĠÐ¸Ñİ Ð»ÑĮ
ĠÐ½Ð°Ñģ ÐµÐºÐ¾Ð¼
ĠÐ¸ÑģÑĤÐ¾ÑĢ Ð¸ÑĩÐµÑģÐºÐ¸
ĠÑģÐ¾Ð·Ð´ Ð°ÑĤÐµÐ»ÐµÐ¹
ĠÐ²Ð¸Ð´ ÐµÐ»
ÑĤÐµ ÑĦ
ÐµÑĢÐµ Ð±ÑĢÑı
ĠÐ¸Ð·Ð± Ð°Ð²
ĠÐĿÐ° ÑĥÑĢÑĥ
âĢ¦ >
Ð°Ð½ÑĮ ÑĩÐ¶
ĠÑįÐ½ÐµÑĢÐ³ Ð¸Ñİ
ÐĲÐ² ÑĤÐ¾Ð¼
ĠÐŀÑĤ ÑĤÐ¾
ĠÑģÑĥÐ¼ Ð¼Ð°
ĠÐ²ÑĭÐ´ÐµÐ»Ñı ÐµÑĤÑģÑı
ĠÐ°Ð±ÑģÐ¾Ð»ÑİÑĤ Ð½Ð¾
ĠÐ¸Ð½ÑĤÐµÑĢÐ¿ÑĢÐµ ÑĤÐ°
ĠÐ´Ð¸Ð· Ð°Ð¹Ð½ÐµÑĢ
ĠÐĲÐ³ ÑĢÐ¸Ð¿Ð¿
ĠÐ´Ð¸Ð²Ð¸Ð· Ð¸Ð¸
ĠÐ°Ð²ÑģÑĤÑĢÐ°Ð»Ð¸Ð¹ ÑģÐºÐ¸Ð¹
ĠÐĴÐ°Ð² Ð¸Ð»Ð¾Ð²
ĠÐ¿ÐµÑĢÐµÐ´Ð° ÑĩÐµ
ĠÐ¡Ð¼Ð¾Ð» ÐµÐ½
Ð°ÑģÐ»ÑĥÐ¶ ÐµÐ½Ð½ÑĭÐ¹
ĠÑĤÐ°Ð½ÑĨÐ¾Ð² ÑīÐ¸ÑĨÐ°
S S
Ï Ĩ
Ġ ÏĢ
ÑĪ ÐµÐ½Ð¸
ĠÐ± Ð»Ð¾ÐºÐ°
Ñį ÑĦÑĦÐµÐºÑĤ
ĠÑĢÐ° ÑģÑĤÐ²Ð¾
ĠÐļ ÑĢÐ¸ÑĤ
ĠÐ¿ÑĢÐ¸ ÑĩÐ°ÑģÑĤ
ĠÐ» Ð¾Ð·
ĠÐĽ Ð¾
Ð¸ÑĤÐµÐ»ÑĮ Ð½Ð¾ÑģÑĤÑĮÑİ
ÑĥÑĩ Ð°ÑģÑĤ
ÑĢÐ¾ ÑĦÐ¸Ð·
Ġ18 20
Ðĳ Ð°Ð»ÑĤ
ĠÐ³Ð¾ÑĢÐ¾Ð´ Ð°Ð¼Ð¸
Ġ6 7
Ġ7 3
Ð¥ ÑĢÐ¾Ð½
ĠÐºÐ¸Ð½Ð¾ ÑĦ
ĠÐ¿Ð¾Ð³ ÑĢÐµÐ±
ĠÑįÐºÐ¾Ð½Ð¾Ð¼ Ð¸ÑĩÐµÑģÐºÐ¸Ðµ
ÑĤÐ¾ÑĢÐ° Ð¼Ð¸
ĠÑĢÐ°Ð² Ð½Ð¸Ð½Ñĭ
ĠÑĥÑģÑĤÐ°Ð½Ð¾Ð² ÐºÐ¸
ĠÑĥÑģÑĤÐ°Ð½Ð¾Ð² Ð»ÐµÐ½Ð¾
ĠÑĢÐ°ÑģÐ¿Ð¾Ð»Ð¾Ð¶ ÐµÐ½Ð½ÑĭÑħ
ĠÐ¶ÐµÐ»Ðµ Ð·Ð°
ĠÐ¾Ð±ÑĬÐµÐºÑĤ Ð¾Ð¼
ĠÑģÐ»ÑĥÐ¶ Ð°ÑĤ
ĠÑģÐ»ÑĥÐ¶ Ð±Ð°
ĠÐ¸ÑĤÐ°Ð»ÑĮÑıÐ½ ÑģÐºÐ¾Ð³Ð¾
ĠÐ¼Ð½Ð¾Ð³Ð¾ Ð¾Ð±ÑĢÐ°Ð·
ĠÐ°ÐºÑĤÐ¸Ð² Ð½Ð¾ÑģÑĤÐ¸
Ð½Ð¾Ñģ Ð¸ÑĤÑģÑı
ĠÑħÐ¾Ð·ÑıÐ¹ ÑģÑĤÐ²Ðµ
ÐĲÐ½ Ð³Ð»Ð¸Ð¹
ĠÐ¾Ð· ÑĳÑĢÐ°
Ġ185 9
ĠÐºÐ°ÑĤÐ¾Ð» Ð¸ÑĩÐµÑģÐºÐ¾Ð¹
ĠÐ¿Ð¾ÐºÐ° Ð·ÑĭÐ²Ð°ÐµÑĤ
ĠÐ²ÑĭÑĪ ÐµÐ´
Ð¡Ð¾ Ð¾ÑĤÐ²ÐµÑĤ
ĠÐĺÐ»ÑĮ Ñı
ĠÐ¼Ð°ÑĢÑĪÑĢÑĥ ÑĤÐ¾Ð²
ĠÐŁÑĢÐµÐ´ ÑģÐµÐ´
ĠÐ¡Ð¸Ð±Ð¸ÑĢ ÑĮ
ĠÐĲÑĦÐ³Ð°Ð½ Ð¸ÑģÑĤÐ°Ð½Ð°
Ð¸Ð²ÑĪÐ°Ñı ÑģÑı
ĠÐ¡ÑĤÐµÐ¿ Ð°Ð½
ĠÐĵÑĢÐ¾Ð· Ð½Ð¾Ð³Ð¾
ĠÑĥÑĤÐ²ÐµÑĢÐ´ Ð¸Ð»
ĠÑĨÐ¸Ð²Ð¸Ð»Ð¸ Ð·Ð°ÑĨÐ¸Ð¸
ĠÑĥÐ³Ð»ÐµÐ²Ð¾Ð´ Ð¾ÑĢÐ¾Ð´
1 13
Ĥ ¬
Ð½ ÐµÑģÑĤÐ¸
Ð· Ð°Ð¼
ĠÑģ Ð°ÐºÑģ
ÑģÐº Ð¾ÑıÐ·ÑĭÑĩ
Ð¿ Ð¾ÑĤ
ĠÐ± ÑĥÐ»ÑĮ
ÐŁ Ð¸Ñģ
ĠÐļ ÑĢÐ¸ÑģÑĤÐ¸Ð°Ð½
Ð¾Ðº ÑĥÑģ
ĠÐľ ÐµÐ¹
ÐµÐ» Ð»Ñı
ĠÑĢÐµ ÑĦ
ÑĥÑĤ Ñĭ
Ð°Ð»Ð° Ð¼
ĠÐ´Ð¾Ð» Ð³Ð¾
ĠÐ²Ð¾Ñģ ÑģÑĤÐ°Ð²
ĠÑĤÐµÑħ Ð½Ð¸ÐºÐ°
ĠÐ¡Ð¾Ð²ÐµÑĤ ÑģÐºÐ°Ñı
ĠÐ»Ð¸Ð½ Ð¸Ñİ
Ð¶ÐµÐ½ ÐµÑĢ
ĠÐ¿ÑĢÐµÐ´Ð¿ÑĢÐ¸ ÑıÑĤÐ¸Ðµ
ĠÐ¼ÐµÑĤÐ¾Ð´ Ð¾Ð¼
ĠÑģÑĤÐ¾ÑĢÐ¾Ð½ Ð½Ð¸ÐºÐ¸
ĠÐ¿ÑĢÐ¸Ð·Ð½ Ð°Ð½Ð¸Ñı
188 5
ĠÐ·Ð½Ð°ÑĩÐ¸ÑĤÐµÐ»ÑĮ Ð½ÑĭÐ¹
ĠÐ¾ÑģÑĤÐ°Ð² Ð¸Ð»
ĠÐ²Ð½ÑĥÑĤÑĢÐµÐ½ Ð½Ð¸Ðµ
ĠÑĥÐ²ÐµÐ»Ð¸Ñĩ ÐµÐ½Ð¸Ñı
ĠÐ²ÑģÑĤÑĢÐµÑĩ Ð°
ĠÐ²ÐµÑīÐµ ÑģÑĤÐ²Ð¾
ÐĲÐ½ Ð³
ĠÐĴÐ¸Ðº ÑĤÐ¾ÑĢÐ°
ĠÑģÐ¾ÑĤÑĢÑĥÐ´ Ð½Ð¸ÐºÐ¾Ð²
ÐŁÐ¾Ñĩ ÑĤÐ¸
ĠÑĦÐµÐ´ÐµÑĢÐ°Ð»ÑĮ Ð½ÑĭÐ¹
ĠÐŃÑĢ Ð½ÐµÑģÑĤ
ĠÐ²Ð·Ð³Ð»Ñı Ð´
ĠÑĦÐ¸Ð·Ð¸ Ð¾Ð»Ð¾Ð³Ð¸Ð¸
Ð´ÐµÐ¼Ð¾ÐºÑĢÐ°ÑĤ Ð¸ÑĩÐµÑģÐºÐ°Ñı
ĠÑģÐ¸Ð³ Ð½
ĠÐ½Ð°Ð¼ Ð½Ð¾Ð³Ð¾
ĠÐ¿Ð¸ÑĢÐ°Ð¼Ð¸ Ð´Ñĭ
ĠÐ¡Ð¾ÐµÐ´Ð¸Ð½ ÑĳÐ½Ð½ÑĭÑħ
ĠÐľÑį ÑĢÐ¸
ĠÐ·Ð°ÑĤÑĢÑĥÐ´ Ð½
ĠÐ½ÐµÑĦÑĤÐµÐ¿ ÑĢÐ¾Ð´ÑĥÐºÑĤ
ĠÐĴÐ¾Ð¾ÑĢÑĥÐ¶ ÑĳÐ½Ð½ÑĭÑħ
ĠÑĢÐ°ÑģÑĪÐ¸ ÑĢÑı
d u
i et
Ð· Ð°Ð²
Ð± ÐµÐ»ÑĮ
Ð»ÑĮ ÑĪÐ°Ñı
ĠÐ¼ Ð¸Ð»
ĠÐ± ÐµÐ½Ð·
ĠÐ± Ð¸Ð±Ð»ÐµÐ¹
ĠÑĥ ÑĤÐ¾Ñĩ
Ð¾Ð± ÑĢÐ°Ð¶ÐµÐ½Ð¸Ðµ
ĠÐ¿ÑĢ Ð¾Ð½
ĠÐ¾Ð± Ð»Ð¸
ĠÑģÑĤ Ð°ÑĨÐ¸Ð¾Ð½
ĠÑĦ ÑĢÑĥÐºÑĤ
ĠÐľ ÐµÑħ
ĠÐĵ ÑĢÐ¸Ð½
ĠÐĳ Ð°Ð´
ĠÐĳ ÐµÑĢÐ³
ĠÐĿ Ð°ÑĤÐ°Ð»ÑĮÑı
ĠÐ¿Ð¾Ð´ Ð¾Ð·
ÑĢÑı Ð·
Ð»Ð¾ Ð½Ñĭ
ĠÐºÐ¾Ð¼ Ð±Ð¸Ð½Ð°
Ġ18 40
ĠÐ¾ÑģÐ½Ð¾Ð² Ð°Ð½Ð¸Ðµ
ĠÐ£ Ð»ÑĮ
ĠÐ£ ÑįÐ»ÑĮ
ĠÐ¾ÑģÑĤ Ð°ÑĤ
ÑģÑĤÑĥÐ¿ Ð»ÐµÐ½Ð¸Ðµ
ĠÐ·Ð°Ð² Ð¾
Ġ7 8
ĠÐ½Ð°Ð·Ð² Ð°Ð½Ð°
ĠÑģÐµÑĢ Ð¸Ñı
ĠÐºÐ¾Ð½ÑĤ ÑĢÐ°ÐºÑĤ
ĠÑĤÐ¸Ð¿ Ñĥ
ÐµÑĢÐ¾ ÑıÑĤ
ÑĤÑĭ ÑģÑıÑĩ
ĠG NU
ĠÐ·Ð°Ð¿Ð°Ð´ Ð°
ÑĥÐ² Ð°Ð»Ñĥ
ĠÐ²Ð¾Ð·Ð½Ð¸Ðº Ð»Ð¾
ĠÐºÐ¾ÑĢÐ°Ð± Ð»Ð¸
ĠÐĽÐµ Ð¾Ð¿Ð¾Ð»ÑĮ
ĠÑĤÑĢÐ°Ð½ÑģÐ¿Ð¾ÑĢÑĤ Ð½ÑĭÑħ
ĠÑĢÑĭ Ð½Ð¾Ñĩ
ĠÐ²Ð½ÐµÑĪ Ð½ÐµÐ³Ð¾
187 0
ĠÐ´Ð°Ð»ÑĮ ÑĪÐµ
ĠÐ³Ð¸Ð¿ Ð¾ÑĤÐµÐ·Ñĭ
ĠÐºÐ¸ÑģÐ»Ð¾ÑĤ Ð°
ÐłÑĥÑģ ÑģÐºÐ°Ñı
ĠÐĿÐ°ÑĢÐ¾Ð´ Ð½ÑĭÐ¹
ĠÑĢÐ°Ð·Ð´ ÐµÐ»ÐµÐ½Ð¸Ñı
ĠÑĢÐ°ÑģÐ¿ÑĢÐµÐ´ ÐµÐ»ÐµÐ½Ð¸Ñı
ĠÐ¿ÑĢÐµÑģÑĤÑĥÐ¿ Ð»ÐµÐ½Ð¸Ñı
ĠÐºÐ°Ð¼Ð¿ Ð°Ð½Ð¸Ð¸
ĠÐĳÑĥÑĢÐ³ ÑĥÐ½Ð´
ĠUnivers ity
Ġ {
Ġ on
Ð½ ÐµÐº
Ñģ ÑĥÐ´
Ñĩ Ð°Ð¹
ĠÑĤ Ð¾ÐºÑģ
ĠÑĥ ÑĢÐµÐ³ÑĥÐ»Ð¸ÑĢÐ¾Ð²
ÐŁ Ðŀ
ĠÐ¿ÑĢÐ¸ Ð¾ÑģÑĤÐ°Ð½Ð¾Ð²
ĠÐĴ ÑĤÐ¾ÑĢ
ĠÑĢÐµ Ð°Ð»Ð¸Ð·Ð°
ĠÐĵ ÐµÑĢÐ±
ĠÐ¢ Ð°ÑĢÐ°
ĠÐ¢ ÑĮÑİÑĢÐ¸Ð½
Ð¸Ð»Ð¸ ÑģÑĤ
ĠÐ¿ÑĢÐµÐ´ ÑĥÐ¿
ÐĶ ÐŁ
Ġ18 31
ÑİÑī ÐµÐ¼
ĠÐ°Ð½ Ð½ÐµÐºÑģ
ĠÐ¼ÐµÑĤ ÑĢÐ¸ÑĩÐµ
ĠÐ²Ð¾Ð´ Ð½ÑĭÑħ
ĠÑģÑĥÑīÐµÑģÑĤÐ² Ð¾Ð²Ð°ÑĤÑĮ
ĠÐ·Ð°Ð¼ ÑĭÑģ
ĠÐ³Ð¾ÑĢ Ð½Ð¾Ð»Ñĭ
ĠÐ±ÑĢÐ¸ÑĤÐ°Ð½ ÑģÐºÐ¸Ñħ
ĠÐºÐ¾ Ð¾Ð¿
ÑĪÑĤ ÐµÐ¹Ð½Ð°
Ġ186 6
ĠÐ²Ð½ÐµÑĪ Ð½Ðµ
ĠÑģÐ¸Ð¼Ð²Ð¾Ð» Ñĭ
ĠÐ¾Ñħ Ð»Ð°Ð¶Ð´
ĠÑĢÐ°Ð·Ð´ÐµÐ» ÐµÐ½Ð¸Ðµ
ĠÐ¼Ð°Ð½ Ð¸ÑĦÐµÑģÑĤ
ĠÐ¦ÐµÐ½ÑĤÑĢÐ°Ð»ÑĮ Ð½ÑĭÐ¹
ĠÐ´Ð¾ÐºÐ°Ð· Ð°ÑĤÐµÐ»ÑĮ
ĠÑĢÐµÑģÑĥÑĢ Ñģ
ÐŁÐ¾ÑģÐ»ÐµÐ´ Ð½Ð¸Ðµ
ĠÑģÑĥÐ±ÑĬÐµÐºÑĤ Ð¾Ð²
ĠÐ½Ð°Ð³ÑĢÐ° Ð´Ñĭ
ÐĲÐ½Ð´ ÑĢÐµÐ¹
ÐŁÑĢÐ¸Ð¼ÐµÑĢ Ñĭ
ĠÐĳÐµÐ½ ÐµÐ´
ĠÐĴÐ¾Ð¹ Ð½Ð°
ĠÐĳÑĢÐ¾Ð´ ÑģÐºÐ¾Ð³Ð¾
ĠÐ¼ÑĥÐ´ ÑĢ
BS D
Ð» Ð»Ð¸Ð½
ĠÑģ ÐµÐºÑĤÐ¾ÑĢ
Ð¶ Ð½ÑĭÐµ
ĠÐ¼ Ñı
Ð°ÑĤ Ð°Ð¼Ð¸
Ð¸ÑĤ Ð¾
Ð»Ð° Ðº
Ġ1 13
ĠÐ¡ ÑĥÐ½
Ð¾Ðº ÑĢÑĭ
ĠÐ¿ÑĢÐ¸ Ð³Ð¾ÑĤÐ¾Ð²
ĠÐĲ ÑĪ
ĠÐľ ÑĥÐ´
Ð¶Ðµ Ð»Ð¸
ĠÐĽ Ð¾Ð¿
ĠÐĺ Ð¾
ĠÐ¿Ð¾Ð´ ÑĢÐ°Ð·Ð´ÐµÐ»ÐµÐ½Ð¸Ñı
ĠÐ¾Ñģ ÐµÐ½ÑĮÑİ
Ð»Ð¾ ÑĪ
ĠÐ¾Ð´ Ð½Ð¸
ĠÑģÐ°Ð¼ Ð¸Ð¼
ĠÐ¨ Ð°ÑĢÐ°Ð¿
ĠÑĢÐ¾ÑģÑģÐ¸Ð¹ ÑģÐºÐ¸Ðµ
ĠÐ·Ð°Ð² ÐµÐ´ÐµÐ½Ð¸Ñı
Ð§ Ð»ÐµÐ½
ĠÐ½Ð°Ð·Ð² Ð°Ð½Ð¸Ð¹
ĠÐ¿ÐµÑĢÐµÐ² Ð¾Ð´Ð°
ĠÑĥÑĩÐ°ÑģÑĤ Ð½Ð¸ÐºÐ¸
ĠV ol
ĠÐ²Ð¾Ð·Ð¼Ð¾Ð¶ Ð½ÑĭÐ¼
ÑģÐµÐ´ Ð½ÐµÐ²
ÐŀÑģÐ½Ð¾Ð² Ð½ÑĭÐ¼
Ð°ÑĥÑĢÐµ Ð°ÑĤÑĭ
ĠÑģÐµÐº ÑĥÐ½Ð´
ĠÐ·Ð°Ñħ Ð¾ÑĢÐ¾Ð½
ĠÐ²ÑĢÐ° Ð¶Ð´
ĠÐ²ÐµÑĤ Ð²
ĠÐ´ÐµÑģÑıÑĤ ÐºÐ¸
ĠÐ²ÐµÑģ Ð½Ð¾Ð¹
ĠÐ¼ÑĭÑģ Ð»Ð¸ÑĤÐµÐ»ÑĮ
ĠÐ½Ð°Ð±Ð»ÑİÐ´ ÐµÐ½Ð¸Ð¹
ĠÐ½Ð°Ð·ÑĭÐ² Ð°Ð»
ĠÐ²Ð¾ÑģÐ¿ ÑĢÐ¾Ð¸Ð·Ð²Ð¾Ð´
ĠÐ²ÑĭÑĩÐ¸Ñģ Ð»ÐµÐ½Ð¸Ð¹
ĠÐĽÐ¾Ð½Ð´ Ð¾Ð½Ð°
ĠÑĤÑĢÐ°Ð¼ Ð²Ð°Ñı
ĠÐ½Ð¾Ð¼ ÐµÑĢÐ°
ĠÐ¿ÑĥÑģÑĤ Ñĭ
ĠÐ°Ð½ÑĤÐ¸Ñĩ Ð½Ð¾Ð¹
ĠÐ¿ÑĢÐ¸ÑģÑĥÑĤÑģÑĤÐ² Ð¸Ð¸
ĠÐ½Ð°Ð³ ÑĢÐµÐ²
ĠÐ°Ð²ÑģÑĤÑĢÐ°Ð»Ð¸Ð¹ ÑģÐºÐ°Ñı
ĠÐ³ÑĢÐ°Ð½Ð¸ÑĨ Ð°Ñħ
ĠÑģÐµÐºÑĤ Ð¾ÑĢÐ°
ĠÑĦÐ°Ð±ÑĢÐ¸ ÐºÐ°
ĠÐ¿Ð»Ð°ÑĤÑĦÐ¾ÑĢÐ¼ Ñĭ
ĠÐĶÐ¾ÑģÑĤÐ¾ ÐµÐ²ÑģÐºÐ¾Ð³Ð¾
ĠÐºÐ¸ÑģÐ» Ð¾ÑĢÐ¾Ð´Ð°
ĠÑģÐµÑģÑģ Ð¸Ð¸
ĠÐ°ÑĢÑħÐ¸Ð¿ ÐµÐ»Ð°Ð³
ÐĺÑģÐ¿Ð¾Ð»ÑĮÐ· Ð¾Ð²Ð°Ð½Ð¸Ðµ
ĠÐļÐ°ÑĢÐ¸ Ð±
ĠÐłÐļ ÐļÐĲ
ĠÐĳÑį ÐºÐ¾Ð½
ĠÑİÐ¶Ð½Ð¾Ðº Ð¾ÑĢ
Ï ī
Ðµ Ð¾
ĠÐ¿ Ð°ÑģÑģ
ĠÐ² Ð²ÐµÑĢÑħ
ĠÑģ ÑĩÐ¸ÑģÐ»ÐµÐ½Ð¸Ñı
Ð°Ð½ ÑĨÑĭ
Ð± Ð°Ð¹
ÑĨ Ð¾Ð²Ð°
ÑĢÐ¸ Ð´Ð°
ĠÐ´ ÐµÐ»ÐµÐ½Ð¸Ñı
ĠÐ¼ Ð°ÑĢÑĤ
Ð¸Ð¼ Ð°Ñı
ĠÐļ ÑĥÑĩ
Ð¾Ðº Ð³Ð¾Ð»ÑĮ
ĠÐ²Ñĭ Ð½ÐµÑģ
Ðļ Ð¾
Ðł Ð°ÑģÑĤ
Ðŀ Ñĩ
Ð¾Ñĩ Ð½ÑĭÐ¼
Ð»Ð¾Ð² Ð¾Ð¹
Ð°Ñģ ÑĪÑĤÐ°Ð±
ĠÐ¾Ð¿ Ð¾ÑĢ
Ð¸ÑĢÐ¾Ð² Ð°ÑĤÑĮÑģÑı
ĠÐ¥ ÑĮÑİ
ĠÑģÐ°Ð¼ Ð¾Ð²
ÐĹ Ð°Ð³
ĠÐ°Ð½ Ð°ÑĤÐ¾Ð¼
ĠÐ¿Ð¸Ñģ Ð°ÑĤÑĮ
ĠÐ·Ð°Ð¿ ÑĥÑīÐµÐ½
ÑıÑī Ð¸Ð¼Ð¸
ĠÐ¿Ð¾ÑģÐ»ÐµÐ´ ÑģÑĤÐ²Ð¸Ñı
ĠÑģÐµÑĢ Ð´Ðµ
ĠÐ·ÐµÐ¼ Ð»ÑĳÐ¹
Ð¸ÑĦ ÑĢÐ¾Ð²
ĠÐ°ÑĢÐ¼ Ð¸Ð¹
Ð¡ÑĤ Ð°ÑĤÐ¸ÑģÑĤ
ĠÐ´ÑĢÐµÐ² Ð½ÐµÐ³Ð¾
ĠÑģÐ¾ÑħÑĢÐ°Ð½ Ð¸Ð»Ð¾ÑģÑĮ
ĠÑĩÑĤ ÐµÐ½Ð¸Ñı
ĠÐ¿ÑĢÐ¸Ð¼ÐµÐ½ ÑıÑİÑĤÑģÑı
ĠÑįÐ¿ Ð¸Ð´ÐµÐ¼
ĠÐ¿ÑĢÐ¸Ð² Ð»ÐµÐºÐ°
ĠÑĤÑĢÑĥÐ´ Ð¾Ð²
ĠÐºÐ°Ð¼ ÐµÑĢ
ĠÐ¿ÑĢÐ¾Ð¸Ð·Ð²ÐµÐ´ ÐµÐ½Ð¸ÑıÑħ
ĠÐ¼ÑĥÐ· ÐµÐµ
ĠÐ´ÑĥÑħ Ð°
ĠÑģÐ¿ÐµÑĨÐ¸Ð°Ð»ÑĮ Ð½Ð¾Ð¹
ĠÑĢÐ°ÑģÑģÐ¼Ð°ÑĤÑĢÐ¸ Ð²Ð°ÐµÑĤ
ĠÐ¿Ð¾Ð¿ÑĥÐ»ÑıÑĢ Ð½ÑĭÑħ
ĠÐ»Ð°ÑĤ Ð²
ĠÐ¿ÑĢÐ°Ð²Ð¾ÑģÐ»Ð°Ð² Ð½ÑĭÑħ
ĠÐ³Ð¸Ð¼ Ð½
ĠÐļÐ¾Ð½ÑģÑĤÐ¸ÑĤÑĥ ÑĨÐ¸Ñı
ĠÐ¿ÑĢÐµÐ´Ð¼ÐµÑĤ Ð¾Ð¼
ĠÑģÐ¿ÐµÐºÑĤ Ð°Ðº
ĠÐ»ÑĳÐ³ ÐºÐ¸Ñħ
ĠÐ¼Ð¾Ð»ÐµÐº ÑĥÐ»Ñĭ
ĠÐ±ÑĢÐ° ÐºÐ°
ĠÐ²Ð»Ð° Ð´Ðµ
ĠÑģÐ¿Ð°Ñģ ÐµÐ½Ð¸Ñı
ĠÐ·Ð°ÑĢÑı Ð´
ĠÐŀÐ»ÑĮ Ð³Ð°
ĠÐļÑĢÐ¸ÑģÑĤ Ð¾ÑĦ
ĠÐ²Ð°Ð³ Ð¾Ð½Ð¾Ð²
ĠÐ¶ÐµÑģÑĤ Ð¾Ðº
ĠÐĴÐ°Ð»ÐµÐ½ÑĤ Ð¸Ð½
ĠÐ½ÐµÐ¹ÑĤ ÑĢÐ°Ð»ÑĮ
ĠÐ»ÑİÐ±Ð¾Ð² ÑĮ
ĠÐ±Ð¾ÑĢÑĤ Ð¸Ð½
ĠÐ³Ð¸Ð³ Ð°Ð½ÑĤ
Ð²Ð°Ð½Ð³ ÐµÐ»Ð¸
A P
c al
Ð¿ Ð¾Ðº
Ð¶ ÐµÐ¼
ĠÐ¼ ÐµÐ»ÑĮ
Ġ( $
Ð¡ ÑĤÐ¾
Ð¡ Ðŀ
ĠÐĳ Ð°Ð·
ĠÐ¿Ð¾Ð» Ð¸Ð¼
ÐµÑģÑĤ Ð¸Ð²Ð°
ĠÑħ Ð¾Ð·Ñı
ĠÐ¸Ð¼ ÐµÐ»Ð¾
ĠÐ¢ ÐµÐ²ÑĤÐ¾Ð½
ĠÐºÐ¾Ð½ ÑģÑĤÐ°Ð½ÑĤ
ĠÐŀ ÑĨÐµÐ½ÐºÐ°
ĠÑģÐ°Ð¼ Ð¸Ñħ
ĠÑıÐ·Ñĭ ÐºÑĥ
ĠÑĤÐµÑĢÑĢÐ¸ÑĤÐ¾ÑĢ Ð¸ÐµÐ¹
Ġ8 4
ĠÐµÐ´Ð¸Ð½ ÑģÑĤÐ²ÐµÐ½Ð½Ð¾Ð¹
ĠÑĥÑĤ ÑĢÐ°ÑĤ
ĠÐ²Ð¾Ð·Ð¼Ð¾Ð¶ Ð½Ð¾ÑģÑĤÐµÐ¹
ĠÐ¡Ð² Ð°ÑĢ
ĠÐ¿ÑģÐ¸Ñħ Ð¸Ð°ÑĤ
ĠÐļÐ°Ð½ Ð°Ð´Ð°
ĠÐ¿ÑĢÐ¾Ð²ÐµÐ´ ÐµÐ½Ð¸Ðµ
am b
186 3
ĠÐŀÐŀ Ðŀ
ĠÑĢÐ¾ÑģÑĤ Ð¾Ð¼
ÐĵÐ¾ÑģÑĥÐ´Ð°ÑĢ ÑģÑĤÐ²Ð¾
ĠÐ¶ÐµÐ»ÐµÐ·Ð½Ð¾Ð´Ð¾ÑĢÐ¾Ð¶ Ð½Ð¾Ð³Ð¾
ĠÐ²ÐµÑĢÐ¾ÑıÑĤ Ð½Ð¾ÑģÑĤÑĮ
ĠÐ¿Ð»Ð¾ Ñħ
Ð³ÐµÑĢ ÑĨÐ¾Ð³
ĠÐ¸Ð·Ð±Ð¸ÑĢÐ° ÐµÑĤÑģÑı
ĠÑĥÐºÐ°Ð·ÑĭÐ²Ð° ÑİÑĤ
ph i
ĠÑģÐ¾ÑģÐµÐ´ Ð½Ð¸Ñħ
Ð½Ð°Ð´ÑĨ Ð°ÑĤÑĮ
ĠÐ»ÐµÐ´ Ð½Ð¸ÐºÐ¾Ð²
Ð¼ÐµÑĢÑĤ Ð½Ð¾
ĠÐ¼Ð° Ð¾ÑĢÐ¸
ĠÑĥÐ»ÑĮ ÑĤ
ĠÐĴÐ°ÑĤ Ð¸ÐºÐ°Ð½
ĠÐ¶ÐµÐ½Ð¸ Ð»ÑģÑı
ĠÐļÐ¸ÑĢÐ³Ð¸Ð· Ð¸Ð¸
ĠÑĦÐ¾ÑĤÐ¾ Ð°Ð¿Ð¿
ĠÐĵÐ¾Ð½Ð´ ÑĥÑĢÐ°
Ð½ ÐµÐ´
Ð² ÑıÑĤ
ĠÐ¿ Ð¸Ðº
ĠÑģ Ð½ÐµÐ³
Ñħ Ð°Ð½Ð°
Ð¶ ÑĥÑĢ
ĠÐ½Ð° Ð¸Ð¼ÐµÐ½ÑĮ
Ñī ÐµÐ½Ð¸Ðµ
Ð¡ ÐĲ
ÐŁ Ð»Ð¾ÑĤ
Ð¾Ð»ÑĮ ÑģÐºÐ°Ñı
Ð¼Ð¸ Ð»Ð°
ĠÐĵ Ð¸Ð»
Ðľ Ñĥ
Ðľ Ð¾Ð´
ÐºÐ¾Ð² Ð¾
Ðĺ Ð¶
Ð½Ð°Ñĩ Ð°Ð»Ðµ
ĠÑĥÑĩ Ð¸ÑĤÐµÐ»Ñı
Ð¤ Ð¸Ð»Ð¸Ð¿Ð¿
ÐĽ ÐµÐ³
ĠÐ¾Ð±ÑĢÐ°Ð· ÑĥÑİÑĤÑģÑı
ÑĤÐ¸ ÑĢÑĥ
ĠÐ¾ÑģÑĤ Ð°ÑİÑĤÑģÑı
Ð³ÑĢÐ° Ð¼
ĠÐ¿Ð¾Ð· Ð¸ÑĤ
or e
ĠÐ½Ð°ÑħÐ¾Ð´ Ð¸Ð»Ð¾ÑģÑĮ
ĠÑģÐµÑĢ ÐµÐ±
Ð¼Ð°Ð½ Ð¾Ð¼
ÐĺÐ· Ð´
ÑĦÐ¾ÑĢÐ¼Ð° ÑĨÐ¸Ñı
ĠÐ¿Ð¾ÑģÑĤÑĢÐ¾ ÐµÐ½Ð¸Ñı
ĠÑĤÐ¾ÑĢÐ³Ð¾Ð² Ð»Ðµ
ĠÐĴÐµÐ»Ð¸ÐºÐ¾Ð±ÑĢÐ¸ÑĤ Ð°Ð½Ð¸ÐµÐ¹
ĠÐ·Ð¾Ð»Ð¾ÑĤ Ð¾Ð¹
ĠÐ·Ð½ Ð°ÑĤ
ĠÐ¿ÐµÑĢÐµÐ¼ ÐµÐ½Ð½ÑĭÑħ
ĠÐ²ÐµÑĤ ÐµÑĢ
ĠÐ²Ð¾ÑģÑģÑĤÐ°Ð½Ð¾Ð² Ð»ÐµÐ½Ð¸Ðµ
ĠÐµÑģÑĤÐµ ÑģÑĤÐ²Ð¾
ĠÐ¿Ð¾Ð½Ð¸Ð¼ Ð°Ð½Ð¸Ñı
ĠÐ²Ð°ÑĢÐ¸ Ð°Ð½ÑĤÐ°
ĠÐ¿Ð°ÑģÑģÐ°Ð¶Ð¸ÑĢ ÑģÐºÐ¸Ñħ
ĠÐ¿ÑĢÐ¸ÐºÐ°Ð· Ð°Ð»
ĠÐļÐ¸ÑĤÐ° ÐµÐ¼
Ð¸Ð´Ðµ ÑģÑıÑĤ
ĠÐ·Ð°Ð¼ÐµÑĤ Ð½Ð¾
ĠÑĢÐ°ÑģÐ¿ÑĢÐµÐ´ ÐµÐ»ÐµÐ½Ð¸Ðµ
ĠÐ¢Ð²ÐµÑĢ Ð¸
ĠÐĵÐ¾ÑĢÐ±Ð°Ñĩ ÑĳÐ²Ð°
ÐŁÑĢÐµÐ¼ ÑĮÐµÑĢ
ÐĺÑĤ Ð°Ð»Ð¸Ñı
Ĩ Ĵ
Ñģ Ð¾ÑĤ
ÑĤ ÑģÐºÐ¸Ð¹
Ð¿ ÐµÐ´
ĠÐº Ð°ÑĢÐ°
Ð°ÑĢ Ð¾
Ð¡ Ð¾ÑģÑĤÐ°Ð²
ĠÐ¡ Ð»Ð°Ð²
ÐĴ Ð¸Ð½
ĠÐ» Ð°ÑĤÑĭ
Ð¾Ð¿ Ð¾Ð»Ð½
ĠÐĴ Ð¾Ð»ÑĮ
ĠÐĵ Ð¸Ð½
ĠÐĵ Ð°Ð·
ĠÑĢÐ°Ð· Ð´ÐµÐ»Ð°
Ð¢ Ð²ÐµÑĢ
Ð¢ ÐµÐºÑģÑĤ
ĠÑģÐ¾Ð² ÑģÐµÐ¼
ĠÑģÑĢÐµÐ´ ÑģÑĤÐ²Ð°Ð¼Ð¸
ĠÐ¸ÑģÑĤÐ¾ÑĢ Ð¸ÐºÐ°
ĠÐ¼Ð°ÑĢ Ð¾Ðº
ĠÐºÑĥÐ»ÑĮÑĤ ÑĥÑĢÑĥ
ĠÐļÐ¾ÑĢ Ð¾Ð»
ĠÑįÐ»ÐµÐ¼ÐµÐ½ÑĤ Ð°Ð¼Ð¸
Ð¾Ð½ÑĤ Ð°Ð½
ĠÐ¿ÑĢÐ¾ÐµÐºÑĤ Ñĭ
ĠÐ¿ÑĢÐµÐ´Ð¿ÑĢÐ¸ ÑıÑĤ
ĠÐ°ÑĢÑħÐ¸ÑĤÐµÐºÑĤ Ð¾ÑĢÐ°
ĠÐ±Ð¾Ð»ÑĮÑĪÐ¸Ð½ ÑģÑĤÐ²Ð¾Ð¼
ĠÑĤÐµÐºÑģÑĤ Ð¸Ð»ÑĮ
ÑĥÐ¶Ð´ ÐµÐ½Ð¸Ðµ
ĠÐ¿ÑĢÐ¾Ð±Ð»ÐµÐ¼ Ñĥ
ĠÐ¿ÑĢÐ¾Ð²Ð¾Ð´ Ð¸ÑĤ
ĠÐºÑĥÑĢ ÑĦÑİÑĢ
ĠÐ»Ð¸Ð± ÐµÑĢÐ°
ĠÐļÐ°Ð½ ÑĤÐ°
ĠÐ¿Ð¾ÑģÑĤÐ¾ÑıÐ½ Ð½Ð¾Ð³Ð¾
186 8
ĠÐ³ÑĥÐ±ÐµÑĢÐ½ Ð°ÑĤÐ¾ÑĢÐ°
ÐŁÑĢÐ¾ ÑĨÐµÑģÑģ
ĠÐºÐ°ÑĢÑĤ Ð¸Ð½
ĠÐ¿ÑĢÐ¾ÑħÐ¾Ð´ Ð¸Ð»Ð¸
ĠÐ»Ð¸Ð´ÐµÑĢ Ð¾Ð¼
ĠÑģÑĤÑĢÐµÐ¼ Ð»ÐµÐ½Ð¸Ðµ
oc k
Ð¸Ð³ÑĢÐ° Ð»Ð°
ĠÐ³ÐµÑĢÐ¼Ð°Ð½ ÑģÐºÐ¸Ñħ
ĠÐ¼Ð¸ÑĤ ÑĢÐ¾Ð¿Ð¾Ð»
ÑıÑīÐ¸Ðµ ÑģÑı
ĠÑĢÐ°ÑģÑħÐ¾Ð´ Ñĭ
ĠÐ¾Ð´Ðµ Ð¶Ð´Ñĭ
ĠÐ¿Ð°ÑĢÑĤÐ¸Ð· Ð°Ð½
Ð³ÑĥÐ±ÐµÑĢÐ½ Ð°ÑĤÐ¾ÑĢ
ĠÐ±Ð¾ÑĤÐ°Ð½ Ð¸Ðº
Ð¡ÑĤÐ¾Ð» Ð¸ÑĨÐ°
ĠÐ±Ð°ÑĢÐ° Ð±Ð°Ð½
ĠÐĵÐµÐ½Ð½Ð°Ð´ Ð¸Ð¹
Ð» Ð¾Ðµ
ĠÐ´ Ð¾Ð²ÐµÑĢ
Ð»Ðµ Ð±Ð°
ĠÑĥ ÐµÐ·Ð´Ð°
ĠÐĲ Ð»Ðµ
Ð¸Ð· Ñĭ
Ðļ Ð¸ÐµÐ²
ÐĲ Ðļ
Ðĵ Ð»Ð°Ð²Ð°
ĠÐŃ ÑģÑĤ
ÑĨÐµÐ² Ð°
Ð¢Ð°Ðº Ð¾Ðµ
ĠÑĦÐ¸Ð»Ð¾ÑģÐ¾ÑĦ Ð¸Ñİ
ĠÐ¾Ð±Ñī ÑĥÑİ
ĠT el
ĠÐ¿Ð¾ÑıÐ² Ð»ÐµÐ½Ð¸ÐµÐ¼
Ġ186 2
ĠÐ¼ÐµÑħÐ°Ð½ Ð¸ÐºÐµ
ĠÐļÐ¾Ð¼ Ð¸ÑĤÐµÑĤÐ°
ĠÐ¡ÐµÑĢÐ³ ÐµÐµÐ²Ð¸Ñĩ
Ð»Ð°Ð¼ Ð°Ð½Ð´
ĠÐºÐ¾ÑĢÐ¾Ð»ÐµÐ² ÑģÑĤÐ²Ð¾
ĠÐ¾Ð±Ð»Ð°ÑģÑĤ Ð½Ð¾Ð¹
ĠÐ¼Ð¾Ñī ÐµÐ¹
ĠÐ¸Ð³ÑĢÐ° ÑİÑĤ
ĠÑģÑĦÐ¾ÑĢÐ¼Ð¸ÑĢÐ¾Ð² Ð°Ð½Ð¾
ĠÐ¿ÑĢÐ¸Ð¾Ð± ÑĢÐµÑĤÐ°
ÐķÐ² Ð³
ub lic
ĠÑĤÑĢÐ°Ð´ Ð¸ÑĨÐ¸Ð¹
ĠÐ¿ÑĢÐµÑĤ ÐµÐ½Ð·
ĠÐ¼ÐµÑĢÐ¾Ð¿ÑĢÐ¸ ÑıÑĤÐ¸Ñı
ĠÑĪÐ¾ÑĤ Ð»Ð°Ð½Ð´
ĠÐ´ÐµÑĢ ÐµÐ²Ð°
ĠÐºÐ¸Ð½Ð¾Ð¿ ÑĢÐ¾Ð´ÑİÑģÐµÑĢ
Ð¸Ð½ÑĤÐµÑĢ ÐµÑģ
s e
Ð¾ ÑĩÐµ
Ð¸ ÑĢÐ°Ð½
Ñģ ÐµÐ½ÑĤ
Ðº ÐµÑģ
Ñı Ð»Ð°ÑģÑĮ
ĠÐ² ÑģÑĤÑĢÐ¾
ÐµÐ½ Ð½Ð¾Ð¼Ñĥ
ĠÐº ÑĥÑģÑĤ
Ð»Ð¸ Ñİ
ÑĪ Ð¸Ð½Ð°
Ġ1 24
ĠÑĥ Ð½Ð¸
Ð¡ ÐºÐ¾ÑĢ
ÐŁ ÑĥÑģÑĤ
Ð¾Ð»ÑĮ ÑģÐºÐ¾Ð¹
ĠÐ½Ðµ Ð¾Ð¶Ð¸Ð´
ĠÐĴ Ð¾Ð»Ð¶
ĠÐĳ Ð¾Ð½Ð°
ĠÐ¾Ñģ Ð°Ð¶Ð´
ĠÐ¿ÑĢÐ¾ Ð¸Ð³
Ð¢ ÐµÐ¿
Ð¢ ÑĢÐµÑĤÑĮ
ĠÐ¸Ð½ ÐµÑĢ
ĠÑĥÑĩ Ð¸Ð»ÑģÑı
ĠÐ£ ÑĢÐ°Ð»ÑĮ
ĠÐ¿Ð¸Ñģ Ð°ÑĤÐµÐ»Ð¸
ĠÐ½ÐµÐ¼ Ð½Ð¾Ð³
ĠÐ¡ÑĤ Ð°Ð»Ð¸
en er
Ð±Ñĭ Ð²
ĠÐ¿Ð¾ÑģÐ»ÐµÐ´ Ð½ÑıÑı
ÐŀÐ± ÑĬÑĳÐ¼
ĠÑģÑĤÑĢÐ¾ Ñı
ĠÑģÑĤÑĢÐ¾ ÐµÐ½Ð¸Ðµ
ĠÐ·Ð² ÐµÐ·Ð´Ñĭ
ĠÑĢÐ¾Ð´ Ð¾Ð²
ĠÑĢÐ¾Ð´ Ð¾Ð½Ð°Ñĩ
ĠÑģÐ¾ÑħÑĢÐ°Ð½ ÐµÐ½Ð¸Ðµ
ĠÑģÐ²Ð¾Ð¹ ÑģÑĤÐ²Ð°Ð¼Ð¸
ĠÐ°ÑĤ Ð¾Ð»
ĠÑĥÑĤÐ²ÐµÑĢÐ¶Ð´ ÐµÐ½Ð¸Ðµ
ĠÐ¾ÑĤÐ´ÐµÐ»ÑĮ Ð½ÑĭÐ¹
ĠÐ½Ð¸Ð· ÐºÐ¾Ð¹
ĠÑĩÐ°Ñģ Ñĭ
ÐĲÐ½ Ð°Ð»Ð¾Ð³
Ð¾Ð»Ñı ÑĢ
ĠÐĺÐ²Ð°Ð½Ð¾Ð² Ð°
ĠÐºÐ¾Ð½Ñģ ÑĥÐ»ÑĮ
Ð°ÑģÐº Ð°Ð»ÑĮ
ĠÑĢÐ°Ð·Ð¼ÐµÑĢ Ð¾Ð²
ĠÐ¡ÑĢÐµÐ´ Ð½ÐµÐ²ÐµÐºÐ¾Ð²
ĠÐŀÐ»Ð¸Ð¼Ð¿ Ð¸Ð¹ÑģÐºÐ¸Ðµ
ĠÐ°ÑįÑĢÐ¾Ð¿ Ð¾ÑĢÑĤÑĥ
ĠÑĤÐµÐ¾ÑĢÐµÑĤ Ð¸ÑĩÐµÑģÐºÐ¾Ð¹
ÐĶÐł ÐŁ
ĠÐŁÑĢÑĥÑģÑģ Ð¸Ñı
qu e
Ð»Ð°Ð¹ Ð½
ĠÐ¾ÑģÐ²Ð¾Ð±Ð¾Ð¶Ð´ ÑĳÐ½
ÐĹÐ°ÐºÐ¾Ð½ Ð¾Ð´Ð°ÑĤÐµÐ»ÑĮ
ĠÐ´ÑĢÑĥÐ¶ Ð±Ðµ
ĠÐ¸ÑĢ Ð»Ð°Ð½Ð´ÑģÐºÐ¸Ð¹
ĠÐĳÐ°Ð½ Ð³Ð»Ð°Ð´ÐµÑĪ
ĠÐ´Ð¶Ð°Ð· Ð¾Ð²ÑĭÐ¹
ĠÐ°ÑĢÑħÐ¸Ð¿ ÐµÐ»Ð°
ĠÐºÐ¾Ð½ÑĤÐµÐºÑģÑĤ Ðµ
" |
1 10
ÑĢ ÑĤ
ÑĤ Ð¾Ð»
Ð» ÐµÑĤÐ°
ÐµÐ½ Ð±ÐµÑĢÐ³
Ñĩ ÐµÑĤ
Ð¿ Ð¾ÑĢ
Ð¸Ð½ ÑĦ
Ð¸Ð¼ Ð°Ð½Ð´
ÐµÐ¹ ÑģÐºÐ¸Ðµ
ĠÐ³Ð¾Ð´ Ð°Ð¼
ĠÐ¾ÑĤ Ð¾Ð±ÑĢÐ°Ð¶
ĠÐĳ Ð»Ð°Ð²Ð°ÑĤ
ĠÐĺ ÑĢÐ¸Ð½Ð°
ÐµÑĩ ÐµÐ½Ð¸Ð¸
Ðĳ ÑĢÐ¸ÑĤÐ°Ð½
ĠÑĥÑĩ Ð¸ÑĤÐµÐ»ÑĮ
ĠÑģÑĢÐµÐ´ ÑģÑĤÐ²Ð¾
Ð¾ÑģÐº ÑĢÐµÑģ
ÑĥÑİÑī ÑĥÑİ
Ġ6 9
ĠÑİ Ð³Ð¾ÑģÐ»Ð°Ð²
ÐºÐ¾Ð¼ Ð¼Ñĥ
ĠA p
ĠÐ¿Ð¾Ð± ÐµÐ¶Ð´
ĠÐ³Ð¾Ð» Ð¾Ð´
ĠÐ½ÐµÐ·Ð°Ð²Ð¸ÑģÐ¸Ð¼ ÑĭÑħ
ĠÐ°ÐºÑĤÐ¸Ð² Ð½Ð¾Ðµ
ĠÐ³Ðµ Ð¾Ð»Ð¾Ð³
Ð±Ðµ Ð¶Ðµ
ĠÐ½Ð°Ð¿Ð¸Ñģ Ð°Ð½Ð¸Ñı
ĠÐ¿ÑĢÐ¾Ð²ÐµÐ´ ÐµÐ½Ð¸Ð¸
ĠÐ¸Ð½ÑģÑĤÐ¸ÑĤÑĥÑĤ Ð¾Ð²
ĠÐ¡Ð²ÑıÑĤ Ð¾ÑģÐ»Ð°Ð²
ĠÐ»Ð¸ÑĨ Ð¾
Ð»ÐµÑĩ ÐµÐ½Ð¸Ñı
ĠÐºÐ¾Ð½ÑĤÑĢÐ¾Ð» ÐµÐ¼
ĠÐºÐ¾Ð½ÐµÑĩ Ð½Ð¾Ð¼
Ġb y
ĠÐºÐ¾Ð½ÑĨÐµÐ¿ ÑĨÐ¸Ñı
ĠY ork
ĠÐ¸ÑĢ Ð»Ð°Ð½Ð´
ÐľÐ¾ÑģÐº Ð¾Ð²ÑģÐºÐ¸Ð¹
ĠÐ³ÑĢÑĥ Ð½
ĠÑįÐ² Ð°ÐºÑĥ
ĠÐ½Ñĥ Ð»ÐµÐ²
ĠÐ¢Ð°Ð´Ð¶Ð¸Ðº Ð¸ÑģÑĤÐ°Ð½Ð°
ĠÐĺÑģÐ° Ð°Ðº
ĠÐºÐ¸ÑģÐ» Ð¾ÑĢÐ¾Ð´
ĠÐłÑĥÐ´ Ð¾Ð»ÑĮÑĦ
Ð£ÐºÑĢÐ° Ð¸Ð½Ð°
ĠÑģÐ¼Ðµ ÑģÑĮ
ĠÐ¿ÑĢÐ¸Ð¾ÑĢ Ð¸ÑĤÐµÑĤ
ĠÑĥÐ³Ð»ÐµÐº Ð¸Ñģ
A n
Ġ ÑĢÐ¸ÑĤÐ¾ÑĢ
Ðº Ð¾Ð»Ð°
Ð´ ÑĢÑĥÐ³
ĠÐº Ð¾ÑĦÐµ
ĠÐ´ Ð¸ÑģÑĤ
ÑģÑĤÐ² Ð¾Ð²Ð°Ð½Ð¸Ðµ
ĠÐ° ÑĤÐµ
ĠÐļ Ð»
ĠÐ¿ÑĢÐ¸ ÑħÐ¾Ð´Ð¸ÑĤ
ĠÐľ Ð¾Ð·
ĠÐĵ ÑĥÑģ
Ðļ ÑĢÐ°ÑĤ
ÐĲ Ð½Ð°
ĠÑĤÐ°Ðº ÑĤ
ÐĶ Ð²
ĠÐ³Ð¾ÑĢÐ¾Ð´ ÑģÐºÐ°Ñı
Ð°ÑĢÑĤ Ð¸Ð¸
ĠÐ§ Ð°ÑĢ
ĠÐ¸ÑģÑĤÐ¾ÑĢ Ð¸ÐºÐ¾Ð²
ĠÐ¸Ð¼Ðµ ÑİÑīÐ¸Ð¹
Ð°ÑĪ Ð¸
ĠÐºÑĢÑĥÐ¿ Ð½ÑĭÐ¼Ð¸
Ð¾ÑģÐ¾Ð± ÐµÐ½Ð½Ð¾
ĠÐºÑĢÐµ ÑģÑĤÑĮÑıÐ½Ðµ
ÑģÑĤÑĢÑĥ ÐºÑĤÐ¾ÑĢ
ĠÐ¿Ð¾Ñĩ ÑĤ
ĠÐ¿ÑĢÐ¸Ð½ÑıÑĤ Ð¸Ðµ
ĠÐ¶ÐµÐ½ Ð¾Ð¹
ĠÐ¿Ð°Ð¼ÑıÑĤ Ð½Ð¸ÐºÐ°
ĠÑģÐ¸Ð¼ ÑĦÐ¾Ð½
ĠÐ¿ÑĢÐ¸ÑĢÐ¾Ð´ Ð½Ð¾Ð³Ð¾
ĠH ist
ĠÐ¸Ð·ÑĥÑĩ Ð°ÐµÑĤ
ĠâĢ ķ
ĠÐ»Ð°ÑĤ Ð¸Ð½ÑģÐºÐ¾Ð³Ð¾
ĠÐ¼Ð¾Ð»Ð¾Ð´ ÑĭÑħ
ĠÐ¿ÑĢÐ¾Ñģ Ð²ÐµÑĤ
Ð½Ð¸ÑĩÐµ ÑģÑĤÐ²Ð°
Ð½Ð¸ÑĩÐµ ÑģÑĤÐ²Ð¾
184 8
ĠÐĽÐ¸ÑĤ Ð²Ðµ
ĠÑģÑĤÐ¸Ñħ Ð¸
ĠÑĢÐµÐ´Ð°Ðº ÑĨÐ¸Ð¸
ĠÑģÑĥÑīÐµÑģÑĤÐ²Ð¾Ð² Ð°Ð½Ð¸Ð¸
ĠÐ½Ð°Ð½ Ð¾Ñģ
ÑİÑīÐ¸Ð¼ ÑģÑı
ĠÐ¾Ð´ÐµÑĢÐ¶ Ð°Ð»Ð°
ĠÐĴÐ°ÑģÐ¸Ð»ÑĮ ÐµÐ²
ĠÐ±ÑĥÑĢ Ð¶ÑĥÐ°Ð·
ĠÐļÐ¾Ð¿ ÐµÑĢ
ĠÐĴÐµÐ½Ðµ ÑĨÐ¸Ð¸
ĠÐŁÐ»Ð°Ð½ ÐºÐ°
ĠÐºÐ¾ÑĢÑĢÐµ ÐºÑĤ
ĠÐĵÐ°Ð± ÑģÐ±ÑĥÑĢÐ³
ĠÐ¿ÑĢÐµÐ´Ð¿Ð¾Ñĩ Ð¸ÑĤ
ĠÐ¸ÑģÐºÐ¾Ð¿ Ð°ÐµÐ¼ÑĭÑħ
ĠÑģÑĭÐ½Ð¾Ð² ÐµÐ¹
ĠÐĳÐ¾Ð»Ð¸Ð² Ð¸Ð¸
ĠÐ²Ð¾Ð·Ð¼ ÑĥÑī
! Â».
O H
ÑĢ Ð¾Ð»ÑĮ
ÑĢ ÑįÐ¼
ĠÐ² Ð°ÐºÑĥ
ÐµÑĢ Ð¾Ð³
Ð± ÑĥÐ½
Ð¾ÑģÑĤ Ð°
ĠÑģÑĤ Ð°Ð»Ð¸Ð½
ĠÑģÑĤ Ð¾ÑıÐ½
ĠÐļ Ð¾Ð»ÑĮ
ĠÑĦ Ð°Ð»ÑĮ
ĠÑĦ ÐµÑĢÐ¼
ĠÐ¿ÑĢÐ¸ Ð´ÐµÑĢÐ¶Ð¸Ð²
ĠÐ» Ð¸Ð¼
Ð¸ÑģÑĤ Ð°Ð½Ð¾Ð¼
Ðļ ÑĢÐ¸ÑģÑĤ
ĠÐĳ Ð¾ÑĤ
Ð¶Ðµ Ð»Ðµ
Ð½Ðµ ÑĦ
Ðľ Ð½Ð¾Ð³Ð¾
Ð»ÐµÐ½ Ð½ÑĭÐ¼
ĠÐŀ Ð»
ĠÑģÐ¿ Ð¾Ð´Ð²Ð¸Ð¶
ĠÐ¥ ÑĥÐ½
Ġ3 000
ĠÐ½Ð°Ð¿ ÐµÑĩÐ°ÑĤ
ĠÐ® Ð»Ð¸Ñı
ĠÐ½Ð¾Ð² Ð¾Ð¼
ĠÑģÐ¾Ð·Ð´ Ð°Ð½Ð½ÑĭÐ¹
ĠÐ¿ÑĢÐ¸Ð½ ÑĥÐ´
Ð¾ÑĪ Ð»Ð¸
ĠÐ´Ð¾ÑģÑĤ Ð¾Ð¿ÑĢÐ¸Ð¼ÐµÑĩÐ°ÑĤÐµÐ»ÑĮ
ĠÐ²ÑĤÐ¾ÑĢ Ð³
ĠÐ²ÑĤÐ¾ÑĢ Ð¶ÐµÐ½Ð¸Ðµ
ĠÐ·Ð°ÐºÐ¾Ð½ Ð¾Ð¿ÑĢÐ¾ÐµÐºÑĤ
ĠÐ³Ð¾Ð» Ð¾ÑģÐ°
ĠÐ´ÑĢ Ð¾Ð±
ĠH e
ĠÑĢÐ°Ð½ ÐµÐ½Ð¸Ñı
ĠÐ®Ð¶ Ð½Ð¾
ĠÑĪÑĤ Ð°ÑĤÐµ
ĠÐ²Ð²ÐµÐ´ ÐµÐ½Ð¸Ñı
ĠÐºÐ¾Ð¼Ð¿ÑĮÑİÑĤ ÐµÑĢÐ°
ĠÑĦÐ°Ðº ÑĤÐ¾ÑĢ
ation s
âĢľ Â»
ĠÐ¶ÐµÐ»ÐµÐ·Ð½Ð¾Ð´Ð¾ÑĢÐ¾Ð¶ Ð½Ð¾Ð¹
ĠÐ¼ÐµÐ´Ð¸ÑĨ Ð¸Ð½ÑģÐºÐ¸Ñħ
184 9
ĠÐľÐ¾Ð» Ð¾ÑĤÐ¾Ð²
ĠÐ±ÑĥÐ´Ð´ Ð¸Ð·Ð¼Ð°
ĠÐļÐ¾ÑĢÐ¾Ð»ÐµÐ² ÑģÑĤÐ²Ð°
ĠÐľÐµÐ½ Ð´ÐµÐ»ÐµÐµÐ²
ĠÐ²Ð°Ð»ÑİÑĤ Ñĭ
ĠÐ¿ÑĢÐ¾Ð´ÑĥÐº ÑĨÐ¸Ñı
ĠÐ²Ð¸Ð·Ð°Ð½ÑĤ Ð¸Ð¹ÑģÐºÐ¸Ð¹
ĠÐ·ÐµÐ¼Ð»Ñı Ñħ
ĠÑįÐ¼Ð¾ ÑĨÐ¸Ð¾Ð½Ð°Ð»ÑĮ
ĠÐ¾Ð±ÑĬÑıÑģÐ½ Ð¸ÑĤÑĮ
ĠÐ¿ÑĢÐ¾Ð¿Ð°Ð³ Ð°Ð½Ð´
ĠÐ£Ñĩ ÑĢÐµÐ´
ĠÑįÐ¼Ð¸Ð³ÑĢÐ° ÑĨÐ¸Ð¸
ĠÑģÑĤÐ°Ð½Ð´ Ð°ÑĢÑĤÐ°
l as
p en
Ð² Ñģ
Ð² Ð¸Ñĩ
Ð¼ ÑĥÐ´
ÑĮ ÐµÐ²Ð¸Ñĩ
ĠÐ² Ð¸ÑĤ
Ð¿ ÑĥÑĢ
ÐµÑĢ Ð¾Ð½
Ð± Ð°ÑģÑģ
Ð¾ÑĢ Ð¾Ð½Ð°
Ð¾Ð³ Ñĥ
ĠÐ´ ÐµÑĤÐ°
ĠÐ¼ ÑĳÑĢÑĤÐ²
Ð°Ðº ÑĥÐ°
Ñį ÑĤÐ¾
Ð¡ ÑĭÐ½
ÐºÐ° Ð¹
ĠÐľ ÐµÐº
ĠÑĢÐµ Ð¿ÑĤ
ĠÐĳ Ð°ÑĢÑĤ
ĠÐĳ ÐµÐ·Ð¾Ð¿Ð°ÑģÐ½Ð¾ÑģÑĤÐ¸
ÐµÑģÑĤ Ð¾Ñĩ
Ð¾Ðµ Ð³Ð¾
ĠÑĤÐ°Ðº ÑĥÑİ
ĠÐĽ ÑĭÑģ
ĠÐ¢ ÐµÐ»Ðµ
ĠÑģÐ¿ Ð¸Ð½
Ð»Ñİ Ñģ
ĠÐ°ÑĢ ÐºÑĤ
ĠÐķ Ð³Ð¾ÑĢ
ÐĽ Ð¸ÑĪÑĮ
Ð¨ ÑĤ
ÑĥÐº ÑĢÐ°
ĠÐ¾ÑģÑĤ Ð°ÑĤÐºÐ¸
ĠÐ¿ÑĢÐµÐ´ÑģÑĤÐ°Ð² Ð»ÐµÐ½Ð¸Ð¹
ĠÐ¾ÑĢÐ³Ð°Ð½ Ð°Ð¼Ð¸
Ð¾Ñħ Ð°
ĠÑģÐ»ÐµÐ´ ÑĥÑİÑīÐµÐµ
ĠA s
ĠÐĸ Ð¾Ð·ÐµÑĦ
ĠÑįÐ»ÐµÐºÑĤ ÑĢÐ¾Ð¿
ĠÐ°ÑĢÑħ Ð¸Ð²
ĠÑĨÐµÑĢ ÐµÐ¼Ð¾Ð½
ÑĮÐµÑĢ ÑĢÐ°
ĠÐłÐ¾ÑģÑģÐ¸Ð¹ ÑģÐºÐ¾Ð³Ð¾
ĠÑĢÐ°ÑģÐ¿ÑĢÐ¾ÑģÑĤÑĢÐ°Ð½ ÑĳÐ½
ĠÐ¿ÑĢÐ¾ÑģÑĤÑĢÐ°Ð½ ÑģÑĤÐ²
ĠÑģÑĤÐ°ÑĢ ÑĭÑħ
ĠÐ¸Ð·ÑĥÑĩ ÐµÐ½Ð¸Ñİ
ĠÐ¾ÐºÐ¾Ð½Ñĩ Ð°Ð½Ð¸Ð¸
ĠÐ¼ÑĥÐ· ÐµÐµÐ²
ĠÐĳÐµÑĢ Ð»Ð¸Ð½Ð°
187 1
ÐµÑĪÐµ ÑħÐ¾Ð´
ĠÐ½ÐµÑģÐºÐ¾Ð»ÑĮ ÐºÐ¸Ð¼Ð¸
ĠÐ´Ð¾Ð¿Ð¾Ð»Ð½ Ð¸ÑĤÐµÐ»ÑĮÐ½ÑĭÐµ
ĠÐ¿Ð¾Ð´Ð¾Ð± Ð½Ð¾
ĠÑĨÐ²ÐµÑĤ Ð¾Ð²
ĠÐ´Ð²Ð¸Ð³ Ð°ÑĤÐµÐ»ÐµÐ¹
ĠÐĿÐ°ÑĢÐ¾Ð´ Ð½Ð°Ñı
Ġin t
ĠÑĩÐ¸ÑģÑĤ Ð¾
ÐĺÑģÐ¿ Ð¾Ð»Ð½
ĠÐ¡Ð¸Ð¼ Ð¾Ð½
ĠÑģÐ²ÑıÑīÐµÐ½Ð½Ð¾Ð¼ÑĥÑĩÐµÐ½Ð¸ ÐºÐ¾Ð²
ĠÑģÑĥÐ»ÑĤ Ð°Ð½Ð°
ĠÐ½Ð°Ð¿ÑĢÑı Ð¼ÑĥÑİ
ĠÐĺÑģÑĤ Ð¾ÑĢ
ĠÐ³ÐµÑĢÐ¾ ÐµÐ²
ÑģÐµÐ¼ ÐµÑģÑĤ
ĠÐ»ÐµÐº ÑĨÐ¸Ð¸
ĠÐ§ÑĳÑĢ Ð½Ð¾Ð³Ð¾
ÐļÐ»Ð°ÑģÑģ Ð¸ÑĦÐ¸ÐºÐ°ÑĨÐ¸Ñı
ĠÐŀÐºÑĤÐ°Ð² Ð¸Ð°Ð½Ð°
Ð°Ð´ÑĮ Ð±Ð°
ÐµÐ´ÐµÐ»ÑĮ Ð½Ð¸Ðº
ÐµÐ¹Ð·Ð° Ð¶
L a
N H
r es
Ð» ÑĳÐ²
Ð¼ Ð°Ð¼Ð¸
ÐµÑĤ Ð¸Ðº
ÐµÐ½Ð¸ ÑĢÐ¾Ð²
ĠÐł ÐµÐ´
ĠÐł ÐµÑĩÐ¸
ĠÐµ Ñİ
ĠÐĳ Ð°Ñģ
ÑĥÑĤ Ñĥ
ĠÑĢÐ°Ð· Ð²ÐµÑĢ
ĠÐĿ ÐµÑģÑĤ
ĠÐĿ Ðĺ
Ðľ Ð¸Ðº
18 30
ĠÑĢÑĥ Ð±ÐµÐ¶Ðµ
Ð£ ÑĢÐ¾Ð²ÐµÐ½ÑĮ
ĠÐ±Ð¾Ð»ÑĮÑĪ Ð¸Ð¼Ð¸
ĠÐ¾ÑģÑĤ Ð°Ð»Ð¾ÑģÑĮ
ĠÑģÑĢÐµÐ´ ÑģÑĤÐ²Ð¾Ð¼
ar ch
ĠÐµÐ´Ð¸Ð½ ÑģÑĤÐ²ÐµÐ½Ð½Ð°Ñı
Ð¸ÑĢÐ° Ðº
is m
ĠÑģÐ¾Ð²ÑĢÐµÐ¼ÐµÐ½ Ð½ÑĭÐ¼
Ð¸ÑĢÐ¾Ð²Ð°Ð½ Ð½ÑĭÐ¼
ĠÑĥÐ´ Ð¾Ð²Ð¾Ð»ÑĮ
ĠÐ¼Ð°ÑģÑģ Ð¾Ð¹
ĠÐ²ÐºÐ»ÑİÑĩ ÑĳÐ½
ol l
ĠÐ¾ÑĦÐ¸ÑĨÐ¸Ð°Ð»ÑĮ Ð½Ð¾Ð³Ð¾
ĠÑģÐ²Ð¾Ð±Ð¾Ð´ Ð½ÑĭÑħ
ĠÐ½Ð°Ð·Ð½Ð°Ñĩ Ð¸Ð»
ĠÑħÑĢÐ¸ÑģÑĤÐ¸Ð°Ð½ ÑģÐºÐ¸Ñħ
ĠÐłÐ¡ ÐĶÐłÐŁ
ĠÑĤÑĢÑĥÐ´ Ð½Ð¾
ĠÑģÐµÐ»ÑĮ ÑģÐºÐ¸Ñħ
ÐĲÐ½ ÑĤÐ¾Ð½
186 5
ĠÐ²ÐµÑĤ Ð²Ð¸
ÐĿÐµ ÑģÐºÐ¾Ð»ÑĮÐºÐ¾
ĠÐºÐ°ÑĢÑĤ Ñĭ
ĠÐ³ÑĢÐµÑĩÐµ ÑģÐºÐ¸Ñħ
ĠÑĢÐ°Ð·Ð¼ÐµÑĢ Ðµ
ĠÐ¿ÑĢÐ¾Ñĩ Ð¸Ðµ
ĠÑģÑĥÑīÐµÑģÑĤÐ²Ð¾Ð² Ð°Ð»Ð°
ĠÐ²ÑģÐ¿ ÑĭÑħ
ĠÐŀÑģÑĤ ÑĢÐ¾Ð²Ð°
ĠÐ¾Ð±ÑģÐ»ÑĥÐ¶ Ð¸Ð²
ĠÐºÐ¾Ð¼Ð¿Ð¾Ð½ ÐµÐ½ÑĤÑĭ
ĠÑĦÑĢÐ°Ð½ Ðº
ÐŀÑģÑĤ ÑĢÐ¾Ð²
ĠÐ¡Ð»Ð¾Ð² Ð°ÐºÐ¸Ð¸
ĠÐĿÐ¸ ÑĥÑį
ĠÐĳÐ°Ð² Ð°ÑĢÐ¸Ð¸
ĠÐ¤ÑĢÐ°Ð½Ñģ Ð¸ÑģÐºÐ¾
ĠÐ²Ð¾Ð² ÑģÐµ
ĠÐ½ÐµÐ¹ÑĤÑĢÐ° Ð»Ð¸ÑĤ
C h
M P
Î ´
Ð¼ Ð°Ð½Ð¾Ð²
ĠÐ² ÑĳÐ»
ĠÐ¸ ÑĥÐ´Ð°
ĠÑģ ÑĥÐ»ÑĮÑĦ
ĠÐº Ð¾Ð²
ĠÐ± Ð°Ð±
ÐĴ Ð½ÑĥÑĤÑĢÐµÐ½
ÐŁ ÑıÑĤ
ĠÐļ Ð¾Ð±
ĠÐ½Ðµ Ð¾Ð±ÑĭÑĩ
ĠÐł Ð¸Ñħ
ĠÐł Ð°Ñħ
Ð²Ð° Ð·
ĠÐĺ Ð³
Ð½Ð¾Ð² ÑĭÑħ
18 31
ÑĨÐ¸Ð¾Ð½ Ð°Ð»Ð¸ÑģÑĤ
Ð»Ñİ Ð´Ð°
ĠÐ¥ Ð°Ðº
Ð¾ÑĦ ÑĦ
Ð¾Ð³Ð»Ð° ÑĪÐµÐ½Ð¸Ðµ
ĠÐķÐ² ÑĢÐ°Ð·
Ġ9 6
or p
ĠÐ±ÑĥÐ´ ÑĥÑīÐµÐµ
ĠÐ´Ð²Ð¸Ð¶ ÐµÐ½Ð¸Ð¹
ĠÐļÐ¾ÑĢ Ð½
ĠÑĢÐ°ÑģÑģ Ðµ
ĠÐ½Ð°ÑĨÐ¸Ð¾Ð½Ð°Ð»ÑĮ Ð½ÑĭÐµ
ĠÑģÐ»Ð¾Ð¶ Ð½ÑĭÐµ
ĠÑĤÐµÑħÐ½ Ð¾Ð»Ð¾Ð³Ð¸Ñı
188 4
ĠÐ´ÐµÐ»Ð° ÑİÑĤ
ĠÐ¿ÑĢÐ¸Ð½ÑĨÐ¸Ð¿ Ñĥ
ĠÐ½Ð°ÑĤ ÑĥÑĢ
ĠÐ¿Ð°Ð¿ Ð¾Ð¹
ĠÐ¿Ð»ÐµÐ¼ ÐµÐ½Ð¸
ĠÐ¿Ð¾Ð¶ Ð°ÑĢÐ°
ĠÑĢÐ°Ð·ÑĢÐµ ÑĪÐµÐ½Ð¸Ñı
ĠÐ½Ð¾ÑĢÐ¼ Ð°ÑĤÐ¸Ð²
ĠÐ»Ð¸ÑĤ ÐµÑĢÐ°ÑĤÐ¾ÑĢ
ĠÐ½ÐµÐ¸Ð· Ð±ÐµÐ¶
ÐĶÑĢÑĥÐ³ Ð¾Ð¹
ĠÐ¼ÑĥÐ½Ð¸ÑĨÐ¸Ð¿ Ð°Ð»Ð¸ÑĤ
ĠÐ¿ÐµÑĢÐµÐ²Ð¾Ð· Ð¾Ðº
ĠÐ¼ÐµÑĤÑĢÐ¾Ð¿Ð¾Ð»Ð¸ÑĤ ÐµÐ½
ĠÐ¼ÐµÑģÑĤÐ¾ÑĢ Ð¾Ð¶Ð´ÐµÐ½Ð¸Ð¹
ĠÐ¿Ð»Ð° Ð·
ÐļÑĢÑĥÐ¿Ð½ÐµÐ¹ ÑĪÐ¸Ðµ
ĠÐºÑĢÐ¸ÑģÑĤ Ð°Ð»Ð»Ð¸
ĠÐ¿Ð°ÑĢÐ¾Ð² Ð¾Ð·
Ð¯Ð·Ñĭ Ðº
ĠÐķÐºÐ°ÑĤÐµÑĢÐ¸Ð½ Ð±ÑĥÑĢÐ³
ÐľÐµÐ½ Ð´ÐµÐ»ÐµÐµÐ²
ĠÑĤÑĭÑģÑıÑĩÐµ Ð»ÐµÑĤ
ĠÐ½Ð°ÑĩÐ°Ð»ÑĮ Ð½Ð¸ÐºÐ°
ĠÑĢÐ¾Ð¶Ð´Ð° ÐµÐ¼Ð¾ÑģÑĤÐ¸
ĠÐ¡Ð¸ÑĨÐ¸ Ð»Ð¸Ð¸
ĠÐĽÑİÐºÑģ ÐµÐ¼Ð±ÑĥÑĢÐ³
ĠÐĲÐ²ÑĢÐ° Ð°Ð¼
ĠÐĿÐļ ÐĴÐĶ
ÐĺÐ² Ð°Ð½Ð¾Ð²
ÐŁÑĢÐ¾Ð¼ÑĭÑĪÐ»ÐµÐ½ Ð½Ð¾ÑģÑĤÑĮ
ÐľÐ¾Ð¶ Ð½Ð¾
ĠÐ¾Ð¿ÑĢÐ°Ð² Ð´
V II
Ġ Â
ĠÐ ģ
Ð² Ð°ÑĤÐ°
ĠÐ² Ð°
ĠÐ² Ð°ÑĢ
Ð°Ð½ ÑģÐºÐ¾Ð¼
ĠÐº Ð¸ÐºÐ¸Ð¼
Ñİ Ð°ÑĢÑĤ
ĠÐ½Ð° ÑĨÐ¸Ð¹
Ð¸Ð½ ÑĨÑĭ
Ġ1 12
ĠÑĢÐ° ÑģÐºÐ¾Ð¿
ĠÐ¾ÑĤ ÑĢÐ°Ð·
ÐŁ ÑĢÐ¾ÑģÑĤ
ÐŁ Ð¾Ð±ÐµÐ´Ð°
Ð¾Ðº Ð¾Ð»ÑĮ
ÐµÐ» ÑĳÐ½Ð½ÑĭÐµ
ĠÐĽ ÐµÑĤ
Ð¢ ÐµÑħÐ½
Ð°Ð½Ð´ Ð¾
ÐĽ Ð°ÑĥÑĢÐµÐ°ÑĤÑĭ
ĠÐ¾ÑĢ ÑĤ
ĠÐ¦ Ð°ÑĢÐ¸ÑĨÑĭ
ĠÐ¿Ð¾Ð»ÑĥÑĩ ÐµÐ½Ð¸Ðµ
ĠÐ¯ Ð³
ÑĮÑı Ð¼
ĠÐ´Ð°Ð½ Ð½Ð¾Ðµ
ĠÐ¿Ð°ÑĢÑĤ Ð¸ÐµÐ¹
ÑĥÐ»Ñı ÑĨÐ¸Ñı
ĠÐ³Ð¾ÑĢ Ð¾Ð¶Ð°Ð½
ĠÐ·Ð² ÑĳÐ·
ĠÐ¼ÐµÐ½ ÑıÐµÑĤÑģÑı
ĠÐ¿Ð¾ÑģÑĤÑĢÐ¾ Ð¸ÑĤÑĮ
ĠÑĢÐ°Ð·ÑĢÐ°Ð±Ð¾ÑĤ Ð°Ð½
ĠÐ·Ð½Ð°ÑĩÐ¸ÑĤÐµÐ»ÑĮ Ð½ÑĭÐ¼
ĠÐ²ÑģÑĤÑĢÐµÑĩ Ð¸
186 0
ĠO S
ĠÐºÐ¾ÑĢÐ¾Ð»ÐµÐ² ÑģÐºÐ¾Ð¹
ĠÐ¿Ð¾Ð¿ÑĥÐ»ÑıÑĢ Ð½ÑĭÐ¼
ĠÐ´Ð¾ÑģÑĤÐ¸Ð³ Ð½ÑĥÑĤ
ĠÐ²ÑĭÐ¿Ð¾Ð»Ð½ ÑıÑĤÑĮ
ĠÑģÐ¾Ð³Ð»Ð°Ñģ Ð¸Ñı
ĠÐ¿Ð¾ÑģÐ²ÑıÑī ÑĳÐ½Ð½ÑĭÐ¹
ĠÑĤÑĢÐ°ÐºÑĤ Ð°ÑĤ
ĠÐĵÐ°ÑĢ ÑĢÐ¸
Ð»ÑıÑĤ Ð¸Ð²
ĠÑģÐ¾ÑģÑĤÐ¾ÑıÑī Ð¸Ð¹
ĠÐ³Ð¸Ð¿Ð¾ÑĤ ÐµÐ·
ĠÐĺÐ·Ð´ Ð°ÑĤÐµÐ»ÑĮÑģÑĤÐ²Ð¾
ĠÐļÐ°Ð» ÑĥÐ¶
ĠÐ±ÑĥÐ¼ Ð°Ð¶
ĠÐĽÐµÐ¹Ð± Ð½Ð¸ÑĨÐ°
ĠÐĵÐ²Ð¸Ð½Ðµ Ð¸
ĠÐ¸Ð½ÑĤÐµÑĢÑĦ ÐµÐ¹
ĠÐ¸Ð·Ð±ÐµÐ¶ Ð°ÑĤÑĮ
ÑĤ Ð¸Ð¿
Ð´ Ð°Ð½Ð¾Ð²
ĠÐ¿ Ð¸ÑĢ
ĠÐ¿ Ð¾Ð±Ñĭ
ĠÐ² Ð°Ñģ
ĠÐ¾ Ð¼Ñĭ
ĠÐº ÑĢÑĥÐ³Ð°
ÐµÐ½Ð¸ Ð½Ð°
Ġ1 22
ĠÑĩ ÐµÑĢÐµÐ´
ĠÐļ ÐµÐ¹
Ð¾Ð· Ð°ÑīÐ¸ÑĤ
ĠÐĴ Ð¾Ð´
Ð¸ÑģÑĤ ÑĭÑħ
ĠÐĵ Ð°Ð±ÑĢÐ¸
Ð¸Ð´ Ð¾Ð¼
Ðļ Ð¾Ð½ÑĤ
ĠÐĳ Ð»Ð°Ð³
ÐĿ Ð°ÑĢÑıÐ´Ñĥ
ĠÐĶ ÐµÑĤ
ĠÐĶ Ð°Ð½Ð¸
ĠÑħ Ð¾ÑĢÐµ
ĠÐ¢ ÑĢÐ°
ĠÐ¿Ð¾Ñģ Ð²ÑıÑĤ
ĠÐ°ÑĢ ÐµÐ½Ð´
ĠÑģÐ¾Ð²ÐµÑĤ Ð½Ð¸Ðº
Ð¸Ð³ Ñĥ
ĠÐĲÐ½ ÑĤÑĥ
ĠÐ® ÑĢÑĮ
Ð´Ð¸Ð½ Ð³
ĠÐ½Ð¾Ð² Ð¾Ð·ÐµÐ»Ð°Ð½Ð´
ĠÑįÐº ÑģÐº
ĠÐ½Ð°Ð·Ð² Ð°Ð½Ñĭ
Ġ8 2
Ð¢Ð°Ðº Ð¾Ð¹
ĠÑĦÐ¸Ð»Ð¾ÑģÐ¾ÑĦ Ñĭ
ĠÑĦÐ¸Ð»Ð¾ÑģÐ¾ÑĦ ÑģÐºÐ¾Ð¹
ĠÐ¸Ð·Ð²ÐµÑģÑĤ Ð½ÑĭÐ¼Ð¸
Ġ16 0
ĠÐºÑĢÑĥÐ¿ Ð½Ð¾Ð³Ð¾
ĠÐºÐ°ÑĤ Ð°Ð»Ð¾Ð³
ÐłÐ¾Ð´ Ð¸Ð»ÑģÑı
ĠÐ±Ð¾Ð³ Ð¾Ñģ
ĠR FC
ĠÐ´ÐµÑĤ ÑģÐºÐ¸Ð¹
ĠÐ¸Ñģ Ð»Ð°Ð¼Ð°
ĠÐ°Ð½ÑĤ Ð¸Ð¿
ĠÐ¿ÑĢÐ¸ÑĢÐ¾Ð´ Ñĥ
ĠÐ¾Ð¿ÑĢÐµÐ´ÐµÐ» ÐµÐ½Ð¸Ñİ
ĠÑĥÑĤÐ²ÐµÑĢÐ¶Ð´ ÐµÐ½Ð¸Ñı
ĠÑĢÐ°ÑģÑĤ ÑĳÑĤ
186 2
ĠÐ½Ð°Ð·ÑĭÐ²Ð°ÐµÐ¼ Ð¾Ð¹
ĠÐºÐ°ÑĢÑĤ Ð¸Ð½Ñĭ
ĠÐ¾ÑĤÐºÐ°Ð· Ð°Ð»Ð¸ÑģÑĮ
ĠÐ¼Ð¾Ñī Ð½Ð¾ÑģÑĤÐ¸
ĠÐ²ÐµÑĢÐ¾ÑıÑĤ Ð½Ð¾ÑģÑĤÐµÐ¹
ĠÐºÐ°Ð½Ð´Ð¸Ð´ Ð°ÑĤÐ¾Ð²
ĠÐ»Ð¸Ð´ ÐµÑĢÐ°
ĠÑĥÑģÐ¿ÐµÑħ Ð°
ĠÐĲÑĢÐ¸ÑģÑĤÐ¾ÑĤ ÐµÐ»ÑĮ
ĠÐºÐ¸ÑĢ Ð¿
ĠÐ´Ð¸ÑĦÑĦÐµÑĢ ÐµÐ½ÑĨÐ¸
ÐłÐ°Ð´ Ð¸Ð¾
ĠÐłÐ°ÑģÑģ ÐµÐ»
ĠÑĢÐ°ÑģÑĪ Ð¸ÑĢÐ¸
Ð¸ÑģÐ¿Ð¾Ð»Ð½ Ð¸ÑĤÐµÐ»ÑĮ
ÐµÑģÑĤÐ¸Ð²Ð° Ð»Ñı
3 00
r ing
Ñı Ð¼Ð°
Ð² ÑĢÐµÐ¼ÐµÐ½Ð¸
Ð¾Ð² ÐµÑĢÑĪ
ĠÐ· Ð¾Ð½Ñĥ
ĠÐ¡ Ð°Ð¹
ÐĴ Ðŀ
ĠÐĴ Ð¾Ð»Ð¾Ð³
ÑĢÐ¾Ð² ÑĭÐ¹
Ð°Ð´ Ð¾Ð»Ð³Ð¾
Ðľ Ð°Ð³
ĠÐŀ ÐºÐµ
Ðĵ ÐµÑĢÐ±
ĠÐ¾ÑģÐ½Ð¾Ð² Ð°Ð½Ð½Ð°Ñı
Ð¤ Ð¾ÑĤ
ÑĢÐ¾Ð¿ Ð°
Ðķ ÐºÐ°ÑĤÐµÑĢ
ĠÑĤÐµÐ¾ÑĢ Ð¸ÐµÐ¹
ĠÐŁÐµÑĤ ÑĢÐ¾Ð¿Ð°Ð²Ð»Ð¾Ð²
ĠÐ¿Ð¾Ñĩ ÑĤÑĭ
ĠÐ´Ð²Ð¸Ð¶ ÐµÐ½Ð¸ÐµÐ¼
ĠÐĵÐµÑĢÐ¼ Ð°Ð½Ð¸Ñİ
ĠÐ¸Ð·Ð´ Ð°Ð½Ð¸Ð¹
ĠÐ³ÑĢÐ°Ð¶Ð´Ð°Ð½ ÑģÐºÐ¾Ð³Ð¾
ĠÐºÐ°Ð· Ð°ÐºÐ¸
ÑģÑĥ ÑĦÑĦÐµÐºÑĤ
ĠÐ·Ð°ÐºÐ»ÑİÑĩ ÑĳÐ½Ð½ÑĭÑħ
ĠÐ²ÐµÐ´ ÑĮ
ĠÐ¿Ð¾Ð±ÐµÐ´ Ð¸Ð»Ð°
ÐĲÐ½ Ð½Ð°
ĠÑĥÑĩÑĢÐµÐ¶Ð´ ÐµÐ½Ð°
ĠÐ¾ÑĤÐ²ÐµÑĤ ÑģÑĤÐ²ÐµÐ½Ð½Ð¾ÑģÑĤÑĮ
ĠÐ¼Ð¾Ñī Ð½Ð¾ÑģÑĤÑĮ
ĠÐ¶ÐµÐ»ÐµÐ·Ð½Ð¾Ð´Ð¾ÑĢÐ¾Ð¶ Ð½ÑĭÐ¹
ĠÐ¿Ð¾Ð»ÑĮÐ·Ð¾Ð² Ð°ÑĤÑĮÑģÑı
Ð¡Ð² ÑıÑĤ
ĠÐ¼ÑĥÐ½Ð¸ÑĨÐ¸Ð¿ Ð°Ð»ÑĮÐ½ÑĭÑħ
ĠÐ¡ÑĤÐ°Ð»Ð¸Ð½ Ð³ÑĢÐ°Ð´
ÐŀÑģÐ¾Ð± ÐµÐ½Ð½Ð¾
Ð±Ð¾Ð² ÑĮ
Ġá¼ Ģ
ĠÐ¾Ð±ÑĬÑıÐ²Ð»Ñı ÐµÑĤ
ĠÐ±Ð¾ÐºÑģ ÑĳÑĢ
ĠÐĴÐ¸ÐºÐ¸Ð¿ÐµÐ´ Ð¸Ð¸
ĠÐ¿ÑĢÐ¸Ð²Ñĭ Ñĩ
ĠÐ³ÑĢÐ°Ð½Ð¸Ñĩ Ð¸ÑĤ
T V
Ð¼ Ð¾Ð»
ĠÐ² Ð¾ÑĢÐ¾ÑĤÐ°
ÑĨ ÐºÐ¸Ð¼
Ñİ Ð·
ĠÐ´ Ð°ÑĢ
ĠÐ³ Ð»Ñİ
ĠÐ¼ ÐµÐ·
ÐµÐ¼ Ð¾Ð¼
Ð°Ðº Ðµ
Ðł Ð£
ĠÑģÐ¾ ÑĦ
ÐµÑģ Ð¾Ð¼
Ðĵ Ð°Ð»
ĠÑģÐ¿ Ð¾ÐºÐ¾Ð¹
ĠÐŃ Ð³
ÑĥÐ· Ð¸
ĠÐ±Ð¾Ð»ÑĮÑĪ ÐµÐµ
ĠÑģÑĢÐµÐ´ Ð°
ĠÐ® Ð»Ð¸Ð¹
ĠÐ¿Ð¾Ð»Ð¸ÑĤ Ð¸ÑĩÐµÑģÐºÑĥÑİ
Ġ7 7
ĠÐ¿ÑĢÐµÐ·Ð¸Ð´ÐµÐ½ÑĤ Ñĥ
ĠÐ½Ð°Ð·Ð² Ð°Ð»Ð¸
ĠÐ¼Ð¾Ð½ ÑĥÐ¼ÐµÐ½ÑĤ
ĠÐ·Ð°Ð¼ ÐºÐ½ÑĥÑĤ
ÑģÐ¾Ð² ÑĢÐµÐ¼ÐµÐ½
ĠÐŁÐµÑĤ ÑĢÐ¾Ð¼
ĠÑĥÐ³ Ð¾Ð»
el phi
ĠÑĤÑĢÐ¸ ÑĥÐ¼
ĠÐºÐ¾Ð¼Ð°Ð½Ð´ Ð¾Ð²Ð°Ð½Ð¸Ðµ
ĠÐĲÐ»ÑĮ Ð±ÐµÑĢ
ĠÑĢÐ°Ð·ÑĢÐ°Ð±Ð¾ÑĤ ÐºÐ°
ĠÐ¾Ð³ÑĢÐ°Ð½Ð¸Ñĩ Ð¸Ð²
ĠÐ¿ÑĢÐ¾ÑģÑĤ Ð¾Ð¹
ĠÐ´ÐµÐ» Ñĥ
ĠÑĢÐ¾Ð¼ Ð°Ð½Ðµ
186 1
Ð¼Ð¾Ð½ Ð¸Ñı
ĠÐ½Ð¸Ðº ÑĤÐ¾
ĠÐ·Ð½ Ð°ÑĤÑĮ
ĠÑĢÐ°Ð±Ð¾Ñĩ Ð¸Ðµ
ĠÐ´Ð¾ÐºÑĥÐ¼ÐµÐ½ÑĤ Ð°Ñħ
ĠÑģÐ²Ð¸Ð´ÐµÑĤÐµÐ»ÑĮ ÑģÑĤÐ²ÑĥÐµÑĤ
ĠÐĴÑģÐµÐ¼Ð¸ÑĢ Ð½Ð¾Ð¹
ĠÐĴÑģÐµÐ¼Ð¸ÑĢ Ð½ÑĭÐ¹
ĠÐ¤ÑĳÐ´Ð¾ÑĢÐ¾Ð² Ð¸Ñĩ
ĠÐ¸Ð½Ð²ÐµÑģÑĤ Ð¸ÑĨÐ¸Ð¹
ÐłÑĥ ÐºÐ¾Ð²Ð¾Ð´
ĠÐ¾ÐºÑĢÐµÑģÑĤ Ð½Ð¾ÑģÑĤÑıÑħ
ĠÐ°ÑįÑĢÐ¾Ð´ ÑĢÐ¾Ð¼
ĠÐ°Ð²Ð¸Ð°ÐºÐ¾Ð¼Ð¿ Ð°Ð½Ð¸Ð¸
Ð¿Ð»Ð°Ð½ ÐµÑĤ
ĠÐĳÑĢÐ¸ÑĤ Ð°Ð½Ð¸Ð¸
ĠÐ¿Ð¾ÑģÐµÐ» ÐµÐ½Ð¸Ð¹
ÐĵÑĢÐ¸ Ð³Ð¾ÑĢ
d a
i us
Ġ Å
Ð¾ ÑĨÐµÐ½
Ðµ ÑĦÐ°
Ñģ Ð¸Ð»
Ð¼ Ð°Ð»
ĠÐ¸ Ð½ÑĭÐµ
ĠÑģ Ð°
Ð¿ Ð¾Ð¼
Ð¿ ÑĢÐ¾Ð²
ÐµÑĢ ÑĳÐ´
ĠÐ½ ÑĥÐº
Ð± Ð°ÑĤÑĭ
Ð»Ð¸ ÑĪ
Ð¶ ÐµÐ²
Ð½Ð¾ ÑĤÑĭ
Ð¸ÑĤ Ð¾ÑĢÐ°
Ð¾Ð± ÑĢÐ°ÑĤ
ÐĴ Ðĺ
ĠÐľ Ðĺ
ÐµÐ» Ð»Ð¾
ĠÐŁ ÑģÐº
ĠÐł ÑıÐ·
Ð¸Ð´ Ð°ÑĢ
ĠÑĢÐ°Ð· Ð²Ð¾Ð´
ĠÐĶ Ð½ÐµÐ¿
ÐºÐ¾Ð² ÑĭÐ¹
Ðĺ Ð·Ð½Ð°Ñĩ
Ġ18 00
ĠÐ¨ Ð°Ð½
ĠÐ¨ ÑĥÑħ
ĠÐ¿ÑĢÐ¾ÑĤ Ð¾ÑĤÐ¸Ð¿
ĠÐ¸ÑģÑĤÐ¾ÑĢ Ð¸ÐºÐ¸
Ð¼Ð°ÑĤ Ð¾Ð²
ĠÐĶÐ¶ ÐµÐº
Ġ8 8
ĠÐ¿Ð°ÑĢ ÐºÐ°
ĠÑıÐ½Ð² Ð°ÑĢÑĮ
ĠÐºÐ¾ÑĢÐ¾Ð» Ñİ
ĠÑĤÐ¾Ñĩ ÐºÐ¾Ð¹
ĠÐłÐµÑģÐ¿ÑĥÐ±Ð»Ð¸ ÐºÑĥ
ÑģÑĤÐ°Ð½ ÑĨÐ¸Ñı
ĠÑģÑĤÐ°Ð½ ÐµÑĤ
ĠÐ¿ÑĢÐ¸ÑĢÐ¾Ð´ Ð°
ĠÐ¼Ð¸ÑĢ Ð½Ð¾Ð³Ð¾
ĠÐºÐ°Ð¶Ð´ Ð¾Ðµ
ĠÐ¾ÑĤÐ´ÐµÐ»ÑĮ Ð½Ð¾
ĠÑıÐ² Ð½Ð¾
ĠÑĢÐ¾Ð¼ Ð°Ð½Ð¾Ð²
ÐŁÑĢÐµÐ´ ÑģÐµÐ´Ð°ÑĤÐµÐ»ÑĮ
ĠÑĢÐ°Ð±Ð¾Ñĩ Ð¸Ð¹
ĠÑģÐµÑĤ ÐµÐ¹
ĠÐ´Ð¾Ð¿Ð¾Ð»Ð½ Ð¸ÑĤÐµÐ»ÑĮÐ½ÑĭÑħ
ĠÐ¾ÑģÐ²Ð¾Ð± Ð¾Ð¶Ð´ÐµÐ½Ð¸Ðµ
ĠÐ½Ð°Ð¹ Ð´ÐµÐ½
ĠÐ¿Ð°ÑģÑģÐ°Ð¶Ð¸ÑĢ ÑģÐºÐ¸Ð¹
ĠÐĿÐ¾Ð²Ð³Ð¾ÑĢÐ¾Ð´ Ðµ
ĠÐ¾Ð¿ÐµÑĢ Ð½Ð°Ñı
ĠÑįÐºÑģÐ¿Ð»Ñĥ Ð°ÑĤ
ĠÐ¾Ð¿ÐµÑĢÐ°ÑĤÐ¾ÑĢ Ð¾Ð²
Ð½ÐµÑģÑĤ ÑĢÐ¾Ð²
ĠÐĿÐ°Ð¿Ð¾Ð»Ðµ Ð¾Ð½
ÐµÐ¼Ð¾Ð½ ÑģÑĤÑĢÐ¸ÑĢÐ¾Ð²
ĠÐ§ÐµÑĩ ÐµÐ½ÑģÐºÐ¾Ð¹
ÐĶÐ° Ð¶Ðµ
ĠÐ¤Ð¸Ð´ Ð¶Ð¸
ĠÐ°Ð¼Ð¼Ð¸ Ð°ÐºÐ°
ĠÐ»Ð°Ð½Ð´ ÑĪÐ°ÑĦ
ÐĴÐ¾Ð·Ð¼Ð¾Ð¶ Ð½Ð¾
ÐłÐ¾Ð± ÐµÑĢÑĤ
ĠÐľÐ¾Ñħ Ð°Ð¼
ÐĶÐ¼Ð¸ÑĤ ÑĢÐ¸Ð¹
1 14
A l
n et
o ut
Ð½ Ð°Ð²
Ð² Ð°Ð»ÑĮ
ÑĮ ÐµÐ¹
ÑĮ Ð¸Ñħ
ĠÐ² ÑģÑĤÐ°Ð²
ÐµÐ½ Ð°Ð´ÑĨ
Ñħ Ð²Ð°ÑĤ
ĠÐ´ ÑĥÐ¼Ð°
ĠÐ± Ð¾Ðµ
Ð¡ ÑĢÐ°Ð²Ð½
ÐµÐ¹ ÑģÑĤÐ²Ð¾
ÐµÐ´ Ðµ
ĠÐ¾Ð± Ð¾Ð³
ĠÑģÑĤ Ð°ÑĢÐ¸Ð½
Ð¾Ðº Ð°ÑĤ
ĠÐĲ ÑģÑĤÑĢÐ°ÑħÐ°Ð½
Ð¸Ð» Ð¾Ð½
ĠÐĴ Ð°
ĠÐĴ Ð¾ÑģÑĤÐ¾Ðº
ĠÐŁ Ð°ÑĢÐ°Ð³
ĠÐł ÐµÐ½
ĠÐł Ð°Ñģ
ĠÐ²Ñĭ ÐºÑĥÐ¿
ĠÐĳ Ðµ
ÐĿ ÐµÐ²
ÑĥÐ¼ Ð¾Ð²
ĠÐĿ ÐµÐ·Ð°Ð²Ð¸ÑģÐ¸Ð¼
ĠÐĶ Ð°Ð»
ÐĲ Ñħ
ĠÐ¿ÑĢÐ°Ð² Ð¸ÑĤÐµÐ»Ñı
ÐµÑĨ Ð¸ÐµÐ¹
ĠÐ°Ð¼ÐµÑĢÐ¸ÐºÐ°Ð½ ÑģÐºÐ¸Ðµ
ĠÐ·Ð°Ð² ÐµÑī
ĠÐ¿Ð¾Ð² ÑģÐµÐ´Ð½ÐµÐ²
ĠÐ¾ÑĢÐ³Ð°Ð½ Ð¸Ð·Ð¼Ð°
ĠÐ²Ð¾Ñģ ÑħÐ¾Ð´Ð¸ÑĤ
Ð§ ÐµÐ¼Ð¿Ð¸Ð¾Ð½
ĠÐ·Ð°Ð¼ ÐµÐ´
ĠÐ¶Ð¸Ð² ÑĳÑĤ
ÑĭÐ² Ð°Ð»ÑģÑı
ĠÐ°Ð½Ð³Ð»Ð¸Ð¹ ÑģÐºÐ¸Ñħ
ĠÐ¼Ð¾Ð´ ÐµÑĢÐ½Ð°
ĠÐ¡Ð¾Ð²ÐµÑĤ ÑģÐºÐ¸Ð¹
ĠÑĤÐ¾Ñĩ Ð½Ð¾ÑģÑĤÑĮÑİ
Ð¾Ð»Ð¾ÑĤ Ð¾Ð²Ð°
ĠÑĥÑģÑĤÐ°Ð½Ð¾Ð² Ð»ÐµÐ½Ð¸Ñı
ĠÐ·Ð°Ð½Ð¸Ð¼ Ð°Ð»Ð°
ĠÑģÐ¾Ð¾Ð±Ñī Ð¸Ð»
187 2
ĠÐ¿ÐµÑĢÐµÑħÐ¾Ð´ Ðµ
ĠÐ²ÐµÑĢ Ñĥ
ĠÑģÐ¿Ð¾ÑĢÑĤ Ð¸Ð²Ð½ÑĭÑħ
ĠÐ¸Ð½ÑĤÐµÑĢÐµÑģ Ñĭ
ĠÑĤÑĢÐ°Ð´Ð¸ÑĨÐ¸Ð¾Ð½ Ð½ÑĭÑħ
ĠÐ¾Ð±ÑĢÐ°ÑĤ Ð¸Ð»ÑģÑı
ĠÐ¿ÐµÑĢÐµÐ´Ð°Ñĩ Ð°
ĠÑĦÐ¸Ð³ ÑĥÑĢÑĭ
ĠÐ¿Ð¸Ñī ÐµÐ²Ð¾Ð¹
ĠÐ½Ð°Ð¿Ð°Ð´ ÐµÐ½Ð¸Ñı
ĠÑģÐ¿Ð¸ÑģÐº Ðµ
ĠÐŁÐµÑĢÑģ Ð¸Ð´
ĠÑĪÐ°ÑħÐ¼Ð°ÑĤ Ð¸ÑģÑĤ
ĠÐ¡ÑĤÐ¾Ð»ÑĭÐ¿ Ð¸Ð½Ð°
ĠÐ¢ÑĥÑĢÐºÐ¼ÐµÐ½Ð¸ ÑģÑĤÐ°Ð½Ð°
ÐµÐ¼Ð¿ÐµÑĢÐ°ÑĤ ÑĥÑĢÐ°
Ġ 00
Ðº ÐµÐ½
Ð¼ Ð¸ÑģÑĤ
ĠÐ¿ Ñĭ
Ñħ Ð¾ÑĤ
Ð³ Ð¾Ð²Ð¾Ð¹
ĠÐº Ð°ÑĢÐ¸
ĠÐ´ Ð°Ð»Ð¸
ÐµÑĤ ÑĤÐ¸
Ð¶ ÐµÑĢ
ĠÐ½Ð° ÑģÑĤÐ°Ð²
ĠÐ± Ð¸Ð½
ĠÐļ Ð¾Ðº
ĠÐŁ Ð¾ÑģÑĤÐ°Ð½Ð¾Ð²
ĠÐ¿ÐµÑĢ ÐµÐ¹
ĠÐĿ Ð¸ÑĨÑĪÐµ
Ðľ ÐĴ
Ðľ Ð°ÑĤÑĮ
Ð´Ðµ ÑģÑıÑĤ
ĠÑģÐº Ð¾ÑĤÐ°
ĠÐºÐ° Ð¶
ĠÐ¿ÑĢÐµÐ·Ð¸Ð´ÐµÐ½ÑĤ ÑģÐºÐ¸Ðµ
ĠÐ¿Ð¾Ð¿ Ð°Ð»
ĠÐ¾ÐºÑĤ ÑıÐ±ÑĢÑĮ
Ð¸ÑĢÐ¸ Ðº
ÐŀÐ± ÑĬÐµÐºÑĤ
ÐµÐ´ÐµÑĢÐ° ÑĨÐ¸Ð¸
ĠÑĥÐ³ Ð¾Ð´
ĠÐ½Ð°ÑĥÑĩ Ð½Ð°Ñı
ĠÐ±ÑĢÐ¸ÑĤÐ°Ð½ ÑģÐºÐ¸Ðµ
un t
ĠÐ¿ÑĢÐ¾Ð²Ð¾Ð´ Ð¸ÑĤÑĮ
ĠÑĪÑĤ Ð°ÑĤÐ¾Ð²
ĠÐ·Ð½Ð°ÑĩÐ¸ÑĤÐµÐ»ÑĮ Ð½Ð°Ñı
ĠÐ¿ÑıÑĤ Ð¸Ð»ÐµÑĤ
ĠÑİÐ¶ Ð½Ð¾Ð¼
ĠÐ¸ÑģÐ¿Ð¾Ð»Ð½ Ð¸ÑĤÐµÐ»ÑĮÐ½Ð¾Ð¹
187 4
ĠÐ´Ð²Ð¾ÑĢ ÑĨÐµ
ĠÐ¿ÑĢÐ°Ð·Ð´ Ð½Ð¸ÐºÐ¸
Ð¾ÐºÐ¾Ð¼ Ð¿
ĠÐ½Ð°Ð·ÑĭÐ² Ð°ÑĤÑĮÑģÑı
ĠÐ°ÑĢÐ°Ð± ÑģÐºÐ¾Ð³Ð¾
ĠÑĥÐ±Ð¸ÑĤ Ñĭ
ĠÑĤÑĢÐ°ÐºÑĤ Ð¾Ð²
ĠÐ¿Ð»Ð¾ ÑħÐ¾
ĠÐ¿Ð¾Ð²ÑĭÑĪ ÐµÐ½Ð¸Ñı
ĠÑĢÐ°Ð·Ð²Ð¸Ð² Ð°ÑĤÑĮÑģÑı
ĠÐ·Ð°Ð¿ÑĢÐµÑī ÐµÐ½Ð¾
ĠÐ²ÑĭÑģÐ¾ÑĤ Ñĥ
ĠÑĢÐ°ÑģÑģÐ¼Ð¾ÑĤ ÑĢ
ĠÐ¿ÐµÑĢÑģÐ¾Ð½Ð° Ð¶ÐµÐ¹
ĠÐ²Ð¾ÐºÐ· Ð°Ð»Ð°
ĠÐŁÐ°Ð½ Ð°Ð¼
ĠÐĹÐ°Ðº Ð°Ð²ÐºÐ°Ð·
ĠÐ½Ð°Ð¸Ð¼ÐµÐ½ Ð¾Ð²Ð°Ð½Ð¸Ðµ
ĠÐ½Ñĥ Ð»Ñİ
ĠÐ½ÐµÐ´Ð¾ÑģÑĤÐ°ÑĤÐ¾Ñĩ Ð½Ð¾
ÐļÐ¾ÑģÐ¼ Ð¾Ñģ
ĠÑģÐµÑĢÐ´ ÑĨÐ°
ĠÑĥÑģÑĤÑĮ Ñı
Ð½Ð°Ñģ Ð»ÐµÐ´
ĠÐ¿Ð¾Ð·Ð²Ð¾Ð½ Ð¾ÑĩÐ½ÑĭÑħ
ĠÐ¸ÑģÐºÐ° Ð¶
Ġ ÑĢÐ¾Ð²
Ð° ÑĨÐ¸Ñİ
Ð¼ Ð¾Ð³Ð¾
Ð· Ð¸Ð½
ĠÑģ Ð°Ð¶
ÐµÑĢ ÑĮÑİ
ĠÐ¾ Ð»Ð¸
ÑĢÐ¸ Ð»
ĠÑĤ ÑĥÐ´Ð°
Ð¸Ñı Ð¼
ÐĴ ÐĿ
ÐĴ ÐµÐ»Ð¸
ĠÐ¾ÑĤ ÑĢÐ°Ð¶ÐµÐ½Ð¸Ðµ
Ð°Ð´ Ð¸Ð¼
ĠÐĿ Ð¸ÐºÐ¸
ĠÐĿ Ð°Ð±
ĠÐĽ Ð°Ð·
ĠÐ¿Ð¾Ð´ ÑĢÑıÐ´
ÐµÐ»Ð¸ Ð»ÑģÑı
Ð¢ ÐŃ
ÑĨÐ¸Ñı Ð¼
ÑĢÐ¸ÑĤ ÑĮ
ĠÐ²ÑģÐµ Ñı
ĠÑĤÐµÑĢ Ð¼Ð¸Ð½Ñĭ
ĠÐ¼ÐµÑģÑĤ Ð½Ð¾Ð¹
ĠÐ¿ÑĢÐµÐ´ÑģÑĤÐ°Ð² Ð¸ÑĤÑĮ
ÑĥÑĪ ÐµÐ²
ĠÐ¿ÑĢÐ¾Ð´ ÐµÐ¼Ð¾Ð½ÑģÑĤÑĢÐ¸ÑĢÐ¾Ð²
ĠÐ½ÐµÐ¼ ÑĨÑĭ
Ġ6 1
ĠÐ²ÐµÐº Ñĥ
Ġ9 8
ĠÑĢÐ°Ð·Ð²Ð¸ÑĤ ÑĭÑħ
ĠÑģÑĩÐ¸ÑĤ Ð°Ñı
ÑĭÐ² Ð°Ð½Ð¸Ñı
ĠÐ¾ÑĤÐºÑĢÑĭÑĤ ÑĭÐ¼
ĠÐ¿ÑĢÐ¾Ð¼ÑĭÑĪÐ»ÐµÐ½ Ð½ÑĭÐµ
ĠÐ²ÑĭÑģÑĤÑĥÐ¿ Ð°ÑİÑĤ
ĠÐľÐ¸Ð½ ÑģÐº
ĠÐ¿Ð¾Ð»ÑĮ ÑģÐºÐ¾Ð¹
ĠÑİÐ¶ Ð½Ð¾
ĠÑĥÐ²ÐµÐ»Ð¸Ñĩ Ð¸Ð²Ð°ÐµÑĤÑģÑı
187 5
187 6
ĠÐľÐ¾ÑģÐºÐ¾Ð² ÑģÐºÐ¾Ð¼
ĠÐ¿ÑĢÐ¸Ñĩ Ð¸Ð½Ñĭ
Ġ184 4
ĠÐ»Ð¾Ð³ Ð¸ÐºÐ¸
ĠÑĦÐµÐ´ÐµÑĢÐ°Ð»ÑĮ Ð½ÑĭÑħ
ĠÐ¿ÑĢÐ¸Ð¾Ð± ÑĢÑĳÐ»
ĠÑıÐ´ÐµÑĢ Ð½Ð¾Ð¹
ĠÐ¿Ð¾ÑģÐ»ÐµÐ´Ð¾Ð²Ð°ÑĤÐµÐ»ÑĮ Ð½Ð¾
ÐľÐ°ÑĢ Ñģ
ĠÐļÐ¸ÑĢÐ¸ Ð±Ð°ÑĤÐ¸
ĠÐ¼Ð¸ÑģÑģ Ð¸Ð¸
ĠÐĲÑĦÐ³Ð°Ð½ Ð¸ÑģÑĤÐ°Ð½Ðµ
ĠÑĩÐµÑĤÐ²ÐµÑĢ ÑĤÐ¸
ĠÐĽÐ¸ÑĤÐ¾Ð² ÑģÐºÐ¾Ð³Ð¾
ĠÐ¸Ð½ÑĦÑĢÐ°ÑģÑĤÑĢÑĥÐºÑĤ ÑĥÑĢÑĭ
ĠÐĶÐµÐ¼Ð¾ÐºÑĢÐ°ÑĤ Ð¸ÑĩÐµÑģÐºÐ¾Ð¹
ĠÐ¥Ð¾ÑĢÐ²Ð°ÑĤ Ð¸Ð¸
Ð¡ÑĩÐ¸ÑĤ Ð°ÐµÑĤÑģÑı
ĠÐ¿ÑĢÐ¾ÑĤÐµÐºÑĤ Ð¾ÑĢÐ°ÑĤ
ĠÑģÐµÐ¿ Ð°ÑĢÐ°ÑĤ
X IV
[...]
