{"<s>":0,"<pad>":1,"</s>":2,"<unk>":3,"<mask>":4,"!":5,"\"":6,"#":7,"$":8,"%":9,"&":10,"'":11,"(":12,")":13,"*":14,"+":15,",":16,"-":17,".":18,"/":19,"0":20,"1":21,"2":22,"3":23,"4":24,"5":25,"6":26,"7":27,"8":28,"9":29,":":30,";":31,"<":32,"=":33,">":34,"?":35,"@":36,"A":37,"B":38,"C":39,"D":40,"E":41,"F":42,"G":43,"H":44,"I":45,"J":46,"K":47,"L":48,"M":49,"N":50,"O":51,"P":52,"Q":53,"R":54,"S":55,"T":56,"U":57,"V":58,"W":59,"X":60,"Y":61,"Z":62,"[":63,"\\":64,"]":65,"^":66,"_":67,"`":68,"a":69,"b":70,"c":71,"d":72,"e":73,"f":74,"g":75,"h":76,"i":77,"j":78,"k":79,"l":80,"m":81,"n":82,"o":83,"p":84,"q":85,"r":86,"s":87,"t":88,"u":89,"v":90,"w":91,"x":92,"y":93,"z":94,"{":95,"|":96,"}":97,"~":98,"¡":99,"¢":100,"£":101,"¤":102,"¥":103,"¦":104,"§":105,"¨":106,"©":107,"ª":108,"«":109,"¬":110,"®":111,"¯":112,"°":113,"±":114,"²":115,"³":116,"´":117,"µ":118,"¶":119,"·":120,"¸":121,"¹":122,"º":123,"»":124,"¼":125,"½":126,"¾":127,"¿":128,"À":129,"Á":130,"Â":131,"Ã":132,"Ä":133,"Å":134,"Æ":135,"Ç":136,"È":137,"É":138,"Ê":139,"Ë":140,"Ì":141,"Í":142,"Î":143,"Ï":144,"Ð":145,"Ñ":146,"Ò":147,"Ó":148,"Ô":149,"Õ":150,"Ö":151,"×":152,"Ø":153,"Ù":154,"Ú":155,"Û":156,"Ü":157,"Ý":158,"Þ":159,"ß":160,"à":161,"á":162,"â":163,"ã":164,"ä":165,"å":166,"æ":167,"ç":168,"è":169,"é":170,"ê":171,"ë":172,"ì":173,"í":174,"î":175,"ï":176,"ð":177,"ñ":178,"ò":179,"ó":180,"ô":181,"õ":182,"ö":183,"÷":184,"ø":185,"ù":186,"ú":187,"û":188,"ü":189,"ý":190,"þ":191,"ÿ":192,"Ā":193,"ā":194,"Ă":195,"ă":196,"Ą":197,"ą":198,"Ć":199,"ć":200,"Ĉ":201,"ĉ":202,"Ċ":203,"ċ":204,"Č":205,"č":206,"Ď":207,"ď":208,"Đ":209,"đ":210,"Ē":211,"ē":212,"Ĕ":213,"ĕ":214,"Ė":215,"ė":216,"Ę":217,"ę":218,"Ě":219,"ě":220,"Ĝ":221,"ĝ":222,"Ğ":223,"ğ":224,"Ġ":225,"ġ":226,"Ģ":227,"ģ":228,"Ĥ":229,"ĥ":230,"Ħ":231,"ħ":232,"Ĩ":233,"ĩ":234,"Ī":235,"ī":236,"Ĭ":237,"ĭ":238,"Į":239,"į":240,"İ":241,"ı":242,"Ĳ":243,"ĳ":244,"Ĵ":245,"ĵ":246,"Ķ":247,"ķ":248,"ĸ":249,"Ĺ":250,"ĺ":251,"Ļ":252,"ļ":253,"Ľ":254,"ľ":255,"Ŀ":256,"ŀ":257,"Ł":258,"ł":259,"Ń":260,"ĠÐ":261,"Ð¾":262,"Ðµ":263,"Ð°":264,"Ð¸":265,"Ð½":266,"Ñģ":267,"ÑĢ":268,"ÑĤ":269,"Ð¾Ð":270,"Ð»":271,"Ðº":272,"Ñĥ":273,"Ñı":274,"Ð²":275,"Ð¼":276,"Ñĭ":277,"ÑģÑĤ":278,"Ð´":279,"čĊ":280,"ĠÐ¿":281,"ÑĮ":282,"ĠÐ²":283,"ÐµÐ½":284,"ÑĢÐ°":285,"Ñĩ":286,"Ð¾Ð²":287,"Ð¹":288,"Ð·":289,"ĠÐ¸":290,"ĠÑģ":291,"Ñħ":292,"ÑģÐº":293,"Ð¿":294,"Ð°Ð½":295,"ÐµÑĢ":296,"ĠÐ¾":297,"ĠÐ½":298,"Ð±":299,"Ð³":300,"Ð¾ÑĢ":301,"Ð¾Ð´":302,"Ð¾Ð»":303,"ĠÐº":304,"Ð½Ñĭ":305,"ÑĨ":306,"ÑĢÐµ":307,"Ð»Ð¸":308,"Ñİ":309,"Ð¾Ð¼":310,"Ð¾Ð³":311,"ÑĢÐ¸":312,"Ð»ÑĮ":313,"ĠÐ´":314,"Ð¾Ð¹":315,"âĢ":316,"ÐµÑĤ":317,"Ð¾Ð½":318,"Ð¶":319,"âĢĶ":320,"ĠÐ³":321,"ĠÐ¼":322,"ÑĪ":323,"ÐµÐ½Ð¸":324,"Ð°ÑĤ":325,"ĠÐ½Ð°":326,"ĠÑĤ":327,"Ð½Ð¾":328,"ÑĦ":329,"Ð¸Ð¹":330,"Ð¸ÑĤ":331,"ĠâĢĶ":332,"Ð»Ð°":333,"Ġ(":334,"Ð¾Ñģ":335,"Ð¸Ð½":336,"ÑģÑĤÐ²":337,"ĠÐ±":338,"Ð¾ÑĤ":339,"ĠÐ°":340,"ÐµÐ¼":341,"Ð°ÑĢ":342,"Ð¾Ð³Ð¾":343,"Ð¸Ðº":344,"Ġ1":345,"Ñī":346,"Ð¸Ð¸":347,"Ñĳ":348,"Ð°Ðº":349,"Ð¸Ñı":350,"ÑģÑı":351,"Ð»Ðµ":352,"Ð°Ñı":353,"ĠÐ·":354,"ÑĩÐµ":355,"Ð¸Ðµ":356,"Ð¸Ð¼":357,"Ð»Ñı":358,"ĠÑĥ":359,"Ñį":360,"ÑĢÑĥ":361,"Ð°Ð¼":362,"Ð¡":363,"ÐµÐ»ÑĮ":364,"ĠÑĢÐ°":365,"ĠÐ¡":366,"Ð¾Ð±":367,"Ð¾ÑģÑĤ":368,"Ð°Ð»":369,"Â«":370,"Â»":371,"ĠÐ¿ÑĢ":372,"ÑģÐºÐ¸Ð¹":373,"ĠÑĩ":374,"ÐµÐ¹":375,"Ð°Ð²":376,"ÐĴ":377,"Ð¸Ñħ":378,"ĠÂ«":379,"ÐºÐ°":380,"ÐµÐ´":381,"Ð¸Ñģ":382,"ĠÐ³Ð¾Ð´":383,"ĠÐ¾Ð±":384,"ÐµÐ²":385,"ĠÐ¾ÑĤ":386,"ĠÑģÑĤ":387,"ÐŁ":388,"ĠÐļ":389,"Ð¾Ðº":390,"ÐµÐ½Ð¸Ñı":391,"Ð¾Ð·":392,"Ð¾Ð»ÑĮ":393,"Ð½ÑĭÑħ":394,"ĠÑĦ":395,"ĠÐ¿ÑĢÐ¸":396,"Ð¸Ð²":397,"ĠÑį":398,"ĠÐ½Ðµ":399,"Ð¸ÑĩÐµ":400,"ÐºÑĤ":401,"ĠÐĲ":402,"Ð½Ð¾Ð¹":403,"Ð¾Ð¶":404,"Ð¸Ð»":405,"Ð½Ð°":406,"ĠÐ»":407,"ĠÐ¸Ð·":408,"Ð½ÑĭÐ¹":409,"Ġ19":410,"ĠÐľ":411,"Ð¾Ð¿":412,"ĠÐĴ":413,"Ð°Ð»ÑĮ":414,"ÐµÐ»":415,"Ð¸Ð·":416,"),":417,"ĠÐ¿Ð¾":418,"ÑĢÐ°Ð½":419,"ÑģÐ¿":420,"ĠÐŁ":421,"ÑĢÐµÐ´":422,"Ð½ÑĭÐµ":423,"ÑĢÐ¾Ð²":424,"ÐµÐ½ÑĤ":425,"Ġ2":426,"Ð¸ÑĩÐµÑģÐº":427,"ÑĨÐ¸":428,"ĠÐ±Ñĭ":429,"Ð½Ð¾Ð³Ð¾":430,"ÐµÐ½Ð¸Ðµ":431,"Ð½Ð¾ÑģÑĤ":432,"Ð¸ÑģÑĤ":433,"ĠÐł":434,"ĠÐµ":435,"19":436,"ĠÐ¿ÐµÑĢ":437,"ÑıÑĤ":438,"ĠÑĢÐµ":439,"Ð°Ð»Ð¸":440,"Ð¼Ð¸":441,"Ð³Ð¾":442,"ÑĥÑİ":443,"ÑĤÐ¾":444,"ĠÐĵ":445,"Ð¸Ð´":446,"ÑĥÐ´":447,").":448,"ĠÐ²Ñĭ":449,"Ðļ":450,"ĠÐĳ":451,"ÐµÑĢÐ°":452,"Ð°Ð´":453,"ÑģÑģ":454,"ÑģÐºÐ¾Ð¹":455,"ÑĢÐ°Ð²":456,"Ð½Ð¸Ðº":457,"ĠÑı":458,"ÑİÑĤ":459,"ĠÑģÐ²":460,"ĠÐ¿Ð¾Ð»":461,"ÑĥÑĢ":462,"Ðł":463,"ÑĥÑĤ":464,"Ðŀ":465,"ÐĿ":466,"ĠÐ·Ð°":467,"ÐµÑģÑĤ":468,"ÑĨÐ¸Ð¸":469,"ÐµÐº":470,"00":471,"Ð¶Ðµ":472,"ĠÐ¶":473,"ÑģÐºÐ¾Ð³Ð¾":474,"ÑĥÐ¼":475,"ĠÑĢÐ°Ð·":476,"ĠÐĿ":477,"ĠÐ³Ð¾Ð´Ð°":478,"ÐºÐ¸":479,"Ð°ÑģÑĤ":480,"Ð²Ð°":481,"ÐµÑĤÑģÑı":482,"Ð½Ð°Ñı":483,"ĠÐĶ":484,"Ð¾ÑĤÐ¾ÑĢ":485,"ÑģÑĮ":486,"ÐĲ":487,"Ð¾Ðµ":488,"ĠÑĤÐ°Ðº":489,"ÑīÐµ":490,"Ð½Ð¸":491,"Ð¶Ð´":492,"ĠÑħ":493,"ÑĢÐµÐ¼":494,"ĠÐĽ":495,"ÑģÑĤÐ²ÐµÐ½":496,"ĠÐĺ":497,"Ð°Ð½Ð¸Ñı":498,"Ð½Ð¾Ð²":499,"Ð½Ðµ":500,"ĠÑĢ":501,"Ð¾Ñĩ":502,"Ð·Ñĭ":503,"ÑĤÐ°":504,"ĠÐ¿Ð¾Ð´":505,"Ð»Ð¾Ð²":506,"Ð¼ÐµÑĢ":507,"ÑĤÐ¾ÑĢ":508,"Ð¸ÑĤÐµÐ»ÑĮ":509,"ÑĥÑĩ":510,"ĠÐ¸Ð¼":511,"ÑģÐºÐ°Ñı":512,"ÑħÐ¾Ð´":513,"ĠÐ¢":514,"Ð°ÑĤÑĮ":515,"Ð´Ð°":516,"Ð°Ð¼Ð¸":517,"ÐµÐ»Ð¸":518,"ĠÐ¾Ñģ":519,"ĠÐ³Ð¾Ð´Ñĥ":520,"ĠÐºÐ¾ÑĤÐ¾ÑĢ":521,"Ð½ÑĭÐ¼":522,"ÑĭÑħ":523,"Ð¸Ð»Ð¸":524,"ÑĢÑı":525,"ĠÑĤÐµ":526,"Ð½Ð¾Ðµ":527,"ÑģÑĤÐ²Ð°":528,"ĠÐ¤":529,"Ðľ":530,"ĠÐ¿ÑĢÐ¾":531,"Ð»ÐµÐ½":532,"ĠÐ¿ÑĢÐµÐ´":533,"ÑĭÐµ":534,"Ð¾ÑģÑģ":535,"ÐºÐ¾Ð²":536,"Ð»Ð¾":537,"Ð°Ð¹":538,"ÑĢÐ¾":539,"Ð¸ÑĨ":540,"ÑĳÐ½":541,"Ð¾ÑĢÐ¾Ð´":542,"ÐĶ":543,"ÑĢÐ°Ð·":544,"ÑģÑĤÐ²Ð¾":545,"Ð½Ð¾Ð¼":546,"ĠÑģÐ¾":547,"Ð°Ñħ":548,"Ð°Ð·":549,"Ð¸Ñĩ":550,"ÑĥÐ±":551,"ÐµÐ·":552,"Ðĺ":553,"Ð°ÑĤÐµÐ»ÑĮ":554,"Ð½Ñı":555,"ĠÑĨ":556,"Ð¢":557,"ĠÐºÐ°Ðº":558,"Ð°Ð½Ð´":559,"Ð°Ð½Ð¸Ðµ":560,"ĠÑģÐ¾Ð²":561,"ÑĭÐ¹":562,"ĠÑĩÑĤÐ¾":563,"ĠÐ´Ðµ":564,"ÑĥÑģ":565,"Ð¸ÑĢ":566,"Ð»ÐµÐ´":567,"ĠÐºÐ¾Ð½":568,"Ð½Ð¾ÑģÑĤÐ¸":569,"ĠÐ¿ÑĢÐµ":570,"ĠÑįÑĤ":571,"ĠÐŀ":572,"ÑĢÐ°ÑĤ":573,"Ð´Ðµ":574,"Ð½Ð¾ÑģÑĤÑĮ":575,"ÑĥÐ½":576,"ĠÐ´Ð»Ñı":577,"ĠÐ¿Ð¾Ñģ":578,"Ð¾Ñı":579,"ÐµÑģ":580,"Ð»Ð°Ð²":581,"Â».":582,"ĠÐ²Ð¾":583,"ĠÐºÐ¾Ð¼":584,"ĠÐ¾Ð´":585,"Ð°Ñģ":586,"18":587,"Ġ20":588,"ĠÐ¾Ð¿":589,"Ðĵ":590,"ĠÑĪ":591,"Ð³Ð°":592,"ĠÐ¸Ð½":593,"Ð¸Ð±":594,"ÐºÐ¾":595,"ÑĨÐ¸Ð¾Ð½":596,"ÐµÑĩ":597,"Ð°Ð»Ð°":598,"Ġ18":599,"ĠÑĤÐ°ÐºÐ¶Ðµ":600,"Ð±ÑĢÑı":601,"ÑĢÑĭ":602,"ÑģÐºÐ¸Ñħ":603,"ĠÑģÐ¾ÑģÑĤ":604,"ĠÐ²Ñģ":605,"ĠÐ°Ð²":606,"Ðĳ":607,"ĠÑĢÑĥ":608,"ÑĥÐ¿":609,"ÐµÐ³":610,"Â»,":611,"Ð¸ÑĢÐ¾Ð²":612,"ĠÐ³Ð¾ÑĢÐ¾Ð´":613,"II":614,"Ð¼Ð°":615,"ĠÑģÐ¿":616,"ÐµÐµ":617,"ÑİÑī":618,"ÑĢÑĥÐ³":619,"ÑĥÐ»ÑĮ":620,"Ð»Ñİ":621,"Ð¸Ð»ÑĮ":622,"Ð¾ÑĢÐ°":623,"ÐµÐ½Ð°":624,"ÑĨÐ¸Ñı":625,"Ð¾Ð»ÑĮÑĪ":626,"ÑĬ":627,"ÐµÐ»Ðµ":628,"ÑĳÑĤ":629,"Ð·Ð°":630,"ÑĢÐ¾Ð´":631,"Ð¾ÑģÑĥÐ´":632,"ĠÐ¿ÑĢÐ°Ð²":633,"ĠÑĩÐ°ÑģÑĤ":634,"ÑĳÑĢ":635,"Ð°Ð½Ð°":636,"Ð¾Ð»Ð¾Ð³":637,"ĠÐ¿ÐµÑĢÐ²":638,"Ð¾ÑģÑĥÐ´Ð°ÑĢ":639,"ĠÐ´Ð¾":640,"Ð¸Ð½Ð°":641,"ĠÐµÐ³Ð¾":642,"Ð°Ð½Ð¾Ð²":643,"Ð°Ð½ÑĤ":644,"Ð½Ð°Ñĩ":645,"ĠÐ°ÑĢ":646,"ĠÐ²Ð¾Ð·":647,"ÐºÐµ":648,"ĠÑĩÐµ":649,"ĠÐ²ÑĢÐµÐ¼":650,"Ð°ÑĢÑĤ":651,"ÐµÑĨ":652,"ĠÐ¸ÑģÐ¿":653,"ÐµÐ½ÑĮ":654,"Ð²Ð»Ñı":655,"ĠÐ´Ð²":656,"Ð¸Ð¿":657,"ÑģÑĤÐ°Ð²":658,"ĠÐ¼Ðµ":659,"ĠÐ¾ÑģÐ½Ð¾Ð²":660,"ĠÐ¥":661,"ĠÑĥÑĩ":662,"ÑıÐ½":663,"ÑģÐ°":664,"ĠÐ±ÑĭÐ»":665,"ĠÐ½Ð°Ñĩ":666,"Ð¸ÑĤÑĮ":667,"ĠÐķ":668,"Ð»Ð°ÑģÑĤ":669,"Ð°ÑĢÐ¸":670,"ÐºÐ¾Ð½":671,"Ð±Ð¾ÑĤ":672,"ÐµÐ½Ð¸Ð¸":673,"Ð¤":674,"ÑĥÐ¶":675,"Ð°Ð³":676,"ĠÐ²Ð¾Ð¹":677,"Ð°ÑĢÐ°":678,"ÑİÑĤÑģÑı":679,"ĠÐŃ":680,"Ð¾Ð³ÑĢÐ°":681,"ÑģÐºÐ¸Ðµ":682,"ĠÑģÐ¾Ð²ÐµÑĤ":683,"Ġ200":684,"Ð½ÑĥÑİ":685,"ÐŃ":686,"Ð°Ð½Ð¸Ð¸":687,"Ð¾ÑģÑģÐ¸Ð¹":688,"ÐĽ":689,"Ð½ÑĭÐ¼Ð¸":690,"Ð¾Ð½Ð°":691,"Ð¸Ð»Ð°":692,"Ð¡Ðł":693,"ÑĢÑĥÐ¿":694,"Ð¸Ñİ":695,"Ð°Ð¿":696,"ĠÐ¸Ð»Ð¸":697,"Ġ3":698,"Ð°ÐµÑĤ":699,"ĠÐ°ÐºÑĤ":700,"ÐµÐºÑĤ":701,"ĠÑģÐ°Ð¼":702,"Ð¸Ð¼Ð¸":703,"ÑĥÐ·":704,"ĠÐ£":705,"ÐºÑģ":706,"ÑĥÑīÐµ":707,"Ġ%":708,"ÐµÐ½Ð¸Ð¹":709,"ĠÑıÐ²Ð»Ñı":710,"ÑģÐºÐ¾Ð¼":711,"Ð¾ÑĢÑĤ":712,"ÑĥÑģÑĤ":713,"ÐµÐºÐ°":714,"ÑĭÐ¼":715,"ĠÐ³Ð¾ÑģÑĥÐ´Ð°ÑĢ":716,"ĠÐĹ":717,"20":718,"ÐµÐ¿":719,"Ð¸Ð¾Ð½":720,"Ð¸ÐºÐ°Ð½":721,"Ð¾Ð»ÑĮÐ·":722,"ĠÐ´ÑĢÑĥÐ³":723,"ÑĢÐ¸ÑĤ":724,"ĠÐºÐ¾ÑĢ":725,"ĠÐ¸ÑģÑĤ":726,"ÑĥÐ»ÑĮÑĤ":727,"ĠÑģÐ²Ð¾":728,"ÐĹ":729,"Ð¸Ð³":730,"ÑĢÐ¾Ð¼":731,"ÐĿÐ°":732,"ÑĢÐ¾Ð¿":733,"Ð²ÐµÑĢ":734,"Ð»Ð°Ð´":735,"Ð¼ÐµÐ½":736,"ÐµÐ¶":737,"Ð½ÐµÐ¹":738,"ĠÐ°Ð½":739,"Ð£":740,"ĠÑģÐ¾Ð±":741,"ÐºÑĥ":742,"Ð¸ÐºÐ°":743,"ĠÑģÐ¾ÑģÑĤÐ°Ð²":744,"ĠÐ¾ÑĢ":745,"Ð¾Ð·Ð´":746,"Ð¾ÑĦ":747,"ĠÐ¿Ð¾ÑģÑĤ":748,"ÑĤÑĮ":749,"ĠÐ¨":750,"ÐµÐ»Ñı":751,"17":752,"Ð¾ÑģÑĮ":753,"ĠÑģÐ»":754,"ÑĢÐ¸ÑģÑĤ":755,"ĠÐ²ÑģÐµ":756,"ÑĥÑħ":757,"ĠX":758,"ÐµÑĢÐ²":759,"ÑĪÐµ":760,"Ð¸ÐºÐ¸":761,"Ð¾Ð»ÐµÐµ":762,"ĠÑĤÐµÑĢ":763,"Ð²Ð¾Ð´":764,"ĠÐ¸Ñİ":765,"ĠÑıÐ·Ñĭ":766,"Ð¾ÑĢÐ¼":767,"ĠI":768,"ÑĥÐ±Ð»Ð¸":769,"Ð¼ÐµÑĢÐ¸ÐºÐ°Ð½":770,"ĠÐ¼Ð¸":771,"ĠÐ·Ð°Ðº":772,"ĠÑĢÑĥÑģ":773,"ĠÐºÐ¾Ð¼Ð¿":774,"ÐµÑĤÐ°":775,"ĠÐ¾Ð±ÑĬ":776,"ĠÐ¿ÑĢÐ¾ÑĤ":777,"ĠÑĩÐµÐ»Ð¾Ð²":778,"Ġ4":779,"Ð»ÐµÐ½Ð¸Ñı":780,"ĠÐ½Ð°Ñģ":781,"ĠÐ¾Ðº":782,"ĠÐĲÐ½":783,"Ð³Ð°Ð½":784,"ĠÐ¾Ð±ÑĢÐ°Ð·":785,"ĠÐ½Ð°Ð¿":786,"Ð¡Ð¡Ðł":787,"ÑĨÐ°":788,"ĠÐ°Ð¼ÐµÑĢÐ¸ÐºÐ°Ð½":789,"ÑıÐ·":790,"ÐµÑĢÐ¶":791,"ÑĳÐ¼":792,"Ð¾Ð»ÑĮÐºÐ¾":793,"ÑĭÑĤ":794,"ĠÐłÐ¾ÑģÑģ":795,"Ð²ÐµÐ´":796,"ĠÐ±Ð¾Ð»ÑĮÑĪ":797,"Ð¸ÑģÑĤÐµÐ¼":798,"ĠÑĢÐ°ÑģÐ¿":799,"ĠÐ¼ÐµÐ¶Ð´":800,"Ġ199":801,"Ð¨":802,"ÑĤÐ¸":803,"Ð»Ð¸Ñĩ":804,"ÐŁÑĢÐ¸":805,"ĠÑĩÐ¸Ñģ":806,"Ð·Ð²":807,"ĠÐ¿Ð¸Ñģ":808,"Ġ201":809,"Ð»ÑİÑĩ":810,"ÐµÐ½Ñĭ":811,"ÐµÑĢÐ°ÑĤ":812,"ĠÐ¼Ð½":813,"Ð¿ÑĢÐµ":814,"er":815,"ĠÐ¡Ð¡Ð¡Ðł":816,"Ð°Ð±":817,"ÐµÐ½Ð¸Ñİ":818,"Ġ5":819,"ĠÐ¿ÑĢÐ¾Ð¸Ð·":820,"ÐµÐ±":821,"Ð¸ÐµÐ¹":822,"ĠÐ¼ÐµÑģÑĤ":823,"Ð°ÑĢÑı":824,"ĠÐ²ÑĢÐµÐ¼Ñı":825,"ĠÐ¸ÑģÐ¿Ð¾Ð»ÑĮÐ·":826,"Ð¾Ð²Ð°Ð½":827,"ĠÐ§":828,"Ð»ÐµÐºÑģ":829,"ÑıÐ±ÑĢÑı":830,"ÑĥÐº":831,"ÐºÐ°Ð·":832,"ĠÐ±ÑĭÐ»Ð¸":833,"ÑĢÐ¾Ð½":834,"Ð·Ð¸Ð´":835,"Ð°Ð»Ð¾":836,"ÑĥÑīÐµÑģÑĤÐ²":837,"ÑĥÐ»":838,"ĠÐºÐ¾Ð»":839,"Ð´Ð¸":840,"ĠÑģÐ¸ÑģÑĤÐµÐ¼":841,"ĠÐ¾ÑģÑĤ":842,"ÐµÐ½Ð¸ÐµÐ¼":843,"ĠÑĢÐ¾ÑģÑģÐ¸Ð¹":844,"Ð¾Ð¼Ñĥ":845,"ÐµÐ¹ÑģÑĤÐ²":846,"ÑĭÑģ":847,"ĠÐ¸Ð¼Ð¿":848,"ĠÑģÑĢÐµÐ´":849,"Ð¾ÑģÑĤÐ¸":850,"ĠÐ±ÑĭÐ»Ð¾":851,"Ð²ÐµÑĤ":852,"ÑĢÐ°Ð¶":853,"ÑĮÑİ":854,"Ð¸ÑĩÐµÑģÐºÐ¾Ð¹":855,"ĠÐ¾Ð½":856,"ÐµÑĢÑģ":857,"ĠÐ®":858,"ÐµÐ¼Ð¿":859,"ĠÐ´Ð¾Ð»":860,"Ð°ÑģÑģ":861,"ĠÐ½Ð¾":862,"ÑĥÑĢÐ°":863,"Ð¾Ð¶Ð´":864,"Ð¾ÑģÐº":865,"Ð²Ð¾Ð»":866,"ĠÑĢÐ°Ð±Ð¾ÑĤ":867,"ĠÐ¿ÑĢÐ¾Ð²":868,"Ð¸ÑĩÐµÑģÐºÐ¸Ñħ":869,"ĠÐ±ÑĭÐ»Ð°":870,"ÑĨÐ¸Ð°Ð»ÑĮ":871,"ĠÐ¾ÑĤÐ½Ð¾":872,"Ð¼Ð¸Ð½":873,"ÐµÑģÑģ":874,"ĠÐ¸ÑģÑĤÐ¾ÑĢ":875,"ĠÐ¦":876,"Ð°ÐµÑĤÑģÑı":877,"Ð½Ð°Ðº":878,"ÑĢÐ¾Ñģ":879,"ÑĭÑĪ":880,"Ð´Ð¸Ð½":881,"ĠÐ¿ÑĢÐµÐ´ÑģÑĤÐ°Ð²":882,"ÑģÐºÐ¾Ðµ":883,"ĠÑģÑĤÑĢÐ°":884,"ÑĪÐ¸Ð¹":885,"ĠÐ¼Ð¾Ð¶":886,"ĠÐ¿Ð»":887,"Ð»ÐµÐºÑĤ":888,"Ð¸Ð½Ñĭ":889,"Ð·Ð¸Ð´ÐµÐ½ÑĤ":890,"ÑıÑĤÐµÐ»ÑĮ":891,"ĠÐ¿Ð¾Ð»ÑĥÑĩ":892,"ÑģÑĤÑĮ":893,"ĠÐ½Ð¾Ð²":894,"ÑĥÑĪ":895,"Ð°Ð»Ð¸ÑģÑĮ":896,"ÑģÑĤÐ²Ðµ":897,"ÑģÑĤÑĥÐ¿":898,"ÐµÐ²ÐµÑĢ":899,"ĠÑıÐ²Ð»ÑıÐµÑĤÑģÑı":900,"Ðķ":901,"ĠÐłÐ¾ÑģÑģÐ¸Ð¸":902,"Ð¿Ð¾Ð»":903,"Ð¸Ð½Ð¾":904,"ĠÐ¿ÑĢÐ¾Ð´":905,"Ð¿ÑĢÐ¸":906,"Ð»ÐµÐ½Ð¸Ðµ":907,"Ġ17":908,"Ð»Ð°ÑģÑĤÐ¸":909,"ĠÑģÐº":910,"ĠÑįÐº":911,"ĠÑģÐ¾Ð·Ð´":912,"ĠÐ¸Ñħ":913,"ÐµÐ»ÐµÐ¹":914,"ÑĥÑİÑī":915,"ĠÐ²Ð¸Ð´":916,"Ð¼Ð°ÑĤ":917,"in":918,"ĠÑĤÐ¾":919,"Ð·ÑĭÐ²Ð°":920,"ĠÐ¼Ð°ÑĢ":921,"ĠÐ·Ð°Ð¿":922,"ÐµÐ´Ð¸Ð½":923,"ĠÐ·Ð°Ð²":924,"Ð¸Ð¶":925,"ÑĢÐ¸ÑĤÐ¾ÑĢ":926,"ĠÐ¿ÑĢÐ¸Ð½":927,"Ð¸ÑĩÐµÑģÐºÐ¸Ðµ":928,"Ð¸ÐµÐ¼":929,"ÐºÐ¸Ð¹":930,"ÐµÑģÐ¿":931,"Ð¸ÑģÑģ":932,"ĠÑĥÐ¿":933,"ÑĢÐ°Ð½ÑĨ":934,"ĠÑģÐ¾Ð²ÐµÑĤÑģÐºÐ¸Ð¹":935,"Ð¾Ð²Ð°":936,"ÐµÑĢÐ½":937,"ĠÐ¯":938,"ÑıÑĤÑĮ":939,"Ð³Ð¸":940,"ÑįÑĤ":941,"ĠÐ²ÐµÐºÐ°":942,"ĠÐ¶Ðµ":943,"ĠÐ½ÐµÐ¼":944,"ĠÐ¸Ð¼Ðµ":945,"Ð³ÑĢÐ°":946,"ĠÐºÐ°":947,"ÐµÑĢÐ³":948,"on":949,"ÐµÑĢÐ¼":950,"ĠÐ¼ÐµÑĤ":951,"Ð¾Ð³Ð´Ð°":952,"ÐºÑĢÑĭ":953,"Ð¾Ð³ÑĢÐ°ÑĦ":954,"ÑıÐ²":955,"ÑĢÑĥÐ¿Ð¿":956,"ĠÐ¿Ð¾Ð»Ð¸ÑĤ":957,"Ð¸ÑĩÐµÑģÐºÐ¸Ð¹":958,"ĠÐ¿Ð¾Ð²":959,"ÐŁÐ¾":960,"ĠÐ²ÑĭÑģ":961,"15":962,"ĠÐ±Ð¾Ð»ÐµÐµ":963,"Ð¼Ðµ":964,"ÑģÐºÐ°":965,"Ġ6":966,"ÑĥÑī":967,"Ð²ÐµÑģÑĤ":968,"ÑĢÐµÐ¼ÐµÐ½":969,"ĠÐ¼ÐµÐ¶Ð´Ñĥ":970,"Ð¸ÑĤÑģÑı":971,"ÑĨÐ¸Ð¾Ð½Ð°Ð»ÑĮ":972,"ĠÐ¿Ð¾ÑģÐ»Ðµ":973,"ĠÐ»ÐµÑĤ":974,"ĠÑĢÐ°Ð·Ð²":975,"ÑĪÐ¸Ñħ":976,"Ð°ÑİÑĤ":977,"ÑıÑī":978,"16":979,"ÑĪÐ¸Ðµ":980,"an":981,"ĠÐ¡ÑĤ":982,"ĠÐ³ÑĢÐ°":983,"ĠÐ¿Ð¾Ðº":984,"ĠÐĶÐ¶":985,"ÐµÐ»ÐµÐ½Ð¸Ñı":986,"Ð°Ð¶":987,"Ð¾Ð²Ð°Ð½Ð¸Ñı":988,"ÐºÑĢÐ°":989,"Ð½Ð¸ÐºÐ¾Ð²":990,"Ð¸ÑĪ":991,"Ð²Ðµ":992,"ĠÐ½Ð°ÑĢÐ¾Ð´":993,"Ð¾Ð³Ð»Ð°":994,"ÑĢÐµÑĤ":995,"ÑģÐºÐ¸Ð¼":996,"Ð¸ÑĩÐµÑģÐºÐ¾Ð³Ð¾":997,"ÑĳÐ»":998,"ĠÑĥÑģÑĤ":999,"Ð°ÑİÑī":1000,"10":1001,"Ð°ÑĢÐ¾Ð´":1002,"ĠÑĤÐµÑĢÑĢÐ¸ÑĤÐ¾ÑĢ":1003,"ĠII":1004,"Ð¾ÑĢÐ¸Ñı":1005,"ÐµÑĢÑĤ":1006,"ÑĨÑĭ":1007,"ĠÐ¾ÑĢÐ³Ð°Ð½":1008,"ĠÑģÐ²ÑıÐ·":1009,"Ð¡Ð¼":1010,"ĠÐĲÐ»ÐµÐºÑģ":1011,"Ð¾ÑģÐ¾ÑĦ":1012,"Ð³Ð»Ð¸":1013,"ÑĩÐ¸ÑĤ":1014,"ĠÑİ":1015,"ĠÐ²ÐµÐº":1016,"ÐµÑĢÐ±":1017,"ÑĥÐµÑĤ":1018,"Ð³ÑĥÑģÑĤ":1019,"Ð°Ð»ÑģÑı":1020,"Ð¨ÐĲ":1021,"Ġ198":1022,"ĠÐ·Ð½Ð°Ñĩ":1023,"ĠÐ²Ð¾Ñģ":1024,"ÑĢÐ°Ð½ÑĨÑĥÐ·":1025,"Ð¾Ð²Ð¾ÑĢ":1026,"Ð§":1027,"Ð¸Ð»Ð¾ÑģÐ¾ÑĦ":1028,"12":1029,"ÑĢÐµÐ²":1030,"ĠÑĢÐµÐ·":1031,"Ġ7":1032,"Ð¾ÑĪ":1033,"ĠÐķÐ²":1034,"ĠÐ¼Ð°ÑĤ":1035,"ĠÑįÑĤÐ¾":1036,"ÐºÐ¾Ð¼":1037,"ĠÐ¿ÑĢÐ¾ÑĤÐ¸Ð²":1038,"Ð»ÐµÐ¼":1039,");":1040,"Ð¾Ð²Ð¾Ð¹":1041,"ÑĨÐ¸Ñİ":1042,"ÑĥÑĢÐ³":1043,"ĠÐ²Ð¾Ð´":1044,"Ð°ÑĪ":1045,"ĠÐ¾Ð±ÑīÐµ":1046,"ÑĢÐµÐ±":1047,"Ð¥":1048,"ĠÐ¿ÑĢÐµÐ·Ð¸Ð´ÐµÐ½ÑĤ":1049,"ĠÐ¼Ð¾ÑĢ":1050,"en":1051,"14":1052,"ÐºÐ¾Ð¹":1053,"Ð¾Ñħ":1054,"ĠÐ´ÐµÑıÑĤÐµÐ»ÑĮ":1055,"ĠÐ³Ð¾ÑĢÐ¾Ð´Ð°":1056,"Ð¾ÑģÑĤÑĢÐ°Ð½":1057,"ÑĢÐ¸ÑģÐ°":1058,"Ð¾ÑģÐ¼":1059,"ĠÐ½Ð°Ð·Ð²":1060,"ÑĮÑı":1061,"ĠÑıÐ½":1062,"ĠÐ»Ñİ":1063,"Ð°Ñĩ":1064,"ĠÐ³Ð¾ÑģÑĥÐ´Ð°ÑĢÑģÑĤÐ²ÐµÐ½":1065,"Ð±Ð¾ÑĢ":1066,"ĠÐ¾ÑĤÐºÑĢÑĭ":1067,"ÐµÐ½Ð¾":1068,"ĠÑĩÐµÐ»Ð¾Ð²ÐµÐº":1069,"ĠÐ¸ÑģÐº":1070,"ÑĦÐ¾ÑĢ":1071,"Ð½Ð¸Ð¼":1072,"ÑĢÐ°Ñģ":1073,"ĠÐ´Ð¸":1074,"Ð¼Ð¿":1075,"Ìģ":1076,"ÑĦÐ¸":1077,"Ð¸Ð·Ð°":1078,"ĠÐ²Ð¾ÐµÐ½":1079,"Ġ194":1080,"Ġ197":1081,"ĠÐ¡Ð¨ÐĲ":1082,"ĠÐµÑĳ":1083,"Ð¾Ð¶Ðµ":1084,"ÑĨÐµÐ²":1085,"Ð°ÑĤÑĭ":1086,"Ð¸Ð°Ð½":1087,"Ð½Ð´":1088,"ÑĥÑĢÐµ":1089,"Ð°Ð»Ðµ":1090,"Ġ8":1091,"ĠÑĤÐ¾Ð»ÑĮÐºÐ¾":1092,"ĠÐ³ÑĢÑĥÐ¿Ð¿":1093,"Ð¾Ð½Ñĭ":1094,"Ð¾Ð»Ð½":1095,"Ð¾Ð»Ð¾":1096,"ĠÐºÐ¸Ð½Ð¾":1097,"ĠÐ¿Ð¾Ð·":1098,"Ð¸Ð»Ð¸ÑģÑĮ":1099,"ÑĤÐ¾Ð¼":1100,"ÐµÑħ":1101,"ĠÐ³Ð»Ð°Ð²":1102,"13":1103,"Ð½Ð¸ÐºÐ¸":1104,"Ð¼ÐµÐ½ÑĤ":1105,"Ð¸ÑĤÐµÑĢÐ°ÑĤ":1106,"ÑĢÐ°Ð»ÑĮ":1107,"ĠÑĢÐ°Ñģ":1108,"ÐµÑĢÑħ":1109,"ĠÑģÐ¾ÑģÑĤÐ¾Ñı":1110,"Ð¸ÑĢÑĥ":1111,"Ġ15":1112,"Ġ196":1113,"Ð±Ñĭ":1114,"Ð¸Ð»ÑģÑı":1115,"Ð»Ð°Ð³":1116,"ĠÑĦÑĢÐ°Ð½ÑĨÑĥÐ·":1117,"ĠÐ¡Ð¾Ð²":1118,"ĠÐľÐ¾ÑģÐº":1119,"ĠÐ´ÐµÐ¹ÑģÑĤÐ²":1120,"ĠÐ´Ð°Ð½":1121,"ĠÑĨÐµÐ½ÑĤ":1122,"ÑıÐ´":1123,"ĠÐ¿Ð¾Ð¼":1124,"ĠÐ¿Ð¾ÑĤ":1125,"ĠÑĤÐ¾Ð¼":1126,"ĠÑģÑĤÑĢÐ°Ð½":1127,"ÑĨÐ¸Ð¹":1128,"ĠÐ¿Ð¾ÑģÐ»ÐµÐ´":1129,"Ġ9":1130,"ÐµÑĢÑĪ":1131,"ĠÑģÐ»Ð¾Ð²":1132,"ÐºÐ¾Ð½Ð¾Ð¼":1133,"ĠÐ¿Ð°ÑĢ":1134,"ĠÐ¸Ð½ÑĤ":1135,"ĠÐ¿Ð°ÑĢÑĤ":1136,"ĠÐºÐ¾ÑĤÐ¾ÑĢÑĭÐµ":1137,"ĠS":1138,"ĠÐ´ÐµÐºÐ°":1139,"ĠÐ¿Ð¾Ð¿":1140,"Ð¾ÑģÑĤÑĮ":1141,"Ð¢Ð°Ðº":1142,"es":1143,"ÐµÑĢÐ¸":1144,"ĠÐ¾Ð¿ÑĢÐµÐ´":1145,"or":1146,"ĠÐ·Ð°Ð½":1147,"Ð¼ÐµÑĩ":1148,"ÑĥÑİÑĤ":1149,"ĠC":1150,"Ð½Ð°ÐºÐ¾":1151,"Ð¼Ñĭ":1152,"Ð½Ñĥ":1153,"ÑĥÑĢÑĭ":1154,"Ð¼Ñĥ":1155,"ĠÐ¿Ð¸ÑģÐ°ÑĤÐµÐ»ÑĮ":1156,"ĠÐ°ÐºÑĤÑĢÐ¸ÑģÐ°":1157,"ĠÑĤÐµÐ°ÑĤ":1158,"200":1159,"ÐµÑĤÑĭ":1160,"ĠÐĲÑĢ":1161,"Ð¾Ñī":1162,"ĠÐ¿ÑĢÐµÐ¼":1163,"ÐµÐ¼Ð¿Ð¸Ð¾Ð½":1164,"ĠÐ¿Ð¾ÑįÑĤ":1165,"ÑģÑĤÐ²Ð¾Ð¼":1166,"ĠÑĦÐ¸Ð»Ð¾ÑģÐ¾ÑĦ":1167,"Ð¾Ð³ÑĢÐ°Ð¼":1168,"Ð½Ð¾Ð¼Ñĥ":1169,"Ð°Ð»Ð¾ÑģÑĮ":1170,"ĠÐļÐ¾Ð½":1171,"Ð°ÑĤÐ°":1172,"ĠÐ¾ÐºÑĤ":1173,"ĠÑĢÐ¾ÑģÑģÐ¸Ð¹ÑģÐºÐ¸Ð¹":1174,"ĠÑģÑĥÑīÐµÑģÑĤÐ²":1175,"Ð¸ÑĩÐµÑģÐºÐ°Ñı":1176,"ĠÐ½ÐµÐ¼ÐµÑĨ":1177,"ĠÐ°Ð²Ð³ÑĥÑģÑĤ":1178,"ĠÐ½Ð°ÑħÐ¾Ð´":1179,"ĠÑģÐµÐ½ÑĤ":1180,"ĠÐ°Ð¿ÑĢÐµ":1181,"ĠÐ¼Ñĥ":1182,"ĠÑģÐµÑĢ":1183,"ĠÐ°Ð¼ÐµÑĢÐ¸ÐºÐ°Ð½ÑģÐºÐ¸Ð¹":1184,"Ð¼ÐµÑģÑĤ":1185,"ĠÑıÐ½Ð²":1186,"ĠÑĥÑģ":1187,"ĠÑģÑĤÑĢÐ°Ð½Ñĭ":1188,"ĠÐ¼Ð¸ÑĢÐ°":1189,"Ð¾Ð±Ñĭ":1190,"Ġ193":1191,"Ð¾Ñİ":1192,"Ð°ÑĢÐ´":1193,"ĠÑĤÐµÐ»Ðµ":1194,"ÑģÑĤÐ¸ÑĤ":1195,"199":1196,"Ð»Ð°Ð½Ð´":1197,"Ð¼Ð¾Ð¶":1198,"ĠÐ¿ÑĢÐ°Ð²Ð¸ÑĤÐµÐ»ÑĮ":1199,"ĠÐ±ÐµÐ·":1200,"ĠÐ·ÐµÐ¼":1201,"ĠÑĤÑĢÐ°":1202,"Ð²Ð¾ÑĢ":1203,"ÐµÐ»Ð¸Ðº":1204,"ÑĦÐµÑĢ":1205,"ÑĢÐ°Ñī":1206,"Ð°Ð½Ñĭ":1207,"ÐµÐ½ÐµÑĢÐ°":1208,"Ð»Ð¾Ð¶":1209,"ÑĢÑĥÐ´":1210,"ĠÑıÐ½Ð²Ð°ÑĢÑı":1211,"ĠÐ¾Ð±Ð»Ð°ÑģÑĤÐ¸":1212,"ĠÑĩÐµÐ¼Ð¿Ð¸Ð¾Ð½":1213,"ĠÐ¼Ð°Ñı":1214,"ÐµÐ½Ð½Ð¾":1215,"Ð·Ð½":1216,"Ð¸ÑģÐ¸Ð¼":1217,"ĠÐºÐ¾ÑĤÐ¾ÑĢÑĭÐ¹":1218,"Ð¾ÑĢÐ¾Ð½":1219,"Ð¾Ð²Ð°Ð½Ð¸Ðµ":1220,"ĠÐ¼Ð½Ð¾Ð³":1221,"22":1222,"ĠÐ¿ÐµÑĢÐµÐ´":1223,"Ð»Ð°ÑģÑģ":1224,"ĠÐ´Ð¾ÑģÑĤ":1225,"Ð°ÐºÑĤ":1226,"ĠÑĢÐ°Ð·Ð²Ð¸ÑĤ":1227,"Ð°ÑĢÑĮ":1228,"ĠÑĢÐ°Ð¹":1229,"ĠÐĲÐ»ÐµÐºÑģÐ°Ð½Ð´":1230,"ÑĥÐ»Ñı":1231,"ĠÑĦÐ¾ÑĢÐ¼":1232,"ĠÐ½ÐµÐº":1233,"Ð½ÑĥÑĤ":1234,"Ð¾Ð´Ð°":1235,"ĠÐ¼Ð°ÑĢÑĤÐ°":1236,"ar":1237,"196":1238,"Ð¾Ð»Ð¾Ð¶":1239,"ĠÐ¼Ð¾Ð½":1240,"Ð»Ð¸Ð·":1241,"Ð½ÐµÐµ":1242,"ĠÐ¸ÑİÐ»Ñı":1243,"Ð¼Ð°Ð½":1244,"ĠÐ¸Ð·Ð²ÐµÑģÑĤ":1245,"Ġ/":1246,"Ð°ÑĤÑĮÑģÑı":1247,"at":1248,"ĠÐ¼Ð¸Ð½":1249,"Ð»ÐµÑĤ":1250,"ĠÐ±ÑĥÐ´":1251,"ĠÐ²Ðº":1252,"Ġ16":1253,"al":1254,"ÑĥÐ³":1255,"ĠÐºÑĢÑĥÐ¿":1256,"Ð½Ð¾ÑģÑĤÑĮÑİ":1257,"Ð»Ð¸Ð½":1258,"21":1259,"Ð·Ð½Ð°Ñĩ":1260,"197":1261,"ÑĪÐµÐ½Ð¸Ñı":1262,"ĠÐ¿ÐµÑĢÐµÐ²":1263,"ĠÐ¼Ð¾Ð¶ÐµÑĤ":1264,"ÑĢÐµÐ½":1265,"ĠÐ²Ð¿":1266,"Ð¸ÑĨÐ°":1267,"Ġ10":1268,"ĠÐ¾ÑģÑĤÑĢÐ¾Ð²":1269,"Ð¾Ð³Ð»Ð°Ñģ":1270,"Ð¸ÑĦ":1271,"ĠÑģÐ»ÐµÐ´":1272,"Ð»ÑıÐµÑĤ":1273,"ĠÑĦÐµÐ²":1274,"ĠÐ½Ð¾Ñı":1275,"194":1276,"ÐµÑī":1277,"ĠÐĿÐ¸Ðº":1278,"ĠA":1279,"ĠÐ´ÐµÐºÐ°Ð±ÑĢÑı":1280,"Ð¾Ð½Ð¾Ð²":1281,"Ð¼Ð¸Ð½Ð¸ÑģÑĤ":1282,"ÑĤÐµ":1283,"ĠÐ¶Ð¸Ð·":1284,"ĠÑģÑĥÐ´":1285,"ĠÐ·Ð°Ð¼":1286,"ĠÐ°ÑĢÐ¼":1287,"Ð°Ð½Ð¾":1288,"ĠÐ¿ÐµÑĢÐ¸":1289,"Ð½Ð¸ÐºÐ°":1290,"Ð¾Ð»Ð°":1291,"ĠÐ¼Ð¾Ð³":1292,"ĠÐ°Ð¿ÑĢÐµÐ»Ñı":1293,"ĠÐ½Ð°Ð´":1294,"ĠÐµÐ´Ð¸Ð½":1295,"ĠÐ²ÑĤÐ¾ÑĢ":1296,"ĠÐĸ":1297,"ĠÐ¾Ð´Ð¸Ð½":1298,"ĠÐ¸ÑİÐ½Ñı":1299,"ÐµÑĢÐ°ÑĤÐ¾ÑĢ":1300,"Ð¸ÑģÐº":1301,"ĠÐ¤ÑĢÐ°Ð½":1302,"Ð¸ÑĢÐ¸":1303,"ÐºÐ¾Ð½Ñĩ":1304,"Ð°ÑĤÐ¾ÑĢ":1305,"ĠÑģÐµÐ½ÑĤÑıÐ±ÑĢÑı":1306,"Ð½Ð¸Ðµ":1307,"Ð»ÐµÐ¹":1308,"ĠÑįÐ»ÐµÐºÑĤ":1309,"ÑĢÐ¾Ðº":1310,"ĠÑĦÐµÐ²ÑĢÐ°":1311,"198":1312,"ĠP":1313,"ÑĥÐ½Ð°ÑĢÐ¾Ð´":1314,"ĠÑįÑĤÐ¾Ð¼":1315,"ÐµÐ½Ð´":1316,"ÑģÑģÐ»ÐµÐ´":1317,"Ð½Ð¸Ð¹":1318,"Ð¿Ð¸Ñģ":1319,"ĠÐ°Ð²Ð³ÑĥÑģÑĤÐ°":1320,"ĠÐ¾ÐºÑĤÑıÐ±ÑĢÑı":1321,"ĠÐ¿ÐµÑĢÐµ":1322,"ĠÐºÐ¾Ð½ÑĨ":1323,"ĠÑĢÐµÐ·ÑĥÐ»ÑĮÑĤ":1324,"Ð¸Ð·Ð¼":1325,"ĠÐ¿ÑĢÐ¾Ð³ÑĢÐ°Ð¼":1326,"ĠÐºÐ¾ÑģÐ¼":1327,"ĠÐ°ÑĢÑħ":1328,"ĠÑĦÐ¸Ð·":1329,"ÐµÑĢÐµÐ·":1330,"Ð¸Ð½Ðµ":1331,"ĠĠ":1332,"ĠÐ¿Ð¾Ð³":1333,"ĠÐ¾Ð±Ñī":1334,"ĠÑĥÑĩÐ°ÑģÑĤ":1335,"ĠÐ½Ð°ÑģÐµÐ»ÐµÐ½Ð¸Ñı":1336,"Ð½Ð¸Ð²":1337,"ĠÐ¶Ð¸Ð²":1338,"Ð¾Ð±ÑĢÐ°Ð·":1339,"Ð»Ð¾ÑĤ":1340,"ĠÐ²Ð¾Ð¹Ð½Ñĭ":1341,"ĠÑģÑĩÐ¸ÑĤ":1342,"ĠÐºÑĥÐ»ÑĮÑĤ":1343,"Ð¸ÑĢÐ°":1344,"Ð³Ð¾Ð²":1345,"Ð´ÐµÐ»":1346,"Ð³Ð»Ð¸Ð¹":1347,"25":1348,"ĠÑģÑĤÐ°Ð»":1349,"ÐŁÐ¾Ñģ":1350,"Ð¸ÐºÐµ":1351,"ĠÑįÐºÑģÐ¿":1352,"ĠÐĲÐ²":1353,"ÑģÐ»Ð¸":1354,"Ð²Ñĭ":1355,"ĠÑįÐºÐ¾Ð½Ð¾Ð¼":1356,"Ð´ÐµÐ¼":1357,"ÑĢÐµÐ¹":1358,"Ð¾ÑĤÐ¾Ð²":1359,"ĠÐºÐ¾ÑĤÐ¾ÑĢÑĭÑħ":1360,"ĠÐ½ÐµÐºÐ¾ÑĤÐ¾ÑĢ":1361,"ĠÑħÑĥÐ´":1362,"11":1363,"ĠÑĢÑĥÑģÑģÐºÐ¸Ð¹":1364,"Ð´ÐµÑĢÐ¶":1365,"ĠÑĤÐ¾Ð³Ð¾":1366,"ĠÐ²Ð·":1367,"ÑĢÐ¸Ð¹":1368,"ÑĤÐ¾Ð½":1369,"ĠÑĢÐ°Ð·Ð»Ð¸Ñĩ":1370,"ĠÐ´Ð¾Ð»Ð¶":1371,"ÑģÐ¾Ð²":1372,"ĠÐ°ÐºÑĤÑĳÑĢ":1373,"ÑĢÐ°Ð±Ð¾ÑĤ":1374,"ĠÑĤÐµÑħ":1375,"ĠÐºÐ¾ÑĢÐ¾Ð»":1376,".,":1377,"ĠÐµÑģÑĤÑĮ":1378,"ĠÐ¼Ð»":1379,"ĠÑĤÐµÑĢÑĢÐ¸ÑĤÐ¾ÑĢÐ¸Ð¸":1380,"ÑĢÐ¾Ð¹":1381,"ÐŀÐ±":1382,"Ð²Ð¸":1383,"Ð¸ÑĤÐµÐ»ÑĮÐ½Ð¾":1384,"Ð¾ÑģÐ¾Ð±":1385,"ĠÐ¿ÑĢÐ¾Ð¸Ð·Ð²Ð¾Ð´":1386,"ÐµÐ´ÐµÑĢÐ°":1387,"Ġ195":1388,"ÑĭÐ²":1389,"ĠÑĦÑĥÐ½":1390,"Ð¶Ð´Ð°Ð½":1391,"ÑĤÐ¾ÑĢÐ°":1392,"Ð±Ð¾Ð»":1393,"Ð´Ð¶":1394,"ĠÐ¿Ð¾Ð±":1395,"Ð¸Ð»Ð¾":1396,"ĠÐ½Ð¾ÑıÐ±ÑĢÑı":1397,"Ð¼ÐµÑĤ":1398,"ĠÐºÐ¾Ð½ÑĤ":1399,"ĠÑĦÐµÐ²ÑĢÐ°Ð»Ñı":1400,"ĠÐ¾Ñĩ":1401,"ÑģÐºÑĥÑİ":1402,"Ð°ÑĤÐµ":1403,"193":1404,"is":1405,"ĠÐ½ÐµÑģÐº":1406,"ĠÑģÐ¼":1407,"ĠM":1408,"ÐŀÐ´":1409,"ÑĪÐµÐ½Ð¸Ðµ":1410,"Ð¸Ð½Ð³":1411,"23":1412,"ic":1413,"ĠÐ¾ÐºÐ¾Ð»Ð¾":1414,"ĠÐ·Ð°ÐºÐ¾Ð½":1415,"ĠÐ´ÑĢÑĥÐ³Ð¸Ñħ":1416,"Ð¸ÑĤÐ°":1417,"ĠÐķÐ²ÑĢÐ¾Ð¿":1418,"Ġ:":1419,"Ð²Ð¸Ð´":1420,"Ġ,":1421,"Ð¿Ð¾Ð½":1422,"ĠÐ°Ð½Ð³Ð»Ð¸Ð¹":1423,"ĠÐ½Ð°Ð·ÑĭÐ²Ð°":1424,"ÑīÐµÐµ":1425,"Ð»Ð¾Ð¼":1426,"ĠT":1427,"ĠV":1428,"ÐµÐ¼Ð°ÑĤ":1429,"Ð°Ð»Ð¸ÑģÑĤ":1430,"ĠÑģÐ¾Ð¾ÑĤ":1431,"Ð°ÑĢÐ°ÐºÑĤ":1432,"ĠÑįÑĤÐ¾Ð³Ð¾":1433,"ĠÐºÑĢÐµ":1434,"Ð¸ÑĩÐµÑģÐºÐ¸":1435,"ĠÐºÐ»Ð°ÑģÑģ":1436,"ÐļÐ°ÑĤ":1437,"ĠÐ¿Ð¾ÑĢ":1438,"ĠÑģÐ¸Ð»":1439,"Ð¾ÐºÑĢÐ°ÑĤ":1440,"ĠÐ³Ð´Ðµ":1441,"Ð¾ÑģÑĤÐ¾Ñĩ":1442,"ĠÐ¿ÑĥÑĤ":1443,"Ð¿Ð¾Ð´":1444,"ÐŀÑģ":1445,"ĠÑĤÐµÐ¾ÑĢ":1446,"ĠÐ¿ÑĢÐ¾Ð¸Ñģ":1447,"ĠÑģÐ¾Ð²ÑĢÐµÐ¼ÐµÐ½":1448,"ĠÐ¿Ð°Ð¼":1449,"ĠÑģÐ»ÑĥÑĩ":1450,"ĠÑĢÐµÐ³":1451,"ÐºÐ°Ñħ":1452,"ĠÐ°ÑĢÑĤ":1453,"Ð¡ÑĤ":1454,"ĠÑĨÐµÑĢ":1455,"ÑīÑĳ":1456,"ĠÑĪÐº":1457,"ĠÐŁÐµÑĤ":1458,"ÑģÑĤÑĢÑĥ":1459,"Ð°ÑİÑĤÑģÑı":1460,"ÑģÑĭ":1461,"ÑĤÐ¾Ð²":1462,"ĠÐ´Ð¾Ð¼":1463,"Ð½Ð¸Ð²ÐµÑĢÑģ":1464,"ĠÑģÑĤÑĢÐ¾":1465,"Ð¾Ð»Ð¶":1466,"ĠÐ¸ÑģÑģÐ»ÐµÐ´":1467,"ĠÐ¿Ð¾Ñĩ":1468,"ĠÐºÐ½Ñı":1469,"24":1470,"Ð¾Ð½Ðµ":1471,"ÐµÑĢÐµ":1472,"ÑĭÐ²Ð°":1473,"ÑĩÐ¸Ð½":1474,"ÑģÐºÐ¾":1475,"Ð¼Ð¸ÑĢÐ¾Ð²":1476,"ĠB":1477,"ĠÑĩÐ°ÑģÑĤÑĮ":1478,"Ð¸ÑĢÐ¾Ð²Ð°Ð½":1479,"195":1480,"ĠÐ½ÐµÐ·":1481,"ÑģÑĤÑĢÐ°":1482,"IX":1483,"ĠÑĥÐ´":1484,"ĠÐ¼Ð°ÑģÑģ":1485,"ÑĢÑĳ":1486,"Ġâ":1487,"ĠÐ´Ð¾Ðº":1488,"ĠÑĤÑĢÐ°Ð½":1489,"ÑĭÐ¼Ð¸":1490,"ĠÐ°Ð´":1491,"ĠÐ´Ð²Ð¸Ð¶":1492,"ÑıÐ¼":1493,"ÑĪÐµÐ¹":1494,"ĠÐ¼ÑĥÐ·Ñĭ":1495,"ĠÐ²ÐºÐ»ÑİÑĩ":1496,"ĠÐ¿ÐµÑĢÐ²ÑĭÐ¹":1497,"ÐµÑĢÐ¸Ð¸":1498,"ĠÑĥÑĤ":1499,"ĠÑģÐµÐ±":1500,"he":1501,"ĠÐ¿Ð¾Ð½":1502,"ĠÐ¸Ð·Ð±":1503,"Ð½Ð¸Ñħ":1504,"Ð¸ÑĤÐµÐ»ÐµÐ¹":1505,"Ð²Ð°Ð½":1506,"ÑĭÐ½":1507,"ÑģÑĤÐ²ÐµÐ½Ð½Ð¾":1508,"ĠÑģÐµÐ²ÐµÑĢ":1509,"Ð¸ÑģÑģÑĳÑĢ":1510,"ĠÐļÐ¾ÑĢ":1511,"ĠÐ¿ÑĢÐ¾ÑĨ":1512,"ÑĢÑĮ":1513,"ĠÐĵÐµÑĢÐ¼":1514,"ĠÑĩÐ»ÐµÐ½":1515,"Ð°Ð²Ð¸ÑģÐ¸Ð¼":1516,"Ð°Ð»Ð°ÑģÑĮ":1517,"ĠÐ¼Ð¾Ð´":1518,"ÑĪÐ°Ñı":1519,"ÑĢÑĥÐ¶":1520,"ĠÐ¿ÐµÑĢÐ¸Ð¾Ð´":1521,"ĠÐ¸Ð·Ð´":1522,"ĠÐ¾ÑģÐ¾Ð±":1523,"ÐºÐ°Ð½":1524,"ĠÐºÐ°ÑĤ":1525,"ĠÐ²Ð¾Ð·Ð¼Ð¾Ð¶":1526,"Ð¾Ð±Ð¾Ð´":1527,"ÐºÐ¾Ð²Ð¾Ð´":1528,"ĠÑĤÐ¸Ð¿":1529,"ÐµÑĢÐ¾Ð²":1530,"ĠÑģÐµÐ¼":1531,"ÑħÐ¾Ð´Ð¸ÑĤ":1532,"ĠÐ³ÐµÐ½ÐµÑĢÐ°":1533,"ĠÑħÐ°ÑĢÐ°ÐºÑĤ":1534,"ĠÐ°Ð²ÑĤÐ¾ÑĢ":1535,"28":1536,"ĠÐ±ÑĭÑĤÑĮ":1537,"Ð¸ÐºÐ¾Ð²":1538,"ĠÐ¾Ð½Ð¸":1539,"ĠÐ¸ÑĤ":1540,"ÑĢÐ¾ÑģÑĤÑĢÐ°Ð½":1541,"ÑģÑĤÐ¾Ñı":1542,"ĠÐ¡Ð¾Ð²ÐµÑĤ":1543,"Ð´Ñĭ":1544,"ĠÐļÐ°ÑĢ":1545,"ĠÑĩÐµÑĢÐµÐ·":1546,"ĠÐ²ÑģÐµÑħ":1547,"ÐµÐ¼Ñĥ":1548,"ĠÑģÑĤÐ¾Ð»":1549,"ĠÐ³Ð¾Ð»":1550,"ÑĮÐµÑĢ":1551,"ĠÐ¾Ð³":1552,"ÐłÐ¾Ð´":1553,"Ð¸ÑĨÑĭ":1554,"ĠÐ³Ð¾ÑĢ":1555,"ĠÑĤÐ¾Ñĩ":1556,"30":1557,"Ð»Ð¾Ñī":1558,"ÑħÑĢÐ°Ð½":1559,"ĠÐ»Ð¸ÑĤÐµÑĢÐ°ÑĤ":1560,"ÐºÐ°Ð´ÐµÐ¼":1561,"ÑĪÐµÐ³Ð¾":1562,"ÐµÑģÐ¿ÑĥÐ±Ð»Ð¸":1563,"Ġ190":1564,"Ð²Ð°ÑĤ":1565,"ĠÐºÐ¼":1566,"27":1567,"ĠÐ·Ð²":1568,"Ð²Ð¾Ð»Ñİ":1569,"ĠÐ¿ÑĢÐ¾Ð¼":1570,"ÑĢÐ¸ÑĤÐ°Ð½":1571,"ÑĮÐµ":1572,"ĠÐºÐ½Ð¸":1573,"ĠÐºÐ°ÑĩÐµ":1574,"ĠÐµÐ²":1575,"ÑĢÐ°Ð·Ð´":1576,"ÑĭÑĤÐ¸Ñı":1577,"ĠÐľÐ°ÑĢ":1578,"ÑĨÐ¸Ð¿":1579,"Ð¯":1580,"Ð½Ð¸Ð²ÐµÑĢÑģÐ¸ÑĤ":1581,"Ð¸Ð±Ð»Ð¸":1582,"Ġ14":1583,"26":1584,"ĠÑģÐ¾Ð¾ÑĤÐ²ÐµÑĤ":1585,"Ð³Ð¾ÑĢ":1586,"Ð¾Ð»Ð¾ÑĤ":1587,"ĠÐ½Ð¸Ñħ":1588,"ĠÑĤÐµÐ°ÑĤÑĢÐ°":1589,"Ð¾Ð»Ð¾Ð³Ð¸Ð¸":1590,"Ð½ÐµÐ²":1591,"Ð°ÑĢÑħ":1592,"ĠÐ±Ð¾Ð³":1593,"Ð·ÑĭÐ²":1594,"ÑĢÐ¸Ð¸":1595,"Ð½ÐµÐ³Ð¾":1596,"ĠÐ¸ÑģÐºÑĥÑģ":1597,"it":1598,"Ð»Ð°ÑģÑĮ":1599,"ĠÐ¾ÑĤÐ´":1600,"ÑģÐµ":1601,"ÑĭÑĩ":1602,"ÐµÐ»ÐµÐ½Ð¸Ðµ":1603,"ĠÐ´ÐµÐ½ÑĮ":1604,"ĠÑĦÑĥÐ½Ðº":1605,"ÑĥÐ»Ð¸":1606,"ĠÑĢÐ¸":1607,"Ġ(Â«":1608,"ĠÐ¼ÐµÐ´":1609,"Ð¾Ð±Ñī":1610,"Ð²Ð¾":1611,"ÑģÑĤÑĢÐµ":1612,"ĠÐºÐ¾ÑĤ":1613,"Ð¾Ð¶Ð´ÐµÐ½Ð¸Ñı":1614,"ÑĭÑĪÐ»ÐµÐ½":1615,"Ð´Ñĥ":1616,"ÑĢÐ¸Ð¼ÐµÑĢ":1617,"Ð»Ð¸Ð¼Ð¿":1618,"ĠÐłÐ¾ÑģÑģÐ¸Ð¹":1619,"Ð¾ÑģÐ»Ð°Ð²":1620,"29":1621,"ĠÑĢÐµÐ¶":1622,"ĠÑĦÑĢÐ°Ð½ÑĨÑĥÐ·ÑģÐºÐ¸Ð¹":1623,"ĠÐ°ÑĢÑĤÐ¸ÑģÑĤ":1624,"ĠÐ½Ð°Ð¿ÑĢÐ°Ð²":1625,"ĠÑĢÐ°Ð²":1626,"ĠÑĢÐ¾Ð´":1627,"ĠÑģÐ¾Ð´":1628,"Ð¦":1629,"ĠÐĿÐ¾Ð²":1630,"ĠÐ²ÑĢÐµÐ¼ÐµÐ½Ð¸":1631,"ĠÐĴÐµÐ»Ð¸Ðº":1632,"ĠÐ¾ÑĤÐºÑĢÑĭÑĤ":1633,"ĠÑĤÑĭ":1634,"ÐµÐ½Ð½ÑĭÐ¹":1635,"ĠÐ¿ÐµÐ²":1636,"ĠÐłÐµÑģÐ¿ÑĥÐ±Ð»Ð¸":1637,"Ð°ÐºÑģ":1638,"ÑĦÐ°":1639,"ĠÐ°Ð»":1640,"ĠÑĥÑģÑĤÐ°Ð½Ð¾Ð²":1641,"ĠÐ·Ð°ÑĤ":1642,"Ð¸Ð·Ð¼Ð°":1643,"Ð»ÑģÑı":1644,"ĠÐ¼Ð¾Ð¶Ð½Ð¾":1645,"ĠÐºÐ¾ÑĤÐ¾ÑĢÐ¾Ð¹":1646,"Ð»Ð¸ÑĤ":1647,"Ð²Ð¸Ð½":1648,"ĠÑĩÐ°ÑģÑĤÐ¸":1649,"ÐµÑĢÐ¾":1650,"ĠÐ»Ð¸ÑĪ":1651,"Ð´Ð¾Ð²":1652,"ĠÑĥÐ±":1653,"Ð¿Ð¿":1654,"ĠÐ³ÑĢÐ°Ð¶Ð´Ð°Ð½":1655,"ÑĢÐ¸ÑģÑĤÐ¸Ð°Ð½":1656,"Ð»Ñĥ":1657,"Ð±Ð°":1658,"ĠÐ²ÑĭÑģÐ¾Ðº":1659,"ÐŁÐ¾ÑģÐ»Ðµ":1660,"ĠÐ´ÑĢÐµÐ²":1661,"ĠÐ³Ð°Ð·":1662,"ĠÑĥÐ³":1663,"ĠÐ½ÐµÐ·Ð°Ð²Ð¸ÑģÐ¸Ð¼":1664,"ĠÑħÐ°ÑĢÐ°ÐºÑĤÐµÑĢ":1665,"ÑģÑıÑĤ":1666,"ÑĢÑĥÐ·":1667,"Ð¸Ð¹ÑģÐºÐ¸Ð¹":1668,"ĠÐ³Ð¾Ð´Ð°Ñħ":1669,"ÑĢÑĳÑħ":1670,"ĠÐ´Ð°":1671,"Ð¸ÑĩÐµÑģÐºÐ¾Ðµ":1672,"ÑģÑıÑĩ":1673,"ĠÐ°Ð¼ÐµÑĢÐ¸ÐºÐ°Ð½ÑģÐºÐ°Ñı":1674,"ĠÐ²Ð¾ÑģÑģÑĤ":1675,"ÐŁÐµÑĢÐ²":1676,"ĠÐ½Ð°ÑĥÑĩ":1677,"Ð°Ð»Ð¸Ð·":1678,"ĠÐ¿ÑĢÐ¸Ñģ":1679,"ĠÑĢÐµÐ»Ð¸":1680,"Ð¸Ð»Ð°ÑģÑĮ":1681,"ÐµÑĢÐµÐ´":1682,"ĠÑĢÐ°ÑģÑģ":1683,"Ðĸ":1684,"ĠÑģÐ¿Ðµ":1685,"ÐŁÑĢÐ¸Ð¼ÐµÑĩ":1686,"ÑĳÐ½Ð½ÑĭÑħ":1687,"ĠÐ³ÑĢÐ°Ð½":1688,"el":1689,"ĠÐĿÐ°":1690,"ĠÑĢÐ°ÑģÐ¿ÑĢÐ¾ÑģÑĤÑĢÐ°Ð½":1691,"ÑĩÐ¸Ñģ":1692,"ÑģÑĤÐ²ÐµÐ½Ð½Ð¾Ð¹":1693,"ĠÐºÐ¾Ð¼Ð¿Ð¾Ð·":1694,"ĠÐĴÐ»Ð°Ð´":1695,"Ð½ÑĮ":1696,"ĠÑĤÑĢÐ¸":1697,"Ð¾Ð³Ð»Ð°ÑģÐ½Ð¾":1698,"ĠÐ¶Ð¸Ð·Ð½Ð¸":1699,"Ð¸ÑĤÐ¾ÑĢ":1700,"ĠÐ½ÐµÐ´":1701,"Ð»Ð°ÑģÑĤÑĮ":1702,"ÐºÐ¸Ñħ":1703,"ĠÐ²Ð¾Ð¿":1704,"ĠÐºÐ¾Ð»Ð¸ÑĩÐµ":1705,"ÐµÐ³Ð¾ÑĢÐ¸Ñı":1706,"ĠÑħÑĥÐ´Ð¾Ð¶":1707,"ĠÑĦÑĥÑĤ":1708,"ĠÐ¡ÐµÐ²ÐµÑĢ":1709,"Ð¸Ð½ÑģÐºÐ¸Ð¹":1710,"ĠÑģÐ¿Ð¾ÑģÐ¾Ð±":1711,"ĠÐºÐ¾Ð³Ð´Ð°":1712,"ÑĢÐ¾ÑĤ":1713,"ĠÑĥÑĢÐ¾Ð²":1714,"ÑĦÐ¸ÑĨÐ¸Ð°Ð»ÑĮ":1715,"Ð¿ÑĢÐ°Ð²":1716,"Ð°Ð½Ð¸Ð¹":1717,"ÐµÐ²Ð°":1718,"Ġ13":1719,"ÐŁÑĢÐ¸Ð¼ÐµÑĩÐ°Ð½Ð¸Ñı":1720,"ĠÐ¼Ð¸ÑĢÐ¾Ð²":1721,"ÐµÑĢÑĭ":1722,"ÐµÐ½Ð½ÑĭÑħ":1723,"Ġ.":1724,"ĠÐ¼Ð¾Ð»":1725,"ÑıÐ¶":1726,"ÑģÑĤÐ²ÐµÐ½Ð½ÑĭÐ¹":1727,"ÑħÐ°Ð½":1728,"ĠÐ·Ð°Ð½Ð¸Ð¼":1729,"ĠÐ¿Ð¾Ð¼Ð¾Ñī":1730,"ĠÑĥÐ½Ð¸Ð²ÐµÑĢÑģÐ¸ÑĤ":1731,"ĠÐ½Ð°ÑĨÐ¸Ð¾Ð½Ð°Ð»ÑĮ":1732,"ÑĢÐ°Ð±":1733,"ÐµÐ»Ð¾":1734,"ĠÑĤÐ¾ÑĢ":1735,"ĠÐ¿Ð¾Ð´Ð´ÐµÑĢÐ¶":1736,"ĠÐ»Ð¸Ð½":1737,"ĠD":1738,"ÑĥÑģÐº":1739,"ÐµÐ»Ð°":1740,"ĠÐ¿Ð»Ð°Ð½":1741,"ĠÑģÐ¾ÑħÑĢÐ°Ð½":1742,"ĠÐ¸ÑģÐ¿Ð¾Ð»ÑĮÐ·Ð¾Ð²":1743,"ÑģÑĤÐ²Ð¾Ð²":1744,"ÑĦÐ¾ÑĢÐ¼":1745,"ĠÐºÐ¸Ð½":1746,"Ð»ÑĥÐ¶":1747,"ĠÐºÐ°Ð½":1748,"ĠÑģÐ¸ÑģÑĤÐµÐ¼Ñĭ":1749,"ÑĥÐ»ÑıÑĢ":1750,"ÐµÐ»Ð¸Ñĩ":1751,"ĠL":1752,"Ð²ÐµÑĢÐ¶Ð´":1753,"Ð¾ÑģÑĤÐ¾Ðº":1754,"ĠÐ¿ÑĢÐ¸Ð½ÑıÑĤ":1755,"ĠÐ³Ð¾Ð´Ñĭ":1756,"ĠÐ´Ð²ÑĥÑħ":1757,"ĠÐ½ÐµÐ¼ÐµÑĨÐºÐ¸Ð¹":1758,"ĠÑĩÑĤ":1759,"ÐµÐ¶Ð´":1760,"ÐµÐºÑģÑĤ":1761,"ĠÐ»ÑİÐ±":1762,"ĠÑıÐ²Ð»ÑıÑİÑĤÑģÑı":1763,"ĠÐ·Ð°Ð´":1764,"ĠÐµÑīÑĳ":1765,"ĠÑįÐ½":1766,"ĠXV":1767,"Ð»Ð°Ð½":1768,"ĠÐ²ÑĭÐ¿":1769,"Ð¾ÐµÐºÑĤ":1770,"ÐļÐ°ÑĤÐµÐ³Ð¾ÑĢÐ¸Ñı":1771,"ĠÑĩÐµÐ¼":1772,"ÐĺÐ·":1773,"Ð¸Ð±Ð¾Ð»ÐµÐµ":1774,"Ð¾ÑĢÐ°Ñı":1775,"ÑĦÐ¾ÑĢÐ¼Ð°":1776,"ĠÑģÐ¾Ð´ÐµÑĢÐ¶":1777,"ÑĢÐ°ÐºÑĤ":1778,"ĠÐ¼ÐµÐ½":1779,"Ð°Ð»ÑĮÐ½Ð¾Ð¹":1780,"Ġ189":1781,"ĠÐ¾ÑĢÐ³Ð°Ð½Ð¸Ð·Ð°":1782,"ĠÑĢÐ°ÑģÐ¿Ð¾Ð»Ð¾Ð¶":1783,"ĠÑĥÐ¿ÑĢÐ°Ð²":1784,"ĠÐ¿Ð¾Ð»Ð¾Ð¶":1785,"Ð¡Ð¾Ð±":1786,"Ð°Ð»ÑĮÐ½ÑĭÑħ":1787,"Ð´ÐµÐ½":1788,"ÑģÐºÐ¸Ð¼Ð¸":1789,"Ħĸ":1790,"Ð¼Ð¾ÑĤ":1791,"ĠÐ¿ÑĢÐ¾ÑĨÐµÑģÑģ":1792,"ĠÑĤÐµÐ¼":1793,"Ð»ÐµÐ¼ÐµÐ½ÑĤ":1794,"Ð»Ð¾ÑīÐ°Ð´":1795,"ĠR":1796,"ÑĥÐµÑĤÑģÑı":1797,"Ð¾Ð²Ð°ÑĤÐµÐ»ÑĮ":1798,"ĠÐ¶ÐµÐ»Ðµ":1799,"Ð½Ð¸ÑĨÐ°":1800,"ĠÐ¸Ð·Ð¾Ð±":1801,"Ð´Ð¾":1802,"ĠÑĥÐ¶Ðµ":1803,"ĠÐ½Ð°Ð±":1804,"Ð¸ÑĤÐµÐ»Ñı":1805,"ÑģÐµÐ´":1806,"ĠÐ´Ð²Ð°":1807,"ÐµÐ»ÐµÐ¼":1808,"Ð»ÑĥÐ±":1809,"ĠÑĩÐ¸ÑģÐ»Ðµ":1810,"ĠÐ¼Ð¸ÑĢÐµ":1811,"ĠÐ´Ð¾ÑĢ":1812,"ÑĤÑĭ":1813,"Ð¾ÑĢÑĥÐ¶":1814,"ĠÐºÐ²":1815,"ÑģÑĤÐ¸ÑĤÑĥ":1816,"Ð°ÑĤÐµÐ»Ñı":1817,"ĠÑĢÐµÐ·ÑĥÐ»ÑĮÑĤÐ°ÑĤÐµ":1818,"Ð»Ð°Ð¼ÐµÐ½ÑĤ":1819,"Ð¸Ñī":1820,"ĠÑĢÑĥÐºÐ¾Ð²Ð¾Ð´":1821,"ĠÑĩÐµÐ»Ð¾Ð²ÐµÐºÐ°":1822,"Ð¾ÑĢÐ¾Ð²":1823,"ĠÐ½ÐµÑģÐºÐ¾Ð»ÑĮÐºÐ¾":1824,"ĠÐ²Ðµ":1825,"ĠÐ¸ÑģÑĤÐ¾ÑĢÐ¸Ð¸":1826,"ĠÐºÐ¾ÑĤÐ¾ÑĢÐ°Ñı":1827,"Ð¾Ð¿Ð¸Ñģ":1828,"ĠÑģÑĤÐ°ÑĤ":1829,"ĠÐ¼Ð»Ð½":1830,"ĠÐºÐ¾Ð¼Ð°Ð½Ð´":1831,"ĠÐ´ÐµÑĤ":1832,"ĠÐ³Ð¾Ð´Ð¾Ð²":1833,"ĠÐ¾Ð±ÑĬÐµÐºÑĤ":1834,"ÑĥÐºÐ°":1835,"ÑĨÐ¸ÐµÐ¹":1836,"ÑįÐ½":1837,"ÐµÐ²Ð¸Ñĩ":1838,"et":1839,"ĠÐ¿ÑĢÐ¾Ð´Ð¾Ð»Ð¶":1840,"Ð°ÑĤÐ¾Ð²":1841,"ĠÐ¾ÑĤÐ½Ð¾Ñģ":1842,"ĠÑĤÑĭÑģ":1843,"Ð»Ð¾Ð½":1844,"Ð³Ð»Ð°":1845,"ĠÐ£ÐºÑĢÐ°":1846,"ĠÐ¸Ð¼ÐµÐµÑĤ":1847,"ĠÐºÐ°Ð·":1848,"ÐŀÑĤ":1849,"ÑģÐºÐ¾Ð¼Ñĥ":1850,"ĠÑģÐ»ÑĥÐ¶":1851,"III":1852,"ĠÐ·Ð´":1853,"ĠÐ¶ÐµÐ½":1854,"ĠÐ²Ð½Ðµ":1855,"Ð½Ð°Ð¼":1856,"Ð°ÐµÐ¼":1857,"190":1858,"000":1859,"Ð°Ð»ÑĮÑıÐ½":1860,"ĠÐ²ÑģÐµÐ³Ð¾":1861,"ĠÐ´ÑĢÑĥÐ³Ð¸Ðµ":1862,"Ð³Ðµ":1863,"Ð¸ÑĤÐ°Ð¹":1864,"ĠÐłÐ¾ÑģÑģÐ¸Ð¹ÑģÐºÐ¾Ð¹":1865,"ĠÑģÐ¾Ð»":1866,"ĠÐ¡Ð²":1867,"Ð°Ð»ÑĮÐ½ÑĭÐµ":1868,"ĠÐºÐ¾ÑĤÐ¾ÑĢÐ¾Ð³Ð¾":1869,"ÑĦÑĦ":1870,"Ð¸Ð»Ð¾ÑģÑĮ":1871,"ĠÐ¼ÐµÑģÑĤÐ¾":1872,"ÐŀÐ´Ð½Ð°ÐºÐ¾":1873,"Ð»ÐµÐ½Ñĭ":1874,"ÑģÑĥ":1875,"ĠÐ¼Ð¾Ð³ÑĥÑĤ":1876,"ĠÐ¸Ñģ":1877,"ĠÑĥÑĩÑĳ":1878,"ĠÐ¼Ð°ÑĤÐµÐ¼Ð°ÑĤ":1879,"ÑĳÐ²":1880,"ĠÑĢÐµÑģÐ¿":1881,"ĠÐ¿ÑĢÐ¾Ð¼ÑĭÑĪÐ»ÐµÐ½":1882,"ĠÐ¾ÑĤÐ»Ð¸Ñĩ":1883,"ÑĨÐµÐ½":1884,"ĠÐĲÑĦ":1885,"ĠÑĪÐºÐ¾Ð»":1886,"ĠâĦĸ":1887,"ĠF":1888,"Ð°Ð»ÑĮÐ½Ð¾":1889,"Ð¾Ð½Ð´":1890,"ĠÐ¾Ð±ÑĢÐ°Ð·Ð¾Ð¼":1891,"ĠÐłÐ¸Ð¼":1892,"ro":1893,"ĠÐ²Ð½ÑĥÑĤ":1894,"ĠÐ¡Ð¾Ñİ":1895,"ĠÐ²Ð¾Ð¿ÑĢÐ¾Ñģ":1896,"ÑĢÐ¾Ð¼Ðµ":1897,"ĠÑģÐ¼ÐµÑĢ":1898,"ĠÑģÐ²Ð¾Ð¹":1899,"ĠÐ±ÑĢÐ¸ÑĤÐ°Ð½":1900,"ĠÑģÐ¾Ð²ÐµÑĢÑĪ":1901,"Ð°Ð½Ð¸Ñİ":1902,"ĠÐ¸Ð½Ð´":1903,"st":1904,"ĠÐºÐ°ÑĩÐµÑģÑĤÐ²Ðµ":1905,"Ð½Ð°Ð´":1906,"ÑĢÐ¸Ñħ":1907,"ÑĪÐ¸Ð¼":1908,"ÑĢÐ¾Ð»":1909,"ÑıÑģ":1910,"ĠÑģÐ²ÑıÐ·Ð¸":1911,"ÐĴÐ¾":1912,"ÐµÐ½Ð½ÑĭÐµ":1913,"ĠÐºÐ¾Ð¼Ð¿Ð¾Ð·Ð¸ÑĤÐ¾ÑĢ":1914,"ĠG":1915,"ÑĳÐ½Ð½ÑĭÐµ":1916,"ÑĢÐ¸Ð´":1917,"Ð¸ÑıÑħ":1918,"ĠÐ²Ð»Ð°ÑģÑĤÐ¸":1919,"ÑīÐµÐ³Ð¾":1920,"ĠÐ³Ð¾ÑģÑĥÐ´Ð°ÑĢÑģÑĤÐ²Ð°":1921,"ÐŀÑģÐ½Ð¾Ð²":1922,"ĠÐ¼ÐµÐ¶Ð´ÑĥÐ½Ð°ÑĢÐ¾Ð´":1923,"ÐµÑĪ":1924,"ĠÐ¿Ð¾ÑıÐ²":1925,"ĠÐ°Ð½ÑĤ":1926,"Ð¸ÑĤÐµÐºÑĤ":1927,"Ð±Ð¾":1928,"Ð¾Ð²ÑĭÑħ":1929,"ÑıÐ±":1930,"ĠÐľÐ¸Ñħ":1931,"ĠÑĢÐµÐ²Ð¾Ð»Ñİ":1932,"ĠÑĢÐµÑģÐ¿ÑĥÐ±Ð»Ð¸":1933,"ĠÐ³ÑĢÑĥÐ¿Ð¿Ñĭ":1934,"ÑĢÐ¸Ñı":1935,"ĠÐ¸Ð·Ð¼ÐµÐ½":1936,"ÑģÑĤÐ²Ñĥ":1937,"ĠÑĤÑĭÑģÑıÑĩ":1938,"Ð½ÑıÑı":1939,"ĠÑįÐ»ÐµÐ¼ÐµÐ½ÑĤ":1940,"ion":1941,"ĠÑģÐ¾Ð¾ÑĤÐ²ÐµÑĤÑģÑĤÐ²":1942,"Ð¾Ð»Ð¾Ð³Ð¸Ñı":1943,"ĠÐ¿Ð°Ð¼ÑıÑĤ":1944,"Ð»Ð°ÑĤ":1945,"ÑĢÐ°Ð½Ð¸Ñĩ":1946,"ĠÐ¿ÑĢÐ¸Ð¼ÐµÐ½":1947,"ĠÐ°ÐºÐ°Ð´ÐµÐ¼":1948,"Ð¾Ð·Ñı":1949,"ÐµÐ½Ð³":1950,"ĠÐ²Ð»Ð¸":1951,"ĠÐ¸Ð´Ðµ":1952,"ĠÐ¶ÑĥÑĢ":1953,"Ð»Ð¸ÑģÑĮ":1954,"ÐµÑĢÐµÐ²":1955,"Ð¾Ð´Ðµ":1956,"Ð¾ÑĢÑĤÐ°":1957,"ĠN":1958,"Ð¾Ð¼Ð¸Ð½":1959,"ol":1960,"ĠÐ²Ð¾Ð·Ð´":1961,"Ð»ÐµÑĢ":1962,"Ð¿Ð¾Ñģ":1963,".:":1964,"Ð¼Ð¸ÑĤ":1965,"ÑģÐ¿Ð¾ÑĢÑĤ":1966,"ĠÑĥÑģÐ»Ð¾Ð²":1967,"Ġ0":1968,"ÐºÐ¾Ð³Ð¾":1969,"ĠÑģÐµÐ±Ñı":1970,"ÐµÑĢÐ²ÑĭÐµ":1971,"ĠÐ¾Ð´Ð½Ð°ÐºÐ¾":1972,"Ð³Ð¾ÑĤÐ¾Ð²":1973,"ĠXX":1974,"ÐµÐ½Ð½Ð¾Ð¹":1975,"ĠÐ¿ÑĢÐ¾ÑģÑĤÑĢÐ°Ð½":1976,"Ġd":1977,"ÑģÑĤÐ°Ð½":1978,"ĠÐ¾Ð½Ð°":1979,"ÐĺÑģÑĤ":1980,"ĠÐ¸ÑĤÐ°Ð»ÑĮÑıÐ½":1981,"Ð¡Ð¾Ð±ÑĭÑĤÐ¸Ñı":1982,"ÐŃÑĤÐ¾":1983,"Ð½ÐµÐ¼":1984,"ĠÐ¾Ð¿Ð¸Ñģ":1985,"ĠÐ¸Ð¼Ð¿ÐµÑĢÐ¸Ð¸":1986,"ĠÐ´Ð¾Ð±":1987,"ĠÑĥÐ¼":1988,"ĠÐ¿Ð»Ð¾ÑīÐ°Ð´":1989,"ĠÐºÐ½ÑıÐ·":1990,"ĠÐ»Ð¸ÑĪÑĮ":1991,"ĠÐ·Ð°Ð¿Ð°Ð´":1992,"ĠÐ¸Ð¼Ð¿ÐµÑĢÐ°ÑĤÐ¾ÑĢ":1993,"ĠÐ·Ð°ÐºÐ»ÑİÑĩ":1994,"ĠÐ¸Ð½ÑĤÐµÑĢ":1995,"ÑĩÑĳÑĤ":1996,"ĠÐ¤ÑĢÐ°Ð½ÑĨÐ¸Ð¸":1997,"ĠÐ²Ð¾Ð¹ÑģÐº":1998,"Ð°Ð»Ð¸Ð½":1999,"ĠÐ¿Ð¾ÑģÑĤÑĢÐ¾":2000,"ĠÑģÐ¸Ð¼":2001,"ĠÐ³Ð¾ÑĢÐ¾Ð´Ðµ":2002,"ĠÐ¸Ð³":2003,"ĠXIX":2004,"ĠÑįÑĤÐ¾Ð¹":2005,"ĠÐ¾ÑĦÐ¸ÑĨÐ¸Ð°Ð»ÑĮ":2006,"ÑĥÐ²":2007,"Ð°Ð¿Ð°Ð´":2008,"ĠÑģÑĤÐ°Ð½":2009,"ĠÐ¿ÐµÑģ":2010,"ĠÑĩÑĤÐ¾Ð±Ñĭ":2011,"ĠÑĢÐµÑĪ":2012,"Ð°Ð¼Ð±":2013,"Ð½ÑĤ":2014,"ĠÑģÐ¾Ð·":2015,"Ð¾ÑĢÐ¾Ð½Ñĭ":2016,"ĠÐ´ÑĢ":2017,"ĠÑħÐ¸Ð¼":2018,"Ð°ÑĤÐµÐ»ÐµÐ¹":2019,"Ð¸Ð´ÐµÑĢ":2020,"ĠÐ¼Ð½Ð¾Ð³Ð¾":2021,"ĠÑĪÐ¸ÑĢ":2022,"ĠÑģÐ²Ð¾ÐµÐ¹":2023,"Ð¾ÑĢÐµ":2024,"ĠÐ¿ÑĢÐ¸ÑĢÐ¾Ð´":2025,"ĠÐºÑĢÐ¸ÑĤ":2026,"ĠÐ²Ð¼ÐµÑģÑĤ":2027,"ĠÑģÐ²Ð¾Ð±Ð¾Ð´":2028,"ĠH":2029,"ĠÑĢÑıÐ´":2030,"Ð°Ð½Ð¸ÐµÐ¼":2031,"ÐµÐ½ÑĤÐ°":2032,"ÑģÐµÑĢ":2033,"ĠÐ¼Ð¸ÑĢ":2034,"Ð¾ÑģÑĤÐ¾":2035,"ĠÑģÐ¾Ñİ":2036,"ĠÐ¿ÑĢÐ¾Ð±":2037,"Ð³Ð¾ÑĢÐ¾Ð´":2038,"ĠÐ´Ð¾Ð³":2039,"ĠÐ²ÑĭÑģÑĤÑĥÐ¿":2040,"ĠÐºÐ°Ð¶Ð´":2041,"50":2042,"ĠÐĲÐ·":2043,"Ġ188":2044,"Ð¾Ð´Ð¾ÑĢ":2045,"ÑģÑĤÐ²ÐµÐ½Ð½Ð¾Ð³Ð¾":2046,"ÑıÑħ":2047,"Ð°ÑĤÐ¸Ð²":2048,"ĠÑģÐ¾Ð±Ð¾Ð¹":2049,"Ð¸Ð½Ñĥ":2050,"ĠÐ¿Ð¾Ð´Ð¿Ð¸Ñģ":2051,"ĠÑĤÐµÐ¼Ð¿":2052,"ĠÐĿÐ¸ÐºÐ¾Ð»":2053,"ĠÐ¾Ð±ÑĭÑĩ":2054,"ĠÑıÐ·ÑĭÐº":2055,"ĠÑįÐ¿":2056,"ĠÐ½Ð°Ð·Ð½Ð°Ñĩ":2057,"Ġ//":2058,"ĠÐĲÐ»ÑĮ":2059,"Ð¸Ð»Ð»Ð¸":2060,"ĠÐĲÐ½Ð´":2061,"Ð»Ð¸Ð²":2062,"Ð°Ð»ÑĮÐ½ÑĭÐ¹":2063,"âĢ¦":2064,"ĠÐ¿Ð¾Ð·Ð²Ð¾Ð»":2065,"ÐĶÐ»Ñı":2066,"ÑĩÐ¸Ðº":2067,"ĠÐ¼Ð½Ð¾Ð¶Ðµ":2068,"Ð¾ÑĤÐ°":2069,"ĠÐºÑĢÐ°":2070,"Ð¾ÑıÐ½":2071,"ÑĨÐµÐ½Ð°":2072,"ÑĢÐ°Ð²Ð½":2073,"ĠÐ¾Ð±ÑĬÑıÐ²":2074,"Ð¾Ð»Ð¸ÑĤ":2075,"Ð°Ðµ":2076,"ĠÐ²ÐµÐ´":2077,"ĠÐ¿Ð¾Ð±ÐµÐ´":2078,"ĠÐ½Ð¸":2079,"ĠÑĦÐ¾ÑĢ":2080,"Ð¾Ð²ÑģÐºÐ¸Ð¹":2081,"ĠÐ¡Ð°Ð½":2082,"Ð¾Ð·ÑıÐ¹":2083,"Ð¶ÐµÐ½":2084,"ÐµÑĦ":2085,"ĠÐ°ÑĤ":2086,"ĠÐ¾Ð¿ÐµÑĢÐ°":2087,"ĠÑħÑĥÐ´Ð¾Ð¶Ð½Ð¸Ðº":2088,"Ð¾Ð½ÑĤ":2089,"ĠÑıÐ·ÑĭÐºÐ°":2090,"ÑĥÐ°":2091,"ĠÑħÑĢÐ¸ÑģÑĤÐ¸Ð°Ð½":2092,"Ð·Ð°Ð¸Ð¼":2093,"ĠÑĥÐ²":2094,"ĠÐ¿ÑĢÐ¾ÐµÐºÑĤ":2095,"ÑıÑĤÑģÑı":2096,"ĠÐºÐ¾ÑĢÐ¾Ð»ÑĮ":2097,"ĠÐłÑĥÑģ":2098,"ĠÐ³Ð¾ÑģÑĥÐ´Ð°ÑĢÑģÑĤÐ²ÐµÐ½Ð½ÑĭÐ¹":2099,"ĠÐ°ÐºÑĤÐ¸Ð²":2100,"ĠÐ½Ð°Ð·Ð²Ð°Ð½Ð¸Ðµ":2101,"ÑĢÐµÑģÑĤ":2102,"Ð°ÑĥÑĢÐµ":2103,"Ð¾Ð²ÑĭÐµ":2104,"ĠÐºÐ¾":2105,"Ð¸ÑĩÐµÑģÐºÐ¸Ð¼":2106,"ĠÐĺÐ·":2107,"ĠÑģÐºÐ¾ÑĢ":2108,"ĠÐ³Ðµ":2109,"ĠÑĢÐ°Ð´Ð¸":2110,"ĠÑĦÑĥÑĤÐ±Ð¾Ð»":2111,"ĠÐ¿ÑĢÐµÐ´Ð¿ÑĢÐ¸":2112,"ĠÑįÑĤÐ¾ÑĤ":2113,"Ð´ÐµÐ¹":2114,"ĠIII":2115,"le":2116,"ĠÐ´Ð¾Ð¿":2117,"ÑİÑīÐ¸Ñħ":2118,"Ð»ÐµÐ¶":2119,"ĠÐ¿ÑĢÐµÐ¼Ð¸Ð¸":2120,"ĠÐ²Ð¾Ð»":2121,"ĠÐ¤ÐµÐ´ÐµÑĢÐ°":2122,"ĠÑģÐ»Ð¾Ð¶":2123,"ÑĥÑĤÑģÑĤÐ²":2124,"ĠÑģÑĤÑĢÐ¾Ð¸ÑĤÐµÐ»ÑĮ":2125,"ĠÐ´Ð¾ÑĢÐ¾Ð³":2126,"ĠÐ¿ÑĢÐ°ÐºÑĤ":2127,"ĠÑģÑĤÐ°ÑĢ":2128,"ÐĹÐ°":2129,"ÐµÐ¹Ð½":2130,"ĠÐ°ÑģÑĤ":2131,"ÑģÐ¸Ñħ":2132,"ĠÐ½ÐµÐ±":2133,"ÑĥÑĩÐµÐ½Ð¸":2134,"ĠÐ¼Ð¸Ð½Ð¸ÑģÑĤ":2135,"ĠÐ¿Ð°ÑĢÐ»Ð°Ð¼ÐµÐ½ÑĤ":2136,"ĠÐłÐ¡":2137,"Ð¼ÐµÐ½Ð¸":2138,"Ð½Ð¾Ñģ":2139,"ĠÐ¿ÑĢÐ¸Ð²":2140,"ĠÐ°Ð½Ð³Ð»Ð¸Ð¹ÑģÐºÐ¸Ð¹":2141,"ÑıÐ¼Ð¸":2142,"re":2143,"ĠÐ¿Ð°ÑĢÐ°":2144,"ÐºÐ°Ð¼Ð¸":2145,"ÐµÑĤÑĮ":2146,"ĠÐ¿ÑĢÐ¾ÑĪ":2147,"ĠÐ°ÑĢÑħÐ¸ÑĤÐµÐºÑĤ":2148,"ÑģÐ¾Ð½":2149,"ÑĨÐ¸Ð°Ð»Ð¸ÑģÑĤ":2150,"ÑĦÐµÑģÑģ":2151,"ĠÐ½ÐµÐ¾Ð±":2152,"ĠÑģÐ¾ÑģÑĤÐ°Ð²Ð»ÑıÐµÑĤ":2153,"ĠÑģÐ¾ÑģÑĤÐ°Ð²Ð»Ñı":2154,"Ð½Ð°Ð»Ð¸":2155,"ĠÐ¾ÑģÑĥÑīÐµÑģÑĤÐ²":2156,"Ð³Ð¸Ð¾Ð·":2157,"189":2158,"us":2159,"ĠÐ¾Ð±ÑĬÐµÐ´Ð¸Ð½":2160,"ĠÐ±Ð»Ð°Ð³":2161,"ĠÐ½Ð°Ð¿ÑĢÐ¸Ð¼ÐµÑĢ":2162,"ÑĥÑį":2163,"ĠÐ±Ð¾Ð»ÑĮÑĪÐ¸Ð½":2164,"ĠÐ¿ÑĥÐ±Ð»Ð¸":2165,"Ð¾ÑĤÑı":2166,"ĠÐ´ÑĢÐ°":2167,"ÐµÑģÐ¿ÐµÑĩ":2168,"Ð»ÐµÐº":2169,"ĠÑĢÐ°Ð·ÑĢÐ°Ð±Ð¾ÑĤ":2170,"ĠÐ°Ð²Ð¸":2171,"Ð°Ð¼ÑıÑĤÑĮ":2172,"ÑħÐ¾Ð´Ð¸Ð¼":2173,"ĠÐĲÐ»ÐµÐºÑģÐ°Ð½Ð´ÑĢ":2174,"ÐµÑĩÐµ":2175,"Ð°Ð»ÑĮÐ½Ð¾Ð³Ð¾":2176,"Ð¾Ð»Ð¾Ð²":2177,"ĠÐ¼ÐµÑĤÐ¾Ð´":2178,"ĠÐĵÐµÑĢ":2179,"ĠÐ²ÑĭÐ±Ð¾ÑĢ":2180,"ĠÐ¾Ð¿ÑĢÐµÐ´ÐµÐ»":2181,"ĠE":2182,"Ð»ÐµÐ½Ð¸Ð¸":2183,"Ð»ÐµÐ½Ð°":2184,"ÑİÑīÐ¸Ðµ":2185,"ĠÑĥÑĤÐ²ÐµÑĢÐ¶Ð´":2186,"ÑģÑĤÐ²ÐµÐ½Ð½ÑĭÑħ":2187,"ÐµÐ½ÐºÐ¾":2188,"ĠÐºÐ¾ÑĢÐ°":2189,"ĠÐ²Ð¾Ð·Ð½Ð¸Ðº":2190,"ÑģÑĤÐ°Ð½ÑĤ":2191,"ĠÑģÐµÐº":2192,"ÑĪÐµÐµ":2193,"ĠÐ·Ð°Ñģ":2194,"as":2195,"ÑģÑĤÐ¸ÑĤÑĥÑĤ":2196,"ĠÑĢÐ°Ð½":2197,"ÑĨÐµ":2198,"ĠÐµÑģÐ»Ð¸":2199,"ĠÑģÑĭ":2200,"ĠÑģÐ²Ð¾Ðµ":2201,"ĠÐ¾Ð»Ð¸Ð¼Ð¿":2202,"ÑĢÐ°Ð¼":2203,"ĠÑģÐ¸Ð½":2204,"Ð°Ð´Ð°":2205,"ÑĢÐ°ÑĤÐ¸Ð²":2206,"ÑĢÑĥÐ³Ð°":2207,"ÑĮÑİÑĤ":2208,"ÐŀÐ½":2209,"ĠÑĦÐ¸Ð»ÑĮ":2210,"ĠÑģÐ²ÑıÑĤ":2211,"Ġ187":2212,"ĠÐ°Ð²ÑĤÐ¾Ð¼":2213,"ĠÐ¼Ð°Ð³":2214,"ĠÑģÐ²Ð¾Ñİ":2215,"ĠÐ²Ð·Ð°Ð¸Ð¼":2216,"Ð¸Ð¼Ð¸ÑĢ":2217,"ĠÑĤÑĢÑĳÑħ":2218,"Ð¾ÑĢÑĮ":2219,"Ð¡ÑĢÐµÐ´":2220,"ĠÐ²ÑĭÐ±":2221,"Ð¤Ð¡Ðł":2222,"Ð¾ÑģÑĤÐ°Ð²":2223,"ĠÐĽÐµÐ½Ð¸":2224,"om":2225,"ĠÐ²ÑĭÐ¿Ð¾Ð»":2226,"ĠÑĤÐµÐºÑģÑĤ":2227,"ĠÑĤÐ¾ÑĢÐ³Ð¾Ð²":2228,"ÐµÑı":2229,"ĠÐ¿ÑĢÐµÐ²":2230,"ÑĢÐ¸Ð·":2231,"ĠÐľÐ°ÑĢÐ¸":2232,"Â°":2233,"ĠÐ´ÐµÐ¼":2234,"ÑĢÐ¾Ð¿ÐµÐ¹":2235,"ĠÑĤÑĢÑĥÐ´":2236,"ÑģÑĭÐ»":2237,"ĠÐ²Ð¾Ð¹Ð½Ð°":2238,"Ð°Ð»Ð¾Ð²":2239,"ĠÑģÑĤÐµÐ¿":2240,"ĠÑĪÐ¸ÑĢÐ¾Ðº":2241,"Ð¾Ð±ÑĢÐ¸ÑĤ":2242,"ĠÑĨÐµÐ»":2243,"ĠÐ³ÐµÐ½ÐµÑĢÐ°Ð»":2244,"Ð°Ð»Ð¾Ð³":2245,"ĠÑģÑĤÐ¾ÑĢÐ¾Ð½":2246,"ÐµÑĢÑħÐ¾Ð²":2247,"ch":2248,"ĠÑĢÐ¸Ð¼":2249,"ÐµÐ»ÐµÐ²":2250,"ĠÐ°ÑĢÐ¼Ð¸Ð¸":2251,"ĠÑĤÑĢÐµÐ±":2252,"ĠÑģÑĨÐµÐ½Ð°":2253,"ĠÑĤÐµÑĩ":2254,"Ð¡ÐºÐ¾Ð½Ñĩ":2255,"ĠÐ½Ð°ÑģÑĤÐ¾Ñı":2256,"Ð¾Ð·Ð½Ð°Ñĩ":2257,"ĠÐ²Ð°Ð¶":2258,"ÑĢÐ¸ÑĩÐµ":2259,"ĠÐĹÐµÐ¼":2260,"Ð¼Ð°ÑĤÑĢÐ¸":2261,"ĠÐ¾Ð±ÐµÑģÐ¿ÐµÑĩ":2262,"Ð½Ð¸ÑĤ":2263,"ÑĪÐ¸ÐµÑģÑı":2264,"ĠÐ±ÐµÐ»":2265,"Ð°Ð½Ð½ÑĭÐµ":2266,"ĠÐĵÐµÑĢÐ¼Ð°Ð½Ð¸Ð¸":2267,"Ð¾Ð²ÐµÐ´":2268,"Ð°Ñī":2269,"ÐĽÐ¸ÑĤÐµÑĢÐ°ÑĤ":2270,"ĠÐ¿Ð¾Ð»ÑĮÐ·":2271,"ĠÑĤÐµÑħÐ½":2272,"Ð°ÑĥÑĢÐµÐ°ÑĤ":2273,"Ġt":2274,"ÑĪÑĤ":2275,"ÑĢÑĥÐºÑĤ":2276,"ÑĢÐµÑģÑģ":2277,"ĠÐ°Ð±":2278,"Ġ12":2279,"ĠÑģÑĢÐµÐ´Ð¸":2280,"ĠÐ³ÑĢÐµ":2281,"ÐļÐ¾Ð½":2282,"ĠÐºÐ°Ð¼":2283,"ĠÐłÐ¡Ð¤Ð¡Ðł":2284,"ÑĥÐ¶Ð´":2285,"ĠÐ¸Ð¼ÐµÐ½Ð¸":2286,"ĠÐĺÐ½Ð´":2287,"ĠÐ¾Ð´Ð½Ð¾Ð¹":2288,"XX":2289,"Ð¸ÑĤÐµÐ»Ð¸":2290,"ĠÐ¿ÑĢÐ¸Ð·Ð½":2291,"ĠÐ¿ÑĢÐ¾Ð¸Ð·Ð²ÐµÐ´":2292,"ĠÐ·Ð°Ñħ":2293,"ÑĢÐµÐ¶Ð´":2294,"ĠÑģÑĤÐ°Ð»Ð¸":2295,"ĠÐ¿ÑĢÐµÐ¼ÑĮÐµÑĢ":2296,"Ġ30":2297,"ÐµÐ½Ðµ":2298,"ĠÑĤÐµÐ¼Ð¿ÐµÑĢÐ°ÑĤ":2299,"ĠÐ¾ÑĤÑģ":2300,"ĠÐĽÑĥ":2301,"Â»)":2302,"Ð®":2303,"Ð¸ÐºÑĥ":2304,"ĠÐ²Ð¸Ð´Ðµ":2305,"Ð¸ÐµÐ²":2306,"ÑĥÐ¼ÐµÐ½ÑĤ":2307,"Ð¡ÐºÐ¾Ð½ÑĩÐ°Ð»Ð¸ÑģÑĮ":2308,"ĠÐ±ÐµÑĢ":2309,"ĠÐ²Ð¿ÐµÑĢÐ²ÑĭÐµ":2310,"ĠÐ½Ð°ÑĩÐ°Ð»Ðµ":2311,"ĠÐ¿ÐµÑĢÐµÐ²Ð¾Ð´":2312,"ĠÐ¼Ð°ÑĤÐµÑĢÐ¸":2313,"ÑĢÐµÐ¿":2314,"ĠÐ²Ð¾Ð¹ÑģÐºÐ°":2315,"Ð°Ð½Ðµ":2316,"ĠÐľÐ¸Ð½":2317,"Ð¸ÑĨÐ¸Ð¸":2318,"ÑĳÑĤÐ°":2319,"ĠÑĢÐ°Ð±Ð¾ÑĤÑĭ":2320,"ÐºÐ²Ð¸":2321,"Ð¾ÑĢÐ²":2322,"ĠÑģÐ¾ÑĤ":2323,"Ġ()":2324,"ĠÐĽÑİ":2325,"ĠÑģÐ»ÐµÐ´ÑĥÑİÑī":2326,"Ð¿Ð¸ÑģÐº":2327,"Ð³ÑĢÐ°Ð´":2328,"ÐµÐºÑģ":2329,"ĠÐ±ÑĭÐ²":2330,"ĠÐ®Ð¶":2331,"Ð¼ÑĥÐ½":2332,"ÑĥÐ±ÐµÑĢÐ½":2333,"ĠÐ¿ÑĢÐ¸Ð½Ñı":2334,"ĠÑĢÐµÐ´":2335,"ĠÐºÐ¾ÑĢÐ°Ð±":2336,"ÑĢÐ°ÑģÑĤ":2337,"ĠÑģÐ¸Ð»ÑĮ":2338,"Ð°Ð»Ð¸Ð¸":2339,"ĠÐ±Ð¸":2340,"Ð¾Ð½Ð°Ð²":2341,"ÐµÐ½Ñģ":2342,"ĠÐļÐ°Ð·":2343,"ÑĢÐ°Ð¶ÐµÐ½Ð¸Ðµ":2344,"ĠÐ¿Ð¾ÑĢÑĤ":2345,"Ġ186":2346,"ĠÐ¾ÑĤÐ´ÐµÐ»ÑĮ":2347,"ra":2348,"ÐºÐ¾ÑĢ":2349,"ĠÐĳÐ¾Ð³":2350,"Ð´ÐµÐ»Ñı":2351,"ĠÐ»Ð°ÑĥÑĢÐµÐ°ÑĤ":2352,"ÑıÑĤÐ¸Ñı":2353,"ÐĶÐ¾":2354,"Ð°Ð»Ñĭ":2355,"ĠÐ¿ÑĢÐ¸Ð·":2356,"ĠÐ¸Ð·ÑĥÑĩ":2357,"un":2358,"ĠÑĦÐ¸Ð½":2359,"ĠÐ½Ð°ÑĢÐ¾Ð´Ð½ÑĭÐ¹":2360,"ĠÐ¿ÑĢÐ¾Ð±Ð»ÐµÐ¼":2361,"ĠÑģÑĤÐ°Ð½Ð¾Ð²":2362,"Ġ-":2363,"Ð°ÑĢÐ°ÑĤ":2364,"ĠÑĦÐ¾ÑĤ":2365,"Ð½Ð¸ÐºÐ¾Ð¼":2366,"ĠÐ´ÐµÐ¿":2367,"ĠÑģÑĤÑĢÐ°Ð½Ðµ":2368,"Â»).":2369,"Ð¾ÐµÐ´Ð¸Ð½":2370,"Ð½Ð¾ÑģÑĤÐµÐ¹":2371,"ÑĳÐ·":2372,"ĠÐ¿ÑĢÐ¸Ð¼ÐµÑĢ":2373,"ĠÐ½ÐµÐ¹":2374,"ĠÐ´Ð¸Ð½":2375,"Ð°Ð½ÑĮ":2376,"ĠÐ³Ð¾Ð²Ð¾ÑĢ":2377,"ĠÐ»ÐµÐ³":2378,"ĠÑģÐ¾Ð¾Ð±Ñī":2379,"Ð±Ð¸ÑĤ":2380,"ĠÑįÑĤÐ¸Ñħ":2381,"ĠÑģÑĨÐµÐ½Ð°ÑĢÐ¸ÑģÑĤ":2382,"ĠÐĲÐ±":2383,"ĠÐ½ÐµÐ¾Ð±ÑħÐ¾Ð´Ð¸Ð¼":2384,"Ð°Ð½ÑģÐºÐ¸Ð¹":2385,"Ð½Ð¸Ñĩ":2386,"ÑģÑĤÑĢÐ¾":2387,"ĠÐ¿ÑĢÐ¾Ð²Ð¾Ð´":2388,"ĠÐ¿Ð°ÑĢÑĤÐ¸Ð¸":2389,"ÑĢÐ¸Ð½":2390,"ĠÐ¿ÑĢÐµÐ´Ð»Ð¾Ð¶":2391,"ĠÐ½Ð°Ð¸Ð±Ð¾Ð»ÐµÐµ":2392,"ÑıÐµÑĤ":2393,"Ð¾ÐºÐ°":2394,"ÐºÐ°ÑĤ":2395,"ÐµÐ¶Ð¸ÑģÑģÑĳÑĢ":2396,"Ð°Ð³Ð°":2397,"ÐĽÐ¸ÑĤÐµÑĢÐ°ÑĤÑĥÑĢÐ°":2398,"ĠÐ¸Ð½ÑĦÐ¾ÑĢÐ¼Ð°":2399,"Ð¿Ð¸ÑģÐºÐ¾Ð¿":2400,"Ð»Ñĭ":2401,"ĠÐĶÐµÐ½ÑĮ":2402,"ĠÑĤÐµÐ¾ÑĢÐ¸Ð¸":2403,"ĠÑĥÐºÐ°Ð·":2404,"ĠÐ´Ð°Ð¶Ðµ":2405,"Ð»Ð¾ÑĢ":2406,"Ð¸Ð±Ð¸ÑĢ":2407,"ÐµÑģÑĤÐ¸":2408,"ĠÑģÐ¾ÑĨÐ¸Ð°Ð»ÑĮ":2409,"Ð°ÑĢÐ¾Ð²":2410,"Ð°Ð½Ðº":2411,"ĠÐ¾ÐºÐ¾Ð½Ñĩ":2412,"ĠÐļÑĢÐ°Ñģ":2413,"ĠÐĺÐ²":2414,"ĠÑģÐ¾Ñĩ":2415,"Ð¸Ð½Ð¾Ð²":2416,"ĠÐĺÑĤ":2417,"Ð¸ÑĤÑĮÑģÑı":2418,"ÐµÑĢÐµÐ¶":2419,"ÑģÑĤÐ²ÐµÐ½Ð½ÑĭÐµ":2420,"ĠÑģÑĤÐ°Ð»Ð°":2421,"188":2422,"Ð¾ÐµÐ²":2423,"ĠÐĴÐµÐ»Ð¸ÐºÐ¾Ð±ÑĢÐ¸ÑĤ":2424,"ĠÐ¼Ð¾Ð¼":2425,"Ð±Ðµ":2426,"ĠÑĥÐºÑĢÐ°":2427,"ÐµÐ·Ð´":2428,"ÐµÐ¾ÑĢ":2429,"Ð¢Ð°ÐºÐ¶Ðµ":2430,"ĠÐºÑĥÑĢ":2431,"ĠÐ²ÑģÑĤÑĥÐ¿":2432,"ÐµÑĢÐ±ÑĥÑĢÐ³":2433,"ĠÑįÐ½ÐµÑĢÐ³":2434,"ĠÑģÐ¾Ð¿":2435,"il":2436,"Ð¾Ð·Ð³Ð»Ð°":2437,"ĠÐŁÑĢÐµ":2438,"ĠÐµÐ¼Ñĥ":2439,"ĠÐĳÐµÐ»":2440,"ÑĥÑģÐ°":2441,"Ġ25":2442,"ĠÐ¿Ð¾Ð»ÑĮ":2443,"ĠÐ°Ð»ÑĮ":2444,"ĠÐºÐ¾ÑĤÐ¾ÑĢÐ¾Ð¼":2445,"ĠÐ¼ÐµÑħÐ°Ð½":2446,"ĠÑĪÑĤ":2447,"Ð°Ð½Ñģ":2448,"ĠÐĴÐ°Ñģ":2449,"ÑİÑīÐ¸Ð¹":2450,"ĠÐ¿Ð¸ÑģÑĮ":2451,"ĠÐ¼ÐµÐ½ÐµÐµ":2452,"ĠÑģÐ²Ð¾ÐµÐ³Ð¾":2453,"Ð¾ÑģÐ»Ð¾Ð²":2454,"ĠÐ½Ð°Ð±Ð»Ñİ":2455,"ÑĤÐµÑĢ":2456,"ÑĩÐ¸Ð²":2457,"ĠÐ¼ÑĥÐ·":2458,"ĠÐºÑĢÑĥÐ¿Ð½ÐµÐ¹":2459,"ĠÑĩÐ¸ÑģÐ»Ð¾":2460,"ÑĥÐ¼Ð°":2461,"Ð¿ÑĤ":2462,"ÑĢÐ´":2463,"ĠÑĢÐ°Ð±":2464,"ĠÐ¾ÑĤÐ½Ð¾ÑĪÐµÐ½Ð¸Ñı":2465,"Ð¾Ð»ÑĳÑĤ":2466,"ĠÑıÐ²":2467,"ĠÐ»Ð¸Ð±":2468,"Ð°Ð½Ð½ÑĭÑħ":2469,"ĠÐĹÐ°Ð¿Ð°Ð´":2470,"ĠÐ½Ð°Ð¿Ð¸Ñģ":2471,"ĠÐ·Ð½Ð°ÑĩÐ¸ÑĤÐµÐ»ÑĮ":2472,"ĠÑģÐ²Ð¾Ð¸Ñħ":2473,"ĠÐ²ÐµÐºÐµ":2474,"ĠÑĩÐµÑĤÑĭ":2475,"ÑģÑĤÑĢÐµÑĩ":2476,"ĠÐ¿ÑıÑĤ":2477,"ĠÑıÐ·ÑĭÐºÐµ":2478,"Ð°Ð²ÑĪÐ¸Ð¹":2479,"of":2480,"ĠÐ¸ÑģÑĤÐ¾Ñĩ":2481,"ĠÐ¾ÑģÑĤÐ°Ð²":2482,"ĠÐ¿Ð¾Ð»Ð¾Ð²":2483,"Ð°Ð¸Ð»":2484,"ÐŁÐµÑĤ":2485,"ĠÐĽÐµ":2486,"ĠÐ³ÑĢÐ°ÑĦ":2487,"Ð²ÐµÐ¹":2488,"ĠÑĩÐ¸ÑģÐ»Ð°":2489,"ĠÑĤÑĢÐ°Ð´Ð¸":2490,"Ð°ÑĤÐµÐ»Ð¸":2491,"ĠÐ¿ÑĢÐ¾Ð¸Ð·Ð¾ÑĪ":2492,"ĠÐĺÑģÐ¿":2493,"ÑĤÑĥ":2494,"ĠÐ¸Ð¼Ñı":2495,"ÐłÐ¾Ð´Ð¸Ð»Ð¸ÑģÑĮ":2496,"Ð°ÑİÑīÐ¸Ñħ":2497,"Ð¾Ð²Ð°Ñı":2498,"ĠW":2499,"ĠÐļÐ¾Ð¼":2500,"ĠÐ³ÐµÑĢ":2501,"Ð»ÐµÐ´ÑģÑĤÐ²":2502,"ĠÐ¿ÑĢÐ¾Ð¸ÑģÑħ":2503,"ĠÐ¡Ð¾ÑİÐ·Ð°":2504,"Ð°ÑģÑĤÑĢÐ¾":2505,"ĠÐ¾ÑĤÐ½Ð¾ÑĪ":2506,"ĠÐ²ÑĤÐ¾ÑĢÐ¾Ð¹":2507,"ĠÐĲÐ»":2508,"ĠÐĳÐµÑĢ":2509,"ĠÐ½Ð°ÑĩÐ°Ð»Ð°":2510,"ĠÐ´ÐµÐ»Ð°":2511,"ÑģÐºÐµ":2512,"ĠÐ¸Ð¼ÐµÑİÑĤ":2513,"Ð½Ð°ÑĢ":2514,"ĠÐ±ÑĥÐ´ÐµÑĤ":2515,"Ð³Ð¸Ð¿":2516,"ÑĳÐ½Ð½ÑĭÐ¹":2517,"ĠÑģÐ»Ð¾Ð²Ð°":2518,"ÐµÐ¶Ð´ÑĥÐ½Ð°ÑĢÐ¾Ð´":2519,"Ð¿ÑĢ":2520,"ĠÐ»ÐµÑģ":2521,"ĠÐłÐµÑģÐ¿ÑĥÐ±Ð»Ð¸ÐºÐ¸":2522,"ĠÑģÐ¸ÑģÑĤÐµÐ¼Ð°":2523,"ÐºÐ°Ñı":2524,"Ð±ÑĥÑĢÐ³":2525,"ĠÑĦÑĥÑĤÐ±Ð¾Ð»Ð¸ÑģÑĤ":2526,"Ð¾Ð¼ÐµÑĤ":2527,"Ð¾ÑģÐ¾Ð²":2528,"ĠÑİÐ¶":2529,"ĠÐ½Ð¸Ð·":2530,"ĠÐ½Ð°ÑħÐ¾Ð´Ð¸ÑĤÑģÑı":2531,"Ð»ÐµÐ½Ð¸ÐµÐ¼":2532,"ĠÐ²ÑħÐ¾Ð´":2533,"ĠÐ¿ÑĢÐ¸Ð½ÑĨÐ¸Ð¿":2534,"ĠÐºÐ¾Ð½ÑĨÐµ":2535,"ĠÐ°Ð´Ð¼Ð¸Ð½Ð¸ÑģÑĤ":2536,"ÐºÐ¸Ð½":2537,"ĠÐ²Ð½ÑĥÑĤÑĢÐµÐ½":2538,"Ð½Ñİ":2539,"Ġ11":2540,"Ð¡Ð°Ð¼":2541,"ĠÐ²ÑĭÑħÐ¾Ð´":2542,"ĠÐ·Ð°Ñī":2543,"ĠÐ¿Ð¾Ð³Ð¸Ð±":2544,"ĠÑģÐ¾ÑİÐ·":2545,"ĠÑĦÐ¾Ð½":2546,"Ð¸ÑĨÐµ":2547,"ĠÐ´ÐµÑĢÐµÐ²":2548,"ĠÑĢÐ°ÑģÑĤ":2549,"ÐºÐ°Ð»ÑĮ":2550,"and":2551,"ĠÐ¶ÐµÐ½Ñī":2552,"ĠÑģÐµÐ»ÑĮ":2553,"Ð¿Ð°Ð´":2554,"Ð½ÐµÑģ":2555,"ÐµÐ½Ð½Ð°Ñı":2556,"ĠÑĤÑĢÐ°Ð½ÑģÐ¿Ð¾ÑĢÑĤ":2557,"ÑĢÐº":2558,"ĠÐ¿ÐµÐ´":2559,"ing":2560,"ĠĠĠĠ":2561,"ĠÐ´Ð²Ð¸Ð¶ÐµÐ½Ð¸Ñı":2562,"ĠÐ¿ÑģÐ¸Ñħ":2563,"ĠÑĩÐ°Ñģ":2564,"ÐŁÑĢÐ°Ð²":2565,"ÑĢÑĥÑĪ":2566,"ĠÑĢÐµÐ³Ð¸Ð¾Ð½":2567,"ĠÐ¿Ð¾ÐºÐ°Ð·":2568,"Ġ%,":2569,"Ð³Ð¾Ð´":2570,"ĠÐ²ÐµÑĢÑģ":2571,"ÑĩÐ°ÑģÑĤ":2572,"ĠÐ½ÐµÑģ":2573,"Ð¿Ð¾":2574,"ĠÐ½Ð°Ñĥ":2575,"Ð»ÐµÐ³":2576,"ĠÑĢÐ°Ð¹Ð¾Ð½":2577,"Ð¸ÑĤÐ¾Ð²":2578,"ĠÐ¿ÑĢÐ°Ð²Ð¸ÑĤÐµÐ»ÑĮÑģÑĤÐ²Ð¾":2579,"ĠÐ¤ÐµÐ´ÐµÑĢÐ°ÑĨÐ¸Ð¸":2580,"ÐµÐ½Ð½Ð¾Ð³Ð¾":2581,"ĠÑģÑĥÐ±":2582,"Ð¸ÑĩÐµÑģÐºÑĥÑİ":2583,"ĠÐºÐ¸Ð½Ð¾ÑĢ":2584,"ĠÐ½ÐµÐ²":2585,"ĠÐ¸ÑģÐ¿Ð¾Ð»Ð½":2586,"Ð°Ð³Ð¾Ð³":2587,"Ð°Ð»ÑĮÐ½Ð°Ñı":2588,"ĠÐķÐ²ÑĢÐ¾Ð¿Ñĭ":2589,"ĠÐ³Ð»Ð°":2590,"ĠÐĴÑģ":2591,"Ð²Ð¸Ð¶":2592,"Ð°ÐºÐ¾Ð²":2593,"ĠÑĩÐ°ÑģÑĤÐ½Ð¾ÑģÑĤÐ¸":2594,"ĠÐ»Ð¸Ñĩ":2595,"ĠÐ¡ÐµÑĢÐ³":2596,"ĠÐ¿ÑĢÐ¾Ð²Ð¾Ð·Ð³Ð»Ð°":2597,"ÐµÑĤÐµ":2598,"ĠÐºÐ¾ÑĤÐ¾ÑĢÐ¾Ðµ":2599,"ĠÐ¯Ð¿Ð¾Ð½":2600,"ĠÐ¿ÐµÐ²Ð¸ÑĨÐ°":2601,"ĠÑģÐ»ÑĥÑĩÐ°Ðµ":2602,"ÑĳÑĤÑģÑı":2603,"Ð»Ð¾ÑģÑĮ":2604,"Ð°Ð»Ð¸Ð·Ð°":2605,"ĠÐ¾ÑģÐ²":2606,"ÑģÑĭÐ»ÐºÐ¸":2607,"Ð¸Ð»Ñı":2608,"ĠÐ°ÑĤÐ¾Ð¼":2609,"ĠÐ¿ÑĢÐ¾ÑĦÐµÑģÑģ":2610,"Ð¾Ð²Ð°Ð½Ð¸ÐµÐ¼":2611,"ur":2612,"ĠÐľÐ¾ÑģÐºÐ²Ðµ":2613,"ĠÑĥÐ²ÐµÐ»Ð¸Ñĩ":2614,"Ð»Ð¾Ð³":2615,"ĠÑĨÐµÑĢÐºÐ¾Ð²":2616,"ĠÐºÐ¸Ð½Ð¾ÑĢÐµÐ¶Ð¸ÑģÑģÑĳÑĢ":2617,"ĠÐ¾ÐºÐ°Ð·":2618,"ĠÐļÐ°Ð½":2619,"ĠÑĢÐµÐ¶Ð¸ÑģÑģÑĳÑĢ":2620,"Ð°ÑĦ":2621,"ĠÐļÐ¾Ð½ÑģÑĤÐ°Ð½ÑĤ":2622,"Ð±Ð¸":2623,"ĠÐĵÐ¾ÑģÑĥÐ´Ð°ÑĢ":2624,"ĠÑĩÐ°ÑģÑĤÐ¾":2625,"ĠÑĢÑĭ":2626,"ĠÐ¾ÑĩÐµÐ½ÑĮ":2627,"ĠÐ²Ð²ÐµÐ´":2628,"ĠÐ¿ÑĢÐµÐ·Ð¸Ð´ÐµÐ½ÑĤÐ°":2629,"ÑĢÐµÑĤÑĮ":2630,"ĠÐ±Ð°Ð·":2631,"ĠÐĳÐ¾ÑĢ":2632,"ĠÐ¸ÑģÐºÐ»ÑİÑĩ":2633,"ĠÐ¼Ð°ÑĪ":2634,"ĠÐ¿Ð¾ÑģÑĤÐ¾ÑıÐ½":2635,"ĠÐ½ÐµÑĦ":2636,"ĠÐŁÐµÑĢ":2637,"ĠÐ¿ÑĢÐµÐ¿Ð¾Ð´":2638,"ĠÐ½Ð°ÑĩÐ°Ð»":2639,"ĠÐ¡Ð¾Ð²ÐµÑĤÐ°":2640,"ÐĲÐ²":2641,"ĠÐ¸ÑĤÐ°Ð»ÑĮÑıÐ½ÑģÐºÐ¸Ð¹":2642,"ĠÐ¾Ð³ÑĢÐ°Ð½Ð¸Ñĩ":2643,"31":2644,"Ð¾Ð´Ð¾ÑĢÐ¾Ð¶":2645,"ĠÐ·Ð°Ñı":2646,"Ġp":2647,"ÑıÑĤÐ¸Ðµ":2648,"ĠÐ½Ð°ÑĩÐ°Ð»Ð¾":2649,"ĠÐ¼Ð¾ÑĢÑı":2650,"Ð¡Ð¾Ð³Ð»Ð°ÑģÐ½Ð¾":2651,"ed":2652,"ÐŁÐ¾Ð´":2653,"ĠÐ¢Ð¾Ð¼":2654,"Ġ=":2655,"ĠÐ·Ð°ÑĤÐµÐ¼":2656,"ĠÐ´Ð¸Ð¿":2657,"ĠÐ²Ð½ÐµÑĪ":2658,"ia":2659,"ĠÑĢÐ°Ð·Ð²Ð¸ÑĤÐ¸Ñı":2660,"ĠÐ²Ð¾Ð·Ð²":2661,"ĠÐ²ÑģÑĤÑĢÐµÑĩ":2662,"ĠÐ¾ÐºÐµ":2663,"ĠÐºÐ°ÑĢ":2664,"ĠÑĤÐµÐ¿":2665,"ĠÐºÐ¾Ð»Ð¸ÑĩÐµÑģÑĤÐ²Ð¾":2666,"ĠÐ¦ÐµÐ½ÑĤ":2667,"ĠÐ¿ÑĢÐ¾Ð²ÐµÐ´":2668,"ĠÐ½ÐµÐºÐ¾ÑĤÐ¾ÑĢÑĭÑħ":2669,"Ð°ÐºÑģÐ¸Ð¼":2670,"ĠâĢ":2671,"Ð¾Ð°Ð½":2672,"ĠÐ´ÑĥÑħ":2673,"ĠÑıÐ´":2674,"ĠÐ²ÑĢÐ°":2675,"ĠÐ¼Ð¸Ð»Ð»Ð¸":2676,"ĠÐºÐ¾Ð»Ð¾Ð½":2677,"40":2678,"Ð°Ð½Ð½ÑĭÐ¹":2679,"ĠÐĵÐµÐ½":2680,"Ġ2000":2681,".)":2682,"ÐºÑĢÐ°ÑĤ":2683,"ĠÐ¿ÑĢÐ¾ÑģÑĤ":2684,"ĠÑģÑĤÑĢÑĥÐºÑĤ":2685,"ÐµÐ½ÑĤÐ¾Ð²":2686,"ÑĢÐ¾Ð½Ð¾Ð¼":2687,"ĠÐ²Ð¾Ðº":2688,"ÐºÐ¸Ðµ":2689,"Ð°Ð½Ð³":2690,"ĠÐ¿Ð¾ÑĩÑĤÐ¸":2691,"Ð»Ð°Ð´Ð°":2692,"Ġ2010":2693,"Ð°ÑĨÐ¸Ð¸":2694,"ĠÐŁÐ°Ð²":2695,"ĠÑģÐ¾ÐµÐ´Ð¸Ð½":2696,"ĠÑĢÐ¾ÑģÑģÐ¸Ð¹ÑģÐºÐ°Ñı":2697,"Ð¾ÑĢÐ¾ÑĤ":2698,"ĠÑįÑĤÐ°":2699,"ĠÑģÐ¿ÐµÑĨÐ¸Ð°Ð»ÑĮ":2700,"Ð¾Ð»ÑĮÐºÑĥ":2701,"ÐłÐ°Ð·":2702,"ĠÑħÐ¾Ð·ÑıÐ¹":2703,"Ð¸Ð½ÑģÐºÐ¾Ð¹":2704,"Ð´Ð°Ð¼":2705,"ĠÐ´Ð¾Ð³Ð¾Ð²Ð¾ÑĢ":2706,"Ð¸ÑģÑĮ":2707,"ÑıÐ²Ð»Ñı":2708,"Ġ+":2709,"ĠÐ¿ÐµÐ´Ð°Ð³Ð¾Ð³":2710,"ĠÑĥÑģÐ¿":2711,"Ð´ÐµÑģÑĮ":2712,"ÐŃÑĤ":2713,"ÑĢÐµÑģ":2714,"ĠÐ±Ð¾ÑĢÑĮ":2715,"ÑĦÑĦÐµÐºÑĤ":2716,"ĠÐŀÑģ":2717,"ĠÐ»ÑİÐ´ÐµÐ¹":2718,"Ð¾ÑģÐ¿":2719,"Ð°ÐºÐ¾Ð½":2720,"Ð¸ÑĩÐµÑģÐºÐ¾Ð¼":2721,"ĠÑħÐ¾Ð´Ðµ":2722,"ĠÐ±Ð¸ÑĤ":2723,"ÑĢÐ¸ÑĢÐ¾Ð²":2724,"ĠÐ°Ñį":2725,"ĠÐ¾Ð±ÑıÐ·":2726,"Ð¾Ð³ÑĢÐ°ÑĦÐ¸Ñı":2727,"ĠÐ¿ÑĢÐ°Ð²Ð¸ÑĤÐµÐ»ÑĮÑģÑĤÐ²Ð°":2728,"ĠÑģÑĤÐ¾ÑĢÐ¾Ð½Ñĭ":2729,"ĠÐ²ÑģÑĳ":2730,"Ð»ÐµÐ½Ð¸Ð¹":2731,"ĠÐ¾ÑĤÐ¼ÐµÑĩ":2732,"Ð½Ð¸Ñı":2733,"ĠÑĢÐ¾Ð»ÑĮ":2734,"Ð»ÐµÐ½Ð¾":2735,"187":2736,"ÑĢÐ¾Ð·":2737,"ĠÐ´Ð°Ð²":2738,"ĠÐ¿ÐµÑĢÐ²Ð¾Ð¹":2739,"ĠÐ´Ð²Ð¾ÑĢ":2740,"ĠÐŀÐ±":2741,"ÑĥÑİÑĤÑģÑı":2742,"ent":2743,"ĠÑĨÐµÑĢÐºÐ²Ð¸":2744,"Ð¾ÑģÐ°":2745,"ĠÐ¾Ð¿ÑĢÐµÐ´ÐµÐ»Ñı":2746,"Ð¾Ð²ÑĭÐ¹":2747,"ĠÐľÐ°Ðº":2748,"ÑĢÐ¾Ð±":2749,"Ð½Ð¸ÑĨ":2750,"ĠÐ´ÐµÐ»":2751,"ĠÐ¸ÑģÑĤÐ¾ÑĢÐ¸Ðº":2752,"ĠÐ¶Ð¸Ð²Ð¾ÑĤ":2753,"Ð¾Ð²Ð¾Ð³Ð¾":2754,"ĠÐ²Ð¼ÐµÑģÑĤÐµ":2755,"ĠÐ´Ð¸Ð¿Ð»Ð¾Ð¼":2756,"ÐĲÑĢ":2757,"ĠÑħÐ¾ÑĢ":2758,"ĠÐ¿ÐµÑĢÐµÑħÐ¾Ð´":2759,"ĠÑĢÐµÐ»Ð¸Ð³Ð¸Ð¾Ð·":2760,"Ð¾ÑĢÐ°Ñħ":2761,"ĠÑĨÐ°ÑĢ":2762,"ĠÑģÑĤÐ°ÑĤÑĮ":2763,"ĠÐ·Ð¾Ð»Ð¾ÑĤ":2764,"ĠÐ°Ð²ÑĤ":2765,"Ð¸Ð´Ð°":2766,"ĠÐ²ÐµÑīÐµ":2767,"Ð»Ð°Ð²ÑıÐ½":2768,"am":2769,"ÐĲÐ½":2770,"ĠÑĢÐ¾Ð¼":2771,"ÑĪÐ»Ð¸":2772,"186":2773,"ĠÑģÑĤÑĢÐ°Ð½Ð°":2774,"ÑĥÑĢÑĥ":2775,"Ð¾Ð´ÐµÐ¹ÑģÑĤÐ²":2776,"Ð¸ÑģÐ°":2777,"ĠÐ³ÑĥÐ±ÐµÑĢÐ½":2778,"Ð»Ð¸Ð¹":2779,"ÑĢÐµÐ½Ð¸Ñı":2780,"ĠÐ½ÐµÐ³Ð¾":2781,"Ġ1990":2782,"Ð¶Ð¸":2783,"Ð½Ð°Ð´Ð»ÐµÐ¶":2784,"Ð»Ð°Ð¼":2785,"ÑĨÐ¸ÑģÑĤ":2786,"ĠÐ¸Ð½ÑģÑĤÐ¸ÑĤÑĥÑĤ":2787,"ĠÐ¾Ð±Ð¾Ð·Ð½Ð°Ñĩ":2788,"ĠÐºÑĥÐ»ÑĮÑĤÑĥÑĢ":2789,"ĠÐ¼Ð°Ð»":2790,"Ð¡ÑģÑĭÐ»ÐºÐ¸":2791,"ÑĩÐ¸":2792,"Ð¾ÐºÑģ":2793,"Ð¼Ð¾Ð½":2794,"ÑĨÐ¸Ðº":2795,"Ð°ÑĤÐ¾Ñĩ":2796,"ĠÐ¾ÑģÐ½Ð¾Ð²Ðµ":2797,"Ð°ÑģÑģÐ°Ð¶":2798,"Ð¾Ð±ÐµÐ»ÐµÐ²":2799,"ĠÐĴÐ¸Ðº":2800,"ĠÐ¾Ð´Ð½Ð¸Ð¼":2801,"ĠÐ¾ÑģÐ½Ð¾Ð²Ð½Ð¾Ð¼":2802,"ĠÐ½Ð°ÑĥÐº":2803,"ĠÑģÐ¸Ð¼Ð²Ð¾Ð»":2804,"ĠÐ¿ÑĢÐ¾Ð¿":2805,"ĠÐ³Ð»Ð°Ð²Ðµ":2806,"ĠO":2807,"ÑĢÐ°Ð¶ÐµÐ½Ð¸Ñı":2808,"ĠÐ¼ÐµÑģÑı":2809,"ĠÐ²Ð»Ð¸ÑıÐ½":2810,"Ð¸Ð²ÑĪÐ¸ÐµÑģÑı":2811,"ĠÐ¿ÑĢÐµÐ´Ð¿Ð¾Ð»":2812,"ÐµÑĢÐ¸Ñı":2813,"ĠÐ´Ð°Ð½Ð½ÑĭÐ¼":2814,"ĠÐ½Ð¸Ðº":2815,"ĠÐĴÐ»Ð°Ð´Ð¸Ð¼Ð¸ÑĢ":2816,"Ð°ÑĤÑĢÐ¸":2817,"ĠÑĤÐ°ÐºÐ¸Ñħ":2818,"Ġ|":2819,"ĠÐĴÐµÑĢÑħÐ¾Ð²":2820,"ĠÐ¾ÑģÑĤÑĢÐ¾Ð²Ð°":2821,"ĠÐ¾Ñħ":2822,"ĠÐ·Ð½":2823,"ĠÑįÑĤÐ¸":2824,"Ġ2008":2825,"ÐºÐ°Ð½ÑĤ":2826,"ÐļÑĢÐ¾Ð¼Ðµ":2827,"ĠÐĳÐ¾Ð»":2828,"Ð»ÑĥÑĩ":2829,"ĠÐ¶ÐµÐ»ÐµÐ·":2830,"ĠÐ¿ÐµÑĢÐµÐ¼":2831,"Ð·Ð½Ð¾Ð´Ð¾ÑĢÐ¾Ð¶":2832,"ĠÐ½Ð°Ð·ÑĭÐ²Ð°ÐµÐ¼":2833,"ĠÐ´Ð°Ð»ÑĮ":2834,"ÐµÑĩÐ°ÑĤ":2835,"ĠÐ´ÐµÐ¿ÑĥÑĤ":2836,"ĠÐ¢ÑĥÑĢ":2837,"Ð½Ð°ÑĢÑĥÐ¶":2838,"Ð½ÐµÑĢ":2839,"ĠÐºÐ°Ð¿":2840,"ĠÐĴÐµÐ»Ð¸":2841,"Ð±ÑĢÐµ":2842,"ĠÑģÐ²ÑıÑī":2843,"ĠÐŀÐŀ":2844,"ĠÐ¼ÑĥÐ¶":2845,"Ð°Ð»ÑĮÐ½Ð¾Ðµ":2846,"ĠÐĿÐ¸ÐºÐ¾Ð»Ð°Ð¹":2847,"ĠÐ´ÑĢÐ°Ð¼Ð°ÑĤ":2848,"Ð»Ð¾Ð¿":2849,"ÐĳÐ¾Ð»ÑĮÑĪ":2850,"Ð³Ñĥ":2851,"ĠÐ±Ð¾Ð»ÑĮÑĪÐµ":2852,"ĠÐ·Ð½Ð°Ðº":2853,"ĠÐ¿Ð¾Ð»Ñı":2854,"Ġ2011":2855,"Ð¾Ð»Ðµ":2856,"ĠÐ¾ÑĩÐµÑĢÐµÐ´":2857,"ÐļÐ¾Ð¼":2858,"ĠÐ¸Ð½Ð¾ÑģÑĤ":2859,"ĠÐ¿ÑĢÐ¸Ð½Ð°Ð´Ð»ÐµÐ¶":2860,"ĠÐ¿Ð¾Ð»ÑĥÑĩÐ¸Ð»":2861,"ĠÐļÐ¾Ð»":2862,"Ð¸Ð²ÑĪÐ¸Ð¹":2863,"ĠÑĢÐ°Ð·Ð»Ð¸ÑĩÐ½ÑĭÑħ":2864,"Ð¸Ð²Ð°ÐµÑĤ":2865,"ĠÐĴÐ¾Ð»":2866,"ĠÑĥÑĩÑĢÐµÐ¶Ð´":2867,"Ð¸ÑģÑĤÐ¾Ð²":2868,"ĠÐ²ÑĭÐ´":2869,"ĠÑħÐ¾ÑĤÑı":2870,"ĠÑĥÐ»Ð¸":2871,"ĠÐ¼Ð¸ÑĢÐ¾Ð²Ð¾Ð¹":2872,"Ð¾Ð²Ð°Ð»":2873,"ĠÐĲÑĢÐ¼":2874,"ÑĨÐ¾Ð²":2875,"ĠÐ¾ÑĤÐ¿ÑĢÐ°Ð²":2876,"ÑĥÐ±Ð»Ð¸ÐºÐ¾Ð²":2877,"Ð¿Ð°Ð¼ÑıÑĤÑĮ":2878,"ÑĥÐ´Ð°":2879,"Ð°Ð½Ð¸":2880,"âĢĻ":2881,"ĠÐ°Ðº":2882,"Ð¾ÑİÐ·":2883,"Ð±Ñĥ":2884,"ĠÑģÐ²ÐµÑĤ":2885,"ĠÑģÐ¼ÐµÑĢÑĤÐ¸":2886,"ĠÐ¼Ð½Ð¾Ð³Ð¸Ñħ":2887,"ÑĢÐ¸Ð³":2888,"Ð»Ð¾Ðº":2889,"ĠÐĶÐ¶Ð¾Ð½":2890,"ĠÐ£ÐºÑĢÐ°Ð¸Ð½Ñĭ":2891,"ĠÐ±Ð»Ð¸Ð·":2892,"ĠÐºÑĢÐ°Ñģ":2893,"ÑıÐµÑĤÑģÑı":2894,"ĠÐŁÐ¾Ð»ÑĮÑĪ":2895,"Ð»ÐµÐ²":2896,"ĠÐ¼Ð¸ÑĦ":2897,"ĠÐ¿Ð»Ð°ÑĤ":2898,"ÑĳÐ´":2899,"ĠÐ¿Ð¾Ð»ÑĳÑĤ":2900,"ĠÐµÐ²ÑĢÐ¾Ð¿ÐµÐ¹":2901,"Ð°Ð´Ñĭ":2902,"ĠÐºÐ¾ÑĢÐ¾Ð»ÐµÐ²":2903,"ĠÐ¿ÑĢÐ¸Ð²Ð¾Ð´":2904,"Ð²Ð°ÐµÑĤ":2905,"ÑĦÐ¾ÑĢÐ¼Ð¸ÑĢÐ¾Ð²":2906,"ĠÑĦÐµÐ´ÐµÑĢÐ°":2907,"Ð½Ð°Ð»Ð¸ÑģÑĤ":2908,"Ð¾ÑĤÑĭ":2909,"Ð¡Ð¿":2910,"Ð¾Ð¿Ð°Ñģ":2911,"ĠÐ½ÐµÑĤ":2912,"ĠÐºÐ¾Ð½Ðº":2913,"ĠÐ²Ð»Ð°ÑģÑĤÑĮ":2914,"ÑĪÐ¸ÑĢ":2915,"ÐºÐ°Ð·ÑĭÐ²Ð°":2916,"ĠÐ·Ð°Ð¿ÑĢÐµ":2917,"ĠÐ¿Ð¾ÑĢÑıÐ´":2918,"ĠÑĤÐ°ÐºÐ¸Ðµ":2919,"ĠÐŁÐµÑĢÐ²":2920,"ĠÐ¼Ð½Ð¾Ð³Ð¸Ðµ":2921,"Ð¸Ð¾":2922,"ĠÐ¾Ð·":2923,"ĠÐºÑĥÐ»ÑĮÑĤÑĥÑĢÑĭ":2924,"ĠÐ½ÐµÐºÐ¾ÑĤÐ¾ÑĢÑĭÐµ":2925,"ĠÑģÐ¾Ñģ":2926,"ÑĳÐ½Ð½Ð¾Ð¹":2927,"ĠÑįÐ¿Ð¾Ñħ":2928,"Ð¾Ð¸ÑĤ":2929,"ĠÐ¶Ð¸Ð²Ð¾Ð¿Ð¸Ñģ":2930,"Ð³ÐµÐ»ÑĮ":2931,"ÑĨÐ°Ð¼Ð¸":2932,"ĠÐ·Ð°Ð²ÐµÑĢÑĪ":2933,"Ġ100":2934,"ÑĩÐµÐ¹":2935,"Ð¡Ð¾Ð²":2936,"ĠÑĢÑĥÐ±":2937,"ĠÑĢÐ°ÑģÑģÐ¼Ð°ÑĤÑĢÐ¸":2938,"Ð°Ð»ÑĤ":2939,"ĠÐ´Ð°ÑĤ":2940,"ĠÐ¿ÑĢÐµÐ´ÑģÑĤÐ°Ð²Ð»Ñı":2941,"ÑĨÐ¾Ð³":2942,"ÑģÑĤÐ¾Ð½":2943,"ĠÐºÐ¾Ð½ÑģÑĤÐ¸ÑĤÑĥ":2944,"ĠÑĢÐµÐ»Ð¸Ð³":2945,"Ð¾Ð¶Ð´ÐµÐ½Ð¸Ðµ":2946,"ĠÐ¿Ð¾Ð·Ð´":2947,"ÑģÑĤÐ²ÐµÐ½Ð½Ð¾Ðµ":2948,"Ð»Ð¸ÑĤÐµÐ»ÑĮ":2949,"ĠÑĤÐµÑĩÐµÐ½Ð¸Ðµ":2950,"Ġ50":2951,"ĠÑıÐ·ÑĭÐºÐ¾Ð²":2952,"ĠÑĤÐ²Ð¾ÑĢ":2953,"ĠÐ¿Ð¾Ð´Ð³Ð¾ÑĤÐ¾Ð²":2954,"ÐĶÐ¶":2955,"ĠÐ¿ÐµÑĢÐ²Ð°Ñı":2956,"Ð¸Ð±Ð»Ð¸Ð¾ÑĤ":2957,"ĠÐ½Ð°ÑģÑĤÐ¾ÑıÑīÐµÐµ":2958,"Ð²ÑĳÑĢ":2959,"ĠÐľÐ¾ÑģÐºÐ¾Ð²":2960,"ĠÑĢÐµÐºÐ¸":2961,"ÑİÑģÐµÑĢ":2962,"Ð£Ð¼ÐµÑĢ":2963,"ÐµÐ½Ð½":2964,"ĠÑģÐ¸Ð»Ñĭ":2965,"ĠÐ¼Ð¾Ð¼ÐµÐ½ÑĤ":2966,"ÐķÑģÐ»Ð¸":2967,"ĠÐ¿ÑĢÐ¾Ð³ÑĢÐ°Ð¼Ð¼":2968,"ĠÐ¿ÑĢÐ¸Ð½Ð¸Ð¼":2969,"ĠÐ¿Ð¾Ð¿ÑĥÐ»ÑıÑĢ":2970,"ÐĺÑģÑĤÐ¾ÑĢÐ¸Ñı":2971,"ĠÐ²ÐµÑĢ":2972,"ĠÐ¿ÑĢÑıÐ¼":2973,"ĠÐ¾ÑĤÐ²ÐµÑĤ":2974,"ÐŁÑĢÐµÐ´":2975,"Ð°ÑĢÑĭ":2976,"ac":2977,"ĠÐĲÐ¼ÐµÑĢ":2978,"ĠÐ´Ð¸Ð¿Ð»Ð¾Ð¼Ð°ÑĤ":2979,"ig":2980,"ĠÐĲÐ½Ð³Ð»Ð¸":2981,"ĠÐ²Ð¸Ð´Ð¾Ð²":2982,"ĠÐºÑĢÐµÐ¿":2983,"Ð¸ÑĩÐ°":2984,"Ð°ÑģÐ¿":2985,"ĠÐºÐ¸Ñģ":2986,"ĠÐºÐ¾ÑĢÐ¾Ð»Ñı":2987,"Ð¸ÑģÐ¿":2988,"ĠÐ¾Ð±Ð½Ð°ÑĢÑĥÐ¶":2989,"ĠÐ¿Ð¾Ð¼Ð¾ÑīÑĮÑİ":2990,"ÑģÑĤÐµ":2991,"ĠÑĦÐ°ÐºÑĤ":2992,"ĠÐºÐ¾Ð½ÑģÑĤÑĢÑĥ":2993,"ÐĴÑĭ":2994,"ÑĢÐ¾ÑģÑĤ":2995,"ÐļÐ°Ðº":2996,"Ð¾Ð»Ñı":2997,"Ġ2007":2998,"ĠÐ¾Ð±ÑĭÑĩÐ½Ð¾":2999,"ÑĥÐºÑĤ":3000,"ÐŁÑĢÐ¾":3001,"ĠÐ¿ÑĢÐµÐ´ÑģÐµÐ´":3002,"Ð¸Ð½ÑģÐºÐ¾Ð³Ð¾":3003,"Ġ24":3004,"ĠÐ¿ÐµÑĢÐµÐ¿":3005,"ĠÐ¡Ð²ÑıÑĤ":3006,"ĠÑģÑĤÐ°Ð»Ð¾":3007,"ÑģÑĤÑĮÑıÐ½":3008,"78":3009,"Ð¸Ð·Ð°ÑĨÐ¸Ð¸":3010,"ĠÐ¸Ð´":3011,"ÐµÐ·Ð´Ð°":3012,"ĠÐ¾ÑĢÐ³Ð°Ð½Ð¸Ð·":3013,"ĠÐ²ÐµÐ»Ð¸":3014,"ĠÑģÐ±Ð¾ÑĢ":3015,"ĠÑĤÑĢÑĥ":3016,"ĠÐŁÐ°ÑĢÐ¸":3017,"ĠÑģÐ¾Ð³Ð»Ð°":3018,"ĠÐºÐ¾Ð½ÑĦ":3019,"ĠÐ¾Ð´Ð½Ð¾Ð³Ð¾":3020,"ÑĢÐ°Ðº":3021,"ĠÐºÐ¾Ð¼Ð¿ÑĮÑİÑĤ":3022,"ĠÐ±Ð¾Ð»":3023,"Ð½Ð°ÑģÑĤ":3024,"ĠÐ¾Ð´Ð½Ð¾":3025,"ĠÐ¸Ð·Ð±ÑĢÐ°Ð½":3026,"ĠJ":3027,"ÑĪÑĳÐ»":3028,"ĠÐ¾Ð±Ð»Ð°ÑģÑĤ":3029,"ĠÐ½Ð¾Ñģ":3030,"ĠÐ¸ÑģÐ¿Ð¾Ð»ÑĮÐ·ÑĥÐµÑĤÑģÑı":3031,"ĠÐ¿ÐµÐ²ÐµÑĨ":3032,"ÑģÐºÐ°Ð·":3033,"Ð³ÐµÐ½ÑĤ":3034,"ĠÑĢÐ¾ÑģÑĤ":3035,"ĠIV":3036,"ĠÑĤÐµÑĢÐ¼Ð¸Ð½":3037,"um":3038,"Ġof":3039,"ĠÐ¼ÐµÐ½ÑĮ":3040,"ĠÐ¿Ð¾Ð²ÐµÑĢÑħ":3041,"ĠÐ¡Ð¾Ð²ÐµÑĤÑģÐºÐ¾Ð³Ð¾":3042,"ĠÐ²ÐµÑĤ":3043,"Ð±ÐµÑĢ":3044,"ĠÐºÐ¸ÑĤÐ°Ð¹":3045,"ĠÐ·Ð°Ð²Ð¾Ð´":3046,"ÑĢÑİ":3047,"ĠÐ·Ð°ÑıÐ²":3048,"ĠÐ¿ÑĢÐ°Ð·Ð´":3049,"ĠÐĴÐ¾ÑģÑĤÐ¾Ñĩ":3050,"Ð°ÑĨÐ¸Ð¾Ð½":3051,"ĠÐ»Ð¸ÑĨ":3052,"ĠÐĴÐ¸Ð»ÑĮ":3053,"ĠÐ·Ð½Ð°ÑĩÐµÐ½Ð¸Ðµ":3054,"ĠÐ²Ð¾Ð´Ñĭ":3055,"ĠÐ¿Ð°ÑģÑģÐ°Ð¶":3056,"Ð²ÑıÑī":3057,"ĠÐ»Ð°ÑĤ":3058,"ĠÐ´ÐµÑģÑıÑĤ":3059,"ĠÐ±ÐµÑĢÐµÐ³":3060,"Ð¼Ð¾":3061,"Ġc":3062,"Ġ1991":3063,"ĠÐ²Ð¾Ð¾ÑĢÑĥÐ¶":3064,"ĠÑģÐ¾Ð±ÑĢÐ°Ð½":3065,"Ð¾Ð·Ð°":3066,"ĠÑĪÐ²ÐµÐ´":3067,"ÑĥÑģÑģ":3068,"ĠÐ¿Ð¾Ð»Ð½Ð¾ÑģÑĤÑĮÑİ":3069,"ĠÑĪÐºÐ¾Ð»Ñĭ":3070,"ÑıÐ±ÑĢÑĮ":3071,"ĠÐ¾Ð»Ð¸Ð¼Ð¿Ð¸Ð¹ÑģÐºÐ¸Ð¹":3072,"Ð¾Ð´Ð°ÑĢÑı":3073,"Ð»Ð¸Ñı":3074,"Ð¸Ð¹ÑģÐºÐ¾Ð³Ð¾":3075,"Ð¸Ð·Ð°Ð½ÑĤ":3076,"ĠÑıÐ¿Ð¾Ð½":3077,"ĠÐ½Ð°ÑģÐ»ÐµÐ´":3078,"ĠÑģÐ²Ð¾Ð¸":3079,"ÑĥÑİÑīÐ¸Ñħ":3080,"SB":3081,"Ð°Ñİ":3082,"ĠÐ¾Ð¿ÑĥÐ±Ð»Ð¸ÐºÐ¾Ð²":3083,"ĠÐ¿Ð¾Ð¿ÑĭÑĤ":3084,"ĠÐĴÐµÐ»Ð¸ÐºÐ¾Ð±ÑĢÐ¸ÑĤÐ°Ð½Ð¸Ð¸":3085,"ĠÐĴÐ°Ð»":3086,"Ġ2009":3087,"ĠÐ¼ÐµÑĤÐ°Ð»":3088,"Ġ[":3089,"Ð¾Ð±ÑīÐµ":3090,"ÑĢÑıÐ´":3091,"ÑĨÐ¸ÑĦ":3092,"ÑĢÐ°Ð»":3093,"ÑĪÐ»Ð°":3094,"ĠÐ¾Ð±Ð»Ð°ÑģÑĤÑĮ":3095,"Ġ2012":3096,"ĠÐ²Ð¾ÑģÑĤÐ¾Ñĩ":3097,"ĠÐ²ÐµÑģ":3098,"ÑĢÐ°Ð³":3099,"Ð°Ð½Ð´Ð°ÑĢÑĤ":3100,"Ð¸ÑĤÐµÑĤ":3101,"ĠÐŀÑĢ":3102,"ĠÐ¶ÑĥÑĢÐ½Ð°Ð»Ð¸ÑģÑĤ":3103,"ut":3104,"id":3105,"ĠÐ·Ð°Ð¿Ð¸Ñģ":3106,"ir":3107,"ÐºÐ°Ð¼":3108,"Ð¾Ð²Ð¾Ð»ÑĮ":3109,"ĠÑĩÐµÐ»Ð¾Ð²ÐµÑĩÐµ":3110,"Ð½Ð¸ÐºÐ°Ð¼Ð¸":3111,"ÐĿÐµ":3112,"ĠÐ¡Ð°Ð½ÐºÑĤ":3113,"ĠU":3114,"ĠÐ¿Ð¾Ð»Ð¸ÑĤÐ¸Ðº":3115,"ĠÑĥÐ½Ð¸Ð²ÐµÑĢÑģÐ¸ÑĤÐµÑĤ":3116,"ĠÐºÐ°ÑĢÑĤ":3117,"ĠÐ³Ð»ÑĥÐ±":3118,"ĠÐĺÐ½":3119,"ÐºÑĤÐ¾ÑĢ":3120,"ĠÐ³Ð¾ÑģÑĥÐ´Ð°ÑĢÑģÑĤÐ²":3121,"ĠÐ¾ÐºÑĢÑĥÐ¶":3122,"ĠÐ´Ð¸Ð½Ð°ÑģÑĤ":3123,"ĠÐ´Ð¾ÑģÑĤÐ¸Ð³":3124,"ĠÐ±ÑĥÐº":3125,"ĠÐŀÑĤ":3126,"ĠÐ¿ÐµÑĢÐ²Ð¾Ð³Ð¾":3127,"Ð°ÑĤÐ¾Ð¼":3128,"ĠÐºÐ¾ÑģÐ¼Ð¾Ð½Ð°Ð²":3129,"ĠÐ»Ð¸Ð±Ð¾":3130,"Ð¶ÐµÐ½Ð¸Ñı":3131,"ĠÐ¼ÑĭÑģ":3132,"Ð¸ÑĩÐµÑģÐºÐ¸Ð¼Ð¸":3133,"ĠÐºÐ»Ð¸":3134,"ĠÑĦÐ»Ð¾ÑĤ":3135,"ĠÐ¿Ð°ÑĢÑĤÐ¸Ñı":3136,"ÐµÑĢÐ¸Ð¼":3137,"ĠÐ¼Ð»ÑĢÐ´":3138,"ĠÐľÐ¾Ð½":3139,"ĠÑĢÐ°Ð·Ð²Ð¸ÑĤÐ¸Ðµ":3140,"ÐµÐ½ÑĨÐ¸Ð¸":3141,"ĠÐ¾ÑĢÐ³Ð°Ð½Ð¸Ð·Ð°ÑĨÐ¸Ð¸":3142,"ĠÐ¿ÑĢÐ¸Ñĩ":3143,"Ð½Ð¾Ð³":3144,"ĠÐ¿ÑĤ":3145,"Ġ23":3146,"Ð¿ÑĢÐ¸Ð¼ÐµÑĢ":3147,"ĠÐ°ÑģÑĤÑĢÐ¾Ð½Ð¾Ð¼":3148,"Ð°Ð¹ÑĤ":3149,"ĠÐ¿ÐµÑĢÐµÑģ":3150,"ĠÐĲÑĦÑĢÐ¸":3151,"ĠÑĤÑĥ":3152,"ÑĦÐ¸ÑĨÐ¸":3153,"ĠÐŁÑĢÐ¸":3154,"ĠÑĦÐ¸Ð»Ð¾ÑģÐ¾ÑĦÐ¸Ð¸":3155,"ĠÑĦÐ¸Ð·Ð¸Ðº":3156,"ÐĵÐ¾ÑĢÐ¾Ð´":3157,"Ð¾ÑĢÑĥÑģ":3158,"Ð¾Ð³ÑĢÐ°ÑĦÐ¸Ð¸":3159,"ĠÐ¸Ð½Ð¾ÑģÑĤÑĢÐ°Ð½":3160,"Ġs":3161,"ĠÐłÐ¤":3162,"ĠÐ·Ð°Ð³":3163,"ĠÐ¾ÑĤÑģÑĥÑĤÑģÑĤÐ²":3164,"ÑģÐºÐ¸":3165,"ÑĢÑĭÐ²":3166,"ÑĥÐ»Ð¸ÑĢÐ¾Ð²":3167,"ÑĦÐ¾Ð½":3168,"Ð¾ÐºÐ¾Ð¼":3169,"ÑģÑĤÐ²ÐµÐ½Ð½Ð°Ñı":3170,"ĠÐ¿ÑĢÐ¾ÑħÐ¾Ð´":3171,"ĠÐ½ÐµÐ±Ð¾Ð»ÑĮÑĪ":3172,"Ð¾Ð»Ð¾Ð´":3173,"ĠÐ´Ð¾ÑģÑĤÐ¸":3174,"ÑįÐ¹":3175,"Ð¾Ð²Ð°ÑĤÑĮ":3176,"ÑĮÐµÐ²":3177,"ĠÐ²Ð¾ÑģÑģÑĤÐ°Ð½Ð¾Ð²":3178,"SBN":3179,"ad":3180,"ĠÐ»ÑĥÑĩ":3181,"ĠÐ¿Ð°Ð¼ÑıÑĤÑĮ":3182,"ĠÑĢÐ°Ð±Ð¾Ñĩ":3183,"ĠÐ·Ð°ÑīÐ¸ÑĤ":3184,"Ð£Ð¼ÐµÑĢÑĪÐ¸Ðµ":3185,"ĠÐ²ÐµÑĢÐ¾":3186,"ĠÐĿÐ¾Ð±ÐµÐ»ÐµÐ²":3187,"ĠÐ¿ÑĢÐ¾Ð²Ð¸Ð½":3188,"ÑĪÐµÐ¼":3189,"ÑģÐ¸":3190,"ĠÑģÐ¾ÑĤÑĢÑĥÐ´":3191,"ĠÐ¾ÑĤÐºÐ°Ð·":3192,"ÑģÑĤÐ²ÐµÐ½Ð½ÑĭÐ¼":3193,"ĠÐ½Ð°ÑĩÐ¸Ð½Ð°":3194,"ĠÐĺÐ²Ð°Ð½Ð¾Ð²":3195,"ĠÐ³Ð³":3196,"ĠÐ²Ð¾Ð·ÑĢÐ°ÑģÑĤ":3197,"ĠÐ²ÑĭÐ¿Ð¾Ð»Ð½":3198,"Ð°ÑģÑĤÑĭ":3199,"Ð¾ÑĢÐ´":3200,"ĠÐ²Ð¾ÐµÐ½Ð½ÑĭÐ¹":3201,"ÑĩÐµÐ±":3202,"Ð°Ð²ÑĪÐ¸Ñħ":3203,"ĠÐ²Ð·Ð°Ð¸Ð¼Ð¾Ð´ÐµÐ¹ÑģÑĤÐ²":3204,"ĠÐ¸Ð¼ÐµÐ½":3205,"ĠÐ¼Ð¾ÑĢÐµ":3206,"ÐµÐ½Ð¸ÑĤ":3207,"ĠÐºÐ¾Ð½Ñģ":3208,"Â»),":3209,"ĠÑĨÐµÐ½ÑĤÑĢ":3210,"ĠÐĻ":3211,"ÐµÐ¼ÑĭÑħ":3212,"Ġ2017":3213,"ĠÑģÑĤÐµÐ¿ÐµÐ½Ð¸":3214,"ÑĥÐ»Ñĭ":3215,"ĠÑģÐµÑĤ":3216,"Ð½Ð¸Ñİ":3217,"ĠÑĢÐ°Ð¹Ð¾Ð½Ðµ":3218,"ÑĢÐ°Ñħ":3219,"ĠÐµÐ¿Ð¸ÑģÐºÐ¾Ð¿":3220,"ĠÐ¿ÐµÑĢÐ²ÑĭÐ¼":3221,"Ð°ÑĢÐº":3222,"ÑĥÑĤÑĮ":3223,"ĠÐ¼Ð°ÑĢÑĪ":3224,"ĠÐĲÐ½ÑĤ":3225,"ĠÐ»Ð¸ÑĤÐµÑĢÐ°ÑĤÑĥÑĢ":3226,"Ð¾Ð²Ð°Ð½Ð¸Ð¹":3227,"ĠÐ¾Ð±ÑĢÐ°Ð·Ð¾Ð²Ð°Ð½Ð¸Ñı":3228,"ĠÑĤÐ¾ÑĤ":3229,"Ð¸Ð¼Ð¾":3230,"ĠÐŁÐ¾Ð»":3231,"Ð¾Ð½Ð°Ñĩ":3232,"Ġ2013":3233,"Ġ2014":3234,"Ð¸Ð¼ÐµÐ½":3235,"ĠÐ¿ÑĢÐ¸ÑħÐ¾Ð´":3236,"Ð¸ÑĦÐ¸ÐºÐ°":3237,"ĠÐ¼ÑĥÐ·ÑĭÐºÐ°Ð»ÑĮ":3238,"Ð³Ð°ÑĢ":3239,"Ð°ÑİÑīÐ¸Ðµ":3240,"ĠÑĥÐ¼ÐµÑĢ":3241,"ÐŁÑĢÐµ":3242,"ĠÑĦÐ°Ðº":3243,"ĠÐĺÐ²Ð°Ð½":3244,"ĠÑĥÐ·":3245,"ĠÐ¾Ð±ÑĢÐ°Ñī":3246,"ĠÑģÐ¾Ð³Ð»Ð°Ñģ":3247,"ĠÑģÑĩÑĳÑĤ":3248,"Ð±ÐµÑĢÐ³":3249,"Ġ2018":3250,"ĠÐ´ÑĢÐ°Ð¼Ð°ÑĤÑĥÑĢÐ³":3251,"ĠÐ¿ÑĢÐ¸Ð±":3252,"Ð¸Ð´ÐµÑĢÐ»Ð°Ð½Ð´":3253,"Ġ26":3254,"Ð²Ð°ÐµÑĤÑģÑı":3255,"ÐµÑĢÐ¾Ð¼":3256,"ĠÐ±Ð°Ð»":3257,"ĠÑģÑĤÐ°Ð²":3258,"ĠÐľÐ¸ÑħÐ°Ð¸Ð»":3259,"ĠÑģÑĬ":3260,"Ð¸ÑĨÐ¸Ñı":3261,"ĠÑĨÐµÐ»ÑĮ":3262,"ĠÑģÐ¾Ð³Ð»Ð°ÑģÐ½Ð¾":3263,"ĠÑĥÐ½Ð¸Ð²ÐµÑĢÑģÐ¸ÑĤÐµÑĤÐ°":3264,"Ð¼Ð¾ÑĤÑĢÑı":3265,"ĠÑĤÐ¾Ð¿":3266,"ĠÐ´ÐµÑıÑĤÐµÐ»ÑĮÐ½Ð¾ÑģÑĤÐ¸":3267,"ĠÐ¿ÑĢÐ¾Ð¸ÑģÑħÐ¾Ð¶Ð´ÐµÐ½Ð¸Ñı":3268,"Ð¸Ð¼Ð°":3269,"ÐŁÐ¾Ð»":3270,"ÐµÐ½Ð·":3271,"ÑĢÐ¸ÑĨ":3272,"Ġ2005":3273,"ĠÐĽÐµÐ½Ð¸Ð½":3274,"ĠÐ¼Ð¾Ñī":3275,"ÐºÐ°ÑĤÐµÑĢ":3276,"ĠÐ½Ð°Ð±Ð»ÑİÐ´":3277,"ĠÑģÑĢÐ°Ð²Ð½":3278,"Ð¾Ð¿Ð¾Ð»Ð¾Ð¶":3279,"ĠÐ¿ÑĢÐ¾Ð´ÑİÑģÐµÑĢ":3280,"Ð¶ÐµÐ½Ð¸Ðµ":3281,"Ð°ÑĤÐµÐ»ÐµÐ¼":3282,"ÐµÑĢÐ°ÑĤÐ¾ÑĢÐ°":3283,"Ð¾ÑĩÑĮ":3284,"ĠÐ¼Ð¾Ð»Ð¾Ð´":3285,"ĠÐ²ÑģÐµÐ¼":3286,"Ġ2006":3287,"ĠÐļÐŁ":3288,"ĠÑĢÐ°Ð·Ð´ÐµÐ»":3289,"Ġ185":3290,"Ġ184":3291,"ĠÑĤÐ°Ð¼":3292,"Ð¸Ð»Ð¸Ð¹":3293,"ĠÑĨÐµÐ½ÑĤÑĢÐ°Ð»ÑĮ":3294,"ĠÑģÑĥÐ¼":3295,"ĠÐ¼Ð°Ð½":3296,"ÑħÐ°":3297,"ĠÐ½Ð°ÑĤ":3298,"ÑĩÐµÐ²":3299,"ĠÐ´Ð²Ðµ":3300,"ÑĢÐ°ÑĨÐ¸Ð¸":3301,"Ġ%.":3302,"ÑĳÐ½Ð½Ð¾Ð³Ð¾":3303,"ÐłÐ¾Ð´Ð¸Ð²ÑĪÐ¸ÐµÑģÑı":3304,"ĠÐ°Ð¿Ð¿":3305,"Ð½ÐµÑĩ":3306,"Ġ2020":3307,"ĠÐŀÐŀÐĿ":3308,"ĠÐ±ÐµÑģÐ¿":3309,"Ġ2004":3310,"ĠÑĤÐ¾Ð½":3311,"Ð¾ÑĢÐ¸":3312,"ĠÑĤÑĥÑĢ":3313,"ĠÑĢÐ°Ð¼":3314,"ĠÐ¿Ð¾ÑĤÑĢÐµÐ±":3315,"ÑĢÐ°Ð½Ð°":3316,"ĠÑģÐ¿Ð¾ÑĢÑĤ":3317,"Ġ2019":3318,"Ð»ÑıÐ½Ð´":3319,"ÑĢÐ¾ÑĤÐ¸Ð²":3320,"ĠÑģÐ²ÑıÑīÐµÐ½":3321,"Ð»ÐµÐ´ÑģÑĤÐ²Ð¸Ð¸":3322,"ĠÐĿÐ°ÑĨÐ¸Ð¾Ð½Ð°Ð»ÑĮ":3323,"ĠÐ¿Ð°Ð¿":3324,"ĠÐ½Ð°Ð·ÑĭÐ²":3325,"Ġ2015":3326,"ĠÐļÐ°ÑĢÐ»":3327,"ÑĨÐºÐ¸Ð¹":3328,"Ð¸Ð»Ð¸Ð¿Ð¿":3329,"ÐµÑĢÐ¼Ð°Ð½":3330,"ÐºÐ¸Ð¿":3331,"ÑĮÐ¸":3332,"Ð¾Ð¿ÑĢÐ¸":3333,"ĠÑģÐ¾ÑģÑĤÐ°Ð²Ðµ":3334,"ĠÐļÐ¾Ð½ÑģÑĤÐ°Ð½ÑĤÐ¸Ð½":3335,"ĠÐ¼Ð°ÑģÑĤ":3336,"Ð³Ð»Ñı":3337,"Ð°ÑĤÐµÐ»ÑĮÐ½Ð¾":3338,"ÑıÐ»":3339,"ĠÑģÑĥÑīÐµ":3340,"Ð³Ð»Ð°Ð²":3341,"ĠÐ¾Ð±ÑĥÑĩ":3342,"ÐµÐ½Ð¸ÑıÑħ":3343,"ĠÐ±Ð°Ð½":3344,"Ð¾Ð·Ð¼Ð¾Ð¶":3345,"ĠÑĩÐµÐ³Ð¾":3346,"ĠÐ°Ð½Ð³":3347,"ĠÐ±ÑĢÐ°ÑĤ":3348,"ĠÑģÑĤÐ°Ð½Ð¾Ð²Ð¸ÑĤÑģÑı":3349,"Ð´ÐµÐ»Ð°":3350,"Ð¸Ð»ÐµÑĤ":3351,"ÐµÐ¾ÑĢÐ³":3352,"ĠÐ³ÑĢÐµÑĩÐµ":3353,"ĠISBN":3354,"ĠÑĦÑĢÐ¾Ð½":3355,"Ġ28":3356,"ĠÐ°Ð²ÑĤÐ¾Ð¼Ð¾Ð±":3357,"ĠÐ¸Ð³ÑĢÐ°":3358,"ĠÐ¼Ð½ÐµÐ½Ð¸Ñİ":3359,"ĠÑĦÐ¸Ð»ÑĮÐ¼":3360,"Ð½Ð°Ð¿ÑĢÐ¸Ð¼ÐµÑĢ":3361,"ĠÐ¸Ð½ÑĤÐµÑĢÐµÑģ":3362,"Ð¸Ð»Ðµ":3363,"Ð½Ð¸Ð¸":3364,"ĠÐ¿ÑĢÐ°Ð²Ð¾":3365,".).":3366,"ÑģÐ²":3367,"ĠÐ³Ð¾ÑĢÐ¾Ð´Ð¾Ð²":3368,"ÐµÑĪÐµ":3369,"ĠÐĲÐ´":3370,"ÑĩÐ¸ÑģÐ»ÐµÐ½":3371,"Ð¸Ð½Ð°Ð¼":3372,"ĠÐ±Ð¸Ð±Ð»Ð¸Ð¾ÑĤ":3373,"Ð»ÑıÐµÑĤÑģÑı":3374,"ĠÐ½Ð°ÑĥÐºÐ¸":3375,"ĠÐ¦ÐµÐ½ÑĤÑĢÐ°Ð»ÑĮ":3376,"ÐµÐ¹Ð¼":3377,"ĠÐ´ÑĥÑĪ":3378,"ĠÐ³Ð¾ÑģÑĥÐ´Ð°ÑĢÑģÑĤÐ²Ð¾":3379,"ĠÐ½ÐµÑģÐºÐ¾Ð»ÑĮ":3380,"ĠÐĵÐµÑĢÐ¾Ð¹":3381,"ĠÐĳÐ°ÑĢ":3382,"Ġ40":3383,"ĠÐ²Ð¾ÑģÐ¿":3384,"ĠÐ´ÑĢÑĥÐ³Ð¾Ð¹":3385,"ĠÐ·Ð°Ð²Ð¸ÑģÐ¸Ð¼":3386,"ĠÐ¦Ðļ":3387,"ĠÐĿÐ¾Ð±ÐµÐ»ÐµÐ²ÑģÐºÐ¾Ð¹":3388,"ÑĥÐ»Ð°":3389,"Ð¸Ð²Ð°ÐµÑĤÑģÑı":3390,"Ġ2016":3391,"ÑģÑĤÑĢÐ¸Ð¹":3392,"ÑĢÐµÐ³":3393,"ĠÐ¸ÑģÑģÐ»ÐµÐ´Ð¾Ð²Ð°Ð½Ð¸Ñı":3394,"ÐĴÑģÐµ":3395,"Ð¸ÑģÑĤÑĭ":3396,"ĠÑģÐ²Ð¾Ñĳ":3397,"ĠÂ°":3398,"ĠÐµÑģÑĤÐµ":3399,"ÑİÑīÐ°Ñı":3400,"ĠÐ³ÑĢÑĥÐ·":3401,"Ð°ÐºÐ°":3402,"ĠÐ´Ð¾ÐºÑĥÐ¼ÐµÐ½ÑĤ":3403,"ĠÑĢÑı":3404,"70":3405,"ĠÐºÐ¾Ð¼Ð¿Ð°Ð½Ð¸Ð¸":3406,"Ð¼ÐµÑī":3407,"Ð»ÐµÐ½Ð¸Ñİ":3408,"ÐĿÐ°Ð¿":3409,"ĠÑģÑĥ":3410,"ĠÑģÐ¾ÑĩÐ¸Ð½":3411,"ĠÐĲÐ¼":3412,"ĠÐĺÐ¾Ð°Ð½":3413,"ĠÐ´Ð¾Ð¿Ð¾Ð»Ð½":3414,"ÐµÐ½ÑģÐºÐ¸Ð¹":3415,"Ð·ÐµÐ¼":3416,"ĠÑĥÑĩÑĳÐ½ÑĭÐ¹":3417,"ĠÑģÑĭÐ½":3418,"ĠÐ¡Ð¿":3419,"ĠÑģÐ°Ð¼ÑĭÑħ":3420,"Ð°ÑģÐº":3421,"ÑīÐ¸Ðº":3422,"ĠÑĢÐ°Ð·Ð¼ÐµÑĢ":3423,"Â²":3424,"ÑģÐ¼":3425,"ĠÐŃÐ¹":3426,"Ð¾Ð»Ð¸":3427,"ĠÑĥÑģÑĤÑĢÐ¾Ð¹":3428,"ĠÑģÐµÐ±Ðµ":3429,"ĠÐ°ÑģÑģ":3430,"ĠÐ¿ÑĢÐ¾Ð¸ÑģÑħÐ¾Ð´Ð¸ÑĤ":3431,"ÐºÐ¾Ð²Ð°":3432,"Ð°ÑģÑĤÑĢÐ¾ÑĦÐ°":3433,"185":3434,"Î±":3435,"ĠÐķÐ³Ð¸Ð¿":3436,"ĠÐ°ÑĢÐ°Ð±":3437,"ĠÐ¿Ð¾ÑģÐº":3438,"ĠÐ·Ð°ÑħÐ²Ð°ÑĤ":3439,"Ð¸Ð¹ÑģÐºÐ¸Ñħ":3440,"Ð¾ÑĤÑĢÐµÐ±":3441,"ĠÐ¿ÑĢÐ°Ð²Ð¾ÑģÐ»Ð°Ð²":3442,"ĠÐ´Ð»Ð¸":3443,"Ð¸Ð¹ÑģÐºÐ°Ñı":3444,"ĠÑĩÐ¸ÑģÐ»ÐµÐ½":3445,"ĠÑģÑĥÑīÐµÑģÑĤÐ²ÑĥÐµÑĤ":3446,"ĠÐ¿Ð¾Ð½Ð¸Ð¼":3447,"ĠÑĢÐ°Ð·Ð³":3448,"ĠÑģÐ°Ð¼Ð¾":3449,"Ð¾Ð»Ñİ":3450,"ÑĢÐ¸Ðº":3451,"Ð°Ð½Ð½Ð°Ñı":3452,"ÑĢÑĥÑģ":3453,"ĠÐ¿ÑĢÐµÑģÑĤ":3454,"ĠÐ²Ð°ÑĢÐ¸":3455,"ĠThe":3456,"ĠÐ·Ð°Ð´Ð°Ñĩ":3457,"Ð¾Ð´Ð°ÑĤÐµÐ»ÑĮ":3458,"Ð¸ÑĨÐµÐ¹":3459,"Ð²ÐµÐ¹ÑĨ":3460,"ĠÐ°Ð½Ð°":3461,"ĠÐ¾ÐºÑĢÑĥÐ³":3462,"ĠÑģÐºÐ°Ð·":3463,"ĠÑĢÐµÑĪÐµÐ½Ð¸Ðµ":3464,"ĠÐ¾ÑģÐ²Ð¾Ð±":3465,"):":3466,"ĠÐļÑĥÐ±":3467,"ÑĳÑĤÑĢ":3468,"ĠÐ¿Ð¾Ð±ÐµÑĢÐµÐ¶":3469,"ĠÐ¿Ð¾ÑģÐºÐ¾Ð»ÑĮÐºÑĥ":3470,"ĠÐ¿ÑĢÐ°Ð²Ð°":3471,"ĠÐ¸Ð¼Ð¿ÐµÑĢÐ°ÑĤÐ¾ÑĢÐ°":3472,"ĠÐºÑĢÐµÑģÑĤÑĮÑıÐ½":3473,"Ð¶Ð°":3474,"ĠÐ¿Ð¾Ð´Ð¾Ð±":3475,"ĠÐ¿Ð¾ÑģÑĤÐ°Ð²":3476,"ĠÐķÐ²ÑĢÐ¾Ð¿Ðµ":3477,"ĠÐ¿Ð»Ð¾ÑīÐ°Ð´Ð¸":3478,"ĠÐ¼ÑĥÑĩÐµÐ½Ð¸":3479,"60":3480,"os":3481,"Ġ000":3482,"ÑģÐºÐ¾Ð²":3483,"Ð¸ÑĤÐµÐ»ÐµÐ¼":3484,"Ġ21":3485,"37":3486,"ĠÐ¿ÑĢÐ¾Ñģ":3487,"ĠÐ½Ð°ÑģÐµÐ»":3488,"Ð°Ð¹Ð´Ð¶":3489,"ÐµÐ½Ð¸ÑıÐ¼Ð¸":3490,"ĠÑĢÐµÑĦÐ¾ÑĢÐ¼":3491,"ÑĥÐ½ÐºÑĤ":3492,"ÑĢÑĭÑĤ":3493,"ÐĵÐ¾ÑģÑĥÐ´Ð°ÑĢ":3494,"ĠÑĥÐ¿ÑĢÐ°Ð²Ð»ÐµÐ½Ð¸Ñı":3495,"ĠÐ²Ð»Ð°Ð´":3496,"Ð¶Ð´Ñĭ":3497,"ĠÐ²ÑĭÑĢÐ°Ð¶":3498,"ĠÐ¾ÑģÐ½Ð¾Ð²Ð°ÑĤÐµÐ»ÑĮ":3499,"ĠÐ´ÐµÐ¹ÑģÑĤÐ²Ð¸Ñı":3500,"ĠK":3501,"ÐºÐ²":3502,"ĠÑĤÐµÐ»ÐµÐ²Ð¸Ð´":3503,"ĠÐ³ÐµÑĢÑĨÐ¾Ð³":3504,"ĠÐ¸Ð·Ð¾Ð±ÑĢÐµÑĤ":3505,"ĠÐ²ÑģÐµÐ¹":3506,"ÐŁÐµÑĤÐµÑĢÐ±ÑĥÑĢÐ³":3507,"80":3508,"ot":3509,"Ð¾ÑĢÑĭ":3510,"ÐĿÐ°Ñĩ":3511,"ĠÐºÑĢÐ°Ð¹":3512,"ÑĤÐ¾ÑĢÐ¾Ð¹":3513,"ĠÐ¾Ð±ÑĬÑıÑģ":3514,"ĠÐ¿Ð»ÐµÐ¼":3515,"ĠÐ´Ð°Ð½Ð½ÑĭÑħ":3516,"Ð¸Ð½Ð¾Ð¹":3517,"ÑĥÑİÑīÐ¸Ðµ":3518,"ĠÐ¿Ð¾ÑįÑĤÐ¾Ð¼Ñĥ":3519,"ĠÑĩÐµÐ¼Ð¿Ð¸Ð¾Ð½ÐºÐ°":3520,"ĠÑĤÐ¸Ð¿Ð°":3521,"ÐµÐ½Ð½Ð¾Ðµ":3522,"ĠÐ¾ÑĨÐµÐ½":3523,"Ð¾ÑĤÐ²Ð¾ÑĢ":3524,"ÐŁÐ¾Ñĩ":3525,"ĠÐ¿ÑĢÐµÐ·Ð¸Ð´ÐµÐ½ÑĤÐ¾Ð¼":3526,"Ð¾Ð»ÐµÐ²":3527,"ĠÑįÑĦÑĦÐµÐºÑĤ":3528,"ĠÑħÑĥÐ´Ð¾Ð¶Ðµ":3529,"ÐĺÐ½":3530,"ĠÐ¼ÑĥÐ·ÑĭÐºÐ°Ð½ÑĤ":3531,"ĠÐ±ÑĢÐ¸ÑĤÐ°Ð½ÑģÐºÐ¸Ð¹":3532,"ĠÑĤÑĢÐ°Ð´Ð¸ÑĨÐ¸Ð¾Ð½":3533,"35":3534,"ÑĳÑģ":3535,"ÑĨÐµÐ½ÑĤ":3536,"ĠÐ¼Ð¸Ðº":3537,"ation":3538,"Ð°Ð½Ð½Ð¾Ð¹":3539,"ĠÐ¾Ð´Ð½Ð°":3540,"ĠÑģÐ¾Ð²ÐµÑĤÑģÐºÐ°Ñı":3541,"ĠÐ¯Ð¿Ð¾Ð½Ð¸Ð¸":3542,"ÑĤÐ¾Ð½Ð¾Ð¼":3543,"ĠÑĤÐ²Ð¾ÑĢÑĩÐµ":3544,"Ð°Ð¼ÐµÑĢ":3545,"ĠÑĩÐµÑĤ":3546,"Ð¸ÑĤÐµÐ»ÑĮÐ½ÑĭÐµ":3547,"Ð»Ð¸Ð¶":3548,"ĠÐ¿ÑĢÐµÐ´Ð¾ÑģÑĤÐ°Ð²":3549,"ÐµÐ½Ð½Ð¾ÑģÑĤÐ¸":3550,"ĠÐ¼Ð¾ÑģÑĤ":3551,"ĠÐĵÑĢÐµ":3552,"ÐĿÐ¾":3553,"ĠÑģÐ¼ÑĭÑģ":3554,"ĠÐĹÐµÐ¼Ð»Ð¸":3555,"em":3556,"Ð¾ÑģÑĦÐµÑĢ":3557,"Ð¾Ð·Ð½":3558,"ĠÑįÐºÑģÐ¿ÐµÑĢÐ¸Ð¼":3559,"ÐµÑĢÐ±Ð°Ð¹Ð´Ð¶":3560,"ĠÐ¿ÑĢÐ¾Ð³":3561,"ĠÐºÐ¾Ð¼Ð¿Ð»ÐµÐºÑģ":3562,"ĠÐ¿ÑĢÐµÐ¿Ð¾Ð´Ð¾Ð±":3563,"Ð°Ð½Ð¾Ð¼":3564,"Ð½Ð¸ÑĩÐµ":3565,"Ð´Ð²":3566,"Ð¡Ð¡":3567,"ÐŀÑĢ":3568,"ÑĢÐ°ÑĤÐ°":3569,"ĠÑĤÐ¾Ð³Ð´Ð°":3570,"ÐµÐ´Ð°":3571,"Ð¾Ð¿Ð¾Ð»ÑĮ":3572,"ÐºÐ¸Ð¼":3573,"Ð¾Ð»Ñĭ":3574,"ĠÐ¿Ð¾Ð»Ð¸ÑĤÐ¸ÑĩÐµÑģÐºÐ¸Ð¹":3575,"Ð°ÑĢÐµ":3576,"ĠÐ¿Ð¾ÑģÐ²ÑıÑī":3577,"99":3578,"ĠÐ¾Ð±ÑĢÐ°ÑĤ":3579,"ÑģÐ¾Ð»":3580,"ĠÑģÑĦÐ¾ÑĢÐ¼Ð¸ÑĢÐ¾Ð²":3581,"ĠÐĶÐ¼Ð¸ÑĤ":3582,"ĠÐ°Ð´Ð¼Ð¸Ð½Ð¸ÑģÑĤÑĢÐ°ÑĤÐ¸Ð²":3583,"Ġl":3584,"ĠÐ¸Ð·Ð¼ÐµÑĢ":3585,"ĠÐĵÐ¾ÑĢ":3586,"ĠÐ·ÐµÐ¼Ð»Ð¸":3587,"ĠÐ¿ÑĢÐ¾Ð¶":3588,"ÐļÐ¾ÑĢ":3589,"ÑĬÐµÐºÑĤ":3590,"âĢľ":3591,"ĠÐ¿ÑĢÐµÐ¾Ð±ÑĢÐ°Ð·":3592,"ĠÐ¿Ð¾Ð»Ñĥ":3593,"ĠÑģÐ°Ð¼Ð¾Ð»ÑĳÑĤ":3594,"ĠÐ´Ð¾ÑģÑĤÑĥÐ¿":3595,"ĠÐĺÑĤÐ°Ð»Ð¸Ð¸":3596,"ĠÐ¸Ð½Ð¶ÐµÐ½":3597,"ĠÐ¼Ð¾Ð½Ð°ÑģÑĤÑĭ":3598,"ĠÐ³Ð¸Ð¼":3599,"ĠÐ¸ÑģÐºÑĥÑģÑģÑĤÐ²Ð°":3600,"ĠÐ²Ð»Ð¸ÑıÐ½Ð¸Ðµ":3601,"ĠÐºÐ°Ð¿Ð¸ÑĤ":3602,"Ð½ÑıÑĤ":3603,"ĠÐľÐµÐ¶Ð´ÑĥÐ½Ð°ÑĢÐ¾Ð´":3604,"ÑĮÐµÑĤ":3605,"ĠÐ¶ÐµÐ»ÐµÐ·Ð½Ð¾Ð´Ð¾ÑĢÐ¾Ð¶":3606,"ĠÐ¿ÑĥÐ½ÐºÑĤ":3607,"ĠÐłÐ¾Ð±":3608,"Ð¼Ð°ÑĢ":3609,"ĠÑģÑĢÐ¾Ðº":3610,"ĠÐĺÐ·ÑĢÐ°":3611,"ĠÐ¿ÐµÑĢÐ²ÑĭÑħ":3612,"ĠÑĩÐµÑģÑĤÑĮ":3613,"Ð¸ÑĢÐ°ÑĤ":3614,"ĠÐ¼ÐµÑĢ":3615,"ĠÑĢÐµÐ¹":3616,"ĠÐ¿ÐµÑĢÐ²ÑĭÐµ":3617,"ĠÐ²Ð¾ÑģÐ¿ÑĢÐ¸":3618,"ĠÐ´Ð½Ñı":3619,"Ð»Ð°Ð²Ð°":3620,"Ð°ÑĢÐ¸Ð¸":3621,"Ġ1980":3622,"ĠÐ°Ð¿":3623,"ĠÑĦÐ¾ÑĢÐ¼Ð¸ÑĢÐ¾Ð²":3624,"Ð¾Ð¼Ð¸Ð½Ð°":3625,"ĠÐ»Ð¾Ð³":3626,"ĠÐ¸Ð¼ÐµÐ½Ð½Ð¾":3627,"ĠÐ»Ð¸Ð½Ð¸Ð¸":3628,"og":3629,"ĠÐ¡ÑĢÐµÐ´":3630,"ĠÑĢÐ°Ð·Ð½ÑĭÑħ":3631,"ĠÐ¼ÐµÐ´Ð¸ÑĨ":3632,"ÑĥÐ½Ð´":3633,"ĠÐ¾ÑĩÐµÑĢÐµÐ´ÑĮ":3634,".),":3635,"Ð°ÑİÑīÐ¸Ð¹":3636,"184":3637,"ÑĢÐ¾Ð²Ð°":3638,"Ð¼Ð¾ÑĢ":3639,"Ð´Ð°Ð²":3640,"Â»;":3641,"ĠÐ¾ÑģÐ¾Ð±ÐµÐ½Ð½Ð¾":3642,"ĠÐ¿Ð¾Ñį":3643,"ĠÐ¾Ð±ÑīÐµÑģÑĤÐ²Ð°":3644,"ĠÐ±Ð¾Ð»ÑĮÑĪÐ¸Ð½ÑģÑĤÐ²Ð¾":3645,"ÐºÐ¸Ð¿Ð°Ð¶":3646,"ĠÐ½Ð¸Ð¼":3647,"ĠÐºÐ¾Ð´":3648,"ĠÐĲÐ½Ð³Ð»Ð¸Ð¸":3649,"ĠÐ³Ð¸Ð¿":3650,"ÑİÑīÐµÐ¹":3651,"Ġ2003":3652,"Ð²Ñĥ":3653,"ĠÐ²ÐµÑĢÐ¾ÑıÑĤ":3654,"ec":3655,"Ð¾Ð±ÑĥÑģ":3656,"ĠÐ¿Ð¾ÑĤÐµÑĢ":3657,"Ð¾ÑģÑĤÐ¾ÐºÐµ":3658,"Ġ27":3659,"ĠÐ¾ÑĤÐ½Ð¾ÑģÑıÑĤ":3660,"Ð¾Ð²Ð°Ð»Ð¸":3661,"Ð»Ð°Ð³Ð°":3662,"Ġ(),":3663,"ĠÐ³Ð¸Ð´":3664,"ÑĤÐ¾Ñĩ":3665,"Ġ180":3666,"ĠÐķÐºÐ°ÑĤÐµÑĢ":3667,"ĠÐĲÐ»ÐµÐºÑģÐ°Ð½Ð´ÑĢÐ°":3668,"ĠÐ²Ð¾Ð·Ð´ÑĥÑħ":3669,"im":3670,"ÑĥÑĢÐ¸":3671,"ĠÑĥÑĩÐ°":3672,"ĠÐ²ÐµÑĢÐ½":3673,"Ð¸ÑĩÐ½Ð¾":3674,"ĠÐ¿Ð¾Ð¶":3675,"ĠÑĤÐ°Ð½":3676,"ĠÐ¿Ð¾ÑħÐ¾Ð´":3677,"Ð½Ð¾Ð²ÑĢÐµÐ¼ÐµÐ½":3678,"ĠÐºÐ½ÑıÐ·ÑĮ":3679,"op":3680,"Ð¾Ð²Ð¸Ñĩ":3681,"Ð²ÐµÑĢÐ´":3682,"ĠÐļÐ¾Ð½ÑģÑĤÐ¸ÑĤÑĥ":3683,"36":3684,"Ð¸ÑĤÐµÐ»ÑĮÐ½ÑĭÐ¹":3685,"ĠÑģÑĤÐ°ÑĤÑĥÑģ":3686,"ĠÑĦÐµÐ´ÐµÑĢÐ°Ð»ÑĮ":3687,"ĠÐ¤Ð¸Ð½":3688,"ĠÐ¾Ð±ÑĬÑĳÐ¼":3689,"XIX":3690,"ĠÑģÑĥÐ¿":3691,"ĠÑģÐ¾ÑģÑĤÐ¾Ð¸ÑĤ":3692,"ĠÐŁÐµÑĤÑĢÐ°":3693,"ĠÑģÐ¾Ð²Ð¼ÐµÑģÑĤ":3694,"Ð¡ÑĢÐµÐ´Ð¸":3695,"ĪĴ":3696,"ĠÑĢÐ°Ð·Ð±":3697,"ĠÑįÑĤÐ¸Ð¼":3698,"ĠÑĢÐµÐ²Ð¾Ð»ÑİÑĨÐ¸Ð¸":3699,"ĠÐ¿Ð¾Ð»ÑĮÐ·Ð¾Ð²":3700,"Ð¾ÑĨÐ¸":3701,"ĠÑģÐ¾Ðº":3702,"Ð»Ð°Ð½Ð´Ð¸Ð¸":3703,"ĠÐ¼Ð¾Ð´ÐµÐ»ÑĮ":3704,"ÑıÐ³":3705,"ÐºÑĥÐ¿":3706,"ÑĢÐ°Ð¹":3707,"ĠÐ´Ð½ÐµÐ¹":3708,"ÑĢÐ¾ÑģÐ»Ð°Ð²":3709,"ÑĨÐ¸ÐºÐ»Ð¾Ð¿":3710,"ĠÑĤÐ¾Ð²":3711,"ĠÑĥÐº":3712,"ĠÑĨÐ²ÐµÑĤ":3713,"ĠÐ´Ð¾Ð»Ð»Ð°":3714,"ÑĤÐ¾Ð¶":3715,"ĠÑĢÐ°Ð·ÑĢÐµ":3716,"ĠÐ²ÑĭÑĩÐ¸Ñģ":3717,"ĠÑĥÐ±Ð¸ÑĤ":3718,"ĠÐ·Ð½Ð°Ð¼":3719,"ĠÐĺÐ¼Ð¿":3720,"ĠÐ½Ð¾ÑĢÐ¼":3721,"Ð»Ð¸Ð¸":3722,"ĠÐŁÑĢÐ°Ð²":3723,"Ð¾ÑħÑĢÐ°Ð½":3724,"ÑĨÐ¸ÐºÐ»Ð¾Ð¿ÐµÐ´":3725,"Ð¾ÑģÐ½Ð¾Ð²":3726,"ĠÐºÐ°ÑĤÐ¾Ð»":3727,"ĠÐ´ÑĥÑħÐ¾Ð²":3728,"ĠÑĢÐ°Ð¼ÐºÐ°Ñħ":3729,"Ġ29":3730,"ĠÐ²ÑĭÐ²Ð¾Ð´":3731,"ĠÐ°ÑĢÐ¼Ð¸Ñı":3732,"ĠÐ½ÑĳÐ¼":3733,"Ð»Ð¸Ð±Ð¾":3734,"Ġ2021":3735,"ĠÑĤÑıÐ¶":3736,"Ð¸Ð½Ð¸":3737,"ĠÐ¿ÐµÑĢÐµÐ½":3738,"ist":3739,"ĠÑĤÐ¾ÑĩÐºÐ¸":3740,"ĠÐ´Ð¸Ð½Ð°ÑģÑĤÐ¸Ð¸":3741,"ĠÐ³Ð»":3742,"ĠÑĦÑĥÐ½ÐºÑĨÐ¸Ð¸":3743,"ĠÐ¾Ð½Ð¾":3744,"ĠÐ¿ÐµÑģÐµÐ½":3745,"Ð²Ð¾Ð¹":3746,"ĠÐ´Ð°Ð»ÑĮÐ½ÐµÐ¹":3747,"ĠÑģÑĦÐµÑĢ":3748,"ĠÑĤÑĢÐµÑĤÑĮ":3749,"iv":3750,"ĠÐ´ÐµÑıÑĤÐµÐ»ÑĮÐ½Ð¾ÑģÑĤÑĮ":3751,"ĠÐĽÐ°":3752,"ÑĢÐ¾Ð³":3753,"ĠÐ¿Ð°Ð´":3754,"ĠÑģÑħ":3755,"Ð»ÐµÑĩ":3756,"ĠÐºÐ½ÑıÐ¶Ðµ":3757,"ĠÐ´Ð²Ð¸Ð³":3758,"ĠÐ¿ÑĢÐµÐ´ÑģÑĤÐ°Ð²Ð»ÑıÐµÑĤ":3759,"Ð¾Ð²ÑĭÐ¼":3760,"ĠÐ¿ÑĢÐ¸ÑĩÐ¸Ð½":3761,"ĠÐ¿Ð°ÑĢÑĤÐ¸Ð¹":3762,"ÐµÑĢÐ°Ð½":3763,"ĠÐ°Ð·":3764,"Ð¸Ð²Ð°":3765,"ĠÐĺÑģÐ¿Ð°Ð½Ð¸Ð¸":3766,"ÑİÑĢ":3767,"Ð°Ð»ÑĮÐ½ÑĭÐ¼":3768,"ÐµÐ³Ð´Ð°":3769,"ĠÐ±ÐµÐ·Ð¾Ð¿Ð°Ñģ":3770,"ĠÐ½ÐµÐ·Ð°Ð²Ð¸ÑģÐ¸Ð¼Ð¾ÑģÑĤÑĮ":3771,"ĠÐ¼Ð½Ð¾Ð¶ÐµÑģÑĤÐ²Ð¾":3772,"ĠâĢŀ":3773,"Ġ22":3774,"ĠÐŀÐ»Ð¸Ð¼Ð¿":3775,"ÑıÐ»Ð¸":3776,"ÑĪÐ¸Ð¼Ð¸":3777,"ĠÐĴÐĴ":3778,"ĠÐ¿ÑĢÐ¸Ð¼ÐµÑĢÐ½Ð¾":3779,"34":3780,"Ð»Ð¸ÐºÑĤ":3781,"ĠÐ½Ð°ÑģÐµÐ»ÐµÐ½Ð¸Ðµ":3782,"ĠÑįÐ»ÐµÐºÑĤÑĢÐ¾Ð½":3783,"ĠÐ¿ÑĢÐ¸ÑģÐ¾ÐµÐ´Ð¸Ð½":3784,"ĠÐ¶Ð¸ÑĤÐµÐ»ÐµÐ¹":3785,"ĠÑĤÐµÐ»Ð°":3786,"ÐµÑħÐ½":3787,"ĠÐĽÐ¸Ð²":3788,"Ġf":3789,"ĠÐ¿ÑĢÐ¾ÑĤÐµÑģÑĤ":3790,"ĠÐĽÐ¸ÑĤ":3791,"ĠÑģÐºÑĥÐ»ÑĮ":3792,"ÑĥÑİÑīÐ¸Ð¹":3793,"Ð»Ð°Ð±":3794,"ĠÐļÑĥÑĢ":3795,"ĠÐ¿ÑĢÐ¾ÑĤÑıÐ¶":3796,"ĠÑĢÐ°Ð±Ð¾ÑĤÑĥ":3797,"Ġ1970":3798,"ĠÑģÐµÐ²ÐµÑĢÐ¾":3799,"ĠÐ²ÑĭÐ±Ð¾ÑĢÑĭ":3800,"Ð¸Ð½ÑģÐºÐ°Ñı":3801,"ĠÐ¡Ð°Ð¼":3802,"ĠÐ²Ð¾Ð·Ð¼Ð¾Ð¶Ð½Ð¾ÑģÑĤÑĮ":3803,"ÑıÑĤÐ¸Ð¹":3804,"Ġm":3805,"ÑĭÐ½Ðµ":3806,"ĠÐ¾Ð·Ð½Ð°Ñĩ":3807,"ĠÐ²ÑĭÑĪÐµ":3808,"ĠÐºÐ²Ð°Ð½ÑĤ":3809,"Ð°Ð½ÑģÐºÐ¾Ð¹":3810,"Ð³ÑĢÐµÑģÑģ":3811,"ÑĦÐ°Ð²":3812,"ĠÑģÐ¾ÑĨÐ¸":3813,"Ð°Ð½Ð¸ÐµÐ¹":3814,"ĠÐ¿Ð¾ÑģÑĤÐ°Ð½Ð¾Ð²":3815,"ĠÑĢÐµÐ°Ðº":3816,"ĠÐ¿ÑĢÐ¾Ð³ÑĢÐ°Ð¼Ð¼Ñĭ":3817,"Ð°Ð¹Ð»Ð¾Ð²":3818,"ĠÐ¿ÑĢÐµÐºÑĢÐ°":3819,"ĠÑģÐ¸ÑģÑĤÐµÐ¼Ðµ":3820,"ĠÐ²ÐµÐ»Ð¸Ðº":3821,"Ð°ÑĤÐ¸":3822,"ĠÐĵÐµÐ¾ÑĢÐ³":3823,"Ð¸ÑĤÐµÐ»ÑĮÐ½ÑĭÑħ":3824,"ĠÐºÐ¸ÑģÐ»Ð¾ÑĤ":3825,"ÐµÐ½Ð½ÑĭÐ¼":3826,"ĠÑĢÐ°Ðº":3827,"Ð¸ÑĢÐ¾Ð²Ð°ÑĤÑĮ":3828,"ĠÐĽÐµÐ¾Ð½":3829,"Ð°Ð»Ð¾Ð¼":3830,"ÐµÑĤÐµÐ»ÑĮ":3831,"ĠÐ²ÐµÑī":3832,"Ð¾ÑĤÐµ":3833,"Ð¸ÐºÑģ":3834,"ĠÐ¶Ð¸Ð·Ð½ÑĮ":3835,"ĠÐ¾ÑĤÐ½Ð¾ÑģÐ¸ÑĤÐµÐ»ÑĮÐ½Ð¾":3836,"Ð¿Ð¾Ð·":3837,"ĠÐ¼Ñĭ":3838,"ĠÑģÑĤÐ°Ð½Ð´Ð°ÑĢÑĤ":3839,"ĠÐĽÐ°ÑĤ":3840,"Ð·Ð°Ð¿Ð°Ð´":3841,"ĠÐ¾Ð±ÑĢÐ°Ð·Ð¾Ð²":3842,"ÑĢÐµÐ·":3843,"ÑĳÐ³":3844,"ĠÐ§ÐµÑĢ":3845,"ÑĤÐ¾ÑĢÐ°Ñı":3846,"Ð¼Ð¸Ð½Ð¸ÑģÑĤÑĢ":3847,"ie":3848,"ĠÐ½Ð°ÑģÑĤÑĥÐ¿":3849,"ĠÐĵÑĢÐ¸":3850,"Ð¸ÑĨÑĥ":3851,"Ġ2002":3852,"ĠÑĢÐµÐ²Ð¾Ð»ÑİÑĨÐ¸Ð¾Ð½":3853,"ÐµÑĢÐ°Ð»ÑĮ":3854,"ÐķÐ³Ð¾":3855,"ĠÐ³ÑĢÑĥÐ¿Ð¿Ð°":3856,"ĠÎ":3857,"ĠÑĢÑĥÑģÑģÐºÐ¾Ð¹":3858,"ĠXVIII":3859,"ag":3860,"ĠÑĥÑĩÐµÐ±":3861,"Ð¸ÑĤÐµÐ»ÑĮÐ½Ð¾Ð¹":3862,"ÑĥÑīÐ¸Ð¹":3863,"ĠÐ¿Ð¾Ð³Ð¸Ð±Ð»Ð¸":3864,"ĠÑģÐµÐºÑĢÐµÑĤ":3865,"ĠÐļÐ°ÑĤ":3866,"ÏĦ":3867,"ĠÐ¼ÐµÑģÑĤÐµ":3868,"ÑģÐ¾":3869,"ĠÐ´ÐµÐº":3870,"ĠÐ·Ð½Ð°ÑĩÐµÐ½Ð¸Ñı":3871,"ĠÐ¾ÑģÐ°Ð´":3872,"ĠÐ±Ð¾Ð»ÑĮÑĪÐ¾Ð¹":3873,"ĠÐ²ÑĭÐ±Ð¾ÑĢÐ°Ñħ":3874,"ÑĪÑĥÑİ":3875,"ĠÐ²ÑĭÐ·Ð²":3876,"ĠÐ¿Ð¾ÐºÐ°":3877,"ĠÐ¡ÐµÐ²ÐµÑĢÐ½Ð¾Ð¹":3878,"Ð°Ð»Ð¸Ð½Ð¸Ð½":3879,"Ð»Ð»Ð¸":3880,"ÑĥÑı":3881,"ÑĨÐ¸ÑıÑħ":3882,"ĠÐ´Ð¾ÑģÑĤÐ°ÑĤÐ¾Ñĩ":3883,"ĠÐ°ÑįÑĢÐ¾Ð¿":3884,"ÑĤÐµÐ½":3885,"ĠÐ´ÐµÐ½":3886,"ĠÐºÐ¾ÑĢÐ¿":3887,"ÐłÑĥÑģ":3888,"Ð½Ð¸ÑĩÑĤÐ¾Ð¶":3889,"ĠÑĢÐ¾Ðº":3890,"ĠÑĢÑĥÑģÑģÐºÐ¾Ð³Ð¾":3891,"ĠÑģÐ¾Ð²ÑĢÐµÐ¼ÐµÐ½Ð½Ð¾Ð¹":3892,"ĠÐ²ÐµÐ»Ð¸Ñĩ":3893,"Ð¸ÑĤÐµÐ»ÑĮÐ½Ð¾ÑģÑĤÐ¸":3894,"ĠÐ¢ÑĢÐ¾":3895,"ĠÐºÐ¸Ð½Ð¾Ð°ÐºÑĤ":3896,"ĠÐĿÐ¸ÐºÐ¾Ð»Ð°":3897,"ĠÑģÐ¸Ð»Ð°":3898,"ĠÐŃÑĢ":3899,"ÑĤÐµÑĩÐµ":3900,"ÑĪÐ¸":3901,"ĠÐŁÐ¾ÑĢÑĤ":3902,"ĠÐ·Ð´ÐµÑģÑĮ":3903,"ĠÐĳÐ¾Ð»ÑĮÑĪ":3904,"Ġ().":3905,"ÐµÐ»ÑĮÐ³":3906,"Ð½Ð¾Ð²Ð°":3907,"Ð¾Ð½Ñĥ":3908,"ÑĩÐ°":3909,"ĠÐĽÐ¾Ð½Ð´":3910,"ĠÐ¤ÑĢÐ¸Ð´":3911,"ĠÐ¿Ð¾Ð¼Ð¾ÑīÐ¸":3912,"ĠÐ¿ÑĢÐ¾Ð¼ÑĭÑĪÐ»ÐµÐ½Ð½Ð¾ÑģÑĤÐ¸":3913,"ĠÐ»Ð¸ÑĤ":3914,"ĠÐºÑĢÐ¸ÑĤÐ¸Ðº":3915,"ĠÐ½Ð¾Ð²ÑĭÑħ":3916,"ĠÐ²Ð½Ð¸Ð¼":3917,"ĠÐ´ÐµÐ²":3918,"ĠÑģÐ»Ð°Ð²ÑıÐ½":3919,"Ð¾ÑģÐµ":3920,"ÑıÐ±ÑĢÐµ":3921,"ĠÐ±Ð»Ð°Ð³Ð¾Ð´Ð°ÑĢÑı":3922,"ĠÐ½ÐµÑģÐºÐ¾Ð»ÑĮÐºÐ¸Ñħ":3923,"Ð°Ð»ÑİÑĤ":3924,"Ġ60":3925,"ÑģÐ¾Ð»ÑİÑĤ":3926,"Ġ1960":3927,"ĠÐ½Ð°Ð·ÑĭÐ²Ð°ÐµÑĤÑģÑı":3928,"Ð¼ÑĥÐ½Ð¸ÑģÑĤ":3929,"ÐĻ":3930,"Ð°Ð´Ð¶":3931,"ĠÑĤÐµÐ¾ÑĢÐµÑĤ":3932,"38":3933,"ĠÐ¤Ð¸Ð»Ð¸Ð¿Ð¿":3934,"IV":3935,"ĠÐ¸Ð½ÑĦ":3936,"ĠÑģÑĤÐ°Ð½ÑĨÐ¸Ð¸":3937,"32":3938,"ĠÐ½ÐµÐ·Ð°Ð²Ð¸ÑģÐ¸Ð¼Ð¾ÑģÑĤÐ¸":3939,"ĠÐ°ÐºÐ°Ð´ÐµÐ¼Ð¸Ðº":3940,"ĠÐ½Ð°Ð»Ð¸Ñĩ":3941,"ĠÑĤÐ°Ð±":3942,"Ġ2001":3943,"ĠÐ¿ÑĢÐ°ÐºÑĤÐ¸ÑĩÐµÑģÐºÐ¸":3944,"ĠÐ¿ÑĢÐ¸Ð½ÑıÐ»":3945,"ĠÐĴÐ¸ÐºÑĤÐ¾ÑĢ":3946,"39":3947,"ĠÐ²ÐµÑģÑĮ":3948,"ter":3949,"ÑĤÐ°Ð±":3950,"Ð±Ð¸Ð½":3951,"ĠÑģÑĤÑĥÐ´":3952,"ĠÑĢÐµÑģÐ¿ÑĥÐ±Ð»Ð¸ÐºÐ¸":3953,"ÐĿÐ°Ð¿ÑĢÐ¸Ð¼ÐµÑĢ":3954,"ĠÐ¾Ð±Ð²Ð¸Ð½":3955,"Ð¾ÑģÑĤÑĮÑİ":3956,"Ð°Ð»Ð¸Ñı":3957,"ĠÑĤÐ¸ÑĤ":3958,"ĠÐ¤ÑĳÐ´":3959,"ĠÐ·ÑĢÐµÐ½Ð¸Ñı":3960,"ÑĥÑĢÐ³Ð°":3961,"ĠÐ°ÑĢÑĤÐ¸ÑģÑĤÐºÐ°":3962,"ĠÐºÐ»ÑĥÐ±":3963,"ĠÐ¼ÐµÐ»":3964,"ÑģÑĤÐ²Ð¸Ñı":3965,"ĠIn":3966,"ĠÐ·Ð°ÑģÐ»ÑĥÐ¶":3967,"ĠÐ²Ð¾Ð·Ð²ÑĢÐ°Ñī":3968,"Ġn":3969,"ĠÐ¾ÑĤÐº":3970,"ĠÐ½ÐµÐ¸Ð·":3971,"ĠÐĿÐ°ÑĢÐ¾Ð´":3972,"ĠÑĥÑĢÐ¾Ð²Ð½Ñı":3973,"Ð½Ð¾Ð²ÑĢÐµÐ¼ÐµÐ½Ð½Ð¾":3974,"ÑĳÐ½Ð½ÑĭÐ¼":3975,"ĠÑĢÐ°Ð½ÐµÐµ":3976,"ĠÐ¿Ð¾Ð´ÑĤ":3977,"ĠÐ¿Ð»Ð¾ÑĤ":3978,"Ð¢Ð°ÐºÐ¸Ð¼":3979,"ÑĥÐ·Ñĭ":3980,"ĠÐ¿ÐµÑĢÐ²Ð¾Ðµ":3981,"ĠÐ½Ð¾Ð²ÑĭÐ¹":3982,"ĠÐ¿ÑĢÐ¾Ð´ÑĥÐºÑĤ":3983,"ĠÑģÐ»Ð¾Ð²Ð¾":3984,"ĠÐ²ÐºÐ»ÑİÑĩÐ°Ñı":3985,"ÐµÐ¼ÑĭÐµ":3986,"ÑĢÐ¾Ð¿Ð¾Ð»Ð¸ÑĤ":3987,"ĠÑĢÐ°Ð·Ð´":3988,"ĠÑįÐºÐ·":3989,"ĠÐ²Ð´":3990,"ÑĦÐ¸ÑĨ":3991,"ĠÐ¾Ð±Ñģ":3992,"Ð°Ð½Ð´Ð¸Ð´":3993,"ĠÑĪÐµÑģÑĤ":3994,"ĠÐłÐ¾ÑģÑģÐ¸Ñı":3995,"ĠÐºÐ°Ð½Ð°Ð´":3996,"ĠÑĨÐµÐ»ÑĮÑİ":3997,"ĠÑģÐ´ÐµÐ»":3998,"ĠÐ¾Ð±Ð»Ð°Ð´Ð°":3999,"ÑĳÐ½Ð½Ð°Ñı":4000,"ĠÐºÐ½Ð¸Ð³Ð¸":4001,"Ð´Ð°ÑĤ":4002,"ĠÐ¸Ð½ÑĦÐ¾ÑĢÐ¼Ð°ÑĨÐ¸Ð¸":4003,"ĠÑĢÐ°ÑģÑģÑĤÐ¾Ñı":4004,"ĠÐĳÐ¾ÑĢÐ¸Ñģ":4005,"ĠÐĴÐµÑĢÑħÐ¾Ð²Ð½Ð¾Ð³Ð¾":4006,"Ð±Ð¾Ð»ÑĮ":4007,"ÑĢÐ¸Ð¶":4008,"ĠÑģÐ¾Ð±ÑĭÑĤ":4009,"ĠÐºÐ¾Ð½ÑĤÑĢÐ¾Ð»":4010,"Ð¾Ð»ÐµÑĤ":4011,"ĠÐľÐ°Ð¹":4012,"ĠÐļÐ°Ð·Ð°Ñħ":4013,"ÐµÐ´ÐµÐ½Ð¸Ñı":4014,"ĠÐ²ÑĭÑĪ":4015,"ĠÐºÐ¾Ð½ÐµÑĩ":4016,"ĠÐ´ÑĢÑĥÐ³Ð¸Ð¼Ð¸":4017,"ÑģÐ¾Ð¼":4018,"ĠÑģÑĤÑĢÐ°Ð½Ð°Ñħ":4019,"Ð¾Ð²Ð¾Ðµ":4020,"ĠÐ¾ÑĢÐ±Ð¸ÑĤ":4021,"Ġthe":4022,"ĠÐºÑĢÑĥÐ³":4023,"ĠÑħÐ¾Ðº":4024,"Ð°Ð»Ð¸Ð·Ð°ÑĨÐ¸Ð¸":4025,"ÐµÐ»Ñİ":4026,"ĠÑģÐ¿ÑĥÑĤ":4027,"ĠÐ°Ð»ÑĦÐ°Ð²":4028,"ĠÑģÑĤÐ¾":4029,"Ð¸Ð»Ð¸Ñı":4030,"ĠÐŀÑĤÐµÑĩÐµ":4031,"180":4032,"ĠÑģÐ¾ÑģÑĤÐ¾ÑıÐ½Ð¸Ñİ":4033,"Ð¸ÑĢÑĥÐµÑĤ":4034,"ĠÐ´Ð²Ð¸Ð¶ÐµÐ½Ð¸Ðµ":4035,"ĠÐ¡ÐµÑĢÐ³ÐµÐ¹":4036,"ĠÐºÐ¾Ð½ÑĦÐ»Ð¸ÐºÑĤ":4037,"ĠÐ¾Ð±Ð»Ð°Ð´":4038,"ÑĥÐ½Ð°":4039,"ÑĥÐºÐ¾Ð²":4040,"ÐµÐºÐ¾ÑĤÐ¾ÑĢ":4041,"Ð¸ÑĤÐµÐ»ÑĮÐ½Ð¾Ð³Ð¾":4042,"ĠÐ´ÐµÑĤÐµÐ¹":4043,"ĠÐ¿ÑĢÐ¾Ð²Ð¾Ð·Ð³Ð»Ð°ÑĪ":4044,"ĠÐ¡Ð¾Ð»Ð½":4045,"ÐµÐ²Ð¾Ð¹":4046,"ĠÐ¿Ð¾Ð»Ð½Ð¾Ð¼":4047,"Ð¸ÑĢÐ¾Ð²Ð°Ð½Ð¸Ñı":4048,"Ð²ÐµÑĢÐ³":4049,"Ð²Ð°Ð¹":4050,"Ġ1999":4051,"Ð¸Ð°ÑĤ":4052,"ĠÐ¿Ð¾Ñħ":4053,"Ð½Ð¾Ð¼ÑĥÑĩÐµÐ½Ð¸":4054,"ÐºÑĨÐ¸Ð¸":4055,"ĠÐ²Ð»Ð°ÑģÑĤ":4056,"ĠÑĤÐ¾Ð¼Ñĥ":4057,"Ð¾ÑģÑı":4058,"ĠÑĩÑĥÐ²":4059,"ĠÑģÐ²Ð¸Ð´":4060,"ĠÐ¿ÑĢÐ¾Ð¸Ð·Ð²Ð¾Ð´ÑģÑĤÐ²Ð°":4061,"Î¿":4062,"ĠÑĥÐ½Ð¸ÑĩÑĤÐ¾Ð¶":4063,"ĠÐ¿ÑĢÐ¾Ñĩ":4064,"ÐµÐ»ÐµÐ½":4065,"ÐĲÐ»ÐµÐºÑģ":4066,"ĠÐºÐ¾Ð½ÑĤÑĢ":4067,"ÑĥÐ°Ð½":4068,"ĠÑĤÑĢÐ°ÐºÑĤ":4069,"ĠÑĥÑĩÐ°ÑģÑĤÐ¸Ðµ":4070,"90":4071,"Ð²Ð°ÑİÑĤ":4072,"Ġ1917":4073,"ĠÐĴÐµÐ½Ð³":4074,"ĠÐ¿Ð¾Ð´Ð°Ð²":4075,"ĠÐºÐ°Ð±":4076,"ĠÑĤÐ°Ð¹":4077,"ĠÐ¿ÑĢÐ°Ð²Ð¸Ð»Ð¾":4078,"Ġ1992":4079,"ĠÑģÐ¸Ð»Ñĥ":4080,"ĠÐ²ÐµÐ»":4081,"ĠÑĤÐ¾Ð»":4082,"ĠÐľÐ°ÑĤ":4083,"Ð°Ð»ÑĮÐ½Ð¸Ðº":4084,"ĠÐ¸Ð½ÑģÑĤÑĢÑĥ":4085,"ĠÐ»Ð¸Ð´ÐµÑĢ":4086,"ĠÐŁÑĳÑĤÑĢ":4087,"ÐĳÑĭ":4088,"Ġ2022":4089,"Ð¸ÑĤÑĥÐ°":4090,"ĠÐ¸ÑĤÐ¾Ð³":4091,"ĠÑĥÑģÐ»Ð¾Ð²Ð¸ÑıÑħ":4092,"ĠÐ¼Ð¾ÑĤ":4093,"ĠÐ¼Ð°Ñģ":4094,"Ġ1920":4095,"ĠÐ°Ð²ÑģÑĤÑĢÐ¸Ð¹":4096,"ĠÐ²Ð¾Ð·Ð³Ð»Ð°Ð²":4097,"ĠÑĨÐµÐ½ÑĤÑĢÐ°":4098,"ĠÐ°Ð¿Ð¿Ð°ÑĢÐ°ÑĤ":4099,"ĠÐ¼Ð°ÑģÑĤÐµÑĢ":4100,"ĠÐ»Ð¸":4101,"ĠÐ»ÑĳÑĤ":4102,"ĠÑĥÐ¿Ð¾ÑĤÑĢÐµÐ±":4103,"ĠÑģÑĩÐ¸ÑĤÐ°ÐµÑĤÑģÑı":4104,"ĠÐ¾ÑĤÐ»Ð¸ÑĩÐ¸Ðµ":4105,"Ð¸ÐºÐ¾":4106,"ĠÐ¿Ð¾ÑģÑĤÑĥÐ¿":4107,"ĠÑİÐ³Ð¾":4108,"ĠÐĲÐ½Ð´ÑĢÐµ":4109,"Ġ1918":4110,"ĠÐ¿Ð¾Ð´ÑĩÐ¸Ð½":4111,"Ð¾Ð¶Ð´Ð°":4112,"ĠÑĦÐ¾ÑĢÐ¼Ñĭ":4113,"ĠÐºÐ½Ð¸Ð³":4114,"Ð¸Ð¼ÑĥÑīÐµ":4115,"ĠÐĵÐµÐ½ÑĢÐ¸Ñħ":4116,"ĠÐ½Ð°Ð¹":4117,"ĠÐºÐ¾ÑĤÐ¾ÑĢÐ¾Ð¼Ñĥ":4118,"ĠÐ¿ÐµÑĢÐ²ÑĥÑİ":4119,"ĠÐ´ÐµÐ¼Ð¾ÐºÑĢÐ°ÑĤ":4120,"ĠÐ¾ÑĤÑģÑĤÐ°Ð²":4121,"ĠÐ¿ÐµÑĢÐµÐ³":4122,"ĠÐĲÐ½ÑĤÐ¾Ð½":4123,"ĠÑįÐºÑģÐ¿ÐµÐ´":4124,"ÑĭÐ²Ð°ÐµÑĤÑģÑı":4125,"Ġin":4126,"ĠÐºÐ¾ÑĤÐ¾ÑĢÑĭÐ¼":4127,"ĠÐ¾Ð´Ð½":4128,"ĠÐ½Ð°Ð·Ð²Ð°Ð½Ð¸Ñı":4129,"ÐµÐ¸":4130,"ÑĢÐ°Ð´":4131,"ĠÑģÐ²Ð¾Ð¸Ð¼":4132,"ÑĥÐ»ÑĤ":4133,"ÑĥÐ»ÑĮÐ¼Ð°Ð½":4134,"ÑĮÐµÑĤÐ½Ð°Ð¼":4135,"ĠÐ°ÑĢÐµÑģÑĤ":4136,"Ð½Ð¾Ð²ÑĮ":4137,"ĠÐ²ÑģÐµÐ³Ð´Ð°":4138,"ĠÐ¿ÑĢÐ¾ÑģÑĤÑĢÐ°Ð½ÑģÑĤÐ²Ð°":4139,"Ð½Ð¸Ð·":4140,"ĠÐĶÐ¾Ð½":4141,"ĠÐ¾ÑģÐ½Ð¾Ð²Ð°Ð½":4142,"ĠÑĩÐ¸ÑģÐµÐ»":4143,"ĠÐľÐ¾Ð»":4144,"ĠÑĢÐµÑĩ":4145,"ĠÐ¼Ð°ÑĤÐµÐ¼Ð°ÑĤÐ¸Ðº":4146,"ĠÐļÐŁÐ¡Ð¡":4147,"ĠÐ°ÑĤÐ¼":4148,"ĠÐ½ÐµÐ¿":4149,"Ð¾Ð¶Ð´Ðµ":4150,"ĠÑĤÐ°ÐºÐ¸Ð¼":4151,"ĠÑģÐ°Ð¼ÑĭÐ¼":4152,"ĠÑģÑĤÑĢÐ¾Ð¸ÑĤÐµÐ»ÑĮÑģÑĤÐ²Ð¾":4153,"ĠÑĩÑĳÑĢ":4154,"ÑıÑİÑĤ":4155,"ÑĥÐ¼Ð°Ð½":4156,"ers":4157,"ĠÐ¿ÑĥÑĤÐ¸":4158,"ĠÑĢÐ¸Ð¼ÑģÐºÐ¸Ð¹":4159,"Ð±ÐµÐº":4160,"ĠÐ¿ÑĢÐ¸Ð¾Ð±":4161,"Ð½Ð¸ÑĨÐ¸Ð¿":4162,"Ð¾ÑģÑĤÐ¾ÑıÑĤÐµÐ»ÑĮ":4163,"ÑģÑĤÐ°Ð½Ð¾Ð²":4164,"ĠÐ·Ð¸Ð¼":4165,"ĠÑģÑĤÐ¸Ñħ":4166,"ÑģÐ¿ÐµÐºÑĤ":4167,"ĠÐĲÐ²ÑģÑĤ":4168,"ĠÐ¡Ð¾":4169,"ĠÐ¡Ð¡Ðł":4170,"ĠÐºÐ¾ÑĤÐ¾ÑĢÑĥÑİ":4171,"ÑĥÑģÑĥÐ»ÑĮÐ¼Ð°Ð½":4172,"ĠÐºÐ¾Ð½ÑĨÐ°":4173,"ĠÐ½ÐµÐ´Ð¾ÑģÑĤ":4174,"ÐºÐ¾Ðµ":4175,"Ġand":4176,"ĠÐ¿Ð¾Ð»Ð¾Ð¶ÐµÐ½Ð¸Ðµ":4177,"ÐµÐ¾Ð´":4178,"Ð¼ÐµÑĪ":4179,"ĠÐ³Ð¾ÑģÑĥÐ´Ð°ÑĢÑģÑĤÐ²ÐµÐ½Ð½Ð¾Ð³Ð¾":4180,"ĠÑĥÑĩÐ°ÑģÑĤÐ½Ð¸Ðº":4181,"Ð½ÑİÑİ":4182,"th":4183,"ĠÐĵÐ¾Ð»":4184,"Ð°Ð´Ðµ":4185,"Ð¸ÑĢÑĥÐµÑĤÑģÑı":4186,"ĠÐľÐ¾ÑĢ":4187,"ĠÐĽÑĮ":4188,"ĠÐ¿ÑĥÐ±Ð»Ð¸ÑĨÐ¸ÑģÑĤ":4189,"ĠÐ¼ÑĥÐ·ÐµÐ¹":4190,"ĠÐ¸Ð½Ð¾Ð³Ð´Ð°":4191,"ĠÐ¿Ð¾Ð»ÑĥÑĩÐ¸Ð»Ð°":4192,"Ð°Ð½Ð½":4193,"ÐĿÐ°Ð¸Ð±Ð¾Ð»ÐµÐµ":4194,"ĠÐ·ÐµÐ¼ÐµÐ»ÑĮ":4195,"ĠÐ¿ÐµÑĢÐµÐ´Ð°Ñĩ":4196,"Ð°ÐºÐ¸":4197,"ĠÐ°Ð½Ð°Ð»Ð¾Ð³":4198,"ĠÑĤÐµÑĢÐ¼":4199,"ĠÐ²ÑģÑı":4200,"Ð¡Ð¾":4201,"ĠÐ¶Ð¸Ð²Ð¾Ð¿Ð¸ÑģÐµÑĨ":4202,"ĠÐ¿Ð»Ð¾":4203,"Ð¾Ð½Ð¸Ð¼":4204,"ÐŀÐ½Ð¸":4205,"ÑģÐºÐ¾Ð¿":4206,"ĠÑĩÐ°ÑģÑĤÑĮÑİ":4207,"ĠÑģÐ¾Ð±ÑģÑĤÐ²ÐµÐ½":4208,"ĠÐ¿ÐµÑĢÐ¸Ð¾Ð´Ð°":4209,"ĠÐ¸ÑģÑħÐ¾Ð´":4210,"ĠÐ±Ñİ":4211,"ĠÐ¾Ð±ÑīÐµÐ¹":4212,"ĠÑıÐ´ÐµÑĢ":4213,"ĠÐĲÑĢÐ¸ÑģÑĤ":4214,"ĠÑĤÑĢÐ°Ð¼":4215,"Ġb":4216,"ĠÑģÐ¾Ð·Ð´Ð°Ð½":4217,"ÑģÑĤÐµÑĢ":4218,"ĠÐ±Ð¾ÐµÐ²":4219,"Ð¾ÑĩÐ½ÑĭÑħ":4220,"Ġ1996":4221,"96":4222,"ÑĩÐ°Ñģ":4223,"ÐĶÐł":4224,"Ġ70":4225,"ĠÑħÐ¾ÑĢÐ¾ÑĪ":4226,"ĠÐ·Ð°Ð»Ð¸":4227,"Ð°Ð»Ñĥ":4228,"ĠÐ¿Ð¾Ð´ÑħÐ¾Ð´":4229,"ĠÑģÐ¸Ð½ÑĤ":4230,"ĠÐ°Ð¼":4231,"ĠÑĦÐ¸Ð³":4232,"ĠÐ²ÑĭÐ´ÐµÐ»Ñı":4233,"ÐĶÑĢÑĥÐ³":4234,"ĠÐ°Ð²ÑĤÐ¾Ð½Ð¾Ð¼":4235,"ĠÑĢÐ°Ð·Ð»Ð¸ÑĩÐ½ÑĭÐµ":4236,"Ð³Ð½":4237,"ĠÐĿÑĮÑİ":4238,"ĠÐ¾ÑģÐ½Ð¾Ð²Ð½ÑĭÑħ":4239,"ĠÐ¿ÑĢÐ¾Ð¸ÑģÑħÐ¾Ð´":4240,"ĠÑĩÐµÑĤÑĭÑĢÑĳÑħ":4241,"Ð¸Ð²Ð°Ð»":4242,"ĠÐ£Ð¸Ð»ÑĮ":4243,"ĠÐ´Ð¸ÑĢÐ¸Ð¶":4244,"ĠÑįÐ»ÐµÐºÑĤÑĢÐ¸ÑĩÐµ":4245,"ĠÐ½ÐµÐ¿Ð¾Ñģ":4246,"ĠÑĢÐµÐº":4247,"Ð°Ð½ÑĤÐ°ÑģÑĤ":4248,"ĠÐ²Ð¾Ð¹Ð½Ðµ":4249,"ĠÑģÐ»ÐµÐ´ÑĥÐµÑĤ":4250,"ĠÐ¸Ð½Ð¶ÐµÐ½ÐµÑĢ":4251,"ĠÐ¤Ð¸Ð½Ð»ÑıÐ½Ð´":4252,"Ð°Ð½ÑģÐ¾Ð²":4253,"ÐķÐ²":4254,"ĠÐ¼Ð½Ð¾Ð³Ð¾ÑĩÐ¸ÑģÐ»ÐµÐ½":4255,"ĠÐ½Ð¾Ð²Ð¾Ð³Ð¾":4256,"ĠÐłÐ¾ÑģÑĤ":4257,"ĠÑĢÐ¾Ð´Ð°":4258,"ĠÐ¸Ð·Ð¾Ð±ÑĢÐ°Ð¶":4259,"ĠÐĲÐ·Ð¸Ð¸":4260,"ÑĥÑģÐºÐ°":4261,"ĠÐĺÑģ":4262,"ĠÑĤÐµÐ»ÐµÐ²Ð¸Ð´ÐµÐ½Ð¸Ñı":4263,"ul":4264,"Ð¡ÑĥÑīÐµÑģÑĤÐ²":4265,"ĠÐ¿ÑĢÐ¸Ð±Ñĭ":4266,"Ð¸Ð²Ð°ÑİÑĤ":4267,"ĠÐ´Ð²ÑĥÐ¼":4268,"ÑĢÑĥÑĤ":4269,"ÑĢÑĥÑģÑģ":4270,"ĠÑĨÐµÐ»Ð¾Ð¼":4271,"ÑĩÐ°ÑĤ":4272,"ÑģÐºÐ¾ÑĢÐµ":4273,"ĠÐ·Ð°ÐºÐ¾Ð½Ð¾Ð´Ð°ÑĤÐµÐ»ÑĮ":4274,"ĠÐ²ÑĭÐ¿ÑĥÑģÐº":4275,"ĠÐĺÑĢ":4276,"Ġ1993":4277,"ĠÐ´Ð¾Ð±Ð°Ð²":4278,"od":4279,"ÐºÐ½Ð¾Ð²":4280,"ow":4281,"ÑģÑĥÑĢ":4282,"ĠÐ²Ð½Ð¾Ð²ÑĮ":4283,"Ð¸Ð´Ð¾Ð²":4284,"ĠÐ¿ÑĢÐµÐ´ÑģÑĤÐ°Ð²Ð¸ÑĤÐµÐ»ÑĮ":4285,"ÑģÑĤÐ²Ð°Ð¼Ð¸":4286,"ĠÐŃÐ½":4287,"ĠÐ¾ÐºÑĢÑĥÐ³Ð°":4288,"ĠÐľÐ¾ÑģÐºÐ²Ñĭ":4289,"ĠÐ´Ð¶":4290,"Ð½Ð°Ð»Ð°":4291,"ĠÐĴÐ¾":4292,"ĠÐ¤ÑĢÐ¸Ð´ÑĢÐ¸Ñħ":4293,"ĠÐºÐ¾Ð¼Ð¸ÑģÑģ":4294,"ĠÐ²ÐµÑĢÑģÐ¸Ð¸":4295,"á½":4296,"ĠÐ³Ð°":4297,"ĠÐłÐ¾Ð¼":4298,"ÐµÐºÐ¾ÑĤÐ¾ÑĢÑĭÐµ":4299,"ÐµÑĢÐ¸Ð¹":4300,"Ġ1941":4301,"Ð¡Ð¾ÑİÐ·":4302,"ĠÐ¿Ð¾Ð·Ð²Ð¾Ð»ÑıÐµÑĤ":4303,"ÐµÐ½ÑĨÐ¸Ñı":4304,"ĠÑģÐ¸ÑĤÑĥÐ°":4305,"ÐµÐ¼Ð¸ÑĢ":4306,"ĠÐ¨Ð²Ðµ":4307,"ĠÐ¿Ð¾Ð»ÑĥÑĩÐ¸Ð»Ð¸":4308,"ÑĢÐ°Ð¶Ð´Ð°Ð½":4309,"ĠÐ¿Ð¾Ð²ÑĭÑĪ":4310,"ĠÑįÐºÑģÐ¿ÐµÑĢÐ¸Ð¼ÐµÐ½ÑĤ":4311,"ĠÐļÐ°Ð¼":4312,"ĠÐ¾ÑĦÐ¸ÑĨÐ¸Ð°Ð»ÑĮÐ½Ð¾":4313,"Ð±ÐµÑĢÑĤ":4314,"Ð³ÑĢÑĥÐ¿Ð¿":4315,"ĠÐ¾Ð±ÑĢÐ°Ð·Ð¾Ð²Ð°Ð½Ð¸Ðµ":4316,"ĠÐ´Ð¾Ð»Ð¶ÐµÐ½":4317,"ÐµÐ»Ð°Ð½Ð´":4318,"ĠÐ§ÐµÑħ":4319,"Ð¾Ð»Ð°Ð³Ð°":4320,"ĠÐ´Ð¾Ð»Ð¶Ð½Ñĭ":4321,"ĠÐ½Ð¾Ð¼":4322,"ÐµÐ¹Ð½Ð°":4323,"ĠÐºÐ°Ð»":4324,"ĠÑģÑĤÑĢÐµÐ¼":4325,"Ð¸ÑĤÐµÐ»ÑĮÐ½Ð¾Ðµ":4326,"ĠÑĢÑĥÑģÑģÐºÐ¸Ñħ":4327,"Ġ1994":4328,"ĠÐ¥ÑĢÐ¸ÑģÑĤ":4329,"ĠÑģÐ¸ÑģÑĤÐµÐ¼Ñĥ":4330,"ĠSt":4331,"ĠÐłÑĥÑģÐ¸":4332,"33":4333,"Ð¼ÐµÐ´":4334,"ÐĿÐ°ÑĨÐ¸Ð¾Ð½Ð°Ð»ÑĮ":4335,"ĠÑģÐ¾Ð·Ð´Ð°Ð½Ð¸Ñı":4336,"75":4337,"Ð¾Ð»ÑĮÑĦ":4338,"Ð¸Ð²Ð°Ð½Ð¸Ñı":4339,"ÐĿÐ¸Ðº":4340,"ÑĥÐ¼Ñĭ":4341,"Ð¢Ðµ":4342,"ĠÐ®Ð¶Ð½Ð¾Ð¹":4343,"ĠÐ¿ÑĢÐµÐ´ÐµÐ»Ð°":4344,"ĠÐ¸ÑģÐ¿ÑĭÑĤ":4345,"ÐĽÑİ":4346,"ÑĥÐºÑĢÐ°ÑĤ":4347,"ĠÐ¯ÑĢÐ¾ÑģÐ»Ð°Ð²":4348,"ĠÐ´ÐµÐ¿ÑĥÑĤÐ°ÑĤÐ¾Ð²":4349,"Ð°ÑĢÐ´Ð°":4350,"ĠÑĢÐ°Ð·Ð²Ð¸Ð²":4351,"Ġ1989":4352,"ĠÐ¿ÑĥÑĤÐµÑĪÐµ":4353,"ĠÐ¡Ð¾ÑİÐ·":4354,"ĠÐ¶Ð¸Ð²Ð¾ÑĤÐ½ÑĭÑħ":4355,"ÐµÑģÐº":4356,"ÑģÑĤÐ²Ð¸Ðµ":4357,"ĠÐŀÐºÑĤ":4358,"ĠÑĤÐµÐ»ÐµÐ²ÐµÐ´":4359,"ĠÐ²Ð¾ÑģÑģÑĤÐ°Ð½Ð¸Ðµ":4360,"ĠÑģÐ¾Ð¾ÑĤÐ²ÐµÑĤÑģÑĤÐ²Ð¸Ð¸":4361,"ĠÑĤÐµÐ¼Ð¿ÐµÑĢÐ°ÑĤÑĥÑĢÐ°":4362,"ĠÐ¸ÑģÐ¿Ð°Ð½":4363,"ÑıÑīÐ¸Ñħ":4364,"ÑĢÐ°Ð»ÑĮÐ½ÑĭÐ¹":4365,"Ð°ÑıÑģÑĮ":4366,"Ð¡Ð²":4367,"ĠÐ½Ð°Ð·ÑĭÐ²Ð°ÑİÑĤ":4368,"95":4369,"ÐºÐ¸Ð½Ð°":4370,"Ð¸ÐºÑĤ":4371,"ÐµÐ»Ð¸ÑĤÑĮ":4372,"Î½":4373,"Ð»ÑıÑĤÑĮ":4374,"ÐĿÐ°Ñģ":4375,"ĠÑĢÐµÐ´Ð°Ðº":4376,"ĠÑįÑĤÐ½":4377,"Ð½ÐµÐ³":4378,"ĠÐ³Ð¾ÑģÑĥÐ´Ð°ÑĢÑģÑĤÐ²ÐµÐ½Ð½Ð¾Ð¹":4379,"ĠÐ´Ð¾Ð»Ð»Ð°ÑĢÐ¾Ð²":4380,"ÑĨÐµÐ½Ð¸":4381,"ĠÐ¾Ð±Ð¾ÑĢ":4382,"ĠÐ²Ð°ÑĢÐ¸Ð°Ð½ÑĤ":4383,"ĠÑģÐ²Ð¾ÑĳÐ¼":4384,"Ð¿ÑĢÐµÐ´":4385,"Ð»Ð¸Ð½Ð°":4386,"ĠÑĤÐµÐ¾ÑĢÐ¸Ñı":4387,"ĠÐºÐ¾ÑĢÐ°Ð±Ð»Ñı":4388,"Ð½Ð¾Ð¾Ð±ÑĢÐ°Ð·":4389,"Ð¾Ð·Ñĭ":4390,"ĠÐ¾ÑģÑĤÑĢÐ¾Ð²Ð¾Ð²":4391,"ĠÐºÑĢÐ¾Ð²":4392,"ĠÐ¢Ð¸Ñħ":4393,"ĠÐ²Ð¾Ð¹ÑģÐºÐ°Ð¼Ð¸":4394,"ĠÑĤÑĢÑĥÐ´Ð°":4395,"Ð±Ð°Ð½":4396,"ĠÐºÐ°Ð½Ð´Ð¸Ð´":4397,"ĠÑįÑĤÐ¾Ð¼Ñĥ":4398,"ÐµÐ³Ð¾ÑĢ":4399,"ÐĹÐ¾Ð»Ð¾ÑĤ":4400,"ĠÐ»Ð¸ÑĤÐµÑĢÐ°ÑĤÑĥÑĢÑĭ":4401,"ĠÐ·Ð°Ð²Ð¸ÑģÐ¸Ð¼Ð¾ÑģÑĤÐ¸":4402,"Ð´ÐµÐ½Ð°":4403,"ĠÐļÐ°Ð»Ð¸Ð½Ð¸Ð½":4404,"ĠÐĲÑĤ":4405,"ĠÐ¿ÐµÑĢÑģ":4406,"ĠÐ¾Ð±ÑĢÐ°Ð·Ð¾Ð²Ð°Ð½":4407,"Ð¿Ð¾Ð»Ð¸ÑĤ":4408,"Ġ1945":4409,"ĠÐ¿ÑĤÐ¸ÑĨ":4410,"ĠÐ½ÐµÐ¿Ð¾ÑģÑĢÐµÐ´":4411,"Ð¸Ð¹ÑģÐºÐ¾Ð¹":4412,"ĠÐ´Ð²ÑĥÐºÑĢÐ°ÑĤ":4413,"ĠÐºÑĢÑĭ":4414,"ÑĪÐ¸Ð±":4415,"ĠÑģÐ²ÐµÑĤÐ°":4416,"Ġ%)":4417,"Ġ1930":4418,"ĠÑĢÐ°ÑģÑĤÐ²":4419,"ĠÐ¶Ð¸Ð´":4420,"ĠÐĲÐ²ÑģÑĤÑĢÐ°":4421,"ĠÑĥÐ±Ð¸Ð¹":4422,"ĠÐºÑĥÐ¿":4423,"ÑĢÐ¸ÑĦ":4424,"ÐµÐ¼ÑĭÐ¹":4425,"Ð¸ÑģÐ»Ð°Ð²":4426,"ĠÐ²Ð¿Ð¾Ñģ":4427,"ĠÐ»ÐµÐ²":4428,"ÑĢÐ¾Ð¸Ð·":4429,"ĠÑģÐ°Ð¼Ð¾ÑģÑĤÐ¾ÑıÑĤÐµÐ»ÑĮ":4430,"ĠÑĢÐµÑĪÐµÐ½Ð¸Ñı":4431,"ĠÐ¸ÑģÐ¿Ð¾Ð»ÑĮÐ·ÑĥÑİÑĤÑģÑı":4432,"ĠÐ¼Ð°Ð³Ð½Ð¸ÑĤ":4433,"ĠÐ½ÑĭÐ½Ðµ":4434,"ĠÑģÑĥÑīÐµÑģÑĤÐ²Ð¾Ð²":4435,"Î¹":4436,"Ð¸ÑıÐ¼Ð¸":4437,"ĠÐ¶Ð°Ð½":4438,"Ð¢ÐµÐ¼":4439,"Ð¿ÐµÑĢ":4440,"ÑİÑīÐµÐµ":4441,"ÑĢÐ¸Ð½Ð°":4442,"86":4443,"ĠÑĩÐ¸ÑģÑĤ":4444,"ĠÐºÐ¾Ð¿":4445,"ĠÐ·Ð°Ð¿ÑĢÐµÑī":4446,"85":4447,"ÑįÐ»ÑĮ":4448,"ÐµÐ´Ð¸Ð½Ðµ":4449,"ĠÐ½Ð°Ð·Ð½Ð°ÑĩÐµÐ½":4450,"Ð°Ð»ÐµÐºÑĤ":4451,"ÐºÐ»ÑİÑĩ":4452,"ĠÐ·Ð°Ð»":4453,"ĠÑħÑĢÐ°Ð½":4454,"ĠÐºÑĢÑĥÐ¿Ð½ÑĭÑħ":4455,"ĠÐ²Ð¿Ð¾ÑģÐ»ÐµÐ´ÑģÑĤÐ²Ð¸Ð¸":4456,"ÐĵÐ»Ð°Ð²":4457,"Ð¸Ð¿ÐµÐ´":4458,"Ð¸ÑģÑĤÐ°Ð½":4459,"ÐµÐ»Ð¸ÑĤ":4460,"ĠÑĨÐµÐ½":4461,"45":4462,"Ð°Ð½Ð°Ð²":4463,"ĠÐĴÑĤÐ¾ÑĢÐ¾Ð¹":4464,"ĠÐ¿Ð°ÑģÑģÐ°Ð¶Ð¸ÑĢ":4465,"ĠÐ°ÑĤÐ¼Ð¾ÑģÑĦÐµÑĢ":4466,"ĠÑģÑĥÑĤ":4467,"Ð°Ð½Ð´Ð°":4468,"ĠÐ¿ÑĢÐ¸ÐºÐ°Ð·":4469,"ĠÐ¨ÑĤ":4470,"ĠÑĢÐµÐ¶Ð¸Ð¼":4471,"ĠÐĴÐµÐ»Ð¸ÐºÐ¾Ð¹":4472,"Ã©":4473,"Ð³ÐµÑĢ":4474,"ÑĨÐºÐ¾Ð³Ð¾":4475,"Ð°ÑĢÑģÐºÐ¸Ð¹":4476,"ÑĳÐ²Ð°":4477,"Ð¸Ð²ÑĪÐ¸Ñħ":4478,"Ġ80":4479,"ĠÑĩÐ»ÐµÐ½Ð¾Ð²":4480,"ĠÐ²Ð¾Ð·Ð´ÑĥÑĪ":4481,"ĠÐļÐ¸ÑĤ":4482,"ĠÐ²ÐµÑĢÑħ":4483,"av":4484,"ÐµÐµÐ²":4485,"ÑĥÑĢÐ¾Ð²":4486,"ĠÐ¾ÑĢÑĥÐ¶":4487,"ĠÐ´Ð¾Ð±Ñĭ":4488,"Ð°Ð¼Ð°":4489,"Ġ1995":4490,"ĠÑĢÐ°ÑģÑĪÐ¸ÑĢ":4491,"ÑĢÐ°Ð±Ð°ÑĤÑĭ":4492,"ĠÐ´Ð¾ÐºÐ°Ð·":4493,"ÑıÑģÑĮ":4494,"XXI":4495,"ĠÐ²Ð¾ÐºÑĢÑĥÐ³":4496,"ĠÐ¸Ð½Ð¾ÑģÑĤÑĢÐ°Ð½Ð½ÑĭÑħ":4497,"ĠÑĤÑİ":4498,"ÐļÐ¾Ð»":4499,"ĠÐ½Ð¾Ð²ÑĭÐµ":4500,"Ð°ÑİÑīÐµÐ¹":4501,"ĠÐºÐ»Ð°ÑģÑģÐ°":4502,"ĠÑįÐ»ÐµÐ¼ÐµÐ½ÑĤÐ¾Ð²":4503,"ĠÐĽÐµÐ²":4504,"ÐĺÑģÐ¿":4505,"ĠÑĩÐ°ÑģÐ¾Ð²":4506,"Ð¸Ð½ÑĤ":4507,"ĠÑĩÐµÑĢÑĤ":4508,"Ð¶Ð´Ðµ":4509,"Ġ%),":4510,"ĠÐ²ÑģÐ¿":4511,"ÐµÑĢÑĮ":4512,"ĠÐºÑĢÐ¾Ð¼Ðµ":4513,"ĠÐ°Ð±ÑģÐ¾Ð»ÑİÑĤ":4514,"76":4515,"ÑħÐ¸Ð¼":4516,"ĠÐ¿Ð¾ÑĤÐ¾Ð¼":4517,"ĠÑĥÑĢÐ¾Ð²ÐµÐ½ÑĮ":4518,"Ð¾ÑĢÐµÑĩ":4519,"Ð°ÑĤÐ¾ÑĢÐ°":4520,"ÑĭÐ²Ð°ÐµÑĤ":4521,"ĠÑĨÐµÑĢÐºÐ¾Ð²ÑĮ":4522,"ĠÑģÐ²Ð¸Ð´ÐµÑĤÐµÐ»ÑĮ":4523,"ĠÐ½Ð°Ð½":4524,"ĠÑĪÐ°Ñħ":4525,"Ð¸ÐºÐ¾Ð¹":4526,"ÑĳÐ½Ð½Ð¾Ðµ":4527,"ĠÑĢÐ°Ð¹Ð¾Ð½Ð°":4528,"ÐŀÑģÐ½Ð¾Ð²Ð½ÑĭÐµ":4529,"ÑĦÐ¸ÑĨÐ¸ÑĢÐ¾Ð²":4530,"Ð»ÐµÐ±":4531,"Ð¸Ð´Ñĭ":4532,"ĠÑģÐ±":4533,"ĠÑĢÐµÑģÑĥÑĢ":4534,"ĠÑĢÐ°Ð·ÑĢÑĥÑĪ":4535,"ĠÐ½Ð¾Ð²Ð¾Ð¹":4536,"ĠÑįÐ¼Ð¸":4537,"ĠÐĴÐµÐ½":4538,"ĠÑĤÐ°ÐºÐ¾Ð¹":4539,"Ð¾Ð»Ð¾Ð³Ð¸ÑĩÐµÑģÐºÐ¸Ñħ":4540,"Ð¾ÑģÐºÐ¾Ð²":4541,"ĠÐ¿ÑĥÑĤÑĳÐ¼":4542,"ÑıÑĢ":4543,"ĠÐ¿Ð¾Ð¼ÐµÑī":4544,"ĠÐ´Ð¾Ð¼Ð°":4545,"Ð¾ÑĢÐ´Ð¶":4546,"Ð¶ÐµÐ³Ð¾Ð´":4547,"Ð°ÑĢÐ¸ÑģÑĤ":4548,"ĠÐ¼Ð¾Ð´ÐµÐ»Ð¸":4549,"ĠÐ³Ð¾Ð»Ð¾ÑģÐ¾Ð²":4550,"ÑĢÐ¾Ñĩ":4551,"ÑĩÐµÐ½":4552,"Ð¾Ð½Ð¾Ð¼":4553,"ĠÐ²ÑĭÐ´Ð°":4554,"ĠÐ·Ð°Ð½Ð¸Ð¼Ð°ÐµÑĤ":4555,"ÑıÑİÑĤÑģÑı":4556,"ĠÑĩÐµÐ»":4557,"ĠÐ¿ÐµÑĢÐµÐ²Ð¾Ð´ÑĩÐ¸Ðº":4558,"Ð¾ÑĢÑĦ":4559,"ÐĿÐµÑģ":4560,"ÐµÐºÑĤÐ¾ÑĢ":4561,"ĠÐ¾Ð±ÑīÐµÑģÑĤÐ²ÐµÐ½Ð½ÑĭÐ¹":4562,"Ð»ÑıÐ½":4563,"Ð¾ÑģÑģÐ¸Ñı":4564,"ĠÐ¿Ð¾Ð²ÐµÑĢÑħÐ½Ð¾ÑģÑĤÐ¸":4565,"ĠÑĢÑıÐ´Ð°":4566,"ĠÐĴÐ°ÑĢ":4567,"Ð´ÐµÐ»Ðµ":4568,"ÑĨÐ¸Ð¾Ð½Ð½Ð¾Ð¹":4569,"Ð¸ÑĨÐ¸":4570,"ĠÐ¸ÑģÐ¿Ð¾Ð»ÑĮÐ·Ð¾Ð²Ð°Ð½Ð¸Ñı":4571,"Ð°Ð¼ÐµÑĢÐ¸ÐºÐ°Ð½":4572,"Ð°Ð½ÑĤÐ°":4573,"ĠÐ½Ð°ÑĩÐ°Ð»Ð¸":4574,"ĠÐ²Ð¾Ð¹Ð½Ñĥ":4575,"ĠÑĥÐ¼ÐµÐ½ÑĮ":4576,"ĠÐ¼ÑĭÑĪ":4577,"ĠÐ¿ÑĢÐ¾Ð³ÑĢÐ°Ð¼Ð¼Ð¸ÑĢÐ¾Ð²":4578,"ĠÑĩÐµÑĤÑĭÑĢÐµ":4579,"ĠÐ¾ÑĤÐ½Ð¾ÑģÑıÑĤÑģÑı":4580,"ĠÐ¾ÑĤÐ²":4581,"ĠÐ±Ð¾Ð»ÑĮÑĪÐ¾Ðµ":4582,"ĠÐľÐ°Ð½":4583,"ĠÐ¿ÑĢÐµÐ´Ð¼ÐµÑĤ":4584,"ĠÐ¸ÑģÑģÐ»ÐµÐ´Ð¾Ð²":4585,"ĠÐ±ÐµÐ»Ð¾ÑĢÑĥÑģ":4586,"ĠÑįÐ½ÐµÑĢÐ³Ð¸Ð¸":4587,"Ð¾ÐºÐ¾Ð»":4588,"47":4589,"ĠÐ»ÑĮ":4590,"ĠÐŀÑģÑĤ":4591,"ĠÐ»Ð¸Ð´":4592,"ĠÐ¿Ð¾ÑģÐ°Ð´":4593,"ĠÐ½Ð°ÑħÐ¾Ð´ÑıÑĤÑģÑı":4594,"ĠÐ¶ÐµÐ½ÑīÐ¸Ð½":4595,"ÑģÑĤÐ°":4596,"ÑĨÑĥ":4597,"Ð»Ð¾Ð²Ð°":4598,"ĠÐ¿ÑĢÐ°Ð²Ð»ÐµÐ½Ð¸Ñı":4599,"Ð¸Ð²Ð½ÑĭÑħ":4600,"ĠÑĢÐ°Ð·Ð¼":4601,"ess":4602,"ĠÐĴÐ¸Ð»ÑĮÐ³ÐµÐ»ÑĮ":4603,"ĠÐ²Ð²":4604,"ĠÑģÐ¿ÐµÐºÑĤ":4605,"ĠÐ¿Ð¾Ð»ÑĮÑģÐºÐ¸Ð¹":4606,"Ð¸Ð½Ð´":4607,"ĠÐĿÐ¾ÑĢÐ²":4608,"ĠÑģÐ¾Ð±ÑĭÑĤÐ¸Ñı":4609,"Ð½ÐµÐ²ÐµÐº":4610,"ĠÑģÐ°Ð¼Ð¾Ð³Ð¾":4611,"ĠÑıÐ·ÑĭÐºÐ°Ñħ":4612,"97":4613,"ĠÐ¿ÑĥÑģÑĤ":4614,"ĠÐ¾ÑĪÐ¸Ð±":4615,"ĠÐ´Ð¸ÑģÐº":4616,"ĠÐŁÐ¾ÑĢÑĤÑĥÐ³":4617,"ĠÐ¾ÑĤÐ¼ÐµÐ½":4618,"ĠÐ´ÐµÐ¼Ð¾Ð½":4619,"ÐŃÑĤÐ¾ÑĤ":4620,"ĠÑĥÑĢÐ°Ð²Ð½":4621,"ĠÐľÐ°ÑĢÑĤ":4622,"Ð¸ÑĤÐµÐ»ÑĮÐ½Ð¾ÑģÑĤÑĮ":4623,"ĠÐ°Ð½ÑĤÐ¸Ñĩ":4624,"Ð¾Ð½Ð¾Ñģ":4625,"ÑĦÐ¸Ð»ÑĮ":4626,"Ð¸Ð²Ð½Ð¾Ð¹":4627,"ĠÐļÐ¸ÑĤÐ°":4628,"ÐĲÐ»ÑĮ":4629,"ĠÐ¼Ð¸Ð½Ð¸Ð¼":4630,"oc":4631,"Ð¾Ð±ÐµÐ´":4632,"ĠÐŁÐ»Ð°ÑĤ":4633,"ĠÐ¸Ð½Ð¸":4634,"Ġ1998":4635,"ĠÐ¸ÑģÐ¿Ð¾Ð»ÑĮÐ·Ð¾Ð²Ð°ÑĤÑĮ":4636,"ĠÐ²Ð½ÑĥÑĤÑĢÐ¸":4637,"ĠÐ´Ð¾ÑģÑĤÐ°ÑĤÐ¾ÑĩÐ½Ð¾":4638,"98":4639,"ÑģÑĤÐ¾":4640,"ĠÑģÐ¾Ð¾ÑĢÑĥÐ¶":4641,"ÐŃÑĤÐ¸":4642,"ĠÐ·Ð½Ð°ÑĩÐ¸ÑĤÐµÐ»ÑĮÐ½Ð¾":4643,"ĠÐ¼ÑĥÐ½Ð¸ÑĨÐ¸Ð¿":4644,"ÑĥÑīÐ¸Ñħ":4645,"ĠÑįÐ¿Ð¾ÑħÐ¸":4646,"55":4647,"Îµ":4648,"ĠÐºÑĢÐ¸Ð·":4649,"Ð¸Ð½ÑĮ":4650,"ĠÐºÐ¾Ð½ÑĦÐµÑĢ":4651,"ÐĵÐ£":4652,"ÑİÑīÐ¸Ð¼":4653,"Ġ1997":4654,"ĠÐ¿ÑĢÐ¾Ð¸Ð·Ð²Ð¾Ð´ÑģÑĤÐ²Ð¾":4655,"Ð¼Ð¾Ð²":4656,"Ð°Ð¼ÑıÑĤ":4657,"ĠÐ¿Ð¾Ð·Ð¶Ðµ":4658,"ĠÐ²Ð¼ÐµÑģÑĤÐ¾":4659,"Ġa":4660,"ĠÐĲÐºÐ°Ð´ÐµÐ¼":4661,"ÐĿÐµÐºÐ¾ÑĤÐ¾ÑĢÑĭÐµ":4662,"Ð·ÑĭÐ²Ð°ÐµÑĤ":4663,"ĠÐ¾ÑģÑĤÑĢÐ¾Ð²Ðµ":4664,"ĠÐļÐ¸ÐµÐ²":4665,"ĠÐ°ÑĦ":4666,"ĠÐ±ÐµÐ·Ð¾Ð¿Ð°ÑģÐ½Ð¾ÑģÑĤÐ¸":4667,"ÑĤÐ°Ðº":4668,"ÐµÑģÐ°":4669,"Ð±ÑĢÑĮ":4670,"ÑĳÑĢÐ°":4671,"ÐŀÐº":4672,"Ð¸Ð»Ð¸Ñī":4673,"ĠÑģÐ¾ÐºÑĢÐ°Ñī":4674,"ĠÐ¾Ð¶":4675,"ĠÐ±Ð»Ð¾Ðº":4676,"ÑĨÐ¸Ð¾Ð½Ð½ÑĭÑħ":4677,"ĠÐ¸Ð½ÑĤÐµÐ»":4678,"ĠÐ¿Ð°Ð»":4679,"ÐłÐµÐ»Ð¸":4680,"ĠÐ¿ÑĢÐµÐ´ÑģÑĤÐ°Ð²Ð¸ÑĤÐµÐ»ÐµÐ¹":4681,"ĠÐ²Ð¾ÐµÐ½Ð½ÑĭÑħ":4682,"ĠÐµÐ²ÑĢÐµÐ¹":4683,"ĠÐ·Ð°Ð±":4684,"ĠÑģÐµÑĢÐµÐ´Ð¸Ð½Ðµ":4685,"ĠXVI":4686,"ĠÑĥÑģÐ¿ÐµÑĪ":4687,"Ð°Ð»ÑĮÐ½Ð¾Ð¼":4688,"ÐºÐ»Ð¸":4689,"Ð²Ð°ÑĢÐ´":4690,"ĠÐ³ÑĢÐ°Ð²":4691,"ĠÑįÐºÐ¸Ð¿Ð°Ð¶":4692,"Ð¸Ð»Ð¾Ð²":4693,"ĠÐ¿Ð°Ð¼ÑıÑĤÐ¸":4694,"ĠÐ°ÐºÐ°Ð´ÐµÐ¼Ð¸Ð¸":4695,"ĠÐ²ÑĭÐ¿Ð¾Ð»Ð½Ñı":4696,"ĠÐ°Ð½Ð°Ð»Ð¸Ð·":4697,"Ð¢Ðŀ":4698,"ĠÐ¼ÑĥÑģÑĥÐ»ÑĮÐ¼Ð°Ð½":4699,"ĠÐ¿Ð¾ÑģÑĳÐ»":4700,"ĠÐĲÐ²Ð³ÑĥÑģÑĤ":4701,"48":4702,"ĠÐ¿Ð¸Ñī":4703,"Ð¾Ð´Ñĭ":4704,"Ð°Ð±ÑĢÐ¸":4705,"ĠÐ½ÐµÑĦÑĤ":4706,"ĠÑĥÑĩÐ°ÑģÑĤÐ²Ð¾Ð²":4707,"ĠÑħÐ¾ÐºÐºÐµ":4708,"ĠÐ´Ð½Ð¸":4709,"ĠÐ¾ÑĢÐ³":4710,"Ð¸Ð½Ð³Ð²":4711,"Ð°ÐºÑĥ":4712,"ÑģÐ¿Ð¾ÑĢÑĤÐ°":4713,"ĠÐĶÐ¸":4714,"ĠÐ±ÑĥÐ´Ð´":4715,"ĠÐ¸Ð·Ð¼ÐµÐ½ÐµÐ½Ð¸Ñı":4716,"ÑĢÐµÑĩÐµ":4717,"ĠÐłÐ¸Ñĩ":4718,"Ð¸Ð·Ð°ÑĨÐ¸Ñı":4719,"ĠÐºÐ¾Ð½ÑĨÐµÐ¿":4720,"ĠÐĿÐ¾Ð²Ð³Ð¾ÑĢÐ¾Ð´":4721,"ÐĴÑģ":4722,"ĠÐŁÑĥÑĤ":4723,"ĠÐ¿ÑĢÐµÐ¸Ð¼ÑĥÑīÐµ":4724,"Ð¤ÑĢÐ°Ð½":4725,"Ð²ÐµÑī":4726,"ÑĳÐ¶":4727,"ĠÐĳÐ°Ð»ÑĤ":4728,"ÑĥÐ¼Ð±":4729,"ÑĥÑīÐ°Ñı":4730,"ĠÐĺÐ½Ð´Ð¸Ð¸":4731,"ĠÐ¿ÑĢÐµÐºÑĢÐ°Ñī":4732,"ub":4733,"ĠÑĨÐ¸ÑĦ":4734,"ĠÑģÐ»ÑĥÑĩÐ°Ð¹":4735,"ĠÐ£Ð¸Ð»ÑĮÑıÐ¼":4736,"ĠÐ¾Ð³ÑĢÐ¾Ð¼":4737,"ĠÐ°ÑĢÑħÐ¸ÑĤÐµÐºÑĤÐ¾ÑĢ":4738,"ĠÐ´Ð¸Ð¿Ð»Ð¾Ð¼Ð°ÑĤÐ¸ÑĩÐµÑģÐºÐ¸Ðµ":4739,"ÑģÑĤÐ²ÑĥÐµÑĤ":4740,"ĠÐ±Ð¾Ð»ÑĮ":4741,"ĠÐºÐ¾Ð¼Ð¿Ð°Ð½Ð¸Ñı":4742,"ĠÐ²Ð·Ð³Ð»Ñı":4743,"ĠÐ½Ð°Ð¿ÑĢÐ°Ð²Ð»ÐµÐ½Ð¸Ñı":4744,"ĠÐ¼ÐµÑģÑĤÐ°":4745,"Ð½ÑĥÐ¶Ð´":4746,"ĠXVII":4747,"ĠÐ³ÐµÐ¾Ð³ÑĢÐ°ÑĦ":4748,"ĠÐľÐ¸Ð½Ð¸ÑģÑĤ":4749,"64":4750,"Ð¾Ð³ÑĢÐ°Ð´":4751,"ĠÐ¼Ð¾Ð½Ð°ÑĢÑħ":4752,"ĠÐ´Ð¾ÑĢÐ¾Ð³Ð¸":4753,"Ġv":4754,"ĠÐ¼ÐµÑĢÐµ":4755,"Ð¸Ð½ÐµÐ½ÑĤ":4756,"ĠÐĵÐ°":4757,"Ð¸Ð´Ðµ":4758,"ĠÐ½Ð°ÑĩÐ¸Ð½":4759,"ĠÐºÐ¾ÑĪ":4760,"ÑĪÐ¸ÑģÑĮ":4761,"ÐŁÑĢÐ°Ð·Ð´":4762,"ĠÑģÐ¾Ð»Ð½ÐµÑĩ":4763,"Ð³Ð¾Ð»ÑĮ":4764,"ĠÑĤÑĢÐµÐ½":4765,"ĠÐ½Ð°ÑģÑĩÐ¸ÑĤ":4766,"ĠÑĪÐ¸ÑĢÐ¾ÐºÐ¾":4767,"ov":4768,"Ð¾ÑĢÑıÐ´":4769,"ĠÐºÐ»Ð¸Ð¼Ð°ÑĤ":4770,"ÑĢÐ¾ÑĢ":4771,"ÐŁÐ¾ÑģÐ»ÐµÐ´":4772,"ĠÐ¾Ð¿ÐµÑĢÐ°ÑĨÐ¸Ð¸":4773,"ÐŁÐ¾ÑĩÑĳÑĤ":4774,"ÐļÐ°ÑĢ":4775,"ĠÑĢÑĭÐ½":4776,"ĠÑĥÐ´Ð°Ð»Ð¾ÑģÑĮ":4777,"ĠÐŁÐ¾Ñģ":4778,"ÐºÐ¾Ð²ÑģÐºÐ¸Ð¹":4779,"Ð°ÑĢÐ¸Ñı":4780,"ĠÑįÐºÐ¾Ð½Ð¾Ð¼Ð¸ÐºÐ¸":4781,"ĠÐ¿ÑĢÐ¾Ð¸Ð·Ð¾ÑĪÐ»Ð¾":4782,"ĠÑģÑĥÐ±ÑĬÐµÐºÑĤ":4783,"ĠÑĥÐºÑĢÐµÐ¿":4784,"Ð¸Ð½ÑģÑĤÐ²Ð¾":4785,"ÐĿÐł":4786,"ĠÐĲÐ·ÐµÑĢÐ±Ð°Ð¹Ð´Ð¶":4787,"ĠÑĥÐºÑĢÐ°Ð¸Ð½ÑģÐºÐ¸Ð¹":4788,"Ð¸ÑĤÐµÐ»ÑĮÐ½Ð°Ñı":4789,"ĠÐ¿Ð¾ÑģÐ»ÐµÐ´Ð½Ð¸Ð¹":4790,"ĠÐľÐ°ÑĢÐº":4791,"Ġde":4792,"ÑįÑĢ":4793,"ĠÐĲÑħ":4794,"ĠÐ²ÐºÐ»Ð°Ð´":4795,"Ð¾Ð²ÐµÑĢ":4796,"Ð¾Ð´Ð½Ñı":4797,"ĠÐ¡Ð¾Ð»":4798,"ĠÐ±Ð¾Ð³Ð¾ÑģÐ»Ð¾Ð²":4799,"Ð»Ð°Ð½ÑĤ":4800,"ĠÐ²ÐµÑĩ":4801,"Ð»Ð°Ð½Ð´ÑģÐºÐ¸Ð¹":4802,"ÐµÐ½Ð¾Ð¼":4803,"ĠÑĨÐ¸Ðº":4804,"ĠÐ½Ð°ÑĩÐ°Ð»Ð°ÑģÑĮ":4805,"ÑĨÐ¸Ð¾Ð½Ð½ÑĭÐµ":4806,"ÑĨÐ¸ÑıÐ¼Ð¸":4807,"ĠÐ¼ÐµÐ¶":4808,"ÐµÐ´Ð¸":4809,"ĠÐĶÐµÐ¼":4810,"ĠÐ¾ÐºÐºÑĥÐ¿":4811,"Ð¸ÑĤÐµÐ»ÑıÐ¼Ð¸":4812,"ĠÐ¾Ð±ÑĬÐµÐºÑĤÐ¾Ð²":4813,"Ð¿ÑĤÐ¾ÑĢ":4814,"Ð»ÐµÐ½Ð½ÑĭÑħ":4815,"ĠÐĽÐµÐ½Ð¸Ð½Ð°":4816,"Ð°ÐµÐ²":4817,"ÑĥÐ¹":4818,"ĠÐ³Ð¾ÑĤÐ¾Ð²":4819,"Ð°Ð»ÑĮÐ´":4820,"ĠÐ²ÑĢÐµÐ¼ÐµÐ½":4821,"Ð¾ÑĢÑĤÑĥ":4822,"ÑĦÐµÑĢÐµÐ½Ð´":4823,"ĠÐ·Ð°Ð¼ÐµÑĤ":4824,"ĠÐ²ÑĢÐ°Ñĩ":4825,"ĠÐ¼Ð°ÐºÑģÐ¸Ð¼":4826,"ĠÐŁÑĢÑĥÑģÑģ":4827,"ÐµÐ³Ð¾Ð´Ð½Ñı":4828,"ĠÐ¿ÑĢÐ¸ÑģÑĥÑĤÑģÑĤÐ²":4829,"ĠÑģÐ½Ð¸":4830,"ĠÑĢÐ°ÑģÐº":4831,"ÑĥÑİÑīÐµÐ³Ð¾":4832,"Ð¢ÐµÑĢ":4833,"ÐºÑĢÐ°ÑĤÐ½ÑĭÐ¹":4834,"88":4835,"ĠÐºÑĤÐ¾":4836,"ÐµÑĢÐ°Ð¼Ð¸":4837,"ÑĥÐ¼Ðµ":4838,"Ð»Ð¾Ð´":4839,"Ð¸ÑģÑĤÐºÐ°":4840,"ĠÐ²Ð¾Ð·Ð¼Ð¾Ð¶Ð½Ð¾ÑģÑĤÐ¸":4841,"ĠÐ¿ÐµÑĩÐ°ÑĤ":4842,"Ġ(,":4843,"ĠÐļÐ°":4844,"ĠÐ¾Ð¿Ð°Ñģ":4845,"ĠÐ¿Ð¸ÑģÐ°Ð»":4846,"ĠÐ¿Ð¾ÑģÐ»ÐµÐ´Ð¾Ð²Ð°ÑĤÐµÐ»ÑĮ":4847,"ÐŁÐµÑĢÐ²ÑĭÐ¹":4848,"ĠÐ¾Ð²":4849,"ĠÐ±Ð°ÑĢ":4850,"Ð¾ÑģÑĤÑĢÐ¾":4851,"ÑĤÑĢÐ°":4852,"ÐĲÐĿ":4853,"ĠÐĲÐ»ÐµÐºÑģÐµÐ¹":4854,"ĠÐºÐ½ÑıÐ·Ñı":4855,"ĠÑģÐ²Ñı":4856,"ĠÑĢÑĥÑģÑģÐºÐ¾Ð¼":4857,"ĠÐ»ÑİÐ´Ð¸":4858,"ÑĦÐ¸Ð·":4859,"Ð°Ð»ÑĮÐ½ÑĥÑİ":4860,"ĠÐ²ÑĭÐ½ÑĥÐ¶Ð´":4861,"ĠÐ¶Ð¸Ð»":4862,"ĠÐ³ÑĢÐ°Ð½Ð¸ÑĨÑĭ":4863,"ex":4864,"ĠÐ¡Ð¸Ð¼":4865,"ÐµÐ½ÑĤÑĭ":4866,"ÐĲÐŀ":4867,"ĠÐ´Ð¾Ð»Ð¶Ð½Ð¾ÑģÑĤÑĮ":4868,"ĠÐĹÐ°Ð¿Ð°Ð´Ð½Ð¾Ð¹":4869,"ĠÐĲÐ¼ÐµÑĢÐ¸ÐºÐ¸":4870,"ÑĢÐ¾Ð¶":4871,"ÑĢÐ¸ÐºÐ°Ð½":4872,"ĠÑĤÑĥÑĢÐµ":4873,"ĠÐ¡ÐŁ":4874,"ÐĲÐ´":4875,"Ð°Ð¹Ð½":4876,"Ð¿Ð°":4877,"ĠÑĢÐ°ÑģÐ¿Ð¾Ð»Ð°Ð³Ð°":4878,"ĠÑĤÑĢÐ°Ð½Ñģ":4879,"ĠÐ²ÑĭÐ±Ð¾ÑĢÐ¾Ð²":4880,"ĠÐºÐ¸Ð»":4881,"ĠÐ±ÐµÐ¶":4882,"ĠÐ½Ð°ÑĢÐ¾Ð´Ð½Ð°Ñı":4883,"ĠÐ¾ÐºÐµÐ°Ð½Ð°":4884,"ĠÑıÐ·ÑĭÐºÐ¸":4885,"ÐŁÐ¾ÑįÑĤ":4886,"ĠÑģÐµÑĤÐ¸":4887,"ew":4888,"ĠÐ¿Ð°ÑĤÑĢÐ¸":4889,"ĠÐļÐ¸ÑĤÐ°Ð¹":4890,"ÐľÐ°ÑĢ":4891,"ĠÐ´Ð¸ÑĢÐµ":4892,"ĠÐ¾ÑĤÑĢÐ¸ÑĨ":4893,"ĠÐ»ÑĳÐ³":4894,"ĠÐĶÐ°Ð½Ð¸Ð¸":4895,"ĠÐ¿ÑĢÐ¸Ð²Ð¾Ð´Ð¸ÑĤ":4896,"ĠÑĢÐµÐ»Ð¸Ð³Ð¸Ð¸":4897,"Ð½Ð¾Ð³Ð¸Ðµ":4898,"ÐľÐµÐ¶Ð´ÑĥÐ½Ð°ÑĢÐ¾Ð´":4899,"ĠÐ½Ð°ÑĩÐ°Ð»Ð¾ÑģÑĮ":4900,"ĠÐķÐ²ÑĢÐ¾Ð¿ÐµÐ¹":4901,"ĠÐĳÐ¾Ð»Ð³Ð°":4902,"Ð½ÐµÑĤ":4903,"ÐµÑĢÑĭÐ²":4904,"Ġ1940":4905,"ĠÐ´ÐµÑĢÐ¶":4906,"ĠÐ±Ð¾Ð¶Ðµ":4907,"ĠÐłÐ¾Ð´":4908,"ĠÐ³Ð»Ð°Ð²Ð½ÑĭÐ¼":4909,"ĠÐ±Ð¾Ð³Ð°ÑĤ":4910,"ĠÐºÐ¾Ð¼Ð¿ÑĮÑİÑĤÐµÑĢ":4911,"ÐĿÐµÑģÐ¼Ð¾ÑĤÑĢÑı":4912,"ab":4913,"ĠÐ´Ð°Ð»Ðµ":4914,"Ð°Ð¼ÐµÐ½":4915,"ĠÐłÐµÑģÐ¿ÑĥÐ±Ð»Ð¸ÐºÐ°":4916,"ĠÑĦÐ¸Ð½Ð°Ð½ÑģÐ¾Ð²":4917,"ĠÑģÐ²ÑıÑīÐµÐ½Ð½Ð¾Ð¼ÑĥÑĩÐµÐ½Ð¸":4918,"Ð¾Ñĥ":4919,"ÑĪÐ°":4920,"Ġ1000":4921,"ĠÐ·Ð°ÑĢ":4922,"ĠÐ¿ÐµÑĢÐµÑģÑĤ":4923,"ĠÐĸÐ°Ð½":4924,"Ð²Ð°ÑĢ":4925,"ĠÑĢÐ°Ð·Ð½Ð¾Ð¾Ð±ÑĢÐ°Ð·":4926,"ĠÐ¾Ð¿ÑĤ":4927,"ĠÐ¸ÑģÐ¿Ð°Ð½ÑģÐºÐ¸Ð¹":4928,"ĠÐ¿Ð¾ÑģÑĤÐµÐ¿":4929,"ĠÐłÐ¸Ð¼ÑģÐºÐ¾Ð¹":4930,"ĠÐĿÐ¾ÑĢÐ²ÐµÐ³":4931,"ÐµÐ¼Ð¾Ð¹":4932,"Ð¾Ð»Ð¾Ð³Ð¸ÑĩÐµÑģÐºÐ¸Ðµ":4933,"Ð±Ð½":4934,"ĠÑĩÐµÑĢ":4935,"ĠÐļÐ°ÑĢÐ°":4936,"ÐľÐµÐ´":4937,"ĠÐ¾Ð¿ÐµÑĢ":4938,"ĠÑģÐ²Ð¾Ð¹ÑģÑĤÐ²Ð°":4939,"ĠÐ±Ð¸Ð±Ð»Ð¸Ð¾ÑĤÐµÐº":4940,"94":4941,"ĠÐ²ÐµÑĢÑĤ":4942,"Ð·Ðµ":4943,"ĠÐ³ÐµÑĢÐ±":4944,"ĠÐľÐ°ÑĢÐ¸Ñı":4945,"Ð²Ð°Ð»":4946,"ĠÐ²Ð¸Ð·":4947,"ÑĢÐ¸Ñģ":4948,"Ð¾ÑģÐ¿Ð¾Ð´":4949,"ĠÐĵÑĢÑĥÐ·":4950,"ĠÐŃÑģÑĤÐ¾Ð½":4951,"ÑĳÐ·Ð´":4952,"ĠÐĽÐ°ÑĤÐ²":4953,"ÐĻÐ¾ÑĢ":4954,"ÐºÐ¸Ð¼Ð¸":4955,"Ð¸ÑĤÐµÐ»ÑĮÑģÑĤÐ²Ð¾":4956,"Ð¸ÑĢÐ¾Ð²Ð°Ð½Ð¸Ðµ":4957,"ĠÐ¿Ð»Ð¾ÑīÐ°Ð´ÑĮ":4958,"Ð¾ÑģÐ¸Ð±Ð¸ÑĢ":4959,"ĠÑĦÐ¾ÑĢÐ¼Ðµ":4960,"ÐŀÐ±Ñī":4961,"Ð»ÑĥÐ³Ð¸":4962,"ÐµÐ½Ð³ÐµÑĢ":4963,"ĠÐ¿ÑĢÐµÐ´Ð¿Ð¾Ð»Ð¾Ð¶":4964,"Ð°Ð»Ð»Ð¸":4965,"ĠÑģÐ¿ÑĢÐ°Ð²":4966,"ĠÑģÐ¾Ð²ÐµÑĤÑģÐºÐ¾Ð¹":4967,"ĠÐ²Ð¾ÐµÐ½Ð½Ð¾Ð³Ð¾":4968,"ĠÑģÐµÐ²ÐµÑĢÐµ":4969,"ĠÐ²Ð½":4970,"ĠÐ´Ð¸Ð°Ð»ÐµÐºÑĤ":4971,"ĠÐ¿ÑĢÐ¸Ð½ÑıÑĤÐ¾":4972,"ĠÑĢÐ°ÐºÐµÑĤ":4973,"ĠÐ¸Ð½ÑģÑĤÑĢÑĥÐ¼ÐµÐ½ÑĤ":4974,"ĠÐ³Ð¾ÑĢÐ¾Ð´ÑģÐºÐ¾Ð³Ð¾":4975,"ĠÑģÐ¾Ð²ÑĢÐµÐ¼ÐµÐ½Ð½ÑĭÑħ":4976,"ĠÐ¼Ð¾Ð»ÐµÐº":4977,"ĠÐ¾ÑĤÐ½Ð¾ÑĪÐµÐ½Ð¸Ð¸":4978,"Ð¾Ð¼Ð±":4979,"Ð°ÑħÐ°":4980,"ÐŁÑĢÐ°Ð²Ð¾ÑģÐ»Ð°Ð²":4981,"ĠÐ¡ÐµÐ½":4982,"ĠÐ¿Ð¾Ð»ÑĳÑĤÐ°":4983,"ÑĳÐ½Ð½ÑĭÐ¼Ð¸":4984,"ĠÐ¾Ð´Ð½Ð¾Ð²ÑĢÐµÐ¼ÐµÐ½Ð½Ð¾":4985,"Ð¸Ð±Ð¾Ð»ÑĮÑĪ":4986,"ĠÐ³Ð¾ÑĢÐ¾Ð´ÑģÐºÐ¾Ð¹":4987,"ĠÑģÐ¿Ð¾ÑĢÑĤÐ°":4988,"ĠVI":4989,"ĠÑģÐ¾Ð·Ð´Ð°":4990,"ĠÐ¼Ð¸Ð»Ð»Ð¸Ð¾Ð½Ð¾Ð²":4991,"ĠÐ¾ÑĤÐ´ÐµÐ»":4992,"ĠÐ¿Ð¸ÑģÐ°ÑĤÐµÐ»ÑĮÐ½Ð¸ÑĨÐ°":4993,"ĠÑģÐ¾ÑģÑĤÐ°Ð²Ð»ÑıÑİÑĤ":4994,"ĠÐŁÑĢÐµÐ·Ð¸Ð´ÐµÐ½ÑĤ":4995,"Ð¾Ð´ÐµÐ»ÑĮ":4996,"ÐµÐ½Ð¸Ð½":4997,"ĠÐ½ÐµÑĳ":4998,"Ð¸Ð»Ð»":4999,"ÑĳÐ½Ð½Ð¾ÑģÑĤÑĮ":5000,"ĠÑģÐ¾Ð·Ð´Ð°Ð²":5001,"ĠÐ´Ð²ÑĥÐ¼Ñı":5002,"ĠÐ¸Ð»":5003,"ÑıÑĤÑĮÑģÑı":5004,"ĠÐ¼Ð¸Ð½ÑĥÑĤ":5005,"ĠÐ½ÐµÐ²Ð¾Ð·Ð¼Ð¾Ð¶":5006,"Ð³Ð¾Ð»":5007,"ĠÑĩÐ¸ÑĤ":5008,"ĠÐ¾Ð¿ÑĭÑĤ":5009,"ĠÐ¾ÑĤÐ½Ð¾ÑģÐ¸ÑĤÑģÑı":5010,"ĠÐĿÐ¸ÐºÐ¾Ð»Ð°Ñı":5011,"ĠÐ¿Ð¾Ð»Ð½Ð¾Ð¼Ð¾Ñĩ":5012,"Ð²ÑĪÐ¸Ð¹":5013,"ÑĩÐ½Ð¾":5014,"ÑİÑīÐµÐ³Ð¾":5015,"ĠÑĢÐµÑĦÐµÑĢÐµÐ½Ð´":5016,"ĠÑİÐ³Ðµ":5017,"ĠÐĲÐ»ÐµÐºÑģÐ°Ð½Ð´ÑĢÐ¾Ð²":5018,"ĠÑĩÐ»ÐµÐ½Ñĭ":5019,"ĠÐ·Ð´Ð°Ð½Ð¸Ñı":5020,"ĠÐ°Ð»ÑĦÐ°Ð²Ð¸ÑĤ":5021,"Ġ\"":5022,"ÑĨÐµÑģÑģ":5023,"Ð¸Ð»Ð¸Ð¸":5024,"ĠÑģÐ¾ÑĨÐ¸Ð°Ð»Ð¸ÑģÑĤ":5025,"Ġ35":5026,"ĠÐ¿ÑĢÐ¾ÑĦÐµÑģÑģÐ¸Ð¾Ð½":5027,"ĠÐ´Ð¸ÑĢÐ¸Ð¶ÑĳÑĢ":5028,"ÐŃÐº":5029,"ĠÑģÐ¾Ð·Ð´Ð°Ð½Ð¸Ðµ":5030,"ĠÑģÑĤÐ°ÑĤÐ¸ÑģÑĤ":5031,"Ð·ÑĭÑĩ":5032,"ĠÐ²ÐºÐ»ÑİÑĩÐ°ÐµÑĤ":5033,"ĠÐ²Ð¾Ð·Ð¼Ð¾Ð¶Ð½Ð¾":5034,"ĠÑħÐ°ÑĢÐ°ÐºÑĤÐµÑĢÐ¸ÑģÑĤ":5035,"ĠÐ°Ð²ÑĤÐ¾Ð¼Ð°ÑĤ":5036,"ĠÑģÐ¾Ð³Ð»Ð°ÑĪÐµÐ½Ð¸Ðµ":5037,"ĠÐ·Ð½Ð°Ð¼ÐµÐ½Ð¸ÑĤ":5038,"XV":5039,"Ð´Ð¾Ð¼":5040,"ĠÐŁÐ°":5041,"ĠÑħÐ¾Ð´":5042,"ĠÐ¾ÑĢÐ´ÐµÐ½Ð°":5043,"92":5044,"Ð·Ð¸Ð¸":5045,"ĠÐ»Ð°Ð³":5046,"ÐľÐµÑĤ":5047,"ÐµÑĢÐ½ÐµÑĤ":5048,"ĠÐ³Ð¾Ð»Ð¾Ð²":5049,"ĠÐ¡Ð¾ÑĨÐ¸Ð°Ð»Ð¸ÑģÑĤ":5050,"ÑĨÐ¸Ð¾Ð½Ð½ÑĭÐ¹":5051,"Ð²ÐµÑģÑĤÐ¸":5052,"Ð°Ð½Ð½Ð¾Ðµ":5053,"ÐµÐ²ÑģÐºÐ¸Ð¹":5054,"ĠÐĵÐ°ÑĢ":5055,"ÐĲÐ»ÐµÐºÑģÐ°Ð½Ð´":5056,"Ð¾Ð»Ð½Ñı":5057,"Ð¾ÐºÐ¾":5058,"Ð¸Ð²Ñĭ":5059,"ĠÑĨÐµÐ½ÑĤÑĢÐ¾Ð¼":5060,"65":5061,"ĠÑģÑĤÑĢÐµ":5062,"ĠÐĴÐ¸ÑĤ":5063,"Ð¼Ð¸ÑĢÑĥ":5064,"ĠÐĽÐ¸":5065,"ĠÐ¿ÑĢÐµÑģ":5066,"ĠÐ²ÑģÑİ":5067,"ell":5068,"ĠÐ¿ÑĢÐ¾ÑĦÐµÑģÑģÐ¾ÑĢ":5069,"Ð¸Ð¼Ð¾ÑģÑĤÐ¸":5070,"ĠÑģÐ¾Ð±Ð¾ÑĢ":5071,"ĠÐ¿ÑĢÐ¸ÑĢÐ¾Ð´Ñĭ":5072,"ĠÐ¾Ð±Ð¾ÑĢÐ¾Ð½Ñĭ":5073,"Ð½Ð°Ð·Ð½Ð°Ñĩ":5074,"ĠÐ¢ÑĢÑĥ":5075,"ĠÑĢÐµÐ·ÑĥÐ»ÑĮÑĤÐ°ÑĤ":5076,"ĠÑģÐ¸Ð»ÑĮÐ½Ð¾":5077,"ĠÐĵÑĢÐ¸Ð³Ð¾ÑĢ":5078,"Ġ31":5079,"ĠÐ°ÑĢÐ¼ÑıÐ½":5080,"ĠÑĤÑĢÐµÐ½ÐµÑĢ":5081,"ĠÐ¿Ð¾ÑıÐ²Ð»Ñı":5082,"ĠÐ¢Ðµ":5083,"ĠÐ·Ð°Ð¿Ð°Ñģ":5084,"ĠÐºÐ°ÑĤÐµÐ³Ð¾ÑĢ":5085,"ĠÐºÐ¾Ð½ÐºÑĢÐµÑĤ":5086,"ĠÑģÑĤÐ°Ð´":5087,"Ð³Ð¾Ðµ":5088,"ĠÑĢÐ°Ð±Ð¾ÑĤÐµ":5089,"ĠÑģÐ¼ÐµÑĢÑĤ":5090,"ÑģÐµÐ½":5091,"Ð»Ð»Ðµ":5092,"ÑģÑĤÐ°Ð½Ð°":5093,"ĠÐ²Ð²Ð¾Ð´":5094,"Ð¸ÑģÑĤÐ°Ð½Ð°":5095,"Ð¾ÑħÐ¾Ð´":5096,"Ð¸ÑģÐ¾Ðº":5097,"ĠÐŁÐ°Ð¿":5098,"ĠÑįÑĤÑĥ":5099,"ÐŃÑĤÐ°":5100,"Ð¸Ð³ÑĢÐ°":5101,"ĠÐ½Ð°Ð·Ð²Ð°Ð½Ð¸ÐµÐ¼":5102,"ĠÐºÐ¾Ð½ÐºÑĥÑĢ":5103,"ĠÐ½Ð°ÑĢÐ¾Ð´Ð¾Ð²":5104,"ĠÑĪÐºÐ¾Ð»Ð°":5105,"ĠÐ¾Ð±Ð¾ÑĢÑĥÐ´":5106,"ÐºÐ°Ð·ÑĭÐ²":5107,"Ð¸Ð²Ð°ÑĤÑĮ":5108,"ĠÐłÑĥ":5109,"ĠÑĢÑĥÐº":5110,"ĠÐ¿Ð¸ÑģÑĮÐ¼ÐµÐ½":5111,"68":5112,"ce":5113,"Ð°ÑĨÐ¸Ñı":5114,"Ð°Ð½Ð½Ð¾Ð³Ð¾":5115,"ĠÐ³ÐµÑĢÐ¼Ð°Ð½":5116,"ÐµÐ¹ÑĩÐ°Ñģ":5117,"ĠÑĢÐ¾Ð»Ð¸":5118,"ĠÐ¸ÑģÐ¿Ð¾Ð»ÑĮÐ·Ð¾Ð²Ð°Ð½Ð¸Ðµ":5119,"ĠÑĤÑĢÐ°Ð½ÑģÐ¿Ð¾ÑĢÑĤÐ°":5120,"ĠÑĥÑģÑĤÐ°Ð½Ð¾Ð²Ð»ÐµÐ½":5121,"ĠÐ½Ð°ÑĥÑĩÐ½Ð¾":5122,"ĠÑĢÐ°ÑģÐ¿Ð¾Ð»Ð¾Ð¶ÐµÐ½":5123,"ud":5124,"ĠÑģÑĢÐµÐ´ÑģÑĤÐ²Ð°":5125,"Ð¿Ð¸ÑĤ":5126,"ÑĨÐ¸Ð¾Ð½Ð½Ð¾Ð³Ð¾":5127,"Ð·Ð°ÑĨÐ¸Ð¸":5128,"ĠÑĥÑĩÐµÐ½Ð¸":5129,"ÑħÐ¾Ð²":5130,"Ð°ÑĤÐ°ÑĢ":5131,"Ð°Ð²ÐºÐ°Ð·":5132,"ĠÐ¿Ð¾Ð»Ðµ":5133,"ÐŀÐ½Ð°":5134,"Ð½Ð¸ÑĨÑĭ":5135,"ĠÑĢÐ°ÑģÐ¿ÑĢÐµÐ´":5136,"ÐµÐ±ÑĢÐ°":5137,"ĠÑģÐ¾ÑĤÑĢÑĥÐ´Ð½Ð¸ÑĩÐµ":5138,"ib":5139,"io":5140,"ĠÐ¡Ðº":5141,"ĠÐ¾ÑĤÑĢÐ°Ñģ":5142,"ĠÑĢÐµÐ°Ð»Ð¸Ð·":5143,"Ð°ÑĢÑĤÐµ":5144,"ĠÐļÑĢÑĭ":5145,"Ð²Ð°ÑİÑĤÑģÑı":5146,"ĠÐ¨Ð²ÐµÑĨÐ¸Ð¸":5147,"ay":5148,"Ñĸ":5149,"ÑĥÑģÐ»Ð¾Ð²":5150,"Ð¾Ð²Ð°Ð½Ñĭ":5151,"ĠÐ²ÐµÐºÐ¾Ð²":5152,"ĠÑĥÑģÐ¿ÐµÑħ":5153,"Ð½ÐµÐ½Ð¸Ñı":5154,"Ð¼ÐµÐ¹":5155,"Ð³ÐµÐ½":5156,"ĠÐ±ÑĢÐ°":5157,"ÐµÐ¼Ð°":5158,"Ġ1919":5159,"ĠÑĥÐ¿Ð¾Ð¼Ð¸Ð½":5160,"ĠĠĠĠĠĠĠĠ":5161,"ĠÐ¿ÑĢÐµÐ´ÑģÐµÐ´Ð°ÑĤÐµÐ»ÑĮ":5162,"ÐŁÑĢÐ°Ð·Ð´Ð½Ð¸ÐºÐ¸":5163,"67":5164,"ĠÐ»ÐµÐ¶":5165,"ĠÐľÐ°Ð»":5166,"ĠÐ¿Ð¾ÑģÐ»ÐµÐ´Ð½Ð¸Ðµ":5167,"ĠÑĢÐ°Ð²Ð½":5168,"Ð½ÑĭÐ½Ðµ":5169,"ĠÑĦÐ¸Ð»":5170,"ÐļÑĢÑĥÐ¿":5171,"ĠÐ¶ÐµÑĢÑĤ":5172,"ĠÐ¡ÑĤÐ°Ð»Ð¸Ð½":5173,"ĠÑħÐ°ÑĢÐ°ÐºÑĤÐµÑĢÐ¸Ð·":5174,"ĠÑĥÑĢÐ¾Ð²Ð½Ðµ":5175,"ĠÐ¾Ð´Ð½Ð¾Ð¼":5176,"ĠÐ´Ð¾ÑħÐ¾Ð´":5177,"ĠÐ´ÑĢÑĥÐ³Ð¸Ð¼":5178,"ĠÐĶÐ¶Ð¾ÑĢÐ´Ð¶":5179,"ĠÑĤÐµÐ°ÑĤÑĢ":5180,"Ð°Ð½ÑģÐºÐ¾Ð³Ð¾":5181,"ÑĢÐµÑĩ":5182,"ĠÐ°Ð³":5183,"Ð»ÑıÑĤ":5184,"ĠÐĿÐ¸Ð´ÐµÑĢÐ»Ð°Ð½Ð´":5185,"ÑĢÐ°ÑĤÑĮ":5186,"ĠÑģÐ»ÑĥÑĩÐ°Ñı":5187,"ĠÐ¸Ð·Ð±Ð¸ÑĢÐ°":5188,"ĠÐĴÐµÐ»Ð¸ÐºÐ¾Ð³Ð¾":5189,"ĠÐĴÑĮÐµÑĤÐ½Ð°Ð¼":5190,"ĠÑģÐ¾ÑģÑĤÐ°Ð²Ð¸Ð»":5191,"1945":5192,"ĠÑĢÑĭÐ±":5193,"á¼":5194,"Ð»Ð»":5195,"Ð¼Ð°Ð½Ð°":5196,"ĠÐºÐ¾Ð»Ð»ÐµÐºÑĤ":5197,"ĠÑįÐºÑģÐ¿Ð»Ñĥ":5198,"ĠÐ»Ð¸ÑĤÐµÑĢÐ°ÑĤÑĥÑĢÐµ":5199,"ĠÐ±ÑĥÐºÐ²":5200,"ÑĢÐ¸Ð¿":5201,"ĠÐ±ÐµÐ´":5202,"ÐŁÐµÑĢ":5203,"Ð¸Ð²Ð½ÑĭÐµ":5204,"ĠÑģÐ¾Ð·Ð´Ð°Ð½Ð¸Ð¸":5205,"ÑģÑĤÑĢÐ¾Ð¹":5206,"Ð¸Ð´Ñĥ":5207,"ÐµÐ»Ð¸Ñı":5208,"ĠÐ½Ð°ÑĢÐ¾Ð´Ð°":5209,"ĠÑĢÐµÐ³ÑĥÐ»ÑıÑĢ":5210,"ĠÐºÑĢÐ°ÑĤ":5211,"ÑįÐº":5212,"Ð¸ÑĢÐ¾Ð²Ð°Ð»":5213,"ĠÑģÐ¾Ð²ÐµÑĤÑģÐºÐ¸Ñħ":5214,"ĠÐļÐ¸ÑĤÐ°Ñı":5215,"Ð°ÑĳÑĤÑģÑı":5216,"Ð¾Ð½ÐµÐ·":5217,"Ð°Ð²Ð°Ð»":5218,"ÐŀÐ±ÑĢÐ°Ð·":5219,"ĠÑĢÐ°Ð·ÑĢÐµÑĪ":5220,"ĠÐ²ÑĭÑģÑĤÐ°Ð²":5221,"Ð¡Ð¾Ð²ÑĢÐµÐ¼ÐµÐ½":5222,"ĠÐ½Ð¸Ð¶Ðµ":5223,"Ð¸ÑĤÐµÑĤÐ°":5224,"Ð½Ð¸ÐµÐ¼":5225,"ĠÐŁÐµÑĤÑĢÐ¾Ð²":5226,"ĠÑģÐµÐ¼ÐµÐ¹":5227,"44":5228,"ĠÐĴÐ°ÑģÐ¸Ð»Ð¸Ð¹":5229,"Ïģ":5230,"ĠÑģÐ´ÐµÐ»Ð°":5231,"ĠÐ¾Ð´ÐµÑĢÐ¶":5232,"ĠÐ®ÑĢÐ¸Ð¹":5233,"ĠÐ²Ð»Ð°":5234,"Ð³Ð¾ÑģÐ»Ð°Ð²":5235,"ĠÐ½Ð°Ð·":5236,"ĠÑĤÑĢÐµ":5237,"ĠÐĴÐ¸Ð·Ð°Ð½ÑĤ":5238,"ÐłÐ¾ÑģÑģÐ¸Ñı":5239,"ĠÐ¯Ð½":5240,"Ð§Ð°ÑģÑĤ":5241,"ĠÑĢÑĥÐºÐ¾Ð²Ð¾Ð´ÑģÑĤÐ²Ð¾Ð¼":5242,"ĠÑģÐ¾Ð·Ð½":5243,"ĠÐ¸Ð½Ð¸ÑĨÐ¸":5244,"62":5245,"ĠÐĲÐĿ":5246,"ĠÑħÑĢÐ°Ð¼":5247,"ĠÐ¾Ð¿Ð¿Ð¾Ð·":5248,"ĠÑĩÐ°ÑģÑĤÐ¸ÑĨ":5249,"ĠÐ¿Ð¾Ð»Ð¸ÑĤÐ¸ÐºÐ¸":5250,"ĠÑĥÐºÐ°Ð·ÑĭÐ²Ð°":5251,"Ð°ÑĤÐµÐ»ÑĮÐ½ÑĭÑħ":5252,"ĠÐ½Ð¸ÐºÐ°Ðº":5253,"ĠÐ¾ÑĦÐ¸ÑĨ":5254,"ĠÐ´Ð¸Ð²":5255,"Ð¼Ð¸Ñİ":5256,"ĠÐĽÐµÐ¹":5257,"ĠÐ¿Ð¾Ð´ÑĢÐ°Ð·":5258,"54":5259,"Ð°ÑĢÐ»ÑĮ":5260,"ĠÐ¿ÐµÑĢÐµÐ¸Ð¼ÐµÐ½":5261,"ĠÐºÐ¾ÑĢÐ¾Ð»ÑĳÐ¼":5262,"87":5263,"ĠÐĵÐ°Ð»Ð¸":5264,"ĠÑģÐ°Ð¼Ð¾Ð¹":5265,"Ġ1988":5266,"ĠÑĢÐ°Ð´Ð¸Ð¾":5267,"Ð¸ÑģÐ¸":5268,"ĠÑĦÐ»Ð°Ð³":5269,"ĠÐ¿ÑĢÐµÐ¶Ð´Ðµ":5270,"ĠÐ·Ð°Ð²Ð¾ÐµÐ²":5271,"ĠÐ²Ð¾ÐµÐ½Ð½Ð¾Ð¹":5272,"ĠÑģÐ¾ÑģÑĤÐ¾ÑıÐ½Ð¸Ñı":5273,"ĠÐĵÑĢÐµÑĨÐ¸Ð¸":5274,"ĠÐŁÐ¾Ð´":5275,"Ð¸ÑĨÐ¸Ð¹":5276,"ĠÑģÑĢÐµÐ´ÑģÑĤÐ²":5277,"ĠÐ¼Ð°Ð³Ð¸ÑģÑĤ":5278,"ĠÐŁÐ¾Ð»ÑĮÑĪÐ¸":5279,"Ð²ÑĳÑĢÐ´":5280,"ĠÑģÑĥÑħ":5281,"Ð¿Ðµ":5282,"Ð¸ÑĤÑĭ":5283,"ĠÐĺÐ»ÑĮ":5284,"1990":5285,"ĠÑįÐ½ÑĨÐ¸ÐºÐ»Ð¾Ð¿ÐµÐ´":5286,"Ð¸Ð½Ð³Ð²Ð¸ÑģÑĤ":5287,"ĠÑī":5288,"Ð¾Ð²Ð¾":5289,"ĠÐ¾ÑĤÑĢÐ°Ð¶":5290,"ĠÐ¿ÑĢÐ¸Ð´":5291,"ĠÐĿÐ¾Ð²Ð¾Ð¹":5292,"ÑĢÐ°Ð·Ñĥ":5293,"ĠÐ¿ÐµÑĢÐµÐ²Ð¾Ð·":5294,"ĠÐŁÐ°Ð²ÐµÐ»":5295,"ĠÑĢÐ°Ð±Ð¾ÑĩÐ¸Ñħ":5296,"ĠÐºÐ¾Ð½ÑĤÑĢÐ¾Ð»ÑĮ":5297,"ĠÐ²Ð¾ÑģÑĤÐ¾Ðº":5298,"ĠÐ´Ð¾Ð»Ð³":5299,"ĠÐłÐ¾Ð±ÐµÑĢÑĤ":5300,"ĠÐ¾Ð·Ð½Ð°ÑĩÐ°ÐµÑĤ":5301,"ĠÐ¡ÐµÐ¼":5302,"ÐµÑģÑĤÐ¸Ð²":5303,"ÐµÑĢÑģÐ¾Ð½":5304,"Ġ978":5305,"Ġ1950":5306,"ĠÐ²Ð¾ÑģÑģÑĤÐ°Ð½Ð¸Ñı":5307,"ÐºÐ»Ð°Ð´":5308,"Ġ500":5309,"ĠÐµÐ´Ð¸Ð½Ð¸ÑĨ":5310,"ĠÐłÑĭ":5311,"ĠÐ¸Ð¼ÐµÐ»":5312,"ÐĵÐµ":5313,"ĠÐ¸Ð³ÑĢ":5314,"ĠÐĴÐĴÐŁ":5315,"ÑĥÑİÑīÐ¸Ð¼":5316,"ĠÐ¾Ð±ÑĬÑıÐ²Ð¸Ð»":5317,"ĠÐ¿ÑĢÐµÑģÑĤÐ¾Ð»":5318,"ĠÐ¸Ð·Ð¾Ð±ÑĢÐµÑĤÐ°ÑĤÐµÐ»ÑĮ":5319,"ĠÐ¿Ð»Ð°Ð²":5320,"Ð¾Ð³Ð¸Ð±":5321,"ÐºÐ¾Ð²ÑģÐºÐ¾Ð³Ð¾":5322,"ĠÐ¿ÑĢÐ¾ÑĢ":5323,"ĠÐ¿ÑĢÐ¾Ðº":5324,"ÐµÐ»Ð¾Ð²":5325,"ĠÑģÐ¾ÑģÑĤÐ°Ð²Ð°":5326,"ĠÑĤÐµÑĢÑĢÐ¸ÑĤÐ¾ÑĢÐ¸Ñİ":5327,"Ġ90":5328,"ĠÐļÐ¾ÑĢÐ¾Ð»ÐµÐ²":5329,"Ð°ÑĤÐ¾Ð»":5330,"ĠÐĿÐ°Ð¿":5331,"Ð¾ÑĢÐ³Ð°Ð½":5332,"ĠÐ³Ð¸Ð±":5333,"ĠÐ½Ð°Ð»Ð¾Ð³":5334,"Ð¸Ð½Ð³Ð°":5335,"ÐŁÐ¾Ð¼":5336,"ÑĥÑīÐµÐ³Ð¾":5337,"ĠÐĲÐ½Ð´ÑĢÐµÐ¹":5338,"ĠÐ¾ÑĤÐ½Ð¾ÑĪÐµÐ½Ð¸Ð¹":5339,"ĠÐ°Ð²ÑĤÐ¾Ð¼Ð¾Ð±Ð¸Ð»ÑĮ":5340,"ÐºÐ°Ðº":5341,"Ð»ÐµÑĢÐ°":5342,"ÐµÐ½Ð°Ñĩ":5343,"ÑĥÑħÐ°Ð¼":5344,"ĠÐķÐ²Ð³":5345,"ÐĺÑģÑĤÐ¾ÑĢ":5346,"ĠÐ¼Ð¸Ð½Ð¸ÑģÑĤÑĢ":5347,"ĠÐ¼Ð¸Ð½Ð¸ÑģÑĤÑĢÐ¾Ð²":5348,"Ð¾Ð´Ð½":5349,"ÐµÐ¼Ð¾Ð³Ð¾":5350,"ĠÐ¡ÐĿ":5351,"Ð¸Ð»Ð¾ÑĤ":5352,"ĠÑĢÐ¾Ð¶Ð´ÐµÐ½Ð¸Ñı":5353,"ĠÐ¤ÐµÑĢ":5354,"ĠÐ³Ð¾ÑĢÐ¾Ð´Ð°Ñħ":5355,"ĠÑģÐ°Ð¼ÑĭÐ¹":5356,"1991":5357,"ĠÐ¸ÑģÑģÐ»ÐµÐ´Ð¾Ð²Ð°ÑĤÐµÐ»ÑĮ":5358,"ĠÐ¿ÑĢÐ¾Ð¸Ð·Ð²ÐµÐ´ÐµÐ½Ð¸Ñı":5359,"ĠÐ¾ÑĤÐ´ÐµÐ»ÑĮÐ½ÑĭÑħ":5360,"Ð²Ð¾Ð²":5361,"Ð¾ÑĢÐ´Ð¸Ð½":5362,"ĠÑĨÐµÐ½ÑĤÑĢÐµ":5363,"ĠÐ¿ÑĢÐ¸ÑĩÑĳÐ¼":5364,"ĠÑĢÐ°Ð·Ð³ÑĢÐ¾Ð¼":5365,"ĠÐ¶ÐµÐ»":5366,"Ð¼Ð¸Ð½Ð¸ÑģÑĤÑĢÐ°":5367,"ĠÐĴÐ°ÑģÐ¸Ð»ÑĮ":5368,"ĠÐŀÑĤÐµÑĩÐµÑģÑĤÐ²ÐµÐ½Ð½Ð¾Ð¹":5369,"ĠÐĴÐ¾ÑĢÐ¾Ð½":5370,"ĠÐĵÑĥ":5371,"ĠÐ±Ð¾ÑĢÑĮÐ±Ñĭ":5372,"ĠÐ¿ÑĢÐ¸ÑĤ":5373,"ĠÐ·Ð°Ð²Ð¸Ñģ":5374,"ĠÐ´Ð°Ð½Ð½ÑĭÐµ":5375,"ĠÐ¸Ð´ÐµÐ¸":5376,"66":5377,"Ð¾Ð½Ð¸Ðº":5378,"ÐĳÐ¸":5379,"ĠÑģÑĥÐ´Ð°":5380,"ĠÑģÐ¾Ð¾ÑĤÐ²ÐµÑĤÑģÑĤÐ²ÐµÐ½Ð½Ð¾":5381,"ĠÐ³ÐµÐ½":5382,"ĠÐŁÐ°ÑĢ":5383,"ĠÐµÐ¶ÐµÐ³Ð¾Ð´":5384,"ĠÐ¦ÐµÑĢ":5385,"ĠÐ¿Ð¾Ð·Ð½":5386,"ĠÐ½Ð°Ð±Ð»ÑİÐ´Ð°":5387,"Ð¾Ð½Ð¸Ð¸":5388,"Ð¸ÑĩÐ½ÑĭÐµ":5389,"ĠÐ·Ð°Ð½ÑıÑĤ":5390,"ĠÐ¸Ð·Ð²ÐµÑģÑĤÐ½ÑĭÐ¹":5391,"ĠÐ½ÑĥÐ¶":5392,"ĠÐ¼Ð»Ð°Ð´":5393,"ÑĪÐ°Ð»":5394,"ÑĢÐ°Ð½ÑĤ":5395,"ĠÐ¾ÑĢÐ´ÐµÐ½":5396,"Ġ1979":5397,"ĠÐ¿ÑĢÐµÐ²ÑĭÑĪ":5398,"ĠÐ²Ð½Ð¸Ð¼Ð°Ð½Ð¸Ðµ":5399,"ĠÐľÐ¸Ð»":5400,"ĠÐĿÐµÐ²":5401,"ĠÐ¼ÐµÑĤÑĢÐ¾Ð²":5402,"Ð¼Ð¸Ð½Ð¸ÑģÑĤÑĢÐ¾Ð¼":5403,"ard":5404,"ĠÐ¼ÐµÐ¶Ð´ÑĥÐ½Ð°ÑĢÐ¾Ð´Ð½ÑĭÑħ":5405,"ĠÐ¸ÑģÑĤÐ¾ÑĩÐ½Ð¸Ðº":5406,"ĠÑĤÐµÐ¿Ð»Ð¾Ð²":5407,"ĠÐ·Ð°Ð»Ð¾Ð¶":5408,"ik":5409,"ĠÐ¸Ð·Ð»ÑĥÑĩ":5410,"ĠÐĵÐ¾Ð½":5411,"ĠÐ¿ÑĢÐµÑģÑĤÑĥÐ¿":5412,"ĠÑĤÑĢÐ°Ð´Ð¸ÑĨÐ¸Ð¸":5413,"ĠÐĴÐ¾ÑģÑĤÐ¾ÑĩÐ½Ð¾Ð¹":5414,"ĠÐĺÐ¾Ð°Ð½Ð½Ð°":5415,"ĠÑĢÐ°ÑģÑĤÐ²Ð¾ÑĢ":5416,"ĠÐ¾ÑĨÐµÐ½Ð¸":5417,"ĠÐ±ÐµÑģÐº":5418,"ÐĴÐ»Ð°Ð´":5419,"ĠÐ½ÐµÐ¿ÑĢÐ¸":5420,"ĠÐľÐµÐ½":5421,"ĠÐĶÑĢÐµÐ²":5422,"Ġ1987":5423,"ĠÐ¾Ð±ÑīÐµÐ³Ð¾":5424,"2000":5425,"ĠÐ¼Ð°ÑģÑģÑĭ":5426,"ĠâĪĴ":5427,"ĠÑģÐ²ÑıÑĤÐ¾Ð¹":5428,"ĠÐ°Ð²ÑĤÐ¾Ð±ÑĥÑģ":5429,"ĠY":5430,"ĠÐ¾ÑĤÑĢÑı":5431,"ĠÐĶÐ¶ÐµÐ¹Ð¼":5432,"Ð»ÐµÐ¹Ð±":5433,"ĠÑģÐ¾Ð»Ð´Ð°ÑĤ":5434,"ĠÐĴÑģÐµÐ¼Ð¸ÑĢ":5435,"ĠÐ¿ÑĢÐ¾Ð²Ð¾Ð·Ð³Ð»Ð°Ñģ":5436,"1918":5437,"ĠÐ¾ÑģÐ½Ð¾Ð²Ð½Ð¾Ð¹":5438,"ĠÐ²ÑĭÑģÐ¾ÑĤ":5439,"Ð¾ÑħÐ¾Ð·ÑıÐ¹":5440,"ĠÑĤÑĥÑĢÐ¸ÑģÑĤ":5441,"ÑıÐ»Ð°":5442,"ĠÐ¿Ð»ÐµÐ½":5443,"ÑĪÐ¸Ð½":5444,"ĠÑħÑĢÐ¾Ð½":5445,"ÐŃÐ¡":5446,"Ð°ÑīÐ¸Ñħ":5447,"Ð²Ð¸Ð·":5448,"ĠÐ²Ð°Ð»ÑİÑĤ":5449,"Ð¾ÑĢÑĥÑģÑģ":5450,"ÑĩÐµÐº":5451,"Ð²Ð°ÑĢÐµ":5452,"ĠÐ¾Ð¿ÐµÑĢÐ°ÑĤÐ¾ÑĢ":5453,"ĠÐ¿ÐµÑĢÐ²Ð¾Ð½Ð°Ñĩ":5454,"ÐŃÐºÐ¾Ð½Ð¾Ð¼":5455,"ĠÐĴÐ»Ð°Ð´Ð¸Ð¼Ð¸":5456,"ĠÐ°ÐºÑĤÐ¸Ð²Ð½Ð¾":5457,"Ð°ÑĢÐ½ÑĭÑħ":5458,"ĠÐ·Ð°ÑģÐµÐ´":5459,"ĠÐ¿Ð¾ÑģÑĢÐµÐ´":5460,"ĠÐ³Ð¾ÑģÑĥÐ´Ð°ÑĢÑģÑĤÐ²ÐµÐ½Ð½ÑĭÑħ":5461,"ĠÐºÐ°Ð¶Ð´ÑĭÐ¹":5462,"ĠÐ¿ÑĢÐ¾Ð±Ð»ÐµÐ¼Ñĭ":5463,"ĠÑħÐ¾Ð·ÑıÐ¹ÑģÑĤÐ²Ð°":5464,"ru":5465,"ĠÐ¡Ð°Ð²":5466,"ĠÑģÐ¾Ð¾Ð±ÑīÐµ":5467,"Ġ1944":5468,"Ð°ÐµÐ¼ÑĭÑħ":5469,"Ð´Ð°Ð¼ÐµÐ½ÑĤ":5470,"ĠÐ¿Ð¾Ð»ÑĥÐ¾ÑģÑĤ":5471,"ĠÑģÐ¾Ð±ÑĭÑĤÐ¸Ð¹":5472,"63":5473,"ÑİÐ½":5474,"ĠÐ¿Ð¾ÑĤÐ¾Ð¼Ñĥ":5475,"ĠÐ½ÐµÑĦÑĤÐ¸":5476,"ÐµÐ½ÑģÐºÐ¾Ð³Ð¾":5477,"ĠÐ¼Ð¼":5478,"ĠÐ¼Ð¸ÑĤ":5479,"ĠÑĢÐµÐ³Ð¸":5480,"ÐĲÐ±":5481,"ĠÐ¢Ð°Ð¹":5482,"Ð°Ð·Ð°":5483,"Ð»Ð¸Ð·Ð°Ð²":5484,"Ð¾ÑĢÐ²ÐµÐ¶":5485,"ĠÑĥÐ¼ÐµÐ½ÑĮÑĪ":5486,"ĠÑģÑĥÐ»ÑĤ":5487,"ĠÐļÐ¸ÑĢÐ¸":5488,"ÐµÐ»Ñĳ":5489,"ĠÑģÐ»ÐµÐ´ÑĥÑİÑīÐ¸Ðµ":5490,"ĠÐºÑĢÑĥÐ¿Ð½ÐµÐ¹ÑĪÐ¸Ñħ":5491,"ĠÑģÐºÑĥÐ»ÑĮÐ¿ÑĤÐ¾ÑĢ":5492,"ÐŁÐ¾ÑįÑĤÐ¾Ð¼Ñĥ":5493,"Ð°ÑĤÑĥÑĢ":5494,"ĠÑĢÐ°Ð·Ð¼ÐµÑī":5495,"ÑĬÑĳÐ¼":5496,"ĠÑĩÐµÑĪ":5497,"ĠÐ¾ÑģÐ½Ð¾Ð²Ð½ÑĭÐµ":5498,"Ð·Ð¸Ð´Ð¸":5499,"ĠÐ¿Ð¾Ð½ÑıÑĤÐ¸Ñı":5500,"ĠÐĺÐ¼Ð¿ÐµÑĢÐ°ÑĤÐ¾ÑĢ":5501,"ĠÐ¿ÑĢÐµÐ¸Ð¼ÑĥÑīÐµÑģÑĤÐ²ÐµÐ½Ð½Ð¾":5502,"72":5503,"ĠÑĤÐµÐ»":5504,"Ð»ÑıÑİÑĤ":5505,"Ð¸ÑĩÐµÑģÐºÐ¾Ð¼Ñĥ":5506,"ÐłÐµ":5507,"ĠÐ¿Ð¾Ð²ÑĤÐ¾ÑĢ":5508,"ÐĿÐ°ÑĩÐ°Ð»Ð¾":5509,"ĠÐ¡ÐŁÐ±":5510,"Ġ)":5511,"Ð½ÑĪÑĤ":5512,"Ð±Ð¾Ð¼":5513,"ÐľÐ½Ð¾Ð³Ð¸Ðµ":5514,"ĠÐ¿ÑĢÐ¾ÑĤÐ¸Ð²Ð¾ÑĢÐµÑĩ":5515,"ĠÐ»ÑĳÑĤÑĩÐ¸Ðº":5516,"Ð¾Ð»ÑĳÑĤÐ°":5517,"ÑĨÐ¸Ð½":5518,"Ð°Ð²ÑĪÐ¸Ðµ":5519,"ÐļÐ°":5520,"ÐłÐ°ÑģÐ¿":5521,"ĠÐ²Ð¾ÐµÐ½Ð°Ñĩ":5522,"ĠÐ²Ð¸Ð´Ñĭ":5523,"ĠÐ¸ÑģÑģÐ»ÐµÐ´Ð¾Ð²Ð°Ð½Ð¸Ð¹":5524,"Ð¦ÐµÐ½ÑĤ":5525,"ĠÑĦÐ»Ð¾ÑĤÐ°":5526,"ĠÐ¾ÑģÐ½Ð¾Ð²Ð¾Ð¿Ð¾Ð»Ð¾Ð¶":5527,"ĠÐ¿ÑĢÐµÐ´ÑģÑĤÐ°Ð²Ð»ÐµÐ½Ð¸Ñı":5528,"ĠÐ¿ÑĢÐ¾Ð´ÑĥÐº":5529,"und":5530,"ĠÐ¾Ð±ÑģÐ»ÑĥÐ¶":5531,"ÑĨÐµÐ¼":5532,"ĠÐ½ÐµÐ¿ÑĢ":5533,"ĠÐĳÑĢÐ°Ð·":5534,"ÑĢÐ¾ÑĪ":5535,"ĠÑĤÑıÐ¶ÑĳÐ»":5536,"Ð»Ð¸ÑģÑĤ":5537,"ÑįÐ¼":5538,"ÑĥÐ¼ÐµÑĢ":5539,"Ð¾ÑĢÐ¾Ð´Ð°":5540,"ĠÐ²Ð¾ÐµÐ½Ð½Ð¾":5541,"ĠÐ¿Ð¾ÑıÐ²Ð¸Ð»Ð¸ÑģÑĮ":5542,"ĠÐ¿Ð¾Ð»Ð¾Ð²Ð¸Ð½Ðµ":5543,"ĠÑħÐ¾ÑĢÐ¾ÑĪÐ¾":5544,"Ð¾Ð·ÐµÑĦ":5545,"ĠÐ¢Ð²ÐµÑĢ":5546,"ĠÐŃÐ´Ñĥ":5547,"ĠÐľÐ¾ÑģÐºÐ¾Ð²ÑģÐºÐ¾Ð³Ð¾":5548,"ĠÐ¡Ð¾Ð»Ð½ÑĨÐ°":5549,"Ð°ÑīÐµ":5550,"Ð¸Ð½Ð¾Ð¼":5551,"ÑĤÐ°Ñħ":5552,"ĠÐĹÐµÐ»Ð°Ð½Ð´":5553,"ĠÐ»ÑİÐ´":5554,"ĠÐ²ÐµÑīÐµÑģÑĤÐ²Ð°":5555,"Ð¸Ð½Ð°Ñħ":5556,"ÐĴÑĭÑģ":5557,"ÑĥÐ»ÑģÑı":5558,"ĠÐŁÐµÑĤÐµÑĢÐ±ÑĥÑĢÐ³":5559,"ĠÑģÐ¿ÐµÑĨÐ¸Ð°Ð»Ð¸ÑģÑĤ":5560,"ĠÑģÑĤÑĢÐ¾Ð¸ÑĤÐµÐ»ÑĮÑģÑĤÐ²Ð°":5561,"ĠÐ·Ð°ÑģÐ»ÑĥÐ¶ÐµÐ½Ð½ÑĭÐ¹":5562,"ĠÐ¿ÑĢÐ¾Ð³ÑĢÐ°Ð¼Ð¼Ð¸ÑĢÐ¾Ð²Ð°Ð½Ð¸Ñı":5563,"74":5564,"ĠÑģÐ»Ð¸":5565,"Â»:":5566,"ĠÐļÐ¸ÑĢ":5567,"ĠÐºÐ¾Ð¼Ð¿Ð¾Ð½":5568,"ĠÑĥÐ¿Ð¾Ð¼Ð¸Ð½Ð°":5569,"Ð»Ñĳ":5570,"Ð´ÐµÐ»ÑĮ":5571,"ĠÐ¿Ð¾Ð¸ÑģÐº":5572,"ÐĺÐ½Ð´":5573,"ĠÐ¿Ð¾ÑģÐµÑī":5574,"ÑĥÐ³Ð°Ð»ÑĮ":5575,"ĠÐ¸Ð·Ð±Ð¸ÑĢÐ°ÑĤ":5576,"ĠÐ¾Ð»Ð¸Ð¼Ð¿Ð¸Ð¹ÑģÐºÐ°Ñı":5577,"ĠÑĤÐ¾Ð½Ð½":5578,"ĠÐ¿ÑĢÐµÐ¿Ð¾Ð´Ð¾Ð±Ð½Ð¾Ð³Ð¾":5579,"ht":5580,"ĠÐŁÑĥÑĪ":5581,"ĠÐ¿ÑĢÐµÐ´Ð½Ð°Ð·Ð½Ð°Ñĩ":5582,"ĠÐ¿Ð¾Ð»ÑĥÑĩÐ¸Ð²":5583,"ĠÐ²Ð¸Ð´Ð°":5584,"ph":5585,"ÑģÐµÐ²":5586,"ÑıÐ½Ðµ":5587,"ĠÐ¿Ð¸ÑĤ":5588,"ĠÑĩÐ°ÑģÑĤÐµÐ¹":5589,"Ð°ÑİÑīÐ°Ñı":5590,"ĠÐ´ÐµÐ¹ÑģÑĤÐ²Ð¸Ð¹":5591,"ĠÐ¿ÑĢÐ¾ÑĤÑıÐ¶ÐµÐ½Ð¸Ð¸":5592,"ĠÐ¿ÑĭÑĤ":5593,"ÑĮÑĳÐ·":5594,"ĠÑģÐµÐ·":5595,"Ð±Ð°Ñĩ":5596,"ÐŁÑĢÐµÐ·Ð¸Ð´ÐµÐ½ÑĤ":5597,"82":5598,"ĠÑĨÐ¸":5599,"Ð´Ð¸Ðº":5600,"ĠÑģÐ¾ÑĢ":5601,"ĠÐºÐ»Ð°Ð´":5602,"Ð¾Ð½ÐµÑĩ":5603,"ĠÐ¿ÑĢÐ¾ÑıÐ²":5604,"ĠÑĩÐ»ÐµÐ½Ð¾Ð¼":5605,"Ð´ÐµÑĢ":5606,"Ġ45":5607,"Ġ150":5608,"Ð°Ð»Ð¸Ð·Ð¼Ð°":5609,"ÑĢÐ¾Ð»Ð»ÐµÐ¹Ð±":5610,"ĠÐ¿ÑĢÐµÐ´Ð¿ÑĢÐ¸Ð½Ð¸Ð¼":5611,"ĠÐ¿Ð¾Ð·Ð´Ð½ÐµÐµ":5612,"ĠÐŁÐ°ÑĢÐ¸Ð¶Ðµ":5613,"ĠÐ´Ð¾ÑģÑĤÐ¸Ð³Ð°":5614,"ÑĢÐµÐ·Ð²":5615,"ĠÐ¿Ð¾Ð½ÑıÑĤÐ¸Ðµ":5616,"ĠÐĲÑĢÐ¼ÐµÐ½Ð¸Ð¸":5617,"Ð¾ÑĢÐ¾ÑĤÐ°":5618,"ĠÐ¡Ð¼":5619,"ĠÐłÑĥÐ¼":5620,"ĠÑģÐ¾Ð²ÐµÑĤÐ°":5621,"ĠÐļÐ°Ð»Ð¸Ð½Ð¸Ð½Ð³ÑĢÐ°Ð´":5622,"ct":5623,"ĠÑģÐ»Ð°Ð²":5624,"ÐµÐ¼Ð±":5625,"ĠÐ¿ÑĢÐ¾ÑģÑĤÐ¾":5626,"ĠÐ¶ÐµÐ½Ð°":5627,"ÐĶÐµÐ½ÑĮ":5628,"Ð¤Ð¸Ð»Ð¾ÑģÐ¾ÑĦ":5629,"ĠÐ¼Ð°ÑĤÐµÑĢ":5630,"ĠÐ²ÑģÑĤÑĥÐ¿Ð¸Ð»":5631,"ĠÐºÐ¾ÑģÐ¼Ð¾Ð½Ð°Ð²ÑĤ":5632,"Ð²Ð°ÑĤÑĮ":5633,"ÑĢÐ°Ñĩ":5634,"ĠÐ¾Ð±ÑĢÐ°Ð±Ð¾ÑĤ":5635,"ÑĢÐ¾Ð²Ð¾Ð´":5636,"ÐºÐ¾Ð½ÑģÑĤÑĢÑĥ":5637,"ĠÐ³Ð»Ð°Ð²Ð°":5638,"ĠÐ³Ð¸ÑĤ":5639,"ĠÑģÑĤÑĢÐ°ÑĤ":5640,"ÐŀÑģÐ¾Ð±":5641,"ĠÐ¾ÑĢÐ³Ð°Ð½Ð¾Ð²":5642,"Ð¾Ð¹ÑĩÐ¸Ð²":5643,"ĠÐ½ÐµÑĥÐ´":5644,"ĠÑģÑĥÑīÐµÑģÑĤÐ²ÑĥÑİÑĤ":5645,"ĠÐ¿ÑĢÐ¾ÑģÑĤÑĢÐ°Ð½ÑģÑĤÐ²Ð¾":5646,"ÐĴÐ¾Ð·":5647,"Ð°ÑĤÐµÐ»ÑĮÑģÑĤÐ²Ð¾":5648,"ĠÑĦÐ¸Ð·Ð¸":5649,"Ð»Ð¾ÑĤÑĮ":5650,"ĠÐľÐ¸ÑħÐ°Ð¹Ð»Ð¾Ð²":5651,"ÑĢÐºÑĥÑĤ":5652,"ĠÐ±Ð¸ÑĤÐ²Ðµ":5653,"ÑĢÐ°Ð¸Ð»ÑĮ":5654,"Ð¾Ð²Ð¾ÑĢÐ°":5655,"ĠÑģÐµÐ½":5656,"Ð¿Ð¾Ñĩ":5657,"ĠÐļÐ¸Ðµ":5658,"Ġ1922":5659,"ĠÐĺÐ½ÑĤ":5660,"Ð»ÐµÐ½Ð½ÑĭÐµ":5661,"ÐĺÐ½ÑĤ":5662,"Ð¾ÑģÐ¼Ð¾Ð½Ð°Ð²":5663,"ĠÐ¾Ð±Ð»Ð°Ð´Ð°ÑĤÐµÐ»ÑĮ":5664,"43":5665,"Ð¸Ð¼Ð¾ÑģÑĤÑĮ":5666,"ĠÐ¡Ð¸Ð±":5667,"ÐµÐ·Ð°":5668,"ÑģÐºÐ¾ÑĢ":5669,"Ð°ÑĤÑĤ":5670,"Ð°Ð»ÑĮÐ½ÑĭÐ¼Ð¸":5671,"ĠÐľÐ¸ÑħÐ°":5672,"ĠÐ¿ÑĢÐ¸Ð²ÐµÐ»Ð¾":5673,"ĠÑģÐ¾ÑģÐµÐ´":5674,"ĠÐ»Ð¸Ðº":5675,"ĠÑĤÐ¸Ð¿Ð¾Ð²":5676,"ĠÐ¿Ð°":5677,"ĠÐ½Ð¸Ð¼Ð¸":5678,"Ð»ÑĮÐ½ÑĭÐ¹":5679,"ĠÐ½Ð°Ð¿Ð°Ð´":5680,"ĠÑĦÐ¸Ð·Ð¸ÐºÐ¸":5681,"ĠÐĲÑĢÐ¸ÑģÑĤÐ¾ÑĤ":5682,"ÑİÐ»ÑĮ":5683,"ÑĢÐ¸Ð±":5684,"ĠÐ¸Ð¼ÐµÑĤÑĮ":5685,"ĠÐ¸Ð½Ð´Ð¸Ð²":5686,"ĠÐĶÐ¼Ð¸ÑĤÑĢÐ¸Ð¹":5687,"Ð½Ð°Ð»":5688,"ÑĩÐµÑĢ":5689,"ĠÐ±ÐµÑģ":5690,"ĠÐ¡Ñĥ":5691,"ĠÐ¿ÑĢÐ¸Ð²ÐµÐ´":5692,"Ð¸Ð²Ð½Ð¾Ð³Ð¾":5693,"Ð½Ð¸ÐºÐµ":5694,"ĠÑģÐ¾Ð²ÑĢÐµÐ¼ÐµÐ½Ð½Ð¾Ð³Ð¾":5695,"ÑİÐ¶":5696,"ĠÑĦÑĢÐ°Ð½":5697,"ĠÐŁÑĢÐ¾Ðº":5698,"Ð¸ÑģÑĤÑĢÐ¸ÑĢÐ¾Ð²":5699,"ÑĥÐ·ÐµÐ¹":5700,"ÑĥÐ·Ð½Ðµ":5701,"ĠÐ³Ð°Ð·Ð°":5702,"ĠÐ¸Ð³ÑĢÑĭ":5703,"ĠÐŀÐ»Ð¸Ð¼Ð¿Ð¸Ð¹ÑģÐºÐ¸Ñħ":5704,"ĠÐ¸Ð½ÑĤÐµÐ»Ð»ÐµÐºÑĤ":5705,"ĠÐ½Ð°Ð³ÑĢÐ°":5706,"Ð¸ÑĤÐ¸":5707,"ĠÐ±Ð°ÑģÑģ":5708,"Ð¡Ð¨ÐĲ":5709,"ĠÐ¸Ð¼ÐµÐ»Ð¸":5710,"ÑıÑīÐ¸Ðµ":5711,"ĠÐ¿Ð¾Ð±ÐµÑĢÐµÐ¶ÑĮÐµ":5712,"91":5713,"Ð²Ð°Ð»Ð¸":5714,"ĠÐ²ÑĢÐ°Ñī":5715,"ÐĲÐ½Ð´":5716,"Ġ1973":5717,"Ġ1975":5718,"ÑĭÑĩÐ°Ð¹":5719,"ĠÐĲÐ²ÑģÑĤÑĢÐ¸Ð¸":5720,"ÐļÐ°Ð·":5721,"ÑĢÑıÑģ":5722,"ĠÐ¡ÑĤÐ°ÑĢ":5723,"1992":5724,"ĠÐ±Ð¾Ð»ÐµÐ·":5725,"ĠÐ¼ÐµÐ½ÑĮÑĪÐµ":5726,"ÑĢÐµÐ·Ð²ÑĭÑĩÐ°Ð¹":5727,"83":5728,"ÑĨÐ°Ð¼":5729,"ÐµÐ¹Ñģ":5730,"ĠÐ¥Ð¾ÑĢ":5731,"Ġ1964":5732,"1980":5733,"ĠÐ¿Ð¾Ð´ÑĤÐ²ÐµÑĢÐ¶Ð´":5734,"ĠÐºÐ°Ð»ÐµÐ½Ð´":5735,"93":5736,"qu":5737,"ĠÐ´Ð¾Ñĩ":5738,"ĠÑĤÐ²ÑĳÑĢÐ´":5739,"ĠÐĶÐ¾Ð¼":5740,"ĠÐĺÐµÑĢ":5741,"Ð¾ÑĩÐ½ÑĭÐµ":5742,"Ġ170":5743,"ĠÐºÐ¾ÑģÐ¼Ð¸ÑĩÐµÑģÐºÐ¾Ð³Ð¾":5744,"Ġ1905":5745,"Ð¿Ð»":5746,"Ð»ÑĮÐ½Ð¾Ð³Ð¾":5747,"ĠÐ½Ð°Ð³":5748,"ÑĦÐµÑĢÐ°":5749,"ÐŁÐ°Ð¼ÑıÑĤÑĮ":5750,"ÑģÑģÐµ":5751,"ĠÐ·Ð°ÐºÑĢÐµÐ¿":5752,"Ð´ÐµÐ¼Ð¾ÐºÑĢÐ°ÑĤ":5753,"ĠÐ»Ð¸Ð½ÐµÐ¹":5754,"ĠÐ¸ÑģÐ»Ð°Ð¼":5755,"ĠÐ¿ÑĢÐµÐ´Ð¿Ð¾Ð»Ð°Ð³Ð°":5756,"Ð¾ÑĢÐ¾Ð¶":5757,"ĠÐ´Ð¾ÑĩÑĮ":5758,"ÐĺÐ¼Ð¿":5759,"ĠÐ¸Ð½ÑĤÐµÑĢÐ¿ÑĢÐµ":5760,"ÑĭÑĪÐµ":5761,"ÑģÐºÐ°ÑĢ":5762,"Ð¾Ð³ÐµÐ½":5763,"Ð¾Ð½Ð¸":5764,"ÑĩÐµÑģÐºÐ¸Ñħ":5765,"ĠÐľÐ°ÐºÑģÐ¸Ð¼":5766,"ĠÐ±ÑĭÑģÑĤÑĢÐ¾":5767,"ĠÐĶÑį":5768,"ÐŃÐ½":5769,"Ð·Ð²ÐµÑģÑĤ":5770,"ĠÑħÐ¸Ð¼Ð¸Ðº":5771,"ĠÑħÐ¾ÐºÐºÐµÐ¸ÑģÑĤ":5772,"ÐµÑĢÐ½Ð°":5773,"ĠÐ±Ð¾":5774,"ĠÐ¿ÑĢÐµÐ´ÑĥÑģ":5775,"ĠÑĤÐµÑĢÑĢÐ¸ÑĤÐ¾ÑĢÐ¸Ñı":5776,"Ð°ÑĤÐ¾ÑĢÐ¾Ð²":5777,"ĠÑĦÑĥÐ½ÐºÑĨÐ¸Ð¾Ð½":5778,"ĠÐ½Ð°ÑĨÐ¸Ð¾Ð½Ð°Ð»ÑĮÐ½Ð¾Ð³Ð¾":5779,"ĠÐ±ÑĢÐ¾Ð½":5780,"ÐļÐŀ":5781,"ĠÐ½Ð°Ð¿ÑĢÑı":5782,"Ð¾Ð²Ð°Ð½Ð°":5783,"ÑĨÐ¸Ð¾Ð½Ð½Ð°Ñı":5784,"ĠÐĲÑĦÑĢÐ¸ÐºÐ¸":5785,"ĠÐ¼Ð¸ÐºÑĢÐ¾":5786,"42":5787,"ĠÐ¿ÑıÑĤÑĮ":5788,"ĠÐ³Ð°ÑĢ":5789,"ĠÑģÑĤÐ°":5790,"Ð°ÑģÐ°":5791,"ĠÐ²ÑĢÐµÐ¼ÑĳÐ½":5792,"ĠÐ¼Ð¾Ð³Ð»Ð¸":5793,"ĠÐºÐ¾Ð¼Ð°Ð½Ð´Ð¾Ð²Ð°Ð½Ð¸ÐµÐ¼":5794,"ÐĳÐ¾Ð»ÑĮÑĪÐ¸Ð½ÑģÑĤÐ²Ð¾":5795,"ÑĢÐ°Ð½Ñĭ":5796,"Ð¾Ð¼Ð¿":5797,"ĠÑģÐ²ÐµÑĢÑħ":5798,"Ð¤Ð¸Ð·":5799,"ĠÐ¼ÐµÑĤÑĢÐ¾Ð¿Ð¾Ð»Ð¸ÑĤ":5800,"ĠÑģÑĩÐ¸ÑĤÐ°Ð»":5801,"ĠÐ¿Ð¾Ð±ÐµÐ´Ñĥ":5802,"Ð½Ð¾Ðº":5803,"Ð¾Ð²Ð°Ð½Ð¸Ñİ":5804,"Ð½Ð°ÑĩÐ°Ð»Ð°":5805,"ĠÐ¤Ð¸Ð½Ð»ÑıÐ½Ð´Ð¸Ð¸":5806,"ĠÐ´Ð²ÑĥÐºÑĢÐ°ÑĤÐ½ÑĭÐ¹":5807,"ĠÑĤÐ¾Ð¹":5808,"ÑĩÐµÐ»Ð¾Ð²":5809,"Ð¾Ð¿ÑĢÐµÐ´":5810,"Ð°ÑĤÐµÐ»ÑĮÐ½ÑĭÐµ":5811,"Ġ300":5812,"ĠÑıÐ·ÑĭÐºÐ¾Ð¼":5813,"ĠÐ¾ÑģÐ¾Ð±ÐµÐ½":5814,"ÐĿÐ°ÑģÐµÐ»ÐµÐ½Ð¸Ðµ":5815,"77":5816,"Ð¾Ð³Ð°":5817,"ĠÑħÐ¾Ð»":5818,"Ð°Ð½Ð¾Ð²Ð°":5819,"2008":5820,"Ð»ÑĥÑĤ":5821,"Ð°Ð²ÑĪÐ°Ñı":5822,"ÑĥÑīÐµÐ½":5823,"Ð¸ÑĢÐ¾Ð²Ð°Ð½Ð½ÑĭÑħ":5824,"ĠÑĥÑģÐ»Ð¾Ð²Ð¸Ñı":5825,"ĠÑĤÐµÑħÐ½Ð¾Ð»Ð¾Ð³":5826,"ĠÐŁÐ°ÑĢÐ¸Ð¶":5827,"ĠÐ²Ð¾Ð·Ð´ÑĥÑħÐ°":5828,"Ð½ÐµÑģÑĤ":5829,"ĠÐ´Ð»Ð¸Ð½":5830,"Ð¾ÑģÑĤÐµÐ¹":5831,"ĠÐ¿ÑĢÐ¸ÑĪ":5832,"ĠÑĦÑĢÐ°Ð½ÑĨÑĥÐ·ÑģÐºÐ°Ñı":5833,"Ġ1939":5834,"ĠÑĤÐµÐ¼Ð¿ÐµÑĢÐ°ÑĤÑĥÑĢÑĭ":5835,"Ð¸Ð¾Ð»":5836,"Ð¾Ð¿Ð¾Ð»":5837,"ÐŀÐ¿":5838,"ĠÑģÐµÑĢÑĮÑĳÐ·":5839,"ĠÐļÐ°ÑĢÐ»Ð°":5840,"ĠÑģÐ¾Ð²ÐµÑĢÑĪÐ¸Ð»":5841,"Ð²Ð°Ð½Ð¸Ðµ":5842,"Ð²Ð¸Ð³":5843,"Ð·Ð´":5844,"ĠÐŁÑģÐºÐ¾Ð²":5845,"ÐĿÐ°Ð·":5846,"ĠÑģÐ¿Ð¸ÑģÐ¾Ðº":5847,"ĠÐ±Ð¾Ð»ÑĮÑĪÐµÐ²":5848,"Ġ1986":5849,"ĠÐ´Ð¾Ð»Ð¶Ð½Ð°":5850,"ĠÑģÐ¾Ð¿ÑĢÐ¾Ð²":5851,"ĠÑģÐ»ÑĥÑĩÐ°ÑıÑħ":5852,"ĠÐ¾ÐºÐ°Ð·ÑĭÐ²Ð°":5853,"Ð¾ÑģÐ¸ÑĦ":5854,"ĠÐľÐ¾ÑģÐºÐ²Ð°":5855,"ĠÐ°ÑĢÑħÐµ":5856,"ĠÐºÐ¾Ð°Ð»Ð¸":5857,"ĠÑģÐºÐ¾ÑĢÐ¾ÑģÑĤÑĮ":5858,"Ð¡Ð¾Ð²ÐµÑĤ":5859,"Ð²ÑĳÑĢÑĤ":5860,"ĠÐºÐ¾Ð»ÑĮ":5861,"ÑįÐ»ÐµÐºÑĤ":5862,"ĠÐºÐ¾ÑĢÐ¾ÑĤ":5863,"ĠÐ¸Ð¼Ð¿ÐµÑĢÐ°ÑĤ":5864,"ĠÐ¸Ð¼Ð¿ÐµÑĢÐ¸Ñı":5865,"ĠÑĦÑĥÑĤÐ±Ð¾Ð»ÑĮ":5866,"ĠÑģÐ¾ÑİÐ·Ð°":5867,"--":5868,"Ð°ÑĤÑĢ":5869,"ĠÑģÐ²ÑĭÑĪÐµ":5870,"ĠÐ¢Ð¸Ð¼":5871,"ĠÑģÐ²ÑıÐ·ÑĮ":5872,"Ġ1961":5873,"ĠÐ²Ð¾Ð·Ð´ÐµÐ¹ÑģÑĤÐ²":5874,"ĠÐ¾ÑĤÑģÑĤÐ°Ð²ÐºÑĥ":5875,"Ð°Ð½Ð°Ð²Ð»Ð¸":5876,"ĠÐĲÑĢÑĤ":5877,"ÑĭÐ²Ð°ÑĤÑĮ":5878,"ĠÐ¾Ð±ÑıÐ·Ð°Ð½":5879,"ÐµÐ³Ð¾":5880,"Ð»ÑĥÐ³":5881,"ÐĴÐ¾ÑģÑĤÐ¾Ñĩ":5882,"ÐŀÑĦÐ¸ÑĨÐ¸Ð°Ð»ÑĮ":5883,"ĠÐ¿ÑĢÐµÐ¾Ð±":5884,"ĠÐºÑĢÑĥÐ¿Ð½ÑĭÐµ":5885,"Ð¸ÑĦÐ¸ÐºÐ°ÑĨÐ¸Ð¸":5886,"ÑĢÐ¾Ð³Ð¾":5887,"Ð¾Ð³Ð¾Ð½":5888,"ĠÐ¼Ð°Ðº":5889,"ĠÐ¡Ð°":5890,"ĠÐľÐ°":5891,"ÑĬÐµÐ´Ð¸Ð½":5892,"ĠXII":5893,"ĠÐºÐ¾Ð»Ð¸ÑĩÐµÑģÑĤÐ²Ð°":5894,"ĠÐ¿Ð°ÑĢÐ°Ð¼ÐµÑĤ":5895,"ĠÑĢÑĥÐ±Ð»ÐµÐ¹":5896,"ĠÐ¿Ð¸Ð°Ð½":5897,"ÐµÐ½ÑĨÐ¸":5898,"Ð°ÑĤÐ°Ð»ÑĮ":5899,"ĠÐ¸Ð·Ð¼ÐµÐ½Ð¸":5900,"ĠÐ¿Ð¾Ð´Ð²Ð¾Ð´":5901,"ĠÑģÐ¾ÑģÑĤÐ¾ÑıÐ½Ð¸Ðµ":5902,"ĠÑĦÐ°ÐºÑĤÐ¸ÑĩÐµÑģÐºÐ¸":5903,"ĠÐĴÐµÐ½Ð³ÑĢÐ¸Ð¸":5904,"Ð½Ð¾Ð¶":5905,"ĠÑģÐ»Ð¾":5906,"Ð¿ÐµÑĢÐ²":5907,"ÑĢÐµÐ¼Ñı":5908,"ĠÐĺÑģÑĤ":5909,"Ð°ÑĢÐ¸Ð¹":5910,"ĠÑģÐ¾Ð·Ð´Ð°Ð½Ð°":5911,"ĠÑĢÐ°ÑģÑħÐ¾Ð´":5912,"ĠÐ¿ÑĥÑĤÑĮ":5913,"ĠÐ³Ð¾Ð»Ð¾Ñģ":5914,"ĠÐ½Ð°ÑĤÑĥÑĢÐ°":5915,"69":5916,"ĠÐºÑĢÐ¸":5917,"ÑĢÑĥÑĩ":5918,"ĠÐ¾Ð´Ð½Ñĥ":5919,"ĠÐºÐ¾Ð½ÑĨÐµÐ½ÑĤ":5920,"ĠÐ¿ÐµÑĢÐµÐ³Ð¾Ð²Ð¾ÑĢ":5921,"ĠÐ¿Ð¾ÑĢÐ¾Ð´":5922,"Ð½Ð¾ÑıÑĢ":5923,"Ð»Ð°Ñħ":5924,"ĠÐ²Ð¾ÑģÐº":5925,"ĠÑģÑĢÐµÐ´Ñĭ":5926,"ĠÑģÑĥÑīÐµÑģÑĤÐ²Ð¾Ð²Ð°Ð½Ð¸Ñı":5927,"1964":5928,"Ð°Ð»Ð¸Ð·Ð¼":5929,"61":5930,"71":5931,"Ð¸Ð½Ð¾ÑģÑĤ":5932,"Ð¸Ð¹ÑģÐºÐ¸Ðµ":5933,"ÐľÐ°Ð¹":5934,"Ð°Ð»Ð°Ð¹":5935,"Ġ1978":5936,"ev":5937,"Ð¸Ð½Ñı":5938,"Ð¸Ð½ÑģÐºÐ¸Ñħ":5939,"Ð°ÑĢÑĤÐ°":5940,"2010":5941,"Ð¥Ð¾ÑĤÑı":5942,"est":5943,"ĠÐ±ÑĭÐ²ÑĪÐ¸Ð¹":5944,"ĠÐĳÐµÐ»Ð¾ÑĢÑĥÑģÑģ":5945,"ĠÐĵÐ¾ÑģÑĥÐ´Ð°ÑĢÑģÑĤÐ²ÐµÐ½Ð½Ð¾Ð¹":5946,"ĠÐ´Ð¸Ð·":5947,"ĠÐ¡Ð¾Ð±":5948,"ÐļÐ»Ð¸":5949,"ĠÐ·Ð°ÐºÐ¾Ð½Ð°":5950,"ĠÑģÑĥÑīÐµÑģÑĤÐ²Ð¾Ð²Ð°Ð½Ð¸Ðµ":5951,"ĠÐµÐ²ÑĢÐµ":5952,"Ð½Ð°Ð´ÑĨ":5953,"ĠÐ¿ÑĢÐ¾Ð²Ð¸Ð½ÑĨÐ¸Ð¸":5954,"ÑĢÐµÐ³Ð¸ÑģÑĤÑĢÐ¸ÑĢÐ¾Ð²":5955,"ĠÐĴÐ¸Ð»ÑĮÐ³ÐµÐ»ÑĮÐ¼":5956,"..":5957,"ĠÑĥÑģÑĤÑĥÐ¿":5958,"ÐµÐ»Ð»":5959,"Ð°Ð»Ð¸Ð½Ð°":5960,"ÐļÑĢÐ°Ñģ":5961,"ĠÑĢÐ°Ð·Ð²ÐµÐ´":5962,"Ġ1967":5963,"ÑģÑĤÑĢÐ°Ð»Ð¸Ð¹":5964,"ĠÐ·Ð°ÑıÐ²Ð¸Ð»":5965,"ĠÐ¼Ð°ÑĢÑĪÑĢÑĥ":5966,"Ð¼Ð°Ð¹":5967,"ĠÐ³ÐµÑĢÐ¾":5968,"Ð»Ð°Ð¹":5969,"ĠÐłÐ°Ð´":5970,"ĠÐ¿Ð¾Ð»Ð¸ÑĤÐ¸ÑĩÐµÑģÐºÐ¸Ñħ":5971,"ĠÑģÑĭÐ½Ð°":5972,"Ð°ÑĢÐ½Ð¾Ð¹":5973,"ĠÐŁÑĢÐµÐ´":5974,"ĠÑĢÐµÐ»ÑĮ":5975,"ÐĹÐ´ÐµÑģÑĮ":5976,"ĠÐĿÐ¾Ð²Ð¾ÑģÐ¸Ð±Ð¸ÑĢ":5977,"ĠÑģÑĤÐ¾ÑĢÐ¾Ð½Ñĥ":5978,"ĠÐļÐ¸ÑĤÐ°Ðµ":5979,"ĠÐ²ÑģÐºÐ¾ÑĢÐµ":5980,"ÐµÐ¼Ñĭ":5981,"Ð¡ÐµÐ²ÐµÑĢ":5982,"ĠÐ¿Ð¾ÑĢÐ°Ð¶ÐµÐ½Ð¸Ðµ":5983,"ĠÐ¥Ð°Ð¹":5984,"Ġ1984":5985,"ĠÑĥÐ´Ð¾Ð±":5986,"ĠÐ¿ÑĢÐ¸ÑģÐ²Ð¾":5987,"ĠÐ³ÐµÐ¾Ð¼ÐµÑĤ":5988,"ĠÐ¼Ð¾Ð·":5989,"ÐĴÐ¾Ñģ":5990,"ÐļÐŁ":5991,"ÑĤÐ¾ÑĢÐ¾Ð²":5992,"Ġ1942":5993,"ĠÐ½Ð°ÑĥÑĩÐ½ÑĭÑħ":5994,"Ïĥ":5995,"ĠÐ²Ð¸Ð·Ð°Ð½ÑĤ":5996,"ĠÐ¾ÑĢÐ¸":5997,"ĠÐ½Ð¸Ð¶":5998,"Ð¾Ð´Ñĥ":5999,"ĠÑįÐ²Ð¾Ð»Ñİ":6000,"ÑĥÐ¿ÑĢÐ°Ð²":6001,"Ġ1983":6002,"1969":6003,"ĠÑĤÐµÑħÐ½Ð¸ÐºÐ¸":6004,"ĠÐ¾ÐºÐµÐ°Ð½":6005,"ÐĲÐ»ÐµÐºÑģÐ°Ð½Ð´ÑĢ":6006,"ĠÐ½Ð°Ð·Ð°Ð´":6007,"89":6008,"Ð¸ÐµÐ¿Ð¸ÑģÐºÐ¾Ð¿":6009,"ĠÐ¿ÑĢÐ¾Ð»":6010,"ĠÐļÐ°Ð¿":6011,"ĠÐľÐµÐ´":6012,"ÐľÐ°ÑĤ":6013,"ĠÐ¿Ð¾Ð»Ð¸ÑĤÐ¸ÐºÐ°":6014,"ÐļÐ°ÑĤÐ¾Ð»":6015,"Ð³ÑĢÑĥÐ¿Ð¿Ñĭ":6016,"ĠÐ²Ð¾Ð»Ð½":6017,"Ð°ÑĢÐºÑĤ":6018,"ÑĢÑĥÐ±":6019,"ÐĿÐ°ÑĥÐºÐ°":6020,"Ġ1982":6021,"Ġ1985":6022,"ĠÐ´ÐµÐ¹ÑģÑĤÐ²Ð¸Ðµ":6023,"ĠÑĤÐµÐ°ÑĤÑĢÐ°Ð»ÑĮÐ½ÑĭÐ¹":6024,"ĠÐ±ÑĥÐ´ÑĥÑĤ":6025,"ĠÐ³ÐµÐ½ÐµÑĢÐ°Ð»Ð°":6026,"ĠÐ¸Ð¼ÐµÐ½ÐµÐ¼":6027,"ÐµÐ½ÑģÐºÐ¾Ð¹":6028,"Ð·Ñı":6029,"ĠÐ¾Ð±Ð¾ÑĢÐ¾Ð½":6030,"ĠÐ»ÐµÐ´":6031,"ĠÐ¿Ð¾ÐµÐ·Ð´":6032,"ÑĥÐ³Ð¾Ð»ÑĮ":6033,"ĠÐºÐ²Ð°Ð´":6034,"ĠÐļÐ¾Ð½ÑģÑĤÐ¸ÑĤÑĥÑĨÐ¸Ð¸":6035,"Ð²Ð°Ð½Ð¸Ñı":6036,"ĠÐ³Ð¾ÑģÑĥÐ´Ð°ÑĢÑģÑĤÐ²Ð¾Ð¼":6037,"ÐĵÐĳ":6038,"Ð¸ÑĢÐ¾Ð²Ð°Ð½Ñĭ":6039,"Ð§Ð¸Ñģ":6040,"1989":6041,"ĠÐ¿ÑĢÐµÐ´Ð¿ÑĢÐ¸ÑıÑĤÐ¸Ð¹":6042,"ÑİÑīÐ¸ÑħÑģÑı":6043,"Ð²ÐµÑĤÐ°":6044,"ÐŁÐ°Ð¼ÑıÑĤ":6045,"ĠÐ¿ÑĢÐ¸Ð»Ð¾Ð¶":6046,"ÑģÑĤÐ²ÐµÐ½Ð½ÑĥÑİ":6047,"ĠÑģÐ¿Ð°Ñģ":6048,"ĠÐ¿Ð¾Ð»ÑĥÑĩÐµÐ½Ð¸Ñı":6049,"ĠÐ³ÑĢÐ°Ð¼":6050,"ĠÑĢÑıÐ´Ð¾Ð¼":6051,"ĠÐ»Ð¸ÐºÐ²Ð¸Ð´":6052,"ĠÐ¼Ð°Ðµ":6053,"ĠÐ½Ð°ÑĨÐ¸Ð¾Ð½":6054,"Ð°Ð²ÑĪÐµÐ¹":6055,"ĠÐ²ÑĭÑĤ":6056,"ĠÑĢÐ¾Ð¶Ð´":6057,"ÐľÐ¸ÑĢ":6058,"ĠÑĨÐ°ÑĢÑı":6059,"Ð»Ð¸Ð½Ð³":6060,"ĠÐ¿ÐµÑĢÐµÐ´Ð°ÑĩÐ¸":6061,"ÑĢÐ¾Ð¸Ð·Ð²Ð¾Ð´":6062,"ĠÑĢÐ¸ÑĤ":6063,"Ð²Ð°Ñı":6064,"Ð·Ð±ÐµÐº":6065,"ĠÐ¼Ð¾ÑģÐºÐ¾Ð²":6066,"ĠÐ¾ÑģÑĤÐ°Ð½Ð¾Ð²":6067,"ĠÑģÐ²ÑıÐ·Ð°Ð½Ð¾":6068,"ÑģÐºÐ¾ÑħÐ¾Ð·ÑıÐ¹":6069,"Ð¸Ð²Ð½ÑĭÐ¹":6070,"Ð°ÑĤÐµÐ»ÑĮÐ½Ð¾Ð¹":6071,"ĠÐ¸ÑģÐ¿Ð¾Ð»ÑĮÐ·ÑĥÑİÑĤ":6072,"ĠÐ½Ð¾Ð²Ð¾Ðµ":6073,"ĠÐ³ÑĢÐ°Ð¶Ð´Ð°Ð½Ðµ":6074,"ĠÐ´Ð°ÑĳÑĤ":6075,"ĠÐŁÑĢÐµÐ·Ð¸Ð´Ð¸":6076,"ĠÐĲÐ²ÑģÑĤÑĢÐ°Ð»Ð¸Ð¸":6077,"ÑĭÐ»":6078,"ÑĪÑĤÐ°Ð±":6079,"ĠÐĲÐ³":6080,"ĠÑħÑĢÐ¾Ð¼":6081,"ĠÐĺÐ¾Ð³":6082,"ÐľÐ¾Ð½":6083,"ĠÐ²Ð·ÑıÑĤ":6084,"ĠÐ³Ð»ÑĥÐ±Ð¾Ðº":6085,"ĠÐ²ÐµÐ½Ð³ÐµÑĢ":6086,"ÑĢÑĥÐ¶Ðµ":6087,"ĠÐ¸Ð½ÑĤÐµÐ³":6088,"ĠÐĳÐ¾Ð³Ð°":6089,"ĠÐ¿ÑĢÐ¸Ð·Ð½Ð°Ðº":6090,"Ġ;":6091,"Ð¸ÑĢÐµ":6092,"Ð»ÑĳÐ½":6093,"ĠÐ±ÑĥÑĢ":6094,"ÑĤÐ¾ÑĢÑĭ":6095,"ĠÐ·Ð°Ð²ÐµÐ´":6096,"ĠÐ¼ÑĥÐ·ÑĭÐºÐ¸":6097,"ĠÑįÐ»ÐµÐ¼ÐµÐ½ÑĤÑĭ":6098,"ĠÑģÐ¾Ð±ÑĢÐ°Ð½Ð¸Ðµ":6099,"ĠÐ¾ÑģÐ²Ð¾Ð±Ð¾Ð¶Ð´":6100,"ĠÐ°ÑįÑĢÐ¾Ð¿Ð¾ÑĢÑĤ":6101,"ÑģÐµÐ¼":6102,"ĠÑĥÐ´Ð°":6103,"ĠÐĲÐ»Ð¸":6104,"ÑĥÑģÑĤÑı":6105,"ip":6106,"ÑĢÐ°Ð¼Ð¸":6107,"ĠÐĵÐµÐ½ÐµÑĢÐ°":6108,"ĠÑĩÐ°ÑģÑĤÐ¸ÑĩÐ½Ð¾":6109,"Ġ1981":6110,"ĠÐ¸Ð·Ð²ÐµÑģÑĤÐ½ÑĭÑħ":6111,"ĠÐ¼Ð°ÑĪÐ¸Ð½":6112,"Ð¾Ð»ÑĮÐº":6113,"Ð¾Ð¿Ð¸ÑĤ":6114,"ĠÐ·Ð°Ð±Ð¾Ð»":6115,"ÐºÐ¾Ð¼Ð¿":6116,"Ġ1965":6117,"ĠÐ²Ð»Ð¸Ñı":6118,"ĠÑģÐºÐ¾ÑĢÐ¾ÑģÑĤÐ¸":6119,"Ð»ÐµÐ´ÑģÑĤÐ²Ð¸Ðµ":6120,"Ð°Ð´Ð¶Ð¸Ðº":6121,"ĠÐ°Ð²ÑģÑĤÑĢÐ¸Ð¹ÑģÐºÐ¸Ð¹":6122,"ĠÐ¶Ð¸Ð´Ðº":6123,"ÐµÐ»ÑĮÐ´":6124,"ĠÐľÐ°Ð³":6125,"Ð¸ÑĤÐµÐ»ÑĮÐ½ÑĭÐ¼":6126,"ĠÑĨÐ°ÑĢÑĮ":6127,"ĠÐķÐ»Ð¸Ð·Ð°Ð²":6128,"ĠÐ¯Ðº":6129,"ĠVII":6130,"ÐŁÐµÑĢÐ²ÑĭÐµ":6131,"ĠÐºÑĥÑĢÑģ":6132,"ĠÐ¸Ð·Ð¼ÐµÑĢÐµÐ½Ð¸Ñı":6133,"ĠÐ½Ð¾ÑĢÐ²ÐµÐ¶":6134,"ĠÐ´Ð»Ð¸ÑĤÐµÐ»ÑĮ":6135,"ĠÐ·Ð°ÑĢÑı":6136,"ĠÐĴÑĭ":6137,"ÐĲÐ½ÑĤ":6138,"ĠÐ¸ÑģÑĤÐ¾ÑĢÐ¸Ñı":6139,"ĠÐ·ÐµÐ¼Ð»Ñı":6140,"ĠÐºÐ¸Ð»Ð¾Ð¼ÐµÑĤ":6141,"58":6142,"Ð½ÐµÐ½Ð¸Ðµ":6143,"ĠÐ¿Ð¸ÑĪ":6144,"ĠÐ²ÑģÑĤ":6145,"ĠÑģÐµÑĤÑĮ":6146,"ĠÐķÐ¡":6147,"ĠÐ¸ÑģÑĤÐ¸Ð½":6148,"ĠÑģÐ¾Ð´ÐµÑĢÐ¶Ð¸ÑĤ":6149,"ĠÐ½ÐµÐ¿ÑĢÐµÑĢÑĭÐ²":6150,"Ð½ÐµÐ¼Ñĥ":6151,"ÑĢÐµÐ½Ð¸Ðµ":6152,"ÐĽÐµ":6153,"ĠÑģÐ¾ÑģÑĤÐ¾ÑıÐ½Ð¸Ð¸":6154,"ĠÑģÐ²Ð¾Ð±Ð¾Ð´Ñĭ":6155,"ĠÐºÐ¾Ð¾ÑĢÐ´Ð¸Ð½":6156,"ĠÑģÑĢÐ°Ð²Ð½ÐµÐ½Ð¸Ñİ":6157,"ĠÐ¿Ð¾ÑģÑĤÐµÐ¿ÐµÐ½Ð½Ð¾":6158,"49":6159,"ÐµÑĢÑĥ":6160,"ĠÐĳÐµÐ»ÑĮÐ³":6161,"ĠÐĿÐ¸Ð¶":6162,"ĠÐ¿Ð¾Ð²ÐµÐ´":6163,"ĠÐ¿Ð»Ð°Ð½ÐµÑĤÑĭ":6164,"ĠÑĢÐ°ÑģÐ¿Ð¾Ð»Ð¾Ð¶ÐµÐ½Ñĭ":6165,"ĠÐ¿Ð¾ÑĢÑıÐ´ÐºÐ°":6166,"ÑĢÐ°Ð´Ð¸":6167,"Ð»ÐµÐ´Ð¾Ð²Ð°ÑĤÐµÐ»ÑĮ":6168,"ÐŁÑĢÐ¸Ð¼ÐµÑĢ":6169,"ĠÐ¸ÑģÑĤÐ¾ÑĢÐ¸Ñİ":6170,"ĠÐ¿Ð¾Ð»Ð¸ÑĤÐ¸ÑĩÐµÑģÐºÐ¾Ð¹":6171,"2005":6172,"1970":6173,"57":6174,"ge":6175,"Ð³Ð¾Ð²Ð¾ÑĢ":6176,"Ð¾Ð³Ð¸":6177,"ĠÐ±Ð°ÑĪ":6178,"ĠÐ»ÐµÐº":6179,"ĠÐĿÐĲ":6180,"2004":6181,"ĠÑĦÐ¾ÑĢÐ¼Ñĥ":6182,"ĠÑģÐµÐ¼ÑĮÐ¸":6183,"ĠÐ¾ÑĢÐ³Ð°Ð½Ð¸Ð·Ð°ÑĨÐ¸Ð¹":6184,"ĠÑģÐ»ÑĥÐ¶Ð±Ñĭ":6185,"ĠÐ¿ÑĢÐ¾ÑĪÐ»Ð¸":6186,"ĠÐ»ÐµÐ³ÐºÐ¾":6187,"ĠÐ¾Ð±ÑĥÑĩÐµÐ½Ð¸Ñı":6188,"ap":6189,"ĠÐ²ÑħÐ¾Ð´Ð¸ÑĤ":6190,"ĠÑĤÑĢÐ¾Ð»Ð»ÐµÐ¹Ð±":6191,"ĠÐ»Ð¸Ð½Ð³Ð²Ð¸ÑģÑĤ":6192,"ĠÑĤÐ°ÐºÐ¾Ð³Ð¾":6193,"Ð¸ÑĨÐ¸Ð·Ð¼":6194,"ÑĥÑģÐ°Ð»Ð¸":6195,"ĠÐ¨Ð²ÐµÐ¹ÑĨ":6196,"Ġ1962":6197,"ĠÐ´ÐµÐ¹ÑģÑĤÐ²ÑĥÐµÑĤ":6198,"ĠÐ²ÐµÑģÑĮÐ¼Ð°":6199,"ÐŁÐ¾Ð¼Ð¸Ð¼Ð¾":6200,"Ġ$":6201,"ÑĩÐ¸ÐºÐ¾Ð²":6202,"ĠÐľÐ¸ÑĢ":6203,"Ð°Ð½Ð¸ÑıÑħ":6204,"ĠÐ¿Ð¾ÑģÐµÑĤ":6205,"Ð¸Ð³Ð¸":6206,"Ġ1971":6207,"Ġ1974":6208,"ĠÑĦÑĥÐ½Ð´Ð°Ð¼ÐµÐ½ÑĤ":6209,"1938":6210,"ÑģÐ¸Ð¼":6211,"ĠÐ½ÐµÐ¾Ð´Ð½":6212,"ĠÑģÐ¾ÑģÑĤÐ¾ÑıÐ»ÑģÑı":6213,"ĠÐ¡Ð²ÑıÑĤÐ¾Ð³Ð¾":6214,"Ð¾Ð·Ð°Ð¸Ðº":6215,"56":6216,"The":6217,"Ð°Ð½Ð½ÑĭÐ¼":6218,"ĠÐĳÐµÐ½":6219,"ĠÐĶÐ°Ð²":6220,"ĠÑģÐ¾ÑģÑĤÐ¾ÑıÑī":6221,"1960":6222,"41":6223,"ĠÑģÑĢÐ°Ð·Ñĥ":6224,"Ġ1900":6225,"ĠÑĢÐµÑĩÐ¸":6226,"ĠÐĵÐ»Ð°Ð²":6227,"ĠÐ±Ð¾Ð»ÑĮÑĪÐµÐ¹":6228,"ĠÐ¿ÑĢÐ¾ÐµÐºÑĤÐ°":6229,"ÑİÑīÐ¸ÐµÑģÑı":6230,"ÐµÐ½Ð½Ð¸Ñģ":6231,"ĠÐºÐ°Ð»ÑĮ":6232,"ĠÐ¼Ð¸ÑģÑģ":6233,"ÑįÐºÐ¾Ð½Ð¾Ð¼":6234,"ĠÑĢÐµÐºÐµ":6235,"ÐļÐ¾Ð³Ð´Ð°":6236,"ĠÑıÑĢ":6237,"ÐĲÐ»":6238,"ĠÑįÐºÐ²":6239,"ĠÑģÑĤÑĢÐ°Ð½Ñĥ":6240,"Ð¾ÐºÐµ":6241,"ĠÐ¤Ð»Ð¾ÑĢ":6242,"ĠÑĢÐ°ÑģÑģÑĤÑĢÐµ":6243,"ĠÐ¼Ð½Ð¾Ð¶ÐµÑģÑĤÐ²Ð°":6244,"ÐµÐ½ÑĨÐ¸Ð°Ð»ÑĮ":6245,"ÐµÑĢÑĤÐ°":6246,"ĠÐ´Ñĭ":6247,"Ð¾ÑģÑĤÐ°Ð½Ð¾Ð²":6248,"Ð¿ÑĢÐµÑģÑģ":6249,"ĠÐ´Ð°Ð»ÑĮÐ½ÐµÐ¹ÑĪÐµÐ¼":6250,"Ð²Ð¸ÑĤ":6251,"ĠÑģÐ¸Ð³":6252,"ĠÑģÐµÐ³Ð¾Ð´Ð½Ñı":6253,"ĠÐ¿ÑĢÐ¾ÑħÐ¾Ð´Ð¸ÑĤ":6254,"Ġ1943":6255,"ĠÐ¾Ð¿ÑĢÐµÐ´ÐµÐ»ÐµÐ½Ð¸Ñı":6256,"ĠÐ¿Ð»Ð°Ð½ÐµÑĤ":6257,"ĠÐ´Ð²Ð°Ð¶Ð´Ñĭ":6258,"ĠÐ¿Ð¾Ð³Ð¸Ð±ÑĪÐ¸Ñħ":6259,"ĠÐ¿ÑĢÐ¾Ð¶Ð¸Ð²":6260,"Ð¶Ñĥ":6261,"Ð¾Ð·Ð¾Ð²":6262,"ĠÐĵÑĢÐ°Ð¶Ð´Ð°Ð½":6263,"Ð¸ÑĩÐ½Ð¾Ð¹":6264,"ĠÑģÐ¾Ð·Ð´Ð°ÑĤÐµÐ»ÑĮ":6265,"ĠÐºÐ¾Ð½ÑĤÐ¸Ð½ÐµÐ½ÑĤ":6266,"ĠÐ²ÐµÑīÐµÑģÑĤÐ²":6267,"ĠÐ²Ð·Ð°Ð¸Ð¼Ð¾Ð´ÐµÐ¹ÑģÑĤÐ²Ð¸Ñı":6268,"ĠÐĿÐ°Ð¿Ð¾Ð»Ðµ":6269,"ĠÐ²Ð¾ÐµÐ½Ð°ÑĩÐ°Ð»ÑĮÐ½Ð¸Ðº":6270,"ÐµÑĤÐ¾Ð²":6271,"ĠÐŁÐ¾Ð±ÐµÐ´":6272,"ÑĥÑİÑīÐµÐ¹":6273,"Ġ1938":6274,"ĠÐ·Ð°Ð¼ÐµÑģÑĤ":6275,"ĠÐ¿Ð¾Ð»Ð¾Ð²Ð¸Ð½Ñĭ":6276,"ĠÐ·Ð°Ð¿Ð¸ÑģÐ¸":6277,"Ð¾Ð²Ð¾Ð»ÑĮÐ½Ð¾":6278,"ĠÐ¼ÐµÑĤÐ°":6279,"ĠÐºÐ¾Ð½Ð³ÑĢÐµÑģÑģ":6280,"ĠÐ½ÐµÑģÐ¼Ð¾ÑĤÑĢÑı":6281,"ÑĢÐ°ÑĨÐ¸Ñı":6282,"ÑĨÐµÐ¿":6283,"ĠÐ¡Ð¸Ð±Ð¸ÑĢ":6284,"ÐĴÐ¾Ð¹":6285,"Ð¸ÑģÑĤÐ°":6286,"ĠÐŀÐ¼":6287,"ĠÐºÐ¾Ð¼Ð¼ÑĥÐ½Ð¸ÑģÑĤ":6288,"1941":6289,"ĠÑģÑĥÐ´ÐµÐ±":6290,"Ð³Ð¾ÑĢÐ¸ÑĤ":6291,"ĠÑĦÑĥÐ½ÐºÑĨÐ¸Ð¹":6292,"ĠÐŃÐ¹Ð½ÑĪÑĤ":6293,"ĠÐ²ÑĭÑĪÐµÐ»":6294,"84":6295,"ÐºÐ¾Ð»":6296,"ĠÐºÐ»Ñİ":6297,"ĠÑģÐ°Ð¼Ð¾Ð¼":6298,"ĠÐ¼Ð¸ÑĢÑĥ":6299,"Ġ1968":6300,"1937":6301,"ĠÑĥÐ¿ÑĢÐ°Ð²Ð»ÐµÐ½Ð¸Ðµ":6302,"ĠÑĢÐ¾Ð¼Ð°Ð½":6303,"ĠÐ´Ð¸Ð²Ð¸Ð·":6304,"ĠÑģÐµÑģÑĤ":6305,"Ð¾ÑģÐ²":6306,"Ð¾ÐºÐ¾Ð»Ð¾":6307,"ÐµÐ½Ð¸ÑıÐ¼":6308,"Ġ1921":6309,"ĠÐłÐĲÐĿ":6310,"ÐľÑĥÐ·Ñĭ":6311,"ĠÑģÑĢÐµÐ´Ð½ÐµÐ¼":6312,"ĠÐ¼ÐµÑĤÐ¾Ð´Ñĭ":6313,"ĠÐ¿Ð¾ÑĢÑĤÑĥÐ³Ð°Ð»ÑĮ":6314,"ĠÐ±ÐµÑĢÐµÐ³Ñĥ":6315,"ĠÑģÐ°Ð¹":6316,"Ð¾ÑģÐ¸Ð¿ÐµÐ´":6317,"ĠÑĢÑĥÑģÑģÐºÐ°Ñı":6318,"ĠÐ¼ÐµÑģÑĤÐ¾ÑĢ":6319,"ĠÐºÐ¾Ð»ÐµÐ±":6320,"ĠÑĤÑĢÐ°Ð´":6321,"ĠÐ¿ÑĢÐµÐ´Ð¿ÑĢÐ¸ÑıÑĤÐ¸Ñı":6322,"ÐļÐ¾Ð½Ñģ":6323,"ĠÐ²Ð½ÑĥÑĤÑĢÐµÐ½Ð½Ð¸Ñħ":6324,"ĠÐ³Ð¸Ð¼Ð½Ð°":6325,"Ð±Ñİ":6326,"ĠÐºÐ°Ñģ":6327,"ĠÐ´ÑĢÑĥÐ³Ð°":6328,"ÑĪÐµÐ¼Ñĥ":6329,"ÐĴÐ¼ÐµÑģÑĤ":6330,"ĠÐľÑĥÑħÐ°Ð¼":6331,"ind":6332,"ĠÐ¿ÑĢÐ¾ÑģÑĤÑĢÐ°Ð½ÑģÑĤÐ²Ðµ":6333,"ĠÐ°Ð²Ð¸Ð°ÑĨÐ¸Ð¾Ð½":6334,"ÐµÐ½Ð´Ð°":6335,"ĠÐ³ÑĥÐ¼Ð°Ð½":6336,"Ð¡ÐµÐ¼":6337,"ÐļÑĥÐ»ÑĮÑĤ":6338,"Ð°ÑĢÐ°Ð³":6339,"ÑĢÐ¸ÑĤÐµÐ»ÑĮ":6340,"ĠÐ½Ð°ÑĢÐ¾Ð´Ð½ÑĭÑħ":6341,"Ġ1976":6342,"ĠÐ²ÑĤÐ¾ÑĢÐ¾Ð³Ð¾":6343,"ĠÐºÐ¸Ð½Ð¾Ð°ÐºÑĤÑĢÐ¸ÑģÐ°":6344,"ĠÐĿÐ¾ÑĢÐ²ÐµÐ³Ð¸Ð¸":6345,"ĠÐ±ÐµÑģÐºÐ¾Ð½ÐµÑĩ":6346,"ĠÐ³Ð¾Ð½":6347,"Ð²Ð°Ð»Ð°":6348,"Ð¸ÑĨÐµÑĢ":6349,"ÐŁÐ¾ÑĩÑĳÑĤÐ½ÑĭÐµ":6350,"ĠÑįÐºÑģÐ¿Ð»ÑĥÐ°ÑĤÐ°":6351,"ĠÐ±Ð¸Ð·":6352,"Ð°ÑĤÑĮÑı":6353,"ĠÐ¤ÑĢÐ°Ð½ÑĨ":6354,"ĠÑĤÐµÑĢÑĢÐ¾ÑĢ":6355,"ĠÑģÑĢÐµÐ´Ð½ÐµÐ²ÐµÐº":6356,"Ð³ÑĢÐ°ÑĦ":6357,"ĠÐ·Ð¾Ð»Ð¾ÑĤÐ°":6358,"ĠÐ¾Ð±ÑĬÑıÑģÐ½Ñı":6359,"Ð°Ð½ÑģÐºÐ°Ñı":6360,"Ð¾ÑģÑĭ":6361,"ĠÐ¡Ð¾Ðº":6362,"ĠÐ¿ÑĢÐ¸ÑĳÐ¼":6363,"ĠÐĳÐ¾Ð¶":6364,"ĠÑħÐ¾Ð»Ð¾Ð´":6365,"Ð¸Ð»Ð¸ÑīÐµ":6366,"Ð¸ÑĩÐ½ÑĭÑħ":6367,"ÐĹÐ°Ð¿Ð°Ð´":6368,"ĠÐ¿ÑĢÐµÐ´ÑģÑĤÐ°Ð²Ð¸ÑĤÐµÐ»Ð¸":6369,"ÐķÑīÑĳ":6370,"ĠÐ°Ð²Ð¸Ð°Ðº":6371,"ĠÐ½Ð°ÑĩÐ¸Ð½Ð°ÐµÑĤÑģÑı":6372,"ĠÐŁÐ¾ÑĢÑĤÑĥÐ³Ð°Ð»Ð¸Ð¸":6373,"Ð¼ÐµÑĤÑĭ":6374,"ĠÑģÑħÐ¾Ð´":6375,"ÑĳÐ¼Ð°":6376,"Ġ1925":6377,"Ð°Ð´ÑĨ":6378,"Ð½ÐµÑĪ":6379,"ĠÑıÐ½Ð²Ð°ÑĢÐµ":6380,"Ð½Ð¸Ð¼Ð¸":6381,"ĠÐ½Ð°Ðº":6382,"ĠÐ²ÑĭÐ´ÐµÐ»":6383,"ÐĿÐ¾Ð²":6384,"ÑģÑĤÐ²ÐµÐ½Ð½Ð¾Ð¼":6385,"Ð¸ÑĢÑĤÑĥ":6386,"ĠÑĪÐ²ÐµÐ¹ÑĨ":6387,"ÐºÑĢÑĭÑĤ":6388,"ÑĢÐµÑĤÐ¸Ð¹":6389,"ÑģÑĥÐ¶Ð´":6390,"Ð»ÐµÐºÐ¾Ð¿Ð¸ÑĤ":6391,"ĠÐ¿Ð¾ÑģÑĤÐ¾ÑıÐ½Ð½Ð¾":6392,"ĠÑĦÑĢÐ¾Ð½ÑĤÐ°":6393,"ĠÐ¿ÑĢÐ¾ÑĤÐµÑģÑĤÐ°Ð½ÑĤ":6394,"ĠÐ¿Ð°ÑĤ":6395,"ĠÑĤÑĢ":6396,"ĠÑĩÑĢÐµÐ·Ð²ÑĭÑĩÐ°Ð¹":6397,"ĠÐ¸Ð¼ÐµÐµÑĤÑģÑı":6398,"1976":6399,"ĠÐŁÐµÑĢÐ²Ð¾Ð¹":6400,"52":6401,"Ð¾Ð³Ð¾ÑĢ":6402,"ĠÐļÐ¾ÑģÑĤ":6403,"ĠÐ½ÐµÐ³":6404,"Ð°ÑĤÐµÐ»ÑĮÐ½Ð¾Ð³Ð¾":6405,"ĠÐ²Ð¾ÐµÐ½Ð½ÑĭÐµ":6406,"ĠÐ´ÐµÐºÐ°Ð±ÑĢÐµ":6407,"ĠÐ²Ð¿Ð»Ð¾ÑĤÑĮ":6408,"ĠÐºÐ¾Ð½ÑĨÑĥ":6409,"ÐµÐ²Ð¸ÑĩÐ°":6410,"ĠÐĴÐ»Ð°Ð´Ð¸Ð¼Ð¸ÑĢÐ°":6411,"Ð¾Ð¾Ð±":6412,"Ð²Ð¾Ð»ÑĮ":6413,"ÑĮÑıÐ½":6414,"ĠÑĢÐ°Ð±Ð¾":6415,"Ð°Ð²Ð°":6416,"Ð½Ð°Ð±":6417,"ĠÐĴÐ¾Ð¹":6418,"Ð°ÑĢÐ¸Ð½":6419,"1968":6420,"Ð¸ÑĢÐ°Ð¼Ð¸":6421,"ĠÐ¸ÑģÐºÑĥÑģÑģÑĤÐ²":6422,"ĠÑĥÐ¿ÑĢÐ°Ð²Ð»Ñı":6423,"ĠÐ½ÐµÐ¸Ð·Ð²ÐµÑģÑĤ":6424,"ĠZ":6425,"ÑĢÐ¾ÐµÐºÑĤ":6426,"Ð±Ð»Ð¸Ð·":6427,"ĠÑĩÐ°ÑīÐµ":6428,"ÐŁÐµÑĢÐ²Ð°Ñı":6429,"ĠÐ½ÐµÐ¾Ð±ÑħÐ¾Ð´Ð¸Ð¼Ð¾":6430,"ĠÑģÐ¼ÑĭÑģÐ»Ðµ":6431,"ĠÐ´ÐµÐ½ÐµÐ¶":6432,"Ð²Ð°ÑĤÑĭ":6433,"ĠÐµÐ¹":6434,"Ð°Ð»Ð¸ÑĤ":6435,"ÐŀÑģÑĤ":6436,"ĠÐŃÐ´":6437,"Ġ1946":6438,"ĠÐ°Ð²Ð³ÑĥÑģÑĤÐµ":6439,"1994":6440,"ĠÐ´Ð¾Ð»Ð¶Ð½Ð¾ÑģÑĤÐ¸":6441,"ĠÐºÐ½Ð¸Ð³Ðµ":6442,"ĠÐ¿ÑĢÐµÐºÑĢÐ°ÑĤ":6443,"Ð¸ÑĢÐ¾Ð²Ð°Ð½Ð½ÑĭÐµ":6444,"ĠÐĺÐ²Ð°Ð½Ð¾Ð²Ð¸Ñĩ":6445,"ĠÑģÐ¸Ð»Ð°Ð¼Ð¸":6446,"ĠÐ²Ð´Ð¾Ð»ÑĮ":6447,"ĠÐ½Ð°Ð¼":6448,"ĠÐ¡Ð¸ÑĢÐ¸":6449,"ÐŁÐ¾Ð»Ð¸ÑĤ":6450,"ĠÐ°Ð²ÑģÑĤÑĢÐ°Ð»Ð¸Ð¹":6451,"ĠÑģÑĤÐ¾Ð»ÐºÐ½Ð¾Ð²":6452,"ĠÑĢÐ°Ð¹Ð¾Ð½Ð°Ñħ":6453,"ĠÐ¶ÐµÐ»ÐµÐ·Ð½Ð¾Ð¹":6454,"ĠÐ³Ð¸Ð¿Ð¾ÑĤ":6455,"ĠÐ¾Ð±Ð¸ÑĤ":6456,"Ð¾ÐºÐºÐ¾":6457,"ĠÐĳÐ°Ð¹":6458,"ÐĿÐ°ÑĢÐ¾Ð´":6459,"ĠÑģÐµÑĢÐ¸Ð¸":6460,"ĠÑįÐ»ÐµÐºÑĤÑĢÐ¾":6461,"ĠÐ¼ÑĥÐ¶ÑĩÐ¸Ð½":6462,"ĠÑĩÐ¸ÑģÐ»ÐµÐ½Ð½Ð¾ÑģÑĤÐ¸":6463,"ĠÑĤÑĢÐ°Ð¼Ð²Ð°Ð¹":6464,"ĠÐ¡Ð¸Ð±Ð¸ÑĢÐ¸":6465,"ÑĩÑĳÑĤÐ°":6466,"Ð»Ð¸Ðº":6467,"ĠÑĥÐ»ÑĥÑĩ":6468,"Ð½Ð¾Ð¼Ð¾ÑĢ":6469,"ĠÐĹÐ°Ð²":6470,"1979":6471,"ĠÐ±Ð¾Ð»ÑĮÑĪÐ¸Ð½ÑģÑĤÐ²Ð°":6472,"Ġ),":6473,"ĠÐ¿Ð»Ð°":6474,"ĠÐ½Ð¸Ð´ÐµÑĢÐ»Ð°Ð½Ð´":6475,"Ð°ÑĤÑĥ":6476,"Ð¸Ð½ÑģÐºÐ¸Ðµ":6477,"Ġ1929":6478,"Ð½ÐµÐ¹ÑĪÐ¸Ñħ":6479,"ĠÐ¼ÐµÑģÑĤÐ½ÑĭÑħ":6480,"Ġ1963":6481,"1993":6482,"ĠÐ½Ð°ÑĨÐ¸Ð¾Ð½Ð°Ð»ÑĮÐ½Ð¾Ð¹":6483,"ĠÐĺÐ·Ð´":6484,"ĠÐ½Ð°Ð¿Ð¸ÑģÐ°Ð»":6485,"ÑģÐ²Ð¸ÑĤ":6486,"ĠÐķÐ³Ð¸Ð¿ÑĤÐ°":6487,"Ð¼ÐµÑĢÑĤ":6488,"Ð¾Ð»Ð¾Ð³Ð¸ÑĩÐµÑģÐºÐ¾Ð¹":6489,"ĠÑĢÐ°ÑģÑģÐºÐ°Ð·":6490,"ĠÐ·Ð°Ð¼ÐµÐ½":6491,"ÑģÑĤÑĢÑĥÐºÑĤ":6492,"ĠÐ¿ÐµÑģÐ½Ð¸":6493,"ĠÐ¼ÑĭÑģÐ»Ð¸":6494,"ÑĢÐ³":6495,"ÑĤÐµÑĢÐ½":6496,"Ð´Ð»Ñı":6497,"Ð¾ÑĢÐ¾":6498,"Ð°Ð¼Ð¿":6499,"Ð¸Ð²Ð¾Ð²":6500,"ĠÐ·Ð°ÑĢÐµÐ³Ð¸ÑģÑĤÑĢÐ¸ÑĢÐ¾Ð²":6501,"ĠÐ´ÐµÐ»Ðµ":6502,"ĠXIV":6503,"Ġ1937":6504,"ĠÐ·Ð°ÐºÐ¾Ð½Ñĩ":6505,"ĠÐ¼ÐµÑģÑıÑĨ":6506,"ĠÐ¾Ð¶Ð¸Ð´":6507,"ĠÐľÐ¸ÑħÐ°Ð¸Ð»Ð°":6508,"ĠÑģÐ°Ð´":6509,"Ð¿ÑĥÑģÐº":6510,"ĠÐºÑĥÐ±":6511,"ĠÐ±Ð°Ð½Ðº":6512,"Ġ1926":6513,"ĠÐŁÐ¾Ð»ÑĮ":6514,"ÐĺÐ·Ð²ÐµÑģÑĤ":6515,"ĠÐ¿Ð¾ÑģÐ»ÐµÐ´Ð¾Ð²":6516,"1996":6517,"ĠÐ¿ÑĢÐ¾Ð³ÑĢÐ°Ð¼Ð¼Ðµ":6518,"ĠÐ¸ÑģÐºÑĥÑģÑģÑĤÐ²Ð¾":6519,"ĠÐ¾ÑģÑĥÑīÐµÑģÑĤÐ²Ð»Ñı":6520,"ĠÑĤÐ¾ÑĢÐ³Ð¾Ð²Ð»Ð¸":6521,"ĠÐ´Ð¸Ð½Ð°Ð¼":6522,"ĠÐ·Ð°Ð²Ð¸ÑģÐ¸ÑĤ":6523,"ĠÑĢÐµÐ³Ð¸Ð¾Ð½Ð°":6524,"Ð¸Ð³Ð°":6525,"ĠÐ¸Ð·Ð³Ð¾ÑĤÐ¾Ð²":6526,"ÐĹÐ°ÐºÐ¾Ð½":6527,"ĠÐ¿Ð¾Ð»ÑĥÑĩÐ¸ÑĤÑĮ":6528,"Ġ1972":6529,"Ð²Ð¸Ð³Ð°":6530,"ĠÐ³ÑĢÐ°Ð½Ð¸ÑĨ":6531,"ĠÐ±Ð¾Ð»Ð³Ð°ÑĢ":6532,"Ð²Ð¾Ð·":6533,"Ð¼Ð¾Ð¹":6534,"ĠÑģÐ»Ð°Ð±":6535,"ĠÐ±Ð¾Ñı":6536,"ĠÐ±ÐµÑģÑģ":6537,"ĠÐ¿ÑĢÐ¾Ð·":6538,"ĠÐļÐ°Ð±":6539,"ĠÑĢÐ°Ð±Ð¾ÑĤÐ°Ð»":6540,"Ġ1977":6541,"Ð°Ð»ÐµÑģÑĤ":6542,"ĠÑģÐµÐ»ÑĮÑģÐºÐ¾ÑħÐ¾Ð·ÑıÐ¹":6543,"Ð²ÐµÐ½":6544,"ÑĭÑĤÐ°":6545,"ÑĢÐµÑĤÐ°":6546,"ĠÐĴÑĭÑģ":6547,"Ð¾ÑĩÐ½Ð¾Ð¹":6548,"ĠÐ¿ÑĢÐ¾Ð²ÐµÑĢ":6549,"2002":6550,"ĠÐ¾ÑĢÐ³Ð°Ð½Ð¸Ð·Ð°ÑĨÐ¸Ñı":6551,"ĠÐ¿ÑĢÐµÐ´ÐµÐ»Ð°Ñħ":6552,"ĠÐºÑĢÐ¸Ð·Ð¸Ñģ":6553,"ÑģÐ¼ÐµÐ½":6554,"Ð´Ð¾Ðº":6555,"ĠÐ²Ð¸Ð½":6556,"Ð¾Ð½ÑģÐºÐ¸Ð¹":6557,"Ð¸ÑĤÐ²Ð°":6558,"Ð°Ð¼ÐµÑĤ":6559,"ĠÐ¿ÑĢÐµÑģÐ²Ð¸ÑĤ":6560,"Ð°Ð³Ð½Ð¸ÑĤ":6561,"ĠÐ±Ð¾Ð»ÑĮÑĪÑĥÑİ":6562,"ĠÑģÐºÐ»Ð¾Ð½":6563,"ÑıÑīÐ¸Ð¹":6564,"ĠÐ°ÑĢÑħÐ¸ÐµÐ¿Ð¸ÑģÐºÐ¾Ð¿":6565,"ĠÐ·Ð´Ð°Ð½Ð¸Ðµ":6566,"ĠUn":6567,"ĠÐ¿ÑĢÐ°Ð²Ð¸Ð»Ð°":6568,"1972":6569,"1944":6570,"ĠÐ¿ÑĢÐµÐ´Ð»Ð¾Ð¶Ð¸Ð»":6571,"ĠÐ±Ð¸ÑĤÐ²Ð°":6572,"ĠÐłÑĥÐ¼ÑĭÐ½":6573,"ian":6574,"ran":6575,"ux":6576,"ĠÐ²Ð¸ÑĨÐµ":6577,"ĠÑģÐµÑĢÐ±":6578,"ÐŁÐ¾Ð²":6579,"Ð¸Ð²Ð°ÑİÑĤÑģÑı":6580,"Ġ1928":6581,"ÑĥÑĤÐ°":6582,"ÐĳÐ»Ð°Ð³":6583,"ĠÐ¿ÑĢÐ¾ÑĤÐ¸Ð²Ð¾Ð¿Ð¾Ð»Ð¾Ð¶":6584,"ĠÐ´Ð¾Ð»Ð¶Ð½Ð¾":6585,"81":6586,"ob":6587,"ÑĩÐµÐ½ÐºÐ¾":6588,"ĠÐ¾ÑĤÐ¼ÐµÑĤ":6589,"ĠÐľÐ¾":6590,"ĠÐłÐ¾ÑģÑģÐ¸ÐµÐ¹":6591,"1940":6592,"ĠVIII":6593,"ĠÐłÐ¸ÑĩÐ°ÑĢÐ´":6594,"Ð½Ð¾Ð·":6595,"ĠÐ¡ÐµÐ²":6596,"ĠÐĲÐ¹":6597,"ĠÑĨÐµÐ»Ð¸":6598,"ens":6599,"ĠÑĢÐ°Ð¹Ð¾Ð½Ð¾Ð²":6600,"ĠÐºÐ°Ð·Ð½":6601,"ĠÐ³ÑĥÐ±ÐµÑĢÐ½Ð¸Ð¸":6602,"ĠÐ³ÑĥÐ±ÐµÑĢÐ½Ð°ÑĤÐ¾ÑĢ":6603,"ĠÐ¿Ð»Ð°ÑģÑĤ":6604,"ĠÐ´ÐµÐ»Ð¾":6605,"ÑĢÐ°Ð½ÑģÐ¿Ð¾ÑĢÑĤ":6606,"Ð¼Ð¸ÑĢ":6607,"ĠÐŀÐ»ÑĮ":6608,"ĠÐ¿ÑĢÐ¸ÑħÐ¾Ð´Ð¸ÑĤÑģÑı":6609,"Ð±Ð¾Ð¹":6610,"Ð¸ÐºÐ¾Ð¼":6611,"ÐĶÑĢÐµÐ²":6612,"ĠÐºÐ¾Ð¼Ð¼Ñĥ":6613,"Ġ2023":6614,"ĠÑģÐ²Ð¾Ð¸Ð¼Ð¸":6615,"ĠIX":6616,"ĠÐ¸ÑģÐ¿Ð¾Ð»ÑĮÐ·Ñĥ":6617,"ĠÑĢÐ¾ÑģÑģÐ¸Ð¹ÑģÐºÐ¾Ð³Ð¾":6618,"ĠÑĢÐ°Ð±Ð¾ÑĤÐ°":6619,"ĠÐ¾Ð±ÑīÐµÑģÑĤÐ²Ð¾":6620,"ĠÐľÐ¾ÑģÐºÐ²Ñĥ":6621,"ÑģÑĤÐ²Ð¾Ð²Ð°Ð»":6622,"ÑĮÐµÑĢÐ°":6623,"ĠÐ¼Ð°Ð»Ð¾":6624,"Ð½Ð¾ÑĪÐµÐ½Ð¸Ñı":6625,"ĠÐ¡Ð»Ð¾Ð²":6626,"ĠÐºÐ°ÐºÐ¾Ð¹":6627,"1974":6628,"ĠÐºÐ°ÑĤÐ°ÑģÑĤÑĢÐ¾ÑĦÐ°":6629,"ÑĢÐ°Ð³Ð¼ÐµÐ½ÑĤ":6630,"Ð½ÐµÐ³ÑĢÐµÑĩÐµ":6631,"ĠÐ³ÑĢÐ°Ð²Ð¸ÑĤÐ°":6632,"if":6633,"ÑħÑĤ":6634,"ĠÑģÑĤÐµÐ½":6635,"ÐµÑģÑĤÑĮ":6636,"Ð»ÑİÐ´":6637,"2011":6638,"ĠÐ¿Ð¾ÐºÑĢÐ¾Ð²":6639,"Ð¸ÑĢÑĥÑİÑĤ":6640,"ĠÐ°ÑĢÑħÐ¸ÑĤÐµÐºÑĤÑĥÑĢÑĭ":6641,"ĠÐ²Ð¾Ð·Ð½Ð¸ÐºÐ½Ð¾Ð²":6642,"ĠÐ³Ð»Ð°Ñģ":6643,"ĠÑĦÐ°ÐºÑĥÐ»ÑĮÑĤ":6644,"ÐµÐ½Ð½ÑĭÐ¼Ð¸":6645,"ĠÐ´Ð°Ð»":6646,"Ð¼Ð¸ÑĢÐ°Ð»":6647,"ÐºÐ¾Ð²Ð½Ð¸Ðº":6648,"ÐĺÐ¼ÐµÐ½":6649,"ĠÐ±Ð¾Ð»ÑĮÑĪÐ¸Ñħ":6650,"ĠÐ¾ÑĤÐºÑĢÑĭÑĤÐ¸Ðµ":6651,"ÐĸÐµÐ»Ðµ":6652,"ĠÐ¿Ð°Ð¼ÑıÑĤÐ½Ð¸Ðº":6653,"ÑĥÑįÑĢ":6654,"ĠÐ¿ÑĥÐ±Ð»Ð¸ÐºÐ°":6655,"ÑĨÐ¾":6656,"ĠÐ·Ð¾Ð½Ñĭ":6657,"ĠÐļÐ¸Ð¿":6658,"Ð°ÑĤÐµÐ»ÑĮÐ½ÑĭÐ¹":6659,"ĠÑģÐ¾Ð²ÐµÑĤÑģÐºÐ¾Ð³Ð¾":6660,"ĠÐ»ÑİÐ±Ð¾Ð¹":6661,"ĠÑĦÐ¾ÑĤÐ¾Ð¼":6662,"Cl":6663,"ÑģÐ°Ð¼":6664,"ĠÐ½Ð°ÑģÑĤ":6665,"ĠÐ½Ð°Ð±Ð¾ÑĢ":6666,"2012":6667,"ĠÑĢÐ°Ð¹Ð¾Ð½Ñĭ":6668,"ĠÐ½Ð°ÑĥÑĩÐ½Ð¾Ð¹":6669,"ĠÐ¢ÑĥÑĢÑĨÐ¸Ð¸":6670,"ÏĢ":6671,"Ð¾Ð¼ÐµÑĢ":6672,"ĠÐ¾Ð±Ð¾ÑģÐ½Ð¾Ð²":6673,"ĠÐĴÐ¾Ð·":6674,"ÐĳÐµÐ»":6675,"ĠÐ³Ð¾ÑĢÐ¾Ð´Ð¾Ð¼":6676,"Ð£Ñĩ":6677,"Ġ1936":6678,"ĠÐ¿Ð°ÑĢÐ°Ð»Ð»Ðµ":6679,"ĠÐłÐ¾ÑģÑĤÐ¾Ð²":6680,"ĠÐ½Ð°ÑĩÐ¸Ð½Ð°Ñı":6681,"ĠÐ²ÑĢÐµÐ¼ÐµÐ½ÐµÐ¼":6682,"Ð³Ð¸Ð·":6683,"ĠÐ¡Ð¸Ð½":6684,"ĠÐļÐ¾Ð¿":6685,"Ġ1914":6686,"ĠÐ¿ÐµÑĢÐµÐº":6687,"ĠÐ´Ð¾Ð»Ð»":6688,"Ġ1958":6689,"ĠÐĲÑĦÐ³Ð°Ð½":6690,"eg":6691,"ÑħÐ¸":6692,"Ð¸Ð²Ð½Ð°Ñı":6693,"ĠÐĴÑĢÐµÐ¼ÐµÐ½":6694,"Ð°Ð»Ð¸ÑĦ":6695,"ĠÐĵÐ°Ð³Ð°":6696,"ÐłÐ°":6697,"ĠÐ²Ð¾Ð¾Ð±ÑīÐµ":6698,"Ð°Ð³Ð¾ÑĢ":6699,"ĠÑĢÐµÐ³Ð¸ÑģÑĤ":6700,"ĠÐ·Ð½Ð°ÐºÐ¾Ð¼":6701,"ĠÐ¸Ð½Ð¸ÑĨÐ¸Ð°ÑĤÐ¸Ð²":6702,"ÑĤÑĢÐ¸":6703,"Ð¾ÑĤÐ¾Ñĩ":6704,"Ð°Ð²ÑĪÐµÐ³Ð¾":6705,"ĠÐĺÐ³Ð¾ÑĢ":6706,"ÐľÐĺ":6707,"ĠÐºÐ¾Ð¼Ð¼ÐµÐ½ÑĤ":6708,"ĠBo":6709,"ĠÐ½ÐµÐ¿Ð¾ÑģÑĢÐµÐ´ÑģÑĤÐ²ÐµÐ½Ð½Ð¾":6710,"ÐłÐµÐ»Ð¸Ð³Ð¸Ð¾Ð·":6711,"ĠÐ¿Ð°ÑĤÑĢÐ¸Ð°ÑĢÑħ":6712,"73":6713,"ÏĤ":6714,"ĠÐ´Ð¸Ñģ":6715,"ĠÑĦÐ¸ÑĢ":6716,"Ð¸Ð²ÑĪÐ°Ñı":6717,"Ġ1924":6718,"ĠÑĢÐ°Ð·Ð°":6719,"ĠÐ¢Ñĥ":6720,"ĠÐ¢Ð¾Ð»":6721,"ĠÐ¿ÑĢÐµÐ´ÑĪÐµ":6722,"Ð¸ÑĩÐ½ÑĭÐ¹":6723,"ĠÐ¸ÑİÐ»Ðµ":6724,"ĠCh":6725,"ĠÐ²ÑħÐ¾Ð´ÑıÑĤ":6726,"ĠÐºÑĢÐµÐ¿Ð¾ÑģÑĤÐ¸":6727,"ĠÐ»Ð¸ÑĤÐµÑĢÐ°ÑĤÑĥÑĢÐ½ÑĭÐ¹":6728,"ĠÑģÑĤÑĢÐ°ÑĤÐµÐ³":6729,"ÑĢÐ°ÑĦ":6730,"ĠÐ¸Ð±Ð½":6731,"ĠÐ¾ÐºÑĤÑıÐ±ÑĢÐµ":6732,"ĠÑĢÐ°ÑģÑģÐ¼Ð¾ÑĤ":6733,"ĠÐļÐ°Ð·Ð°ÑħÑģÑĤÐ°Ð½":6734,"53":6735,"Ð±ÑĥÐ´":6736,"ÑĢÐ¸Ñİ":6737,"Ð¾Ð±ÑĢÐ°Ð¶":6738,"ĠÐľÐµÐºÑģ":6739,"ĠÐĳÑĢÐ¸ÑĤÐ°Ð½":6740,"ÑĢÐ°Ð²Ð¾":6741,"ĠÐĿÐµ":6742,"ĠÐ¿Ð¾Ð´Ð²ÐµÑĢÐ³":6743,"ĠÐ¿ÑĢÐµÐ¿":6744,"ĠXIII":6745,"Ð°Ð±Ð¸Ð»ÑĮ":6746,"ĠÐ¤ÑĢÐ°Ð½ÑĨÐ¸Ñı":6747,"ÑĭÐ²Ð°ÑİÑĤ":6748,"ĠÑĤÐµÐ»ÐµÐ²ÐµÐ´ÑĥÑīÐ°Ñı":6749,"Ġw":6750,"ÐºÐ¼":6751,"ĠÐ´ÑĢÑĥÐ¶":6752,"ĠÐ´Ð¾Ð²Ð¾Ð»ÑĮÐ½Ð¾":6753,"Ð¾ÑĢÐ°ÑĤÐ¾ÑĢ":6754,"2009":6755,"1984":6756,"ĠÑĥÐ´Ð°ÑĢ":6757,"ĠÐ¿Ð¾Ð»Ð¾Ð¶ÐµÐ½Ð¸Ñı":6758,"ĠÐºÐ°Ð¶Ð´Ð¾Ð³Ð¾":6759,"ĠÐ¿ÑĢÐµÐ²ÑĢÐ°Ñī":6760,"59":6761,"Ð»Ð¾Ð³Ð¾":6762,"ĠÑģÐ¾Ð¼":6763,"ĠÐ¼Ð»ÐµÐºÐ¾Ð¿Ð¸ÑĤ":6764,"Ð¸Ð²Ð½Ð¾":6765,"ĠÐĴÐµÑĢ":6766,"ĠÐ¸Ð½Ð´Ñĥ":6767,"ĠÐ¾ÑĤÐ½Ð¾ÑĪÐµÐ½Ð¸Ðµ":6768,"Ġ1957":6769,"1939":6770,"ĠÐ¸ÑģÑĩÐµ":6771,"ÐŁÐµÑĤÐµÑĢÐ±ÑĥÑĢÐ³Ðµ":6772,"ÐŀÑĢÐ´ÐµÐ½":6773,"ÐµÐ½Ð½ÑĥÑİ":6774,"Ð³Ð¾Ð½":6775,"ĠÑĤÐµÐ»Ð¾":6776,"ÑĩÐµÑģ":6777,"ÑĩÐµÑģÐºÐ¸Ð¹":6778,"ĠÐĳÑĢÑİ":6779,"ĠÐºÐ¾Ð¼Ð¸ÑĤÐµÑĤ":6780,"ĠÑĢÑĥÑģÑģÐºÐ¸Ðµ":6781,"ĠÐ¾ÐºÑĢÐ°":6782,"ÐķÐ´Ð¸Ð½":6783,"ĠÑįÐºÑģÐ¿Ð¾ÑĢÑĤ":6784,"ĠÐ²ÑĭÑģÐ¾ÐºÐ¾Ð¹":6785,"ĠÐ°Ð²Ð¸Ð°ÑĨÐ¸Ð¸":6786,"ĠÐ¿ÐµÑĢÑģÐ¾Ð½Ð°":6787,"ĠÐĳÐ¾Ð»Ð³Ð°ÑĢÐ¸Ð¸":6788,"ĠÐ´Ð°Ð»ÐµÐµ":6789,"TP":6790,"Ð¸Ð¾Ð¼":6791,"Ð¸Ð¾Ð½Ð°":6792,"Ð·Ð¸":6793,"ÐºÐ°Ð´":6794,"ÐµÐ·Ð´Ðµ":6795,"ĠÐºÐ¾Ð¼Ð¼ÐµÑĢ":6796,"Ð¸Ð¿Ð¿":6797,"ÑĦÐ¸Ð¾Ð¿":6798,"ĠÐ¿ÐµÑĢÐµÐ¿Ð¸ÑģÐ¸":6799,".-":6800,"2020":6801,"ĠÑĢÐ°ÑģÐ¿ÑĢÐ¾ÑģÑĤÑĢÐ°Ð½ÐµÐ½Ð¸Ðµ":6802,"ĠÐ¿ÑĢÐ¾Ð¸Ð·Ð²ÐµÐ´ÐµÐ½Ð¸Ð¹":6803,"ĠÐĺÐµÑĢÑĥÑģÐ°Ð»Ð¸":6804,"ok":6805,"ĠÑĤÐµÐ½Ð½Ð¸Ñģ":6806,"ĠÐ¿ÑĢÐ¾ÑĦ":6807,"ĠÑģÐ°Ð¼Ð¾Ð»ÑĳÑĤÐ°":6808,"ĠÑģÐµÑĢÐµÐ´":6809,"Ġ1933":6810,"1967":6811,"1988":6812,"ĠÐ¿Ð¾Ð´Ð¿Ð¸ÑģÐ°Ð½":6813,"ĠÑĦÐ¾ÑĢÐ¼Ð°":6814,"ĠÐ½Ð°ÑĨÐ¸ÑģÑĤ":6815,"ÑĩÐµÑģÐºÐ¾Ð¹":6816,"ÐµÐ²ÑģÐºÐ¾Ð³Ð¾":6817,"ĠÐķÐ»ÑĮ":6818,"Ġ1935":6819,"ĠÐ°ÑĢÐ¼Ð¸ÐµÐ¹":6820,"ĠÐ½ÐµÐ±ÐµÑģ":6821,"ĠÐĺÐ²Ð°Ð½Ð°":6822,"ĠÐºÐ¾Ð½ÑģÑĤÐ¸ÑĤÑĥÑĨÐ¸Ð¸":6823,"ĠÐ¿Ð¾Ð±ÐµÑĢÐµÐ¶ÑĮÑı":6824,"ĠÐĶÐ¶ÐµÐ¹Ð¼Ñģ":6825,"Ð¾Ð³Ð¾Ð²Ð¾ÑĢ":6826,"Ð¾ÐºÐ¸":6827,"ĠÐĴÐ¸Ð½":6828,"Ð¸Ð·Ð¼Ðµ":6829,"ĠÐłÐ°":6830,"ĠÐĺÐ¾ÑģÐ¸ÑĦ":6831,"ÐľÐ¸Ð½":6832,"ĠÐ¥Ð°ÑĢ":6833,"ĠÐ§ÑĳÑĢ":6834,"ĠÐ²ÐµÐºÐ°Ñħ":6835,"ĠÑģÑĩÐ¸ÑĤÐ°ÑİÑĤ":6836,"ÐŁÐµÑĢÐ²Ð¾Ðµ":6837,"ÑįÐ½ÐµÑĢÐ³":6838,"ĠÑģÐ¾Ð¾Ð±ÑīÐµÐ½Ð¸Ñı":6839,"ĠÐ¸ÑģÐºÐ»ÑİÑĩÐµÐ½Ð¸ÐµÐ¼":6840,"ĠÐ²ÑģÑĤÑĢÐµÑĩÐ°ÑİÑĤÑģÑı":6841,"ĠÐºÐ¸Ð½Ð¾Ð°ÐºÑĤÑĳÑĢ":6842,"ĠÐľÐ¾Ð»Ð´Ð°Ð²":6843,"Ġg":6844,"ĠÑĢÐµÐ¼":6845,"Ð°ÑĤÐµÐ»ÑĮÐ½Ð¾Ðµ":6846,"ĠÐ¿Ð¾ÐºÐ¸Ð½":6847,"1962":6848,"Ð¼Ð¸Ð½Ð¸ÑģÑĤÑĢÐ°ÑĤÐ¸Ð²":6849,"ĠÐ²Ð·ÑĢÑĭÐ²":6850,"ĠÑĩÐµÑĤÐ²ÐµÑĢ":6851,"ĠÐ¼ÑĥÐ»ÑĮÑĤ":6852,"ĠÐ¼Ð°ÑĢÑĤÐµ":6853,"ÐĲÐł":6854,"Ð·ÑĭÐ²Ð°ÑİÑĤ":6855,"ĠÐ³Ð»Ð°Ð²Ð½ÑĭÐ¹":6856,"Ð¼ÑĥÐ·Ñĭ":6857,"ĠÐºÐ½Ð¸Ð³Ð°":6858,"ĠÑģÐ¾Ð¿ÑĢÐ¾ÑĤÐ¸Ð²":6859,"Ð¸ÑģÐ¿ÑĭÑĤ":6860,"ĠÐĲÐºÐ°Ð´ÐµÐ¼Ð¸Ð¸":6861,"Ð¸Ð°Ð½Ð°":6862,"Ð·Ð¸Ñı":6863,"Ð¿ÐµÐ²":6864,"ĠÐµÐ³Ð¸Ð¿":6865,"ĠÐĳÑĢÑĥ":6866,"Ð¾Ð²Ð°Ð½Ð¾":6867,"ĠÐ³Ð»Ð°Ð²Ñĭ":6868,"Ð°ÑĤÐµÐ»ÑıÐ¼Ð¸":6869,"ĠÐ¿ÑĢÐ¸ÑĢÐ¾Ð´Ðµ":6870,"ÐĴÐ¾Ð»":6871,"ĠÑģÑĤÐ¾Ñı":6872,"ĠÐĵÐ²":6873,"ĠÐ¢Ð¾ÑĢ":6874,"ÐĳÐ¾Ð»ÐµÐµ":6875,"Ð¸ÑĢÐ¾Ð²Ð°Ð»Ð¸":6876,"Ð¸Ð¾Ð½ÐµÑĢ":6877,"ĠÐ²ÑģÐµÐ¾Ð±Ñī":6878,"ine":6879,"ĠÑĥÐ¿ÑĢÐ°Ð·Ð´":6880,"1973":6881,"ĠÑģÑĩÐ¸ÑĤÐ°ÑĤÑĮ":6882,"ĠÐ²Ð¾Ð¿ÑĢÐ¾ÑģÑĭ":6883,"ĠÑģÐ¼ÐµÑĪ":6884,"ĠÐŁÐ°Ð»":6885,"ÐµÐ½ÑĮÑİ":6886,"ĠÑĥÑĩÐµÐ½Ð¸Ðµ":6887,"ĠÐ£Ð·Ð±ÐµÐº":6888,"ĠÑģÐ¾ÑģÑĤÐ°Ð²Ð¸Ð»Ð°":6889,"ĠÐ¡Ð²ÑıÑī":6890,"ĠÐĺÐ·ÑĢÐ°Ð¸Ð»Ñı":6891,"ĠÐºÐ¾ÑĢÐ¿ÑĥÑģ":6892,"ĠÐºÐ°Ð½Ð°Ð´ÑģÐºÐ¸Ð¹":6893,"ÐºÑĨÐ¸Ñı":6894,"Ð¾Ð´Ð¸Ð½Ð°Ð¼":6895,"ĠÐŁÐ¾":6896,"ÑĥÑİÑīÐµÐµ":6897,"ĠÐ¸ÑģÐ¿Ð¾Ð»Ð½Ñı":6898,"ĠÐ¾ÑģÐ½Ð¾Ð²Ð°Ð½Ð°":6899,"ĠÐ¿Ð»Ð¾Ð´":6900,"ĠÑģÐµÐ½ÑĤÑıÐ±ÑĢÐµ":6901,"Ġ1934":6902,"ĠÐĲÐ±Ð´":6903,"ĠÐ¾ÑĢÐ¸Ð³":6904,"ĠÐŀÐ´Ðµ":6905,"1995":6906,"Ð»ÐµÑĤÑĢÑıÑģ":6907,"ĠÐ¾ÑģÐ¾Ð±ÐµÐ½Ð½Ð¾ÑģÑĤÐ¸":6908,"ĠÑĢÐ¸Ñģ":6909,"ĠÐ¸ÑĢ":6910,"Ð½Ð¾ÑģÑĤÑıÐ¼Ð¸":6911,"ĠÐ¿ÐµÑĢÐ²Ð¾Ð¼":6912,"2006":6913,"ĠÑģÐ¼Ð¾Ð³":6914,"ĠÐºÑĢÐµÑģÑĤ":6915,"ĠÑĢÑĥÐºÐ¾Ð²Ð¾Ð´Ð¸ÑĤÐµÐ»ÑĮ":6916,"ĠÐ¸Ð½ÑģÑĤÐ¸ÑĤÑĥÑĤÐ°":6917,"ĠÑĢÐµÑĦÐ¾ÑĢÐ¼Ñĭ":6918,"ÑĤÐ¸Ð½Ð³":6919,"ÑĪÐµÐ³":6920,"ĠÐ±Ð»Ð°":6921,"ÐµÐ¼Ð¾Ð½":6922,"Ð¾ÑģÑĤÐ°Ð½":6923,"Ð¾ÐºÑĥÐ¿":6924,"ÐµÑĢÐ°Ð¼":6925,"ĠÐ¤ÑĢÐ°Ð½ÑĨÑĥÐ·":6926,"Ð¾Ð»Ð¾Ð³Ð¸ÑĩÐµÑģÐºÐ¸Ð¹":6927,"Ð°Ð½ÑĤÐµ":6928,"Ð¾ÑģÐºÐ¾Ð»ÑĮÐºÑĥ":6929,"ĠÑĥÑģÐ¸Ð»Ð¸":6930,"Ð°ÐµÐ¼ÑĭÐµ":6931,"ĠÐ¶ÑĥÑĢÐ½Ð°Ð»Ð°":6932,"ĠÐ¿Ð¾ÑģÑĤÑĢÐ¾ÐµÐ½":6933,"ĠÐ¾ÐºÐ¾Ð½ÑĩÐ°ÑĤÐµÐ»ÑĮÐ½Ð¾":6934,"ĠÐ¼ÐµÑģÑıÑĨÐµÐ²":6935,"ĠÑįÐ¿Ð¾ÑħÑĥ":6936,"ĠÐ¿Ð°ÑģÑģÐ°Ð¶Ð¸ÑĢÐ¾Ð²":6937,"Ð¾Ð²Ð¾Ð¼":6938,"ÑĨÐº":6939,"Ð¡Ð»Ð¾Ð²":6940,"ĠÐ¾Ð±ÑģÑĥÐ¶Ð´":6941,"ÑĤÑĮÑģÑı":6942,"Ġ1966":6943,"ĠÑĤÐ¾ÑĢÐ¶Ðµ":6944,"ĠÑĤÑĭÑģÑıÑĩÐ¸":6945,"Ð°Ð¼Ð±Ð»Ðµ":6946,"ĠÐ´ÐµÑģÑıÑĤÐ¸Ð»ÐµÑĤ":6947,"ĠÑıÐ¿Ð¾Ð½ÑģÐºÐ¸Ð¹":6948,"ÑģÑĤÐ¸":6949,"ĠÑģÐºÐ°":6950,"ÑĩÐµÐ³Ð¾":6951,"ĠÐĴÐµÐ½Ðµ":6952,"Ð»ÐµÐ½Ð½ÑĭÐ¹":6953,"ÑĢÐ¾ÑĦ":6954,"ĠÐ´ÐµÑıÑĤ":6955,"ÑĳÑĢÑĤ":6956,"2014":6957,"Ġ1969":6958,"ĠÑģÐ¼ÐµÑĢÑĤÑĮ":6959,"ÑİÑīÐ¸Ð¹ÑģÑı":6960,"ĠÐ±Ð¾ÑĢÑĮÐ±Ðµ":6961,"ÐŀÐºÐ¾Ð»Ð¾":6962,"Ð²Ð¾ÑģÑĤÐ¾Ñĩ":6963,"ÑĳÑģÑĤ":6964,"ÑĩÐµÑģÐºÐ¸Ðµ":6965,"ÑĢÐ¾Ð¼ÑĭÑĪÐ»ÐµÐ½":6966,"ĠÐ±Ð¾Ð»ÑĮÑĪÐ°Ñı":6967,"ĠCom":6968,"ĠÐ·Ð°ÑģÐ»ÑĥÐ³Ð¸":6969,"ĠÑįÐºÐ¸Ð¿Ð°Ð¶Ð°":6970,"ĠÐ¿ÐµÑĩ":6971,"ĠÐ°Ð³ÐµÐ½ÑĤ":6972,"ĠÑĦÐ¾Ð»ÑĮÐº":6973,"Ð°ÑĤÐµÐ»ÑĮÑģÑĤÐ²Ð°":6974,"ĠÐ¾ÑģÑĤÐ°ÑĳÑĤÑģÑı":6975,"Ġ1947":6976,"ĠÐĵÐµÑĢÐ¼Ð°Ð½Ð¸Ñı":6977,"ĠÐĲÐ¼ÐµÑĢÐ¸ÐºÐµ":6978,"ÑĤÐµÑĢÐ½Ð°ÑĤÐ¸Ð²":6979,"ÐµÑĢÑģÑĤÐ²Ð°":6980,"ĠÑĦÐ°Ð½ÑĤÐ°ÑģÑĤ":6981,"Ð¸Ð²Ð°Ð½Ð¸Ðµ":6982,"Ġ1923":6983,"ĠÐŀÐ½":6984,"ĠÑģÐ¿Ð¸ÑģÐº":6985,"1963":6986,"ĠÐ¼Ð¾Ð½Ð°Ñħ":6987,"1946":6988,"ĠÐ¿Ð¾ÑĩÑĤÐ¾Ð²":6989,"ĠÐºÐ¾Ð½ÑģÐµÑĢÐ²":6990,"ĠÐ¿Ð¸Ð»Ð¾ÑĤ":6991,"Ð±ÑĢÐ°Ð½":6992,"ĠÐļÐ°Ð»":6993,"ĠÐļÑĢÐ¸ÑģÑĤ":6994,"ĠÐŁÐ»Ð°Ð½":6995,"ĠÐµÐ´Ð¸":6996,"ĠÐ·Ð°Ð¸Ð¼":6997,"ÐºÑĥÐ»Ñı":6998,"ĠÑĢÐ¾ÑģÑģÐ¸Ð¹ÑģÐºÐ¸Ñħ":6999,"Ġ1932":7000,"1943":7001,"ĠÐ½Ð¸ÐºÐ¾Ð³Ð´Ð°":7002,"46":7003,"ÐºÐµÑģÑĤ":7004,"ĠÐ²Ð°Ð³":7005,"ĠÐ¾Ð±ÑĥÑģÐ»Ð¾Ð²":7006,"ĠÑĢÐµÐºÐ¾ÑĢ":7007,"ÐľÐ°ÑĢÑĤ":7008,"ÐľÐ¾ÑģÐº":7009,"2003":7010,"ĠÐ·Ð²ÑĳÐ·Ð´":7011,"ÐĶÑĢÑĥÐ³Ð¸Ðµ":7012,"ĠÐļÐµÑĢ":7013,"ĠÑįÑģÑĤ":7014,"ÑģÑģÐ°":7015,"ĠÐ·Ð°ÐºÑĢÑĭÑĤ":7016,"ĠÐ±ÑĥÐ´ÑĥÑī":7017,"ĠÑĥÑĩÑĳÐ½ÑĭÑħ":7018,"ĠÐ¿Ð°ÑĢÐ»Ð°Ð¼ÐµÐ½ÑĤÐ°":7019,"ĠÐ±Ð°Ð·Ðµ":7020,"ĠÐ²Ð¾ÐºÐ·":7021,"ĠÐ±Ð¸Ð±Ð»Ð¸Ð¾ÑĤÐµÐºÐ°":7022,"ĠÐ±ÑİÐ´Ð¶":7023,"Ð¿ÐµÑĢÐ²ÑĭÐµ":7024,"ĠÐ¼Ð¾":7025,"ĠÐ±ÑĥÐ¼":7026,"ĠÐĿÐ°Ñĩ":7027,"Ð¢Ð¾Ð¼":7028,"ĠÑĥÑĩÐµÐ½Ð¸Ñı":7029,"Ð¿Ð¸ÑģÐ¾Ðº":7030,"Ð¾ÐºÑĢÐ°ÑĤÐ½Ð¾":7031,"ĠÐ¡ÐµÐ²ÐµÑĢÐ¾":7032,"ĠÐ¿Ð¸ÑģÑĮÐ¼Ð¾":7033,"Ð³Ñģ":7034,"ĠÐ¿Ð¾Ð»ÐºÐ¾Ð²Ð¾Ð´":7035,"ĠÐ¿Ð¾ÐºÐ¾Ð»":7036,"ĠÐ¸Ð·Ð²ÐµÑģÑĤÐ½Ð¾":7037,"ĠÐ¾Ð±ÐµÑģÐ¿ÐµÑĩÐµÐ½Ð¸Ñı":7038,"Ð°ÑģÑĤÑĢÐ¾ÑĦ":7039,"ÑĪÐµÐ³Ð¾ÑģÑı":7040,"ĠÐ³Ð¾Ð¼":7041,"ĠÐ±Ð°ÑģÐº":7042,"ÐĴÐµÐ»Ð¸Ðº":7043,"ĠÐĵÐ°Ð»":7044,"ÑİÑīÐ¸Ð¼Ð¸":7045,"ÐºÐµÐ¿ÑĤ":7046,"Ġ1948":7047,"ĠÐ·Ð´Ð¾ÑĢÐ¾Ð²":7048,"ĠÐ°Ð»ÑĮÐ±Ð¾Ð¼":7049,"ĠÐ·Ð°Ð¿ÑĢÐµÑĤ":7050,"ĠÐŃÑģÑĤÐ¾Ð½Ð¸Ð¸":7051,"ÐļÑĢÑĥÐ¿Ð½ÐµÐ¹":7052,"ĠÐ±Ð¾ÑĢÑĤÑĥ":7053,"Ġ%).":7054,"ĠÐ¸Ð·ÑĥÑĩÐµÐ½Ð¸Ñı":7055,"ĠÑĢÐ°ÑģÑĤÐµÐ½Ð¸Ð¹":7056,"ĠÐ¿ÑĢÐµÐ¿Ð¾Ð´Ð°Ð²":7057,"ĠÐ¾Ð¿ÑĢÐµÐ´ÐµÐ»ÑıÐµÑĤÑģÑı":7058,"Ð¾ÑģÑĤÐ¾Ñı":7059,"ĠÐ¾ÑĤÐµÑĨ":7060,"ĠÐ¾ÑĤÑĨÐ°":7061,"Ð¸ÑĢÐ¾Ð²ÐºÐ¸":7062,"ĠÐ¾ÑģÐ½Ð¾Ð²Ð°Ð½Ð¸Ñı":7063,"ĠÐºÐ¾ÑĢÑĢÐµ":7064,"ĠÑģÑĥÐ´Ð¾Ð²":7065,"Ð¸Ð·Ð¼Ð¾Ð¼":7066,"ĠÐ¸Ð¼Ð¿ÐµÑĢÐ°ÑĤÐ¾ÑĢÐ¾Ð¼":7067,"ĠÐ¿ÑıÑĤÐ¸":7068,"ĠÑĤÑĢÐ¾Ð»Ð»ÐµÐ¹Ð±ÑĥÑģ":7069,"âĪĴ":7070,"Ð¸ÑģÐºÐ°":7071,"ĠÐºÑĢÐ¸ÑģÑĤ":7072,"ĠÐ³Ð¾":7073,"Ð¸ÐºÐ°Ð¼Ð¸":7074,"ĠÐ¡ÑĥÐ´":7075,"ĠÐļÐ»Ð¸":7076,"ĠÐ¸Ð·Ð³Ð½":7077,"1920":7078,"ÐļÐ»Ð°ÑģÑģ":7079,"ÐľÐ¸Ñħ":7080,"ĠÐĲÑĢÐ³ÐµÐ½ÑĤ":7081,"ĠÐ¿Ð¾Ð¼Ð¾ÑīÑĮ":7082,"ĠÑģÐ¾ÑĩÐµÑĤ":7083,"ĠÐĴÐµÐ»Ð¸ÐºÐ¸Ð¹":7084,"ĠÐŁÑĢÐ°Ð²Ð¸ÑĤÐµÐ»ÑĮ":7085,"ĠÐ²ÐµÑĢÑħÐ¾Ð²":7086,"ĠÐ´Ð¸ÐºÑĤ":7087,"ĠÐ½Ð°Ð¸Ð±Ð¾Ð»ÑĮÑĪ":7088,"Ð§ÐµÑĢÐµÐ·":7089,"1975":7090,"Ġ1956":7091,"ĠÐ±Ð¾Ð»ÑĮÑĪÐ¸Ð½ÑģÑĤÐ²Ðµ":7092,"ĠÐºÐ¾ÑģÐ¼Ð¾Ð½Ð°Ð²ÑĤÐ¾Ð²":7093,"ĠÐµÐ¿Ð¸ÑģÐºÐ¾Ð¿Ð°":7094,"Ð¡ÑĥÑīÐµÑģÑĤÐ²ÑĥÐµÑĤ":7095,"51":7096,"ÐºÑĥÐ»ÑĮÑĤ":7097,"ÑĪÐµÐ´":7098,"ĠÐ¾ÑĤÑĢÑıÐ´":7099,"ĠÐ±ÑĭÑģÑĤ":7100,"ĠÐ±Ð¾Ð»ÑĮÑĪÐ¸Ðµ":7101,"ĠÐ¿Ð°ÑĢÐ¾Ð²":7102,"1961":7103,"1971":7104,"ĠÐ¿ÑĢÐ¸Ð½ÑıÑĤÐ°":7105,"ĠÐ¿Ð¾Ð·Ð²Ð¾Ð»Ñı":7106,"ĠÑıÐ²Ð»ÐµÐ½Ð¸Ñı":7107,"ĠÐ²ÐµÑĢÑģÐ¸Ñı":7108,"ĠÐ¢ÑĢÑĥÐ´Ð°":7109,"ĠÐ¸Ð½Ð´Ð¸Ð²Ð¸Ð´Ñĥ":7110,"ÑĭÐ´":7111,"ÐµÑĤÐ¾Ð¼":7112,"ÑĢÑĥÐµÑĤ":7113,"ÐµÐ»ÑĮÑģ":7114,"ÑģÑĤÐ²ÐµÐ½Ð½Ð¾ÑģÑĤÐ¸":7115,"ĠÐĺÑĢÐºÑĥÑĤ":7116,"Ð¾ÑĩÐ½ÑĭÐ¹":7117,"ĠÐ¼Ð¾ÑĢÑģÐºÐ¾Ð¹":7118,"1999":7119,"1966":7120,"ĠÑĤÐ¾ÑĩÐºÐ°":7121,"ĠÐ¿ÑĢÐ¾ÑĨÐµÑģÑģÐµ":7122,"ĠÑģÐ¾Ð·ÑĭÐ²Ð°":7123,"ĠÐłÑĥÑģÑģÐºÐ¾Ð¹":7124,"ĠÑĦÐ¸Ð½Ð°Ð½Ñģ":7125,"ĠÐ°Ð½Ð³Ð»Ð¾":7126,"ĠÐ¿Ð¸Ð°Ð½Ð¸ÑģÑĤ":7127,"ae":7128,"Ð°Ð·Ñĭ":7129,"ĠÐ¾Ð´Ðµ":7130,"1917":7131,"ÐµÐ»Ð¸Ð¹":7132,"ÑĢÑıÐ´Ñĥ":7133,"ĠÐ¸Ð½ÑĤÐµÑĢÐ²":7134,"1965":7135,"ĠÐĺÐ½ÑģÑĤÐ¸ÑĤÑĥÑĤ":7136,"ĠÐŁÑĢÐµÐ·Ð¸Ð´Ð¸ÑĥÐ¼Ð°":7137,"ÑģÐ½Ð¾":7138,"ĠÑģÐ½Ð¾Ð²Ð°":7139,"ÐµÐ¼Ð¾ÑĢÐ¸":7140,"ĠÐ¡Ð¾ÑĦ":7141,"ÐµÐ¹ÑĤ":7142,"ÑĢÐ¾Ð²Ð¾Ð»ÑĮ":7143,"ÐĹÐ°ÑĤ":7144,"all":7145,"ĠÐŁÐµÑĤÑĢ":7146,"ĠÑĦÑĥÐ½ÐºÑĨÐ¸Ð¾Ð½Ð°Ð»ÑĮ":7147,"ĠÐ°Ð»Ð³":7148,"ĠÐļÑĢÐ°ÑģÐ½Ð¾Ð¹":7149,"ÐĵÐ¾ÑĢÐ¾Ð´Ð°":7150,"ĠÑģÐ¼ÐµÐ½":7151,"ĠÐ±Ð¾Ð¼Ð±":7152,"ĠÐ¾ÑĤÑģÑĤÑĥÐ¿":7153,"ĠÐ¶ÐµÑģÑĤ":7154,"Ġ32":7155,"ĠÐ°Ð½Ð°ÑĢÑħ":7156,"ĠÐ±Ð¾Ð»ÑĮÑĪÐ¸Ð¼":7157,"ĠÐ¿Ð¾Ð·Ð¸ÑĨÐ¸Ð¸":7158,"1982":7159,"Ð¾ÑģÑĤÐ¾ÐºÐ°":7160,"ĠÐºÐ²Ð°ÑĢÑĤ":7161,"ĠÐ´Ð¾Ð³Ð¾Ð²Ð¾ÑĢÐ°":7162,"ĠÐ¿ÑĢÐ¾ÑĪÑĳÐ»":7163,"ĠÐĺÐ½Ð´Ð¾Ð½ÐµÐ·":7164,"ĠÐ¢Ð¾Ð¼Ð°Ñģ":7165,"ĠÐĲÑĤÐ»Ð°Ð½ÑĤ":7166,"ĠÐ³Ð¸ÑĤÐ°ÑĢÐ¸ÑģÑĤ":7167,"04":7168,"ĠÐ½Ð°ÑĢÑĥÑĪ":7169,"ÐµÐ²Ð¾Ð»Ñİ":7170,"Ġ1927":7171,"Ð´Ð²Ð¸Ð³":7172,"ĠÑĦÐ¾ÑĤÐ¾Ð¼Ð¾Ð´ÐµÐ»ÑĮ":7173,"ÐºÐµÑĢ":7174,"Ð¾Ð¼Ð¾Ð½":7175,"ĠÐ¿ÑĢÐ¾ÑıÐ²Ð»Ñı":7176,"ĠÐĲÐ½Ð½Ð°":7177,"ĠÐĲÐ½Ð°ÑĤÐ¾Ð»":7178,"ĠÑģÐºÐ»Ð°Ð´":7179,"ÑĢÐ¸Ð¼":7180,"ĠÐ¿ÑĢÐµÑĤ":7181,"ĠÐ¦Ð·":7182,"ĠÐ¾ÑĤÐ½Ð¾ÑĪÐµÐ½Ð¸Ñİ":7183,"ĠÐ¦ÐµÐ½ÑĤÑĢÐ°Ð»ÑĮÐ½Ð¾Ð¹":7184,"ĠÐ¤ÑĳÐ´Ð¾ÑĢ":7185,"79":7186,"Ð°ÑĢÐµÐ²":7187,"ĠÐ½Ð¾Ð¼Ð¸Ð½":7188,"ĠÐºÐ»ÐµÑĤ":7189,"ÑĢÐ¸Ñĩ":7190,"ÑĢÐ¸ÑĨÐ°":7191,"ĠÑĩÑĥÐ´":7192,"ĠÑĨÐµÐ¿":7193,"ĠÐ¿Ð¾ÐºÑĢÑĭ":7194,"2007":7195,"ĠÐ°Ð¿ÑĢÐµÐ»Ðµ":7196,"ÑĢÐ¾Ð¹ÐºÐ¸":7197,"1956":7198,"ĠÑĢÐ¾ÑģÑĤÐ°":7199,"Ð°ÑİÑīÐµÐµ":7200,"ĠÑģÑĦÐµÑĢÐµ":7201,"ĠÐºÐ²Ð°Ð½ÑĤÐ¾Ð²Ð¾Ð¹":7202,"ĠÐĽÐ¾Ð½Ð´Ð¾Ð½Ðµ":7203,"Ð½ÑĳÐ¼":7204,"ĠÐŁÐµÑĢÑģ":7205,"ĠÑģÐ²Ð¾ÐµÐ¼Ñĥ":7206,"Ġ1949":7207,"Ð½ÑĥÑĤÑĮ":7208,"ity":7209,"ĠÐ¼ÐµÐ½Ñı":7210,"ĠÑħÐ¸Ð¼Ð¸Ð¸":7211,"ĠÐ³Ð»Ð°Ð·":7212,"ĠÐ¸Ð´ÐµÐ¹":7213,"Ð¶ÐµÐ¹":7214,"ĠÐ¾ÑģÐ²Ð¾":7215,"ÐµÐ³Ð¾Ð²":7216,"ĠÐºÐ¾Ð»Ð»ÐµÐº":7217,"ĠÐ¿Ð¾Ð¼Ð¾Ð³":7218,"ĠÐ¿Ð¾Ð¿ÑĥÐ»Ñı":7219,"1977":7220,"ĠÐ¾ÑģÑĤÑĢÐ¾Ð²Ð°Ñħ":7221,"1942":7222,"ĠÐ´Ð¾Ð¼Ð¸Ð½":7223,"ĠÑģÐ¸Ñħ":7224,"ÐµÐ¼Ð°Ñı":7225,"ĠÐ²Ð¾ÑĪÐ»Ð¸":7226,"ĠÑĢÐ°Ð·Ð²Ð¸ÑĤÐ¸Ð¸":7227,"Ġ1906":7228,"ĠÐĽÑİÐ´Ð¾Ð²":7229,"ĠÐĽÐ°ÑĤÐ²Ð¸Ð¸":7230,"ÑıÑĩ":7231,"ĠÐľÑĥÑĢ":7232,"ĠÐ±ÑĭÑĤ":7233,"ĠÑĢÐµÐºÐ¾Ð¼":7234,"ĠÐºÐ¾Ð½ÐµÑĨ":7235,"ĠÐ®Ð³Ð¾ÑģÐ»Ð°Ð²":7236,"ĠÐ¸Ð½ÑĤÐµÐ½Ñģ":7237,"ĠÐºÐ¾Ð½ÑĤÐ°ÐºÑĤ":7238,"ĠBe":7239,"ĠÐ³Ð°Ð·ÐµÑĤÑĭ":7240,"ĠÐºÑĢÐ°Ñı":7241,"ĠÐ¿ÑĢÐ¸Ð½Ð°Ð´Ð»ÐµÐ¶Ð¸ÑĤ":7242,"ĠÐ³Ð¾ÑģÐ¿Ð¾Ð´":7243,"ĠÐ¿ÑĢÐ¸Ð¿Ð¸Ñģ":7244,"ÐļÐ¸ÑĤÐ°Ð¹":7245,"ĠÑħÑĢÐ°":7246,"ÐĳÐ¾Ð³":7247,"ĠÑĦÐ¾ÑĢÐ¼Ð¸ÑĢÑĥ":7248,"ĠÐ¸Ð´ÐµÐ½ÑĤ":7249,"ĠÐĴÐ°Ð»ÐµÐ½ÑĤ":7250,"ÑĮÐ¼Ð¸":7251,"ÑħÐ¾":7252,"Ð»ÑĮÐ½ÑĭÑħ":7253,"ĠÐ±Ð»Ð¸Ð¶":7254,"Ð°Ð»ÑĮÐ½Ð¾ÑģÑĤÐ¸":7255,"ÑĥÑĢÐ¾Ð¹":7256,"ĠÐ·Ð°ÑģÑĤÐ°Ð²":7257,"ĠÐĺÑĢÐ°Ð½":7258,"Ð°ÑĢÐ°Ð±":7259,"ĠÐºÐ¾Ð½ÑĨÐµÑĢÑĤ":7260,"Ġ1959":7261,"ĠÐ¸Ð´ÑĳÑĤ":7262,"ÑģÑĤÐ¾ÑıÑĤÐµÐ»ÑĮ":7263,"ĠÑģÐµÑĢÐµÐ´Ð¸Ð½Ñĭ":7264,"Ġk":7265,"ĠÑģÐ½Ð°ÑĩÐ°Ð»Ð°":7266,"ĠÑĢÐµÐ¿":7267,"ÐĺÐ¼":7268,"ĠÐ¼ÐµÑĤÑĢÐ¾":7269,"ant":7270,"1930":7271,"ĠÐ³Ð¾ÑĢÑĭ":7272,"Ð¯Ð·Ñĭ":7273,"ĠÐ£ÐºÑĢÐ°Ð¸Ð½Ðµ":7274,"Ð½Ð°Ð»Ð¸Ð·Ð°":7275,"ĠÐ²ÐµÐ»Ð¸ÑĩÐ¸Ð½":7276,"ĠÐ²ÐµÐ»Ð¾ÑģÐ¸Ð¿ÐµÐ´":7277,"ĠÐ·Ð¾Ð½":7278,"ĠÐ¡ÐµÑĢÐ±":7279,"ĠÐĵÐ°Ð²":7280,"ĠÐ¥Ð°ÑĢÑĮ":7281,"ĠÐ¸Ð¼Ð¿ÐµÑĢ":7282,"ÐµÑĢÐ±ÑĥÑĢÐ³Ð°":7283,"1950":7284,"ĠÐµÐ²ÑĢÐ¾":7285,"ĠÐ¾ÑģÐ²Ð¾Ð±Ð¾Ð´":7286,"ÐĴÐ»Ð°Ð´Ð¸Ð¼Ð¸ÑĢ":7287,"Ð·ÐµÐ½":7288,"ĠÑĦÐ°Ð¼Ð¸":7289,"ĠÐ»ÐµÑĤÐ¾Ð¿Ð¸Ñģ":7290,"ĠÑģÑĤÑĢÐ°Ð½Ð°Ð¼Ð¸":7291,"ord":7292,"ĠÐ»Ð¸Ð½Ð¸Ñı":7293,"ĠÐ¾ÑģÐ°Ð´ÐºÐ¾Ð²":7294,"ÐŃÐºÐ¾Ð½Ð¾Ð¼Ð¸ÐºÐ°":7295,"ĠÐºÐ²Ð°Ð´ÑĢÐ°ÑĤ":7296,"ĠÑģÐµÐºÑĤ":7297,"ĠÐŁÐ°Ðº":7298,"ÐµÑĢÐ°Ñħ":7299,"ĠÐĽÐ°Ð²":7300,"ĠÑģÐ¾ÑģÑĤÐ¾ÑıÐ»Ð°ÑģÑĮ":7301,"ĠÑģÑĤÐ¾Ð»ÐµÑĤ":7302,"ĠÑģÑĤÐ¾Ð»Ð¸ÑĨÑĭ":7303,"ĠÑĪÐ²ÐµÐ´ÑģÐºÐ¸Ð¹":7304,"ĠÑįÐºÑģÐ¿ÐµÐ´Ð¸ÑĨÐ¸Ð¸":7305,"ep":7306,"ÑģÐ¿ÐµÑĢÐ°Ð½":7307,"ĠÐ½Ð¾Ð²Ð°Ñı":7308,"ĠÑĤÐµÑĢÑĢÐ¸ÑĤÐ¾ÑĢÐ¸":7309,"2001":7310,"ĠÐ²ÐµÐ»Ð¸ÐºÐ¸Ð¹":7311,"ĠÐ²Ð¾ÑģÐ¿ÑĢÐ¸Ð½Ð¸Ð¼":7312,"Ð¾Ð¾Ð±ÑĢÐ°Ð·":7313,"Ð¿Ð¾Ð³Ð¸Ð±":7314,"ÑĨÐ¾Ð¼":7315,"Ð¾Ð½ÑģÐºÐ¾Ð³Ð¾":7316,"Ð½Ð¾ÑĪ":7317,"ĠÐĴÐ°Ð²":7318,"ĠÑĢÐµÐ°Ð»Ð¸Ð·Ð°ÑĨÐ¸Ð¸":7319,"ĠÐĳÐ°Ð»":7320,"ĠÐ¿ÑĢÐµÐ´ÑģÑĤÐ°Ð²Ð»ÐµÐ½Ñĭ":7321,"ĠÑĢÐµÐ·ÐºÐ¾":7322,"ĠÐ·Ð°Ð½ÑıÐ»":7323,"ĠÑģÐµÑĢÐ²ÐµÑĢ":7324,"ĠÐ·ÐµÐ¼Ð»Ðµ":7325,"ĠÐ¼Ð¾Ð½ÐµÑĤ":7326,"ĠAir":7327,"ĠÐºÐ½ÑıÐ¶ÐµÑģÑĤÐ²Ð°":7328,"ÐµÑģÑĤÐ¸Ð²Ð°Ð»ÑĮ":7329,"Ð¸Ð¼Ðµ":7330,"ÑįÑĦ":7331,"ÐĴÐ°Ð¶":7332,"ĠÐ»Ð¾Ð´":7333,"ĠÐŁÐ»ÑĥÑĤ":7334,"ÑĥÑĩÐ¸":7335,"ÐĵÐ¾ÑĢ":7336,"ĠÐ¾ÑģÐ½Ð¾Ð²Ð°Ð½Ð¸Ð¸":7337,"ĠÐŃÐ»ÑĮ":7338,"ĠÐ¯ÐºÐ¾Ð²":7339,"ĠÐ¸Ð¼ÐµÑİÑĤÑģÑı":7340,"Ð»ÐµÑĤÐ¸Ñı":7341,"Ð»ÐµÑĤÐ²Ð¾ÑĢ":7342,"ĠÐ½Ð°Ð¿ÑĢÐ°Ð²Ð»ÐµÐ½Ð¸Ð¸":7343,"ĠÑĢÐµÑģÐ¿ÑĥÐ±Ð»Ð¸ÐºÐ°Ð½":7344,"ĠÐļÐ¾Ð»ÑĥÐ¼Ð±":7345,"ĠÑĩÐ¸ÑģÐ»ÐµÐ½Ð½Ð¾ÑģÑĤÑĮ":7346,"ĠÐ¾Ð±Ð»Ð°Ð´Ð°ÐµÑĤ":7347,"Ð¾Ð¾ÑĤ":7348,"Ð¾Ð²Ð°Ð»Ð°":7349,"ĠÐ¾ÑħÑĢÐ°Ð½":7350,"ÑĦÐ¸ÐºÑģ":7351,"ĠÐ·ÐµÑĢ":7352,"ĠÐ¾Ð±Ð¼ÐµÐ½":7353,"ĠÑĦÐ°Ð±ÑĢÐ¸":7354,"ĠÐĲÑģÑģ":7355,"ĠÐ»Ð¾Ðº":7356,"ĠÐ»Ð°Ð±":7357,"ĠÑĢÐµÐºÐ¾Ð½ÑģÑĤÑĢÑĥ":7358,"ĠÑĤÐ°ÐºÐ¾Ðµ":7359,"Ð¸ÑĢÐ¾Ð²Ð°Ð½Ð°":7360,"ĠÑĤÐµÑĢÑĢÐ¸ÑĤÐ¾ÑĢÐ¸Ð¹":7361,"1978":7362,"ĠÐ²Ð¿Ð°Ð´":7363,"1981":7364,"ĠÐ¸Ð½ÑĦÑĢÐ°":7365,"Ð±Ð¾Ð²":7366,"Ð¾Ð½Ð³":7367,"ĠÐ³Ð»Ð°Ð³":7368,"ĠÑĤÑĢÐ°Ð²":7369,"ÑģÑĤÐ²ÐµÐ½Ð½Ð¸Ðº":7370,"ĠÐ´Ð¾Ð¼Ð°ÑĪ":7371,"ros":7372,"ĠÐ¾Ñī":7373,"ĠÐ¼Ð°":7374,"ÑģÑĤÐ²ÑĥÑİÑĤ":7375,"Ð¾ÑĤÐ°Ð½":7376,"Ð°ÐºÐ¾Ð²Ð°":7377,"Ð½Ð¾ÑģÑĤÑıÑħ":7378,"ĠÐ¿ÐµÑĢÐµÑĢÐ°":7379,"Ð°Ð´Ð¸":7380,"ĠÑĢÐ°Ð·Ð½ÑĭÐµ":7381,"Ð¸ÑĢÑĥÑİÑĤÑģÑı":7382,"ĠÐºÑĥÐ»ÑĮÑĤÑĥÑĢÐµ":7383,"ĠÐ³Ð¾ÑĢÐ¸Ð·":7384,"ĠÐ¼ÐµÐ¶Ð´ÑĥÐ½Ð°ÑĢÐ¾Ð´Ð½Ð¾Ð³Ð¾":7385,"ĠÐ¿Ð°Ð¿Ð°":7386,"ĠÐĵÐ¾ÑĢÐ±Ð°Ñĩ":7387,"ĠÐŁÑĢÑĥÑģÑģÐ¸Ð¸":7388,"Ð¸ÑĨÐ¸Ñİ":7389,"ĠÑģÑĥÑī":7390,"ÑĢÐµÐ¶":7391,"ÐµÐ¼Ð¾Ðµ":7392,"ÑĩÐµÑģÑĤÐ²Ð°":7393,"ĠÑģÑĤÑĢÐ¾Ðº":7394,"ĠÐļÑĳ":7395,"Ð¾ÐºÐ¾Ð²":7396,"ĠÐ¨Ð¾ÑĤ":7397,"ĠÐ¾Ð¿ÑĢÐµÐ´ÐµÐ»ÐµÐ½Ð¸Ðµ":7398,"ĠÐ¿ÑĢÐ¸Ð¼ÐµÐ½ÐµÐ½Ð¸Ñı":7399,"ĠÐ±ÑĭÐ²ÑĪÐµÐ³Ð¾":7400,"Ð¾ÑģÐ¿ÐµÐºÑĤ":7401,"ĠÐºÐ¾Ð½ÑĦÐµÑĢÐµÐ½ÑĨÐ¸Ð¸":7402,"ÑģÑĤÐ°Ð½Ð¸Ðµ":7403,"ĠÐ³ÑĢÑĥ":7404,"ĠÐ³Ð²Ð°ÑĢÐ´":7405,"Ð¾ÑĤÐ¾":7406,"Ð¸Ð¼ÑĭÑħ":7407,"ĠÐ¾Ð±Ðµ":7408,"Ð¸ÑĩÐµÐ³Ð¾":7409,"ĠÑĢÐ°Ð·ÑĥÐ¼":7410,"ĠÑģÐ¿Ð¸ÑĢ":7411,"ĠÐ¾ÑĢÐ³Ð°Ð½Ñĭ":7412,"ĠÑĩÐµÐ»Ð¾Ð²ÐµÐºÐ¾Ð¼":7413,"ĠÑģÐ²Ð¾Ð¹ÑģÑĤÐ²":7414,"ĠÐ¾ÑģÑĥÑīÐµÑģÑĤÐ²Ð»ÑıÐµÑĤÑģÑı":7415,"ĠÐ¿ÑĢÑıÐ¼Ð¾":7416,"ĠÐ¿ÑĢÐµÐ´ÑĥÑģÐ¼Ð°ÑĤÑĢÐ¸":7417,"Â³":7418,"Ð¾Ð²Ð»ÐµÑĤÐ²Ð¾ÑĢ":7419,"ÐµÐ²ÑĭÑħ":7420,"ÐµÐ²ÑĢÐ¾Ð¿ÐµÐ¹":7421,"Ġ1911":7422,"ĠÐ¢Ð¸ÑĤ":7423,"ĠÐ°ÑĢÐ¼Ð¸Ñİ":7424,"2016":7425,"2013":7426,"ĠÑĤÐµÐ»ÐµÐ²Ð¸Ð·":7427,"ĠÑģÑĤÐ°Ð½ÑĨÐ¸Ñı":7428,"ĠÐ¿ÑĢÐ¸Ð·ÑĳÑĢ":7429,"ĠÐ¿ÑĢÐµÐ´ÑģÑĤÐ°Ð²Ð»ÑıÑİÑĤ":7430,"ĠÐĲÑĦÑĢÐ¸ÐºÐµ":7431,"ĠÐ²Ð¾Ð·ÑĢÐ°ÑģÑĤÐµ":7432,"ect":7433,"ĠÐ»Ð¸ÑĤÐ¾Ð²ÑģÐºÐ¸Ð¹":7434,"ĠÐ¾ÑĢÑĥÐ¶Ð¸Ñı":7435,"ĠÐ²Ð¾ÑģÐºÑĢÐµÑģ":7436,"ÐļÐ¾Ð½ÑģÑĥÐ»Ñĭ":7437,"Ð¡Ðº":7438,"ÐºÐ°Ð·Ð°":7439,"ĠÐĿÐ°ÑĢ":7440,"ĠÐ§ÐµÑĩ":7441,"ĠÐ°Ð»Ð³Ð¾ÑĢÐ¸ÑĤ":7442,"ĠÑģÐ¿ÐµÑĨÐ¸":7443,"ĠÐ¼Ð°ÑĤÐµÐ¼Ð°ÑĤÐ¸ÐºÐ¸":7444,"ĠÑģÐ¸Ð¼Ð¼ÐµÑĤ":7445,"ĠÐ¼ÐµÑĤÐ¾Ð´Ð¾Ð²":7446,"ĠÐºÐ°Ð¼Ð¿":7447,"ĠÐ²Ð»Ð¸ÑıÐ½Ð¸ÐµÐ¼":7448,"Ð»ÑĮÑı":7449,"Ð½Ð¾ÑĪÐµÐ½Ð¸Ðµ":7450,"ÐļÐĲ":7451,"ĠÐĳÐ°Ð½":7452,"ĠXI":7453,"art":7454,"ĠÐ½Ð¾ÑıÐ±ÑĢÐµ":7455,"ĠÐ´Ð²Ð¾ÑĢÑıÐ½":7456,"Ð¾Ð½Ñĩ":7457,"ĠÐ±ÐµÐ³":7458,"ĠÐ»Ð¸ÑĤÐ¾Ð²":7459,"ĠÐĽÐ¸ÑĤÐ¾Ð²":7460,"ĠÐ¦Ð¸ÑĨÐµÑĢ":7461,"ÑĥÑīÐ¸Ðµ":7462,"ÑıÑīÐµÐ¹":7463,"ĠÑģÑĥÐ´ÑĮ":7464,"ĠÑĢÐ°Ð·ÑĢÐ°Ð±Ð¾ÑĤÐºÐ¸":7465,"ĠÐ²Ð½ÐµÑĪÐ½ÐµÐ¹":7466,"ĠÐ¤ÑĳÐ´Ð¾ÑĢÐ¾Ð²":7467,"ĠÐŀÐºÑĤÐ°Ð²":7468,"ĠÐ¸Ð»Ð»Ñİ":7469,"Ð¸ÑĤÐµ":7470,"Ð»Ð°Ñģ":7471,"ÐŁÐ¾ÑģÐºÐ¾Ð»ÑĮÐºÑĥ":7472,"ĠÐŁÐ°Ð½":7473,"ÑıÑĤÐµÐ¶":7474,"ĠÐ²ÑĭÑĪÐ»Ð°":7475,"ÑĢÐ°Ð·Ð¸Ð»ÑĮ":7476,"ĠÐ¸Ð½Ð²ÐµÑģÑĤ":7477,"ĠÑĢÐ¾ÑģÑģÐ¸Ð¹ÑģÐºÐ¾Ð¹":7478,"ĠÐºÐ°ÑĦ":7479,"ĠÐ¿ÑĢÐ¾Ð³ÑĢÐ°Ð¼Ð¼Ð°":7480,"ĠÐĽÐµÐ½Ð¸Ð½Ð³ÑĢÐ°Ð´":7481,"ĠÐķÐ²Ð³ÐµÐ½Ð¸Ð¹":7482,"up":7483,"ÑĭÐ¶":7484,"ÐŁÑĢÐµÐ¼":7485,"ĠÐ¿ÑĢÐ¸Ð·Ð²":7486,"ĠÐ¿Ð¾Ð´Ð²ÐµÑĢ":7487,"ĠÑģÐ¾Ð¾ÑĤÐ²ÐµÑĤÑģÑĤÐ²ÑĥÐµÑĤ":7488,"=\"":7489,"ĠÐ²ÑĥÐ»":7490,"ÑħÐ¾Ð¶Ð´ÐµÐ½Ð¸Ðµ":7491,"ÑĢÐ¸ÐºÐ°":7492,"ÐŁÐ°ÑĢ":7493,"ĠÐĴÐ°Ð½":7494,"ĠÐĳÑĥÑĢ":7495,"ĠÐĺÐ¸Ñģ":7496,"ĠÐ´ÐµÑģÑı":7497,"ĠÐ·Ð°ÐºÑĢÑĭ":7498,"ĠÑĤÐµÐ¾ÑĢÐ¸Ñİ":7499,"ĠÐ´ÑĢÐµÐ²Ð½Ð¸Ñħ":7500,"ĠÐ½Ð°ÑĨÐ¸Ð¾Ð½Ð°Ð»ÑĮÐ½ÑĭÐ¹":7501,"ĠÐ¿Ð¾Ð´Ð¿Ð¸ÑģÐ°Ð»Ð¸":7502,"ĠÑĪÐ°ÑħÐ¼Ð°ÑĤ":7503,"ĠÑģÐ½Ð¸Ð¶":7504,"ĠÐ¶ÐµÑĢÑĤÐ²":7505,"05":7506,"ÑĩÐ¸Ð½Ñĭ":7507,"Ð±Ð°ÑĤ":7508,"ĠÐĳÐ¾Ñģ":7509,"ĠÐĿÐ¸":7510,"ĠÑģÐ¿ÑĥÑģÑĤÑı":7511,"ĠÐ½Ð°ÑĩÐ°Ð»Ð¸ÑģÑĮ":7512,"1985":7513,"ass":7514,"ĠÐ¿Ð¾Ð»ÑĮÐ·Ñĥ":7515,"ÑĢÐ°Ð²Ð¾Ð¾ÑħÑĢÐ°Ð½":7516,"ÑĢÐ°Ð»Ð¸":7517,"ÑĩÑĳÑĢ":7518,"ĠÐ°Ð½Ð°Ð»Ð¸Ð·Ð°":7519,"ĠÑĥÐ»ÑĮ":7520,"Ð¾Ð±Ð½Ð¾Ð²":7521,"ĠÑĦÐ°Ð·":7522,"ĠÑįÐ²":7523,"ĠÐŁÐ¾Ð»Ð¸ÑĤ":7524,"ĠÐĳÑĢÐ¾Ð´":7525,"ĠÐ²Ð¾Ð¹Ð½":7526,"ĠÐ´ÑĢÑĥÐ³Ð¾Ð¼":7527,"ĠÐ¡ÑĤÐµÐ¿":7528,"ĠÐ´Ð¸ÑĦ":7529,"1997":7530,"1998":7531,"ĠÐºÐ¾ÑģÐ¼Ð¾Ñģ":7532,"ĠÐ¿Ð¾Ð´Ð´ÐµÑĢÐ¶ÐºÑĥ":7533,"Ð¸Ð»Ð¸ÑīÐ°":7534,"Ð½Ð¾Ð¶Ðµ":7535,"ĠÐ±Ð¾ÑĢ":7536,"ÐŁÐ¾Ð¿":7537,"ÐŁÑĢÐ¾ÑĤ":7538,"ĠÐļÐ°Ð»Ð¸":7539,"ÑģÑĤÐ²ÐµÐ½Ð½ÑĭÐ¼Ð¸":7540,"ÐĶÐ¾Ð¼":7541,"ĠÑģÐ¾Ð·Ð´Ð°Ð»":7542,"ĠÑįÐºÐ¾Ð½Ð¾Ð¼Ð¸ÑĩÐµÑģÐºÐ¾Ð³Ð¾":7543,"ĠÐ³ÑĢÐ°Ð¶Ð´Ð°Ð½ÑģÐºÐ¾Ð¹":7544,"ĠÐ·Ð´Ð°Ð½Ð¸Ð¹":7545,"ĠÑģÐ²ÑıÑĤÐ¾Ð³Ð¾":7546,"ĠÐ¼ÑĥÐ·ÐµÑı":7547,"ĠÑģÑĤÑĢÑĥÐºÑĤÑĥÑĢÑĭ":7548,"ĠÐĵÑĢÑĥÐ·Ð¸Ð¸":7549,"Ġá¼":7550,"Ð»Ð¾Ð¹":7551,"ĠÑģÑĢÐ°Ð¶":7552,"ĠÐºÐ¸ÑĢ":7553,"ĠÐ½Ð°ÑĪÐµÐ¹":7554,"ĠÐ¿ÑĢÐ¾ÑģÐ¿ÐµÐºÑĤ":7555,"ĠÐ¸Ð·ÑĢÐ°Ð¸Ð»ÑĮ":7556,"ĠÐ¿Ð¾Ð»ÐµÐ·":7557,"Ð½Ð¾Ð²Ð¸Ð´":7558,"ĠÐ·Ð°ÐºÐ¾Ð½Ñĭ":7559,"ĠÐļÐ¾ÑĢÐ¾Ð»ÑĮ":7560,"ĠÐ½Ð°Ð¿ÑĢÐ°Ð²Ð»ÐµÐ½":7561,"Ð¿Ð¾ÑģÐ»ÐµÐ´ÑģÑĤÐ²Ð¸Ð¸":7562,"ĠÑģÐ¾ÑĩÐ¸Ð½ÐµÐ½Ð¸Ð¹":7563,"ĠÐ¾ÑĤÐ²ÐµÑĩ":7564,"ÑģÐµÐ²Ð´":7565,"ÐļÐ»Ð¸Ð¼Ð°ÑĤ":7566,"Îº":7567,"ĠÑĦÑĢÐ°Ð½ÑĨÑĥÐ·ÑģÐºÐ¾Ð³Ð¾":7568,"ĠPr":7569,"ĠÐ·Ð²ÑĥÐºÐ¾Ð²":7570,"ĠÑĤÐµÐ¿ÐµÑĢÑĮ":7571,"ĠÐºÐ¸ÑĤÐ°Ð¹ÑģÐºÐ¸Ð¹":7572,"ĠÑģÐ¾Ð²Ð¼ÐµÑģÑĤÐ½Ð¾":7573,"ĠÐ¡ÐĿÐĵ":7574,"ĠÐŃÐ´ÑĥÐ°ÑĢÐ´":7575,"ĠÐºÐ»ÑİÑĩÐµÐ²":7576,"Ð°Ñĥ":7577,"ĠÑħÐ¾ÑĤ":7578,"ĠÐ¢ÐµÑĢ":7579,"ĠÐŃÐ¿":7580,"Ð¿ÑĢÐµÐ·Ð¸Ð´ÐµÐ½ÑĤ":7581,"ĠÑģÐµÑĢÐµ":7582,"ĠÐµÐ´Ð¸Ð½Ð¸ÑĨÑĭ":7583,"ĠÑģÐµÐ²ÐµÑĢÐ½Ð¾Ð¹":7584,"ĠÐļÑĢÐ°ÑģÐ½Ð¾ÑıÑĢ":7585,"ĠÐ¼Ð¾Ð¼ÐµÐ½ÑĤÐ°":7586,"ĠÐ·Ð°ÑīÐ¸Ñī":7587,"ĠÐºÑĢÐµÐ¿Ð¾ÑģÑĤÑĮ":7588,"ĠÐĳÐµÐ»Ð¾ÑĢÑĥÑģÑģÐ¸Ð¸":7589,"Ð³ÑĢÐ°Ð½":7590,"Ð°ÑĢÐ½ÑĭÐµ":7591,"ÐµÐ½ÑĤÐ¾Ð¼":7592,"ĠÐĵÐ°Ð¹":7593,"ĠÐĳÐµÑĢÐ½":7594,"Ð»Ð¾ÑĢÐ°":7595,"ĠÑģÐ¾Ð²Ð¿Ð°Ð´":7596,"ĠÐ¿ÑĢÐ°Ð²Ð¸Ð»ÑĮ":7597,"ĠÑĥÑģÑĤÐ°Ð½Ð°Ð²Ð»Ð¸":7598,"ÐŃÑĤÐ¸Ð¼":7599,"ign":7600,"ĠÑĥÑģÑĤÑĢÐ¾Ð¹ÑģÑĤÐ²Ð°":7601,"ĠÐºÐ°Ð½Ð´Ð¸Ð´Ð°ÑĤ":7602,"Ð¸Ð²ÑĪÐ¸ÑħÑģÑı":7603,"ĠÐ¾ÑĢÐ¸Ð³Ð¸Ð½":7604,"Ð½Ð¾Ð¿":7605,"ĠÐ²Ð¾ÑģÑĮ":7606,"ĠÐ²Ð¾ÑģÑĤÐ¾ÐºÐµ":7607,"Ð³Ð¾ÑģÑı":7608,"ÐµÐ¹ÑģÐºÐ¸Ð¹":7609,"Ġ1913":7610,"ÐŀÐºÑĤ":7611,"ĠÐ¸Ð·Ð²ÐµÑģÑĤÐ½ÑĭÐµ":7612,"ĠÑģÑĩÐ¸ÑĤÐ°ÐµÑĤ":7613,"ĠÐ¸Ð·Ð¾Ð±ÑĢÐ°Ð¶ÐµÐ½Ð¸Ñı":7614,"ill":7615,"ĠÑĦÑĢÐ¾Ð½ÑĤ":7616,"ĠÐ°ÑģÑģÐ¾ÑĨÐ¸":7617,"ĠÐ½Ð°Ð»Ð¸ÑĩÐ¸Ðµ":7618,"ÑĥÐ³Ð°":7619,"ĠÐ¸Ð¼Ð¸":7620,"ÑİÐ¹":7621,"Ð°ÑĢÐ¼":7622,"ĠÑĦÐ¸Ð»Ð¸":7623,"Ġ1912":7624,"ĠÑģÐ»Ð¾Ð²Ð°Ð¼":7625,"ĠÐºÑĥÐ»ÑĮÑĤÑĥÑĢÐ°":7626,"Ð¯Ð½":7627,"ĠÐ¡ÐµÐ²ÐµÑĢÐ½Ð¾Ð³Ð¾":7628,"ĠÑģÐ¾ÑģÑĢÐµÐ´":7629,"ĠÐ¿Ð¾Ð´Ð³Ð¾ÑĤÐ¾Ð²ÐºÐ¸":7630,"ĠÑģÐ²ÑıÑīÐµÐ½Ð½Ð¾Ð¼ÑĥÑĩÐµÐ½Ð¸ÐºÐ°":7631,"ÑĩÐµÐ»Ð¾Ð²ÐµÐº":7632,"Ð¸Ð²ÑĪÐµÐ¹":7633,"ĠÑĢÐµÑģÐ¿ÑĥÐ±Ð»Ð¸ÐºÐ°":7634,"ĠÑģÑĭÐ³ÑĢÐ°":7635,"ĠÐ¿Ð¾ÑĤÐµÑĢÐ¿":7636,"ĠÐķÐºÐ°ÑĤÐµÑĢÐ¸Ð½":7637,"ĠÐ±Ð°ÑģÐºÐµÑĤ":7638,"ĠÑĤÑĢÐ¾Ð¿":7639,"Ð¸Ð»Ð»Ð°":7640,"ĠÐĳÐ¸ÑĢ":7641,"ĠÐĺÑĢÐ°":7642,"ĠÐ²Ð¾Ð´Ð°":7643,"ĠÑģÐ¾Ð¾Ð±ÑīÐµÐ½Ð¸Ðµ":7644,"ĠÐŀÑģÐ¼Ð°Ð½":7645,"ĠÑģÑĥÑīÐµÑģÑĤÐ²ÐµÐ½Ð½Ð¾":7646,"ĠÑģÐ°Ð¼Ð¾ÑĥÐ¿ÑĢÐ°Ð²":7647,"ÐŀÐ±ÑīÐ°Ñı":7648,"Ð¸ÑģÑĤÐ¾ÑĢ":7649,"Ð¼Ð¸ÑĢÐ°":7650,"ĠÐ·Ð°ÐºÐ¾Ð½Ð¾Ð²":7651,"ork":7652,"ĠÐ¸Ð·Ð²ÐµÑģÑĤÐµÐ½":7653,"1987":7654,"1958":7655,"ÐµÑĢÐµÐ´ÐºÐ¾":7656,"ĠÐ½ÐµÐ¾Ð±ÑħÐ¾Ð´Ð¸Ð¼Ð¾ÑģÑĤÐ¸":7657,"ĠÐ¼Ð°ÑĪÐ¸Ð½Ñĭ":7658,"ĠÐ·Ð½Ð°Ð½Ð¸Ñı":7659,"ĠÐ¼ÑĥÐ·ÑĭÐºÐ°Ð»ÑĮÐ½ÑĭÐ¹":7660,"ĠÐŁÐ»Ð°ÑĤÐ¾Ð½Ð°":7661,"ĠÑģÐµÑĢÐµÐ±ÑĢÑı":7662,"ĠÐ½Ð¸ÑĩÐµÐ³Ð¾":7663,"Ð¾ÑĤÐ¸Ð¿":7664,"ÐµÐ»Ð»Ð¸":7665,"Ð½Ð¾Ð²ÐµÑģ":7666,"ÑĤÐ°Ð¹":7667,"ĠÐłÐ¸Ð¼Ðµ":7668,"ĠÐ½Ð°ÑģÑĤÐ¾ÑıÑī":7669,"ĠÑĩÐµÑĤÐ²ÑĳÑĢÑĤ":7670,"ĠÐ·Ð°Ð±Ð¾Ð»ÐµÐ²":7671,"Ġh":7672,"ÑĤÐµÑħÐ½":7673,"ĠÐ´ÐµÐ»ÐµÐ½Ð¸Ðµ":7674,"ĠÐ³Ð°Ð»":7675,"ĠÐ¸Ð·Ð»Ð¾Ð¶":7676,"ĠÐłÐ°Ð·":7677,"Ð³Ð¾ÑĢÐ°":7678,"ÐµÑĨÐºÐ¸Ð¹":7679,"ĠÑıÐ²Ð»ÑıÐ»ÑģÑı":7680,"ÐµÐ»ÑıÑħ":7681,"1957":7682,"Ġ1908":7683,"ĠÐ¿ÑĢÐ¾Ð¼ÑĭÑĪÐ»ÐµÐ½Ð½Ð¾ÑģÑĤÑĮ":7684,"ĠÐłÐ¸Ð¼Ð°":7685,"Ð¡Ð¿Ð¾ÑĢÑĤ":7686,"ĠÐ·Ð°ÑīÐ¸ÑĤÑĭ":7687,"ĠÐ½ÐµÑĥÐ´Ð°Ñĩ":7688,"01":7689,"ber":7690,"Ð±Ð¾Ð½":7691,"Ð°Ð»Ð¸Ð¹":7692,"Ð¤Ð¾ÑĢÐ¼":7693,"ĠÑĥÐ´Ð°Ð»":7694,"ĠÐ¾ÑĤÐ´ÑĭÑħ":7695,"ĠÑģÐ¿ÐµÑĨÐ¸ÑĦ":7696,"ĠÐ¼Ð¾Ð½Ð°ÑģÑĤÑĭÑĢÑı":7697,"ĠÐ´Ð¸ÑĢÐµÐºÑĤÐ¾ÑĢ":7698,"Ð²Ð¾Ð½":7699,"Ð¾Ð²ÑĥÑİ":7700,"ÑĢÐ¸ÑĤÐ°":7701,"Ð»ÐµÑģ":7702,"ÑĢÑĥÑĪÐµÐ½Ð¸Ðµ":7703,"Ð¡Ð¸Ð±Ð¸ÑĢ":7704,"Ð¡Ð¿Ð¸ÑģÐ¾Ðº":7705,"ĠÐ¡ÐµÑĢ":7706,"ĠÑĩÑĳÑĤ":7707,"ÐŁÐ¾Ð·":7708,"1919":7709,"ĠÐ¢Ð°Ð½":7710,"Ġ400":7711,"ĠÑģÑĢÐµÐ´Ðµ":7712,"ĠÐ¾Ð±ÑīÐµÑģÑĤÐ²ÐµÐ½Ð½Ð¾Ð³Ð¾":7713,"ĠÐ¶ÐµÐ½ÑīÐ¸Ð½Ñĭ":7714,"ĠÐµÐ²ÑĢÐ¾Ð¿ÐµÐ¹ÑģÐºÐ¸Ñħ":7715,"ĠÑģÑĥÐ²ÐµÑĢ":7716,"ÑģÑıÑĩÐµ":7717,"ÑĩÐµÑģÐºÐ¾Ð³Ð¾":7718,"ÑįÐ»":7719,"ĠÐ¾Ð±Ñĭ":7720,"ĠÐ¿ÑĢÐ¸Ð³Ð»Ð°":7721,"ĠÑħÑĢÐµÐ±":7722,"ĠÐ¤Ðµ":7723,"Ð°Ð½Ð´Ð¸Ð½":7724,"Ð°Ð»Ð°Ñħ":7725,"Ð·Ð°Ð¿":7726,"ĠÐĹÐ°Ðº":7727,"ĠÑģÐ¾Ð±Ð¾ÑĢÐ°":7728,"Ð¸ÑģÑģÐ»ÐµÐ´Ð¾Ð²Ð°ÑĤÐµÐ»ÑĮ":7729,"ÐºÑĢÐ°Ñģ":7730,"ĠÑĥÑģÑĤÐ¾Ð¹ÑĩÐ¸Ð²":7731,"1947":7732,"ĠÑįÐºÐ¾Ð½Ð¾Ð¼Ð¸ÑĩÐµÑģÐºÐ¾Ð¹":7733,"ĠÑĢÐ°Ð²ÐµÐ½":7734,"Ð°ÑİÑīÐµÐ³Ð¾":7735,"Ð¾Ð²Ð°Ð»Ð¾":7736,"ĠÑĥÑĢÐ¾Ð¶":7737,"ÐĴÐ½ÐµÑĪ":7738,"ÑģÐ¿Ð¾ÑģÐ¾Ð±":7739,"ĠÐ¾ÑģÑĥÐ¶Ð´":7740,"ÐĹÐ°Ð¿":7741,"Ð¿Ð¾Ð»Ð½":7742,"ÑıÑīÐ°Ñı":7743,"1986":7744,"ĠÐ¿Ð¾ÑĩÑĳÑĤ":7745,"ĠÐ²ÑĭÐ¿ÑĥÑģÑĤ":7746,"ĠÑģÐ¾Ð´ÐµÑĢÐ¶Ð°Ð½Ð¸Ðµ":7747,"ĠÐ¼ÐµÑĢÐ¾Ð¿ÑĢÐ¸":7748,"ĠÑģÐºÐµÐ¿ÑĤ":7749,"Ð¿Ð°ÑĤ":7750,"ÐµÐ´ÑĮ":7751,"ĠÐĶÐ°Ð»ÑĮ":7752,"ÐŃÐ»ÐµÐºÑĤ":7753,"ĠÑģÑĤÐ¾Ð»Ð¸ÑĨÐµÐ¹":7754,"ĠÐºÐ°Ð¶Ð´Ð¾Ð¹":7755,"ĠÑģÐ»ÐµÐ´ÑĥÑİÑīÐ¸Ð¹":7756,"Ð¾Ð»ÑĭÐ¿":7757,"ÑĢÐ¸ÑĦÐ¼ÐµÑĤ":7758,"ĠÑģÐ°Ð½":7759,"ĠÐ½Ð°Ð¸Ð¼ÐµÐ½":7760,"Ġ1910":7761,"ĠÐ²ÑģÐ»ÐµÐ´ÑģÑĤÐ²Ð¸Ðµ":7762,"ĠÐ²ÑĢÐµÐ¼ÐµÐ½Ð°":7763,"ĠÑĢÐ¾Ð´Ð¸Ð»ÑģÑı":7764,"ĠÐ¿Ð¾ÑıÐ²Ð¸Ð»ÑģÑı":7765,"ĠÐ¿ÑĢÐµÐ²ÑĢÐ°ÑĤ":7766,"ĠÐ¾Ð±Ð¾Ð·Ð½Ð°ÑĩÐµÐ½Ð¸Ñı":7767,"Ð¸ÑĦÐ¸ÐºÐ°ÑĨÐ¸Ñı":7768,"ĠÑĤÐ¸ÑĤÑĥÐ»":7769,"ĠÐ¼Ð½Ð¾Ð³Ð¾ÑĩÐ¸ÑģÐ»ÐµÐ½Ð½ÑĭÐµ":7770,"Ð¼Ð¾Ð¼":7771,"Ð°ÑĢÐ½ÑĭÐ¹":7772,"ÐµÐ»ÑĮÐ·Ñı":7773,"ĠÐĳÑĥÐ´":7774,"ĠÐ¾Ð´Ð¾Ð±":7775,"ÑģÐºÐ°Ð·ÑĭÐ²":7776,"ĠÑĥÑģÐ»ÑĥÐ³":7777,"ĠÐ¿ÐµÑĢÐµÐ²Ð¾ÑĢÐ¾ÑĤ":7778,"ĠÑįÐ»ÐµÐºÑĤÑĢÐ¾Ð¼":7779,"ĠÑĦÐ¸Ð·Ð¸ÐºÐµ":7780,"ĠÐ¿ÑĢÐ¾Ð¼ÐµÐ¶":7781,"ĠÑĥÐ³ÑĢÐ¾Ð·":7782,"ĠÐ¾Ð±ÑĬÐµÐºÑĤÑĭ":7783,"ĠÐĴÐ¾ÑĢÐ¾Ð½ÐµÐ¶":7784,"ug":7785,"ĠÐ¼Ð¾ÑĢÐ°":7786,"ÐµÐ¹ÑģÐºÐ¾Ð³Ð¾":7787,"ĠÑģÐ²ÐµÐ´ÐµÐ½Ð¸Ñı":7788,"ĠÐºÐ¾Ð¼Ð¼ÑĥÐ½":7789,"ĠÐĲÐ½Ð³":7790,"ĠÐ¿ÑĢÐ¾ÑĨÐµÑģÑģÐ¾Ð²":7791,"ĠÑĪÑĤÑĥÑĢ":7792,"ĠÐ´Ð¶Ð°Ð·":7793,"Ð¾ÑģÐ¼Ð¾Ð½Ð°Ð²ÑĤ":7794,"Ð¸Ð½Ð¾ÑģÑĤÑĢÐ¾":7795,"Î»":7796,"Ð½Ð¾ÐºÐ¾Ð¼":7797,"ĠÐ¿Ð°Ðº":7798,"ÐµÐ½Ð½Ð¾ÑģÑĤÑĮ":7799,"ĠÐ½ÑĥÐ¶Ð´":7800,"ÑĢÐµÐ»Ð¸":7801,"ĠÐ´Ð¾Ð¶Ð´":7802,"Ð»Ð°Ð¼Ð¸":7803,"1925":7804,"ĠÑģÐ¾Ð²Ð¾ÐºÑĥÐ¿":7805,"ĠÐ¾ÑģÐ½Ð¾Ð²Ð°ÑĤÐµÐ»ÐµÐ¹":7806,"ĠÐ½Ð¾Ð²ÑĭÐ¼":7807,"ĠÐ·ÐµÐ¼Ð»ÐµÑĤÑĢÑıÑģ":7808,"Ġ1907":7809,"ĠÐ»ÐµÑģÐ°":7810,"ĠÐ¿Ð¾Ð³Ð¸Ð±Ð»Ð¾":7811,"ĠÐ´ÐµÑĢÐµÐ²ÑıÐ½":7812,"ĠÑįÑĤÐ°Ð¿":7813,"ĠÐ¿Ð¾Ð»ÑıÑĢ":7814,"ĠÐ½ÑĭÐ½ÐµÑĪ":7815,"ĠÐ½Ð¾Ñĩ":7816,"ÑĩÐµÑģÑĤÐ²Ð¾":7817,"ĠÐ¾Ð±Ð¾Ð±Ñī":7818,"ÐŀÑģÐºÐ°ÑĢ":7819,"ĠÐŃÐ¼Ð¸":7820,"ĠÐ®Ð¿Ð¸ÑĤ":7821,"ĠÐ°Ð½Ð³Ð»Ð¸Ð¹ÑģÐºÐ°Ñı":7822,"ĠÐ¾ÑĤÐºÑĢÑĭÑĤÐ¸Ñı":7823,"ĠÑĥÐ»Ð¸ÑĨÐµ":7824,"ĠÐĿÐĲÐ¢Ðŀ":7825,"Ð»ÑĥÑĪ":7826,"ÑıÑĩÐµÑģ":7827,"ÑĦÐ°Ð½ÑĤÐ°ÑģÑĤ":7828,"ĠÐ¤ÐµÐ´":7829,"ĠÐ¸ÑİÐ½Ðµ":7830,"ĠÐ¿ÑĢÐµÐ´ÑģÑĤÐ°Ð²Ð»ÐµÐ½":7831,"ĠÑĦÐµÐ²ÑĢÐ°Ð»Ðµ":7832,"ĠÐ¿ÑĢÐ¾Ð¸Ð·Ð¾ÑĪÑĳÐ»":7833,"ĠÐ°Ð´Ð¼Ð¸Ð½Ð¸ÑģÑĤÑĢÐ°ÑĨÐ¸Ð¸":7834,"ÐĲÑĢÑħ":7835,"ĠÑĦÐ¾ÑĢÐ¼Ð¸ÑĢÐ¾Ð²Ð°Ð½Ð¸Ñı":7836,"ĠÐĹÐµÐ»Ð°Ð½Ð´Ð¸Ð¸":7837,"ÐĺÐ¼ÐµÐ½Ð½Ð¾":7838,"les":7839,"ĠÑįÐ¼Ð¾":7840,"1921":7841,"ĠÑĢÐ°Ð·Ð´ÐµÐ»Ñı":7842,"ÑİÑīÑĥÑİ":7843,"Ð¾Ð»Ð¾Ð³Ð¸ÑĩÐµÑģÐºÐ¾Ð³Ð¾":7844,"ĠÐ´Ð²Ð¾Ð¹":7845,"ĠÐ½ÐµÐ¼Ñĥ":7846,"1949":7847,"ĠÐ±ÑĢÐ¸ÑĤÐ°Ð½ÑģÐºÐ°Ñı":7848,"Ð±Ð¸ÑīÐµ":7849,"ĠÑĪÐµÑģÑĤÑĮ":7850,"ĠÐĺÐ¾Ð³Ð°Ð½Ð½":7851,"ĠÐ²ÑģÑĤÑĢÐµÑĤ":7852,"ĠÐ¼Ð»ÐµÐºÐ¾Ð¿Ð¸ÑĤÐ°ÑİÑīÐ¸Ñħ":7853,"ÑĮÑĳÐ²":7854,"ÑĩÐ°Ð½":7855,"ĠÐ½Ð°ÑĢÑıÐ´Ñĥ":7856,"Ð°ÐºÐ¸Ð¸":7857,"Ð¸Ð¼Ð¾Ð¹":7858,"Ð¾Ð±Ð°":7859,"Ġ1916":7860,"ÑĢÐ°Ð½Ñģ":7861,"ĠÐĵÑĢÐ¾Ð·":7862,"ĠÐ°ÑĢÐ³":7863,"ĠÐ¾ÑģÐ½Ð¾Ð²Ð½ÑĭÐ¼":7864,"ĠÐ¿Ð°Ð¼ÑıÑĤÐ½ÑĭÐµ":7865,"ĠÐ·Ð°Ð¿Ð°Ð´Ðµ":7866,"ÐŁÑĢÐ¾Ð¸Ð·":7867,"ĠÐ´Ð¾ÑģÑĤÐ¸Ð¶ÐµÐ½Ð¸Ñı":7868,"ĠÐ´ÐµÐ¼Ð¾Ð½ÑģÑĤÑĢÐ°":7869,"ĠÐ´Ð¸ÑģÑģ":7870,"ĠÑĤÐµÑģÑĤ":7871,"Ð¾Ð±Ð¸Ð»ÑĮ":7872,"Ð¾ÑģÑĤÐ¾ÑıÐ½":7873,"ĠÐ¿Ð¾Ð´Ð·ÐµÐ¼":7874,"ĠÐ°Ð²ÑĤÐ¾ÑĢÐ°":7875,"Ð§Ð»ÐµÐ½Ñĭ":7876,"ĠÐ½Ð°Ð·Ð²Ð°Ð½":7877,"ĠÐ¸Ð·Ð²ÐµÑģÑĤÐ½Ñĭ":7878,"Ġ1904":7879,"Ð°ÑīÐ¸Ðµ":7880,"ĠÐ¾ÐºÐ¾Ð½ÑĩÐ°Ð½Ð¸Ñı":7881,"ĠÐ¿ÑĢÐ¾Ð¿Ð¾Ð²ÐµÐ´":7882,"ĠÐ³Ð»Ð¾Ð±":7883,"ĠÑĤÐ°Ð±Ð»Ð¸":7884,"ĠÐĽÑĮÐ²Ð¾Ð²":7885,"Ð°ÑĨ":7886,"ĠÐ±ÑĢÐ°Ð·Ð¸Ð»ÑĮ":7887,"ÐĴÐ¸Ðº":7888,"ÐµÐ²ÑĢÐ°Ð»ÑĮ":7889,"ĠÐļÐĵÐĳ":7890,"1922":7891,"ÐµÑģÐ»Ð¸":7892,"ĠÐĿÐ°ÑĥÐºÐ°":7893,"ĠÑģÑĤÐ¾ÑĢÐ¾Ð½Ðµ":7894,"ĠÑİÐ¶Ð½Ð¾Ð¹":7895,"ĠÑģÐµÐ»ÑĮÑģÐºÐ¾Ð³Ð¾":7896,"ĠÐ¾ÑĤÑģÑĥÑĤÑģÑĤÐ²Ð¸Ðµ":7897,"Ð°Ð¾":7898,"Ð¿Ð¾Ð»ÑĮ":7899,"ĠÐ½Ñĥ":7900,"Ð±ÐµÐ»":7901,"ÐŁÑĢÐ¾Ð´":7902,"ĠÐ¸Ð·Ð½Ð°Ñĩ":7903,"ÐºÐ¾Ð²ÑĮ":7904,"Ð´ÐµÐ³":7905,"ÑĥÑħÐ°":7906,"ĠÑģÐ²ÑıÐ·Ð°Ð½":7907,"ĠÐĴÐµÐ»Ð¸ÐºÐ¾Ð±ÑĢÐ¸ÑĤÐ°Ð½Ð¸Ñı":7908,"Ð°Ð»Ð¸Ð·Ð°ÑĨÐ¸Ñı":7909,"ĠÑģÐ¾Ð±ÑĢÐ°Ð½Ð¸Ñı":7910,"ĠÑģÑĤÐ°ÑĢÐµÐ¹":7911,"ÐĹÐ°ÑĤÐµÐ¼":7912,"++":7913,"Ð¼ÐµÐ½Ð°":7914,"Ð¶Ð½ÑĭÐ¹":7915,"Ð°Ð´ÑĮ":7916,"ĠÐĽÐ¸Ð½":7917,"ĠÐ¢Ð°Ð´Ð¶Ð¸Ðº":7918,"Ð²ÐµÑĢÑħ":7919,"ÑĮÑıÐ¼Ð¸":7920,"ĠÐºÐ¸Ð½ÐµÐ¼Ð°ÑĤ":7921,"ĠÐ¾ÑĤÐ»Ð¸ÑĩÐ°ÐµÑĤÑģÑı":7922,"ĠÐ½Ð°ÑĩÐ¸Ð½Ð°ÐµÑĤ":7923,"ĠÑĢÑıÐ´Ðµ":7924,"ĠÑĤÑı":7925,"ÑĢÑĥÐ³Ð¾Ðµ":7926,"ÐµÐ»ÑĮÑĦ":7927,"ĠÑĢÐµÐ±":7928,"ÑĥÑĢÑģ":7929,"ÐµÐºÐ¸":7930,"ĠÑĪÐ¸ÑĢÐ¸":7931,"Ð¾ÑĢÐ°Ð¼Ð¸":7932,"ĠÐ¸ÑģÑĤÐ¾ÑĢÐ¸ÑĩÐµÑģÐºÐ¸Ñħ":7933,"inux":7934,"ĠÑĢÐµÐ»Ð¸Ð³Ð¸Ð¾Ð·Ð½ÑĭÑħ":7935,"ÐļÐ¾Ð¼Ð¿":7936,"ĠÐŁÐ¾Ð»ÑĮÑĪÐµ":7937,"ĠÑĨÐµÐ½ÑĤÑĢÐ°Ð»ÑĮÐ½Ð¾Ð¹":7938,"ĠÑĥÑģÑĤÑĢÐ¾Ð¹ÑģÑĤÐ²Ð¾":7939,"ĠÐ¿ÑĢÐµÐ¾Ð±Ð»Ð°Ð´Ð°":7940,"ÐłÐµÐ»Ð¸Ð³Ð¸Ð¾Ð·Ð½ÑĭÐµ":7941,"ĠÑģÐ¾ÐºÑĢÐ°ÑĤ":7942,"ĠÑģÑĢÐ°Ð¶ÐµÐ½Ð¸Ðµ":7943,"ÑĨÐ²ÐµÑĤ":7944,"Ð°ÑĤÐ¸ÑģÑĤ":7945,"ÑĦÐ¸Ð»Ð¾ÑģÐ¾ÑĦ":7946,"ĠÑĥÑģÐºÐ¾ÑĢ":7947,"Ð¡Ð¸ÑģÑĤÐµÐ¼":7948,"ĠÑĦÑĢÐ°Ð³Ð¼ÐµÐ½ÑĤ":7949,"Ð¸Ð²Ð°Ð»Ð¸":7950,"Ð°Ð´Ñĥ":7951,"ÐĲÑĤ":7952,"ÑĳÐ½Ð½ÑĥÑİ":7953,"ÐĹÐ½Ð°Ñĩ":7954,"ĠÐ¿Ð°ÑĢÐº":7955,"ĠAn":7956,"ĠÐ¿Ð¾ÑıÐ²Ð¸Ð»Ð°ÑģÑĮ":7957,"ĠÐ²Ð»Ð¸ÑıÐ½Ð¸Ñı":7958,"ĠÐĽÐµÐ¹Ð±":7959,"ĠÃ":7960,"ĠÐ½ÐµÐ½":7961,"ĠÐ¿ÑĢÐ¾Ð½Ð¸Ðº":7962,"ĠÐľÐµÑĢ":7963,"ĠÐĵÐµÑĢÐ°":7964,"ÐļÐ½Ð¸":7965,"ĠÐĳÑĢÐ°":7966,"ĠÐ¿Ð¾Ð»Ð½Ð¾":7967,"ĠÑĪÐ¾ÑĤ":7968,"Ð¾ÑĦÐ¸":7969,"ĠÐ¾ÑĤÐºÑĢÑĭÐ»ÑģÑı":7970,"ĠÑĤÐµÐ»ÐµÑĦÐ¾Ð½":7971,"ĠÐ¾ÑĤÐ½Ð¾ÑģÐ¸ÑĤÐµÐ»ÑĮÐ½Ð¾ÑģÑĤÐ¸":7972,"ĠÐ¿ÑĢÐ¸Ð¼ÐµÐ½ÑıÐµÑĤÑģÑı":7973,"ĠÐ´ÐµÐ»Ð°ÐµÑĤ":7974,"ĠÐ¿Ð»Ð°ÑĤÑĦÐ¾ÑĢÐ¼":7975,"ÐĿÐ¸ÐºÐ¾Ð»":7976,"ĠÐĵÑĢÐ¸Ð³Ð¾ÑĢÐ¸Ð¹":7977,"ÐĳÐ¸Ð¾Ð³ÑĢÐ°ÑĦÐ¸Ñı":7978,"ÐĴÐ¼ÐµÑģÑĤÐµ":7979,"ĠÐ²ÑĭÑģÐºÐ°Ð·":7980,"ĠÐĶÐ¸Ð¾Ð½":7981,"Ð³ÑĢÐ°Ð´Ð°":7982,"ĠÐ½Ð°ÑħÐ¾Ð´Ð¸Ð»ÑģÑı":7983,"ĠÐ´Ð¾ÑģÑĤÐ°Ð²":7984,"ĠÑĢÐµÐ·ÑĥÐ»ÑĮÑĤÐ°ÑĤÑĭ":7985,"ĠÐ°Ð²ÑĤÐ¾ÑĢÐ¾Ð²":7986,"ĠÐºÐ°Ð·Ð°Ñħ":7987,"ĠÐ¿ÑĢÐ¸Ð¼ÐµÐ½Ñı":7988,"ĠÐ²ÑģÑĤÑĢÐµÑĩÐ°ÐµÑĤÑģÑı":7989,"ĠÐĵÐµÐ¾ÑĢÐ³Ð¸Ð¹":7990,"our":7991,"ÐµÐµÐ²Ð¸Ñĩ":7992,"ĠÐ²ÐµÑĢÑĪ":7993,"ÐµÐ´Ð»Ð¸Ð²":7994,"ĠÐ¿ÑĢÐ¸Ð³Ð¾Ð²Ð¾ÑĢ":7995,"Ð¸Ð·ÐµÐ¼":7996,"ĠÐŁÑĮÐµÑĢ":7997,"ĠÐĳÐ¸Ð±Ð»Ð¸":7998,"ÑīÐµÐ³Ð¾ÑģÑı":7999,"ÑĳÐ½Ð½Ð¾ÑģÑĤÐ¸":8000,"Ð°Ð½ÑĤÑĭ":8001,"ĠÑģÑĢÐµÐ´Ð½ÐµÐ¹":8002,"ĠÐ¿Ð¾Ð»ÑĥÑĩÐ°ÐµÑĤ":8003,"ĠÑİÑĢÐ¸Ð´":8004,"Ġ1931":8005,"1948":8006,"Ġ1953":8007,"ĠÐ´ÑĢÐµÐ²Ð½ÐµÐ³ÑĢÐµÑĩÐµ":8008,"ĠÐ¾Ð±ÑĬÐµÐºÑĤÐ°":8009,"ĠÐļÐ°Ð½Ð°Ð´Ñĭ":8010,"ĠÑĤÑĥÑĢÐ½Ð¸":8011,"ĠÐ½Ð°ÑģÐµÐ»ÐµÐ½Ð¸ÐµÐ¼":8012,"Ð½Ð¾ÐºÐ¾Ð¼Ð°Ð½Ð´":8013,"Ð»ÑĳÑĤ":8014,"ÑĢÑĥÑīÑĳ":8015,"ÐĴÑĤÐ¾ÑĢÐ°Ñı":8016,"ĠÐŁÐ¾Ð¿":8017,"1929":8018,"ÐłÐ°Ð½":8019,"ĠÑħÐ°Ð½":8020,"ÑĳÐ½Ð½Ð¾Ð¼":8021,"ĠÐ¿ÑĢÐµÐ¶":8022,"Ġ36":8023,"ĠÑģÐµÐ¼ÑĮÐµ":8024,"ĠÑĤÐµÐºÑģÑĤÐ°":8025,"ĠÐ¸ÑģÐºÐ»ÑİÑĩÐ¸ÑĤÐµÐ»ÑĮÐ½Ð¾":8026,"ĠÐľÐ¾ÑģÐºÐ¾Ð²ÑģÐºÐ¾Ð¹":8027,"ĠÐ¿ÑĢÐµÐ´ÑģÐµÐ´Ð°ÑĤÐµÐ»Ñı":8028,"ĠÐºÑĢÐ°Ð¹Ð½Ðµ":8029,"ĠÐ¡Ð¾ÑĨÐ¸Ð°Ð»Ð¸ÑģÑĤÐ¸ÑĩÐµÑģÐºÐ¾Ð³Ð¾":8030,"03":8031,"ĠÐ¿ÑĢÐ¾Ð·Ð°Ð¸Ðº":8032,"Ð¸ÑĤÐµÐ»ÑĮÐ½ÑĥÑİ":8033,"ĠÐ¿Ð¾ÑģÐµÐ»ÐµÐ½Ð¸Ñı":8034,"ĠÑĢÐ°Ð±Ð¾ÑĤÐ°ÐµÑĤ":8035,"1934":8036,"ĠÐ½Ð°ÑĨÐ¸Ð¾Ð½Ð°Ð»ÑĮÐ½ÑĭÑħ":8037,"ĠÐ¿ÑĢÐ¾ÑĨÐµÑģÑģÐ°":8038,"ĠÐ²ÑĭÑģÑĤÑĥÐ¿Ð¸Ð»":8039,"ĠÐ¾Ð±ÑĬÐµÐ´Ð¸Ð½ÐµÐ½Ð¸Ñı":8040,"ĠÐ¿Ð¸ÑģÑĮÐ¼Ð°":8041,"ĠÐ¿ÑĢÐ¾Ð²ÐµÐ´ÐµÐ½Ð¸Ñı":8042,"ĠÐ¼Ð¸ÑĦÐ¾Ð»Ð¾Ð³Ð¸Ð¸":8043,"Ð»Ð°ÑĤÑĭ":8044,"ĠÑģÐµÐ¹ÑĩÐ°Ñģ":8045,"Ð¾Ð»Ð¾Ñĩ":8046,"Ð¡ÐµÑĢÐ³":8047,"ĠÑģÑĤÐµÐº":8048,"ĠÐļÐ°ÑģÑĤ":8049,"ĠÐĿÐµÐ¿":8050,"ĠÐ±Ð¾Ð»ÑĮÑĪÐ¾Ð³Ð¾":8051,"ang":8052,"end":8053,"ĠÐ½ÐµÐ¼ÐµÑĨÐºÐ¸Ñħ":8054,"ĠÐ¸Ð½Ð´ÑĥÑģÑĤ":8055,"ĠÐ²Ð¾Ð·Ð²ÑĭÑĪ":8056,"ĠÐ»Ð°ÑĤÐ¸Ð½":8057,"ĠÐ´ÑĥÑĪÐ¸":8058,"ĠÑģÐ¾ÑģÑĢÐµÐ´Ð¾ÑĤÐ¾Ñĩ":8059,"02":8060,"ÐºÐ°ÑĢ":8061,"ĠÐ¼ÐµÑĩ":8062,"ĠÐĲÐ¿":8063,"ĠÐĿÐµÐ¼":8064,"Ð²Ð°ÑĢÐ¸":8065,"ĠÐĺÑģÐ°":8066,"ÐĽÑĥ":8067,"Ð¾Ð·Ð´Ð½ÐµÐµ":8068,"ĠÑĥÑĤÐ²ÐµÑĢÐ´":8069,"ĠÐĳÐµÑĢÐ»Ð¸Ð½":8070,"ĠÑıÐ´ÑĢÐ°":8071,"ld":8072,"Ð»ÑıÐ»":8073,"Ð¾Ð¶Ð°Ð¹":8074,"ĠÐ¿ÑĢÐµÐ±Ñĭ":8075,"ĠÐ¸Ð·Ð´Ð°ÑĤÐµÐ»ÑĮ":8076,"ĠÐ¿ÑĢÐ¸Ð¼ÐµÐ½ÐµÐ½Ð¸Ðµ":8077,"Ð°ÑİÑīÐ¸ÑħÑģÑı":8078,"Ð½ÐµÑĢÑĥÑģ":8079,"ET":8080,"ast":8081,"ÐºÑĥÑİ":8082,"ĠÐ¼Ð°Ð¹":8083,"ĠÐļÐĿÐł":8084,"ĠÐ½Ð°ÑĩÐ°Ð»ÑģÑı":8085,"1954":8086,"ĠÐ·Ð²Ð°Ð½Ð¸Ðµ":8087,"ĠÐ¾ÑĤÐ´ÐµÐ»ÑĮÐ½ÑĭÐµ":8088,"ĠÑģÐµÐºÑĢÐµÑĤÐ°ÑĢÑĮ":8089,"ĠÐ¿Ð¾ÑģÑĢÐµÐ´ÑģÑĤÐ²Ð¾Ð¼":8090,"ĠÑĤÐµÑĢÐ°":8091,"Ð°Ð²ÑĪÐµÐµ":8092,"ĠÐĶÐ°Ð½":8093,"ÑĤÐ°ÑĨÐ¸Ð¸":8094,"ÐĺÑģ":8095,"2018":8096,"ĠÐ¼ÐµÑģÑĤÐ°Ñħ":8097,"ĠÑĢÐ°Ð±Ð¾ÑĤÐ°ÑĤÑĮ":8098,"ĠÐ¿Ð¾Ð´Ð¿Ð¸ÑģÐ°Ð»":8099,"ĠÑĦÑĥÑĤÐ±Ð¾Ð»Ñĥ":8100,"ĠÐ¿Ð°ÑĢÐ»Ð°Ð¼ÐµÐ½ÑĤÑģÐºÐ¸Ñħ":8101,"Ð¾Ð²ÑĭÐ¼Ð¸":8102,"ĠÐºÑĥ":8103,"ĠÑģÑĤÐ¸Ð»Ðµ":8104,"ĠÐ»Ð¾Ð¶":8105,"ÐºÐ¾Ð²Ð¾Ð¹":8106,"ÐĺÑĤ":8107,"ĠÐ³Ð»Ð°Ð²Ð½ÑĭÑħ":8108,"ĠÐ»Ð¸ÑĤÐµÑĢÐ°ÑĤÑĥÑĢÐ°":8109,"ĠÐ¸ÑģÑĤÐ¾ÑĩÐ½Ð¸ÐºÐ¾Ð²":8110,"ĠÐ¿Ð¾ÑĢÑıÐ´ÐºÐµ":8111,"ĠÐļÐ°ÑģÐ¿":8112,"ĠÐ¿ÐµÑĢÐµÐ¶":8113,"ÐłÐ°Ñģ":8114,"ÐľÐµÐ½":8115,"ÑĥÑīÐµÐµ":8116,"ÑĥÑīÐµÐ½Ð°":8117,"ĠÐ¼ÐµÐ´Ð°Ð»ÑĮ":8118,"ĠÑĤÑĭÑģÑıÑĩÐµ":8119,"ĠÐ¿ÑĢÐ¸Ð·Ð½Ð°":8120,"ĠÐ½Ð°ÑĩÐ°Ð»Ð¾Ð¼":8121,"ĠÐºÐ¾Ð½ÑģÑĤÑĢÑĥÐºÑĨÐ¸Ð¸":8122,"Ð¾ÑĢÑıÐ¶":8123,"ÐµÐ¼ÑĭÐ¼":8124,"ĠÐļÐ¸ÑĢÐ¾Ð²":8125,"ĠÐľÐ°ÐºÑģ":8126,"ĠÐŁÐ°ÑĤÑĢÐ¸":8127,"Ð¸ÑģÑĤÑģÐºÐ¾Ð¹":8128,"ĠÑħÐ»Ð¾ÑĢ":8129,"ÐĺÑģÐº":8130,"ÐĺÑģÑģÐ»ÐµÐ´":8131,"Ð£ÑģÑĤÐ°Ð½Ð¾Ð²":8132,"ĠÐ½Ð¾Ð²ÑĥÑİ":8133,"ĠÑģÐ²ÑıÐ·Ð°Ð½Ñĭ":8134,"Ð¾ÑħÐ¸Ð¼":8135,"ĠÐ´Ð°Ð½Ð½Ð¾Ð¹":8136,"1933":8137,"Ð¡ÑĢÐµÐ´Ð½ÑıÑı":8138,"ĠÐ¾ÑģÐ²Ð¾Ð±Ð¾Ð¶Ð´ÐµÐ½Ð¸Ñı":8139,"ĠÐ°ÑĦÑĢÐ¸ÐºÐ°Ð½":8140,"ÐļÐ°Ð¶Ð´":8141,"ÑĥÑĤÐ¾Ñĩ":8142,"ĠÑģÐµÑĢÐ²":8143,"ĠÑĤÐ¾Ð¶Ðµ":8144,"Ð¾Ð»ÑĮÐ´":8145,"1924":8146,"ĠÐĶÐ¾ÑģÑĤÐ¾":8147,"ÑĥÐ»ÑĮÑĦ":8148,"ĠÑĩÐ°ÑģÑĤÐ¸ÑĨÑĭ":8149,"ĠÐ´Ð¾Ð»Ñı":8150,"ÑĢÐ¾ÑģÐ¾Ð²":8151,"Ð²ÐµÐ»Ð°":8152,"ĠÐ°Ð½Ð³Ð»Ð¸Ð¹ÑģÐºÐ¾Ð³Ð¾":8153,"ÐµÑĢÐµÐ³Ð°":8154,"ĠÑģÐ¾Ð³Ð»Ð°ÑĪÐµÐ½Ð¸Ñı":8155,"ĠÐ·Ð°ÑħÐ²Ð°ÑĤÐ¸Ð»Ð¸":8156,"ĠÐ³ÑĢÐ°Ð¼Ð¼Ð°ÑĤ":8157,"ÐĸÐµÐ»ÐµÐ·Ð½Ð¾Ð´Ð¾ÑĢÐ¾Ð¶":8158,"Ð»ÑĭÑħ":8159,"ĠÐ¿ÑĮ":8160,"ĠÐºÐ¾Ð¶":8161,"ÑģÑĤÐ²Ð¾Ð²Ð°Ð½Ð¸Ñı":8162,"ÑģÑıÑī":8163,"ĠÐ»ÐµÐ¹":8164,"ĠÐĴÐµÑĢÑħ":8165,"ĠÐĵÐ¸Ð»ÑĮ":8166,"ÐĿÐµÐ¼":8167,"ÑģÑĤÐ²ÐµÐ½Ð½Ð¾ÑģÑĤÑĮ":8168,"ĠÑĥÑĩÐ¸ÑĤ":8169,"ÐºÑģÐ¸Ð¾Ð¼":8170,"ĠÐ¡ÑĤÐ°Ð»Ð¸Ð½Ð°":8171,"ĠÐ¿Ð¾ÑģÐ»ÐµÐ´Ð½ÐµÐ³Ð¾":8172,"ĠÐ¸Ð·Ð´Ð°Ð½Ð¸Ñı":8173,"ĠÐ¾Ð´Ð½Ð¾Ð¸Ð¼":8174,"ĠÐ½ÐµÐ´Ð¾ÑģÑĤÐ°ÑĤÐ¾Ñĩ":8175,"ĠÑĤÐµÐ»ÐµÐ²ÐµÐ´ÑĥÑīÐ¸Ð¹":8176,"ĠÑĨÐ¸ÑĦÑĢÐ¾Ð²":8177,"Ð³Ð¸Ñı":8178,"Ð°Ð²Ð¾Ð´":8179,"ĠÑįÑģÐ¿ÐµÑĢÐ°Ð½":8180,"Ð¸ÑģÑĤÐ°Ð½Ðµ":8181,"ÐĶÐ°":8182,"ÐĶÐµÐ¿":8183,"ÑĢÑĭÐ²Ð°":8184,"ĠÐ³Ð¾ÑĢÐ¾Ð´ÑģÐºÐ¸Ñħ":8185,"ĠÐ¾ÑģÐ½Ð¾Ð²Ñĥ":8186,"ĠÑģÐ°Ð¼Ð°Ñı":8187,"ĠÑģÐºÑĢÐ¸Ð¿":8188,"ĠÐ¿ÑĢÐµÐ¼Ð¸Ð¹":8189,"Ð»Ð°Ð½Ð´Ð¸Ñı":8190,"1959":8191,"ÑģÑĥÐ°":8192,"ĠÐ´Ð¾ÑĢÐ¾Ð³Ð°":8193,"ÑĤÐµÑĢÑĢÐ¸ÑĤÐ¾ÑĢ":8194,"ĠÐŁÐ°Ð²Ð»Ð°":8195,"ĠÐ¿Ð¾Ð¿ÑĭÑĤÐºÐ¸":8196,"ĠÐ´ÑĥÑĪÑĥ":8197,"ĠÐ¼Ð¾Ð½Ð°ÑģÑĤÑĭÑĢÑĮ":8198,"ĠÐĽÐ¸ÑĤÐ²Ñĭ":8199,"ĠÐ¿Ð¸ÑĢÐ°Ð¼Ð¸":8200,"ĠÐºÐ°Ð´":8201,"ĠÑĤÐ°":8202,"ĠÑĥÐ½Ð¸Ð²ÐµÑĢÑģ":8203,"ĠÐ¡Ð²ÐµÑĤ":8204,"ÐµÐ´Ð¾Ð²":8205,"ĠÑģÐ¾Ð·Ð´Ð°ÑĤÑĮ":8206,"ĠÑĦÑĥÐ½ÐºÑĨÐ¸Ñı":8207,"ĠÑĢÐµÐ²Ð¾Ð»ÑİÑĨÐ¸Ñı":8208,"ĠÑģÑĤÑĢÑĥÐºÑĤÑĥÑĢÐ°":8209,"ĠÐ¼ÐµÑģÑıÑĨÐ°":8210,"ĠÐ¿ÐµÑĢÐµÐ¼ÐµÑī":8211,"ĠÐ¿ÑĢÐ¸Ð±Ð»Ð¸Ð·":8212,"ĠÑĢÐµÐ°ÐºÑĨÐ¸Ð¸":8213,"ĠÐ¿Ð¸ÑĪÐµÑĤ":8214,"Ð¿Ñģ":8215,"âĢ¯":8216,"ĠÐ½Ð°Ð¼ÐµÑĢ":8217,"ĠÐľÐ°Ñħ":8218,"ÐĺÑħ":8219,"erm":8220,"1936":8221,"ĠÑĥÐ»Ð¸ÑĨ":8222,"ack":8223,"Ð°ÑİÑīÐ¸ÐµÑģÑı":8224,"Ð³Ð»ÑıÐ´":8225,"ĠÐ¸ÑĤÐ¾Ð³Ð°Ð¼":8226,"ĠÑģÑĥÐ»ÑĤÐ°Ð½":8227,"Ð²Ð¾ÑģÑĤÐ¾ÐºÐµ":8228,"ĠÐ¾Ð±ÑĪÐ¸ÑĢ":8229,"ĠÐĿÐ¸Ð³":8230,"ĠÐ¤ÑĢÐµÐ´":8231,"ÑĥÐ±ÐµÐ¶":8232,"ĠÑģÐ¸ÑģÑĤÐµÐ¼Ð¾Ð¹":8233,"Ð¾Ð¶Ð´ÐµÐ½Ð¸Ð¸":8234,"ĠÑıÐ½ÑĤ":8235,"Ġ1903":8236,"ĠÑģÐ¿Ð¾ÑģÐ¾Ð±ÑģÑĤÐ²Ð¾Ð²":8237,"ĠÐ·Ð°Ð¿Ð°Ð´Ð½Ð¾Ð¹":8238,"ĠÐ¿ÑĢÐ¸Ð½ÑıÐ»Ð¸":8239,"ĠÐ³Ð¾Ð²Ð¾ÑĢÐ¸ÑĤ":8240,"ĠÑģÐ¾ÑĨÐ¸Ð°Ð»ÑĮÐ½Ð¾Ð¹":8241,"ÑĤÐµÐ»ÑĮ":8242,"ÑİÐ´Ð°":8243,"ÑĪÐ°Ð²":8244,"Ð¡ÑĥÐ´":8245,"ÐłÑĥ":8246,"ĠÐ¶ÑĳÑģÑĤ":8247,"Ð°ÑĤÐµÐ»ÑĮÐ½ÑĭÐ¼":8248,"Ð°ÑİÑīÐ¸Ð¼":8249,"ĠÑģÐ²ÑıÐ·Ð°Ð½Ð½ÑĭÐµ":8250,"1983":8251,"ĠÑģÐ¼ÐµÐ½Ð¸":8252,"ĠÐ²Ð¾ÑģÐ¿Ð¸ÑĤ":8253,"ĠÐļÐ°Ð·Ð°ÑħÑģÑĤÐ°Ð½Ð°":8254,"ĠÐ´ÐµÑĢÐ¶Ð°Ð²":8255,"ĠÑĦÑĥÑĤÐ±Ð¾Ð»ÑĮÐ½ÑĭÐ¹":8256,"ÐĳÐ»Ð°Ð³Ð¾Ð´Ð°ÑĢÑı":8257,"ÑĩÐ¶":8258,"Ð¾Ð²Ð¾Ð´":8259,"ÑĦÑĢÐµÐ´":8260,"ĠÑģÑĤÐ¸Ð»Ñı":8261,"ÐµÐ»Ñĭ":8262,"ĠÐłÐµÐ¹":8263,"ĠÑĪÐ°Ð³":8264,"ĠÐ¼Ð¾ÑĢÐµÐ¿":8265,"ĠÑĢÐ°Ð²Ð½Ð¾":8266,"ĠÐ²Ð½ÐµÑģ":8267,"ĠÐ½ÐµÐ²Ð¾Ð·Ð¼Ð¾Ð¶Ð½Ð¾":8268,"ĠÑĦÐ¸Ð»Ð¾Ð»Ð¾Ð³":8269,"ĠÐ´Ð¸ÑģÑĨÐ¸Ð¿":8270,"yth":8271,"ĠÑģÐ¾Ð»Ð½":8272,"ĠÐ´ÐµÐ»Ð¸ÑĤ":8273,"ĠÑĥÐ½Ð¸Ðº":8274,"ÐµÐ²Ð¾Ð´":8275,"ĠÐ¿ÑĢÐ¸ÑĪÑĳÐ»":8276,"ĠÑįÑģÑĤÑĢÐ°":8277,"1928":8278,"ÑıÑĤÐ¾Ð¹":8279,"ĠÑĤÐµÐ»ÐµÐºÐ°Ð½":8280,"ÑĢÐ°Ð·Ð´Ð¾":8281,"ĠÐ¦ÐµÑĢÐºÐ²Ð¸":8282,"ĠÐ¾ÑĢÐ¸ÐµÐ½ÑĤ":8283,"ÐľÑĥÐ·ÑĭÐºÐ°":8284,"ĠÑĤÐµÐ»ÐµÐ²Ð¸Ð·Ð¸Ð¾Ð½":8285,".;":8286,"Ð¾ÑĢÐ¾Ð¼":8287,"ĠÐ¼Ð°ÑĤÑĮ":8288,"Ð°ÑĤÐºÐ¸":8289,"ÑĢÑĥÐµÑĤÑģÑı":8290,"ÐľÐ°Ð½":8291,"ÐľÐ¾ÑĢ":8292,"ÐµÐ·Ð¾Ð¿Ð°Ñģ":8293,"ĠÐºÐ¾Ð¼Ð¸ÑĤÐµÑĤÐ°":8294,"2017":8295,"Ð°ÑĤÐ¾ÑĢÑĭ":8296,"1932":8297,"Ð°ÑĢÐ°ÐºÑĤÐµÑĢ":8298,"ĠÐ·Ð°Ð½Ð¸Ð¼Ð°ÑİÑĤ":8299,"ĠÐĺÐ¾Ð°Ð½Ð½":8300,"ĠÐºÐ°Ð±Ð¸Ð½":8301,"ĠÐĺÑĢÐ»Ð°Ð½Ð´Ð¸Ð¸":8302,"ĠÐ¥ÑĢÐ¸ÑģÑĤÐ°":8303,"ĠÐµÐ¶ÐµÐ³Ð¾Ð´Ð½Ð¾":8304,"ĠÐ½ÑĥÐ¶Ð½Ð¾":8305,"ÑĢÐ¾Ð¶Ð´ÐµÐ½Ð¸Ñı":8306,"ÑĢÑįÐ½":8307,"ÐµÐ½Ð½Ð¾Ð¼":8308,"Ð¾Ð²ÑģÐºÐ¾Ð³Ð¾":8309,"ĠÐ¼ÐµÑĢÑĭ":8310,"ĠÑĥÐ»":8311,"ÐºÐ¾Ð½ÑĤ":8312,"ÐĽÐµÐ²":8313,"ĠÐĹÐ°ÐºÐ¾Ð½":8314,"ĠÐ¾ÑĤÐºÑĢÑĭÑĤÐ¾":8315,"ĠÐ¶Ð¸Ð·Ð½":8316,"ĠÑģÐµÐ¼ÑĮ":8317,"ĠÑĢÐ°ÑģÐ¿Ð¾Ð»Ð¾Ð¶ÐµÐ½Ð°":8318,"ĠÐ¸ÑĤÐ¾Ð³Ðµ":8319,"ĠÑĤÑİÑĢÑĮ":8320,"Ð¼Ð±":8321,"ÐµÐ½ÑĨÐµÐ²":8322,"ÑĩÑĤÐ¾":8323,"Ð¿ÑĢÐ¾":8324,"Ð¾Ð´ÐµÑĢÐ¶":8325,"ÐĴÐĶ":8326,"ĠÑģÑĤÐ°ÑĢÑĤ":8327,"ĠÐ¿ÐµÑĢÑģÐ¾Ð½":8328,"ĠÐ¿Ð¾Ð»Ñİ":8329,"ĠÐĽÐ¾ÑĢ":8330,"ĠÐ¦ÐµÐ·":8331,"ĠÐºÐ»Ð°ÑģÑģÐ¸ÑĩÐµÑģÐºÐ¾Ð¹":8332,"1955":8333,"ĠÑĤÐµÑħÐ½Ð¾Ð»Ð¾Ð³Ð¸Ð¸":8334,"ĠÐ¿ÑģÐ¸ÑħÐ¾Ð»Ð¾Ð³":8335,"ĠÐ¿Ð»Ð¾ÑģÐº":8336,"ÐĿÐ°ÑĨÐ¸Ð¾Ð½Ð°Ð»ÑĮÐ½ÑĭÐµ":8337,"ĠÐĴÐ¸Ð·Ð°Ð½ÑĤÐ¸Ð¸":8338,"Ð¾Ð»Ð»":8339,"ÑĩÐµÑģÐºÐ°Ñı":8340,"Ð¸Ð¼Ð¸ÑĢÐ¾Ð²":8341,"ĠÐ¡Ð¾ÐµÐ´Ð¸Ð½":8342,"ĠÑģÑĤÑĥÐ¿":8343,"ÐĿÐĶÐł":8344,"ÑĤÐ¾ÑĢÐ¾Ð¼":8345,"Ġ75":8346,"Ð¸ÑĢÐ¾Ð²Ð°Ð½Ð½ÑĭÐ¹":8347,"ĠÐ¼ÐµÑħÐ°Ð½Ð¸ÐºÐ¸":8348,"ĠÐ·Ð°Ð´Ð°ÑĩÐ¸":8349,"ĠÐ°Ð¿Ð¾ÑģÑĤ":8350,"ĠÐ²ÑĭÑĩÐ¸ÑģÐ»Ð¸ÑĤÐµÐ»ÑĮ":8351,"ĠÐĴÐĴÐ¡":8352,"ĠÑģÐ´ÐµÐ»Ð°ÑĤÑĮ":8353,"ĠÐ¿ÑĢÐ¾Ð´ÑĥÐºÑĨÐ¸Ð¸":8354,"ĠÐ³Ð¾ÑģÑĤ":8355,"Ð¸Ð²Ð½Ð¾Ðµ":8356,"ĠÐĵÐ°Ð±":8357,"ÐļÐ¾ÑģÐ¼":8358,"ĠÐ¤ÐµÐ¾Ð´":8359,"Ð¸ÑĩÐ½Ð°Ñı":8360,"Ð¾ÑıÐ·ÑĭÑĩ":8361,"Ð°Ð³ÑĢÐ°":8362,"ĠÐ¼ÐµÑģÑĤÐ½Ð¾Ð³Ð¾":8363,"ĠÐ´Ð°Ð½Ð½ÑĭÐ¹":8364,"Ð¸ÑĢÐ¾Ð²Ð°Ð½Ð½Ð¾Ð¹":8365,"ĠXXI":8366,"ĠÐºÐ»Ð°Ð´Ð±Ð¸ÑīÐµ":8367,"ÑĦÐ¸Ð¼":8368,"ÐļÐ¡":8369,"Ð°Ð¿Ð°Ð·":8370,"ĠÐ¿Ð¸ÑģÐ°ÑĤÐµÐ»Ñı":8371,"ĠÑĢÐ°Ð·Ð²Ð¸ÑĤÐ¸Ñİ":8372,"1935":8373,"ĠÐ°ÑĢÑħÐ¸ÑĤÐµÐºÑĤÑĥÑĢ":8374,"ÑĪÑĤÐµÐ¹Ð½":8375,"ĠÐ³ÑĢÐ°ÑĦÐ¸Ðº":8376,"ÐĹÐ¾Ð»Ð¾ÑĤÐ¾Ð¹":8377,"ÑģÐµÐ»":8378,"ĠÐ¼ÑĥÐ´":8379,"ÑĪÐ»Ð¾":8380,"Ð°ÑĢÐ°ÑĤÐ°":8381,"Ġ1955":8382,"ĠÐ¿ÑĢÐ¾Ð¸Ð·Ð¾ÑĪÐ»Ð°":8383,"ĠÐ·Ð°Ð³ÑĢÑı":8384,"ĠÐĽÐµÐ¾Ð½Ð¸Ð´":8385,"ĠÑĤÐµÑĢÐ¼Ð¾Ð´Ð¸Ð½Ð°Ð¼":8386,"ĠÐľÐ°ÑĢÑĤÐ¸Ð½":8387,"ĠÐ¿ÐµÑĤ":8388,"ĠÐ±Ð¾Ð¹":8389,"Ð°ÑĢÐ½Ð¾Ð³Ð¾":8390,"ĠÑĥÐ²Ð¸Ð´":8391,"Ð½Ð°Ñħ":8392,"ÐºÐ¾Ð²ÑĭÑħ":8393,"ÐĶÐ¸":8394,"ĠÐ¾ÐºÑĢÐµÑģÑĤ":8395,"Ð²ÐµÐ´ÐµÐ½Ð¸Ðµ":8396,"ĠÐ¼Ð½ÐµÐ½Ð¸Ðµ":8397,"ĠÐ¸ÑģÐ¿Ð¾Ð»ÑĮÐ·Ð¾Ð²Ð°Ð½Ð¸ÐµÐ¼":8398,"ÐµÑģÑģÐ°":8399,"ĠÐ³Ð»Ð°Ð²Ð¾Ð¹":8400,"ĠÐ´Ð°Ð½Ð½Ð¾Ð³Ð¾":8401,"ĠÐļÐ¾Ð½Ð³Ð¾":8402,"ĠÐ¼Ð¸ÑĢÐ¾Ð²Ð°Ñı":8403,"ĠÐ¼ÐµÐ¶Ð´ÑĥÐ½Ð°ÑĢÐ¾Ð´Ð½Ð¾Ð¹":8404,"ĠÐĵÐ¾ÑģÑĥÐ´Ð°ÑĢÑģÑĤÐ²ÐµÐ½Ð½Ð¾Ð³Ð¾":8405,"ĠÑħÐ¾Ð·ÑıÐ¹ÑģÑĤÐ²Ð¾":8406,"ĠÐ¼Ð°Ð»ÐµÐ½ÑĮ":8407,"ĠÐļÐ¾Ð½ÑģÑĤÐ°Ð½ÑĤÐ¸Ð½Ð¾Ð¿Ð¾Ð»ÑĮ":8408,"ĠÐ¾Ð±ÑĬÑıÑģÐ½":8409,"ĠÐŀÐºÑĤÑıÐ±ÑĢÑĮ":8410,"ĠÐºÐ°ÑĤÐµÐ³Ð¾ÑĢÐ¸Ð¸":8411,"ĠÑĥÐ¿ÑĢÐ°Ð·Ð´Ð½":8412,"ĠÐ¾ÑīÑĥÑī":8413,"ÑĢÐ¾Ð½Ð°":8414,"ĠÐ½ÐµÐ»ÑĮÐ·Ñı":8415,"ĠÐ´ÐµÑĢ":8416,"ĠÐ¿ÑĢÐ¾Ðµ":8417,"ĠÐĲÐ´Ð°Ð¼":8418,"ÐĵÐµÑĢ":8419,"Ð½Ð°ÐºÐ¾Ð¼":8420,"ĠÑģÐµÐ¼Ð¸":8421,"ĠÐ½ÐµÐ¹ÑĤ":8422,"ĠÑĤÑĥÑĢÐ¸Ð·":8423,"ĠÐĵÐµÐ½ÑĢÐ¸ÑħÐ°":8424,"ÐĲÐ´Ð¼Ð¸Ð½Ð¸ÑģÑĤÑĢÐ°ÑĤÐ¸Ð²":8425,"ÑħÑĥÐ´":8426,"ĠÑĤÐµÐ½Ð´":8427,"Ġ1915":8428,"ĠÑĨÐ¸ÑĤ":8429,"ÐĳÐ¾ÑĢ":8430,"ĠÐ¡ÑĤÐµÑĦ":8431,"ĠÐ¿Ð¾ÐºÑĥÐ¿":8432,"ĠÐ¼Ð¸Ð»Ð»Ð¸Ð¾Ð½Ð°":8433,"ĠÑĥÐ»Ð¸ÑĨÑĭ":8434,"ĠÐ²Ð¸ÑĢÑĤÑĥ":8435,"ĠÐºÐ¾ÑģÑĤ":8436,"Ð»ÐµÐ½Ð½Ð¾":8437,"ĠÐ²Ð¾Ð·Ð¾Ð±Ð½Ð¾Ð²":8438,"Ð¸Ð·Ð¼Ð¾Ð²":8439,"Ð²Ð¸Ð¶ÐµÐ½Ð¸Ðµ":8440,"06":8441,"Ð»Ð°Ð½Ð°":8442,"Ð²Ð°Ð´":8443,"ĠÐ½Ð¾ÑĩÑĮ":8444,"Ð»Ð¸ÐºÐ°":8445,"ĠÐ´ÑĭÑħ":8446,"ĠÑĢÐ°Ð´Ð¸Ðº":8447,"ÑģÑģÑĭ":8448,"ĠÐ¿Ð¾Ð´Ð½Ñı":8449,"ĠÐ¿ÑĢÐµÐ´Ð¿Ð¾Ñĩ":8450,"Ð»ÑİÐ¼Ð¸Ð½":8451,"Ð»ÐµÑĤÐ½Ð¸Ð¹":8452,"ĠÑĥÑĢÐ¾Ð²Ð½ÐµÐ¼":8453,"ĠÐºÐ²Ð°ÑĢ":8454,"ÑģÐµÑĢÐ¾ÑģÑģÐ¸Ð¹":8455,"ĠÑĤÑĢÐµÐ±Ð¾Ð²Ð°Ð½Ð¸Ñı":8456,"ĠÐºÐ¸ÑģÐ»":8457,"ĠÑĢÐµÑĩÑĮ":8458,"ak":8459,"ÐµÑĢÐµÐ¹":8460,"ĠÐĴÐµÑģÑĤ":8461,"ÐŀÐ´Ð¸Ð½":8462,"ĠÐ½Ð°ÑĩÐ°Ð»ÑĮ":8463,"ĠÐłÐ¾ÑģÑģÐ¸Ñİ":8464,"ĠÐ³ÑĢÐ°Ð¼Ð¾ÑĤ":8465,"ĠÑİÐ³":8466,"ÐµÑĢÐ¸Ð¾Ð´":8467,"ĠÐ¸Ð·Ð´Ð°Ð½Ð¸Ðµ":8468,"1905":8469,"ĠÑģÑĤÐ°ÑĤÑĮÐ¸":8470,"ĠÐ¿ÑĢÐ¸ÑĩÐ¸Ð½Ð¾Ð¹":8471,"ÑĦÐ¸Ð»ÑĮÐ¼":8472,"ĠÐ¡Ð¾ÐºÑĢÐ°ÑĤÐ°":8473,"ÑĥÑĢÐ¸ÑģÑĤ":8474,"Ð¾Ð³Ð¸Ð±Ð»Ð¸":8475,"ĠÐ½Ð°ÑĥÐºÐ°":8476,"ĠÐ¾ÑĤÑĤ":8477,"ĠÐļÑĥ":8478,"Ð»ÐµÐ½Ð´":8479,"ÐĶÐµÑĤ":8480,"ĠÐ¥Ð¾Ðº":8481,"ĠÐ¿ÑĢÐ¾Ð´Ð°Ð¶":8482,"ÐºÐ¾Ð¼Ð°":8483,"ĠÐ¿ÐµÑĢÐµÐ¸Ð·":8484,"ĠÑĥÑĩÑĳÐ½ÑĭÐµ":8485,"ĠÑĨÐ°ÑĢÑģÑĤÐ²Ð°":8486,"ĠÐ²Ð¾Ð¾ÑĢÑĥÐ¶ÑĳÐ½Ð½ÑĭÑħ":8487,"ĠÑģÐ¿Ð¾ÑĢÑĤÑģÐ¼ÐµÐ½":8488,"ĠÐ²ÐµÑĢÐ½ÑĥÐ»ÑģÑı":8489,"ĠÐºÐ¸ÑģÐ»Ð¾ÑĤÑĭ":8490,"ows":8491,"ĠÐĳÐµÐ»ÑĮÐ³Ð¸Ð¸":8492,"Ð¸Ð»ÐµÐ¹":8493,"ĠÐ²ÑĤÐ¾ÑĢÐ°Ñı":8494,"ĠÑģÐ°Ð¹ÑĤ":8495,"Ð±Ð»":8496,"ÑĪÐºÐ¾Ð¼":8497,"ÑĢÑĥÑĪÐµÐ½Ð¸Ñı":8498,"Ð¡Ð¸Ð¼":8499,"ĠÐ½ÐµÐ¿Ð¾Ð´":8500,"ÐļÐ°Ð½":8501,"ÐłÐĵ":8502,"ĠÑĦÑĢÐ°Ð½ÑĨÑĥÐ·ÑģÐºÐ¾Ð¹":8503,"ĠÑģÐµÑĢÐ´":8504,"ĠÐµÐ´Ð¸Ð½ÑģÑĤÐ²ÐµÐ½Ð½ÑĭÐ¹":8505,"ĠÑįÐºÐ¾Ð½Ð¾Ð¼Ð¸ÑģÑĤ":8506,"ĠÐ±Ð¾Ð³Ð¾Ð²":8507,"ĠÐ³ÑĢÐ°Ð½Ð¸ÑĨÐµ":8508,"ÑĨÐµÐ½ÐºÐ°":8509,"ĠÑĪÑĤÐ°ÑĤ":8510,"ĠÐ²ÑĭÐ´Ð²Ð¸Ð½":8511,"ĠÑĤÐ¾Ð¿Ð»Ð¸":8512,"ĠÐ²ÐµÑĢÐ¾ÑıÑĤÐ½Ð¾":8513,"ĠÐ¼Ð°ÑģÑĪÑĤÐ°Ð±":8514,"ĠÐ²ÐµÑģÑĤ":8515,"Ð»ÑĮÐ½Ð¾Ð¹":8516,"Ð¡Ð»ÐµÐ´":8517,"ĠÐ¡Ð°ÑĤÑĥÑĢ":8518,"ÐµÐ´ÐµÐ»ÑĮ":8519,"ĠÐľÐĵÐ£":8520,"Ð¢ÑĢÐ¸":8521,"ĠÑģÑĤÑĢÐ°Ð½Ð¾Ð¹":8522,"ĠÐ¿ÐµÑĢÐµÐ´Ð°":8523,"Ð±Ð¾Ð»Ð¸ÑģÑĤ":8524,"ĠÐºÐ°ÑĤÐ°ÑģÑĤÑĢÐ¾ÑĦ":8525,"ĠÐ¾Ð¿Ð¸ÑģÐ°Ð½Ð¸Ñı":8526,"ĠÐ³ÐµÑĢÐ¾Ð¹":8527,"ĠÐ±Ð°Ð½ÐºÐ¾Ð²":8528,"ÑĤÐµÐ½Ð°Ð½ÑĤ":8529,"ÐŁÑĢÐ°Ð²Ð¾ÑģÐ»Ð°Ð²Ð¸Ðµ":8530,"ÐĿÐ¸ÐºÐ¾Ð»Ð°Ð¹":8531,"08":8532,"che":8533,"|-":8534,"ÐºÐ¾Ð»ÑĮ":8535,"ĠÑģÐ½":8536,"ÑĦÐ¸Ð½":8537,"ĠÐ·Ð½Ð°":8538,"ĠÐ·Ð¾Ð½Ðµ":8539,"Ð¸Ð»Ð»ÐµÑĢ":8540,"ÐµÐ½ÑĮÐµ":8541,"ĠÑģÐ²ÑıÐ·Ð°Ð½Ð½ÑĭÑħ":8542,"ĠÐ´Ð¸Ð°Ð»Ð¾Ð³":8543,"ĠÐ·ÐµÐ¼Ð»Ñİ":8544,"ĠÐ·Ð°Ð¼ÐµÑĩ":8545,"ĠÐ¼ÐµÐ¶Ð´ÑĥÐ½Ð°ÑĢÐ¾Ð´Ð½ÑĭÐ¹":8546,"ÐĴÑĭÐ¿ÑĥÑģÐº":8547,"ÐŀÐ±ÑĢÐ°Ð·Ð¾Ð²Ð°Ð½Ð¸Ðµ":8548,"ÐļÑĥÐ»ÑĮÑĤÑĥÑĢÐ°":8549,"100":8550,"Î¼":8551,"ĠÐĲÐº":8552,"ĠÐłÐ¾Ð¶Ð´Ðµ":8553,"ÐłÐµÐ·":8554,"ÐµÑģÐ¸":8555,"Ð¸ÑĢÐ¾Ð²Ð°Ð½Ð¾":8556,"ĠÐ¾ÑģÐ½Ð¾Ð²Ñĭ":8557,"ĠÑĢÐ°ÑģÐ¿Ð¾ÑĢÑıÐ¶":8558,"ĠÐ§Ð°ÑĢÐ»ÑĮ":8559,"ĠÐ¿Ð°ÑĢÑĤÐ¸Ð·":8560,"ĠÐ¿ÑĢÐ°Ð²Ð¸ÑĤÐµÐ»ÑĮÑģÑĤÐ²Ð¾Ð¼":8561,"Ð°ÑĤÐ¾ÑĢÐ¸Ð¸":8562,"ĠÑĦÐ¾ÑĤÐ¾Ð³ÑĢÐ°ÑĦ":8563,"ĠÐ»ÐµÐ³ÐµÐ½Ð´":8564,"ĠÐ°ÑĤÐ¾Ð¼Ð¾Ð²":8565,"ĠÐ¿ÑĢÐ°Ð·Ð´Ð½Ð¸Ðº":8566,"ÑıÑīÐ¸ÑħÑģÑı":8567,"ĠÐ¸Ð½ÑĦÑĢÐ°ÑģÑĤÑĢÑĥÐºÑĤ":8568,"lic":8569,"Ð¾ÑıÑĤ":8570,"ĠÐ½ÑĢÐ°Ð²":8571,"ÑĨÐºÐ¾Ð¹":8572,"Ġ120":8573,"ÑīÐ¸ÐºÐ¾Ð²":8574,"Ð»ÑıÑİÑĤÑģÑı":8575,"ĠÐ»Ð¸ÑĨÐ°":8576,"ÐłÐ¸Ð¼":8577,"ĠÐ¸ÑģÐ¿Ð¾Ð²ÐµÐ´":8578,"ĠÐ¾ÑģÑĤÐ°Ð»ÑĮÐ½ÑĭÐµ":8579,"ĠÐ¦Ð¸Ð¾Ð»":8580,"ÑĥÑİÑīÐ°Ñı":8581,"ĠÐ»ÐµÑĤÐ¾Ð¼":8582,"ĠÐ½ÐµÐ¼ÐµÑĨÐºÐ°Ñı":8583,"ĠÐ¿Ð¾Ð½ÑıÑĤ":8584,"ĠÐ³Ð°Ð·ÐµÑĤÐ°":8585,"ĠÑģÐ¾Ð²ÐµÑĢÑĪÐµÐ½Ð½Ð¾":8586,"ĠÐºÑĢÑĥÐ¿Ð½ÐµÐ¹ÑĪÐ¸Ð¹":8587,"ĠÐ´ÐµÐ¿ÑĥÑĤÐ°ÑĤ":8588,"ĠÐ¼ÐµÑĤÐ°Ð»Ð»":8589,"ĠÐļÑĢÑĭÐ¼":8590,"Ð¾ÑĦÐ¸ÑĨÐ¸Ð°Ð»ÑĮ":8591,"ĠÑģÑİÐ¶":8592,"ĠÐ½Ð°ÑģÑĤÑĢÐ¾":8593,"Ð¡Ð¾Ð·Ð´":8594,"ÐĴÐµÑģ":8595,"Ð¸Ð²Ð¸Ð»Ð¸":8596,"ĠÑįÑģÐº":8597,"ĠÐłÐ°Ð¼":8598,"ĠÐ¿Ð¾ÑģÐ¾Ð»ÑĮ":8599,"Ġ65":8600,"ort":8601,"ĠÑĥÐ´Ð¾Ð²Ð»ÐµÑĤÐ²Ð¾ÑĢ":8602,"Ġ1895":8603,"1908":8604,"ĠÐ²ÑĭÑħÐ¾Ð´Ð°":8605,"ĠÑĢÐµÐ³Ð¸Ð¾Ð½Ðµ":8606,"ĠÐ½Ð°Ð·ÑĭÐ²Ð°Ð»Ð¸":8607,"ĠÐļÐ¸ÐµÐ²Ðµ":8608,"ÐĺÐ¼Ð¿ÐµÑĢÐ°ÑĤÐ¾ÑĢ":8609,"ĠÐ³Ð¾ÑĢÐ°Ð·Ð´Ð¾":8610,"ĠÑģÐ¿ÐµÑĨÐ¸Ð°Ð»Ð¸Ð·":8611,"Ð²ÑĢÐ°Ñī":8612,"ÐµÐ½Ð³Ð°":8613,"Ð³Ð´Ðµ":8614,"ĠÐ¼ÑıÐ³":8615,"ĠÑĥÑģÑĤÑĮ":8616,"ĠÐļÑĢÐµÐ¼":8617,"ĠÐ¿ÐµÑĢÐµÑĩ":8618,"ĠÐºÐ¾Ð¼Ð½":8619,"ĠÐ´ÐµÐ¹ÑģÑĤÐ²ÑĥÑİÑĤ":8620,"ĠÐ´ÑĢÐµÐ²Ð½ÐµÐ¹":8621,"ĠÐ¾Ð¿ÐµÑĢÐ°ÑĨÐ¸Ñı":8622,"ava":8623,"ĠÐĳÑĢÐ°Ð·Ð¸Ð»Ð¸Ð¸":8624,"ĠÐ¾ÑĦÐ¾ÑĢÐ¼":8625,"Ð¾ÑĤÑĤ":8626,"ÐĴÐ¿ÐµÑĢÐ²ÑĭÐµ":8627,"ÐµÐ²Ð½Ð¾Ð²":8628,"Ð¸Ð²Ð°Ñı":8629,"ĠÐľÐ°Ð²":8630,"ĠÐľÐ°Ð»ÑĮ":8631,"ĠÐ¿ÑĢÐµÐ´ÑĭÐ´":8632,"Ð¢Ð¾Ð³Ð´Ð°":8633,"Ġ33":8634,"ĠÑģÐ¾Ð±Ð¸ÑĢÐ°":8635,"ĠÐ°Ð´Ð²":8636,"ĠÑĢÐ°ÑģÐ¿ÑĢÐ¾ÑģÑĤÑĢÐ°Ð½ÐµÐ½Ð¸Ñı":8637,"Ð»Ð¾ÑīÐ°Ð´ÑĮ":8638,"ÐĲÐ²Ð³ÑĥÑģÑĤ":8639,"ĠÐ±ÑĥÐºÐ²Ñĭ":8640,"ĠÐ²ÐµÐ»Ð¸ÑĩÐ¸Ð½Ñĭ":8641,"Ð´Ð°Ð½":8642,"ÑĩÐ¸ÐºÐ°":8643,"Ð¿Ð°ÑĢÑĤ":8644,"Ð½Ð¾Ð²Ð¾Ð´":8645,"ÑĢÐ¾Ð´ÑĥÐºÑĤ":8646,"ĠÐ¿ÑĢÐ°Ð²Ð¸Ð»":8647,"Ð¿Ð¾Ð»Ð½Ðµ":8648,"ĠÐ²ÑĤÐ¾ÑĢÐ¾Ð¼":8649,"Ġ1952":8650,"ĠNew":8651,"ĠÐ°Ð±ÑģÑĤÑĢÐ°":8652,"Ð·Ð°Ð¿Ð°Ð´Ðµ":8653,"ĠÐŁÐ°Ð¿Ð°":8654,"ĠÐ²ÐµÐºÑĤÐ¾ÑĢ":8655,"ĠÑģÐµÑģÑģ":8656,"ĠÐ¾ÐºÑģ":8657,"ĠÑĤÑĢÐµÑĤÐ¸Ð¹":8658,"Ð¸Ð¼Ñĭ":8659,"Ð¸Ð¼ÑĭÐµ":8660,"Ð°Ð²ÑĪÐ¸Ð¼":8661,"ÐŀÐŀ":8662,"ÐĲÐ¹":8663,"ÐµÐ·Ð¶":8664,"ĠÑģÐ»ÑĥÑĩÐ°ÐµÐ²":8665,"ĠÑĢÐµÐ¶Ð¸Ð¼Ð°":8666,"ĠÑģÑĤÐ°ÑĤÑĮÐµ":8667,"ĠÑģÐºÑĥÐ»ÑĮÐ¿ÑĤ":8668,"ÑĢÐ¸Ð±ÑĥÑĤ":8669,"Î¬":8670,"ĠÑģÐ½Ð¸Ð¼":8671,"ĠÑģÑĤÐ¾Ð¸ÑĤ":8672,"Ð¾Ð¿ÑĥÑĤ":8673,"ÐĺÐļ":8674,"Ð¸ÑĢÑĭ":8675,"ĠÐ¿Ð¾Ð»ÑĥÑĩÐ°ÑİÑĤ":8676,"ĠÐ¿ÑĢÐµÐ·Ð¸Ð´ÐµÐ½ÑĤÑģÐºÐ¸Ñħ":8677,"ĠÐ¿Ð°ÑĢÑĤÐ½":8678,"Ġ1954":8679,"ÐŀÐ´Ð½Ð¸Ð¼":8680,"ĠÐ¼Ð°ÑģÑģÐ°":8681,"ĠÐĴÐ»Ð°Ð´Ð¸Ð¼Ð¸ÑĢÐ¾Ð²":8682,"ĠÑĥÐ½Ð¸Ð²ÐµÑĢÑģÐ¸ÑĤÐµÑĤÐµ":8683,"ĠÐ»Ð¸Ð½Ð¸Ð¹":8684,"ĠÐľÐ°ÑĢÐ¸Ð¸":8685,"ĠÐ½Ð°Ð´Ðµ":8686,"ĠÐ¡Ð¸":8687,"ĠÐ¾Ð±Ð¾":8688,"Ð½Ð°Ñģ":8689,"ĠÐ¿Ð¾Ñı":8690,"ĠÐŁÐ¸ÑĤ":8691,"Ð´Ð°Ñħ":8692,"ĠÑģÐ°Ð¼Ð¾Ðµ":8693,"ĠÐ¾Ð±ÑĬÑıÐ²Ð»Ñı":8694,"ĠÐľÐ¾ÑģÐºÐ¾Ð²ÑģÐºÐ¸Ð¹":8695,"ĠÐµÐ´Ð¸Ð½Ð¸ÑĨÐ°":8696,"ĠÐ´Ð¾Ð¼Ðµ":8697,"ĠÑģÑĤÐ¾Ð»Ð¸ÑĨÑĥ":8698,"ĠÐ¼Ð¸Ð½Ð¸ÑģÑĤÑĢÐ°":8699,"ĠÐ¢ÑĥÑĢÐº":8700,"ĠÐľÐµÐ¶Ð´ÑĥÐ½Ð°ÑĢÐ¾Ð´Ð½ÑĭÐ¹":8701,"ĠÐĲÐ»ÐµÐºÑģÐ°Ð½Ð´ÑĢÐ¾Ð²Ð¸Ñĩ":8702,"Ð·Ñĥ":8703,"Ð³Ð¾ÑģÑĥÐ´Ð°ÑĢ":8704,"ÑĢÐ¸ÐµÐ¹":8705,"Ð¾ÑĤÐ²ÐµÑĤ":8706,"ĠÑĩÐ¸Ð½Ð¾Ð²":8707,"Ð¾Ð¿Ð¾ÑģÑĤÐ°Ð²":8708,"ĠÑģÐ²Ð¾Ð´":8709,"ÐĲÐ¼":8710,"ĠÑĩÐ¸ÑģÐ»Ñĥ":8711,"ĠÐ½Ð°ÑĢÐ¾Ð´Ð½Ð¾Ð³Ð¾":8712,"ĠÐ½Ð°Ð·Ð²Ð°Ð»":8713,"Ð»Ð¾Ð¶ÐµÐ½Ð¸Ñı":8714,"Ð°Ð²ÑĪÐ¸Ð¹ÑģÑı":8715,"ĠÐľÐ°ÐºÐµÐ´":8716,"ĠÐ²ÑģÐµÐ¼Ð¸":8717,"ĠÐ·Ð°Ð»Ð¸Ð²Ð°":8718,"FC":8719,"ĠÐ¿Ð°Ð½":8720,"ÑģÐºÑĥ":8721,"ÐµÑĤÐ¸ÐºÐ¸":8722,"Ð¸Ð¹ÑģÐºÐ¾Ð¼":8723,"1914":8724,"1923":8725,"ĠÐĳÐ¾Ð½":8726,"ĠÑģÐ²ÐµÑĢÐ³":8727,"Ð°ÑģÑĤÐ¾Ð²":8728,"ĠÐ¢Ñİ":8729,"ÐµÐ»Ð¸Ð½":8730,"ÑĥÐ½Ð³":8731,"ÑĦÐ¾ÑĢÐ¼ÑĥÐ»Ð¸ÑĢÐ¾Ð²":8732,"Ð»Ð°ÑĤÐ¾Ð½":8733,"ĠÐ¼Ð°ÑĤÐµÑĢÐ¸Ð°Ð»Ð¾Ð²":8734,"ĠÐºÐ¾Ð½ÑģÑĤÑĢÑĥÐºÑĤÐ¾ÑĢ":8735,"ĠÑģÐ¾Ð³Ð»Ð°ÑĪ":8736,"ĠÐ¿ÐµÑĢÐµÐ½Ð¾Ñģ":8737,"ĠÐ§ÐµÑħÐ¾ÑģÐ»Ð¾Ð²":8738,"ĠÐŀÑģÑĤÑĢÐ¾Ð²":8739,"ĠÐ¿Ð¾Ð²ÐµÐ´ÐµÐ½Ð¸Ðµ":8740,".);":8741,"09":8742,"Ð¾ÑĨÐ¸Ðº":8743,"ĠÑģÑģÑĭÐ»":8744,"ĠÐ¿ÑĢÐ¸Ð¼ÐµÐ½Ð¸":8745,"ÐµÑĢÐ°ÑĢ":8746,"ĠÐ¤Ð»Ð°Ð²":8747,"ÐľÐµÑģÑĤ":8748,"ÐµÐ·Ð´Ð¾Ð²":8749,"ĠÐŃÐ»Ð¸":8750,"ond":8751,"ĠÐ¿Ð¾ÑģÐ»ÐµÐ´Ð½Ð¸Ñħ":8752,"ĠÐ¿Ð¾Ð¿Ð°Ð´":8753,"ÑĭÐ²Ð°ÑİÑĤÑģÑı":8754,"ĠÐ¡Ð¾Ð²ÐµÑĤÑģÐºÐ¾Ð¹":8755,"ÐŁÐµÑĤÐµÑĢÐ±ÑĥÑĢÐ³Ð°":8756,"ĠÑĢÐµÐ³Ð¸Ð¾Ð½Ð¾Ð²":8757,"ĠÐ½Ð°ÑĩÐ°Ð»Ñĥ":8758,"ĠÑģÑĬÐµÐ·Ð´":8759,"ÐĴÑģÐµÐ³Ð¾":8760,"ĠÐ´ÐµÐ½ÐµÐ³":8761,"ĠÐ½Ð°Ð¹ÑĤÐ¸":8762,"ĠÐ»Ð¸Ð´ÐµÑĢÐ¾Ð²":8763,"ĠÐ¿Ð¾Ð»ÑĥÐ¾ÑģÑĤÑĢÐ¾Ð²":8764,"ĠÐĲÑĢÐ¸ÑģÑĤÐ¾ÑĤÐµÐ»Ñı":8765,"ÐĿÐ°Ð·Ð²Ð°Ð½Ð¸Ðµ":8766,"ÑģÐµÐ»ÑĮ":8767,"Ð²Ð¾ÑģÑĤ":8768,"ÑĢÐ°ÑĪ":8769,"ĠÐ´ÑĥÐ±":8770,"ĠÐ¾Ð±ÑģÑĤÐ¾ÑıÑĤÐµÐ»ÑĮ":8771,"ĠÐĴÐ°ÑĪ":8772,"Ġ250":8773,"ĠÐĳÐ¾":8774,"ÐĵÑĢÐ°Ð¶Ð´Ð°Ð½":8775,"ÑĨÐ¸Ð¾Ð½Ð½Ð¾":8776,"ÐµÑĩÐµÐ½Ð¸Ñı":8777,"ÑıÐ½ÑĥÑĤ":8778,"ĠÐºÐ¾Ð¼Ð¿Ð¸Ð»Ñı":8779,"Ð³ÑĢÐ°Ð´Ðµ":8780,"ĠÐ²Ð¾ÑģÑĤÐ¾ÑĩÐ½Ð¾Ð¹":8781,"ĠÐ½Ð°Ð¹Ð´":8782,"ĠÑģÐ´ÐµÐ»Ð°Ð»":8783,"Ð¾Ð¼Ð¾Ð½Ð¾ÑģÐ¾Ð²":8784,"ci":8785,"ĠÐ¸Ð¾Ð½":8786,"ĠÑģÐµÐ²":8787,"Ð°ÑĤÐ¾":8788,"ĠÐľÐ°Ð´":8789,"ÐłÐ¾ÑģÑģÐ¸Ð¹":8790,"Ð½ÐµÐ¿":8791,"Ð¾Ð»Ð¾Ð³Ð¸ÑĩÐµÑģÐºÐ°Ñı":8792,"ĠÐ¼Ð¾ÑĢÑģÐºÐ¸Ñħ":8793,"ÑĦÐ¾ÑĢÐ´":8794,"ĠÐ½ÐµÐ¼ÐµÑĨÐºÐ¾Ð³Ð¾":8795,"1952":8796,"ĠÑĢÐ°Ð²Ð½Ð°":8797,"ĠÐ¼Ð½Ð¾Ð¶ÐµÑģÑĤÐ²":8798,"ĠÐ¿Ð°ÑĢÐ°Ð´":8799,"ÐºÑĢÐ°ÑĤÐ½Ð°Ñı":8800,"ĠÐºÐ¾ÑĢÐ¾Ð»ÐµÐ²ÑģÑĤÐ²Ð°":8801,"ĠÐ¾ÑĤÐºÐ°Ð·Ð°Ð»ÑģÑı":8802,"ĠÑģÐ¿ÑĥÑĤÐ½Ð¸ÐºÐ¾Ð²":8803,"ÐºÐ»":8804,"ĠÐ¿Ð°Ð»ÑĮ":8805,"Ð±ÑĥÑĢÐ³Ð°":8806,"Ð¾Ð½ÑģÐºÐ¾Ð¹":8807,"ĠÐ¼ÑıÑĤÐµÐ¶":8808,"ÑĩÐµÐ²Ð¸Ð´":8809,"Ð¸Ð·Ð¼Ñĥ":8810,"ĠÐ²ÑĭÑĢÐ¾Ñģ":8811,"ÐľÐµÐ¶Ð´":8812,"ÑĨÐ¸Ð¾Ð½Ð½Ð¾Ðµ":8813,"ĠÐ¿ÑĥÑĤÐµÐ¹":8814,"ĠÑģÑĤÐ¾Ð»Ð¸ÑĨÐµ":8815,"ĠÐºÐ°Ð½ÑĨ":8816,"ĠÐĴÑģÐµÐ»":8817,"ĠÐĿÐ¸ÐºÐ¾Ð»Ð°ÐµÐ²Ð¸Ñĩ":8818,"Ð¸Ð²Ð°Ð»ÐµÐ½ÑĤ":8819,"ĠÐĵÑĢÐ°Ð¶Ð´Ð°Ð½ÑģÐºÐ¾Ð¹":8820,"ÐĶÐµÐ¿ÑĥÑĤ":8821,"Ð¸ÑĦÐ¸ÑĨÐ¸ÑĢÐ¾Ð²":8822,"Ð¾Ð»Ð°Ð³":8823,"ĠÐ¾ÑĤÐ²ÐµÑĢ":8824,"ĠÐļÐ°Ð²":8825,"Ð¸Ð²Ð½ÑĭÐ¼":8826,"ĠÐ·Ð°ÑĦÐ¸ÐºÑģ":8827,"ÐľÐ°ÑĢÐ¸":8828,"Ð»ÐµÐ½Ð½Ð¾ÑģÑĤÑĮ":8829,"ĠÐ¾ÑĢÐºÐµÑģÑĤ":8830,"ĠÐ¼Ð½Ð¾Ð³Ð¾ÐºÑĢÐ°ÑĤ":8831,"1953":8832,"ĠÐ°Ð»Ðº":8833,"eb":8834,"lin":8835,"ÑĢÐ¾Ð³ÑĢÐ°Ð¼":8836,"Ð¸Ð²ÑĪÐ¸Ðµ":8837,"ĠÐ»Ðµ":8838,"ĠÐ²ÑĭÐ·":8839,"ĠÐĳÐ°":8840,"Ð°Ð³Ð°Ð½":8841,"ÑĤÐ¸ÑĦ":8842,"ĠÐ¸ÑģÐºÐ¾Ð¿":8843,"ĠÐ³ÑĢÑĥÐ¿Ð¿Ñĥ":8844,"ĠÐ°ÑĢÑħÐ¸Ð¿":8845,"ĠÐ¾Ð±ÑīÐ¸Ð½":8846,"oft":8847,"ĠÐ»Ð¸ÑĩÐ½Ð¾ÑģÑĤÐ¸":8848,"ĠÐ¼Ð°ÑĪÐ¸Ð½Ð¾ÑģÑĤÑĢÐ¾":8849,"ĠÐ¿ÑĢÐ¾Ð²Ð¾Ð·Ð³Ð»Ð°ÑĪÐµÐ½Ð°":8850,"pr":8851,"ÑĥÐ»Ðµ":8852,"Ð²ÑĪÐ¸Ñħ":8853,"ĠÐ¼Ð¸ÑģÑĤ":8854,"ĠÑĦÐµÐ¾Ð´":8855,"ĠÐĺÐ»":8856,"ĠÐ¤Ð¸Ð»":8857,"ĠÑĨÐ²ÐµÑĤÐ°":8858,"ĠÐ¿ÑĢÐ¾Ð²ÑĳÐ»":8859,"ĠÐ·Ð°Ð²Ð¾Ð´Ð°":8860,"ĠÐ¾Ð±ÑīÐ¸Ð½Ñĭ":8861,"ĠÐ´ÐµÐ½ÑĮÐ³Ð¸":8862,"ĠÑģÐ¿Ð¾ÑģÐ¾Ð±Ð½Ð¾ÑģÑĤÑĮ":8863,"ĠÐ²Ð¾Ð¿ÑĢÐ¾ÑģÐ°Ð¼":8864,"ĠÐĽÑĥÐ¸":8865,"ÐŁÑĢÐµÐ´ÑģÑĤÐ°Ð²":8866,"ÐŀÑĢÐ³Ð°Ð½":8867,"ÐĺÑģÐ¿Ð¾Ð»ÑĮÐ·":8868,"ĠÐ±Ð»Ð¸Ð¶Ð°Ð¹":8869,"ÑĥÐ¶Ðµ":8870,"ĠÐ²Ð°Ð½":8871,"ĠÑģÐ¾Ð¶":8872,"ĠÑģÐ°Ð¼Ð¸":8873,"Ð°Ð½ÑĩÐ¸Ð²":8874,"Ð¾ÑĤÑĥ":8875,"ĠÐŁÐ°Ð»ÐµÑģÑĤ":8876,"1912":8877,"ĠÐ¢ÑĢÐ¸":8878,"ÐµÐ»Ð¸Ð»":8879,"Ð¾Ð»Ð¾Ð³Ð¸Ñİ":8880,"ÑĥÐ·Ð¾Ð²":8881,"Ġ48":8882,"ĠÐºÐ¾Ð»Ð»ÐµÐ´":8883,"ĠÑģÐ¾Ð·Ð´Ð°Ð½Ñĭ":8884,"1907":8885,"ĠÐ¾ÑĢÐ³Ð°Ð½Ð¸Ð·Ð¾Ð²Ð°Ð½":8886,"Ð¸ÑģÐ¿ÑĭÑĤÐ°ÑĤÐµÐ»ÑĮ":8887,"ÑģÑĤÑĢÐ°Ð½":8888,"ĠÐ½ÐµÑĢÐµÐ´ÐºÐ¾":8889,"ĠÐ¡Ð¾Ð´":8890,"ĠÐ¡Ð¾Ð»Ð¾Ð²":8891,"Ð¸ÑĩÐµÑģÑĤÐ²Ð¾":8892,"1913":8893,"Ð¾ÑĩÐ½Ð¾":8894,"ÐŁÑĢÐ¸Ð½":8895,"Ð§ÐµÐ»Ð¾Ð²":8896,"ĠÐ¾Ð±ÑīÐµÐ¼":8897,"ĠÐºÐ¾ÑĢÐ¾Ð»ÐµÐ²Ð°":8898,"ĠÐĵÐµÑĢÐ¼Ð°Ð½Ð¸ÐµÐ¹":8899,"ĠÐ¾Ð¿Ð¸ÑģÐ°Ð½Ð¸Ðµ":8900,"07":8901,"ĠÐ³ÐµÑĤ":8902,"ÐµÐ¼Ð¾ÑģÑĤÐ¸":8903,"Ð¸ÑģÑģÐ°":8904,"ĠÐĵÐ°Ð¼Ð±":8905,"ĠÐ²ÑĭÑģÐ°Ð´":8906,"ĠÐ·Ð°Ð½ÑıÐ»Ð¸":8907,"ĠÑĥÑĩÐ°ÑģÑĤÐ½Ð¸ÐºÐ¾Ð²":8908,"1951":8909,"ĠÐ°Ð´ÑĢÐµÑģ":8910,"ĠÑĥÐ±ÐµÐ¶Ð´":8911,"ĠÐ²Ð¾Ð»Ð½Ñĭ":8912,"ĠÐ¿ÑĢÐ¸Ð²ÐµÐ»Ð¸":8913,"ĠÐºÐ¾ÑĢÐ°Ð±Ð»ÐµÐ¹":8914,"ĠÐ¼ÑĥÑĩÐµÐ½Ð¸ÐºÐ°":8915,"ĠÐĵÐ²Ð¸Ð½Ðµ":8916,"ÑįÑĦÑĦÐ¸ÑĨÐ¸":8917,"Ð¿Ð°Ð½":8918,"ÑĨÐµÑĤ":8919,"Ð¾Ð½Ñģ":8920,"Ð¾Ð½Ð¸Ñı":8921,"ĠÑĤÐºÐ°Ð½":8922,"ĠÐ¿ÑĢÐ¾ÑģÑĮ":8923,"ĠÐľÑį":8924,"ĠÐ¿Ð¾ÑıÑģ":8925,"ĠÐĶÐ¾Ð±":8926,"ÑĥÑĩÐµÐ½Ð¸Ðµ":8927,"ÐĽÐµÐ½Ð¸Ð½":8928,"ĠÐ¾ÑĤÐºÑĢÑĭÑĤÐ°":8929,"Ð¦ÐµÑĢ":8930,"ĠÐºÐ°Ð½Ð°Ð»":8931,"ĠÐºÐ¾Ð¼Ð°Ð½Ð´Ñĭ":8932,"ĠÐ¿ÑĢÐ¾ÑĪÐ»Ð°":8933,"ĠÐ½Ð°ÑģÐ»ÐµÐ´Ð¸Ñı":8934,"ĠÐ²ÐµÐ»Ð¸ÐºÐ¾Ð³Ð¾":8935,"ĠÐ§ÐµÑħÐ¸Ð¸":8936,"ÐµÐ½ÐµÐ²":8937,"ĠÐºÑĢÐµÐ´":8938,"ĠÐºÐ¾Ð´Ð°":8939,"ĠÐ³ÑĢÐ¸":8940,"ĠÐ°ÑĢÐ¸ÑĦÐ¼ÐµÑĤ":8941,"ĠÑģÑĤÐ°Ð±Ð¸Ð»ÑĮ":8942,"ĠÐ¿ÑĢÐ¸Ð³Ð¾ÑĢÐ¾Ð´":8943,"ĠÐľÐ¸":8944,"ÑĢÐ°Ð½Ð¶":8945,"1927":8946,"1926":8947,"ĠÐ²ÑĭÑĢÐ°Ð·":8948,"ĠÐĳÐ°Ð²":8949,"ĠÐ¿ÑĢÐµÐ¾Ð´":8950,"ÐĳÐµÐ·":8951,"ĠÐķÐ³Ð¾":8952,"ĠÐ¿Ð¾Ð±ÐµÐ´Ñĭ":8953,"ĠÑĢÐ°Ð´Ð¸Ð¾ÑģÑĤÐ°Ð½":8954,"ĠÐ¿ÑĥÐ±Ð»Ð¸Ñĩ":8955,"ĠÑĢÐ°ÑģÑģÑĤÐ¾ÑıÐ½Ð¸Ðµ":8956,"ĠÐ¼Ð¾ÑĤÐ¾ÑĨÐ¸Ðº":8957,"ĠÐ²ÐµÑĢÑĤÐ¾Ð»ÑĳÑĤ":8958,"ĠÑĢÐ¸ÑĤÑĥ":8959,"ÑĤÐ¾Ð±Ñĭ":8960,"ÑĢÐµÐ»":8961,"ÑģÑĤÐ²Ð¸Ð¹":8962,"ÑĤÐ°Ð±Ð°":8963,"ÑıÐ½ÑĮ":8964,"ĠÐ£Ñį":8965,"ĠÐ¿ÐµÑĢÐµÐ²Ð¾ÑĢÐ¾ÑĤÐ°":8966,"ĠÐºÐ¾ÑģÐ¼Ð¸ÑĩÐµÑģÐºÐ¸Ñħ":8967,"ĠÐ¿Ð¾Ð´Ð´ÐµÑĢÐ¶ÐºÐ¸":8968,"ĠÐ»ÑİÐ±Ð¾Ð²":8969,"ĠÑĥÑģÐ»Ð¾Ð²Ð¸Ð¹":8970,"ĠÐºÐ°ÑĢÐ´Ð¸Ð½":8971,"ĠÐļÑĥÐ±ÐºÐ°":8972,"ĠÑĢÐµÐ²Ð¾Ð»ÑİÑĨÐ¸Ð¾Ð½ÐµÑĢ":8973,"ÐľÐµÐ´Ð°Ð»ÑĮ":8974,"ĠÐĿÐ¸Ð´ÐµÑĢÐ»Ð°Ð½Ð´Ð¾Ð²":8975,"ĠÐ¸ÑģÑĩÐµÐ·":8976,"ĠÑĦÐ¾Ð»ÑĮÐºÐ»Ð¾ÑĢ":8977,"ĠÑĢÐµÐºÐ¾ÑĢÐ´":8978,"ĠÐ±Ð¾Ð¼Ð±Ð°ÑĢÐ´":8979,"AS":8980,"Ġ*":8981,"Ġst":8982,"Ð²ÐºÐ»ÑİÑĩ":8983,"ĠÐ²ÑĢÐµÐ´":8984,"ĠÑģÐ¶":8985,"ĠÐ³Ð¾Ð´Ð¾Ð¼":8986,"ĠÐĴÑıÑĩÐµÑģ":8987,"ĠÐĳÐ°Ñħ":8988,"ÐĳÐµÑĢ":8989,"ĠÐ§Ð¸Ð»Ð¸":8990,"ĠMic":8991,"ĠÑģÐµÐ¼ÑĮÑı":8992,"ĠÐĴÐ»Ð°Ð´Ð¸Ð²":8993,"ĠÐ½ÐµÐ´ÐµÐ»Ð¸":8994,"ĠÐĴÐµÑĢÑħÐ¾Ð²Ð½ÑĭÐ¹":8995,"ĠÐ¿ÑĢÐ°Ð·Ð´Ð½Ð¾Ð²":8996,"ĠÐ¿ÑĢÐ°Ð²Ð¾ÑģÐ»Ð°Ð²Ð½Ð¾Ð¹":8997,"ĠÑĤÐ²Ð¾ÑĢÑĩÐµÑģÑĤÐ²Ð°":8998,"ĠÑģÑĤÑĥÐ´ÐµÐ½ÑĤÐ¾Ð²":8999,"ĠÑģÐ¸Ð½ÑĤÐµÐ·":9000,"ĠÐ´Ð¾ÑģÑĤÐ¸Ð³Ð°ÐµÑĤ":9001,"ĠÐ²Ð¿Ð¾Ð»Ð½Ðµ":9002,"ĠÑģÐµÐ»Ðµ":9003,"ĠÐºÐ³":9004,"ĠÐ±ÐµÐ»ÑĮÐ³":9005,"ĠÐ¾Ð±Ð»Ð°":9006,"ĠÑįÑĦ":9007,"ĠÐ½ÐµÐ¾Ð¿":9008,"ĠÐłÑĥÐ´":9009,"ÐļÑĥÑĢ":9010,"Ð°ÑĤÐµÐ»ÑĮÐ½Ð°Ñı":9011,"Ð¢ÐµÐ»Ðµ":9012,"ÐĳÐ¾Ð»":9013,"2015":9014,"ĠÐ¶ÐµÐ»Ð°":9015,"ĠÐºÐ½Ð¸Ð³Ñĥ":9016,"ĠÐ·Ð´ÑĢÐ°Ð²Ð¾Ð¾ÑħÑĢÐ°Ð½":9017,"ĠÐ°Ð½ÑĤÑĢÐ¾Ð¿":9018,"ĠÑıÐ²Ð»ÐµÐ½Ð¸Ð¹":9019,"ĠÐŀÐ±ÑĬÐµÐ´Ð¸Ð½":9020,"ĠÐ¿Ð¾ÑĢÑıÐ´Ð¾Ðº":9021,"ĠÐ°Ð½Ð³Ð»Ð¸Ñĩ":9022,"ĠÐ°ÑĢÐµÑģÑĤÐ¾Ð²Ð°Ð½":9023,"ĠÑģÑĥÑĤÐ¾Ðº":9024,"ĠÑģÐ»Ð¸ÑĪÐºÐ¾Ð¼":9025,"ĠÐ½ÐµÐ¾Ð´Ð½Ð¾ÐºÑĢÐ°ÑĤÐ½Ð¾":9026,"á¿":9027,"Ġr":9028,"ĠÐ©":9029,"ĠÐ¿Ð°Ð»Ðµ":9030,"Ð»ÐµÐ³Ð°":9031,"ĠÐ¡Ð°Ñħ":9032,"ĠÐ¾Ð±Ð½Ð¾Ð²":9033,"Ð¾ÐºÐ¾Ð¹":9034,"Ð¾Ð¿ÑĢÐ¾Ñģ":9035,"ÐĿÐµÐ¿":9036,"ĠÐ¿Ð¾Ð´Ñģ":9037,"ĠÐºÐ¾ÑĤÐ¾ÑĢÑĭÐ¼Ð¸":9038,"Ð¸ÑĩÐ½Ð¾ÑģÑĤÑĮ":9039,"Ġ34":9040,"ĠÐ°Ð¼ÐµÑĢÐ¸ÐºÐ°Ð½ÑģÐºÐ¾Ð¹":9041,"ĠÑģÑĢÐµÐ´Ð½ÐµÐ³Ð¾":9042,"ĠÐ²Ð¾Ð´Ñĥ":9043,"orld":9044,"ĠÑĦÐ¸Ð»Ð¾ÑģÐ¾ÑĦÐ¸Ñı":9045,"ĠÐ´Ð¾ÐºÑĤÐ¾ÑĢ":9046,"Ġ1896":9047,"ĠÐºÐ°Ð·Ð°Ñĩ":9048,"1906":9049,"ĠÑĩÑĥÐ²ÑģÑĤÐ²":9050,"ĠÐĺÐ½Ð´Ð¾Ð½ÐµÐ·Ð¸Ð¸":9051,"ĠÑģÐ½Ð¸Ð·":9052,"Ð°ÑĤÐµÐ»Ñİ":9053,"Ð£Ð¶Ðµ":9054,"Ð¾Ð·Ð´ÑĥÑĪ":9055,"ĠÐ¿ÑĢÐ¾Ð´Ð¾Ð²Ð¾Ð»ÑĮ":9056,"ĠÑĢÐ°Ð²Ð½Ð¾Ð²ÐµÑģ":9057,"ĠÐ¾Ð¿ÐµÑĢÐ°ÑĨÐ¸Ð¹":9058,"ĠÑĦÐ¸Ð»ÑĮÐ¼Ð°":9059,"ĠÐŀÑģÐ½Ð¾Ð²":9060,"ĠÐĲÐ½ÑĤÐ°ÑĢÐºÑĤ":9061,"tern":9062,"Ð¼ÐµÐ»ÑĮ":9063,"Ð¾Ð²ÐµÑī":9064,"Ð»ÑıÑħ":9065,"ĠÑĥÑħÐ¾Ð´":9066,"Ð¸Ð»Ð¾Ð²Ð°":9067,"Ð°Ð»ÑĮÐ½Ð¾ÑģÑĤÑĮ":9068,"ĠÐĳÑĥÑĤ":9069,"Ð½Ð¸Ð³Ñģ":9070,"ĠÑĢÐ¾Ð¶Ð´Ð°":9071,"ÑĢÐ¾Ð¼Ð°":9072,"ĠÐ¾Ð±ÑīÐµÑģÑĤÐ²Ðµ":9073,"ĠÐµÐ´Ð¸Ð½ÑģÑĤÐ²ÐµÐ½Ð½ÑĭÐ¼":9074,"1931":9075,"ĠÐ´Ð¾ÑĢÐ¾Ð¶":9076,"ĠÐ¿Ð¾ÑģÑĤÐ°Ð½Ð¾Ð²Ð»ÐµÐ½Ð¸Ðµ":9077,"ĠÐĳÐ¾Ð»ÑĮÑĪÐ¾Ð¹":9078,"ĠÑĤÐµÐ¾ÑĢÐµÑĤÐ¸Ðº":9079,"ĠÑĥÐ¿Ð¾Ð¼Ð¸Ð½Ð°Ð½Ð¸Ðµ":9080,"ĠÑĥÐ»ÑĥÑĩÑĪ":9081,"Ð¿Ð¾Ð²":9082,"ĠÐļÐĿÐĶÐł":9083,"ĠÐ¿Ð¾ÑĩÐ¸ÑĤ":9084,"1910":9085,"ĠÑıÐº":9086,"ÑĥÐ½ÑĮ":9087,"Ð£ÐºÑĢÐ°":9088,"Ð¡ÑĤÐ°ÑĢ":9089,"Ġ1909":9090,"ĠÑģÑĤÑĢÑĥÐºÑĤÑĥÑĢ":9091,"ĠÐ°ÑįÑĢÐ¾Ð´":9092,"ĠÐ½Ð°ÑģÑĤÑĥÐ¿Ð»ÐµÐ½Ð¸Ðµ":9093,"ĠÐºÑĢÐ¾Ð²Ð¸":9094,"ĠÐĴÐ°ÑĢÑĪÐ°Ð²":9095,"ÐŁÐ°Ð¼ÑıÑĤÐ½Ð¸Ðº":9096,"ĠÐ±Ð¸Ð·Ð½ÐµÑģ":9097,"ĠÑĪÐ²ÐµÐ¹ÑĨÐ°ÑĢÑģÐºÐ¸Ð¹":9098,"Ġet":9099,"Ð³Ð¾ÑĤ":9100,"ÑĳÐ¹":9101,"ĠÐ¡Ð¸ÑĨÐ¸":9102,"Ð¸ÑħÐ°":9103,"ĠÐ¾ÑĤÐ¿":9104,"ĠÐļÐ»Ð°":9105,"ÑĥÐ¼ÐµÐ½ÑĤÐ°":9106,"ĠÐĶÑİ":9107,"ĠÐ¼Ð°ÑĢÐºÑģ":9108,"ĠÐ¿Ð¾Ð»Ð¸ÑĤÐ¸ÐºÑĥ":9109,"ĠÑįÐ»ÐµÐºÑĤÑĢÐ¾Ð²":9110,"ĠÐ²ÐºÐ»ÑİÑĩÐ°ÑİÑĤ":9111,"ĠÑĪÐºÐ¾Ð»Ðµ":9112,"ĠÐ²ÑĭÑģÑĤÑĥÐ¿Ð°ÐµÑĤ":9113,"Ð½Ð¸ÑĨÐµÐ¹":9114,"Ð¸Ð²ÑĪÐ¸Ð¹ÑģÑı":9115,"Ð´ÐµÐ»ÐµÐµÐ²":9116,"ĠÐ¿ÑĢÐµÑģÐ»ÐµÐ´":9117,"ĠÐ¸Ð·Ð±Ð¸ÑĢÐ°ÑĤÐµÐ»ÑĮ":9118,"ĠÑģÐ¾ÑĢÐµÐ²Ð½Ð¾Ð²":9119,"//":9120,"oog":9121,"ÐµÐ³Ð°":9122,"ĠÐ²Ð¾Ð¶Ð´":9123,"ĠÑģÐ¼Ðµ":9124,"ĠÐ½Ð°ÐºÐ°Ð·":9125,"ĠÐ¡ÐµÐ½ÑĤ":9126,"ĠÐ¿ÑĢÐ¸Ð¼":9127,"ĠÐ½ÐµÐ·Ð½Ð°Ñĩ":9128,"Ð¸ÑĩÐ¸":9129,"ĠÑĢÐ°ÑģÐ¿Ð¾Ð»Ð°Ð³":9130,"ĠÑĢÐ°ÑģÑĩÑĳÑĤ":9131,"orm":9132,"ĠÑĥÑģÐ¸Ð»":9133,"ĠÐºÑĢÑĥÐ¿Ð½ÑĭÐ¹":9134,"ĠÐ¼Ð¾Ð´ÐµÑĢÐ½":9135,"ÐŁÐµÑĢÐ²ÑĭÐ¼":9136,"ĠÑģÐ¾ÑģÑĤÐ°Ð²Ð»ÑıÐ»Ð°":9137,"ĠÐ±ÐµÑģÐ¿Ð»Ð°ÑĤ":9138,"ext":9139,"ĠÐµÐ³Ð¸Ð¿ÐµÑĤ":9140,"ĠÐŁÐ»ÑĥÑĤÐ°ÑĢÑħ":9141,"SO":9142,"ĠÑģÐ´":9143,"ÑĳÐº":9144,"ĠÐ¾ÑĤÐ±":9145,"ĠÐĴÑģÐµÑĢÐ¾ÑģÑģÐ¸Ð¹":9146,"ĠÐ¿Ð¾Ð´ÑĢÐ¾Ð±":9147,"Ð¸ÑĩÐ½ÑĭÐ¼":9148,"ÐĵÐ¾Ð»":9149,"Ġ37":9150,"ĠÑģÐ°Ð¼ÑĭÐµ":9151,"ÐĹÐµÐ¼":9152,"ern":9153,"ert":9154,"ĠÑģÐ¾ÑģÑĤÐ¾ÑıÐ»Ð¾ÑģÑĮ":9155,"ĠÑĥÐ³Ð»ÐµÑĢ":9156,"Ġ1890":9157,"ĠÐ¿ÑĢÐ¾Ð³ÑĢÐµÑģÑģ":9158,"Ð¤ÑĢÐ°Ð½ÑĨÐ¸Ñı":9159,"ĠÐ´Ð¾ÑĩÐµÑĢÐ¸":9160,"ĠÐ¿ÐµÑĢÐµÐ³Ð¾Ð²Ð¾ÑĢÑĭ":9161,"ĠÐ»Ð°Ð±Ð¾ÑĢÐ°ÑĤÐ¾ÑĢ":9162,"ĠÑĢÐµÐ±ÑĳÐ½":9163,"eing":9164,"ĠÐ¿ÑģÐµÐ²Ð´":9165,"ĠÑģÐ°Ñħ":9166,"Ð¸Ð½Ð³Ð¾Ð²":9167,"ĠÐļÐ°Ð½ÑĤ":9168,"ĠÐļÐ°ÑĢÐ¸":9169,"Ð¸Ð²Ð½Ð¾ÑģÑĤÑĮ":9170,"ÐĳÑĥÐ´":9171,"Ð¸Ð¿Ð°ÑĤ":9172,"ĠÐŃÐ»":9173,"ÐĿÐ°ÑĥÑĩ":9174,"ĠPro":9175,"ĠÐĿÐ¾Ð²Ð°Ñı":9176,"ĠÐĹÐµÐ¼Ð»Ðµ":9177,"ĠÑģÐ¾ÑĨÐ¸Ð°Ð»ÑĮÐ½ÑĭÑħ":9178,"ĠÐ°Ð»ÑĮÑĤÐµÑĢÐ½Ð°ÑĤÐ¸Ð²":9179,"ĠÑĥÑĩÑĢÐµÐ¶Ð´ÐµÐ½Ð¸Ð¹":9180,"ĠÐ²ÑģÐµÐ¼Ð¸ÑĢ":9181,"ĠÐ¸Ð·Ð»ÑĥÑĩÐµÐ½Ð¸Ñı":9182,"Ð¾Ð¿ÑĢÐµÐ´ÐµÐ»":9183,"Ã¼":9184,"ĠÏĦ":9185,"Ð±Ð°Ñģ":9186,"ĠÐºÐ¸ÑĢÐ¸":9187,"ĠÑĤÐ°ÑĤÐ°ÑĢ":9188,"Ð¸Ð½ÑĨÐµÐ²":9189,"ÐµÐ¼Ðµ":9190,"ĠÐ¾ÑĤÐµÑĩÐµ":9191,"Ð½Ð¸ÐºÐ¾Ð²Ð°":9192,"ÐĶÐµÐ¹ÑģÑĤÐ²":9193,"ĠÐ´ÑĢÑĥÐ³Ð¾Ð³Ð¾":9194,"ĠÐ¸Ð¼Ð¿ÑĥÐ»ÑĮ":9195,"1904":9196,"ĠÐ¸Ð½Ð´ÐµÐ¹":9197,"ĠÐ½Ð°Ð·Ð½Ð°ÑĩÐµÐ½Ð¸Ñı":9198,"ĠÑĦÐ¸Ð»ÑĮÐ¼Ðµ":9199,"ĠÐĺÑĤÐ°Ð»Ð¸":9200,"ĠÑģÑĤÐ¸ÑħÐ¾ÑĤÐ²Ð¾ÑĢ":9201,"ĠÐ½Ð¾Ð¼ÐµÑĢ":9202,"ÐµÐ»ÑĮÐ´Ð¼Ð°ÑĢ":9203,"ĠÐ°ÑĢÐ¸ÑģÑĤ":9204,"ÐµÐ²Ð°Ñı":9205,"ĠÐ¿Ð¾ÑģÐ»ÑĥÐ¶":9206,"Ð¸ÑĢÐ¾Ð²Ð°Ð»Ð°":9207,"ĠÐ¾ÑģÐ½Ð¾Ð²Ð¾Ð¹":9208,"Ð°Ð¿Ð¿":9209,"ÑĥÑħÐ¾Ð²":9210,"ĠÐ¿Ð¾Ð²ÑģÑĤÐ°Ð½":9211,"ĠÐ¾ÑĤÐºÑĢÑĭÐ»":9212,"ĠÐ½ÐµÐ¼ÐµÑĨÐºÐ¾Ð¹":9213,"ĠÐ·Ð²ÑĥÑĩ":9214,"ĠÐºÐ¾Ð¼Ð°Ð½Ð´Ð¸ÑĢ":9215,"ĠÑģÑĥÐ±Ð±Ð¾ÑĤ":9216,"ĠÐºÐ¾Ð»Ð¾Ð½Ð¸":9217,"ĠÐ¶Ð¸Ð²Ð¾Ð¿Ð¸ÑģÐ¸":9218,"ĠÐŀÑģÐ¼Ð°Ð½ÑģÐºÐ¾Ð¹":9219,"ĠÐºÐ¸Ð½ÐµÐ¼Ð°ÑĤÐ¾Ð³ÑĢÐ°ÑĦ":9220,"ÐºÐ°Ð»":9221,"ĠÐºÐ°ÑĢÑĮ":9222,"ÐµÑĤÐ¸ÐºÐ°":9223,"Ð°Ð²Ð°ÑĤÑĮ":9224,"ĠÐ¿ÑĢÐ¸ÑģÑĤÑĥÐ¿":9225,"ĠÐĶÐµÐº":9226,"ĠÐĽÐ¸Ð±":9227,"ĠÑģÐ¾Ð²ÐµÑĤÑģÐºÐ¸Ðµ":9228,"Ġ600":9229,"ÑģÑĤÐ²Ð¾Ð²Ð°ÑĤÑĮ":9230,"ĠÐ²ÐµÐ´Ð¾Ð¼":9231,"ĠÐ¿ÑĢÐ°ÐºÑĤÐ¸ÐºÐµ":9232,"ĠÐ±Ð°Ð½ÐºÐ°":9233,"ĠÐºÐ¾Ð½ÑĤÑĢÐ¾Ð»Ñı":9234,"ĠÐ¡Ð¾Ð»Ð½ÐµÑĩ":9235,"ĠÐ½Ð°Ð±Ð»ÑİÐ´Ð°ÐµÑĤÑģÑı":9236,"ĠÐºÐ°ÑĦÐµÐ´":9237,"ĠÐ°ÐºÑģÐ¸Ð¾Ð¼":9238,"ĠÐ¿ÑĢÐ¸ÐºÐ»Ð°Ð´":9239,"ĠÐ¿Ð¾Ð»Ð½Ð¾Ð¹":9240,"ĠÐ¢Ð¸Ð±":9241,"ĠÐ°ÑĢÐ³ÐµÐ½ÑĤ":9242,"ĠÐ¥Ð¾Ð»":9243,"ont":9244,"ĠÐ¿Ð¾Ð»Ð¸ÑĤÐ¸ÑĩÐµÑģÐºÐ¸Ðµ":9245,"ÑĭÐ²Ð°Ð»":9246,"ĠÐ°Ð½Ð³Ð»Ð¸Ð¹ÑģÐºÐ¾Ð¼":9247,"ĠÐ±Ð¾Ð³Ð°":9248,"ĠÐ¿ÑĢÐ¾ÑĨÐµÑģÑģÑĭ":9249,"ĠÑĥÐ¿Ð¾Ð¼Ð¸Ð½Ð°ÐµÑĤÑģÑı":9250,"ĠÐ½Ð°Ð³ÑĢÐ°Ð¶Ð´":9251,"ĠÐ¨Ð¾ÑĤÐ»Ð°Ð½Ð´Ð¸Ð¸":9252,"ust":9253,"ĠÐ²ÐµÐ½":9254,"ĠÑģÐ½ÑıÑĤ":9255,"ĠÐºÐ»Ð°Ð²":9256,"ÐµÐºÐ¾Ð¼":9257,"Ð¸ÑĨÐ¸ÐµÐ¹":9258,"Ð¸ÑĨÐ¸Ð·Ð¼Ð°":9259,"Ð¼Ð¿Ð¸ÑĢÐ¸":9260,"ĠÑģÐ¾ÑħÑĢÐ°Ð½Ð¸Ð»Ð¸ÑģÑĮ":9261,"ĠÐ¿ÑĢÐµÐ²Ð¾Ñģ":9262,"ĠÐĴÑģÐµÐ²":9263,"ĠÐ²Ð¾Ð·Ð³Ð»Ð°Ð²Ð¸Ð»":9264,"Ġ).":9265,"ĠÐ´Ñĥ":9266,"Ð¡Ð¢":9267,"ĠÑĢÑĥÐºÐ¸":9268,"ĠÐºÐ¾Ð¼Ð¿Ð°Ð½Ð¸Ð¹":9269,"ĠÐ¸ÑģÐ¿Ð¾Ð»ÑĮÐ·ÑĥÐµÑĤ":9270,"int":9271,"ĠÐ¡ÑĤÐ¾Ð»ÑĭÐ¿":9272,"ĠÐ´Ð¸Ð°Ð¿Ð°Ð·":9273,"ÑģÐ¾Ð²ÐµÑĤ":9274,"ĠÐ¼Ð°ÑģÑģÐ¾Ð²Ð¾Ð¹":9275,"ĠÑĢÑĥÐºÐ¾Ð²Ð¾Ð´ÑģÑĤÐ²Ð¾":9276,"ĠÑģÐ¸Ð½ÑĤÐ¾":9277,"ĠÐŀÑĢÐ³Ð°Ð½":9278,"ĠÐ¾ÑĤÐºÐ»Ð¾Ð½":9279,"ĠÐ¼Ð¾Ð·Ð³Ð°":9280,"ĠÐºÐ¾Ð¾ÑĢÐ´Ð¸Ð½Ð°ÑĤ":9281,"Ð±Ð»Ð¸Ð·Ð¸":9282,"ĠÐ¿ÑĢÐµÑģÐ²Ð¸ÑĤÐµÑĢÐ°":9283,"ĠÐĺÐ³Ð¾ÑĢÑĮ":9284,"ÑĩÑĳÑĢÐº":9285,"Ġe":9286,"ÑıÐ½Ð¾Ð¹":9287,"Ð³ÑĥÐ±ÐµÑĢÐ½":9288,"ÑĢÐµÑĪ":9289,"Ð»ÐµÐºÐ°":9290,"ĠÐĴÐ°ÑĤ":9291,"ĠÑĢÐµÐºÐ°":9292,"ÐŀÐ±Ñĭ":9293,"Ð¼ÐµÑĢÑĤÑĮ":9294,"ĠÐ²ÑģÐµÐ¼Ñĥ":9295,"Ġ38":9296,"ĠÐ®Ð³Ð¾":9297,"ĠÐ·Ð°Ð¿ÑĥÑģÐº":9298,"ĠÐ³ÑĢÐ°Ð´":9299,"ĠÑģÐ²ÑıÐ·Ð°Ð½Ð°":9300,"ĠÑĦÐ¸Ð»Ð¾ÑģÐ¾ÑĦÐ°":9301,"ĠÐ¾ÑĤÐºÑĢÑĭÑĤÑĭÐ¹":9302,"ĠÑģÐ¾Ð´ÐµÑĢÐ¶Ð°ÑĤ":9303,"ĠÐĴÐ°ÑģÐ¸Ð»Ð¸Ñı":9304,"ĠÐĵÐµÐ½ÑĢÐ¸":9305,"ĠÐµÐ²ÑĢÐµÐµÐ²":9306,"ĠÐ½Ð¸Ð´ÐµÑĢÐ»Ð°Ð½Ð´ÑģÐºÐ¸Ð¹":9307,"ÐŀÐºÑĤÑıÐ±ÑĢÑĮ":9308,"ri":9309,"Ð´Ð¾Ð½":9310,"ĠÐ²ÑĢÑĥÑĩ":9311,"ĠÑĥÐºÐ°Ð·ÑĭÐ²":9312,"Ð¸ÑģÐ¾Ð²":9313,"ĠÑĦÐ»Ð°Ð³Ð°":9314,"ĠÐĳÐ°ÑĤ":9315,"ĠÐ¶Ð¸ÑĤÐµÐ»Ð¸":9316,"ĠÐ¿Ð¾Ð´Ð½Ð¸Ð¼":9317,"ĠÐ´ÐµÐ»ÑıÑĤ":9318,"ĠÐ¥Ð¾ÑģÐµ":9319,"ĠÐ°Ð¼ÐµÑĢÐ¸ÐºÐ°Ð½ÑģÐºÐ¸Ñħ":9320,"ĠÐ¿ÑĢÐµÐ´ÑģÑĤÐ°Ð²Ð»ÐµÐ½Ð¸Ðµ":9321,"ĠÐ¡ÑĤÐ°Ð½":9322,"ĠÐ´Ð¸Ð°Ð³":9323,"ĠÐ¼Ð½Ð¾Ð³Ð¾Ð¼":9324,"Ð°ÑĤÐ¾ÑĢÐ¾Ð¼":9325,"ĠÐ¿ÑĢÐ¸Ð½ÑıÐ»Ð°":9326,"ĠÐ¾Ð±Ð»Ð°ÑģÑĤÐµÐ¹":9327,"ĠÐ¿ÑĢÐµÐ´ÐµÐ»Ð°Ð¼Ð¸":9328,"ĠÐŁÑĢÐµÐ·Ð¸Ð´ÐµÐ½ÑĤÐ°":9329,"Ð±ÑİÑĢÐ¾":9330,"Ð¾ÑĢÐ¾Ð°ÑģÑĤ":9331,"ĠÐ¿Ð¾Ð»ÐºÐ¾Ð²Ð¾Ð´ÐµÑĨ":9332,"ĠÐĲÐ½Ð°ÑĤÐ¾Ð»Ð¸Ð¹":9333,"ĠÐ¼Ð¾ÑĢÐµÐ¿Ð»Ð°Ð²":9334,"Ð¼ÑĭÑģ":9335,"Ð¾Ð½ÑĮ":9336,"Ð¶Ð½ÑĭÑħ":9337,"Ð°ÑĢÐ¾Ð²Ð°":9338,"1916":9339,"ĠÐ¸Ð¼Ð¼Ð¸":9340,"align":9341,"ĠÐ¿ÑĢÐ¸Ð½ÑıÑĤÐ¸Ñı":9342,"ÑģÐµÐ´Ð°ÑĤÐµÐ»ÑĮ":9343,"ÐĺÑģÑĤÐ¾Ñĩ":9344,"Ð½Ð¸ÑĨÑĥ":9345,"ÐĳÐ¾Ð»ÑĮÑĪÐ°Ñı":9346,"ĠÑģÑĬÐµÐ·Ð´Ð°":9347,"ĠÐ¿ÑĢÐµÐ¾Ð±ÑĢÐ°Ð·Ð¾Ð²Ð°Ð½Ð¸Ñı":9348,"ĠÑĢÐµÑģÑĥÑĢÑģÐ¾Ð²":9349,"indows":9350,"Ġ<":9351,"ÑĢÑĭÐ¹":9352,"ÑĤÑĢÐ¾Ð¿":9353,"ÑĥÐºÐ¸":9354,"ÐĴÑĤÐ¾ÑĢ":9355,"ÑĥÐ´Ð¸":9356,"ĠÐĿÑĮÑİÑĤ":9357,"ĠÑģÐ¸ÑģÑĤÐµÐ¼Ð°ÑĤ":9358,"ĠÐĵÐµÑĢÐ¼Ð°Ð½":9359,"ĠÐ³ÑĢÐ°Ð½Ð¸ÑĨÑĥ":9360,"ĠÑĢÐ°ÑģÐ¿ÑĢÐ¾ÑģÑĤÑĢÐ°Ð½ÐµÐ½Ñĭ":9361,"Ġ1897":9362,"Ġ1899":9363,"ĠÐ²Ð¾Ð¿ÑĢÐ¾ÑģÑĥ":9364,"Ð»ÐµÐºÑģÐ°":9365,"ĠÑģÑĤÐµÐ¿ÐµÐ½ÑĮ":9366,"ÑĥÐ¶Ð´ÐµÐ½Ð¸Ñı":9367,"ĠÑģÐ¾ÑĨÐ¸Ð°Ð»ÑĮÐ½Ð¾":9368,"ĠÐ¿ÑģÐ¸ÑħÐ¾Ð»Ð¾Ð³Ð¸Ð¸":9369,"ĠÐ½Ð°Ð·ÑĭÐ²Ð°ÐµÐ¼ÑĭÐ¹":9370,"ÑĥÑĢÐ¾Ð²ÐµÐ´":9371,"ĠÐĶÐµÐ¼Ð¾ÐºÑĢÐ°ÑĤ":9372,"ĠÐ·Ð°ÑĢÑĥÐ±ÐµÐ¶":9373,"ĠÐºÐ°Ð»ÐµÐ½Ð´Ð°ÑĢÑĮ":9374,"sk":9375,"Ð¾Ð¾ÐºÐµ":9376,"Ð½Ð¾ÑĢ":9377,"ÑģÐ¾ÑİÐ·":9378,"ĠÑģÑĦÐ¾ÑĢÐ¼ÑĥÐ»Ð¸ÑĢÐ¾Ð²":9379,"ÑİÐ½ÑĮ":9380,"Ð»ÐµÐ¿":9381,"ĠÐļÐ°Ð¼Ð±":9382,"Ð½Ð¸ÐºÐ°Ð¼":9383,"ÐµÐ·Ð´Ñĭ":9384,"ĠÐ¸Ð½ÑĤÐµÑĢÐ½ÐµÑĤ":9385,"ĠÐ¾Ð¿ÑĢÐµÐ´ÐµÐ»Ð¸ÑĤÑĮ":9386,"ĠÐ½Ð°ÑħÐ¾Ð´Ð¸Ð»Ð¸ÑģÑĮ":9387,"ĠÐ¾Ð´Ð¸Ð½Ð°ÐºÐ¾Ð²":9388,"ĠÑįÐºÐ¾Ð½Ð¾Ð¼Ð¸ÐºÐµ":9389,"ĠÑħÐ°ÑĢÐ°ÐºÑĤÐµÑĢÐ°":9390,"ĠÐ·Ð²ÑĥÐº":9391,"ĠÐ¸ÑģÐ¿Ð¾Ð»ÑĮÐ·Ð¾Ð²Ð°Ð»":9392,"ĠÐ¸ÑģÐ¿Ð¾Ð»ÑĮÐ·Ð¾Ð²Ð°ÑĤÑĮÑģÑı":9393,"ĠÑĢÐ°Ð½Ð½Ð¸Ñħ":9394,"ĠÑģÐ»ÐµÐ´ÑĥÑİÑīÐ¸Ð¼":9395,"ĠÐ¿ÑĢÐ¾Ð¸ÑģÑħÐ¾Ð¶Ð´ÐµÐ½Ð¸Ðµ":9396,"ĠÐĿÐ°ÑĨÐ¸Ð¾Ð½Ð°Ð»ÑĮÐ½ÑĭÐ¹":9397,"ÐĺÐ½Ð¾Ð³Ð´Ð°":9398,"ĠÐ²Ð²ÑĳÐ»":9399,"ĠÑĥÐºÐ°Ð·ÑĭÐ²Ð°ÐµÑĤ":9400,"ÑıÑīÐµÐ³Ð¾":9401,"ĠÐºÐ¸Ð¿":9402,"ĠÐºÐ°Ð²Ð°Ð»":9403,"ÑĢÐ¸ÑĨÑĭ":9404,"ÐµÑĤÑĤ":9405,"Ð¸Ð¼Ð¸ÑĤ":9406,"ĠÐļÐµÐ½Ð½":9407,"ĠÑįÑĢÑĭ":9408,"ĠÐĳÐ°Ð±":9409,"ĠÐĿÐ°Ð²":9410,"ĠÐ²Ð¾Ð¹ÑģÐºÐ¾":9411,"ÐĹÐ´":9412,"ĠÐ¸Ð¼ÐµÐ»Ð°":9413,"ĠÐ²Ð¾Ð´Ðµ":9414,"ĠÑĪÐºÐ¾Ð»ÑĮ":9415,"ĠÐ·Ð°ÑĤÑĢÑĥÐ´":9416,"Ð½ÑĮÑĪÐµ":9417,"ĠÑģÑĭÐ½Ð¾Ð²":9418,"ĠÐĹÐµÐ¼Ð»Ñı":9419,"ĠÐĴÐ°Ð»ÐµÑĢÐ¸Ð¹":9420,"ĠÐ½ÐµÑĦÑĤÐµÐ¿":9421,"ĠÐ¤ÐµÑĢÐ´Ð¸Ð½":9422,"ĠÐ¿ÑĢÐµÐ²ÑĭÑĪÐ°ÐµÑĤ":9423,"ĠÐļÐ°Ð»Ð¸Ð½Ð¸Ð½Ð³ÑĢÐ°Ð´ÑģÐºÐ¾Ð¹":9424,"Ð¼ÑĥÐ·ÑĭÐºÐ°Ð½ÑĤ":9425,"Ð°Ð½Ð´Ð¸Ð½Ð°Ð²":9426,"St":9427,"Ð½Ð¸Ð½":9428,"ĠÐ¿ÐµÐ½Ñģ":9429,"ÐµÐ½ÑģÐºÐ°Ñı":9430,"ÑĩÐ»ÐµÐ½":9431,"ĠÐ´ÑĢÑĥÐ·":9432,"Ð»Ð°Ð¶Ð´":9433,"Ð¸Ð»Ñĭ":9434,"ĠÐ¿ÑĢÐµÐ´Ð»Ð°Ð³Ð°":9435,"Ð¸ÑĩÐ½Ð¾Ð³Ð¾":9436,"ĠÐ£Ð½Ð¸Ð²ÐµÑĢÑģÐ¸ÑĤ":9437,"ĠÐ¿ÑĢÐµÐ´ÑģÑĤÐ°Ð²Ð»ÐµÐ½Ð°":9438,"Ġ1901":9439,"ĠÐ¿Ð¾Ð´Ð´ÐµÑĢÐ¶Ð¸Ð²":9440,"Ġ1898":9441,"ĠÐ¿ÐµÑģÐ½Ñı":9442,"ĠÐĵÐµÑĢÑĨ":9443,"ĠÐ½Ð°ÑĥÐºÐµ":9444,"ĠÐ·Ð¾Ð»Ð¾ÑĤÐ¾":9445,"ĠÐ¿ÑĢÐ¸Ð½Ð¸Ð¼Ð°ÐµÑĤ":9446,"Ð¾Ð¿ÑĢÐ¸ÑıÑĤ":9447,"ĠÐ¿Ð¾ÑįÑĤÐ°":9448,"ĠÐ¿ÐµÑĩÐ°ÑĤÐ¸":9449,"ĠÐľÑĥÑħÐ°Ð¼Ð¼":9450,"ĠÐ°Ð²Ð¸Ð°ÐºÐ¾Ð¼Ð¿":9451,"ĠÐ½ÐµÐ³Ð°ÑĤÐ¸Ð²":9452,"ĠÐ¡Ð²ÑıÑīÐµÐ½Ð½Ð¾Ð¹":9453,"ÐŃÑĤÐ¸Ð¼Ð¾Ð»Ð¾Ð³Ð¸Ñı":9454,"ÐĸÐµÐ»ÐµÐ·Ð½Ð¾Ð´Ð¾ÑĢÐ¾Ð¶Ð½ÑĭÐ¹":9455,"Ġ'":9456,"ÑĥÑĦ":9457,"Ð¾Ð»Ð¾Ð¼":9458,"ÑĢÐ¸Ð°Ð½":9459,"ĠÐ°Ð»ÑİÐ¼Ð¸Ð½":9460,"ĠÑĢÐ°Ð½ÑĮÑĪÐµ":9461,"ÐĴÐ¿Ð¾ÑģÐ»ÐµÐ´ÑģÑĤÐ²Ð¸Ð¸":9462,"ÑĢÐ°Ð½Ð¸Ñı":9463,"ĠÐĵÐ¸ÑĤ":9464,"ĠÑĨÐµÐ»ÑıÑħ":9465,"ĠÑĨÐ¸Ð²Ð¸Ð»Ð¸":9466,"Ð°ÑĢÑĤÐ°Ð¼":9467,"ĠÐĹÐµÐ²":9468,"Ġ44":9469,"ĠÑĢÐ°Ð±Ð¾ÑĤÐ°ÑİÑĤ":9470,"ĠÐ¾Ð±ÑīÐµÐµ":9471,"ĠÐ³ÑĢÑĥÐ¿Ð¿Ðµ":9472,"ĠÐ½Ð°Ð·ÑĭÐ²Ð°ÑİÑĤÑģÑı":9473,"ĠÐ¿Ð¾Ð´Ð´ÐµÑĢÐ¶ÐºÐµ":9474,"ĠÑģÐ¾ÐµÐ´Ð¸Ð½ÐµÐ½Ð¸Ñı":9475,"Ð½Ð°ÑģÑĤÐ°Ñģ":9476,"ĠÐ¼Ð°ÑĢÑĪÑĢÑĥÑĤ":9477,"ĠÐĵÑĥÑģÑĤÐ°Ð²":9478,"ĠÐ¡Ð¼Ð¾Ð»":9479,"ĠÑĤÐµÑħÐ½Ð¾Ð»Ð¾Ð³Ð¸Ð¹":9480,"ĠÐ¨Ð²ÐµÐ¹ÑĨÐ°ÑĢÐ¸Ð¸":9481,"VI":9482,"Ð¼ÑĥÑĤ":9483,"ĠÑĤÑĳ":9484,"ĠÐ°Ð²Ð°":9485,"ĠÑģÑĤÐ¸Ð»ÑĮ":9486,"ĠÐļÐ¾":9487,"ĠÐĲÑģ":9488,"ÑģÐ¿Ð¾Ð½Ð´":9489,"ÑĨÐ¸Ð´":9490,"ÐµÐºÑģÑĥ":9491,"ÐĲÑĦ":9492,"ĠÐĽÑĥÐºÐ°":9493,"ĠÐŃÑĦÐ¸Ð¾Ð¿":9494,"Ð¼ÑĭÐ½":9495,"ĠÐ²ÑĤÐ¾ÑĢÐ¾Ðµ":9496,"Ð´ÐµÑĢÐ¶Ð¸Ð²":9497,"ĠÐ¿Ð¾ÑĢÑĥÑĩ":9498,"ĠÐ²ÑĭÑģÐ¾ÐºÐ¾":9499,"ĠÐ¾Ð±ÑĬÑıÐ²Ð¸Ð»Ð°":9500,"ĠÐ·Ð°ÑħÐ²Ð°":9501,"Ð±ÑĥÑĢÐ³Ðµ":9502,"ĠÐ¿ÑĢÐ¾Ð¿Ð¾ÑĢ":9503,"ĠÑĢÑĥÐ±ÐµÐ¶":9504,"Ð°Ð²ÑĪÐ¸ÑħÑģÑı":9505,"Ð¢ÐµÑĢÑĢÐ¸ÑĤÐ¾ÑĢ":9506,"ĠÐľÐ¸ÑħÐ°Ð¹Ð»Ð¾Ð²Ð¸Ñĩ":9507,"ĠÐºÐ¸Ð»Ð¾Ð¼ÐµÑĤÑĢÐ¾Ð²":9508,"ĠÑģÐ°Ð¹ÑĤÐµ":9509,"Ð¡Ð¡Ð¡Ðł":9510,"ĠÐ¾Ð±Ð¾ÑĢÐ¾ÑĤ":9511,"ĠÐľÐ¾Ð¶Ð°Ð¹":9512,"ÐłÐ¾Ð¼":9513,"Ð¢ÑĢÐ°Ð½ÑģÐ¿Ð¾ÑĢÑĤ":9514,"ĠÐ¿Ð¾Ð²ÐµÐ´ÐµÐ½Ð¸Ñı":9515,"ÐŀÐ±ÑīÐµ":9516,"Ġ1902":9517,"ĠÐľÐ°ÑĢÑĪÐ°Ð»":9518,"ĠÑĤÐµÐºÑģÑĤÐ¾Ð²":9519,"ram":9520,"ĠÑģÐ¾ÑĩÐ¸Ð½ÐµÐ½Ð¸Ñı":9521,"Ð¾Ð³Ð¾Ð½ÑīÐ¸Ðº":9522,"ÑĤÐµÑĢÑĢÐ¸ÑĤÐ¾ÑĢÐ¸":9523,"Ð¼Ð°Ñħ":9524,"ĠÑģÑĨÐµÐ½":9525,"ÑĳÑĢÐ¾Ð²":9526,"Ð°Ð²ÑĤ":9527,"ÐļÐ¸Ð½Ð¾":9528,"ĠÑĢÐ°Ð·ÑĢÐ°Ð±Ð°ÑĤÑĭ":9529,"ĠÐ¢Ð°Ðº":9530,"Ð°Ð¿Ð°":9531,"Ð¸Ð½Ð¾Ñĩ":9532,"ĠÐ²ÑĭÑģÑĪÐ¸Ñħ":9533,"ĠÐ³Ð»Ð°Ð²Ð½Ð¾ÐºÐ¾Ð¼Ð°Ð½Ð´":9534,"ĠÐ¤ÑĢÐ°Ð½ÑģÑĥÐ°":9535,"ĠÑĢÐ°Ð·Ð»Ð¸ÑĩÐ½ÑĭÐ¼Ð¸":9536,"ĠÐ¿ÑĢÐ¾ÑĨÐµÐ´":9537,"ĠÑĤÐ¾ÑĩÐ½Ð¾":9538,"ĠÐ²ÑĭÑģÐ¾ÐºÐ¸Ñħ":9539,"ĠÐºÐ°Ð½Ð°Ð»Ð°":9540,"ĠÐ¸Ð´ÐµÑı":9541,"Ð½Ð¾ÑģÐ»Ð°Ð²ÑıÐ½":9542,"ĠÐ·Ð½Ð°ÑĩÐ¸ÑĤÐµÐ»ÑĮÐ½Ð¾Ð¹":9543,"ĠÐ¾Ð¿ÑĥÐ±Ð»Ð¸ÐºÐ¾Ð²Ð°Ð»":9544,"ĠÐ¿Ð¾Ð¿ÑĭÑĤÐºÐ°":9545,"ĠÑĤÑĢÐ°Ð´Ð¸ÑĨÐ¸Ð¾Ð½Ð½Ð¾":9546,"ĠÐ¿ÑĥÐ½ÐºÑĤÑĭ":9547,"ÑĢÐ¾ÑģÑģ":9548,"Ð²Ð°ÑĢÑĮ":9549,"ĠÐ»ÐµÐºÑģ":9550,"ĠÐ¶ÐµÐ½Ð¸":9551,"ĠÐĺÑĢÐ°Ð½Ð°":9552,"ÑĢÐ¾Ð¼ÐµÑĤ":9553,"ĠÑģÐ»ÑĥÑĪ":9554,"ÐķÐ¡":9555,"ĠÑĨÐµÐ½ÑĤÑĢÐ¾Ð²":9556,"ĠÐ¿ÐµÑĢÐµÐ²ÐµÐ´":9557,"ĠÐ²ÑĭÐ¿Ð°Ð´":9558,"ĠÐºÐ¾Ð½ÑģÑĤÐ¸ÑĤÑĥÑĨÐ¸Ñı":9559,"ĠÐľÐ°ÑĤÐµÑĢÐ¸":9560,"ĠÐ¿ÑĢÐ¸Ð¾Ð±ÑĢÐµÑĤ":9561,"ĠÑģÐ¸ÑĤÑĥÐ°ÑĨÐ¸Ð¸":9562,"ĠÐŁÑĥÑĤÐ¸Ð½":9563,"ÐŁÑĢÐ°Ð²Ð¾ÑģÐ»Ð°Ð²Ð½ÑĭÐµ":9564,"ÑģÐ¾ÐµÐ´Ð¸Ð½":9565,"Ð¾Ð²ÑģÐºÐ¾Ð¹":9566,"Ð¶ÐµÐ´":9567,"ĠÐ±Ð¾ÑĤÐ°Ð½":9568,"Ð¡ÐµÐ½ÑĤ":9569,"ÐµÐ²Ð¾":9570,"ĠÐļÑį":9571,"ĠÐ¾ÐºÐ¸Ñģ":9572,"Ð¸Ð½Ð³ÑĤÐ¾Ð½":9573,"ĠÑĢÐ°ÑģÑģÑĩÐ¸ÑĤ":9574,"ĠÐ¸Ð·Ð¼ÐµÐ½ÐµÐ½Ð¸Ð¹":9575,"ĠÑħÑĢÐ¸ÑģÑĤÐ¸Ð°Ð½ÑģÑĤÐ²Ð°":9576,"ĠÑĤÑĢÐµÐ±ÑĥÐµÑĤ":9577,"ĠÐ¿ÑĢÐµÐ´Ð»Ð¾Ð¶ÐµÐ½Ð¸Ðµ":9578,"oogle":9579,"la":9580,"Ã¡":9581,"ĠÑģÐºÐ¾Ð½Ñĩ":9582,"ÐµÑĢÐ¿":9583,"ĠÐĳÑĥÐ»":9584,"ĠÑħÐ»ÐµÐ±":9585,"ĠÐ¥Ð°Ð½":9586,"ĠÑĥÑĩÐ¸Ð»Ð¸ÑīÐµ":9587,"ĠÐĹÐ°":9588,"Ġ43":9589,"ĠÐºÐ¾ÑģÐ¼Ð¸ÑĩÐµÑģÐºÐ¸Ð¹":9590,"ĠÐ¿Ð¾Ð³Ð»Ð¾Ñī":9591,"ĠÐ»ÑİÐ±Ð¾Ð³Ð¾":9592,"ĠÑģÐ²ÑıÑĤÐ¸ÑĤÐµÐ»Ñı":9593,"ĠÐºÐ¾Ð¼Ð¸ÑģÑģÐ¸Ð¸":9594,"ĠÐ·Ð°Ð³ÑĢÑıÐ·Ð½":9595,"ÐĴÑĭÐ¿ÑĥÑģÐºÐ½Ð¸ÐºÐ¸":9596,"ĠÐ¡Ð¾Ð´ÑĢÑĥÐ¶Ðµ":9597,"ey":9598,"Ð¾Ð»Ð³Ð¾":9599,"ĠÑĤÐ¸":9600,"Ð°ÑĢÐ½Ð°Ñı":9601,"ÑįÑĤÐ°":9602,"ÐµÐ½ÑĤÐµ":9603,"ÐłÐ¾ÑģÑĤ":9604,"ÑĥÑģÐ¾Ð²":9605,"ĠÐ¾Ð´Ð½Ð¾Ð¼Ñĥ":9606,"Ð¸ÑĢÐ¾Ð²ÐºÐ°":9607,"2022":9608,"Ð³ÑĢÐ°ÑĢ":9609,"ĠÐ¿Ð¾Ð¼Ð¸Ð¼Ð¾":9610,"ĠÑĥÑĩÐ°ÑģÑĤÐ¸Ñı":9611,"ĠÐ¸Ð½ÑĤÐµÑĢÑĦ":9612,"ÑĩÐ°ÑģÑĤÑĥÑİ":9613,"ĠÑĥÑĩÑĢÐµÐ¶Ð´ÐµÐ½Ð¸Ñı":9614,"Ð¾ÐºÐ¾Ð¼Ð¾ÑĤ":9615,"ĠBoeing":9616,"ython":9617,"OS":9618,"ÑĤÐ°Ð²":9619,"ĠÐ¿ÐµÑħ":9620,"ÑģÐºÐ¾Ð»ÑĮÐºÐ¾":9621,"Ð°ÑĢÐ¾Ð¼":9622,"Ġ130":9623,"ÑĳÐ¶Ð¸":9624,"ÐŁÐ°ÑĢÐ°":9625,"ĠÐ¿ÑĢÐ¸Ð·ÑĭÐ²":9626,"ĠÐĳÐ°Ð³":9627,"ÐĺÐ¼Ðµ":9628,"ĠÑĪÐµÑģÑĤÐ¸":9629,"ĠÑģÐ¿ÐµÑĨ":9630,"ÑĢÐ¾Ð¿Ð¾Ð»":9631,"Ð°ÑİÑīÑĥÑİ":9632,"ĠÐ¼Ð¾Ð½ÐµÑĤÑĭ":9633,"ĠÐ´Ð¾Ð¼Ð¾Ð²":9634,"ĠÐ¸Ð³ÑĢÐ¾Ðº":9635,"ĠÐºÐ¾ÑĢÐ°Ð±Ð»ÑĮ":9636,"ĠÐ¾Ð¿ÑĢÐµÐ´ÐµÐ»ÑıÐµÑĤ":9637,"ĠÐ¿ÑĢÐ¾Ð¿Ð°Ð³":9638,"ĠÐķÐ³Ð¸Ð¿ÐµÑĤ":9639,"ĠÐ¼ÑĥÑĩÐµÐ½Ð¸ÐºÐ¾Ð²":9640,"ĠÑĦÐµÐ´ÐµÑĢÐ°Ð»ÑĮÐ½Ð¾Ð³Ð¾":9641,"ĠÐĳÐ¾Ð»ÑĮÑĪÐ¾Ð³Ð¾":9642,"ĠÑĥÑģÐ¿ÐµÑĪÐ½Ð¾":9643,"ĠÑĢÐ°ÑģÐ¿Ð¾Ð»Ð°Ð³Ð°ÐµÑĤÑģÑı":9644,"ĠÐ¿Ð¾Ð·Ð½Ð°Ð½Ð¸Ñı":9645,"ÐŀÑĦÐ¸ÑĨÐ¸Ð°Ð»ÑĮÐ½ÑĭÐ¹":9646,"ÐľÐ¸ÑħÐ°Ð¸Ð»":9647,"ĠÐ½Ð°Ð²":9648,"ĠÐ·Ð¾":9649,"Ð¾Ð±Ð¾ÑĢÐ¾ÑĤ":9650,"ÐµÐ¹ÑģÐºÐ¾Ð¹":9651,"ĠÐ½ÐµÑĢÐ°Ð²":9652,"ÑĬÐµÐ·Ð´":9653,"ÐµÐ»ÐµÑģ":9654,"ĠÐ¿Ð¸ÑģÐ°ÑĤÐµÐ»ÐµÐ¹":9655,"ĠÑİÑĢÐ¸ÑģÑĤ":9656,"ĠÐ²Ð¾Ð´Ð¾Ð¹":9657,"ĠÐ²Ð¾Ð´Ð¾ÑĢÐ¾Ð´Ð°":9658,"ĠÐ³Ð»Ð°Ð²Ð½Ð¾Ð¹":9659,"Ð¸ÑĢÐ¾Ð²Ð°Ð½Ð½Ð¾Ð³Ð¾":9660,"ĠÑģÐ»ÑĥÐ¶Ð±Ñĥ":9661,"ĠÑĪÐºÐ¾Ð»Ñĥ":9662,"ĠÐ±Ð¸Ð¾Ð³ÑĢÐ°ÑĦ":9663,"ĠÐļÐ¾Ð¼Ð¼ÑĥÐ½Ð¸ÑģÑĤ":9664,"ĠÐŁÐµÑĢÑĥ":9665,"ĠÐ¾ÐºÑĢÑĥÐ¶Ð°ÑİÑīÐµÐ¹":9666,"ĠÐķÐ³Ð¸Ð¿ÑĤÐµ":9667,"ational":9668,"ĠÑģÐ¼ÑĭÑģÐ»":9669,"ĠÐ¿ÐµÑĢÐµÐ½ÐµÑģ":9670,"ĠÐ³Ð»Ð¾Ð±ÑĥÑģ":9671,"ÑİÐ½Ñħ":9672,"ĠÐ¿Ð¸ÑĤÐ°Ð½Ð¸Ñı":9673,"ĠÐ²ÑĭÑĤÐµÑģ":9674,"ĠÐĿÐ°ÑĩÐ°Ð»Ð¾":9675,"Ïħ":9676,"ÑıÐ»Ð¸ÑģÑĮ":9677,"ĠÑģÐ°Ð½Ðº":9678,"ÑħÐ¾Ð¶Ð´ÐµÐ½Ð¸Ñı":9679,"ĠÐ¼Ð°Ð¼":9680,"ÑĳÑĢÑĭ":9681,"ÐŁÑĥÑĤ":9682,"ĠÐļÐ°Ð²ÐºÐ°Ð·":9683,"ÐĿÐ¾Ð²ÑĭÐ¹":9684,"ÐĺÐ¼ÐµÐ½Ð¸":9685,"ĠÐŀÐ´":9686,"ĠÐºÐ¾Ð¼ÐµÐ´":9687,"Ð¾Ð²Ð°Ð½Ð½ÑĭÐµ":9688,"ĠAl":9689,"ĠPh":9690,"ica":9691,"ĠÐ°Ð´ÑĢÐµ":9692,"Ð²Ð°ÑĤÐµÐ¼":9693,"ĠÐ¸ÑģÐ¿Ð¾Ð»ÑĮÐ·Ð¾Ð²Ð°Ð»Ð¸ÑģÑĮ":9694,"ĠÐ´Ð¾Ð±ÑĢÐ¾Ð²Ð¾Ð»ÑĮ":9695,"ĠÑĥÑĤÐ²ÐµÑĢÐ¶Ð´Ð°ÐµÑĤ":9696,"ĠÐ¿Ð¾ÑĢÑĤÑĢÐµÑĤ":9697,"ĠÐ¾ÐºÐ¾Ð½ÑĩÐ¸Ð»":9698,"ĠÐ´Ð°Ð²Ð»ÐµÐ½Ð¸Ñı":9699,"ÐļÐ¾Ð¼Ð¼ÐµÐ½ÑĤ":9700,"ĠÐĺÐ·ÑĢÐ°Ð¸Ð»ÑĮ":9701,"ĠÐŃÑĢÐ½":9702,"CO":9703,"ĠÐ´ÑĥÐ¼":9704,"ÐĴÐ·":9705,"ÐµÐ´Ñĭ":9706,"ĠÐĳÑĢÐ°Ð½":9707,"ÐĲÐ·":9708,"Ð»ÑİÐ·":9709,"ÐĹÐ°Ð²":9710,"Ð²ÐµÐ´ÐµÐ½Ð¸Ñı":9711,"ĠAr":9712,"ĠÐ½Ð°Ð¿ÑĢÐ°Ð²Ð»ÐµÐ½Ð¸Ðµ":9713,"ĠÑģÐ¾Ð»Ð¸":9714,"ĠÐĳÐ¾Ð»Ð¸Ð²":9715,"ĠÐµÐ²ÑĢÐ¾Ð¿ÐµÐ¹ÑģÐºÐ¾Ð¹":9716,"ĠÑģÐ¾ÑĨÐ¸Ð°Ð»":9717,"ĠÐ´Ð¸ÑĢÐµÐºÑĤ":9718,"ĠÐ¿ÑĢÐµÐ´Ð¿ÑĢÐ¸Ð½Ð¸Ð¼Ð°ÑĤÐµÐ»ÑĮ":9719,"ĠÐ¼ÐµÑĤÑĢÐ¾Ð¿Ð¾Ð»Ð¸ÑĤÐµÐ½Ð°":9720,"ĠÐ¤ÑĢÐ°Ð½ÑĨÐ¸ÐµÐ¹":9721,"ĠÐ´Ð¸ÑĦÑĦÐµÑĢ":9722,"Ð±Ð°Ñħ":9723,"Ð³Ð¸Ð½":9724,"Ð¾Ð¼Ð¾Ð½Ð¾Ñģ":9725,"Ð»ÑĮÐ½Ð¾":9726,"ĠÐ¸Ð·Ð²":9727,"ĠÐłÐµ":9728,"ÐĿÐ°Ð³ÑĢÐ°":9729,"ĠÐ¤ÑĢÑįÐ½":9730,"ÐµÐ·Ð°Ð²Ð¸ÑģÐ¸Ð¼":9731,"ÐĿÐ°ÑĩÐ¸Ð½":9732,"ĠÐ¾Ð±ÑĢÐ°Ð·ÑĥÑİÑĤ":9733,"ate":9734,"ĠÑģÑĤÐ¾Ð»Ð¸ÑĨÐ°":9735,"ĠÑģÑĤÐ°ÑĤÐµÐ¹":9736,"ĠEn":9737,"ĠÑħÐ¾ÑĢÐ²Ð°ÑĤ":9738,"ĠÐ»Ð¸ÑĨÐµÐ½Ð·":9739,"ĠÐ¼ÐµÑĤÐ°Ð»Ð»Ð¾Ð²":9740,"ĠÐ±Ð¸Ð±Ð»Ð¸Ð¾ÑĤÐµÐºÐ¸":9741,"ĠÑĨÐ¸ÑĢ":9742,"ĠÐ²Ð°Ð»":9743,"Ð»ÑĮÐ½ÑĭÐµ":9744,"Ð»Ð°Ð¼Ð°":9745,"ĠÐľÐ°Ñģ":9746,"1900":9747,"Ð¾ÑĩÐ½Ð¾Ð³Ð¾":9748,"ĠÐ¤Ð¸Ð´":9749,"ĠÐ¤ÐłÐĵ":9750,"ĠÑĥÑĩÑĳÑĤ":9751,"ĠÑĥÑģÑĤÑĢÐ¾":9752,"ĠÐ¿Ð¾Ð¿ÑĢÐ°Ð²":9753,"Ð¢Ð°ÐºÐ¸Ðµ":9754,"ĠÐ¿ÐµÑĢÐµÑĪÐ»Ð°":9755,"ÑĭÐ²Ð°Ð»Ð¸":9756,"ĠÐºÐ°ÑĩÐµÑģÑĤÐ²Ð°":9757,"ÐŁÐµÑĢÐ²Ð¾Ð½Ð°Ñĩ":9758,"ĠÐ¶ÑĥÑĢÐ½Ð°Ð»":9759,"ĠÐĺÑĤÐ°Ð»Ð¸Ñı":9760,"ĠÐŁÐ°Ð²Ð»Ð¾Ð²":9761,"ĠÐ½Ð¾ÑģÐ¸ÑĤ":9762,"ĠÐ»ÑĥÑĩÑĪÐµ":9763,"ĠÐ¿ÑĢÐ¸Ð±Ð»Ð¸Ð¶":9764,"ĠÐ·Ð°Ð¸Ð¼ÑģÑĤÐ²":9765,"ÑģÑĢÐµÐ´":9766,"ĠÐ¿Ð°Ð½Ðº":9767,"ĠÐ°ÑģÐ¿ÐµÐºÑĤ":9768,"ĠÐ¡Ð°Ð»ÑĮ":9769,"ĠÐ»Ð°Ð²":9770,"ĠÐ·Ð°ÑĩÐ°ÑģÑĤÑĥÑİ":9771,"ĠÐ¿ÑĢÐµÐµÐ¼":9772,"ĠÐ£Ñĩ":9773,"Ġ42":9774,"ÐķÑĳ":9775,"Ð¡ÑĤÐ¾Ð»":9776,"ÑĦÐ¾ÑĢÐ¼Ð°ÑĤ":9777,"Ð¸ÑīÐ°":9778,"ĠÐ¿Ð¾ÑģÑĤÑĢÐ¾ÐµÐ½Ð°":9779,"ĠÐ´Ð¾Ð¿ÑĥÑģÐº":9780,"ĠÐ¿Ð°ÑĢÐ»Ð°Ð¼ÐµÐ½ÑĤÐµ":9781,"ĠÐĽÑĥÐ½Ñĭ":9782,"ÐµÐºÑģÐ¸ÐºÐ°Ð½":9783,"ĠÐ²ÑĭÐ¿Ð¾Ð»Ð½ÐµÐ½Ð¸Ñı":9784,"ÐĵÐ¾ÑģÑĥÐ´Ð°ÑĢÑģÑĤÐ²Ð°":9785,"ive":9786,"ÐĻÐ¾ÑĢÐº":9787,"ĠÐ»ÐµÐ¶Ð¸ÑĤ":9788,"ĠÐ»ÑİÐ´ÑĮÐ¼Ð¸":9789,"ĠÑģÐµÐ·Ð¾Ð½":9790,"ment":9791,"Ġ&":9792,"ĠÑģÑĩÐ°ÑģÑĤ":9793,"ÑĨÐ¸Ð½Ð°":9794,"ÐµÑĤÑĥ":9795,"ÑĦÐµÐºÑĤ":9796,"ĠÐ±ÑĢÐ°ÑĤÐ°":9797,"ÐŁÐ°":9798,"ĠÐľÑĥ":9799,"ĠÐ¿Ð¾ÐµÐ·Ð´Ð°":9800,"ĠÐłÐ°Ð¹":9801,"ĠÐ¿Ð¾Ð´ÑĩÑĳÑĢÐº":9802,"ĠÐ¿ÑĢÐ¾ÑĤÐ¾ÐºÐ¾Ð»":9803,"Ð»Ð¾Ð¶ÐµÐ½Ð¸Ðµ":9804,"Ġ1951":9805,"ÑĭÐ²Ð°Ð»Ð¾ÑģÑĮ":9806,"ung":9807,"ÐŁÑĢÐ°Ð²Ð¸ÑĤÐµÐ»ÑĮÑģÑĤÐ²Ð¾":9808,"ĠÑĢÐµÐ¹ÑĤÐ¸Ð½Ð³":9809,"ĠÑĤÐ¾Ð²Ð°ÑĢÐ¾Ð²":9810,"ĠÐ¿ÑĢÐ¾Ð»Ð¸Ð²":9811,"BS":9812,"ÐµÑĢÑģÑĤÐ²Ð¾":9813,"ĠÑĤÐµÐº":9814,"ĠÐ±ÐµÑĢÐµÐ³Ð°":9815,"ÐµÐ¼ÐµÑĢÐ¾Ð²":9816,"ĠÐĴÐ°Ð»ÑĮ":9817,"ĠÐºÐ¾Ð¼Ð±Ð¸Ð½":9818,"ĠÐĹÐ¾Ð»Ð¾ÑĤ":9819,"ĠÐ¿Ð¾ÑģÑĤÐ°":9820,"ĠÐ¼ÐµÑģÑĤÐ½ÑĭÐµ":9821,"Ð¸ÑĢÑĥÑĢÐ³":9822,"ĠÑĩÐµÐ¼Ð¿Ð¸Ð¾Ð½Ð°ÑĤÐ°":9823,"ĠÑĦÐ¸Ð·Ð¸ÑĩÐµÑģÐºÐ¸Ñħ":9824,"ĠÐ²ÑĭÐ¿ÑĥÑģÐºÐ°":9825,"ĠÐ·Ð°ÐºÐ»ÑİÑĩÐ°ÐµÑĤÑģÑı":9826,"ĠÐ¿ÑĢÐ¸ÑĩÐ¸Ð½Ðµ":9827,"ĠÐ¿ÑĢÐµÑģÑĤÐ¾Ð»Ð°":9828,"ĠÐ¶Ð°Ð½ÑĢÐ°":9829,"ÐľÐµÐ¶Ð´ÑĥÐ½Ð°ÑĢÐ¾Ð´Ð½ÑĭÐµ":9830,"ÐĺÐ¼ÐµÐ½Ð¸Ð½Ñĭ":9831,"ÑĦÑĥÐ½":9832,"Ð¸Ð½Ð°Ð¼Ð¸":9833,"ÑįÐ½ÑĮ":9834,"ÐĴÑģÐºÐ¾ÑĢÐµ":9835,"ĠÐŁÐ¾Ñĩ":9836,"Ð¸ÑģÑĤÐ°Ð¼Ð¸":9837,"ÐłÐ°Ð´":9838,"ĠÐ¸Ð¼ÐµÐ½Ð°":9839,"ÐľÑĥÐ·ÐµÐ¹":9840,"Ð½Ð¾Ð¼ÐµÑĢ":9841,"ĠÐ¾ÑģÐ½Ð¾Ð²Ð°Ð»":9842,"ĠÐĹÐ°Ð¿":9843,"Ġ64":9844,"ĠÐ¿Ð¾ÑģÐ»ÐµÐ´Ð½ÐµÐµ":9845,"ĠÑģÐ¸Ð»Ð¾Ð¹":9846,"ĠÐºÐ°Ð½Ð¾Ð½":9847,"Ð¸ÑĤÐµÐ»ÑıÐ¼":9848,"Ð¿Ð¾ÑģÐ»Ðµ":9849,"ĠÐ¾ÑħÐ¾ÑĤ":9850,"ĠÐ¾Ð·ÐµÑĢÐ°":9851,"ĠÐ¿ÑĥÑĤÐµÑĪÐµÑģÑĤÐ²ÐµÐ½Ð½Ð¸Ðº":9852,"ĠÐĲÐ·ÐµÑĢÐ±Ð°Ð¹Ð´Ð¶Ð°Ð½Ð°":9853,"ĠÐĴÑĮÐµÑĤÐ½Ð°Ð¼Ð°":9854,"ĠÐ°ÑĢÑħÐµÐ¾Ð»Ð¾Ð³":9855,"Ð¡ÐµÑĢÐ³ÐµÐ¹":9856,"ĠÐ¿ÑĮÐµÑģ":9857,"ĠÑįÑģÐ¿ÐµÑĢÐ°Ð½ÑĤÐ¾":9858,"ĠÐ¸Ð½ÑĭÑħ":9859,"Ð¾ÑĢÐ¾ÑĪ":9860,"Ġ125":9861,"ĠÐŁÐµÑĢÐ¼":9862,"ÑĢÐ°Ð²Ð½Ð¸Ð²":9863,"Ð¸ÑĤÐµÐ»ÑĮÐ½ÑĭÐ¼Ð¸":9864,"ĠÐ¸Ð¼ÐµÐ²":9865,"ÐĶÐ¾Ðº":9866,"ÐĺÐ²Ð°Ð½":9867,"ĠÑĩÐ°ÑģÑĤÐ½ÑĭÑħ":9868,"ĠÐ²ÑĭÑģÑĪÐµÐ³Ð¾":9869,"ĠÑħÐ¸Ð¼Ð¸ÑĩÐµÑģÐºÐ¸Ñħ":9870,"ĠÐ¾Ð±ÐµÑģÐ¿ÐµÑĩÐµÐ½Ð¸Ðµ":9871,"ĠÐ³Ð¾Ð²Ð¾ÑĢÑıÑĤ":9872,"ĠÐºÑĢÐµÐ¿Ð¾ÑģÑĤ":9873,"ĠÐ²ÑĭÐ½ÑĥÐ¶Ð´ÐµÐ½":9874,"ÐĴÐ¾Ð¹Ð½Ð°":9875,"ĠÐłÑĥÐ¼ÑĭÐ½Ð¸Ð¸":9876,"ÐłÐ°Ð±Ð¾ÑĤ":9877,"Ð´Ñı":9878,"ĠÐ¸Ð½Ð¾Ð¹":9879,"Ð¾Ð»Ñĩ":9880,"ĠÐ´Ð¾Ð½":9881,"Ð»ÑıÐ»Ð¸":9882,"Ð¾Ð±ÐµÐ´Ð°":9883,"ÐĴÐ°Ñģ":9884,"Ð½Ð¸ÐºÑĥ":9885,"ĠÐ¿Ð¾Ð»ÑĥÑĪ":9886,"ÐĿÐ¸":9887,"ĠÐ¿Ð¾Ð²Ð¾Ð´Ñĥ":9888,"ĠÐ½ÐµÐºÐ¾ÑĤÐ¾ÑĢÐ¾Ðµ":9889,"ĠÑģÐ»ÑĥÐ¶Ð¸ÑĤ":9890,"ĠÐ¸ÑģÑĤÐ¾ÑĩÐ½Ð¸ÐºÐ¾Ð¼":9891,"ĠÐ¼Ð¾Ð»Ð¾Ð´ÑĳÐ¶Ð¸":9892,"ĠÑĥÑĩÐµÐ±Ð½ÑĭÑħ":9893,"ĠÐ±Ð¾ÐµÐ²ÑĭÑħ":9894,"ÑĢÐ¸ÑĢÑĥ":9895,"ĠÐ´ÑĢÑĥÐ³Ð¾Ðµ":9896,"Ð¸Ð½ÑģÐºÐ¾Ð¼":9897,"ÐŁÐ¾Ð·Ð´Ð½ÐµÐµ":9898,"ĠÐ¿ÑĢÐ¾ÑĤÐ¾Ðº":9899,"ĠÐ¼ÐµÑĤÐ¾Ð´Ð°":9900,"ĠÑģÑĥÐ´Ñĭ":9901,"ĠÐ¤ÑĢÐ°Ð½Ñģ":9902,"ÐĲÑĢÐ¼":9903,"ĠÐ¶ÐµÐ»ÐµÐ·Ð½ÑĭÑħ":9904,"ĠÐ¾Ð±Ð»Ð°Ð´Ð°ÑİÑĤ":9905,"ĠÑĩÐµÑĢÑĤÑĭ":9906,"ĠÐºÐ¾Ð½ÑĨÐµÐ¿ÑĨÐ¸Ð¸":9907,"ÐĻÐ¾ÑĢÐºÐµ":9908,"ĠÐ¥Ð°ÑĢÑĮÐºÐ¾Ð²":9909,"ÐŁÐ¾Ð·Ð¶Ðµ":9910,"ĠÐ²ÐµÑĢÑĭ":9911,"ÑĨÐºÐ°Ñı":9912,"Ð¶Ð°Ð½":9913,"Ð¸Ð²Ð½Ð¾ÑģÑĤÐ¸":9914,"ĠÐĵÑĥÐ¼":9915,"ĠÐŀÐ»ÐµÐ³":9916,"ĠÑĩÐ¸ÑģÐ»Ð¾Ð¼":9917,"ÑĥÑīÐµÐ¹":9918,"Ð¥Ð¸Ð¼":9919,"Ġ800":9920,"ĠÐ¤ÑĢÐ°Ð½Ðº":9921,"ĠÑģÐ¾Ð²ÑĢÐµÐ¼ÐµÐ½Ð½ÑĭÐµ":9922,"ĠÑĤÑĢÑĳÑħÐºÑĢÐ°ÑĤÐ½ÑĭÐ¹":9923,"ĠÐ¿ÑĢÐ¾ÑģÑĤÑĭÑħ":9924,"ĠÐ°Ð¼Ð¼Ð¸":9925,"ĠÐ±ÐµÐ»Ð¾ÑĢÑĥÑģÑģÐºÐ¸Ð¹":9926,"ĠÐĴÐ°ÑģÐ¸Ð»ÑĮÐµÐ²Ð¸Ñĩ":9927,"ĠÑĢÐ¸ÑģÑĥÐ½":9928,"ue":9929,"ÑĮÑģÑı":9930,"Ð»Ð¸Ð½Ðµ":9931,"ĠÐ´Ð¾Ñģ":9932,"Ð¸Ð½ÐºÐ¸":9933,"Ð»ÑıÑĨÐ¸Ð¸":9934,"ÐłÑıÐ´":9935,"ÐĿÐ¾Ð²Ð°Ñı":9936,"Ð¾ÑıÐ²":9937,"ÐĹÐ°Ðº":9938,"ĠÐ¸ÑģÑĤÐ¾ÑĢÐ¸ÑĩÐµÑģÐºÐ¾Ð¹":9939,"ĠÐ¡ÑĤÐ¸Ð²":9940,"Ð§ÐµÑĢ":9941,"ory":9942,"Ð¯Ð¿Ð¾Ð½":9943,"ĠÐ²ÑĭÑģÐ¾ÐºÐ°Ñı":9944,"Ġ1880":9945,"Ð®Ð¶":9946,"ĠÐ¿ÑĢÐµÐ´ÑģÐµÐ´Ð°ÑĤÐµÐ»ÐµÐ¼":9947,"ĠÐ¼Ð°ÑĢÑĪÐ°Ð»":9948,"ÐļÐ¾ÑĢÐ¾Ð»ÑĮ":9949,"ĠÐ·Ð°Ð±Ð°ÑģÑĤÐ¾Ð²":9950,"ĠÐ¿Ð¾Ð»Ð½Ð¾Ð¼Ð¾ÑĩÐ¸Ð¹":9951,"ĠÑĢÑĥÐºÐ¾Ð¿Ð¸Ñģ":9952,"ĠÑĩÐµÑĪÑģÐºÐ¸Ð¹":9953,"ĠÐŁÑĥÑĪÐºÐ¸Ð½Ð°":9954,"ĠÐºÑĢÐ¸ÑģÑĤÐ°Ð»":9955,"ĠÑģÑĦÐµÑĢÐ°":9956,"ÑħÐµ":9957,"ĠÐ´ÑĥÐ¼Ñĭ":9958,"Ð½Ð¾Ñĩ":9959,"Ð°ÑĢÑģÐºÐ¾Ð³Ð¾":9960,"Ð¸ÑģÐµ":9961,"ĠÐļÐ°Ð´":9962,"Ð¾ÐºÑĢÐ¾Ð²":9963,"ĠÑĢÐµÐ¿ÑĢÐµÑģÑģ":9964,"ĠÐ¾ÑģÐ²ÐµÑī":9965,"ÐĵÐµÐ½":9966,"ĠÐ³Ð¾ÑĢÐ¾Ð´Ñĥ":9967,"ĠÐĹÐ²":9968,"ĠÐĹÐ¸Ð¼":9969,"ĠÑĢÐ°ÑģÐ¿Ð°Ð´Ð°":9970,"ĠÐ¿ÑĢÐ¸Ð½ÑıÑĤÑĮ":9971,"ĠÐ¿Ð¾ÑįÑĤÐµÑģÑģÐ°":9972,"ĠÐ±ÑĥÐ´ÑĥÑīÐµÐ³Ð¾":9973,"ĠÐ¿Ð¾Ð³ÑĢÐ°Ð½Ð¸Ñĩ":9974,"ĠÐ³Ð¾Ð»Ð»Ð°Ð½Ð´":9975,"ĠÑĢÐµÐ¶Ð¸ÑģÑģ":9976,"ÑĩÐ¸ÑģÐ»ÐµÐ½Ð¸Ñı":9977,"1903":9978,"ĠÐ¿ÑĢÐ¾Ð¼ÑĭÑĪÐ»ÐµÐ½Ð½ÑĭÑħ":9979,"ĠÐ²Ð¾Ð¿ÑĢÐ¾ÑģÐ¾Ð²":9980,"ĠÐĲÐ»Ð±":9981,"ĠÑĢÐ¾Ð¼Ð°Ð½Ð°":9982,"ĠÐºÐ¾Ð½ÑģÑĤÑĢÑĥÐº":9983,"ĠÐĶÐ¼Ð¸ÑĤÑĢÐ¸":9984,"ĠÑĢÐµÑĦÐµÑĢÐµÐ½Ð´ÑĥÐ¼":9985,"ĠÑįÐ»ÐµÐºÑĤÑĢÐ¾Ð¼Ð°Ð³Ð½Ð¸ÑĤ":9986,"ĠÐºÐ¸ÑĢÐ¸Ð»Ð»Ð¸":9987,"ure":9988,"Ð¾Ð¹ÑĤÐ¸":9989,"ĠÐ¼ÐµÐ¼Ð¾ÑĢÐ¸":9990,"ĠÐ¡Ð°ÐºÑģ":9991,"ÐµÐ²ÑĭÐµ":9992,"ĠÐ¾ÑĤÐ¼ÐµÐ½Ð¸":9993,"ĠÐľÐ¸Ðº":9994,"ĠÐŁÐ¾Ð³Ð¸Ð±Ð»Ð¸":9995,"1911":9996,"ÐļÑĢÐ¸ÑĤ":9997,"ĠÐºÐ»Ð°ÑģÑģÐ¾Ð²":9998,"ĠÐ·Ð²Ð°Ð½Ð¸Ñı":9999,"ĠÐ¸ÑģÐ¿Ð¾Ð»ÑĮÐ·Ð¾Ð²Ð°Ð»Ð¸":10000,"ĠÐĽÑİÐºÑģ":10001,"ĠÐ¾Ð±Ð»Ð°ÑģÑĤÑıÑħ":10002,"ĠÐ·Ð°Ð³Ð¾Ð²Ð¾ÑĢ":10003,"ĠÐ²Ð»Ð°ÑģÑĤÑĮÑİ":10004,"ÐĿÐ°ÑĩÐ¸Ð½Ð°Ñı":10005,"Ð²ÑģÐµ":10006,"ÑĮÐµÐ²Ð°":10007,"ĠÐ±Ð¾ÑĢÑĤ":10008,"Ð°Ð²ÑĪÐ¸ÐµÑģÑı":10009,"ÐĴÐ°Ð»":10010,"ÐĿÐĺ":10011,"ÐľÐ°Ðº":10012,"Ġ39":10013,"ĠÑģÐ¾Ð·Ð´Ð°Ð½Ð¾":10014,"ĠÑįÐºÐ¾Ð½Ð¾Ð¼Ð¸ÑĩÐµÑģÐºÐ¸Ñħ":10015,"ĠÐĽÑİÐ±":10016,"ĠÐ¸Ð½ÑĦÐ¾ÑĢÐ¼Ð°ÑĨÐ¸Ñİ":10017,"ĠÐ¾ÐºÐ°Ð·Ð°Ð»Ð¸ÑģÑĮ":10018,"ĠÐ²Ð²ÐµÐ´ÑĳÐ½":10019,"ĠÐ¾ÑĤÐ¼ÐµÑĩÐ°ÐµÑĤ":10020,"ĠÐ¿ÑĤÐ¸ÑĨÑĭ":10021,"ĠÐ¼Ð¾ÑĤÐ¸Ð²":10022,"ĠÐ¿Ð¾Ð»Ð½Ð¾Ð¼Ð¾ÑĩÐ¸Ñı":10023,"ĠÐ¿ÑĢÐ¾Ð²Ð¾Ð·Ð³Ð»Ð°ÑģÐ¸Ð»":10024,"ĠÐ¿Ð¾Ð»ÑĥÐ¾ÑģÑĤÑĢÐ¾Ð²Ð°":10025,"ĠÐŁÑĢÐ°Ð²Ð¸ÑĤÐµÐ»ÑĮÑģÑĤÐ²Ð°":10026,"ĠÐ¢ÑĥÑĢÐºÐ¼ÐµÐ½Ð¸":10027,"Ã¤":10028,"ÐµÐ¶Ðµ":10029,"1915":10030,"ĠÑĢÐ°Ð·Ð±Ð¸ÑĤ":10031,"ÐĶÐµÐ¼":10032,"ÐºÐ¾Ð½ÐµÑĨ":10033,"2019":10034,"ĠÐ¸ÑģÑĤÑĢÐµÐ±":10035,"ĠÑģÐ¾Ð±ÑģÑĤÐ²ÐµÐ½Ð½Ð¾":10036,"ĠÑģÐ¾Ð·Ð´Ð°Ð½Ð¸Ñİ":10037,"ĠÐ²Ð¾Ð´Ð¾":10038,"ĠÐºÐ°Ð·Ð°ÐºÐ¾Ð²":10039,"ĠÐ¸Ð·Ð¼ÐµÐ½ÐµÐ½Ð¸Ðµ":10040,"ĠÑģÐ¾ÐµÐ´Ð¸Ð½ÐµÐ½Ð¸Ð¹":10041,"ĠÐ´Ð²Ð¾ÑĢÐµÑĨ":10042,"ĠÐ¿Ð»ÐµÐ¼ÑĳÐ½":10043,"ĠÐ¾ÑģÐ½Ð¾Ð²Ð¾Ð¿Ð¾Ð»Ð¾Ð¶Ð½Ð¸Ðº":10044,"ĠÐ¿ÑĢÐ¸ÑĪÐ»Ð¾ÑģÑĮ":10045,"TA":10046,"ÑĢÐ°Ð½Ð¾":10047,"ĠÑģÐ½Ðµ":10048,"Ð¾Ð¼Ð¾Ð³":10049,"ĠÐ·ÐµÐ»Ñĳ":10050,"Ð¡ÑĤÐ°":10051,"Ð¾Ð±Ð¸":10052,"ĠÐ¿Ð¾Ð´Ð²Ð¸Ð¶":10053,"ÑĬÑıÐ²":10054,"ÑĥÑĪÐºÐ°":10055,"ĠÐ¾Ð±ÑīÐµÑģÑĤÐ²ÐµÐ½Ð½ÑĭÑħ":10056,"ĠÑĥÑģÑĤÐ°Ð½Ð¾Ð²Ð»ÐµÐ½Ñĭ":10057,"ĠÑģÐ¾ÑģÑĤÐ°Ð²Ð»ÑıÐ»Ð¸":10058,"ĠÐ·Ð°ÑıÐ²Ð»Ñı":10059,"ĠÐ½Ð°Ð·ÑĭÐ²Ð°ÐµÐ¼ÑĭÐµ":10060,"ĠÐ¿ÑĢÐ¾Ð´ÑĥÐºÑĤÐ¾Ð²":10061,"Ð¢ÐµÐ¾ÑĢÐ¸Ñı":10062,"ĠÑįÐºÐ²Ð¸Ð²Ð°Ð»ÐµÐ½ÑĤ":10063,"ĠÑģÐµÐ²ÐµÑĢÐ°":10064,"ÐĶÐµÐ¿ÑĥÑĤÐ°ÑĤÑĭ":10065,"sp":10066,"Ġx":10067,"ĠÐ²Ð±Ð»Ð¸Ð·Ð¸":10068,"Ð¾Ð²Ñĭ":10069,"ÑħÑĢÐ¾Ð½":10070,"Ð°Ð½Ñĥ":10071,"Ð°Ð½Ð½Ð¾Ð¼":10072,"ÑĨÐºÐ¸Ñħ":10073,"ĠÑĦÐ°Ð¹":10074,"ÐµÐºÑģÐ°":10075,"ĠÑĢÐ°Ð·Ð½Ð¾Ð²Ð¸Ð´":10076,"ĠÑħÐ¸Ñī":10077,"Ð¼ÐµÐ½ÐµÐ½Ð¸Ðµ":10078,"ĠÐ¸Ð¼Ð¿Ð¾ÑĢÑĤ":10079,"ĠÑįÐºÑĢÐ°Ð½":10080,"Ð½ÑĥÑĤÑĢÐµÐ½":10081,"ĠÐ·Ð°Ð¼ÐµÐ½Ð¸":10082,"ĠÐĸÐ°Ðº":10083,"ĠÐ»Ð¸ÑĤÐµÑĢÐ°ÑĤÑĥÑĢÐ¾Ð²ÐµÐ´":10084,"ĠÐºÐ¸Ð½Ð¾Ð¿":10085,"Ġ1894":10086,"ĠÐ·Ð°ÐºÐ»ÑİÑĩÑĳÐ½":10087,"ĠÐ²Ð½ÑĥÑĤÑĢÐµÐ½Ð½ÐµÐ¹":10088,"ĠÑĨÐ°ÑĢÑģÑĤÐ²Ð¾":10089,"ĠÑģÐ±Ð¾ÑĢÐ½Ð¾Ð¹":10090,"ĠJava":10091,"ĠÐļÐ¸ÑĢÐ³Ð¸Ð·":10092,"ĠÐ¸Ð½Ð¸ÑĨÐ¸Ð°ÑĤÐ¸Ð²Ðµ":10093,"ies":10094,"ÐºÐ¾ÑģÑĤÑĮ":10095,"ĠÐ²ÐµÑģÑĤÐ¸":10096,"Ð¸Ð¹ÑģÐºÐ¸Ð¼":10097,"ĠÑģÑĤÑĢÐ¾Ð¹":10098,"ĠÐ¿Ð¾Ð·Ð²Ð¾Ð½":10099,"ĠÑĥÑĤÐ²ÐµÑĢÐ¶Ð´Ð°Ð»":10100,"ĠÐ¶ÐµÐ½ÑīÐ¸Ð½Ð°":10101,"Ð²ÐµÑĢÐ´Ð»Ð¾Ð²":10102,"ĠÐ´ÐµÐºÐ»Ð°":10103,"ĠÐ¤Ð»Ð°Ð²Ð¸Ð¹":10104,"ÑģÐ»ÑĥÐ¶":10105,"Ð²ÐµÐ»Ð¸":10106,"ÑģÑĤÑĢÐ¸ÑĢÐ¾Ð²":10107,"ĠÐ¿ÑĢÑĥÑģ":10108,"ĠÐ½Ð°ÑĢÐº":10109,"Ð°ÑĢÑĳÐ¼":10110,"ÐĶÐµ":10111,"ĠÐºÐ¸Ð½Ð¾ÑĤÐµ":10112,"ĠÐ²Ð¿ÐµÑĩÐ°ÑĤ":10113,"ĠÑģÑĤÐ°Ð½Ð¾Ð²ÑıÑĤÑģÑı":10114,"ĠÐ²ÑģÑĤÑĥÐ¿Ð¸Ð»Ð°":10115,"ĠÐ¾Ð·ÐµÑĢÐ¾":10116,"ĠÑģÑĥÐ¿ÑĢÑĥÐ³Ð°":10117,"ĠÐ¿Ð¾ÑħÐ¾Ð¶":10118,"Ð¡ÑĥÑīÐµÑģÑĤÐ²ÑĥÑİÑĤ":10119,"ÐľÐµÐ¶Ð´Ñĥ":10120,"ML":10121,"Ð³Ð°Ð¼":10122,"ÑĪÐµÐ²":10123,"Ð¾ÑģÑĤÐµÐ¿":10124,"ÐŁÐ»Ð¾ÑīÐ°Ð´ÑĮ":10125,"Ð¸Ð²ÑĪÐ¸ÑģÑĮ":10126,"Ð½Ð°Ð»Ðµ":10127,"ĠÐĶÐ²Ð¾ÑĢ":10128,"Ð½Ð¸ÑĨÐµ":10129,"ĠÐĽÐ°Ð´":10130,"Ð¸Ð»Ð¸Ð·":10131,"Ð¢ÑĥÑĢ":10132,"ĠÐ£Ð¾Ð»":10133,"ĠÐ·Ð½Ð°ÑĩÐµÐ½Ð¸Ð¹":10134,"ÑĭÐ²Ð°Ñı":10135,"ĠÐ¸Ð·Ð´Ð°Ð»":10136,"ĠÑĥÑģÑĤÐ°Ð½Ð¾Ð²Ð»ÐµÐ½Ð°":10137,"ÐµÑĢÐµÐ²Ð¾Ð´":10138,"ĠÐ¿Ð¾Ð´Ð³Ð¾ÑĤÐ¾Ð²ÐºÑĥ":10139,"oph":10140,"ĠÑģÑĦÐµÑĢÑĭ":10141,"ĠÐ²Ð»Ð°ÑģÑĤÐµÐ¹":10142,"ĠÐºÑĢÐ¸Ð·Ð¸ÑģÐ°":10143,"ĠÐ¾ÑģÐ½Ð¾Ð²Ð¾Ð¿Ð¾Ð»Ð¾Ð¶Ð½Ð¸ÐºÐ¾Ð²":10144,"ĠÐ±Ð»Ð°Ð³Ð¾":10145,"Ð¸ÑīÐµ":10146,"Ð¹ÑĤÐ¸":10147,"Ð·ÑĮ":10148,"Ð¿Ð»Ð¸":10149,"Ð±Ð¾Ð»ÑĮÑĪ":10150,"ĠÐ´Ð°ÑĤÐ°":10151,"ĠÑģÑĤÑĢÐ¾Ð³Ð¾":10152,"Ð¸Ð²ÑĪÐ¸Ð¼":10153,"ĠÐ·Ð°ÑģÑĤÑĢÐ¾Ð¹":10154,"Ð¾ÑĩÐ½Ð°Ñı":10155,"ĠÐ¢ÐŃ":10156,"ÐµÑĩÐ¸":10157,"ĠÑĩÐµÑĩÐµÐ½":10158,"Ġ55":10159,"ĠÑĢÐ°Ð±Ð¾ÑĤÐ°Ñħ":10160,"ÐŁÐ¾Ñħ":10161,"Ð°ÑİÑīÐ¸Ð¼Ð¸":10162,"ĠÑĤÑĢÐ°Ð³":10163,"ĠÑĥÐ³Ð¾Ð»Ð¾Ð²":10164,"ĠÑĢÐ¸Ð¼ÑģÐºÐ¾Ð³Ð¾":10165,"ĠÐºÐ¾Ð»Ð¾Ð½Ð¸Ð¸":10166,"ĠÐľÐ¾Ð½Ð³Ð¾Ð»":10167,"ĠÐ¾Ð±ÑĢÐ°ÑīÐµÐ½Ð¸Ðµ":10168,"ĠÐ²Ð¾ÑģÐ¿Ð¾Ð¼Ð¸Ð½":10169,"ĠÐ²ÐµÑĢÐ½ÑĥÑĤÑĮ":10170,"ĠÐ±ÑĢÐ¾Ð½Ð·":10171,"ĠÐ³Ð¾ÑĢÐ¸Ð·Ð¾Ð½ÑĤ":10172,"Ġi":10173,"Ð³Ð¾Ð¼":10174,"Ð¸ÑĤÐ¾Ð¼":10175,"Ð¸Ð½ÑĤÐµÑĢ":10176,"ÐŁÐ»Ð°Ð½":10177,"ĠÐ¸Ð·Ð¾Ð±ÑĢÐ°Ð·":10178,"ĠÐľÐ¸ÑĪ":10179,"ÐµÐ»Ð»Ð°":10180,"ÐµÐ·Ñĥ":10181,"ĠÐ²Ð¾ÑĪÐ»Ð°":10182,"ĠÑĢÑĥÐ¼ÑĭÐ½":10183,"Ð¤ÑĥÐ½":10184,"ĠÐ¼ÐµÑģÑĤÐ½Ð¾ÑģÑĤÐ¸":10185,"ÑĥÑĪÐºÐ¸":10186,"ĠÐĲÐ²ÑĢÐ°":10187,"ĠÐ¼Ð¸ÑĢÐ¾Ð²ÑĭÑħ":10188,"1909":10189,"ĠÐºÐ¾ÑįÑĦÑĦÐ¸ÑĨÐ¸":10190,"Ġ1870":10191,"ĠÐ´Ð»Ð¸Ð½Ñĭ":10192,"ĠÐ¿Ð¾ÑįÐ·Ð¸Ð¸":10193,"ĠÐ¿Ð¾ÑģÑĳÐ»Ð¾Ðº":10194,"ĠÐķÐ²ÑĢÐ¾Ð¿ÐµÐ¹ÑģÐºÐ¾Ð³Ð¾":10195,"Ð»Ð¾ÐºÐ°":10196,"Ð°Ð½Ð½ÑĭÐ¼Ð¸":10197,"Ð¾Ð¼Ð°":10198,"ĠÐ¾Ð±Ð°":10199,"ĠÐĴÐļÐŁ":10200,"ĠÐłÐ°ÑģÑģ":10201,"ĠÐ¿ÑĢÐµÐ´ÑģÐºÐ°Ð·":10202,"Ð¸ÑĨÐºÐ¸Ð¹":10203,"ĠÑģÐ¾Ð²ÐµÑī":10204,"Ġ49":10205,"ĠÐ¾Ð±ÑĢÐ°Ð·Ð¾Ð²Ð°ÑĤÐµÐ»ÑĮ":10206,"Ð§ÑĤÐ¾Ð±Ñĭ":10207,"ĠÐ±ÑĢÐ¸ÑĤÐ°Ð½ÑģÐºÐ¾Ð¹":10208,"ĠÐ²Ð¾Ð·Ð½Ð¸ÐºÐ°ÐµÑĤ":10209,"ĠÐ²Ð°Ð¶Ð½ÑĭÐ¼":10210,"ĠÑĤÑĢÑĥÐ±":10211,"ĠÐ¸Ð³ÑĢÐ°ÐµÑĤ":10212,"ĠÐ¿Ð¾ÑħÐ¾Ð´Ð°":10213,"ĠÑģÐ¸Ð½ÑĤÐ°ÐºÑģ":10214,"ĠÐ¿ÑĢÐ¸Ð±ÑĭÐ»":10215,"Ð£ÑģÑĤÐ°Ð½Ð¾Ð²Ð»ÐµÐ½Ñĭ":10216,"ĠÑģÐ¼ÐµÑī":10217,"Ð¿Ð»Ð°Ð½":10218,"ĠÐ¼Ð¾Ð³Ð»Ð°":10219,"ĠÐ¡ÐľÐĺ":10220,"ĠÐ¾ÑĤÑħÐ¾Ð´":10221,"ĠÐļÑĢÐ°":10222,"Ð¸ÑģÑĤÑģÐºÐ¸Ñħ":10223,"ĠÑĢÐµÐ·Ð¸Ð´":10224,"ÐłÐµÐ³":10225,"ÑģÑĤÐ²Ð°Ñħ":10226,"ĠÐ¥ÑĢÑĥÑīÑĳ":10227,"ĠÑģÐ²ÑıÐ·ÐµÐ¹":10228,"ĠÑģÐ¾Ð²ÑĢÐµÐ¼ÐµÐ½Ð½Ð¾Ð¼":10229,"ĠÑĥÑģÑĤÐ°Ð½Ð¾Ð²Ð¸Ð»Ð¸":10230,"ÐĸÐ¸Ð²":10231,"ĠÑĦÐ¾ÑĤÐ¾":10232,"ĠÑģÐ¸Ð¼Ð²Ð¾Ð»Ð¾Ð²":10233,"Ð±ÐµÑĢÑĤÐ°":10234,"ĠÐĵÐ¾Ð½ÐºÐ¾Ð½":10235,"ah":10236,"ÐµÐ»Ð°Ð³":10237,"ĠÐ²Ð¾Ð²":10238,"ÑħÑĥ":10239,"ÐµÐ»ÑĮÐ½ÑĭÑħ":10240,"Ð¾Ð±Ð¾Ð´Ð°":10241,"ĠÐĵÐĶÐł":10242,"ÑĥÑĤÑģÑı":10243,"ĠÐķÐ»ÐµÐ½Ð°":10244,"ĠÑĤÐµÑĢÐ¼Ð¸ÑĤ":10245,"Ð°ÑĤÐ¾ÑĢÐ¸":10246,"ĠLinux":10247,"Ġ1889":10248,"ĠÑħÑĢÐ¸ÑģÑĤÐ¸Ð°Ð½ÑģÑĤÐ²Ð¾":10249,"ĠÐ¾ÑĤÐ¼ÐµÑĩÐ°ÐµÑĤÑģÑı":10250,"ĠÐļÐ¾Ð½ÑģÑĤÐ°Ð½ÑĤÐ¸Ð½Ð¾Ð¿":10251,"age":10252,"ĠÐĿÐ°ÑĢÐ¾Ð´Ð½Ð¾Ð¹":10253,"ÐĳÑĭÐ»":10254,"ĠÐĶÐ°Ð²Ð¸Ð´":10255,"ĠÐ®Ð³Ð¾ÑģÐ»Ð°Ð²Ð¸Ð¸":10256,"ÐµÐ½Ð¾Ð²":10257,"Ð¾Ð¼Ð°ÑĤ":10258,"ĠÐ¡Ð°ÑĢ":10259,"ĠÐĶÐ¶Ðµ":10260,"Ð°Ð½Ð¸ÑıÐ¼Ð¸":10261,"ÑıÐ½Ð¸Ñı":10262,"Ð¾Ð²Ð¾ÑĢÐ¾ÑģÑģÐ¸Ð¹":10263,"ĠÐ¸ÑģÐºÑĥÑģÑģÑĤÐ²Ðµ":10264,"ĠÑģÐ¾Ð´ÐµÑĢÐ¶Ð°Ð½Ð¸Ñı":10265,"ĠÐ¿Ð¾ÑıÐ²Ð¸Ð»Ð¾ÑģÑĮ":10266,"ĠÑģÐºÐ¾ÑĢÐ¾ÑģÑĤ":10267,"Ġ->":10268,"ĠÐ²Ð¾ÐºÐ°Ð»Ð¸ÑģÑĤ":10269,"ĠÐľÐ¸Ð½Ð¸ÑģÑĤÑĢÐ¾Ð²":10270,"Ð¢ÐµÑĢÐ¼Ð¸Ð½":10271,"ĠÐ¿Ð¾Ð´ÑĢÐ°Ð·ÑĥÐ¼":10272,"Ð¡Ð»Ð¾Ð²Ð¾":10273,"ĠÐ¸Ð·Ð½Ð°ÑĩÐ°Ð»ÑĮÐ½Ð¾":10274,"Ð§ÐµÐ»Ð¾Ð²ÐµÐº":10275,"Ð»Ð¸Ñģ":10276,"ĠÐ°Ñģ":10277,"ĠÑĢÐ°ÑĨÐ¸Ð¾Ð½Ð°Ð»ÑĮ":10278,"ÐŁÐ¾ÑĤ":10279,"Ð½Ð°ÑĩÐµ":10280,"ĠÐ»Ð°Ð½Ð´":10281,"ĠÑģÐ²Ð¸Ð½":10282,"ĠÐĿÐļ":10283,"Ð½ÐµÐ·":10284,"ÐµÑģÑĥÑį":10285,"ĠÐ²ÑģÑĳÐ¼":10286,"ĠÐ¥Ñĥ":10287,"ĠÐ³Ð¾ÑģÑĥÐ´Ð°ÑĢÑģÑĤÐ²ÐµÐ½Ð½ÑĭÐµ":10288,"ĠÑĦÐ¸Ð·Ð¸ÑĩÐµÑģÐºÐ¾Ð¹":10289,"ĠÑģÑĤÐ¾ÑĢÐ¾Ð½Ð½Ð¸ÐºÐ¾Ð²":10290,"ĠÑĤÑĢÐµÐ±ÑĥÐµÑĤÑģÑı":10291,"ĠÑĥÐ»Ð¸ÑĨÐ°":10292,"ĠÐ½Ð°ÑĤÑĢÐ¸Ñı":10293,"ĠÐķÐºÐ°ÑĤÐµÑĢÐ¸Ð½Ð°":10294,"ÐľÐµÐ¶Ð´ÑĥÐ½Ð°ÑĢÐ¾Ð´Ð½ÑĭÐ¹":10295,"ĠÐĶÑįÐ²Ð¸Ð´":10296,"ĠÐ³Ð°ÑĢÐ¼Ð¾Ð½":10297,"rosoft":10298,"Ð¾Ð»Ð¾ÑģÐ¾Ð²":10299,"Ð¾Ð±ÑĢÐ°Ð¶ÐµÐ½Ð¸Ñı":10300,"Ð°Ð»Ðº":10301,"Ð°Ð»ÑĮÐ½Ð¾Ð¼Ñĥ":10302,"ĠÐĶÐ°ÑĢ":10303,"ĠÐ¾Ð¿Ð¸ÑĢÐ°":10304,"ĠÐŃÐ´Ð²":10305,"Ġ46":10306,"Ð¿ÑĢÐµÐ»ÑĮ":10307,"ĠÑģÑĢÐµÐ´Ð½ÑıÑı":10308,"ĠÐļÐ¾ÑĢÐµÐ¸":10309,"1901":10310,"ĠÐŀÐ±ÑīÐµ":10311,"ĠÐ°ÑĤÐ¼Ð¾ÑģÑĦÐµÑĢÑĭ":10312,"ĠÑģÑĤÑĢÐµÐ»":10313,"ĠÐ¾ÑĤÑĢÐ°ÑģÐ»Ð¸":10314,"Ð°ÑĢÐ°Ð³ÑĥÐ°":10315,"Ð±Ð¸Ð½Ð°":10316,"ÑĨÐ·":10317,"Ð¶Ð¸Ð²":10318,"Ð¾Ð»ÑĮÑģÐºÐ¸Ð¹":10319,"ĠÑĪÑĤÐ°Ð±":10320,"ĠÐ¡ÑĤÑįÐ½":10321,"ĠÑģÑĩÐ¸ÑĤÐ°ÑİÑĤÑģÑı":10322,"Ġder":10323,"ĠÐ²Ð·Ð°Ð¸Ð¼Ð¾Ð´ÐµÐ¹ÑģÑĤÐ²Ð¸Ðµ":10324,"ĠÐ³ÑĢÑĥÐ·Ð¾Ð²":10325,"ĠÐºÐ°Ð½Ð°Ð´ÑģÐºÐ°Ñı":10326,"ĠÐĲÐ½Ð´ÑĢÐµÑı":10327,"ĠÐ²Ð·Ð³Ð»ÑıÐ´Ñĭ":10328,"ĠÐ³Ð°ÑĢÐ½Ð¸Ð·":10329,"ĠÐŁÐ¾Ð±ÐµÐ´Ñĭ":10330,"ĠÐļÑĳÐ½Ð¸Ð³Ñģ":10331,"Ð¾Ð¼Ð¾Ð½Ð¾ÑģÐ¾Ð²Ð°":10332,"ĠÐ´Ð½ÑĳÐ¼":10333,"ĠÐ¼Ð½Ðµ":10334,"Ð¸Ð½ÑģÐºÐ¾Ðµ":10335,"ĠÐłÐļ":10336,"ÐĿÐµÐ´":10337,"ĠÐĿÐ°Ð´":10338,"Ð¾ÑĩÐµÑĤ":10339,"ĠÐ¢Ðľ":10340,"Ð°Ð½ÑĤÐ¾Ð²":10341,"ĠÑģÐ¾Ð±ÑģÑĤÐ²ÐµÐ½Ð½ÑĭÐµ":10342,"ĠÐ¾Ð±ÑĬÑĳÐ¼Ð°":10343,"Ġ47":10344,"Ð°ÑĪÐ°":10345,"ĠÐ´Ð¸Ð°Ð¼ÐµÑĤ":10346,"ĠÐ¿Ð°ÑĢÐ¾ÑħÐ¾Ð´":10347,"ĠÐ¿ÑĢÐ¾Ð³ÑĢÐ°Ð¼Ð¼Ñĥ":10348,"ĠÑģÑĩÐ¸ÑĤÐ°Ð»Ð¸":10349,"ĠÐ¼ÐµÐ´Ð¸":10350,"ĠÐ½ÐµÐ·Ð°Ð²Ð¸ÑģÐ¸Ð¼Ð¾":10351,"ĠÐ·Ð½Ð°ÑĩÐ¸ÑĤÐµÐ»ÑĮÐ½Ð¾Ðµ":10352,"Ð²Ð¸Ð¶ÐµÐ½Ð¸Ñı":10353,"ĠÐ¿ÑĢÐµÐ´Ð¿Ð¾Ð»Ð°Ð³":10354,"ĠÐ·Ð½Ð°Ð½Ð¸Ð¹":10355,"ĠÐ°Ð½Ð°Ð»Ð¸ÑĤ":10356,"ĠÑĤÐ¾Ð²Ð°ÑĢÑĭ":10357,"ĠÐ¿ÐµÑĢÐ²Ð¾Ð½Ð°ÑĩÐ°Ð»ÑĮÐ½Ð¾":10358,"ĠÐŃÐ¹Ð½ÑĪÑĤÐµÐ¹Ð½Ð°":10359,"ĠÐĵÐ°Ð³Ð°ÑĢÐ¸Ð½Ð°":10360,"ĠÑįÑģÑĤÑĢÐ°Ð´":10361,"ÑĩÐ¸ÐºÐ¸":10362,"ÑĩÑĥÐº":10363,"ĠÐºÑĢÐµÐ¼":10364,"Ð»ÑıÑı":10365,"ÑįÐ´":10366,"Ð¾ÐºÑĤ":10367,"ĠÐĵÐµÐ³":10368,"ÐĿÐ°Ð´":10369,"ÑĥÐ±Ð¸ÑĤ":10370,"ÐĺÐ²":10371,"Ð¾Ð»Ð¾Ð³Ð¸ÑĩÐµÑģÐºÐ¾Ðµ":10372,"ĠÐ£Ð³":10373,"ÐµÐ¼Ð¿Ð»Ñı":10374,"ĠÐ´Ð°Ð½Ð½Ð¾Ð¼":10375,"ĠÐ¿Ð¾ÑģÐ»ÐµÐ´Ð½ÐµÐ¹":10376,"Ð¼ÐµÑĩÐ°ÑĤÐµÐ»ÑĮ":10377,"ÑģÑĤÐ²Ð¾Ð²Ð°Ð»Ð¸":10378,"ĠÐ¿ÑĢÐ¾Ð´Ð¾Ð»Ð¶Ð¸ÑĤÐµÐ»ÑĮÐ½Ð¾ÑģÑĤÑĮ":10379,"ĠÐ¸Ð´ÐµÑİ":10380,"ĠÐ¾ÑĦÐ¸ÑĨÐ¸Ð°Ð»ÑĮÐ½ÑĭÐ¼":10381,"ĠÑģÐ²Ð¾Ð±Ð¾Ð´Ñĥ":10382,"ĠÐ½Ð¸Ð·Ð¼ÐµÐ½":10383,"ĠÐ¿ÐµÑĢÐµÑħÐ¾Ð´Ð°":10384,"ĠÐ¼ÐµÑĤÐ°Ð»Ð»Ð¸":10385,"ĠÑĦÐ¸Ð»ÑĮÐ¼Ð¾Ð²":10386,"ĠÐļÐ°ÑĤÐ°ÑģÑĤÑĢÐ¾ÑĦÐ°":10387,"ĠÑĥÐ±Ð¸Ð¹ÑģÑĤÐ²Ð¾":10388,"ĠÑģÐ¾ÑĤÑĢÑĥÐ´Ð½Ð¸ÑĩÐµÑģÑĤÐ²Ð°":10389,"ĠÐĺÐ¸ÑģÑĥÑģÐ°":10390,"ys":10391,"ĠâĢ¦":10392,"ÐµÐ½ÑģÑĤÐ²Ð°":10393,"ĠÑģÐ»Ð°":10394,"ĠÐ³Ð¾ÑĢÐ°Ñħ":10395,"ĠÐ¡Ð¾Ð¼":10396,"ĠÐ¡Ð¾ÐºÑĢÐ°ÑĤ":10397,"Ð¾Ð±Ð¾ÑĢ":10398,"ÐĴÐ¾Ð·Ð¼Ð¾Ð¶":10399,"ĠÐ¿ÑĢÐ¸Ð±ÑĢÐµ":10400,"ĠÑĤÐ°ÐºÐ¾Ð¼":10401,"Ð°Ð¼Ð¸Ð»ÑĮ":10402,"ÑĢÐ¾ÑģÐ°":10403,"ence":10404,"Ð°Ð»ÐµÐ¹":10405,"Ð¸ÑĦÐ°Ð³Ð¾ÑĢ":10406,"ĠÐ²Ð·ÑıÐ»":10407,"ĠÐºÐ¾Ð½ÑĤÐµÐºÑģÑĤ":10408,"ĠÐ¾ÑĤÐ´ÐµÐ»ÐµÐ½Ð¸Ñı":10409,"ĠÐ²Ð°Ð¶Ð½ÐµÐ¹":10410,"ĠÑĤÐµÐ¿Ð»Ð¾":10411,"ĠÐ¿Ð°Ð´ÐµÐ¶":10412,"ĠÐ¿ÑĢÐµÐ´Ð¼ÐµÑĤÐ¾Ð²":10413,"Ð§Ð¸ÑģÐ»ÐµÐ½Ð½Ð¾ÑģÑĤÑĮ":10414,"Â·":10415,"Î¯":10416,"Ð²ÑĭÑģ":10417,"ĠÑģÐ¾Ð»ÑĮ":10418,"ÐµÑĢÑı":10419,"ÐµÑĢÐ¸Ðº":10420,"ĠÐ½Ð°Ð¼ÐµÑģÑĤ":10421,"ĠÐ±ÑĢÐ¸Ð³":10422,"ÐŁÐµÑĢÐµÐ´":10423,"ĠÑĦÐ¸ÐºÑģ":10424,"ĠÐ¿ÑĢÐ¸ÑĢÐ¾ÑģÑĤ":10425,"ÐµÑĢÐ°ÑĨÐ¸Ð¸":10426,"ĠÐ¾ÑģÐ»Ð°Ð±":10427,"ÐºÐ¾Ð²ÑĭÐµ":10428,"ĠÑģÐ¿Ð¾ÑĢ":10429,"ĠÐ¿Ð¾ÐºÐ¾ÑĢ":10430,"ĠÐ¿Ð¾ÐºÐ»Ð¾Ð½":10431,"ath":10432,"ĠÑĥÑĩÐ°ÑģÑĤÐ¸ÐµÐ¼":10433,"ĠÐłÐµÑģÐ¿ÑĥÐ±Ð»Ð¸ÐºÐµ":10434,"ĠÐ¿Ð¾ÑıÐ²Ð»ÐµÐ½Ð¸Ñı":10435,"ĠÐ¾Ð±ÑĬÐµÐ´Ð¸Ð½ÐµÐ½Ð¸Ðµ":10436,"ĠÐ´Ð²Ð¾ÑĢÑĨÐ°":10437,"ĠÐ¡ÑĢÐµÐ´Ð¸Ð·ÐµÐ¼":10438,"ĠÐ¥Ð¾ÑĢÐ²Ð°ÑĤ":10439,"ĠÐ¾Ð±ÑıÐ·Ð°Ð½Ð½Ð¾ÑģÑĤÐ¸":10440,"ĠÐ¡Ð¸ÑĢÐ¸Ð¸":10441,"ĠÐ¿ÐµÑĢÐµÑĢÐ°Ð±Ð¾ÑĤ":10442,"Ð»Ð»Ð¾Ð²":10443,"Ð·Ð¾ÑĢ":10444,"ÑħÐ¾Ð·":10445,"Ð¿Ð¾ÑģÑĤ":10446,"Ð±Ð°ÑĢ":10447,"ÐµÑĤÐ¾":10448,"ĠÑĥÑī":10449,"ĠÑĤÐ°ÐºÐ°Ñı":10450,"Ð°Ð½Ð´Ñĭ":10451,"ĠÐ¾Ð¿ÐµÑĢÑĭ":10452,"ĠÐ´Ð²Ð°Ð´ÑĨ":10453,"ĠÐ¿Ð¾ÑģÑĤÑĢÐ°Ð´":10454,"ĠÐ¨Ð°ÑĢ":10455,"ÑıÐ·ÑĮ":10456,"ĠÐ¾ÑģÑĤÐ°Ð»ÑĮÐ½ÑĭÑħ":10457,"ĠÐĲÐ»ÐµÐºÑģÐµÑı":10458,"ĠÐ¿ÐµÑĢÐµÐ²Ð¾Ð´Ðµ":10459,"Ð²Ð¸Ð´Ñĥ":10460,"ĠÑģÑĤÐ°Ð½ÑĨÐ¸Ð¹":10461,"ĠÐĲÐ»ÑĮÐ±ÐµÑĢÑĤ":10462,"ĠWindows":10463,"ĠÐ¯Ð¿Ð¾Ð½Ð¸Ñı":10464,"ĠÐ±Ð¾ÑĢÑĮÐ±Ð°":10465,"ĠÐ´Ð»Ð¸Ð½Ð°":10466,"ĠÑģÑĥÐ¿ÐµÑĢ":10467,"ĠÐ°Ð·Ð¾ÑĤÐ°":10468,"ĠÐ°ÑįÑĢÐ¾Ð¿Ð¾ÑĢÑĤÐ°":10469,"ĠÑĤÐ¾Ð»ÐºÐ¾Ð²":10470,"ĠÐ¿ÐµÑĢÑģÐ¸Ð´":10471,"ĠÐĵÐ°Ð¸ÑĤÐ¸":10472,"ÐĴÐ¾ÑģÑģÑĤÐ°Ð½Ð¸Ðµ":10473,"ÑĤÐ¾Ð½Ð°":10474,"ÑĭÐ¿":10475,"Ð·ÐµÑĢ":10476,"ĠÑĤÐ°Ð»":10477,"ĠÐ°Ð³ÑĢÐ°ÑĢ":10478,"ĠÐ¿ÐµÑĢÑģÐ¿ÐµÐºÑĤ":10479,"ĠÐ²ÑĭÑĢÐ°Ð¶ÐµÐ½Ð¸Ñı":10480,"ĠÐĳÐ¸ÑĤÐ²Ð°":10481,"ĠÐĶÐ¾Ð»":10482,"ĠÐĶÐ¾Ð¼Ð¸Ð½":10483,"Ð°Ð¹Ð½ÐµÑĢ":10484,"ĠÐ²Ð·ÑıÐ»Ð¸":10485,"ÐµÑĢÐµÑı":10486,"ĠÐ°Ð²ÑĤÐ¾ÑĢÑĭ":10487,"ĠÐ½Ð°ÑĥÑĩÐ½Ð¾Ð³Ð¾":10488,"ĠÑģÐ¿Ð¾ÑģÐ¾Ð±Ð½Ð¾ÑģÑĤÐ¸":10489,"ĠÐ¿ÑĢÐ¸ÑĢÐ¾Ð´Ð½ÑĭÑħ":10490,"ĠÐ¾Ð±ÐµÑģÐ¿ÐµÑĩÐ¸Ð²":10491,"ĠÐ¿ÑĢÐ¾Ð±Ð»ÐµÐ¼Ð°":10492,"ĠÑĦÐ¾ÑĤÐ¾Ð³ÑĢÐ°ÑĦÐ¸Ð¸":10493,"ĠÐ¡Ð²ÑıÑĤÐ¾Ð¹":10494,"ĠÐ¾ÑĤÑģÑĥÑĤÑģÑĤÐ²ÑĥÐµÑĤ":10495,"ĠÐ¸Ð½ÑĤÐµÑĢÐµÑģÐ¾Ð²":10496,"Ġla":10497,"ĠÐķÐºÐ°ÑĤÐµÑĢÐ¸Ð½Ñĭ":10498,"ĠÐºÐ¾ÑĢÐ¿ÑĥÑģÐ°":10499,"ÐĿÐ°ÑĨÐ¸Ð¾Ð½Ð°Ð»ÑĮÐ½ÑĭÐ¹":10500,"ĠÐŁÐ¾Ð»Ð¸ÑĤÐ±ÑİÑĢÐ¾":10501,"ĠÐ°ÑĢÐ³ÑĥÐ¼ÐµÐ½ÑĤ":10502,"ĠÐ§Ð°ÑĢÐ»ÑĮÐ·":10503,"Ã¶":10504,"Ð¸ÑģÑı":10505,"ÐºÑĢÐµÐ¿":10506,"ÑıÐ·ÑĭÑĩ":10507,"Ð¾Ð´Ð¾Ð¼":10508,"Ð¸Ð¹ÑģÐºÐ¾Ðµ":10509,"ÐĴÑĤ":10510,"ĠÐ¿ÑĢÐ¸Ð±Ð¾ÑĢ":10511,"ĠÐŁÐ¸ÑĢ":10512,"Ð¢Ð°Ð¹":10513,"Ð£ÐºÐ°Ð·":10514,"ĠÐ¿ÑĢÐ¾Ð¸Ð·Ð²Ð¾Ð»ÑĮ":10515,"ĠÐ²ÑĭÑģÐ¾ÑĤÐµ":10516,"ĠÑħÑĥÐ´Ð¾Ð¶Ð½Ð¸ÐºÐ¾Ð²":10517,"ĠÐ²ÑĭÑģÑĤÑĥÐ¿Ð»ÐµÐ½Ð¸Ñı":10518,"ĠÑģÐºÐ¾ÑĢÐ¾ÑģÑĤÑĮÑİ":10519,"ĠÑģÑĬÑĳÐ¼":10520,"Ð¾Ð»ÑİÐ±":10521,"ĠÑģÐ¿ÑĢÐ°Ð²ÐµÐ´Ð»Ð¸Ð²":10522,"ĠÐ¡Ð¾Ð»Ð½ÐµÑĩÐ½Ð¾Ð¹":10523,"Ð°Ð¸":10524,"ÐºÐ¾ÑĤÐ¾ÑĢ":10525,"ĠÐ¸ÐºÐ¾Ð½":10526,"ĠÑģÐµÐ¹":10527,"ĠÐ´Ð¸Ðº":10528,"ÐĴÑĤÐ¾ÑĢÐ¾Ð¹":10529,"ĠÑĦÐ¾ÑĢÑĤ":10530,"ĠÑĦÐµÐ½Ð¾Ð¼":10531,"ĠÐ»Ð¸ÑģÑĤ":10532,"ÑĨÐ¸Ð°Ð½":10533,"ÐļÐ°Ð¼":10534,"ĠÐ¿Ð¾Ð»Ð°Ð³Ð°":10535,"ÐĲÑģÑĤ":10536,"ÐºÐ¾Ð½Ñĭ":10537,"ÐŃÐ¹":10538,"ĠÑģÐ¸ÑģÑĤÐµÐ¼Ð°Ñħ":10539,"ĠÐ·Ð°Ð¿Ð¾Ð²ÐµÐ´":10540,"ĠÐ³ÑĢÑĥÐ¿Ð¿Ð¾Ð¹":10541,"ĠÐ´ÐµÐ¹ÑģÑĤÐ²Ð¸ÑĤÐµÐ»ÑĮÐ½Ð¾ÑģÑĤÐ¸":10542,"ĠÐ·ÐµÐ¼Ð»ÐµÐ´":10543,"ĠÐ´Ð¾ÐºÑĤÐ¾ÑĢÐ°":10544,"ĠÐ¾ÑĤÐ´Ð°Ð»":10545,"ĠÑĢÑĥÐºÐ¾Ð²Ð¾Ð´Ð¸ÑĤÐµÐ»ÐµÐ¹":10546,"ĠÐ¿Ð¾ÑģÑĤÑĢÐ¾ÐµÐ½Ñĭ":10547,"ĠÑĢÐµÐ´ÐºÐ¾":10548,"ĠÐ¿ÑĢÐ¾Ð²Ð¾Ð´Ð¸ÑĤÑģÑı":10549,"ĠÐ±Ð¸ÑĤÐ²Ñĭ":10550,"ĠÐ¼ÐµÐ´Ð¸ÑĨÐ¸Ð½Ðµ":10551,"ĠÐ²Ð½Ð¸Ð¼Ð°Ð½Ð¸Ñı":10552,"ĠÐ¸ÑģÑģÐ»ÐµÐ´Ð¾Ð²Ð°ÑĤÐµÐ»Ð¸":10553,"ĠÑįÐ»ÐµÐºÑĤÑĢÐ¾ÑįÐ½ÐµÑĢÐ³":10554,"ĠBeat":10555,"ou":10556,"pe":10557,"ÑĢÐ°ÑĨÐ¸Ñİ":10558,"ÑĢÐµÐ»ÑĮ":10559,"Ð¾Ð½ÑĤÐ°":10560,"ĠÐ¡Ð¸Ð»":10561,"ĠÐŁÑĢÐµÐ¼":10562,"ĠÐĵÐ¾ÑĢÐ¾Ð´":10563,"ĠÐĵÑĢÐµÐ½":10564,"ĠÐ²ÑĭÑıÐ²":10565,"ĠÐĳÐµÐ»Ð°":10566,"ĠÐ¿Ð¾Ð»Ð½Ð¾Ðµ":10567,"ĠÐ¿Ð¾Ð»Ð°Ð³":10568,"ĠÐ·Ð°ÑĢÐ°Ð±Ð¾ÑĤ":10569,"ĠÐ²Ð¾ÑĪÑĳÐ»":10570,"ÐµÑĩÐµÑĢ":10571,"ĠÐ¿ÑĢÐ°Ð²Ð¾Ð¼":10572,"Ð°ÑĢÑĤÐ¸Ð¹":10573,"ĠÑĢÐ°Ð±Ð¾ÑĤÐ½Ð¸ÐºÐ¾Ð²":10574,"ĠÑįÐ»ÐµÐºÑĤÑĢÐ¾Ð´":10575,"ĠÐ·Ð°Ð´ÐµÑĢÐ¶":10576,"ĠÐ¾ÑĤÐ»Ð¸ÑĩÐ°ÑİÑĤÑģÑı":10577,"Ġ1887":10578,"ĠÐ¿ÑĢÐ¾ÐµÐºÑĤÑĥ":10579,"ĠÐ½ÐµÑĦÑĤÑĮ":10580,"ĠÐ¾Ð±ÑĢÐ°ÑīÐµÐ½Ð¸Ñı":10581,"ĠÑģÐ¾Ð±ÑģÑĤÐ²ÐµÐ½Ð½Ð¾ÑģÑĤÐ¸":10582,"XVIII":10583,"ĠÐ¿Ð¾ÑıÐ²Ð»ÑıÐµÑĤÑģÑı":10584,"Ð½Ð°ÑĢÐ¾Ð´":10585,"ÑģÐ°Ð½ÑĤ":10586,"ÑĢÑĳÐ»":10587,"Ð»ÑĭÐµ":10588,"Ð¿Ð°ÑĢÑħ":10589,"Ð¾Ð¼Ð¾ÑĢÑĦ":10590,"ĠÐ±Ð¾ÐºÑģ":10591,"ĠÑĦÐ¸Ð½ÑģÐºÐ¸Ð¹":10592,"Ð¸Ð²ÑĪÐµÐ³Ð¾":10593,"ĠÐĴÐ¾ÑģÑĤÐ¾ÐºÐ°":10594,"ÐłÑĭ":10595,"ĠÐĽÐµÐ±":10596,"Ð°Ð½Ð¸ÑıÐ¼":10597,"ÑĢÐ¾Ñī":10598,"ĠÐ¿ÑĢÐ°Ð²Ð»ÐµÐ½Ð¸Ðµ":10599,"ĠÐ¸ÑģÐ¿ÑĢÐ°Ð²":10600,"ĠÐºÐ¾ÑĢÐ¾Ð½":10601,"ĠÑĢÑĥÑģÑģÐºÐ¾":10602,"ĠÐ·Ð°Ð¿Ð¸ÑģÑĮ":10603,"ĠÐ¾Ð±ÑīÐµÐ½Ð¸Ñı":10604,"ĠÐ´Ð¾ÐºÐ»Ð°Ð´":10605,"ÑĦÐ¾ÑĢÐ¼Ð°ÑĨÐ¸Ð¸":10606,"ĠÐ¾Ð±ÑĬÑıÐ²Ð»ÐµÐ½Ð¾":10607,"ĠÐ¿ÑĢÐ¸Ð¼ÐµÑĢÑĥ":10608,"Ð±ÐµÑĢÐ³Ð°":10609,"ĠÐ¾Ð±ÑĥÑĩÐµÐ½Ð¸Ðµ":10610,"Ð¸ÑĨÐ¸Ð½Ñĭ":10611,"ĠÐ¼Ð¸Ð½Ð¸Ð¼ÑĥÐ¼":10612,"ĠÐ°Ð½Ð³Ð»Ð¸ÑĩÐ°Ð½":10613,"iz":10614,"ĠÐ²Ð¼ÐµÑĪ":10615,"Ð¿Ð°ÑĢ":10616,"ÐµÑĢÐµÐ¼":10617,"ĠÐ½ÐµÐ²ÐµÑĢ":10618,"Ð¾Ð´Ð¾Ð±":10619,"Ð¡ÑĩÐ¸ÑĤ":10620,"Ð¸Ð·Ð´":10621,"ĠÐµÐ´":10622,"ĠÐ¿Ð¾Ð»ÐµÐ¼":10623,"ÐĿÐķÐ¡":10624,"ÐĲÐ¿ÑĢÐµÐ»ÑĮ":10625,"ĠÐĽÑİÑĤ":10626,"Ð¼Ð°Ð³":10627,"ĠÐ£ÑĢ":10628,"Ġ%;":10629,"ĠÐ°Ð¼ÐµÑĢÐ¸ÐºÐ°Ð½ÑģÐºÐ¾Ð³Ð¾":10630,"ĠÐ§ÐµÑĢÐ½":10631,"ĠÑģÐ»Ð¾Ð²Ð°ÑĢÑĮ":10632,"ĠÑĤÐ¸Ð¿Ñĭ":10633,"ĠÑĤÐ¾ÑĩÐºÐµ":10634,"ĠÐ¼Ð¸ÑĢÐ¾Ð²Ð¾Ð³Ð¾":10635,"rom":10636,"ĠÐ¸ÑģÑĤÐ¾ÑĩÐ½Ð¸ÐºÐ¸":10637,"ĠÐĴÐ¾Ð»Ð³Ð¸":10638,"ight":10639,"ĠÐ¿ÑĢÐ¾ÑħÐ¾Ð´Ð¸Ð»":10640,"ĠÑģÐºÐ°Ð·Ð°Ð»":10641,"ĠÐ¿ÑĢÐ¾Ð³Ð¾Ð»Ð¾ÑģÐ¾Ð²":10642,"ĠÐ´ÐµÐºÑĢÐµÑĤ":10643,"ĠÐ¿Ð¾Ð´ÑĤÐ²ÐµÑĢÐ´":10644,"Ð¢ÐµÐ°ÑĤÑĢ":10645,"ÑĤÐ°ÐºÐ¶Ðµ":10646,"ĠÑĤÑĥÑĢÐ¸ÑģÑĤÐ¾Ð²":10647,"ĠÐ¾ÑĤÐ´ÑĭÑħÐ°":10648,"Ð¡Ð¸ÑģÑĤÐµÐ¼Ð°":10649,"ĠÐ¿ÑĢÐ¸Ð±Ð»Ð¸Ð·Ð¸ÑĤÐµÐ»ÑĮÐ½Ð¾":10650,"ÑİÑģÑĤ":10651,"ĠÐ³ÑĢÐ¾Ð¼":10652,"ÑīÐ¸ÑĨÐ°":10653,"ÑĢÑĥÐ½":10654,"ĠÑģÑĤÑĢ":10655,"ÐĺÐ§":10656,"ÐĵÐµÐ½ÐµÑĢÐ°":10657,"ĠÑģÐ°Ð¼Ð°":10658,"Ð¾Ð²Ð°Ð½Ð½ÑĭÑħ":10659,"ĠÐ²Ð¾ÐµÐ½Ð½Ð¾Ðµ":10660,"ĠÐ¿Ð¾ÑĤÐµÐ½ÑĨÐ¸":10661,"ĠÐ¾Ð±ÑīÐ°Ñı":10662,"ĠÐ½ÐµÐºÐ¾ÑĤÐ¾ÑĢÑĭÐ¼":10663,"ĠÐľÐ°ÑĢÑģÐ°":10664,"ĠÐ°ÑģÑĤÑĢ":10665,"ĠÐ¿ÑĢÐ¸Ð½ÑĨÐ¸Ð¿Ð¸":10666,"ĠÐºÐ¾Ð½ÑģÑĤÑĢÑĥÐºÑĤ":10667,"ĠÐ½ÐµÐ±Ð¾Ð»ÑĮÑĪÐ¾Ð¹":10668,"ĠÐ°Ð·ÐµÑĢÐ±Ð°Ð¹Ð´Ð¶":10669,"ĠÐ¾Ð±ÑĢÐ°Ð±Ð¾ÑĤÐºÐ¸":10670,"ÐµÐ·Ð¾Ð¿Ð°ÑģÐ½Ð¾ÑģÑĤÐ¸":10671,"ÐĿÐķÐ¡ÐļÐŀ":10672,"NS":10673,"ĠÑģÑĤÑĢÐ¾Ð³":10674,"ĠÐľÐ¸ÑĤ":10675,"Ð¸ÑĤÐµÐ»ÑĮÐ½Ð¾Ð¼":10676,"ÐĶÐ¾Ð½":10677,"Ð¤ÐµÐ²ÑĢÐ°Ð»ÑĮ":10678,"ĠÑģÑĤÑĢÐ°Ñħ":10679,"ĠÐ¿ÑĢÐµÐ¼Ð¸Ñı":10680,"ĠÐ±ÑĥÐ´ÑĥÑĩÐ¸":10681,"Ð¸ÑĦÐµÑģÑĤ":10682,"ĠÐ´Ð²Ð¸Ð¶ÐµÐ½Ð¸Ð¸":10683,"ĠÑģÑĤÐ°ÑĤÑĥÑģÐ°":10684,"ĠGoogle":10685,"ĠÑģÐµÐºÑĥÐ½":10686,"ĠÐļÐ¾Ð½ÑģÑĤÐ°Ð½ÑĤÐ¸Ð½Ð°":10687,"ĠÐ³ÑĢÐµÑĩÐµÑģÐºÐ¾Ð³Ð¾":10688,"ĠÐ´Ð»Ð¸Ð½Ð¾Ð¹":10689,"ĠÐ¿ÑĢÐ¸ÐºÐ°Ð·Ñĥ":10690,"ĠÑģÐ¾Ð·Ð½Ð°Ð½Ð¸Ñı":10691,"ĠÐĺÑģÑĤÐ¾ÑĢÐ¸Ñı":10692,"ĠÐľÐ¾Ð»Ð´Ð°Ð²Ð¸Ð¸":10693,"ĠÐ¿ÑĢÐ¾Ð¼ÐµÐ¶ÑĥÑĤÐ¾Ñĩ":10694,"ĠÐ®Ð¿Ð¸ÑĤÐµÑĢÐ°":10695,"ĠÑĤÑĳÐ¿Ð»":10696,"ÑģÐ±ÑĥÑĢÐ³":10697,"ÐºÐ¾ÑģÐ¼Ð¾Ð½Ð°Ð²ÑĤ":10698,"ÐµÐ½ÑĨÐ¸Ñİ":10699,"Ð±ÐµÐ¶":10700,"Ð³Ð¾Ð´Ð°":10701,"ĠÐ¼Ð¸Ð³":10702,"ĠÐ¡Ð¸Ð»ÑĮ":10703,"ĠÐ¾Ð±ÑĢÑı":10704,"Ð¸ÑģÑĤÑģÐºÐ°Ñı":10705,"ĠÐĵÐ²Ð°ÑĤÐµÐ¼":10706,"ĠÐ¢Ð°Ð¸Ð»":10707,"Ð¢Ð°Ð¼":10708,"Ġ1812":10709,"ĠÑģÐ¾Ð±ÑģÑĤÐ²ÐµÐ½Ð½ÑĭÑħ":10710,"Ð¸ÐºÐ°ÑĨÐ¸Ð¸":10711,"Ġ41":10712,"ÑĥÐ»Ñĥ":10713,"ĠÐ²ÑĭÑģÐ¾ÑĤÑĭ":10714,"ÐµÑħÐ°Ð»":10715,"ĠÐ³Ð»Ð°Ð²Ð½Ð¾Ð³Ð¾":10716,"ĠÑģÐ»Ð¾Ð²Ð°Ð¼Ð¸":10717,"Ð°ÑĢÐ´Ð¾":10718,"ĠÐľÐ°ÑĢÐ¾ÐºÐºÐ¾":10719,"ĠÐ·Ð´Ð°Ð½Ð¸Ð¸":10720,"Ð°ÐµÐ¼ÑĭÐ¹":10721,"1902":10722,"ĠÑģÐ²ÑıÑĤÑĭÑħ":10723,"ĠÑĤÐµÐºÑģÑĤÑĭ":10724,"ĠÐ¼Ð°ÑĤÐµÑĢÐ¸Ð°Ð»Ð°":10725,"ĠÐ½ÐµÐ¾Ð±ÑħÐ¾Ð´Ð¸Ð¼Ð¾ÑģÑĤÑĮ":10726,"Ð¾Ð¿ÑĢÐ¸Ð¼ÐµÑĩÐ°ÑĤÐµÐ»ÑĮ":10727,"ĠÑģÐ°Ð¼Ð¾Ð»ÑĳÑĤÐ¾Ð²":10728,"ĠÐ´Ð²Ð¸Ð³Ð°ÑĤÐµÐ»Ñı":10729,"ĠÑĢÐ°Ð±Ð¾ÑĩÐµÐ¹":10730,"ĠÐ°Ð»Ð³ÐµÐ±ÑĢÐ°":10731,"ĠÐ³Ð¾ÑģÑĤÐ¸Ð½":10732,"Ð¾Ð¸Ð½":10733,"Ð½Ð¾Ð´":10734,"ĠÐ²Ð¸ÑĢÑĥ":10735,"ĠÐ³ÑĢÐµÐ±":10736,"ÑĦÑİÑĢ":10737,"ĠÐ±Ð»Ð¾Ð³":10738,"Ð°Ð¼Ð¸Ð½":10739,"ĠÐ¡Ð°Ð´":10740,"Ð¸ÑģÐ»Ð¾ÑĤ":10741,"ĠÐļÐ²":10742,"ĠÐļÑĢÐ¸":10743,"ĠÑĦÐµÑģÑĤÐ¸Ð²Ð°Ð»ÑĮ":10744,"ĠÐĲÑĢÐ°Ð±":10745,"Ð¾Ð¿Ð¾ÑĤ":10746,"Ð¸Ð·Ð½ÑĮ":10747,"ĠÐ²ÑĭÐ¸Ð³":10748,"ĠÐ¿Ð¾Ð»Ð¸ÑĨÐ¸Ð¸":10749,"ĠÐĿÐ°ÑĤ":10750,"ĠÐ¿Ð¾Ð´Ð¼":10751,"ĠÐ¢Ð°":10752,"ĠÐ¢Ð°ÑĤÐ°ÑĢ":10753,"ÐĵÐµÑĢÐ¼":10754,"Ð°ÑĢÐ¸ÑĨÑĭ":10755,"ĠÑĢÐµÐ·ÐµÑĢÐ²":10756,"ĠÐĲÐ»ÐµÐºÑģÐ°Ð½Ð´ÑĢÐ¸Ð¹":10757,"ich":10758,"ĠÐĿÐ¾Ð²Ð¾Ð³Ð¾":10759,"ĠÑĢÐµÑģÐ¿ÑĥÐ±Ð»Ð¸Ðº":10760,"ĠÐ¿Ð»Ð¾ÑīÐ°Ð´ÑĮÑİ":10761,"ĠÐĲÐ»ÑĮÑĦÑĢÐµÐ´":10762,"ĠÑĤÑĢÑĥÐ´Ñĭ":10763,"Ġ1860":10764,"Ð¾ÑģÐ¿Ð¾ÑģÐ¾Ð±":10765,"ĠÐ½Ð°Ð±Ð»ÑİÐ´ÐµÐ½Ð¸Ñı":10766,"ĠÐ¾ÑĨÐµÐ½ÐºÐ°Ð¼":10767,"ĠÐ²ÐµÑīÐµÐ¹":10768,"ĠÐ¿Ð»Ð¾ÑĤÐ½Ð¾ÑģÑĤÑĮ":10769,"ĠÑĢÐ°ÑģÑģÑĤÐ¾ÑıÐ½Ð¸Ñı":10770,"ĠÐ²ÑĭÑģÐ¾ÑĤÐ¾Ð¹":10771,"ÐµÐ½Ð¾Ñģ":10772,"ÑĦÑĤ":10773,"ĠÐľÐ¾Ð½ÑĤ":10774,"ĠÐ¿ÐµÑĢÐµÐ»":10775,"ĠÐ¢Ð¾Ðº":10776,"ÐĺÑİÐ»ÑĮ":10777,"Ð½ÑıÐ»":10778,"ĠÐŀÐ³":10779,"ÐĳÐ°ÑĢ":10780,"ÐµÐµÑħ":10781,"ĠÑĥÑĩÑĢÐµÐ´":10782,"ÑıÐ½Ð¸Ðµ":10783,"ĠÐ½Ð°ÑĩÐ°Ð»ÑĮÐ½Ð¸Ðº":10784,"Ð¼ÑĭÐºÐ°":10785,"ĠÑĦÐ¾ÑĢÐ¼ÑĥÐ»Ð¸ÑĢÐ¾Ð²":10786,"ĠÐĿÐ¸ÐºÐ°ÑĢÐ°Ð³ÑĥÐ°":10787,"ĠÐ´Ð¾Ð¿ÑĥÑģÑĤ":10788,"ĠÐ¿ÑĢÐ¸Ð·Ð½Ð°Ð»":10789,"ĠÑģÑĤÐ°ÑĤÑĮÑı":10790,"ĠÐĴÐ¾Ð»Ð³":10791,"ĠÐ¾Ð·ÑĳÑĢ":10792,"ÐĶÐ¶Ð¾Ð½":10793,"ĠÐ¡Ð¿Ð°Ñģ":10794,"ĠÐ·Ð°ÑħÐ²Ð°ÑĤÐ¸Ð»":10795,"ĠÑģÑĥÐ²ÐµÑĢÐµÐ½Ð¸ÑĤ":10796,"ĠBeatles":10797,"In":10798,"ĠÐ³Ð¸Ð³":10799,"ĠÐ¼ÐµÐºÑģÐ¸ÐºÐ°Ð½":10800,"ĠÐľÐ°Ð»Ð°Ð¹":10801,"ĠÐĵÐ¾Ð¼":10802,"ĠÐĳÑį":10803,"ĠÐ¿Ð¾Ð´ÑĬÑĳÐ¼":10804,"ÐĶÐµÐºÐ°":10805,"ĠÐŃÐ¼":10806,"ÐµÐºÐ°ÐµÑĤ":10807,"ÐĹÐ²":10808,"ĠÐ¾Ð±ÑĢÐ°Ð·ÑĥÐµÑĤ":10809,"ĠÑĥÐ¿Ð¾Ð¼":10810,"ĠÐ³Ð°Ð·ÐµÑĤ":10811,"ĠÐ¸ÑģÐ¿Ð¾Ð»ÑĮÐ·Ð¾Ð²Ð°Ð½Ð¸Ð¸":10812,"Ġ1892":10813,"ĠÑĩÐ°ÑģÐ°":10814,"ĠÑĢÐ¾Ð¼Ð°Ð½ÑĤ":10815,"Ġ||":10816,"ÑĢÐ¾ÑģÑĤÐ°Ð½":10817,"ĠÑĩÐµÐ»Ð¾Ð²ÐµÑĩÐµÑģÑĤÐ²Ð°":10818,"ivers":10819,"ĠÑĥÑĢÐ°Ð²Ð½ÐµÐ½Ð¸Ð¹":10820,"ĠÐ³ÐµÐ½ÐµÑĤ":10821,"ĠÐ·Ð°ÑģÐµÐ´Ð°Ð½Ð¸Ð¸":10822,"ĠÐ½Ð°ÑģÑĤÐ¾Ð»ÑĮÐºÐ¾":10823,"ÐŁÑĢÐ¾Ð´Ð¾Ð»Ð¶":10824,"ĠÐ¼ÐµÑĤÐ°Ð»Ð»ÑĥÑĢÐ³":10825,"ĠÐ±ÑĥÑħ":10826,"ĠÐ¾ÑĤÐ²ÐµÑĢÐ³":10827,"ÐŁÐ¾ÑĢÑĤ":10828,"ĠÐŁÑıÑĤ":10829,"Ð¾ÑĩÐ°Ð¹":10830,"ĠÐ²ÑĢÐµÐ¼ÐµÐ½Ð½ÑĭÑħ":10831,"ĠÐ²Ð¾Ð´Ð¾ÑĢÐ¾Ð´":10832,"ĠÐ¼Ð¾ÑĢÐµÐ¼":10833,"ĠÐ·Ð°Ð½ÑıÐ»Ð°":10834,"ĠÐĲÑĢÐºÑĤ":10835,"ĠÐ¿ÑĢÐµÐ¼ÑĮÐµÑĢÐ°":10836,"ĠÐ²Ð·ÑĢÐ¾Ñģ":10837,"ical":10838,"ĠÐĿÐ¾Ð²ÑĭÐ¹":10839,"ĠÐ¸ÑģÐ¿Ð¾Ð»ÑĮÐ·Ð¾Ð²Ð°Ð»ÑģÑı":10840,"ĠÑħÑĢÐ¸ÑģÑĤÐ¸Ð°Ð½ÑģÐºÐ¾Ð¹":10841,"Ġ1879":10842,"ĠÐ°ÑĤÐ¾Ð¼Ð°":10843,"ĠÐľÐµÐ¶Ð´ÑĥÐ½Ð°ÑĢÐ¾Ð´Ð½Ð¾Ð¹":10844,"ĠÐ¢ÑĢÐ¾ÑĨÐºÐ¸Ð¹":10845,"ĠÐ½ÐµÐ´Ð¾ÑģÑĤÐ°ÑĤ":10846,"ĠÐ·Ð°Ð»Ð¸Ð²":10847,"ĠÑģÐ¾Ð¾ÑĢÑĥÐ¶ÐµÐ½Ð¸Ñı":10848,"ĠÑģÑĥÑħÐ¾Ð¿ÑĥÑĤ":10849,"ĠÐ²ÑĥÐ»ÐºÐ°Ð½":10850,"ĠÐĴÑıÑĩÐµÑģÐ»Ð°Ð²":10851,"ff":10852,"Ð»ÑĭÐ¹":10853,"ÐºÐ¾ÑģÑĤÐ¸":10854,"ĠÐ²Ð¾Ð»ÑĮ":10855,"Ð»ÑĮÐ½ÑĭÐ¼":10856,"ĠÐ´Ð¸ÑģÐ¿":10857,"ĠÐ²ÑĭÐ·ÑĭÐ²Ð°ÐµÑĤ":10858,"ĠÑĤÐ°ÐºÐ¸Ð¼Ð¸":10859,"Ð»ÑİÐ±":10860,"Ð°ÑĢÑĤÐ¸Ñı":10861,"ĠÐ´Ð²Ð¾":10862,"Ð¾Ð»ÑĮÐ·Ð¾Ð²":10863,"ĠÐ½Ð°ÑĢÐ¾Ð´Ð½Ð¾Ð¹":10864,"ĠÑĢÐ°Ð·Ð²Ð¸ÑĤÐ¸ÐµÐ¼":10865,"ĠÐ¿Ð°ÑĢÐ»Ð°Ð¼ÐµÐ½ÑĤÑģÐºÐ¸Ðµ":10866,"ĠÐ¿ÑĢÐ¾ÑĪÐ»Ð¾Ð¼":10867,"ÐºÐ¾ÑĢÐ¾Ð»ÑĮ":10868,"ĠÐ»Ð¸Ð±ÐµÑĢÐ°Ð»ÑĮ":10869,"ÐŁÑĢÐ¾Ð¸Ñģ":10870,"ĠÐ°Ð´Ð¼Ð¸Ð½Ð¸ÑģÑĤÑĢÐ°ÑĤÐ¸Ð²Ð½Ð¾":10871,"ĠÐĴÐ¾Ð¾ÑĢÑĥÐ¶":10872,"ĠÐ¾Ð±Ð¾ÑĢÑĥÐ´Ð¾Ð²Ð°Ð½Ð¸Ðµ":10873,"ĠÐĵÐ¾ÑĢÐ±Ð°ÑĩÑĳÐ²":10874,"ÐĴÐ½ÐµÑĪÐ½ÑıÑı":10875,"ĠÐļÐ°Ð¼Ð±Ð¾Ð´":10876,"tion":10877,"Ð°Ð½ÑģÐºÐ¸Ñħ":10878,"Ð°ÑĤÐ»ÐµÑĤ":10879,"ÐµÐ¹ÑģÐºÐ°Ñı":10880,"ĠÑģÑĤÐ¾Ð»ÑĮ":10881,"ĠÐļÑĢÐµ":10882,"ĠÐļÐ¸Ð¼":10883,"Ð¸Ð²ÑĪÐµÐµ":10884,"ĠÐ½ÐµÐ¾ÑĤ":10885,"ĠÐĲÐ¿Ð¾Ð»":10886,"ĠÐľÑİÐ½Ñħ":10887,"ÐľÐ°ÐºÑģÐ¸Ð¼":10888,"Ð°Ð¹Ð´":10889,"Ð¢Ð¾ÑĢ":10890,"ÐµÑĩÐµÐ½Ð¸Ðµ":10891,"ĠÐ·Ð°ÐºÐ°Ð·":10892,"ĠÐ¿Ð¾Ð·Ð²Ð¾Ð»ÑıÑİÑĤ":10893,"ĠÐ²ÐµÐ´ÑĳÑĤ":10894,"ĠÑģÐºÐ¾ÑĢÐµÐµ":10895,"ÑĦÐµÑģÑģÐ¸Ð¾Ð½":10896,"Ð¿ÑĢÐ¾Ñĩ":10897,"ĠÐ¾ÐºÐ°Ð·Ð°Ð»ÑģÑı":10898,"ĠÐ¿ÑĢÐ¾ÑħÐ¾Ð´ÑıÑĤ":10899,"ĠÑĥÑĢÐ°Ð²Ð½ÐµÐ½Ð¸Ñı":10900,"ĠÐĳÐ°Ð»ÑĤÐ¸Ð¹ÑģÐºÐ¾Ð³Ð¾":10901,"ÐļÐ°ÑĢÐ»":10902,"ÐĺÐ½ÑĤÐµÑĢ":10903,"ĠÑĦÐ°Ð¼Ð¸Ð»Ð¸Ñı":10904,"ĠÐ±Ð°ÑģÐºÐµÑĤÐ±Ð¾Ð»Ð¸ÑģÑĤ":10905,"ĠÐ¿ÑĢÐµÐ²Ð¾ÑģÑħÐ¾Ð´":10906,"cl":10907,"ĠÐ½Ð°ÑĢ":10908,"Ġ(;":10909,"ĠÐ°Ð´Ð°":10910,"ĠÐľÐµÑĤ":10911,"ĠÐĺÐ¾ÑĢÐ´":10912,"ĠÐ¸Ð¼ÑĥÑīÐµ":10913,"Ð°ÑĢÐ°Ð¿":10914,"ĠÐ®Ð½":10915,"ĠÐ²Ð¾Ð¿Ð»Ð¾Ñī":10916,"ĠÐºÐ¾Ð¼Ð°Ð½Ð´Ð¸ÑĢÐ°":10917,"ĠÑģÐ²Ð¾Ð±Ð¾Ð´Ð½Ð¾Ð¹":10918,"ĠÐ¾Ð±ÑĬÑıÐ²Ð»ÐµÐ½":10919,"1896":10920,"ĠÐ¿ÑĢÐµÐ´Ð»Ð¾Ð¶ÐµÐ½Ð¸Ñı":10921,"ĠÐ¸Ð½ÑĦÐ¾ÑĢÐ¼Ð°ÑĨÐ¸Ñı":10922,"ĠÑıÐ²Ð»ÐµÐ½Ð¸Ðµ":10923,"ĠÐ²Ð½ÑĥÑĤÑĢÐµÐ½Ð½ÐµÐ³Ð¾":10924,"ĠÐ¿Ð¾Ð¿ÑĥÐ»ÑıÑĢÐ½Ð¾ÑģÑĤÑĮ":10925,"ĠÑĩÐµÐ»Ð¾Ð²ÐµÑĩÐµÑģÐºÐ¾Ð³Ð¾":10926,"ĠÐ¿Ð¾ÑħÐ¾ÑĢÐ¾Ð½":10927,"ĠÐ·Ð¸Ð¼Ð¾Ð¹":10928,"ĠÐłÐ¾Ð¼Ð°Ð½Ð¾Ð²":10929,"ĠÐºÐ¾ÑĪÐºÐ¸":10930,"ĠÐ¿ÐµÑĢÐµÐ¸Ð¼ÐµÐ½Ð¾Ð²Ð°Ð½":10931,"Ð½Ð°Ð´ÑĨÐ°ÑĤ":10932,"ĠÑģÑĢÐ°Ð¶ÐµÐ½Ð¸Ð¸":10933,"ĠÐĳÐ¸Ð±Ð»Ð¸Ð¸":10934,"ĠÐĴÑģÐµÐ»ÐµÐ½Ð½Ð¾Ð¹":10935,"Ð²ÐºÐ»ÑİÑĩÐ°Ñı":10936,"ek":10937,"Ñ£":10938,"ĠÐ½Ð°Ð·ÐµÐ¼":10939,"ĠÐ½Ð°Ð¾Ð±Ð¾ÑĢÐ¾ÑĤ":10940,"Ð¾ÑĤÐ¾Ð¿":10941,"ĠÐ¾Ð±ÐµÑī":10942,"ĠÐĲÑĢÐ°Ð²":10943,"Ð½Ð°Ñī":10944,"ĠÐĳÑĢÐ¸ÑĤ":10945,"ĠÑĢÐ°Ð·Ð¾ÑĢ":10946,"ĠÐ¾ÑģÐ¸":10947,"ĠÐºÐ°ÐºÐ¸Ñħ":10948,"Ð»Ð°Ð²Ð´":10949,"ĠÑĢÑĥÐºÐ°Ñħ":10950,"Ð·Ð°ÑĨÐ¸Ñı":10951,"ĠÑģÐ¾Ð±ÑģÑĤÐ²ÐµÐ½Ð½Ð¾Ð¹":10952,"erv":10953,"ÑĳÐ»ÑĤ":10954,"ĠÐ°Ð´Ð¼Ð¸ÑĢÐ°Ð»":10955,"ĠÐ¼ÐµÐ´Ð¸ÑĨÐ¸Ð½Ñĭ":10956,"ĠÐ´ÑĢÐµÐ²Ð½ÐµÑĢÑĥÑģ":10957,"ĠÑĢÑĥÐºÐ¾Ð²Ð¾Ð´ÑģÑĤÐ²Ð°":10958,"ĠÐ¿Ð°Ð¼ÑıÑĤÐ½Ð¸ÐºÐ¾Ð²":10959,"ĠÐ¾ÐºÐ°Ð·Ð°Ð»Ð°ÑģÑĮ":10960,"ĠÐ±Ð¾ÑĢÑĮÐ±Ñĥ":10961,"ĠÐ¾ÐºÑĢÑĥÐ³Ð¾Ð²":10962,"ĠÐºÑĢÐ°Ð¹Ð½ÐµÐ¹":10963,"ĠÑĤÐµÑĢÐ¼Ð¸Ð½Ð°":10964,"ĠÐ¸ÑģÑģÐ»ÐµÐ´Ð¾Ð²Ð°ÑĤÐµÐ»ÐµÐ¹":10965,"Ð¼ÐµÐ¹ÑģÑĤÐµÑĢ":10966,"ÐµÑĢÐ°ÑĢÑħ":10967,"ÐĺÑģÑĤÐ¾ÑĩÐ½Ð¸ÐºÐ¸":10968,"Ð°Ð½Ð½Ð°":10969,"Ð°Ð½Ð°Ñģ":10970,"ÑĩÐµÑģÑĤ":10971,"ĠÐ¿ÑĢÐ¸ÑģÑĤÐ°Ð²":10972,"ĠÐ»ÑĭÐ¶":10973,"ĠÐ¿ÐµÑĢÐµÐ±":10974,"ÑĤÐ¾Ðµ":10975,"ÑİÑĤÐµÑĢÐ°Ð½":10976,"ÐľÐ¾Ð»":10977,"ÐľÐ°ÑĢÐº":10978,"Ð¢Ð¾":10979,"ĠÐ¥ÑĥÐ°Ð½":10980,"ÐµÐ¿ÑĤ":10981,"ÑĥÑİÑīÐ¸Ð¼Ð¸":10982,"ĠÑįÐºÑģÐ¿Ð¾ÑĢÑĤÐ°":10983,"ĠÐ²ÑĭÑģÐ¾ÐºÐ¸Ð¼":10984,"ĠÑįÐ»ÐµÐ¼ÐµÐ½ÑĤÐ°":10985,"ĠÐ·Ð°Ð¿Ð°Ð´Ð½ÑĭÑħ":10986,"ĠÐ·Ð°ÐºÐ»ÑİÑĩÐµÐ½Ð¸Ñı":10987,"ĠÐ´Ð°ÑĤÑģÐºÐ¸Ð¹":10988,"ĠÐ¿Ð°Ð¿Ñĭ":10989,"ĠÑįÐºÑģÐ¿ÐµÐ´Ð¸ÑĨÐ¸Ñı":10990,"ĠÑģÑĥÑĤÐ¸":10991,"ĠÑĢÐµÐ·ÑĥÐ»ÑĮÑĤÐ°ÑĤÐ°Ð¼":10992,"Ð°ÑĤÐ°Ð»ÑĮÑı":10993,"ĠÐ¼ÐµÑģÑĤÐ¾ÑĢÐ¾Ð¶Ð´ÐµÐ½Ð¸Ñı":10994,"ĠÐ´ÐµÐ»ÑıÑĤÑģÑı":10995,"ĠÐ¿Ð¾Ð´ÑĢÐ°Ð·ÑĥÐ¼ÐµÐ²":10996,"ÑıÐ·Ñĭ":10997,"ĠÑģÐ½Ð°Ð±":10998,"Ð»Ð¸Ð³":10999,"ÑİÑĢÐ¸":11000,"ÑĪÐµÐ½ÐºÐ¾":11001,"ĠÐ½Ð°Ð³ÑĢÐ°Ð´":11002,"ÑīÐ¸ÐºÐ¸":11003,"ĠÐ·Ð¾ÑĢÐ¾Ð°ÑģÑĤ":11004,"ÐµÐ»ÑĮÐ½ÑĭÐ¹":11005,"Ð¾Ð·Ðµ":11006,"ĠÐĵÐ°Ð½":11007,"ĠÐĳÑĥÑĢÐ³":11008,"ÐłÐ¾Ð±":11009,"Ð¾Ð»Ð¾Ð³Ð¸":11010,"ĠÐĹÐ°Ñħ":11011,"ĠÐ¡ÑĤÑĢÑĥÐ³Ð°":11012,"ĠÑĤÐµÐ°ÑĤÑĢÐ°Ð»ÑĮ":11013,"ĠÑĢÐµÐ·ÑĥÐ»ÑĮÑĤÐ°ÑĤÐ¾Ð²":11014,"ĠÐºÐ¾Ð»Ð¸ÑĩÐµÑģÑĤÐ²Ð¾Ð¼":11015,"ĠÐ¸Ð·Ð¾Ð±ÑĢÐ°Ð¶ÐµÐ½Ð¸Ðµ":11016,"ĠÐ¾ÑģÑĥÑīÐµÑģÑĤÐ²Ð»ÑıÐµÑĤ":11017,"ĠÐĽÑİÐ´Ð²Ð¸Ð³":11018,"ÑĩÐ°ÑģÑĤÐ¸":11019,"ĠÐŁÑĢÐ°Ð²Ð¾ÑģÐ»Ð°Ð²":11020,"ĠÑģÐ¸ÑĤÑĥÐ°ÑĨÐ¸Ñı":11021,"ĠÑįÐ½ÑĨÐ¸ÐºÐ»Ð¾Ð¿ÐµÐ´Ð¸Ñı":11022,"ĠÑģÐ¾Ð¿ÑĢÐ¾Ð²Ð¾Ð¶Ð´":11023,"ĠÐ²ÐµÐ½Ð³ÐµÑĢÑģÐºÐ¸Ð¹":11024,"ÐĵÑĢÐ°Ð¶Ð´Ð°Ð½ÑģÐºÐ°Ñı":11025,"ĠÑĥÐ³Ð»ÐµÑĢÐ¾Ð´Ð°":11026,"bo":11027,"ĠÐĲÑģÑĤ":11028,"ÑĢÐ¾Ð²Ð°Ð½Ð¸Ñı":11029,"Ð¸Ð´ÐµÐ¼":11030,"ÑĥÑĢÐ½ÑĭÐ¹":11031,"ĠÑħÑĥÐ½":11032,"ĠÑĢÐ¾Ñģ":11033,"Ð¢Ð¾Ð»ÑĮÐºÐ¾":11034,"ĠÐºÐ¾Ð½Ð²":11035,"Ð´ÐµÑĪ":11036,"ĠÐ¿Ð¾ÑģÐµÐ»":11037,"ÑĨÐ¸Ð¾Ð½Ð½ÑĭÐ¼":11038,"ĠÐ¾ÑĢÑĦ":11039,"ĠÐºÐ¾Ð¼Ð¿Ð»ÐµÐºÑģÐ°":11040,"ĠÐĶÐ¶Ð¾Ð½Ð°":11041,"ĠÐ·Ð½Ð°ÑĩÐ¸ÑĤ":11042,"ĠÐ½Ð°ÑħÐ¾Ð´Ð¸Ð»Ð°ÑģÑĮ":11043,"ĠÐ±ÐµÐ·ÑĢÐ°Ð±Ð¾ÑĤ":11044,"ĠÑĩÐ»ÐµÐ½Ð°Ð¼Ð¸":11045,"ĠÑģÐ¾Ð´ÐµÐ¹ÑģÑĤÐ²":11046,"ÑıÑģÐ½":11047,"olog":11048,"ÑģÑĤÐ°Ð½ÑĤÐ¸Ð½":11049,"ĠÑĤÐµÑĩÐµÐ½Ð¸Ñı":11050,"ĠÐ¿Ð¸ÑģÑĮÐ¼Ðµ":11051,"ĠÐ¿ÑĢÐ¸Ð½Ð¸Ð¼Ð°ÑĤÑĮ":11052,"ĠÐ³ÐµÑĢÑĨÐ¾Ð³Ð°":11053,"ĠÑįÐºÐ·ÐµÐ¼Ð¿Ð»Ñı":11054,"ĠÐłÑĥÑģÑĮ":11055,"ĠÐĶÑĢÐµÐ²Ð½ÐµÐ¹":11056,"ĠÐ¢Ð°Ð¹Ð²Ð°Ð½":11057,"ĠÐ½Ð°Ð¿ÑĢÑıÐ¶":11058,"ĠÐĴÐ¾Ð·ÑĢÐ¾Ð¶Ð´ÐµÐ½Ð¸Ñı":11059,"ĠÐ·ÐµÐ¼Ð»ÐµÑĤÑĢÑıÑģÐµÐ½Ð¸Ðµ":11060,"ÐºÐµÐ¹":11061,"Ð²ÑĤÐ¾ÑĢ":11062,"Ð¼Ð¾Ð´":11063,"ĠÐ¾ÑĩÐµÐ²Ð¸Ð´":11064,"ĠÐºÐ°Ð»Ð¸":11065,"Ð»ÑĮÐ½Ð°Ñı":11066,"ÐµÑĤÐ¸":11067,"Ð°ÑĢÑĥ":11068,"ĠÑĥÐ²ÐµÑĢ":11069,"ĠÐļÑĥÐ·":11070,"ÐłÐļ":11071,"ÐµÑģÐ¾ÑİÐ·":11072,"ĠÑĢÑĥÑģÑģÐºÐ¸Ð¼":11073,"Ð½ÑĥÐ²":11074,"ary":11075,"ÐŀÐ´Ð½Ð¾Ð²ÑĢÐµÐ¼ÐµÐ½Ð½Ð¾":11076,"Ġ1891":11077,"ÐĴÐ¾Ð¾ÑĢÑĥÐ¶":11078,"Ġ1885":11079,"ĠÐ¸Ð·ÑĥÑĩÐµÐ½Ð¸Ðµ":11080,"ĠÐĲÐ»Ð¶":11081,"Ð¡Ð°Ð¼Ð°Ñı":11082,"ĠÐ±ÑĢÐ°ÑĤÑĮÐµÐ²":11083,"ĠÐĲÐ´Ð¾Ð»ÑĮÑĦ":11084,"ĠÐ¿Ð¾Ð»ÑĮÐ·Ð¾Ð²Ð°ÑĤÐµÐ»Ñı":11085,
[...]
