{
  "version": "1.0",
  "truncation": {
    "direction": "Right",
    "max_length": 512,
    "strategy": "LongestFirst",
    "stride": 0
  },
  "padding": null,
  "added_tokens": [
    {
      "id": 1,
      "content": "<pad>",
      "single_word": false,
      "lstrip": false,
      "rstrip": false,
      "normalized": false,
      "special": true
    },
    {
      "id": 20000,
      "content": "<|endoftext|>",
      "single_word": false,
      "lstrip": false,
      "rstrip": false,
      "normalized": true,
      "special": true
    }
  ],
  "normalizer": null,
  "pre_tokenizer": {
    "type": "ByteLevel",
    "add_prefix_space": false,
    "trim_offsets": true,
    "use_regex": true
  },
  "post_processor": {
    "type": "ByteLevel",
    "add_prefix_space": true,
    "trim_offsets": false,
    "use_regex": true
  },
  "decoder": {
    "type": "ByteLevel",
    "add_prefix_space": true,
    "trim_offsets": true,
    "use_regex": true
  },
  "model": {
    "type": "BPE",
    "dropout": null,
    "unk_token": null,
    "continuing_subword_prefix": "",
    "end_of_word_suffix": "",
    "fuse_unk": false,
    "byte_fallback": false,
    "ignore_merges": false,
    "vocab": {
      "<s>": 0,
      "<pad>": 1,
      "</s>": 2,
      "<unk>": 3,
      "<mask>": 4,
      "!": 5,
      "\"": 6,
      "#": 7,
      "$": 8,
      "%": 9,
      "&": 10,
      "'": 11,
      "(": 12,
      ")": 13,
      "*": 14,
      "+": 15,
      ",": 16,
      "-": 17,
      ".": 18,
      "/": 19,
      "0": 20,
      "1": 21,
      "2": 22,
      "3": 23,
      "4": 24,
      "5": 25,
      "6": 26,
      "7": 27,
      "8": 28,
      "9": 29,
      ":": 30,
      ";": 31,
      "<": 32,
      "=": 33,
      ">": 34,
      "?": 35,
      "@": 36,
      "A": 37,
      "B": 38,
      "C": 39,
      "D": 40,
      "E": 41,
      "F": 42,
      "G": 43,
      "H": 44,
      "I": 45,
      "J": 46,
      "K": 47,
      "L": 48,
      "M": 49,
      "N": 50,
      "O": 51,
      "P": 52,
      "Q": 53,
      "R": 54,
      "S": 55,
      "T": 56,
      "U": 57,
      "V": 58,
      "W": 59,
      "X": 60,
      "Y": 61,
      "Z": 62,
      "[": 63,
      "\\": 64,
      "]": 65,
      "^": 66,
      "_": 67,
      "`": 68,
      "a": 69,
      "b": 70,
      "c": 71,
      "d": 72,
      "e": 73,
      "f": 74,
      "g": 75,
      "h": 76,
      "i": 77,
      "j": 78,
      "k": 79,
      "l": 80,
      "m": 81,
      "n": 82,
      "o": 83,
      "p": 84,
      "q": 85,
      "r": 86,
      "s": 87,
      "t": 88,
      "u": 89,
      "v": 90,
      "w": 91,
      "x": 92,
      "y": 93,
      "z": 94,
      "{": 95,
      "|": 96,
      "}": 97,
      "~": 98,
      "¡": 99,
      "¢": 100,
      "£": 101,
      "¤": 102,
      "¥": 103,
      "¦": 104,
      "§": 105,
      "¨": 106,
      "©": 107,
      "ª": 108,
      "«": 109,
      "¬": 110,
      "®": 111,
      "¯": 112,
      "°": 113,
      "±": 114,
      "²": 115,
      "³": 116,
      "´": 117,
      "µ": 118,
      "¶": 119,
      "·": 120,
      "¸": 121,
      "¹": 122,
      "º": 123,
      "»": 124,
      "¼": 125,
      "½": 126,
      "¾": 127,
      "¿": 128,
      "À": 129,
      "Á": 130,
      "Â": 131,
      "Ã": 132,
      "Ä": 133,
      "Å": 134,
      "Æ": 135,
      "Ç": 136,
      "È": 137,
      "É": 138,
      "Ê": 139,
      "Ë": 140,
      "Ì": 141,
      "Í": 142,
      "Î": 143,
      "Ï": 144,
      "Ð": 145,
      "Ñ": 146,
      "Ò": 147,
      "Ó": 148,
      "Ô": 149,
      "Õ": 150,
      "Ö": 151,
      "×": 152,
      "Ø": 153,
      "Ù": 154,
      "Ú": 155,
      "Û": 156,
      "Ü": 157,
      "Ý": 158,
      "Þ": 159,
      "ß": 160,
      "à": 161,
      "á": 162,
      "â": 163,
      "ã": 164,
      "ä": 165,
      "å": 166,
      "æ": 167,
      "ç": 168,
      "è": 169,
      "é": 170,
      "ê": 171,
      "ë": 172,
      "ì": 173,
      "í": 174,
      "î": 175,
      "ï": 176,
      "ð": 177,
      "ñ": 178,
      "ò": 179,
      "ó": 180,
      "ô": 181,
      "õ": 182,
      "ö": 183,
      "÷": 184,
      "ø": 185,
      "ù": 186,
      "ú": 187,
      "û": 188,
      "ü": 189,
      "ý": 190,
      "þ": 191,
      "ÿ": 192,
      "Ā": 193,
      "ā": 194,
      "Ă": 195,
      "ă": 196,
      "Ą": 197,
      "ą": 198,
      "Ć": 199,
      "ć": 200,
      "Ĉ": 201,
      "ĉ": 202,
      "Ċ": 203,
      "ċ": 204,
      "Č": 205,
      "č": 206,
      "Ď": 207,
      "ď": 208,
      "Đ": 209,
      "đ": 210,
      "Ē": 211,
      "ē": 212,
      "Ĕ": 213,
      "ĕ": 214,
      "Ė": 215,
      "ė": 216,
      "Ę": 217,
      "ę": 218,
      "Ě": 219,
      "ě": 220,
      "Ĝ": 221,
      "ĝ": 222,
      "Ğ": 223,
      "ğ": 224,
      "Ġ": 225,
      "ġ": 226,
      "Ģ": 227,
      "ģ": 228,
      "Ĥ": 229,
      "ĥ": 230,
      "Ħ": 231,
      "ħ": 232,
      "Ĩ": 233,
      "ĩ": 234,
      "Ī": 235,
      "ī": 236,
      "Ĭ": 237,
      "ĭ": 238,
      "Į": 239,
      "į": 240,
      "İ": 241,
      "ı": 242,
      "Ĳ": 243,
      "ĳ": 244,
      "Ĵ": 245,
      "ĵ": 246,
      "Ķ": 247,
      "ķ": 248,
      "ĸ": 249,
      "Ĺ": 250,
      "ĺ": 251,
      "Ļ": 252,
      "ļ": 253,
      "Ľ": 254,
      "ľ": 255,
      "Ŀ": 256,
      "ŀ": 257,
      "Ł": 258,
      "ł": 259,
      "Ń": 260,
      "ĠÐ": 261,
      "Ð¾": 262,
      "Ðµ": 263,
      "Ð°": 264,
      "ÑĤ": 265,
      "Ð¸": 266,
      "Ñģ": 267,
      "Ð¾Ð": 268,
      "Ð½": 269,
      "Ð»": 270,
      "ÑĢ": 271,
      "Ñĥ": 272,
      "Ð°Ð": 273,
      "Ñı": 274,
      "Ñĭ": 275,
      "ÐµÐ": 276,
      "ÑĮ": 277,
      "ĠÑģ": 278,
      "ĠÐ¿": 279,
      "ĠÐ½": 280,
      "Ñĩ": 281,
      "Ðº": 282,
      "ĠÐ²": 283,
      "ĠÐ¸": 284,
      "Ð²": 285,
      "ĠÐ¾": 286,
      "Ð´": 287,
      "Ð°Ð»": 288,
      "Ð¼": 289,
      "ÑĤÐ¾": 290,
      "Ñħ": 291,
      "ĠÐº": 292,
      "Ð¾Ð²": 293,
      "ÑĪ": 294,
      "ÑģÑĤ": 295,
      "ÐµÐ½": 296,
      "ĠÐ±": 297,
      "ĠÑĤ": 298,
      "ĠÐ´": 299,
      "ÐµÐ»": 300,
      "Ð¾Ð»": 301,
      "³Ð¾": 302,
      "ÐµÑĢ": 303,
      "ĠÐ¼": 304,
      "Ñİ": 305,
      "Ð½Ð¾": 306,
      "Ð¾Ð¼": 307,
      "ÐµÑĤ": 308,
      "Ð°Ðº": 309,
      "Ð¸Ð»": 310,
      "ĠÑĩ": 311,
      "ÑĥÐ": 312,
      "ĠÐ·": 313,
      "ĠÐ¿ÑĢ": 314,
      "Ð¾Ð¹": 315,
      "Ð¾Ð´": 316,
      "ĠÐ½Ðµ": 317,
      "Ð°ÑĤ": 318,
      "ÑģÑı": 319,
      "ĠÑĢ": 320,
      "âĢ": 321,
      "Ð¸Ð": 322,
      "Ð½Ñĭ": 323,
      "ĠâĢ": 324,
      "ĠâĢĵ": 325,
      "Ð¸ÑĤ": 326,
      "ĠÐ³": 327,
      "ĠÐµ": 328,
      "Ð°Ð·": 329,
      "ĠÐ½Ð°": 330,
      "Ð¾Ñģ": 331,
      "ÐµÐ¼": 332,
      "Ð¾ÑĢ": 333,
      "Ð°Ñģ": 334,
      "Ð°Ð²": 335,
      "Ð¿": 336,
      "Ð½Ð¸": 337,
      "Ð°Ð¼": 338,
      "Ñī": 339,
      "ĠÑĥ": 340,
      "ĠÐ±Ñĭ": 341,
      "ĠÐ»": 342,
      "ÑĨ": 343,
      "Ð±": 344,
      "Ð¾ÑĤ": 345,
      "Ð½Ð°": 346,
      "Ð¾Ð³": 347,
      "Ð¸Ð²": 348,
      "ĠÐ¶": 349,
      "Ð·": 350,
      "ÐµÐ´": 351,
      "Ð¾Ð½": 352,
      "ĠÐ¾ÑĤ": 353,
      "Ð¾Ð³Ð¾": 354,
      "Ð°Ð½": 355,
      "ĠÑ": 356,
      "ĠÑģÑĤ": 357,
      "ĠÑĩÑĤÐ¾": 358,
      "Ð¹": 359,
      "Ð¾Ðº": 360,
      "ÑģÐº": 361,
      "ĠÐ¾Ð½": 362,
      "ĠÐ±ÑĭÐ»": 363,
      "Ð¸Ð¼": 364,
      "Ð´Ð°": 365,
      "Ð¸Ð½": 366,
      "ÐµÐ¹": 367,
      "ĠÐŁ": 368,
      "Ð°Ð´": 369,
      "ĠÑı": 370,
      "ĠÐºÐ°Ðº": 371,
      "Ð³Ð¾": 372,
      "Ð¸Ñģ": 373,
      "ĠÐĿ": 374,
      "Ð³": 375,
      "ÑĤÐ¾ÑĢ": 376,
      "ĠÑį": 377,
      "Ð°ÑĤÑĮ": 378,
      "Ð°ÑĢ": 379,
      "Ð°Ñı": 380,
      "Ð¾Ð±": 381,
      "ĠÐ¿Ð¾": 382,
      "Ð¾Ð¶": 383,
      "ÐµÐ²": 384,
      "ĠÐ²Ñģ": 385,
      "Ð¾Ð»ÑĮ": 386,
      "ÐµÑģ": 387,
      "ĠÐĴ": 388,
      "Ð¸Ñĩ": 389,
      "Ð½Ñĥ": 390,
      "ĠÐĺ": 391,
      "ÐµÐ·": 392,
      "Ð¸Ñħ": 393,
      "Ð¸Ðº": 394,
      "ĠÐµÐ³Ð¾": 395,
      "ĠÑħ": 396,
      "ĠÑģÐ²": 397,
      "ÑģÑĤÐ²": 398,
      "Ð¸Ðµ": 399,
      "ÑĥÐ¶": 400,
      "ĠÐ°": 401,
      "ÑĥÐ´": 402,
      "ÐºÐ¾": 403,
      "ĠÐ²Ñĭ": 404,
      "Ð¸Ð¹": 405,
      "ĠÑĤÐ°Ðº": 406,
      "Ġ-": 407,
      "Ð»Ð¸": 408,
      "ÐºÐ°": 409,
      "Ð»Ñı": 410,
      "ÐµÐº": 411,
      "ĠÐĲ": 412,
      "ÐµÐ»ÑĮ": 413,
      "Ð¶": 414,
      "ÐµÑĩ": 415,
      "ÑĢÐ°": 416,
      "Ð°Ð¶": 417,
      "Ð¸Ð´": 418,
      "ÐµÐ³Ð¾": 419,
      "ĠÐ¾Ð±": 420,
      "Ð¾Ð·": 421,
      "ÐµÐ¿": 422,
      "ÂŃ": 423,
      "ĠÐ¡": 424,
      "ÑıÑĤ": 425,
      "ÑĥÐ³": 426,
      "ĠÑģÐ»": 427,
      "ÐµÐ±": 428,
      "ÐµÑħ": 429,
      "ĠÐŀ": 430,
      "Ð¾Ð³Ð´Ð°": 431,
      "ĠÐºÐ¾": 432,
      "ĠÐ½Ð¾": 433,
      "Ð¸ÑģÑĮ": 434,
      "Ð°Ð»Ð¸": 435,
      "ÐµÐ½ÑĮ": 436,
      "ĠÐ¿Ð¾Ð´": 437,
      "Ð¸ÑĤÑĮ": 438,
      "ÐºÐ¸": 439,
      "ĠÐ·Ð°": 440,
      "ĠÐ¸Ð·": 441,
      "Ð°Ð»Ð°": 442,
      "Ð½ÑĭÐ¹": 443,
      "Ð¸Ð·": 444,
      "ĠÑģÐº": 445,
      "ĠÐºÑĢ": 446,
      "ÑĥÑĤ": 447,
      "Ð°Ð¼Ð¸": 448,
      "ÑĭÐ¹": 449,
      "ĠÐļ": 450,
      "Ð½Ðµ": 451,
      "ĠÑĢÐ°Ð·": 452,
      "ÑĭÐ²": 453,
      "ĠÑĤÐ¾": 454,
      "ÐµÐ½Ð¸": 455,
      "Ð½Ð¾Ð¹": 456,
      "ÑģÑĤÑĮ": 457,
      "ĠÐºÐ¾ÑĤÐ¾ÑĢ": 458,
      "Ð½ÑĭÐ¼": 459,
      "..": 460,
      "ĠÑįÑĤÐ¾": 461,
      "ĠÐ±ÑĭÐ»Ð¾": 462,
      "ÑĥÑİ": 463,
      "ĠÐ§": 464,
      "ĠÐ¢": 465,
      "ĠÐľ": 466,
      "ÑĥÐ¼": 467,
      "ĠÐ²ÑģÐµ": 468,
      "Ð»Ð°": 469,
      "ÑĥÑĩ": 470,
      "ÑīÐµ": 471,
      "ĠÐ¾Ð´": 472,
      "Ð¾Ð¿": 473,
      "Ð½Ð¾Ð³Ð¾": 474,
      "Ð¾ÑģÑĮ": 475,
      "ĠÑįÑĤ": 476,
      "ĠÐ¶Ðµ": 477,
      "Ð¾Ñĩ": 478,
      "Ð°Ð¿": 479,
      "ÐºÑĥ": 480,
      "ĠÑĪ": 481,
      "ÐµÐ³": 482,
      "ÑĭÐ¼": 483,
      "ÐµÑĪ": 484,
      "Ð°Ð±": 485,
      "Ð¾Ðµ": 486,
      "Ð½ÑĭÐµ": 487,
      "ĠÑģÐ¼": 488,
      "ĠÐ¿ÐµÑĢ": 489,
      "ÐµÐ¶": 490,
      "ĠÐ³Ð»": 491,
      "ĠÐ´ÑĢ": 492,
      "Ð¾Ð»ÑĮÐºÐ¾": 493,
      "ÑĥÑĪ": 494,
      "ÑĭÐµ": 495,
      "Ð°ÑģÑĮ": 496,
      "Ð°ÐµÑĤ": 497,
      "ÐµÐ½Ð½Ð¾": 498,
      "Ð°Ð»ÑģÑı": 499,
      "ÑĥÐ±": 500,
      "Ð¾ÑģÑĤ": 501,
      "Ð¾Ð²Ð°": 502,
      "ÐµÑģÑĤ": 503,
      "ĠÐ»Ñİ": 504,
      "ĠÑģÐ¿": 505,
      "Ð¾Ð²Ð¾ÑĢ": 506,
      "ÑĥÐ¿": 507,
      "ĠÐ³Ð¾": 508,
      "Ð°Ð¹": 509,
      "Ð¸ÑĢ": 510,
      "ÑĭÑħ": 511,
      "ÑıÐ»": 512,
      "ĠÐĶ": 513,
      "Ð¾ÑĪ": 514,
      "ÑĥÑĢ": 515,
      "ĠÑģÐ²Ð¾": 516,
      "ĠÑĥÐ¶": 517,
      "Ð°Ñİ": 518,
      "Ð°Ð»ÑĮ": 519,
      "ĠÐ»Ð¸": 520,
      "Ð°Ð³": 521,
      "Ð¾Ð¼Ñĥ": 522,
      "Ġ\"": 523,
      "ĠÑĢÐ°Ñģ": 524,
      "ĠÐ´Ð²": 525,
      "ĠÐ³ÑĢ": 526,
      "ĠÐ¯": 527,
      "Ð¾Ð²Ð¸Ñĩ": 528,
      "Ð½ÑĥÐ»": 529,
      "ĠÐ¿Ð¾Ð»": 530,
      "ĠÐ¿Ð¾Ñģ": 531,
      "ÐµÐ½Ñı": 532,
      "ĠÐ³Ð¾Ð»": 533,
      "ĠÐºÐ¾Ð³Ð´Ð°": 534,
      "ĠÐ¿ÑĢÐ¸": 535,
      "ĠÐ§ÐµÑħ": 536,
      "Ð½Ð°Ñı": 537,
      "ĠÑģÐ°Ð¼": 538,
      "ĠÑĤÑĢ": 539,
      "Ð¸Ð»Ð°": 540,
      "Ð¸Ð»ÑģÑı": 541,
      "ĠÑĢÑĥ": 542,
      "Ð½ÑĭÑħ": 543,
      "ĠÐ¼ÐµÐ½Ñı": 544,
      "ÑħÐ¾Ð´": 545,
      "Ð¼Ñĥ": 546,
      "Ð¸ÑĤÐµÐ»ÑĮ": 547,
      "ĠÐ¾Ð½Ð°": 548,
      "ÑĪÐµ": 549,
      "ÑģÑĤÑĢ": 550,
      "Ð°Ñħ": 551,
      "Ð½Ð¾Ðµ": 552,
      "ĠÐ±ÑĥÐ´": 553,
      "Ð¸Ð»Ð¸": 554,
      "ĠÐĿÐ¾": 555,
      "ĠÐ¼Ð½Ðµ": 556,
      "ĠÐ±Ð¾Ð»ÑĮ": 557,
      "Ð°Ð·Ð°Ð»": 558,
      "ÑĤÑĮ": 559,
      "ĠÑĤÐ¾Ð»ÑĮÐºÐ¾": 560,
      "ĠÐ¿Ð¾Ðº": 561,
      "ĠÐµÑīÐµ": 562,
      "ĠÐµÐµ": 563,
      "ĠÐ³Ð¾Ð²Ð¾ÑĢ": 564,
      "ĠÐ´ÑĢÑĥÐ³": 565,
      "ĠÐ¿Ð»": 566,
      "ĠÐ²Ð¸Ð´": 567,
      "ĠÑĥÐ¶Ðµ": 568,
      "ĠÐŁÐ°Ð²": 569,
      "ÐµÐ»Ð¾Ð²": 570,
      "ĠÐ²Ð·": 571,
      "ĠÐ³Ð¾ÑĢ": 572,
      "Ð°Ð»Ð¾": 573,
      "ĠÐķ": 574,
      "ĠÐĳ": 575,
      "ĠÑĩÐµÑĢ": 576,
      "ÑĤÐ¸": 577,
      "Ð¸Ð³": 578,
      "ĠÐ³Ð»Ð°Ð·": 579,
      "Ð¾ÑĤÑĢ": 580,
      "ĠÐµÐ¼Ñĥ": 581,
      "ÐµÐ½Ð¸Ðµ": 582,
      "ĠÐ±ÐµÐ·": 583,
      "ĠÐ¾Ñĩ": 584,
      "ÑĦ": 585,
      "ÐºÐ¾Ð²": 586,
      "Ð°Ð½Ð¸": 587,
      "ÐµÑĢÑĮ": 588,
      "ÑĢÐ¾Ñģ": 589,
      "ĠÑĨ": 590,
      "ĠÐ¼Ð¾Ð»": 591,
      "Ð¸Ð±": 592,
      "...": 593,
      "ÐµÑģÐº": 594,
      "ÑģÑĤÐ¸": 595,
      "ÑĥÐ²": 596,
      "ĠÐ¾Ð½Ð¸": 597,
      "ĠÑĤÑĭ": 598,
      "ĠÐŀÐ½": 599,
      "ÐµÐ½Ð¸Ñı": 600,
      "ĠÐ»ÑİÐ±": 601,
      "ÐµÐ¼Ñĥ": 602,
      "Ð»Ð¸Ð²": 603,
      "ÑģÐ¿": 604,
      "ĠÐ½Ð¸": 605,
      "ÑģÑĮ": 606,
      "ÑģÑĤÐ°Ð²": 607,
      "ÐµÐ»Ð¸": 608,
      "Ð´Ðµ": 609,
      "ĠÑģÑĤÑĢ": 610,
      "ÐºÐµ": 611,
      "ĠÐ¼Ñĭ": 612,
      "ĠÐ½ÐµÐ³Ð¾": 613,
      "Ð¸Ð¼Ð¸": 614,
      "ĠÐ½Ð°Ð´": 615,
      "Ð¸Ð¶": 616,
      "ÑĥÑħ": 617,
      "ĠÐ¶Ð¸Ð·": 618,
      "ĠÑĦ": 619,
      "Ð²ÐµÑĢ": 620,
      "ÐµÐ±Ñı": 621,
      "ĠÐ±Ð»": 622,
      "Ð¾Ð¼Ð½": 623,
      "ĠÐ¿Ð¾ÑĤ": 624,
      "Ð½ÑĥÑİ": 625,
      "Ð¸Ð½Ð°": 626,
      "ĠÐĵ": 627,
      "ĠÐ¾Ðº": 628,
      "ÐµÑĨ": 629,
      "ĠÐ²ÑĢ": 630,
      "Ð½Ð¸Ð¼": 631,
      "ĠÐĲÐ½": 632,
      "ĠÐ¾Ð¿": 633,
      "ÑıÑĤÑĮ": 634,
      "ĠÐ²Ð¾Ð·": 635,
      "Ð¸ÑĪ": 636,
      "ĠÐ¼Ð¾Ð³": 637,
      "ĠÐ¿ÑĢÐ¾": 638,
      "ÑĢÐ°Ð²": 639,
      "âĢ¦": 640,
      "ĠÐ¸Ñħ": 641,
      "Ð¾Ð±Ñĭ": 642,
      "ĠÐ§ÐµÑħÐ¾Ð²": 643,
      "ÑĮÑı": 644,
      "ĠÑĩÐµÐ»Ð¾Ð²": 645,
      "ĠÐ¾ÑĤÐ²": 646,
      "ĠÐ»Ð¸ÑĨ": 647,
      "Ð¸ÑģÑĤ": 648,
      "ĠÐ¼Ð¾": 649,
      "ĠÐ¸Ð¼": 650,
      "ÑĩÐ°": 651,
      "ĠÐ´Ð»Ñı": 652,
      "ĠÐ¾ÑĩÐµÐ½ÑĮ": 653,
      "ĠÐ¾Ñģ": 654,
      "Ð½Ñı": 655,
      "Ð»Ð¾": 656,
      "Ð»Ðµ": 657,
      "ĠÑĤÐµÐ¼": 658,
      "ĠÐ±ÑĭÐ»Ð°": 659,
      "Ð°Ð»Ð¸ÑģÑĮ": 660,
      "ÐµÑĤÑģÑı": 661,
      "ĠÐ²ÐµÑģ": 662,
      "ÐµÐ½ÑĮÐº": 663,
      "ÑĥÑģÑĤ": 664,
      "ÐµÐ»Ð°": 665,
      "ÑģÐ»Ð¸": 666,
      "ÑĭÑĪ": 667,
      "ÐµÐ»Ð¾": 668,
      "ĠÐ·Ð½": 669,
      "ĠÑģÑĤÑĢÐ°": 670,
      "Ð°Ñĩ": 671,
      "ĠÐ¶ÐµÐ½": 672,
      "ÑĢÑĭ": 673,
      "ĠÐĽ": 674,
      "ĠÐ½Ð°Ñĩ": 675,
      "Ð°Ð²ÑĪ": 676,
      "ĠÐ´Ð¾Ð»": 677,
      "ÐµÑĤÑĮ": 678,
      "ĠÐ·Ð½Ð°": 679,
      "ĠÐ±ÑĭÐ»Ð¸": 680,
      "ĠÑģÐ¾Ð²": 681,
      "ÑĢÐ°Ð·": 682,
      "ĠÑĥÐ¼": 683,
      "ĠÐ»ÑİÐ´": 684,
      "ĠÐĹ": 685,
      "ĠÐ¿Ð¾Ñĩ": 686,
      "ĠÑģÐ¾Ð±": 687,
      "ĠÑħÐ¾ÑĤ": 688,
      "Ð°Ð¶Ðµ": 689,
      "ÑıÐ¼": 690,
      "ÑĥÐ²ÑģÑĤÐ²": 691,
      "ĠÑĩÐµÐ»Ð¾Ð²ÐµÐº": 692,
      "ĠÐ½Ð°Ð¿": 693,
      "Ð½Ð¾Ð¼": 694,
      "ÐºÐ¾Ð¹": 695,
      "ĠÐ¼Ð¾Ð¶": 696,
      "Ð°ÑĤÐµÐ»ÑĮ": 697,
      "Ð´ÑĢ": 698,
      "ĠÐ½ÐµÐ¿": 699,
      "Ð»Ñİ": 700,
      "Ð¾Ñħ": 701,
      "ĠÐ£": 702,
      "ĠÐ½Ð¸Ðº": 703,
      "ĠÐºÐ¾Ð½": 704,
      "Ð°ÑĪ": 705,
      "ĠÐ¿Ð¾Ð½": 706,
      "ĠÐ±ÐµÑģ": 707,
      "ĠÐ·Ð²": 708,
      "Ð»ÑıÐ´": 709,
      "ĠÐ´Ð¾Ð¼": 710,
      "ÑĥÐ·": 711,
      "Ð¾ÑĢÐ¾ÑĪ": 712,
      "ÐµÑĪÑĮ": 713,
      "ĠÐ¿ÑĢÐµÐ´": 714,
      "ĠÐ²ÑĢÐµÐ¼": 715,
      "Ð¸Ð»ÑĮ": 716,
      "ĠÑģÑĤÐ°ÑĢ": 717,
      "ĠÐŁÐµÑĤ": 718,
      "Â«": 719,
      "ĠÂ«": 720,
      "ÑģÐ»": 721,
      "ĠÐ¸Ð»Ð¸": 722,
      "ĠÐ´Ð¾": 723,
      "Â»": 724,
      "ÐµÐ±Ðµ": 725,
      "Ð°Ð½Ð¾Ð²": 726,
      "Ð½ÑĮ": 727,
      "ÑĤÐµ": 728,
      "ĠÐ´Ð°Ð¶Ðµ": 729,
      "Ð¸ÑĤÐµÐ»ÑĮÐ½Ð¾": 730,
      "ĠÐł": 731,
      "Ð½ÑĭÐ¼Ð¸": 732,
      "ĠÐŃ": 733,
      "ÑĨÐ°": 734,
      "ÑĥÐ´ÑĮ": 735,
      "ĠÐ³Ð¾Ð»Ð¾Ð²": 736,
      "ĠÐ±ÑĢ": 737,
      "ĠÑĩÑĤ": 738,
      "Ð°ÑİÑĤ": 739,
      "Ð¾Ð²Ð°Ð»": 740,
      "ĠÑģÐ¾": 741,
      "Ð¸Ð²ÑĪ": 742,
      "ÑĥÐ»": 743,
      "ĠÑģÐºÐ°Ð·Ð°Ð»": 744,
      "ÐµÑģÑĤÐ²": 745,
      "ĠÐŁÑĢ": 746,
      "ĠÐ´ÑĥÐ¼": 747,
      "ĠÑģÐµÑĢ": 748,
      "ĠÑĤÐµÐ¿": 749,
      "ÑĨÐµ": 750,
      "ĠÐ²ÐµÑĢ": 751,
      "Ð¸ÑĤÐµ": 752,
      "Ð°Ð¶Ð´": 753,
      "ÐµÐµ": 754,
      "Ð½Ð¾Ð²": 755,
      "ĠÐ½ÐµÐ¼": 756,
      "Ð¸Ð»Ð¾ÑģÑĮ": 757,
      "ĠÑĩÑĤÐ¾Ð±Ñĭ": 758,
      "ÐºÐ¾Ð¼": 759,
      "Ð¸Ñı": 760,
      "Ð´Ñĥ": 761,
      "Ð¸Ð¸": 762,
      "ĠÐ³Ð´Ðµ": 763,
      "ĠÐ¿Ð¾Ð²": 764,
      "ĠÐŁÐ°Ð²Ð»": 765,
      "Ð¾Ñİ": 766,
      "Ð»ÐµÐ½": 767,
      "Ð°ÑĤÑĮÑģÑı": 768,
      "ĠÐ¾Ð´Ð¸Ð½": 769,
      "ÑĥÐ´Ð°": 770,
      "Ð¸Ð¿": 771,
      "ÑĥÑģ": 772,
      "ÑĤÐ¾Ð½": 773,
      "Ð°Ð»Ð°ÑģÑĮ": 774,
      "ĠÐ¾Ð³": 775,
      "ĠÐ¿Ð¾ÑĢ": 776,
      "ÑģÐºÐ°Ð·": 777,
      "ĠÐĿÐµ": 778,
      "ĠÑģÐ²ÐµÑĤ": 779,
      "ĠÐ·Ð°Ð¿": 780,
      "ĠÐºÑĢÐ°Ñģ": 781,
      "ÑĢÐµÐ´": 782,
      "ĠÐ¿Ð¸Ñģ": 783,
      "ÑĢÐ¾Ð²Ð¸Ñĩ": 784,
      "ĠÐ±Ð¾Ð»ÑĮÑĪ": 785,
      "ĠÑģÐ¼Ð¾ÑĤÑĢ": 786,
      "ÑĤÐ¾Ñı": 787,
      "ĠÐºÐ¾Ð»": 788,
      "ĠÐ¿Ð¾Ð¿": 789,
      "ĠÑħÐ¾ÑĢÐ¾ÑĪ": 790,
      "ÑıÐ¶": 791,
      "ĠÐ·Ð°Ð¼": 792,
      "ĠÐ´ÐµÐ»": 793,
      "ĠÐļÐ°Ðº": 794,
      "ĠÑģÐµÐ±Ñı": 795,
      "ĠÐ²Ð¾Ð»": 796,
      "ÑĭÐ¼Ð¸": 797,
      "ÑıÐ·": 798,
      "Ð½Ð¾ÑģÑĤÑĮ": 799,
      "ĠÑĩÑĥÐ²ÑģÑĤÐ²": 800,
      "Ð°Ð»Ð¾ÑģÑĮ": 801,
      "ĠÐ±Ð¾Ð»": 802,
      "ĠÐ§ÐµÑħÐ¾Ð²Ð°": 803,
      "ĠÑģÐ½": 804,
      "ĠÐ³Ð»Ð°Ð·Ð°": 805,
      "ĠÐĲÐ½ÑĤÐ¾Ð½": 806,
      "ĠÐ²Ð¾": 807,
      "Ð¸Ð»Ð¸ÑģÑĮ": 808,
      "ĠÑĥÐ´": 809,
      "ĠÐ½Ð°Ñģ": 810,
      "Ð¾Ð±ÑĢ": 811,
      "ĠÐ½Ð¾Ñĩ": 812,
      "ĠÐĶÐ°": 813,
      "ĠÐ¾ÑģÑĤ": 814,
      "ĠÐ·Ð°Ðº": 815,
      "__": 816,
      "Ð»ÐµÐ´": 817,
      "Ð»Ñĭ": 818,
      "Ð¾Ð´Ð°": 819,
      "ĠÐ¿ÐµÑĢÐµÐ´": 820,
      "Ð°ÐµÑĤÑģÑı": 821,
      "Ð¸Ð»Ð°ÑģÑĮ": 822,
      "ÑĤÑĢ": 823,
      "ĠÐ²Ð¿": 824,
      "ĠÑĢÐ°ÑģÑģÐºÐ°Ð·": 825,
      "Ð½Ð¸Ðº": 826,
      "Ð¸ÑĤÑĮÑģÑı": 827,
      "Ð°Ð±Ð¾ÑĤ": 828,
      "ĠÐŃÑĤÐ¾": 829,
      "ĠÐ¼Ð°Ð»": 830,
      "ĠÐ±ÑĭÑĤÑĮ": 831,
      "ĠÐŁÐ°Ð²Ð»Ð¾Ð²Ð¸Ñĩ": 832,
      "ÑĢÐ°Ñģ": 833,
      "Ð°ÐºÐ¾Ð¼": 834,
      "ĠÐ¾ÑĤÐ²ÐµÑĤ": 835,
      "ĠÐ²ÑĢÐµÐ¼Ñı": 836,
      "ĠÐ¿Ð¾Ð·": 837,
      "ĠÑĩÐ°Ñģ": 838,
      "Ð¾ÐºÐ¾Ð¹": 839,
      "Ð°ÑİÑī": 840,
      "ÑĪÐµÐ»": 841,
      "Ð´ÐµÐ»": 842,
      "ĠÑĤÐµÐ¿ÐµÑĢÑĮ": 843,
      "ÐµÑī": 844,
      "ÐµÑĢÑĤ": 845,
      "ĠÐ²Ð¾Ñģ": 846,
      "Ð°ÑıÑģÑĮ": 847,
      "ÐµÐ½Ð½ÑĭÐ¹": 848,
      "ĠÑĩÐµÐ¼": 849,
      "ĠÐĿÐ°": 850,
      "ĠÑģÐºÐ°Ð·": 851,
      "ĠÐ¢Ð°Ðº": 852,
      "ĠÐ½ÐµÑĤ": 853,
      "Ġ/": 854,
      "ĠÐ¿ÑĢÐ¾Ñģ": 855,
      "ÑģÑĤÑĢÐ¾": 856,
      "ĠÐ¶Ð¸Ð·Ð½ÑĮ": 857,
      "ĠÐ´ÐµÑĢ": 858,
      "ÑĤÐµÑĢ": 859,
      "ĠÐĿÐ¸Ðº": 860,
      "Ð¾Ð»Ð¾Ð´": 861,
      "ĠÑģÑĤÑĢÐ°ÑĪ": 862,
      "ĠÐ³Ð¾Ð»Ð¾Ñģ": 863,
      "ÑģÐµ": 864,
      "ĠÑĢÐ°Ð´": 865,
      "Ð½Ð¸Ðµ": 866,
      "ĠÐ½ÐµÐ´": 867,
      "ÐºÐ°Ð¼Ð¸": 868,
      "ĠÑģÐ»Ð¾Ð²": 869,
      "ĠÑĥÐ³": 870,
      "ÑĩÐ½Ð¾": 871,
      "ĠÐ¸Ð½": 872,
      "ĠÐ±ÑĥÐ´ÑĤÐ¾": 873,
      "ĠÐ¼Ð½Ð¾Ð³Ð¾": 874,
      "Ð½ÐµÐ¹": 875,
      "Ð½Ð¸Ð±": 876,
      "ÑĥÑī": 877,
      "ĠÐ±ÐµÐ»": 878,
      "ĠÑĥÐ²": 879,
      "ĠÐ¾ÑĤÐº": 880,
      "Ð½Ð¸Ð±ÑĥÐ´ÑĮ": 881,
      "Ð½Ð¾ÑģÑĤÐ¸": 882,
      "ĠÐ½Ð¸Ñĩ": 883,
      "ĠÐ´ÑĥÑĪ": 884,
      "ÐµÑģÑĮ": 885,
      "ĠÑįÑĤÐ¾Ð³Ð¾": 886,
      "ĠÑĤÐ¸Ñħ": 887,
      "ĠÐ¶Ð¸Ð·Ð½Ð¸": 888,
      "ÐŁ": 889,
      "ĠÐ¶ÐµÐ»": 890,
      "Ð½ÑĥÐ»ÑģÑı": 891,
      "Ð»Ð°Ð´": 892,
      "ĠÐĿÑĥ": 893,
      "ÑĮÑİ": 894,
      "ĠÐĴÑĭ": 895,
      "ÑĭÐ²Ð°Ð»": 896,
      "ĠÐ²Ð¾ÑĤ": 897,
      "Ð¸Ð»Ð¾": 898,
      "ĠÑģÑĤÐ¾Ð»": 899,
      "ĠÐ¼Ð¾Ð¶ÐµÑĤ": 900,
      "ÑĤÐ°": 901,
      "ĠÐ¿ÑĢÐ°Ð²": 902,
      "ĠÐ¿ÑĢÐ¾ÑĤ": 903,
      "Ð¾Ð¶Ðµ": 904,
      "ĠÐ½Ð¾Ð³": 905,
      "Ð²Ð°Ð½": 906,
      "Ð¸ÑĤÑģÑı": 907,
      "ĠÐµÑģÐ»Ð¸": 908,
      "Ð¸Ð½Ñĥ": 909,
      "ĠÑģÑĤÐ¾ÑĢ": 910,
      "Ð½ÐµÐµ": 911,
      "ÐºÐ²": 912,
      "ÑıÐ´": 913,
      "ÐºÐ¸Ð¹": 914,
      "ÐµÐ³Ð´Ð°": 915,
      "Ð¾ÑģÑĤÐ¸": 916,
      "Ð»ÐµÐº": 917,
      "Ð»ÑĭÐ±": 918,
      "ÑĭÐ»": 919,
      "ĠÐŁÐ°Ð²ÐµÐ»": 920,
      "ĠÐ½ÐµÐ²": 921,
      "ĠÐ±ÑĥÐ´ÐµÑĤ": 922,
      "ÑĢÐ¸": 923,
      "ĠÐºÑĤÐ¾": 924,
      "Ð¾Ð»Ð½": 925,
      "ĠÑĤÐ°Ð¼": 926,
      "ĠÑĤÑıÐ¶": 927,
      "ĠÑĥÐ»ÑĭÐ±": 928,
      "ĠÑĥÐ¿": 929,
      "ÑĩÐ¸Ðº": 930,
      "ĠÐ·Ð°Ð±": 931,
      "ĠÐ´ÐµÐ½ÑĮ": 932,
      "ĠÐ¶Ð¸Ð²": 933,
      "Ð¸ÑĩÐµÑģÐº": 934,
      "ĠÐ½Ð¸Ð¼": 935,
      "ÐµÐ´ÑĮ": 936,
      "ÑıÐ»ÑģÑı": 937,
      "ÑģÐµÐ¼": 938,
      "ĠÐ½Ð¾Ð²": 939,
      "ĠÐ´ÐµÑĤ": 940,
      "ÑĨÑĭ": 941,
      "ĠÐºÐ¾ÑĢ": 942,
      "ĠÐ¥": 943,
      "ÑıÑī": 944,
      "ĠÐ§ÑĤÐ¾": 945,
      "Ð¾Ð¼Ð½Ð°ÑĤ": 946,
      "ĠÐ½ÑĥÐ¶": 947,
      "ĠÐ·Ð°Ð´": 948,
      "ÐµÐ²Ð¸Ñĩ": 949,
      "ĠÐ¶ÐµÐ½Ñī": 950,
      "ĠÐķÐ³Ð¾": 951,
      "ĠÐ½Ð¸Ñħ": 952,
      "Ð²ÑĪ": 953,
      "ĠÑģÐµÑĢÐ´": 954,
      "Ð¸Ð²Ð°Ð»": 955,
      "ĠÐºÐ¾Ð¼Ð½Ð°ÑĤ": 956,
      "ÑģÑĤÑĮÑİ": 957,
      "ĠÐ½Ð°Ð·": 958,
      "Ð¾Ð²Ð°ÑĢ": 959,
      "ÐµÑĢÐ³": 960,
      "ĠÐ¿Ð¾Ð¼": 961,
      "ĠÐ²ÑĭÑģ": 962,
      "ĠÐĴÐ¾ÑĤ": 963,
      "ÑİÑĤ": 964,
      "ĠÐ¿ÐµÑĢÐ²": 965,
      "ĠÑĥÐ±": 966,
      "ĠÐ´Ð°": 967,
      "Ð¸Ñī": 968,
      "ĠÑģÐµÐ±Ðµ": 969,
      "ĠÑĤÐ¾Ð»": 970,
      "ĠÐ²Ð·Ð³": 971,
      "ĠÐ»Ð¸ÑĨÐ¾": 972,
      "\".": 973,
      "ÑĢÐ¾Ð²": 974,
      "ĠÑįÑĤÐ¾ÑĤ": 975,
      "ĠÑģÐ¸Ð´": 976,
      "ĠÐ²Ð°Ñģ": 977,
      "ĠÐ·Ð°Ð²": 978,
      "ÑĬ": 979,
      "ĠÑĤÐ¾Ð³Ð¾": 980,
      "ĠÑĤÐµÐ±Ñı": 981,
      "ĠÐ»ÐµÑĤ": 982,
      "Ð¸Ð¼Ð¾": 983,
      "ĠÐ¼Ð°Ð»ÐµÐ½ÑĮÐº": 984,
      "ÑĩÐ°ÑģÑĤ": 985,
      "ÑĭÑĤ": 986,
      "ÑģÐºÐ¾Ð¹": 987,
      "ĠÐºÐ¾ÑĤÐ¾ÑĢÑĭÐ¹": 988,
      "ĠÑģÐ²Ð¾ÐµÐ¹": 989,
      "ĠÐ²ÑģÑı": 990,
      "ĠÑĤÐ¾Ð³Ð´Ð°": 991,
      "ĠÐ¿Ð¾Ð³": 992,
      "ÑĩÐ°Ñģ": 993,
      "ĠÐ¸ÑģÐ¿": 994,
      "ĠÐ¿Ð¾ÑĤÐ¾Ð¼": 995,
      "ĠÑģÐ¾Ð²ÑģÐµÐ¼": 996,
      "\",": 997,
      "ÑĢÐ¾Ð¼": 998,
      "Ð¼Ð¸": 999,
      "ĠÐ·Ð´": 1000,
      "ÐµÐ½Ð¸ÐµÐ¼": 1001,
      "ĠÐ³Ð¾Ð²Ð¾ÑĢÐ¸Ð»": 1002,
      "ĠÐ½Ð¸ÑĩÐµÐ³Ð¾": 1003,
      "ÑģÑĤÑĥÐ¿": 1004,
      "ÐµÑĤÐµ": 1005,
      "Ð°Ð·Ð°Ð»Ð¾ÑģÑĮ": 1006,
      "ĠÐ²ÐµÑĩ": 1007,
      "ĠÑħÐ¾Ð»Ð¾Ð´": 1008,
      "ĠÐ¼Ð¾Ð»Ñĩ": 1009,
      "ĠÑĤÐµ": 1010,
      "ĠÐ³Ð¾Ð´": 1011,
      "ĠÑģÑĤÑĢÐ°Ð½": 1012,
      "ĠÐºÐ°Ð¶Ð´": 1013,
      "ĠÐĿÐ¸ÐºÐ¾Ð»": 1014,
      "ĠÐºÐ°ÑĢ": 1015,
      "ÐµÐ½Ð½ÑĭÐµ": 1016,
      "ĠÑħÐ¾Ñĩ": 1017,
      "ĠÐŀÑĤ": 1018,
      "ÑĥÐº": 1019,
      "ĠÐ²ÐµÐ»": 1020,
      "ĠÑĢÐ°Ð±Ð¾ÑĤ": 1021,
      "ÑĢÐ¾ÑģÐ¸Ð»": 1022,
      "Ð¼Ð¾ÑĤÑĢ": 1023,
      "ĠÐ²ÑģÐµÐ³Ð´Ð°": 1024,
      "ĠÑģÑĤÐ¾ÑĢÐ¾Ð½": 1025,
      "ĠÑģÑĤÐ¾": 1026,
      "ĠÐ²ÑģÐµÑħ": 1027,
      "ĠÑģÐ»ÑĥÑĩ": 1028,
      "ĠÐºÐ½": 1029,
      "ĠÑĤÐ¾Ð¼": 1030,
      "ĠÐ²Ð¾Ð´": 1031,
      "ĠÐ½ÐµÑģ": 1032,
      "ĠÑĢÑĥÐºÐ¸": 1033,
      "ĠÐŁÐµÑĤÑĢÐ¾Ð²Ð¸Ñĩ": 1034,
      "ÐµÐ½ÑĤ": 1035,
      "ĠÐ¶Ð°Ð»": 1036,
      "ĠÐ³Ð»ÑĥÐ±": 1037,
      "Ð°Ð½Ð¸Ðµ": 1038,
      "ĠÐ¼Ð¾Ð»Ð¾Ð´": 1039,
      "ĠÐ½ÐµÐ±": 1040,
      "ĠÐ·Ð°Ð³": 1041,
      "ĠÐ»ÑİÐ´ÐµÐ¹": 1042,
      "ÑĢÑĭÐ²": 1043,
      "ĠÐ²ÑģÑĤÑĢ": 1044,
      "ĠÐ¸ÑģÐº": 1045,
      "Ð²Ð°": 1046,
      "ĠÐ´Ð¾Ðº": 1047,
      "ĠÑĤÐ°ÐºÐ¾Ð¹": 1048,
      "ĠÑįÑĤÐ¾Ð¼": 1049,
      "ĠÑģÐ¼Ðµ": 1050,
      "Ð²Ð¾ÑĢ": 1051,
      "ÑİÑī": 1052,
      "ĠÑĢÐµÑĪ": 1053,
      "ĠÐĿÐµÑĤ": 1054,
      "ĠÑĤÐ¾ÑĤ": 1055,
      "ÑĭÑĢ": 1056,
      "ÑĩÐ¸Ð²": 1057,
      "ĠÐ¿Ð¾Ð¶": 1058,
      "ĠÐ·ÐµÐ¼": 1059,
      "ĠÐ¿ÑĢÐ¸Ð²": 1060,
      "ĠÑĥÑģ": 1061,
      "Ð¸Ð½ÑĥÑĤ": 1062,
      "ÑģÑĤÐ²Ð¾": 1063,
      "ĠÑĢÐ°Ð·Ð³": 1064,
      "ĠÐºÐ¾ÑĤÐ¾ÑĢÑĭÐµ": 1065,
      "ĠÐ¢Ñĭ": 1066,
      "ÑĩÐ¸ÑĤ": 1067,
      "ÐµÑĢÐ¸": 1068,
      "Ð½Ð¸Ñı": 1069,
      "ÐºÐ°Ñħ": 1070,
      "ĠÐ·Ð°Ñģ": 1071,
      "ĠÐ»ÐµÐ³": 1072,
      "ÑĨÑĥ": 1073,
      "ÐµÐ½Ð°": 1074,
      "Ð»ÑıÐ»": 1075,
      "Ð»Ð¸Ð²Ð¾": 1076,
      "ĠÐ´Ð¾Ð»Ð³Ð¾": 1077,
      "Ð½Ð¾Ð¼Ñĥ": 1078,
      "ĠÐ¿ÐµÑĩ": 1079,
      "ĠÐ´Ð¾ÑĢ": 1080,
      "ĠÐ´ÐµÐ²": 1081,
      "ĠÐµÑģÑĤÑĮ": 1082,
      "ÑıÑĤÐ½Ð¾": 1083,
      "ÑģÐºÐ¾Ð»ÑĮÐºÐ¾": 1084,
      "ĠÐļÐ¾Ð³Ð´Ð°": 1085,
      "ĠÑģÐ´ÐµÐ»": 1086,
      "ÑģÑĤÐ²Ð°": 1087,
      "ĠÐ¾ÑĤÐ´": 1088,
      "Ð¾ÐºÐ¾": 1089,
      "ĠÐ²ÑģÐ¿": 1090,
      "ĠÐ¡ÐµÑĢÐ³": 1091,
      "ĠÑĤÐ¾ÑĢ": 1092,
      "ĠÑĥÐ·": 1093,
      "ĠÐ¸Ð³": 1094,
      "ĠÐ´Ð°Ð²": 1095,
      "ÐµÑĢÑĪ": 1096,
      "ĠÑĥÐ¶Ð°Ñģ": 1097,
      "Ð°ÑģÑĤ": 1098,
      "Ð°Ð½Ð¸Ñı": 1099,
      "ÑĭÐº": 1100,
      "ĠÑħÐ¾ÑĤÐµÐ»": 1101,
      "ÐµÑĢÐ°": 1102,
      "ĠÐ¿ÑĢÐ¸Ñħ": 1103,
      "ĠÐ¿Ð¾ÑģÐ»ÐµÐ´": 1104,
      "Ð¼Ðµ": 1105,
      "ÑĢÐ°Ñī": 1106,
      "ĠÑĤÐ¾ÑĩÐ½Ð¾": 1107,
      "ĠÐ±Ð¾Ð»ÑĮÑĪÐµ": 1108,
      "ÑİÐ±": 1109,
      "Ð°ÑĤÐµÐ»": 1110,
      "ÐµÐºÐ¾": 1111,
      "ĠÑĢÑĥÐºÑĥ": 1112,
      "ĠÐ½Ð¸ÐºÐ¾Ð³Ð´Ð°": 1113,
      "ÑĢÐ°ÑĤ": 1114,
      "ĠÐ¿ÑĢÐ¾Ð´": 1115,
      "ĠÐ½Ð°ÑĪ": 1116,
      "ĠÐ¿Ð¾Ñħ": 1117,
      "ÑıÐ³": 1118,
      "ĠÐĴÐ°Ñģ": 1119,
      "ÐµÑģÑı": 1120,
      "Ð»Ð¾Ð²": 1121,
      "Ð¸Ð½Ñĭ": 1122,
      "Ð¸ÑĨ": 1123,
      "ĠÐ¸Ð´": 1124,
      "ĠÐºÐ»": 1125,
      "ÐµÐ½Ð¸Ð¸": 1126,
      "Ð¸ÑĪÑĮ": 1127,
      "ĠÐ½ÐµÐµ": 1128,
      "ĠÐ»ÐµÐ¶": 1129,
      "ĠÐ¡ÑĤ": 1130,
      "ĠÐ¾Ð¿ÑıÑĤÑĮ": 1131,
      "ĠÐ¿ÑĥÑģÑĤ": 1132,
      "ĠÑĤÑĥÑĤ": 1133,
      "Ð½Ð¸Ñĩ": 1134,
      "ĠÐĺÐ²Ð°Ð½": 1135,
      "ĠÐ±ÐµÑģÐ¿": 1136,
      "ĠÐ´Ð¾Ð»Ð¶": 1137,
      "Ð¡": 1138,
      "Ð¾Ñī": 1139,
      "ÑĢÐ°Ð¶": 1140,
      "Ð²ÐµÑĤ": 1141,
      "Ð²Ð°ÑĤ": 1142,
      "ĠÐ²ÑģÐµÐ¼": 1143,
      "ĠÑģÐ»ÐµÐ´": 1144,
      "ĠÐľÐ¾Ñģ": 1145,
      "ĠÑī": 1146,
      "ĠÑĤÐ¾Ð¶Ðµ": 1147,
      "ĠÐ³ÑĢÐ¾Ð¼": 1148,
      "Ġ1": 1149,
      "Ð»ÐµÐ½Ð½Ð¾": 1150,
      "Ð½Ð¸ÐºÐ¾Ð²": 1151,
      "Ð°Ð½ÑĮ": 1152,
      "ÑĢÐ¾Ð´": 1153,
      "ĠÐ¼Ð¸Ð»": 1154,
      "ĠÐ¿Ð¾Ð½Ð¸Ð¼": 1155,
      "ĠÑħÐ¾Ð´": 1156,
      "ĠÐ¸Ð·Ð²": 1157,
      "ĠÐ²ÐµÑģÑĮ": 1158,
      "Ð´ÑĢÑĥÐ³": 1159,
      "ĠÑĥÐ²Ð¸Ð´": 1160,
      "Ð°ÑĤÑĢ": 1161,
      "Ð¾ÑĤÐ¾Ð¼": 1162,
      "ĠÑģÐ½Ð¾Ð²Ð°": 1163,
      "ÐµÑĢÐ¶": 1164,
      "ĠÑģÑĤÐ°Ð»": 1165,
      "ĠÑģÐ²Ð¾Ñİ": 1166,
      "Ð½Ð¾Ñģ": 1167,
      "ÑģÐºÐ¸Ð¹": 1168,
      "Ð¶Ðµ": 1169,
      "ĠÑĢÐ°Ð²": 1170,
      "Ð½ÑĥÐ»Ð°": 1171,
      "ĠÑģÐ»ÑĭÑĪ": 1172,
      "ĠÑĢÐ°Ð·Ð²": 1173,
      "ĠÐºÐ½Ð¸Ð³": 1174,
      "ĠÐ¾ÑģÑĤÐ°Ð²": 1175,
      "ÐµÐ½Ð½Ð¾Ð¹": 1176,
      "ĠÐ¼ÐµÐ´": 1177,
      "ÐµÐ¹ÑģÑĤÐ²": 1178,
      "ĠÐºÐ°ÐºÐ¾Ð¹": 1179,
      "ĠÐºÐ¾ÑĤÐ¾ÑĢÐ¾Ð¹": 1180,
      "ĠÑĢÐ°ÑģÑģ": 1181,
      "ĠÐ½ÐµÐ¹": 1182,
      "ĠÐ»ÑİÐ´Ð¸": 1183,
      "ĠÑħÐ¾ÑĢÐ¾ÑĪÐ¾": 1184,
      "ĠÐ½ÑĥÐ¶Ð½Ð¾": 1185,
      "Ð¼Ð°": 1186,
      "ĠÐ½Ð°Ð´Ð¾": 1187,
      "ĠÑģÑĢÐµÐ´": 1188,
      "ĠÐ¿Ð°Ð»ÑĮ": 1189,
      "ĠÐ¾ÑģÐ¾Ð±": 1190,
      "ÑĥÐ¹": 1191,
      "ÐµÐ²ÑĪ": 1192,
      "ĠÐŀÐ´": 1193,
      "ĠÐ¿Ð¾ÑģÐ»Ðµ": 1194,
      "ÑĢÐ°Ñĩ": 1195,
      "ĠÐ½Ð¾Ñģ": 1196,
      "ÐµÑģÑĤÐµ": 1197,
      "ĠÐ²Ð¸Ð´ÐµÐ»": 1198,
      "ĠÐ½ÐµÑģÐºÐ¾Ð»ÑĮÐºÐ¾": 1199,
      "ĠÐŀÐ½Ð°": 1200,
      "ĠÐ·Ð½Ð°ÐºÐ¾Ð¼": 1201,
      "ĠÑģÐ¸Ð»": 1202,
      "ĠÐ´Ð°Ð»": 1203,
      "ĠÐ»ÑĥÑĩ": 1204,
      "ĠÑĩÐµÑĢÑĤ": 1205,
      "ĠÐ¼Ð¾Ð¶Ð½Ð¾": 1206,
      "ĠÐ¼Ð¾ÑĢ": 1207,
      "ĠÐ¿Ð¾ÑģÑĤ": 1208,
      "ÑıÐ¼Ð¸": 1209,
      "ĠÑĥÐ´Ð¸Ð²": 1210,
      "ĠÐ¼Ð¸Ð½ÑĥÑĤ": 1211,
      "ĠÑģÑĤÐ°Ð½Ð¾Ð²": 1212,
      "ÑĢÐ°ÑĪ": 1213,
      "Ð¾Ð¶Ð½Ð¾": 1214,
      "ĠÑģÐ¿Ð¾ÐºÐ¾Ð¹": 1215,
      "ĠÐ¿ÑĢÐ¸ÑħÐ¾Ð´": 1216,
      "ĠÐ¿ÑĢÐ¸Ð½": 1217,
      "ÑģÐºÐ¾Ð³Ð¾": 1218,
      "ĠÑįÑĤÐ¾Ð¹": 1219,
      "ÑĥÑģÐº": 1220,
      "ĠÐ²Ð¼": 1221,
      "ÐµÑĢÐµÐ´": 1222,
      "ĠÐ¿ÑĢÐ¾ÑģÑĤ": 1223,
      "ĠÐ²ÑĭÐ¿": 1224,
      "ÐµÑĩÐ½Ð¾": 1225,
      "ĠÑĨÐµÐ»": 1226,
      "ÑĤÐ¾Ð²": 1227,
      "ĠÐ³Ð¾ÑĢÐ¾Ð´": 1228,
      "ĠÐ´Ð¾ÐºÑĤÐ¾ÑĢ": 1229,
      "ĠÐľÐ¾ÑģÐºÐ²": 1230,
      "ÑıÐ½": 1231,
      "ĠÐĲÐ»ÐµÐº": 1232,
      "ĠÑģÐ¾Ð»Ð½": 1233,
      "ĠÐ²Ð½": 1234,
      "Ð°ÑĤÑĥÑĢ": 1235,
      "ĠÐ·Ð½Ð°Ð»": 1236,
      "ĠÐ¿Ð¾ÑĩÑĤÐ¸": 1237,
      "ĠÐ½Ð°Ð²": 1238,
      "ĠÐ´Ð¾Ð±ÑĢ": 1239,
      "ĠÐ¿ÑĢÐ¾ÑĪ": 1240,
      "Ð¾Ð´ÑĥÑĪ": 1241,
      "ÐµÐ¹ÑĩÐ°Ñģ": 1242,
      "ĠÑįÑĤÐ¸": 1243,
      "ÐºÐ¸Ðµ": 1244,
      "ĠÑĥÑģÑĤ": 1245,
      "ĠÑĥÐ»Ð¸": 1246,
      "ĠÐŁÐ¾": 1247,
      "ĠÐ¨": 1248,
      "ĠÐ¸Ñģ": 1249,
      "Ð¾Ð²Ð¾Ð»ÑĮ": 1250,
      "ĠÑģÐºÐ¾ÑĢ": 1251,
      "Ġ(": 1252,
      "ÑıÑģ": 1253,
      "ĠÑģÐ¸Ð»ÑĮ": 1254,
      "Ð¾ÑĢÐ¾Ð²": 1255,
      "ĠÑģÑĤÐ°Ð»Ð¾": 1256,
      "ĠÐ²ÑģÑİ": 1257,
      "ĠÐ·Ð½Ð°Ñİ": 1258,
      "ÑıÐ²": 1259,
      "ĠÑģÐ¾Ñģ": 1260,
      "Ð¾Ð»Ð¶": 1261,
      "ĠÑģÑĤÐµÐ½": 1262,
      "ĠÐĴÑģÐµ": 1263,
      "Ð½ÑĥÑĤÑĮ": 1264,
      "Ð¸ÐºÐ°": 1265,
      "ĠÑģÐ»Ð¾Ð²Ð°": 1266,
      "ĠÐ¿ÑĢÐ¸Ñģ": 1267,
      "ĠÐ»Ð¸ÑĤ": 1268,
      "ĠÐ´ÑĥÐ¼Ð°Ð»": 1269,
      "ĠÐ½Ð°Ðº": 1270,
      "____": 1271,
      "ĠÑĤÑıÐ¶ÐµÐ»": 1272,
      "ĠÐºÐ°Ð¼": 1273,
      "ĠÐ±ÑĭÐ²": 1274,
      "ĠÐºÐ¾ÑĤÐ¾ÑĢÐ¾Ð³Ð¾": 1275,
      "ÑĤÐµÑĢÐµÑģ": 1276,
      "ĠÐ¾ÑĤÑĩ": 1277,
      "ĠÐ´Ð²Ð°": 1278,
      "ĠÐ´ÑĢÑĥÐ³Ð¾Ð¹": 1279,
      "ĠÐ³Ð»Ð°Ð·Ð°Ð¼Ð¸": 1280,
      "Ð¸Ñİ": 1281,
      "ĠÑĥÑĤ": 1282,
      "ĠÑĥÑģÐ¿": 1283,
      "Ð¸Ð½Ðµ": 1284,
      "ĠÑģÐ¼ÐµÑĢ": 1285,
      "ĠÐ²Ð¾Ð·Ð´": 1286,
      "ĠÐ³Ð¾Ð»Ð¾Ð²Ñĥ": 1287,
      "ĠÑĤÐµÐ±Ðµ": 1288,
      "ĠÑıÑĢ": 1289,
      "ĠÐ¿Ð¸ÑģÑĮ": 1290,
      "ÑĤÐ¾Ñĩ": 1291,
      "ĠÐ¼ÑĥÐ¶": 1292,
      "ĠÐ±ÑĭÑģÑĤÑĢÐ¾": 1293,
      "Ð¸Ð²Ð°Ñı": 1294,
      "ĠÐ¾ÑĤÐµÑĨ": 1295,
      "ĠÑĢÐ°ÑģÐ¿": 1296,
      "ĠÐ¿Ð°ÑĢ": 1297,
      "ĠÐ¿Ð¾Ð±": 1298,
      "ĠÐ²Ð´ÑĢÑĥÐ³": 1299,
      "ĠÐµÐ´": 1300,
      "ÐµÐ¼ÐµÐ½": 1301,
      "ĠÐ¿ÑĢÐ¾Ð¸Ð·": 1302,
      "ĠÑĩÐµÐ»Ð¾Ð²ÐµÐºÐ°": 1303,
      "ĠÐµÐ¹": 1304,
      "ÐµÐ·Ð´": 1305,
      "ÑīÐµÑģÑĤÐ²": 1306,
      "ÐµÐ½Ð½Ð¾Ðµ": 1307,
      "ÐµÐ½Ð½ÑĭÑħ": 1308,
      "Ð·Ñı": 1309,
      "ĠÑģÐ¿ÑĢÐ¾ÑģÐ¸Ð»": 1310,
      "ĠÐ²ÐµÑģÐµÐ»": 1311,
      "ĠÐ´Ð¾ÑĢÐ¾Ð³": 1312,
      "ĠÐ²Ð°Ð¼": 1313,
      "ĠÐ²ÐµÑĩÐµÑĢ": 1314,
      "ĠÑģÐ°Ð´": 1315,
      "ĠÐ±Ð¾ÑĢ": 1316,
      "ĠÑĪÐ¸ÑĢ": 1317,
      "ĠÐ¾ÑĤÐ²ÐµÑĤÐ¸Ð»": 1318,
      "Ð½ÐµÐ²": 1319,
      "ĠÑĤÐ¸ÑħÐ¾": 1320,
      "ĠÐ¿ÑĢÐ¾ÑĤÐ¸Ð²": 1321,
      "ĠÐºÑĥÐ´Ð°": 1322,
      "ĠÐ¼Ð½": 1323,
      "ĠÑĥÐ´Ð°": 1324,
      "Ð°Ð³Ð¾": 1325,
      "ĠÐºÐ°Ð·Ð°Ð»Ð¾ÑģÑĮ": 1326,
      "Ð¾Ð¹Ð´": 1327,
      "ĠÑĪÐ°Ð³": 1328,
      "ĠÐ¿ÑĢÐµÐ´ÑģÑĤÐ°Ð²": 1329,
      "ĠÐ²ÑĭÑģÐ¾Ðº": 1330,
      "ÑĥÐµÑĤ": 1331,
      "ÑıÑĩ": 1332,
      "ĠÐ·Ð°ÑĤ": 1333,
      "ĠÐ³Ð»ÑıÐ´": 1334,
      "Ð½Ð¾Ñİ": 1335,
      "ĠÑĢÐ¾Ð´": 1336,
      "ĠÐŁÐ¾Ñģ": 1337,
      "ĠÐ´ÐµÑĢÐµÐ²": 1338,
      "ÑĥÐ½": 1339,
      "ĠÐ²Ð¾Ð¿": 1340,
      "Ð¼ÐµÐ½": 1341,
      "Ð°Ð¶ÐµÑĤÑģÑı": 1342,
      "Ð°ÑģÑģ": 1343,
      "Ð½Ð¸ÐºÐ°": 1344,
      "Ð°Ð½ÑĤ": 1345,
      "ÑĢÑĥÐ³": 1346,
      "ÑıÑģÑĮ": 1347,
      "ĠÐ´ÐµÐ¹ÑģÑĤÐ²": 1348,
      "Ð¾Ð±Ð¾Ð´": 1349,
      "Ð»Ð¾Ð½": 1350,
      "ÑĭÑĩ": 1351,
      "ĠÑģÐ¾Ð·": 1352,
      "ĠÑĩÐµÑĢÐµÐ·": 1353,
      "Ð½Ð¸Ð¹": 1354,
      "ĠÑģÐµÐ¹ÑĩÐ°Ñģ": 1355,
      "ÐµÑĢÐ°ÑĤÑĥÑĢ": 1356,
      "ĠÐ¼Ð¾Ð¹": 1357,
      "ÐµÑģÑĤÐ¾": 1358,
      "ĠÐ¿Ð»Ð°Ðº": 1359,
      "ĠÐ¾ÑĤÐºÑĢÑĭ": 1360,
      "ĠÐ²Ð¾Ð·Ð´ÑĥÑħ": 1361,
      "ÑĢÐ¾": 1362,
      "ĠÐ¾Ð½Ð¾": 1363,
      "ĠÑĩÐµÐ³Ð¾": 1364,
      "ĠÑģÐ²Ð¾Ðµ": 1365,
      "ĠÐºÑĢÐ¾Ð²": 1366,
      "ĠÐºÑĢÐ¸Ðº": 1367,
      "Ð°Ð¹ÑĤÐµ": 1368,
      "ĠÑĤÐ¾Ð½": 1369,
      "ÐµÐ»ÑĮÐ·Ñı": 1370,
      "ĠÐ±Ð¾Ð»ÐµÐµ": 1371,
      "ĠÑģÐºÐ°Ð·Ð°Ð»Ð°": 1372,
      "Ð»ÐµÑĤ": 1373,
      "Ð¾Ð¼Ð¸Ð½Ð°": 1374,
      "ĠÑģÐ²Ð¾Ð¸Ñħ": 1375,
      "ĠÐ³ÑĢÑıÐ·": 1376,
      "ĠÐ®": 1377,
      "ÑĩÐµ": 1378,
      "ĠÑģÐ»ÐµÐ·": 1379,
      "ĠÑįÑĤÑĥ": 1380,
      "Ð°ÑĤÐµÐ»ÑĮÐ½Ð¾": 1381,
      "ĠÐ¿ÑĢÐ¾Ð´Ð¾Ð»Ð¶": 1382,
      "Ð»Ð¸Ð½": 1383,
      "ÑĢÑĥÐ¶": 1384,
      "ĠÐ±ÐµÑĢ": 1385,
      "ĠÐ´Ð¾Ð¼Ð°": 1386,
      "ĠÐ·Ð»": 1387,
      "ĠÐ¿Ð¾Ð´ÑĥÐ¼": 1388,
      "ÑĢÐ°Ð·Ñĥ": 1389,
      "ĠÐķÐ³Ð¾ÑĢÐ¾Ð²Ð¸Ñĩ": 1390,
      "ĠÐ²Ð½Ð¸Ð¼": 1391,
      "ĠÑĤÐ¾Ð²Ð°ÑĢ": 1392,
      "ĠÐ³Ð¾Ð²Ð¾ÑĢÐ¸ÑĤ": 1393,
      "ĠÐłÐ°Ð·": 1394,
      "ĠÐ±ÑĢÐ°ÑĤ": 1395,
      "ĠÐºÐ¾Ð¼": 1396,
      "ĠÐºÐ¾ÑĤÐ¾ÑĢÐ°Ñı": 1397,
      "ÐµÑĢÑĤÐ²": 1398,
      "ĠÐ²ÐµÐ»Ð¸Ðº": 1399,
      "ÑĤÑĭ": 1400,
      "ĠÑĩÐ¸ÑĤ": 1401,
      "ĠÐºÐ¾ÑĤÐ¾ÑĢÑĭÑħ": 1402,
      "ÐµÐ¶Ð´Ñĥ": 1403,
      "ĠÐ¤": 1404,
      "ĠÑģÐµÐ¼": 1405,
      "ÐµÐ½Ð½Ð¾Ð³Ð¾": 1406,
      "ĠÐ¼Ð¸ÑĢ": 1407,
      "Ð°Ð½ÑĨ": 1408,
      "ÐºÐ¾Ðµ": 1409,
      "ĠÐ³Ð¾ÑģÐ¿": 1410,
      "ĠÑģÐ¾Ð²ÐµÑĢÑĪ": 1411,
      "ĠÑħÐ¾ÑĤÑı": 1412,
      "ĠÐĲÐ»ÐµÐºÑģ": 1413,
      "ÑħÐ²Ð°ÑĤ": 1414,
      "ÐµÐ½Ð½ÑĭÐ¼": 1415,
      "ĠÑĤÐ°": 1416,
      "ĠÐ¿Ð¾ÑĤÐ¾Ð¼Ñĥ": 1417,
      "ĠÐ½Ð°ÑĩÐ°Ð»": 1418,
      "Â»,": 1419,
      "ĠÐ¸Ð³ÑĢ": 1420,
      "Ð¾ÑģÑĤÑĮ": 1421,
      "ĠÐ½ÐµÐ·": 1422,
      "ÐºÐ¸Ð¼": 1423,
      "ĠÐ²ÐµÐ´ÑĮ": 1424,
      "ĠÐ±Ð¾": 1425,
      "ĠÐ¿ÑĢÑıÐ¼": 1426,
      "ĠÑıÐ²": 1427,
      "ÑħÐ¾Ð´Ð¸Ð»": 1428,
      "ĠÑģÐ¼Ð¾ÑĤÑĢÐµÐ»": 1429,
      "ĠÐ¸Ð½ÑĤÐµÑĢÐµÑģ": 1430,
      "ĠÐ·Ð´ÐµÑģÑĮ": 1431,
      "Ð¸ÑĢÐ°": 1432,
      "ÑİÐ¼": 1433,
      "Ð°ÐºÐ°": 1434,
      "Ð°ÐºÐ¸": 1435,
      "ĠÐ¿ÑĢÐ¸Ð´": 1436,
      "Ð¾Ð¶Ð´": 1437,
      "ÐµÐºÑĢÐ°Ñģ": 1438,
      "ĠÐ²Ð¾ÑģÐ¿": 1439,
      "ĠÐ»Ð¸ÑĤÐµÑĢÐ°ÑĤÑĥÑĢ": 1440,
      "ÐĿ": 1441,
      "ĠÐ¿ÑĢÐ¸ÑĪ": 1442,
      "ÐĴ": 1443,
      "ĠÐ²Ð¾ÑĢ": 1444,
      "ÑĥÑĤÑĮ": 1445,
      "ÑĥÑĪÐºÐ°": 1446,
      "ĠÐ¡ÐµÑĢÐ³ÐµÐ¹": 1447,
      "ĠÐĸ": 1448,
      "ĠÑģÑĤÐ¾Ñı": 1449,
      "ĠÐ½ÐµÐ»ÑĮÐ·Ñı": 1450,
      "ÐºÑĢ": 1451,
      "ĠÐ¼Ð°ÑĤ": 1452,
      "ĠÐ³ÑĥÐ±": 1453,
      "ĠÐ¿Ð¾ÐºÐ°": 1454,
      "ĠÑģÑĤÑĢÐ°ÑĪÐ½Ð¾": 1455,
      "ĠÐ²Ð·Ð³Ð»ÑıÐ´": 1456,
      "Ð¸Ð½Ð¾": 1457,
      "Ð½Ñİ": 1458,
      "ĠÑĩÑĥÐ¶": 1459,
      "Ð°Ð¼Ð°": 1460,
      "ÐµÐ½Ð¸Ñİ": 1461,
      "ĠÑģÐ²Ð¾Ð¸": 1462,
      "ĠÑĤÑĢÑĥÐ´": 1463,
      "ĠÐ¼Ð¾Ñı": 1464,
      "ĠÐ±ÐµÑģÑģ": 1465,
      "ÐµÑģÑĤÑĮ": 1466,
      "ĠÐ½Ð°Ð¼": 1467,
      "Ð²Ð°Ð»": 1468,
      "ĠÐ¾ÑĤÑĤ": 1469,
      "ĠÑģÐ²Ð¾Ð¹": 1470,
      "ÐµÐ³Ð¾Ð´": 1471,
      "ĠÐ¿Ð»ÐµÑĩ": 1472,
      "ĠÐ¼ÑĭÑģÐ»": 1473,
      "ĠÐ±Ð¾Ð»ÑĮÑĪÐ¾Ð¹": 1474,
      "Ð»ÐµÐ½Ð¸Ðµ": 1475,
      "ĠÐ½ÐµÐ¶": 1476,
      "Ð¼Ñĭ": 1477,
      "ÑĤÐ¾ÑĪ": 1478,
      "ĠÑĩÐµÑĤ": 1479,
      "ĠÐ»ÐµÑģ": 1480,
      "ĠÑħÑĥÐ´": 1481,
      "ÐµÑĩÐ°ÑĤ": 1482,
      "ĠÐ¿Ð¾ÑĩÐµÐ¼Ñĥ": 1483,
      "!..": 1484,
      "Ð°ÐµÐ¼": 1485,
      "Ð»ÑĥÑĪ": 1486,
      "ĠÐ¿Ð»Ð°": 1487,
      "ĠÐ½ÐµÐ¼Ñĥ": 1488,
      "Ð´Ð½Ð¾": 1489,
      "ĠÐĺÐ·": 1490,
      "ĠÐºÑĢÐ¸Ñĩ": 1491,
      "ÑĥÑİÑī": 1492,
      "Ð²Ð¾Ð»": 1493,
      "ÐµÐ½Ð½Ð°Ñı": 1494,
      "ĠÐ»Ð°Ð²": 1495,
      "ĠÐľÑĭ": 1496,
      "ĠÐĿÐ¸ÐºÐ¾Ð»Ð°Ð¹": 1497,
      "ĠÐ²ÑģÑĤÑĢÐµÑĩ": 1498,
      "Ð¾Ð´Ð²": 1499,
      "ĠÐŀÐ½Ð¸": 1500,
      "ĠÑĢÐ°Ð·Ð±": 1501,
      "ĠÐ¾Ð´Ð½Ð¾Ð¹": 1502,
      "ĠÐ·Ð°Ð¼ÐµÑĤ": 1503,
      "ĠÑĩÐ°ÑģÑĤÐ¾": 1504,
      "Ð²Ð¾": 1505,
      "ÐµÑĢÐ±": 1506,
      "Ð½Ð¾ÑĪ": 1507,
      "ĠÐ¿ÑĢÐ¸Ðº": 1508,
      "Â».": 1509,
      "ĠÐºÑĢÐ°ÑģÐ¸Ð²": 1510,
      "ÑıÑħ": 1511,
      "ĠÐ¾Ð¶": 1512,
      "ÑģÑĤÐ°": 1513,
      "Ð¾Ð»Ð¾": 1514,
      "ĠÐ²ÑģÐµÐ³Ð¾": 1515,
      "ĠÐ´Ð²ÐµÑĢÑĮ": 1516,
      "ĠÐ½ÐµÐ¿ÑĢ": 1517,
      "ĠÐ½Ð¾ÑĩÑĮ": 1518,
      "ĠÐĴÐ°ÑģÐ¸Ð»ÑĮ": 1519,
      "ĠÐ½ÐµÐ½": 1520,
      "Ð´Ð°Ð»": 1521,
      "ĠÐ¿ÑĢÐ¸Ð·": 1522,
      "Ð°Ð´ÑĨ": 1523,
      "ÑĥÑĢÐ³": 1524,
      "ĠÐ¿Ð¾Ð»ÑĥÑĩ": 1525,
      "ÐµÑĢÑĮÐµÐ·": 1526,
      "ĠÐ±Ð»Ð¸Ð·": 1527,
      "ĠÐ²Ð·Ð³Ð»Ñı": 1528,
      "Ð½Ð¾Ð´ÑĥÑĪ": 1529,
      "ĠÑĤÐ°ÐºÐ¾Ðµ": 1530,
      "ÑĥÐ±Ð»": 1531,
      "ĠÐ¿Ð¾Ð²ÐµÑĢ": 1532,
      "ĠÐ¿ÑĢÐ¾Ñĩ": 1533,
      "Ð°ÑĢÐ°": 1534,
      "Ð²ÐµÑĢÐ´": 1535,
      "ĠÑģÑĢÐ°Ð·Ñĥ": 1536,
      "ÑĪÐ¸Ð¹": 1537,
      "ĠÐŁÐ¾ÑĤÐ¾Ð¼": 1538,
      "ĠÐ¾Ð±ÑĢÐ°Ð·": 1539,
      "Ð¾ÑĪÐµÐ»": 1540,
      "ĠÐ±Ð»Ð°Ð³": 1541,
      "ĠÐ½ÐµÐ¼Ð½Ð¾Ð³Ð¾": 1542,
      "ĠÑģÑĢÐµÐ´Ð¸": 1543,
      "Ð§": 1544,
      "Ð½ÐµÐ¼": 1545,
      "ÑıÐ»Ð¸ÑģÑĮ": 1546,
      "ĠÑģÑĤÑĢÐ°Ñħ": 1547,
      "Ð¾ÑħÐ¾ÑĤ": 1548,
      "Ð½Ð°Ð·": 1549,
      "ÑĢÐ°Ð½": 1550,
      "ĠÐ¿Ð¾Ð¼Ð½": 1551,
      "ĠÐ´ÑĮÑı": 1552,
      "Ð½ÑĥÐ²ÑĪ": 1553,
      "ÐµÐ·Ð¶": 1554,
      "ĠÑģÐ²ÐµÑĢ": 1555,
      "ĠÑģÐ»Ð°Ð±": 1556,
      "ĠÑģÐºÐ°Ð·Ð°ÑĤÑĮ": 1557,
      "ĠÑĢÐ°Ð·Ð³Ð¾Ð²Ð¾ÑĢ": 1558,
      "ĠÐ²Ð¼ÐµÑģÑĤÐµ": 1559,
      "ÐºÐ¾Ð³Ð¾": 1560,
      "ĠÐºÐ°Ð¶ÐµÑĤÑģÑı": 1561,
      "ĠÐ±ÑĢÐ¾Ñģ": 1562,
      "ĠÐ¼ÐµÑģÑĤ": 1563,
      "ĠÐ½Ð°ÑħÐ¾Ð´": 1564,
      "ĠÐ¼ÑĭÑģÐ»Ð¸": 1565,
      "ÑĭÐ³": 1566,
      "ĠÑģÐµÑĢÑĮÐµÐ·": 1567,
      "ĠÐ²Ð°ÑĪ": 1568,
      "ĠÑĤÐµÑħ": 1569,
      "Ð¸Ð²Ð°ÐµÑĤ": 1570,
      "ĠI": 1571,
      "Ð´ÐµÐ½": 1572,
      "ĠÐ´ÑĢÐ¾Ð¶": 1573,
      "ĠÐ²Ð·Ð´": 1574,
      "ĠÑĨÐµÑĢ": 1575,
      "ĠÐ»Ð¸ÑĨÐ°": 1576,
      "ĠÑĢÐ°Ð²Ð½Ð¾Ð´ÑĥÑĪ": 1577,
      "Ð½Ð°ÐºÐ¾Ð¼": 1578,
      "Ð¼ÐµÑĢ": 1579,
      "ĠÐ³Ð¾Ð´Ð°": 1580,
      "Ð°Ð·Ð´": 1581,
      "ĠÑĥÑĩ": 1582,
      "Ð½ÑĥÑĤ": 1583,
      "ĠÐºÑĢÑĥÐ³": 1584,
      "Ð¾ÑĩÐºÐ°": 1585,
      "ĠÑģÐ²Ð¾Ð¸Ð¼": 1586,
      "ĠÐ¿Ð¾Ð»Ð¾Ð¶": 1587,
      "ĠÐ³Ð¾Ð²Ð¾ÑĢÐ¸ÑĤÑĮ": 1588,
      "ĠÐ¿Ð¾Ð¶Ð°Ð»": 1589,
      "Ðĳ": 1590,
      "Ð»Ð°Ñģ": 1591,
      "ÑĩÐµÑĤ": 1592,
      "ĠÐ´Ð¾ÑģÑĤ": 1593,
      "Ð°Ð·ÑĭÐ²": 1594,
      "ĠÑĤÐ¾ÑģÐº": 1595,
      "ĠÑģÐ¼ÐµÑĪ": 1596,
      "ĠÐĺÐ²Ð°Ð½Ð¾Ð²Ð¸Ñĩ": 1597,
      "ĠÐ²Ð¾Ð¿ÑĢÐ¾Ñģ": 1598,
      "ĠÐ½Ð°Ð±": 1599,
      "ĠÑĤÐµÐ»": 1600,
      "ĠÐ´Ð°Ð»ÑĮ": 1601,
      "ĠÐ¿ÑĢÐ¾Ð²": 1602,
      "Ð½Ð¸Ð¸": 1603,
      "ĠÑıÑģ": 1604,
      "ĠÐ¿Ð¾Ð´Ð½": 1605,
      "ĠÐºÑĢÐµÐ¿": 1606,
      "ĠÐ´Ð²Ðµ": 1607,
      "ĠÐ»ÑİÐ±Ð¸Ð»": 1608,
      "ÐµÑĢÐ±ÑĥÑĢÐ³": 1609,
      "Ð½Ð°Ð»": 1610,
      "ÑĢÐ°Ð¼": 1611,
      "ĠÐ¿ÑĮÑı": 1612,
      "ĠÐ¼ÐµÐ¶Ð´Ñĥ": 1613,
      "ĠÐ½Ð°Ð¿Ð¸Ñģ": 1614,
      "ĠÐ¾Ð³ÑĢÐ¾Ð¼": 1615,
      "ĠÐ´ÐµÑĢÐ¶": 1616,
      "ĠÐ¿ÐµÑĩÐ°Ð»ÑĮ": 1617,
      "ÐµÐºÐ¾ÑĤÐ¾ÑĢ": 1618,
      "ĠÑģÑĥ": 1619,
      "ÐµÐ½Ñĭ": 1620,
      "ĠÑĤÐµÑĢ": 1621,
      "ĠÐ¼ÐµÐ»": 1622,
      "ĠÑĩÐ¸ÑģÑĤ": 1623,
      "ĠÐ¿ÑĢÐ¸Ð±": 1624,
      "Ð¾Ð½ÑĮ": 1625,
      "Ð¸Ð¼Ð½Ð°Ð·": 1626,
      "ÑīÐµÐµ": 1627,
      "ĠÑįÑĤÐ°": 1628,
      "ÐµÑı": 1629,
      "Ð¸ÑģÐº": 1630,
      "ĠÑģÑĥÐ´": 1631,
      "ÐºÐ°Ñı": 1632,
      "ĠÐºÐ°Ð¿": 1633,
      "ÑĪÑĮ": 1634,
      "ĠÐ·Ð°Ð»": 1635,
      "ĠÐ¿ÑĢÐµÐºÑĢÐ°Ñģ": 1636,
      "Ð¸Ð²Ð°ÑĤÑĮ": 1637,
      "ÑģÐºÐ¸Ñħ": 1638,
      "ĠÐºÐ°ÐºÐ¸Ðµ": 1639,
      "ĠÐºÐ¾Ð½Ñĩ": 1640,
      "ĠÑħÐ¾ÑĤÐµÐ»Ð¾ÑģÑĮ": 1641,
      "ĠÑģÑĤÑĥÐ´": 1642,
      "ĠÐ¡Ðº": 1643,
      "ĠÐľÐ¸ÑĪ": 1644,
      "ĠÑįÑĤÐ¸Ñħ": 1645,
      "ĠÑĪÐµÐ¿": 1646,
      "ĠÐ´Ð²Ð¸Ð¶": 1647,
      "ĠÐķÑģÐ»Ð¸": 1648,
      "ĠÐ½Ð¸ÐºÑĤÐ¾": 1649,
      "ĠÐ·Ð²Ð¾Ð½": 1650,
      "Ð°ÑİÑĤÑģÑı": 1651,
      "Ð½Ð¾ÑģÑĤÑĮÑİ": 1652,
      "ÐºÐ¸Ñħ": 1653,
      "ĠÐ±Ð¾Ð³": 1654,
      "ĠÐ¼ÐµÑĢÑĤÐ²": 1655,
      "Ð¿ÑĢ": 1656,
      "ĠÐ¿Ð¾Ð´Ð½Ð¸Ð¼": 1657,
      "ĠÐĳÑĭ": 1658,
      "ĠÐ½Ð°ÑĩÐ¸Ð½": 1659,
      "ĠÐ¿Ð¾Ð²ÑĤÐ¾ÑĢ": 1660,
      "ĠÐ²Ð¿ÐµÑĢÐµÐ´": 1661,
      "ÐµÑİ": 1662,
      "ĠÐºÑĥÐ¿": 1663,
      "Ð¸Ð½ÑģÑĤÐ²": 1664,
      "Ð¸ÐºÐ¸": 1665,
      "ĠÐºÐ¾ÑĤÐ¾ÑĢÐ¾Ð¼": 1666,
      "ĠÐ¿ÑĢÐ¾ÑģÑĤÐ¾": 1667,
      "ĠÐ´Ð°Ð²Ð½Ð¾": 1668,
      "ÑĥÐºÐ¸": 1669,
      "ÐºÐ¾Ð½": 1670,
      "ĠÑĩÑĥÐ´": 1671,
      "ĠÐ»Ð°Ñģ": 1672,
      "ĠÐĴÐµÐ´ÑĮ": 1673,
      "ĠÑģÐ²Ð¾Ð±Ð¾Ð´": 1674,
      "Ð¸Ð¹ÑģÑı": 1675,
      "ĠÐ¾Ð±ÑĬ": 1676,
      "ĠÐ¼Ð¾Ð»ÑĩÐ°Ð»": 1677,
      "ĠÑĥÐ´Ð°ÑĢ": 1678,
      "Ð¾Ð´Ð²Ð¸Ð¶": 1679,
      "Ñį": 1680,
      "Ð¿Ð¾Ð´": 1681,
      "ĠÐ²ÑĭÑĢÐ°Ð¶": 1682,
      "ĠÐ¾Ð±ÐµÐ´": 1683,
      "ĠÐ³Ð¾ÑĢÑıÑĩ": 1684,
      "ĠÐĵÑĢ": 1685,
      "ĠÐ²Ð¾Ð»Ð¾Ñģ": 1686,
      "ĠÐ»ÑĥÑĩÑĪÐµ": 1687,
      "ĠÑĤÐ¾Ð²Ð°ÑĢÐ¸Ñī": 1688,
      "Ðŀ": 1689,
      "ÑĭÑģ": 1690,
      "ĠÐ¾ÑģÑĤÑĢ": 1691,
      "ĠÐ´ÐµÐ»Ð¾": 1692,
      "ĠÐ¼Ð°Ð»ÑĮ": 1693,
      "ĠÐ²ÑĭÑħÐ¾Ð´": 1694,
      "ĠÐľÐ½Ðµ": 1695,
      "ÐµÐ½ÑĮÐºÐ¸Ð¹": 1696,
      "ĠÐ¼ÐµÐ´Ð»ÐµÐ½Ð½Ð¾": 1697,
      "ĠÑģÑĭ": 1698,
      "Ð¾Ð²Ð¾Ð¹": 1699,
      "ĠÐ¿ÑĢÐ¾Ð¿": 1700,
      "Ð¸ÑģÑĤÐ¾": 1701,
      "ĠÐ²Ð¾Ð·Ð²": 1702,
      "ĠÑĥÐ¼ÐµÑĢ": 1703,
      "ĠÐ¿Ð¸ÑģÐ°ÑĤÐµÐ»": 1704,
      "ĠÐ¿Ð¾ÑħÐ¾Ð¶": 1705,
      "ĠÐ½ÐµÑĢ": 1706,
      "ĠÐ½ÐµÐºÐ¾ÑĤÐ¾ÑĢ": 1707,
      "ĠÐ´Ð»Ð¸Ð½": 1708,
      "Ð¾Ð±ÑĢÐ°Ð·": 1709,
      "ĠÑĤÑĢÐ¸": 1710,
      "ĠÐ´ÑĢÑĥÐ³Ð¸Ñħ": 1711,
      "ĠÐ½ÐµÐ¿Ð¾Ð´Ð²Ð¸Ð¶": 1712,
      "ĠÐ½Ð¾ÑĩÐ¸": 1713,
      "ĠÑĤÐ¾Ð»ÑģÑĤ": 1714,
      "ÑĩÐ°ÑģÑĤÐ»Ð¸Ð²": 1715,
      "ĠÐ³Ð¾ÑģÐ¿Ð¾Ð´": 1716,
      "Ð°ÐµÑĪÑĮ": 1717,
      "Ð¸ÐµÐ¼": 1718,
      "Ð¸Ð¾Ð½": 1719,
      "Ð¸Ð´Ð°": 1720,
      "ĠÑģÐ´": 1721,
      "ĠÐ¿ÑıÑĤ": 1722,
      "Ð¸Ð³Ð¾": 1723,
      "ĠÐ³Ð¸Ð¼Ð½Ð°Ð·": 1724,
      "ĠÐ»Ð¾Ð¶": 1725,
      "ĠÐ¡Ð°ÑĪ": 1726,
      "ĠÐºÐ¾ÑĤÐ¾ÑĢÑĥÑİ": 1727,
      "ĠÐ¾Ð´Ð½Ð¾": 1728,
      "ĠÑģÐ¼ÐµÑħ": 1729,
      "ĠÑĢÑĥÐºÐ°Ð¼Ð¸": 1730,
      "ĠÑģÐ²ÐµÑĤÐ»": 1731,
      "ĠÑĩÑĥÐ²ÑģÑĤÐ²Ð¾Ð²Ð°Ð»": 1732,
      "ĠÐ´ÐµÐ¹ÑģÑĤÐ²Ð¸ÑĤÐµÐ»ÑĮÐ½Ð¾": 1733,
      "ÑĤÑĥ": 1734,
      "ĠÐ¿ÑĢÐ¾Ðº": 1735,
      "ĠÐ½Ð°ÑĢ": 1736,
      "Ð½ÑĥÐ»Ð°ÑģÑĮ": 1737,
      "ĠÐĲÐ½ÑĤÐ¾ÑĪ": 1738,
      "ĠÐĽÑİÐ±": 1739,
      "ĠÐĹÐ°": 1740,
      "ĠÐ¾ÑģÑĤÐ°Ð½Ð¾Ð²": 1741,
      "ĠÐºÑĥÑĢ": 1742,
      "ĠÐ¸Ð½Ð¾Ð³Ð´Ð°": 1743,
      "ĠÑģÐµÑĢÐ´ÑĨÐµ": 1744,
      "ĠÐ±ÑĥÐ¼": 1745,
      "ĠÐ´Ð½Ñı": 1746,
      "ÑİÑĪ": 1747,
      "Ð¸Ð½Ð¾Ð¹": 1748,
      "ĠÐ¿Ð¾ÑĪ": 1749,
      "Ð¾Ð¶ÐµÑģÑĤÐ²": 1750,
      "ĠÐ¶ÐµÐ»ÐµÐ·": 1751,
      "ĠÑĢÑıÐ´": 1752,
      "Ð¸ÑĤÐµÐ»": 1753,
      "ĠÑĥÑĤÑĢ": 1754,
      "ÐºÐ¾Ñİ": 1755,
      "ĠÑĢÐ°Ð·Ð´": 1756,
      "ĠÐ¿Ð»Ð°ÑĤ": 1757,
      "Ð»ÑıÐ´ÑĭÐ²": 1758,
      "ĠÐ½Ð¾Ð³Ð¸": 1759,
      "ĠÐºÐ¾ÑĢÐ¾ÑĤ": 1760,
      "ĠÐ±Ð°ÑĢ": 1761,
      "ĠÑĩÐ°": 1762,
      "ĠÐ³Ð°Ð·": 1763,
      "ĠÐ¶ÑĥÑĢ": 1764,
      "Ð¾Ð½Ñĩ": 1765,
      "ĠÐ¢Ð¾Ð»": 1766,
      "ĠÐ¾Ð´Ð½Ð°": 1767,
      "ĠÑģÐ²Ð¾ÐµÐ³Ð¾": 1768,
      "ĠÐ²Ð½Ð¸Ð·": 1769,
      "Ð¸Ð½Ð¾Ñĩ": 1770,
      "}.": 1771,
      "ĠÑģÐ¾Ð³": 1772,
      "ĠÐ¼ÑĥÑĩ": 1773,
      "ÑĥÐ³Ð¾": 1774,
      "ĠÑĢÐµÐ´": 1775,
      "ĠÑĢÐµÐ±": 1776,
      "Ð½Ð¸ÐºÐ¸": 1777,
      "ĠÐ³Ð»ÑĥÐ¿": 1778,
      "ĠÐ·Ð°Ð¼ÐµÑĩ": 1779,
      "ÐµÐ³Ð¾Ð´Ð½Ñı": 1780,
      "ĠÐĴÐ°ÑģÐ¸Ð»ÑĮÐµÐ²Ð¸Ñĩ": 1781,
      "ĠÑģÑĥÐ¼": 1782,
      "Ð´Ñĭ": 1783,
      "ĠÐºÐ°Ð±": 1784,
      "Ð¾Ð²Ð°ÑĤÑĮ": 1785,
      "ĠÐ¿ÑĢÐ°Ð·Ð´": 1786,
      "Ð¸ÑĤÐ°Ð½": 1787,
      "Ð°Ð²ÑĢ": 1788,
      "Ð°Ð¼Ð¿": 1789,
      "ÑģÐºÐ°Ñı": 1790,
      "ĠÐĿÐ°Ð´": 1791,
      "Ð¸ÐµÑģÑı": 1792,
      "ĠÑĪÐµÐ»": 1793,
      "ĠÐ³ÑĢÑĥÐ´": 1794,
      "ĠÑģÐ°Ð¼Ð¾Ð³Ð¾": 1795,
      "ĠÐ²ÐµÑģÐµÐ»Ð¾": 1796,
      "ĠÐ¶ÐµÐ½ÑīÐ¸Ð½Ð°": 1797,
      "ĠÑģÐ¸Ð´ÐµÐ»": 1798,
      "Ð»ÐµÐ½Ð¸Ñı": 1799,
      "ĠÑģÐ±": 1800,
      "Ð²Ðµ": 1801,
      "Ð¼Ð¾": 1802,
      "ĠÐºÐ¾Ð³Ð¾": 1803,
      "ĠÐ·Ð°Ð½": 1804,
      "ĠÑĢÐµÑĩ": 1805,
      "ĠÐ¾ÑĤÐ¿": 1806,
      "ĠÑģÐ»ÑĥÐ¶": 1807,
      "ĠÐ»ÑİÐ±Ð¾Ð²": 1808,
      "ĠÐ±Ð»ÐµÐ´": 1809,
      "ĠÐ±Ð¾Ð»ÐµÐ·": 1810,
      "ĠÐ¿ÑĢÑıÐ¼Ð¾": 1811,
      "ÑĢÐ°Ð´": 1812,
      "ĠÐ¿Ð¾Ð¹": 1813,
      "ĠÐ²ÑģÐº": 1814,
      "ĠÐ¿Ð¾ÑıÐ²": 1815,
      "ĠÐ°Ð½": 1816,
      "ÐµÑĩÐµÑģÐº": 1817,
      "ĠÑģÐ»ÑĥÑĪ": 1818,
      "ĠÐĲÐ½Ð´ÑĢ": 1819,
      "ĠÐ¾ÑĤÐ²ÐµÑĩ": 1820,
      "ĠÐ³Ð»ÑĥÐ±Ð¾Ðº": 1821,
      "Ðĺ": 1822,
      "ĠÑĤÐ²ÐµÑĢÐ´": 1823,
      "ĠÐ·ÑĥÐ±": 1824,
      "ĠÐ½ÐµÐ¾Ð±Ñĭ": 1825,
      "Ð½Ð°Ñĩ": 1826,
      "Ð¸Ð½Ð¾Ð²": 1827,
      "ĠÑģÐºÑĥÑĩ": 1828,
      "ĠÐ¾Ð´Ð½Ð¾Ð³Ð¾": 1829,
      "ĠÑģÐ¿ÑĢÐ°ÑĪ": 1830,
      "ĠÐ¼Ð¾Ð³Ñĥ": 1831,
      "ĠÑĤÐµÐ¼Ð½Ð¾": 1832,
      "ĠÐ·Ð½Ð°ÐµÑĤ": 1833,
      "ĠÐŁÐµÑĤÑĢÐ¾Ð²": 1834,
      "ĠÐĲÐ½ÑĤÐ¾Ð½Ð°": 1835,
      "ĠÑħÐ¾ÑĩÑĥ": 1836,
      "Ð½ÐµÐ³Ð¾": 1837,
      "ĠÐ¿Ð°Ð»": 1838,
      "ĠÐ¿Ð°Ð´": 1839,
      "ĠÐ¿Ð°Ð¿": 1840,
      "ĠÐ¾ÑĢ": 1841,
      "ĠÑĤÐ¾Ð¹": 1842,
      "Ð¾Ð»Ð¾Ñģ": 1843,
      "ĠÐ°Ðº": 1844,
      "ĠÐ²ÑĭÐ±": 1845,
      "Ð¾Ð·Ñı": 1846,
      "ĠÐľÐ°ÑĢ": 1847,
      "ĠÐ¾Ð´Ð½Ñĥ": 1848,
      "ÑıÐ»Ð°ÑģÑĮ": 1849,
      "ĠÐ¼Ð¾Ð»ÑĩÐ°": 1850,
      "ĠÐ³Ð¾Ð»Ð¾Ð²Ð¾Ð¹": 1851,
      "ĠÐ·Ð´Ð¾ÑĢÐ¾Ð²": 1852,
      "ÐĲ": 1853,
      "ÑĭÐ¿": 1854,
      "ĠÐ¼ÑıÐ³": 1855,
      "ĠÐ·Ð°ÑĢ": 1856,
      "Ð¾ÑĢÐ°": 1857,
      "ĠÑĥÑģÐ»": 1858,
      "ĠÐ²ÑĭÐ·": 1859,
      "ÐµÑģÑĤÐ¸": 1860,
      "ĠÐ»ÑİÐ±Ð»Ñİ": 1861,
      "ĠÐ¼Ð¾Ð¸": 1862,
      "ĠÐ¾ÑģÐ¾Ð±ÐµÐ½Ð½Ð¾": 1863,
      "ĠÐ²Ð¾ÑģÐ¿Ð¾Ð¼Ð¸Ð½Ð°": 1864,
      "Ð»Ð¾Ð¶": 1865,
      "Ð²Ð¸": 1866,
      "ĠÐ´ÑĥÑĢ": 1867,
      "ĠÐ¼Ð¾Ðµ": 1868,
      "ĠÐŁÐ°ÑĢ": 1869,
      "Ð¸ÑħÑģÑı": 1870,
      "Ð¾ÑĩÐ½Ð¾": 1871,
      "ĠÑĢÐ°ÑģÐº": 1872,
      "ÑĩÐ°ÑģÑĤÑĮ": 1873,
      "ĠÐ¿Ð¸ÑģÐ°Ð»": 1874,
      "ĠÑģÑĤÐ¾ÑıÐ»": 1875,
      "ÑĭÐºÐ½Ð¾Ð²": 1876,
      "Ðļ": 1877,
      "ĠÐ¿ÑĥÑĤ": 1878,
      "Ð²Ð¾Ð·": 1879,
      "ĠÐ´ÐµÑģÑı": 1880,
      "ĠÐ½ÐµÐ¸Ð·": 1881,
      "ÑģÐºÐ¸Ðµ": 1882,
      "ĠÐ¡ÐµÐ¼ÐµÐ½": 1883,
      "ĠÐ±ÑĥÐ´Ñĥ": 1884,
      "ĠÐ¾ÐºÐ¾Ð»Ð¾": 1885,
      "ĠÐ¼Ð¾ÐµÐ¹": 1886,
      "ĠÐ·Ð°Ð´ÑĥÐ¼": 1887,
      "!Â»": 1888,
      "Ð»Ð¸Ñĩ": 1889,
      "ĠÑģÑĩÐ¸ÑĤ": 1890,
      "Ð²Ð°ÑĢ": 1891,
      "ĠÐ´Ð¸Ðº": 1892,
      "ĠÐ¼ÐµÑģÑĤÐ¾": 1893,
      "ĠÐ¿ÑĢÐ¸Ð¿": 1894,
      "Ð¸ÑĤÐ°": 1895,
      "Ð½Ð¸ÑĨ": 1896,
      "ĠÐŁÐ¾Ð´": 1897,
      "ĠÑıÐ·": 1898,
      "Ð³Ð¸": 1899,
      "ĠÐ²ÑĢÐµÐ¼ÐµÐ½Ð¸": 1900,
      "ĠÐŁÐµÑĤÐµÑĢÐ±ÑĥÑĢÐ³": 1901,
      "ĠÑģÐ»Ð¾Ð²Ð½Ð¾": 1902,
      "ĠÐ½Ð°Ð·Ð°Ð´": 1903,
      "Ġ18": 1904,
      "ĠÑģÐ¾Ð»Ð½ÑĨÐµ": 1905,
      "ĠÐ¾ÑĤÑĩÐ°Ñı": 1906,
      "ĠÑĪÐ¸ÑĢÐ¾Ðº": 1907,
      "ĠÑģÐ¾Ð²ÐµÑĢÑĪÐµÐ½Ð½Ð¾": 1908,
      "ĠÑģÑĩÐ°ÑģÑĤÐ»Ð¸Ð²": 1909,
      "Ð¾Ð²Ð°Ð»ÑģÑı": 1910,
      "ĠÑĤÐ¾Ð¼Ñĥ": 1911,
      "ĠÐ¿ÑĢÐ¸Ð³": 1912,
      "ĠÑĢÑĭ": 1913,
      "ĠÐºÐ¾ÑĤÐ¾ÑĢÑĭÐ¼": 1914,
      "ĠÑģÑĤÑĢÐ°Ð´": 1915,
      "ĠÐ²Ð¾Ð·Ð¼": 1916,
      "ĠÐ¸ÑģÐ¿ÑĥÐ³": 1917,
      "ĠÐ¸Ð·Ð²ÐµÑģÑĤ": 1918,
      "ĠÑģÐºÐ¾ÑĢÐ¾": 1919,
      "ĠÑģÐ¼ÐµÑĢÑĤÐ¸": 1920,
      "Ð»ÑĮ": 1921,
      "Ð»Ð¾ÑģÑĮ": 1922,
      "ÐµÐ½Ð¸Ð¹": 1923,
      "ĠÑĤÐ°Ð»": 1924,
      "ĠÐ´Ð¾Ð±": 1925,
      "ĠÐ½Ð°ÑģÑĤ": 1926,
      "Ð¾ÑĢÐµ": 1927,
      "ÑĭÐ²Ð°ÐµÑĤ": 1928,
      "ĠÐºÐ¾ÑĤÐ¾ÑĢÐ¾Ðµ": 1929,
      "ĠÐ³Ð¾ÑģÑĤ": 1930,
      "ĠÐ´Ð²ÐµÑĢÐ¸": 1931,
      "ÑĩÐ¸Ð²Ð¾": 1932,
      "ĠÐ²ÑģÐ¿Ð¾Ð¼Ð½": 1933,
      "ÑĢÐµÐ·": 1934,
      "ĠÐ²ÐµÑĤ": 1935,
      "ĠÐ²Ð°Ð¶": 1936,
      "ĠÑĢÐµÐ·": 1937,
      "ĠÑĥÐº": 1938,
      "ĠÐ¶Ð´": 1939,
      "ĠÐºÐ°ÐºÐ°Ñı": 1940,
      "Ð³Ð½": 1941,
      "Ð½ÑĥÐ²": 1942,
      "ĠÐ¾Ð±ÑĭÐºÐ½Ð¾Ð²": 1943,
      "ĠÑĪÑĥÑĤ": 1944,
      "ĠÐ´ÑĢÑĥÐ¶": 1945,
      "ĠÐ´ÑĢÑĥÐ³Ð°": 1946,
      "ĠÐ´ÑĢÑĥÐ³Ð¸Ðµ": 1947,
      "ĠÐ¿Ð¾ÑĩÑĥÐ²ÑģÑĤÐ²": 1948,
      "Ð°Ð¶Ð´Ñĭ": 1949,
      "ĠÑģÐ»Ð¾Ð²Ð¾": 1950,
      "ĠÑģÑĤÐ¾Ð¸ÑĤ": 1951,
      "Ð°Ð½ÑĮÑĪÐµ": 1952,
      "ĠÑĥÐ²Ð¸Ð´ÐµÐ»": 1953,
      "ĠÑģÐ¿Ð¾ÐºÐ¾Ð¹Ð½Ð¾": 1954,
      "ÑıÑģÐ½": 1955,
      "ĠÐ¼Ð½Ð¾Ð³": 1956,
      "Ð¾ÑıÑĤÐ½Ð¾": 1957,
      "ĠÐ¿ÑĮ": 1958,
      "Ð½Ð¸Ñħ": 1959,
      "Ð¾Ð½ÐµÑĨ": 1960,
      "Ð¾Ð½ÐµÑĩÐ½Ð¾": 1961,
      "Ð°Ð½Ð½ÑĭÐ¹": 1962,
      "ĠÐ³Ð»ÑĥÑħ": 1963,
      "ĠÐ³Ð¾Ð²Ð¾ÑĢÐ¸Ð»Ð¸": 1964,
      "ĠÑĦÐ¾Ð½": 1965,
      "ÑĤÐ¾ÑıÐ½": 1966,
      "ĠÐ³ÑĢÐ¾Ð¼ÐºÐ¾": 1967,
      "ĠÐ¿Ð°Ð»ÑĮÑĨ": 1968,
      "Ðľ": 1969,
      "ÑħÑĥ": 1970,
      "Ð°ÑĤÐ¸": 1971,
      "ĠÑĥÑĪ": 1972,
      "ĠÐ¶Ð¸Ð»": 1973,
      "ĠÐ¶Ð¸ÑĤÑĮ": 1974,
      "ĠÐ¾ÑĤÐ½Ð¾ÑĪ": 1975,
      "ÐµÐ²Ð½Ð°": 1976,
      "ĠÐĴÐµÑĢ": 1977,
      "ĠÐ°Ð²": 1978,
      "ĠÑĤÐ°ÐºÐ°Ñı": 1979,
      "ĠÑĪÑĥÐ¼": 1980,
      "ÑĢÑĭÑĤ": 1981,
      "ÑĥÐ»ÑĮ": 1982,
      "ÑĤÐ¾ÑıÑī": 1983,
      "ĠÑģÐ½ÐµÐ³": 1984,
      "ĠÑģÑĤÐ¾ÑĢÐ¾Ð½Ñĥ": 1985,
      "ÑĤÑĢÐ°": 1986,
      "ĠÐ²Ð¾Ðº": 1987,
      "Ð½Ð¸ÑĨÐ°": 1988,
      "Ð¾Ð»ÑĮÐ·": 1989,
      "Ð¸ÐºÐ¾Ð²": 1990,
      "ĠÐŀÐ±": 1991,
      "ĠÐ¶ÐµÑģÑĤ": 1992,
      "ĠÐ¿Ð¾ÑģÐ»": 1993,
      "ÑĪÐµÐµ": 1994,
      "ĠÐ²Ð·ÑıÐ»": 1995,
      "ĠÐ¼Ð°Ð»ÑĮÑĩÐ¸Ðº": 1996,
      "ÑĢÐ°Ðº": 1997,
      "ĠÑĤÐ²Ð¾ÑĢ": 1998,
      "ĠÐ¼Ð°Ñģ": 1999,
      "ĠÐ¼Ð°ÑĤÑĮ": 2000,
      "ĠÐ¿ÑĢÐ¾Ð½": 2001,
      "Ð¾Ð´Ð°ÑĢ": 2002,
      "Ð°Ð·Ð°Ð»ÑģÑı": 2003,
      "Ð¸Ð²Ð°Ð»Ð¸": 2004,
      "ĠÐ²ÑģÐµÐ¹": 2005,
      "ĠÑĤÐ°ÐºÐ¸Ð¼": 2006,
      "Ð»Ð¸ÑĪ": 2007,
      "ÑıÑĤÐµÐ»ÑĮ": 2008,
      "ĠÐŁÐ°Ð²Ð»Ð°": 2009,
      "ĠÐ±Ð»Ð°Ð³Ð¾": 2010,
      "ĠÐ¾ÐºÐ½Ð°": 2011,
      "Ð°Ð²ÑĪÐ¸Ð¹": 2012,
      "ĠÐ¿Ð¾Ð´ÑĥÐ¼Ð°Ð»": 2013,
      "Ð¢": 2014,
      "ÑĢÐ¾Ð³": 2015,
      "ĠÑģÐµÐ³Ð¾Ð´Ð½Ñı": 2016,
      "ĠÐ¿Ð¸ÑĪ": 2017,
      "ĠÐ¾Ñī": 2018,
      "ĠÑĤÐµÐ»Ð¾": 2019,
      "Ð¾Ð»Ñĩ": 2020,
      "ĠÑģÑĤÐ°Ð»Ð¸": 2021,
      "Ð¾Ð±Ð½Ð¾": 2022,
      "ĠÑģÐ»ÐµÐ³": 2023,
      "ĠÐ³ÑĢÐ¾Ð·": 2024,
      "ĠÐ¿Ð¾ÑģÑĤÐ¾ÑıÐ½": 2025,
      "ÑıÑĤÑĮÑģÑı": 2026,
      "ĠÐ¾ÑģÑĤÐ¾ÑĢ": 2027,
      "ĠÐ·Ð½Ð°Ñĩ": 2028,
      "ĠÐ²ÑģÑĤÑĢÐµÑĤ": 2029,
      "ĠÐ¼ÑĭÑģÐ»ÑĮ": 2030,
      "Ð°Ñī": 2031,
      "ÑĥÐºÑĥ": 2032,
      "ĠÐ²ÑĤÐ¾ÑĢ": 2033,
      "ÐµÐ½Ð½ÑĥÑİ": 2034,
      "ĠÐ±ÐµÑģÐº": 2035,
      "ĠÐ¼Ð°Ð»Ð¾": 2036,
      "ĠÑĢÐµÐº": 2037,
      "ĠÑĥÐ²ÐµÑĢ": 2038,
      "Ð¸Ð²Ð¾": 2039,
      "Ð¸ÐµÑħ": 2040,
      "ĠÐ¿Ð¾ÑģÐ¼Ð¾ÑĤÑĢ": 2041,
      "ĠÑĨÐ²ÐµÑĤ": 2042,
      "ĠÐ´Ð¾Ð¼Ðµ": 2043,
      "ĠÑĢÐ°Ð´Ð¾ÑģÑĤ": 2044,
      "ĠÐºÐ¾Ð¼Ð½Ð°ÑĤÐµ": 2045,
      "ĠÐºÐ°Ð¶Ð´ÑĭÐ¹": 2046,
      "ĠÐ¼Ð¸Ð½ÑĥÑĤÑĥ": 2047,
      "ĠÑģÐ»ÐµÐ³ÐºÐ°": 2048,
      "Ð»Ð°Ðº": 2049,
      "ĠÑģÑİ": 2050,
      "ĠÐ¿ÐµÑģ": 2051,
      "ĠÐ²ÑģÑĤ": 2052,
      "Ð°Ð»Ñı": 2053,
      "ĠÑĤÑĥ": 2054,
      "ÑģÑıÑĩ": 2055,
      "ĠÑĢÐµÐ²": 2056,
      "ĠÑĢÐ°Ð½ÑĮÑĪÐµ": 2057,
      "ĠÐ¿Ð¾ÑĨ": 2058,
      "ĠÑħÐ¾Ð·Ñı": 2059,
      "ĠÐ²Ð¸Ð´ÐµÑĤÑĮ": 2060,
      "Ð»ÑİÑĩ": 2061,
      "ĠÐ¿Ð¾Ð½ÑıÐ»": 2062,
      "Ð¸Ð²ÑĪÐ¸ÑģÑĮ": 2063,
      "ĠÐºÐ¾Ð»Ð¾Ðº": 2064,
      "ĠÐ¿ÑĢÐ¾Ð¸Ð·Ð²": 2065,
      "Ð°Ð½Ð¾": 2066,
      "Ð½Ð°Ð¶Ð´Ñĭ": 2067,
      "Ð»Ð¾Ð¼": 2068,
      "ÑĢÐ¸Ð¿": 2069,
      "Ð¼Ð°Ð½": 2070,
      "ĠÐ´Ð¾Ñģ": 2071,
      "ĠÑģÑĤÐ°Ð»Ð°": 2072,
      "ĠÐ²ÑĭÑĪ": 2073,
      "ÑĢÐ°ÑĦ": 2074,
      "ÐµÑħÐ¾Ð²": 2075,
      "ĠÐ·Ð°Ñħ": 2076,
      "ÑĭÐ²Ð°ÑĤÑĮ": 2077,
      "ÐºÑĥÐ´Ð°": 2078,
      "ĠÐķÐ»Ðµ": 2079,
      "ÑĦÐµ": 2080,
      "ĠÐºÐ¾Ð½ÐµÑĩÐ½Ð¾": 2081,
      "ÑĢÐµÐ´ÐµÐ»": 2082,
      "ĠÑģÑĥÑīÐµÑģÑĤÐ²": 2083,
      "ĠÑģÑĤÑĥÐ´ÐµÐ½ÑĤ": 2084,
      "ÐºÐ½Ð¾Ð²": 2085,
      "ĠÐ¿ÑĢÐ¾Ð±": 2086,
      "ĠÑģÑĤÑĭ": 2087,
      "ĠÑģÑĤÐµÐ¿": 2088,
      "ĠÑħÐ»": 2089,
      "ĠÑģÐºÐ°Ð¶": 2090,
      "ĠÑįÑĤÐ¸Ð¼": 2091,
      "ĠÑĤÑĢÐµÐ±": 2092,
      "ĠÐ¿Ð»Ð°ÑĤÑĮ": 2093,
      "ĠÐ½ÐµÐ¿ÑĢÐ¸": 2094,
      "ĠÐŁÐ°Ð²Ð»Ð¾Ð²Ð¸ÑĩÐ°": 2095,
      "ĠÐ´ÐµÑĤÐ¸": 2096,
      "ĠÑģÑĤÑĢÐ°Ð½Ð½Ð¾": 2097,
      "ĠÐ½ÐµÐ±Ð¾": 2098,
      "ĠÐĲÐ»ÐµÐºÑģÐ°Ð½": 2099,
      "ĠÐ¼Ð°ÑĤÐµÑĢÐ¸": 2100,
      "Ð°Ð´ÑĨÐ°ÑĤÑĮ": 2101,
      "ĠÑģÐ»Ð¸ÑĪ": 2102,
      "Ð°Ð½Ð½ÑĭÐµ": 2103,
      "ÐµÐ¹ÑģÑı": 2104,
      "Ð¾Ð»ÑĮÑĪ": 2105,
      "Ð»ÑıÑĤÑĮ": 2106,
      "ĠÐľÐµÑĢ": 2107,
      "ĠÐľÐ¸ÑĤ": 2108,
      "Ð°ÐµÑĤÐµ": 2109,
      "ĠÑģÐ²Ð¾ÐµÐ¼": 2110,
      "ĠÐĵÐ¾ÑĢ": 2111,
      "ĠÐ´ÐµÐ»Ð°ÑĤÑĮ": 2112,
      "ĠÑĤÐ¾Ð»Ð¿": 2113,
      "ĠÐ¸ÑģÑĩ": 2114,
      "Ðķ": 2115,
      "ÑĤÐ¸ÑĢ": 2116,
      "ÑĢÐ¸ÑģÑĤ": 2117,
      "ÐµÑĢÐ²": 2118,
      "Ð·Ð°": 2119,
      "Ð°Ð´Ð¸": 2120,
      "ÐµÐ²Ð°": 2121,
      "ĠÐ²ÑĭÐ´": 2122,
      "ÐµÐ¿ÐµÑĢÑĮ": 2123,
      "ĠÐ¸Ð·Ð´": 2124,
      "ĠÐ¢Ð¾Ð»ÑĮÐºÐ¾": 2125,
      "ĠÐľÐ¸Ñħ": 2126,
      "ĠÐ¿Ð»Ð¾Ñħ": 2127,
      "ĠÐ¾Ð´Ð¸Ð½Ð¾Ðº": 2128,
      "ĠÑĥÐ³ÑĢ": 2129,
      "ĠÐľÐ¾ÑģÐºÐ²Ðµ": 2130,
      "ĠÐķÐ»ÐµÐ°Ð·": 2131,
      "Ð½ÐµÑĤ": 2132,
      "ÑĥÑı": 2133,
      "ĠÑģÑĩÐ°ÑģÑĤÑĮ": 2134,
      "Ð²Ð¸Ð´": 2135,
      "ÑĤÐ¾Ðµ": 2136,
      "ĠÑĤÑĮ": 2137,
      "ĠÑĢÐ°ÑģÑĤ": 2138,
      "Ð½Ð¸ÑĨÑĥ": 2139,
      "ĠÑħÐ°ÑĢ": 2140,
      "Ð¾ÑģÑĤÐ°Ð²": 2141,
      "ĠÐ¼Ð¾Ð³Ð»Ð°": 2142,
      "ĠÐ½ÐµÑģÑĩÐ°ÑģÑĤ": 2143,
      "ÑĤÐ°Ð»": 2144,
      "ÐºÐ¸Ð¼Ð¸": 2145,
      "ÐµÑĢÐº": 2146,
      "Ð¾Ð¼Ð¸Ð½": 2147,
      "ĠÐ»Ð°Ð¼Ð¿": 2148,
      "ÑģÐºÐ¾Ð¼": 2149,
      "Ð¸Ð½ÑĥÐ»": 2150,
      "ÑģÑĤÐ²Ð¾Ð¼": 2151,
      "ĠÐ¡Ð»": 2152,
      "ĠÐ¿ÐµÑĢÐµÑģÑĤ": 2153,
      "ĠÑģÐ²Ð¾Ð¸Ð¼Ð¸": 2154,
      "ĠÑĤÑĭÑģÑıÑĩ": 2155,
      "ĠÐ»Ð¸ÑĨÐ¾Ð¼": 2156,
      "ĠÐ½Ð¸ÐºÐ°Ðº": 2157,
      "Ð¾Ð±ÑĢÐ°Ð¶": 2158,
      "ĠÐ´ÐµÐ²ÑĥÑĪÐºÐ°": 2159,
      "ĠÐ´Ð¾Ð»Ð¶ÐµÐ½": 2160,
      "ĠÐĲÐ½ÑĤÐ¾ÑĪÐ°": 2161,
      "ÑĩÐµÑģÐº": 2162,
      "Ð¾Ð²Ð¾": 2163,
      "ĠÐ´Ð°Ñĩ": 2164,
      "ĠÐ¿ÑĢÐ¸Ð»": 2165,
      "Ð°Ð½Ð½Ð¾": 2166,
      "ĠÐĿÐ¾ÑĢ": 2167,
      "ĠÑģÐºÐ¾Ð»ÑĮÐºÐ¾": 2168,
      "ĠÐ³Ð¾ÑģÑĤÐ¸": 2169,
      "ĠÐ±ÐµÐ·ÑĥÐ¼": 2170,
      "ĠÐ¾ÑģÐ²": 2171,
      "ĠÐ²Ð¿ÐµÑĩÐ°ÑĤ": 2172,
      "ĠÑĤÑıÐ¶ÐµÐ»Ð¾": 2173,
      "ĠÐ¶ÐµÐ½ÑīÐ¸Ð½Ñĭ": 2174,
      "ĠÐ·Ð°Ð³Ð°Ð´": 2175,
      "ĠÑīÐµÐº": 2176,
      "ĠÐ²Ð¾Ð·Ð²ÑĢÐ°Ñī": 2177,
      "ĠÐ½ÐµÐ¾Ð±ÑĭÐºÐ½Ð¾Ð²": 2178,
      "ĠÑģÐ»Ð¸ÑĪÐºÐ¾Ð¼": 2179,
      "Ðł": 2180,
      "ĠÑİ": 2181,
      "ĠÐ¿Ð°Ð¼": 2182,
      "ĠÐ²ÐµÑī": 2183,
      "Ð²Ð¾ÑģÑĤ": 2184,
      "ĠÐ¼ÑĥÐ·": 2185,
      "ĠÑĩÑĥÑĤÑĮ": 2186,
      "ĠÐ¿ÑĢÐ¸ÐµÑħ": 2187,
      "ĠÐ½ÐµÑĩ": 2188,
      "ĠÑĥÑħÐ¾Ð´": 2189,
      "Ð¸Ð²Ð°Ð»ÑģÑı": 2190,
      "ÐµÐ´Ð¾Ð¼": 2191,
      "ÑģÐºÑĥÑİ": 2192,
      "ĠÐŁÐ¾Ñĩ": 2193,
      "ÐµÐ·Ð°Ð¿": 2194,
      "ĠÐ°ÑĢ": 2195,
      "ĠÐĲÑħ": 2196,
      "ĠÐºÑĢÑĥÐ¶": 2197,
      "ĠÐ¢ÐµÐ¿ÐµÑĢÑĮ": 2198,
      "ĠÑĢÑĥÐº": 2199,
      "ĠÐ³Ð¾ÑĢÐ´": 2200,
      "ĠÐĳÐ°ÑĢ": 2201,
      "ĠÐ´Ð¾Ð»Ð³": 2202,
      "ĠÐ´Ð¾Ð¼Ð¾Ð¹": 2203,
      "ĠÐºÐ¾Ð¼Ð½Ð°ÑĤÑĥ": 2204,
      "ĠÑģÑĤÐ¾ÑĢÐ¾Ð½Ñĭ": 2205,
      "ĠÐ¸Ð´ÐµÑĤ": 2206,
      "ĠÑĢÐ°Ð·Ð²Ðµ": 2207,
      "ĠÐ´Ð°Ð»ÐµÐºÐ¾": 2208,
      "ÑĥÑģÑĤÑĮ": 2209,
      "ÐºÐ¸Ð½": 2210,
      "ĠÐ±Ð°Ð±": 2211,
      "ĠÐ¿ÑĢÐ¸Ñĩ": 2212,
      "ĠÑģÐ²ÑıÑĤ": 2213,
      "ÑıÐ»Ð¾": 2214,
      "ĠÐ¿ÑĢÐ¸Ð½Ð¸Ð¼": 2215,
      "ĠÐ¿Ð¾ÐºÐ¾Ð¹": 2216,
      "ĠÐ·Ð°ÑģÐ¼Ðµ": 2217,
      "ĠÑģÐ¼ÐµÑĢÑĤÑĮ": 2218,
      "ĠÐłÐ°Ð·Ð²Ðµ": 2219,
      "ĠÑģÐµÐ¼ÑĮ": 2220,
      "ÐĶ": 2221,
      "Ð»Ð°Ð³": 2222,
      "ĠÐ½Ð°Ð¹": 2223,
      "Ð²ÐµÑģÑĤ": 2224,
      "ĠÐ´Ð¾Ð²Ð¾Ð»ÑĮ": 2225,
      "ĠÐ·ÐµÐ»": 2226,
      "Ð±Ñĥ": 2227,
      "ÑĤÐ¾ÑĢÐ°": 2228,
      "ĠÐ¿Ð¾ÑĪÐµÐ»": 2229,
      "ĠÐ·Ð°Ð½Ð¸Ð¼": 2230,
      "ÐµÐ¶Ð°Ð»": 2231,
      "ĠÐ¿Ð¸ÑģÐ°ÑĤÑĮ": 2232,
      "ĠÐ¾ÑģÑĤÐ°Ð½": 2233,
      "ĠÐ´ÐµÑĤÐµÐ¹": 2234,
      "ĠÐľÐµÑĢÐºÑĥ": 2235,
      "ÑĤÐ°ÐºÐ¸": 2236,
      "ĠÐ½ÐµÐ»": 2237,
      "ĠÐ¼ÐµÑĢ": 2238,
      "ĠÐ¼ÐµÑĩ": 2239,
      "ÑĨÐ¸Ð¸": 2240,
      "ĠÑĤÐ°ÐºÐ¶Ðµ": 2241,
      "ĠÐ·Ð°ÑģÑĤ": 2242,
      "ĠÐ¿ÑĢÐ¸ÑĪÐµÐ»": 2243,
      "ĠÐ¿Ð¾ÐºÐ¾ÑĢ": 2244,
      "ĠÐ¼Ð¾Ñİ": 2245,
      "ĠÐ´ÑĥÐ¼Ð°ÑĤÑĮ": 2246,
      "ĠÐ¿Ð¾Ð¶Ð°Ð»ÑĥÐ¹": 2247,
      "ĠÐ³Ð°Ð·ÐµÑĤ": 2248,
      "ĠÐ°Ð½Ð³": 2249,
      "\"{": 2250,
      "ÑĢÐ¸Ñĩ": 2251,
      "ÑıÐ»Ð¸": 2252,
      "ĠÑģÑĨ": 2253,
      "ĠÐ½Ð¸Ð¼Ð¸": 2254,
      "ÐºÑĥÑİ": 2255,
      "Ð¼ÐµÑĤ": 2256,
      "Ð¼ÑĥÑĢ": 2257,
      "ĠÐ¿ÑĢÐ¾Ð·": 2258,
      "ĠÐĺÐ³Ð½": 2259,
      "ĠÐ¾Ð±ÑĢÐ°Ñī": 2260,
      "ĠÐ·Ð°Ñĩ": 2261,
      "ÑĭÐ²Ð°Ð»Ð¸": 2262,
      "ĠÐ¾Ð´Ð½Ð¾Ð¼": 2263,
      "ĠÐ¿ÐµÑĢÐµÐ¿": 2264,
      "ĠÑģÐ°Ð¼Ð°": 2265,
      "ĠÑģÐ°Ð¼Ð¾Ð¹": 2266,
      "ĠÑĢÑĥÑģ": 2267,
      "ĠÑĦÐ¾ÑĢ": 2268,
      "ĠÑĩÐµÐ»Ð¾Ð²ÐµÑĩÐµÑģÐº": 2269,
      "ĠÑģÐ¾Ð±Ð¾Ñİ": 2270,
      "ĠÐ½Ð°Ð¿ÑĢ": 2271,
      "ĠÐºÐ°ÑĢÑĤ": 2272,
      "ĠÐ³ÑĢÑĥÐ´Ð¸": 2273,
      "Ð¼Ð°ÑĤÑĢ": 2274,
      "ĠÐ¿ÑĢÐµÐ¶": 2275,
      "ĠÐ³Ð½ÐµÐ²": 2276,
      "Ð±Ñĭ": 2277,
      "ĠÑĤÐ°ÐºÐ¸Ðµ": 2278,
      "ÐµÑĩÐºÐ°": 2279,
      "ÑĢÐ°ÑģÑĤ": 2280,
      "ÑĥÑİÑĤ": 2281,
      "ĠÐ³ÑĢÑĥÐ´ÑĮ": 2282,
      "ĠÐ½Ð¾ÑĩÑĮÑİ": 2283,
      "ĠÐ¿ÐµÑĢÐ²ÑĭÐ¹": 2284,
      "ĠÐĲÐ»ÐµÐºÑģÐ°Ð½Ð´ÑĢ": 2285,
      "ĠÐĺÐ³Ð½Ð°ÑĤ": 2286,
      "ĠÑģÐµÐ»": 2287,
      "ÐµÐ½Ð¾": 2288,
      "Ð¾Ð»Ð³Ð¾": 2289,
      "ĠÑĢÐ¸Ñģ": 2290,
      "Ð¿ÐµÐ½": 2291,
      "ÐµÐ¿ÐµÑĤ": 2292,
      "ÑĥÑĤÑģÑĤÐ²": 2293,
      "ĠÑģÐ¼ÑĥÑĤ": 2294,
      "ĠÐ³Ð»Ð°Ð²": 2295,
      "ÑĦÐ¸ÑĨ": 2296,
      "ĠÐ¿Ð¾ÑĤÐµÑĢ": 2297,
      "ÑĢÑĭÐ»": 2298,
      "ĠÑģÐ¾Ð±Ð¾Ð¹": 2299,
      "ĠÐ·Ð²ÑĥÑĩ": 2300,
      "ĠÐ³Ð¾Ð»Ð¾ÑģÐ°": 2301,
      "ĠÑĩÐµÑĤÐ²ÐµÑĢ": 2302,
      "ĠÐ±ÑĥÐ¼Ð°Ð³": 2303,
      "ĠÑĢÐµÐ±ÐµÐ½": 2304,
      "ĠÑĤÐ°Ð»Ð°Ð½ÑĤ": 2305,
      "ĠÐ¿ÑĮÐµÑģ": 2306,
      "ĠÐ¸ÑģÑĩÐµÐ·": 2307,
      "Ð»Ñĥ": 2308,
      "ĠÑģÐ¾Ð»": 2309,
      "ĠÑģÑĥÑħ": 2310,
      "ĠÐ¿Ð°Ñħ": 2311,
      "ĠÐ½Ð°Ð»": 2312,
      "ĠÐ²Ð´": 2313,
      "ĠÐ´Ð¾Ð²": 2314,
      "ĠÐ¼Ð½Ð¾Ð¹": 2315,
      "ĠÐ¿ÑĢÐ¸ÑĤ": 2316,
      "ĠÐ¿ÑĢÐµÐ²": 2317,
      "ĠÐ¿ÑĢÐ¸Ð¶": 2318,
      "ĠÑĢÐ¾ÑĤ": 2319,
      "ĠÐºÐ°ÐºÐ¾Ðµ": 2320,
      "ĠÐ²ÑĭÑĪÐµÐ»": 2321,
      "ĠÐ¾Ð±Ñī": 2322,
      "ĠÐļÐ°ÑĤ": 2323,
      "ĠÐ´Ð²Ð¸Ð³": 2324,
      "Ð°Ð½Ð¸ÐµÐ¼": 2325,
      "ĠÐ»ÑİÐ±Ð²Ð¸": 2326,
      "ĠÐ§ÐµÑħÐ¾Ð²ÑĭÐ¼": 2327,
      "ĠÑħÐ¾ÑĤÑĮ": 2328,
      "ĠÐ³Ð¾Ð»Ð¾Ð²Ðµ": 2329,
      "ĠÐ½Ð°ÐºÐ¾Ð½ÐµÑĨ": 2330,
      "ĠÐ¿Ð¸ÑģÑĮÐ¼Ð¾": 2331,
      "ÑĢÐ¾ÑĦ": 2332,
      "ĠÐ´ÑĮÑıÐºÐ¾Ð½": 2333,
      "ĠÑĢÑıÐ´Ð¾Ð¼": 2334,
      "Ð»ÐµÑĩ": 2335,
      "ÑĢÑı": 2336,
      "ĠÐ½ÑĢÐ°Ð²": 2337,
      "ĠÐ¾Ñħ": 2338,
      "ĠÑĥÑħ": 2339,
      "ÑģÑĤÐ²Ðµ": 2340,
      "Ð¶ÐµÑģÑĤÐ²": 2341,
      "ĠÐ¢Ð°Ð¼": 2342,
      "Ð°Ð³Ð¾Ð½": 2343,
      "Ð¸ÑĤÐµÐ»ÑĮÐ½ÑĭÐ¹": 2344,
      "ĠÑģÐ¼Ð¾ÑĤÑĢÐµÑĤÑĮ": 2345,
      "ĠÑĤÐ¾ÑĢÐ¾Ð¿": 2346,
      "ĠÐ²Ð½ÐµÐ·Ð°Ð¿": 2347,
      "ÐºÑĢÐµÑģ": 2348,
      "ĠÐ½ÐµÐ½Ð°Ð²": 2349,
      "ĠÐ¿Ð¾Ð¼Ð½Ñİ": 2350,
      "ĠÐ´Ð°Ð»ÑĮÑĪÐµ": 2351,
      "ÑįÑĤ": 2352,
      "ĠĠ": 2353,
      "ÐµÐ½ÐºÐ¾": 2354,
      "ĠÐ±ÐµÐ³": 2355,
      "ĠÑĤÐ¸ÑĪ": 2356,
      "Ð¾Ð¼ÐµÑĢ": 2357,
      "ÐµÑĤÐµÐ»ÑĮ": 2358,
      "Ð°ÐºÑĤÐµÑĢ": 2359,
      "Ð°ÑĤÐ°": 2360,
      "ĠÑĢÑĥÐ±": 2361,
      "ĠÐ½Ð°ÑĢÐ¾Ð´": 2362,
      "Ð°Ð²Ð¸Ð»": 2363,
      "Ð°Ð²Ð»Ð¸Ð²": 2364,
      "ĠÐ¾ÑĤÑģ": 2365,
      "Ð³Ñĥ": 2366,
      "ĠÐ¾Ð±Ð¸Ð´": 2367,
      "ĠÑģÐºÐ²Ð¾Ð·": 2368,
      "ÐµÐ¶Ð´": 2369,
      "ĠÐ¿Ð¾ÐºÑĥÐ¿": 2370,
      "ĠÐĳÐ¾Ð³": 2371,
      "ĠÐ¶ÐµÐ½Ð°": 2372,
      "ĠÐĽÐ°Ð²ÑĢ": 2373,
      "ĠÑģÐ¾Ð±ÑģÑĤÐ²": 2374,
      "ĠÑĩÑĥÐ²ÑģÑĤÐ²Ð¾": 2375,
      "ĠÑģÐ»ÑĥÑĩÐ°Ð¹": 2376,
      "ĠÐ´Ð°Ð»ÐµÐº": 2377,
      "ĠÑĥÑģÑĤÐ°Ð»": 2378,
      "ĠÐ±ÐµÑĢÐµÐ³": 2379,
      "ĠÐľÐ¸ÑĪÐ°": 2380,
      "ĠÐĽÑİÐ±Ð°": 2381,
      "ÑıÐ½ÑĥÐ»": 2382,
      "ĠÐºÐ¾Ð¿": 2383,
      "Ð¾Ð²Ð°Ð»Ð¸": 2384,
      "ĠÐ´Ð½Ð¸": 2385,
      "ĠÐ·Ð¸Ð¼": 2386,
      "ÑģÐºÐ¸Ð¼": 2387,
      "ĠÐĿÐµÐ¼": 2388,
      "Ð³Ð°Ð¼": 2389,
      "ĠÐ¾Ð±Ð°": 2390,
      "ĠÐ¾Ð±ÑĢÐ°ÑĤ": 2391,
      "ĠÐļÑĤÐ¾": 2392,
      "ĠÑįÑĤÐ¾Ð¼Ñĥ": 2393,
      "ĠÐ³Ð¾Ð»ÑĥÐ±": 2394,
      "ĠÐ¿Ð¾ÐºÐ°Ñĩ": 2395,
      "ĠÑĦÐ¸Ð³": 2396,
      "ĠÐ¸Ð¼ÐµÐ½Ð½Ð¾": 2397,
      "ĠÐ´ÑĥÑĪÑĥ": 2398,
      "ĠÐ¿ÑĢÐ°Ð²Ð´Ð°": 2399,
      "ĠÐ³Ð¾Ð´Ñĥ": 2400,
      "ĠÐºÐ»Ð°ÑģÑģ": 2401,
      "ĠÐľÐ¸ÑĤÑĢÐ¾ÑĦ": 2402,
      "ÐµÐµÑĤ": 2403,
      "ÑĤÐ¾Ð¼": 2404,
      "Ð½ÐµÑģ": 2405,
      "ĠÑģÐ¾Ñĩ": 2406,
      "Ð¼Ð°Ñħ": 2407,
      "Ð¾Ð²Ð°Ð»Ð°": 2408,
      "ĠÑĤÐ²Ð¾": 2409,
      "ĠÐ´ÐµÐ½": 2410,
      "ĠÐ´Ð¾Ð³": 2411,
      "Ð½Ð¸ÑĨÐµ": 2412,
      "Ð¾ÑĤÑĥ": 2413,
      "ĠÐ¾ÑĤÐºÑĥÐ´Ð°": 2414,
      "ĠÑħÐ²Ð¾ÑģÑĤ": 2415,
      "ĠÑĤÐ°ÐºÐ¸Ñħ": 2416,
      "ĠÐ·Ð°Ñī": 2417,
      "ĠÐ³Ð¾ÑĤÐ¾Ð²": 2418,
      "ĠÑĨÐ°ÑĢ": 2419,
      "ĠÐŁÑĢÐ¸": 2420,
      "ÑĥÑģÑĤÐ¾": 2421,
      "ĠÑĥÐ¿ÑĢ": 2422,
      "ĠÑĤÐµÐ°ÑĤÑĢ": 2423,
      "ĠÐ¸ÑģÐºÑĥÑģ": 2424,
      "ĠÐ¡ÑĤÐµÐ¿": 2425,
      "ĠÑıÑģÐ½Ð¾": 2426,
      "ĠÐºÐ°Ð±Ð¸Ð½": 2427,
      "ĠÐ¿Ð¾ÑĩÑĥÐ²ÑģÑĤÐ²Ð¾Ð²Ð°Ð»": 2428,
      "ĠÐ·Ð°ÑĩÐµÐ¼": 2429,
      "Ð»ÑĭÐ¹": 2430,
      "ĠÑģÐ¾Ð½": 2431,
      "ĠÑģÐµÑģÑĤ": 2432,
      "ÑĪÐµÐ³Ð¾": 2433,
      "ĠÑĤÑĥÐ´Ð°": 2434,
      "ĠÐ´Ð½ÐµÐ¹": 2435,
      "Ð¾ÑĤÐ°": 2436,
      "Ð°Ð½Ð¸Ð¹": 2437,
      "ĠÑģÑĤÐµÐº": 2438,
      "ĠÐļÐ¾Ð½ÐµÑĩÐ½Ð¾": 2439,
      "Ð°Ð»ÑĮÐ½Ð¾": 2440,
      "ĠÑģÐ°Ð¼Ð¾Ð¼": 2441,
      "Ð°Ð½Ð¸Ð¸": 2442,
      "Ð¸Ð¶Ñĥ": 2443,
      "Ð»ÑİÐ±": 2444,
      "ĠÐ½Ð°ÑģÑĤÐ¾ÑıÑī": 2445,
      "ĠÐ¿ÑĥÑģÑĤÑĭ": 2446,
      "ĠÐ±ÐµÑģÐ¿Ð¾ÐºÐ¾Ð¹": 2447,
      "ĠÑģÑĤÐ°Ð½Ð¾Ð²Ð¸Ð»Ð¾ÑģÑĮ": 2448,
      "ĠÐ®ÑĢÐ°Ñģ": 2449,
      "ĠÐ±Ð»Ð°Ð³Ð¾Ð´Ð°ÑĢ": 2450,
      "ĠÐĵÑĢÐ¸Ð³Ð¾": 2451,
      "ĠÑģÐ¾Ð³Ð»Ð°Ñģ": 2452,
      "ÑĢÑĥ": 2453,
      "ÑĢÐ¸Ðº": 2454,
      "Ð²Ð¸Ð³": 2455,
      "Ð¼Ð¾Ð»": 2456,
      "ÑĪÐ¸Ðµ": 2457,
      "ÐµÐ½Ð½ÑĭÐ¼Ð¸": 2458,
      "ĠÑĢÑĥÑĩ": 2459,
      "ĠÐ³Ð°Ð»": 2460,
      "ĠÐ¾ÑĤÑĨÐ°": 2461,
      "Ð³Ð¾ÑĢ": 2462,
      "ĠÐ¿Ð¾ÐµÐ·Ð´": 2463,
      "ÑĭÐ²Ð°Ñı": 2464,
      "ĠÐ´Ð²ÑĥÑħ": 2465,
      "ĠÐ³ÑĢÑĥÐ±": 2466,
      "ĠÐ³Ð¾Ð»Ð¾Ð²Ð°": 2467,
      "ĠÐ²Ð¸Ð´Ð½Ð¾": 2468,
      "ĠÐ³Ð»Ð°Ð·Ð°Ñħ": 2469,
      "ĠÐ±Ð»ÐµÑģÑĤ": 2470,
      "ĠÐĵÐ¾Ñģ": 2471,
      "ĠÐĽÐµÐ²": 2472,
      "ÑİÑĤÑģÑı": 2473,
      "Ð»ÑıÐ»ÑģÑı": 2474,
      "ĠÑģÐ´ÐµÐ»Ð°Ð»": 2475,
      "ĠÑĤÐ¾ÑĢÐ³": 2476,
      "ĠÑĥÐ·Ð½": 2477,
      "ĠÐ±ÑĭÐ²Ð°ÐµÑĤ": 2478,
      "ĠII": 2479,
      "ĠÐ²Ð¾ÐºÑĢÑĥÐ³": 2480,
      "ĠÐŁÐ¾ÑĩÐµÐ¼Ñĥ": 2481,
      "ÑĢÑĮ": 2482,
      "ÑıÐ»Ð°": 2483,
      "ĠÐ¿Ð¾ÑĤÑĢ": 2484,
      "ĠÐ½Ð¸Ð·": 2485,
      "ĠÐ²Ð½Ñĥ": 2486,
      "ĠÐ²Ð°Ð³Ð¾Ð½": 2487,
      "ĠÐºÐ°Ñĩ": 2488,
      "ÑĪÐ¸Ñħ": 2489,
      "ĠÐ±ÐµÐ´": 2490,
      "Ð¾Ð»Ð¾Ð¶": 2491,
      "ÐµÑĢÐ¿": 2492,
      "Ð¾Ð´Ðµ": 2493,
      "ĠÐĴÐ¾": 2494,
      "ÑĭÐ²Ð°Ð»Ð°": 2495,
      "ĠÑĢÑĥÐºÐ¾Ð¹": 2496,
      "ĠÐ¿ÑĢÐ¾ÑħÐ¾Ð´": 2497,
      "ĠÑģÐ¾Ð±Ð¸ÑĢ": 2498,
      "ĠÑĨÐµÑĢÐºÐ¾Ð²": 2499,
      "ĠÐ»Ð°ÑģÐºÐ¾Ð²": 2500,
      "ĠÐľÐµÑĢÐºÑĥÐ»Ð¾Ð²": 2501,
      "ĠÐ¾ÑģÐº": 2502,
      "ĠÐºÐ¾Ñģ": 2503,
      "ĠÐ±Ð¾Ðº": 2504,
      "ĠÐ´ÑĥÑħ": 2505,
      "ÐµÐ»Ñı": 2506,
      "ÐµÐ»ÑģÑı": 2507,
      "ĠÑĢÐ¾Ð²": 2508,
      "ĠÐºÐ°ÐºÐ¸Ð¼": 2509,
      "Ð¾Ð±ÑīÐµ": 2510,
      "ÑĥÐ¶Ð´": 2511,
      "ĠÐ²ÑĭÐ³": 2512,
      "ĠÑģÐ¿Ð°ÑĤÑĮ": 2513,
      "ĠÑģÐ¿ÑĢÐ¾Ñģ": 2514,
      "ĠÐ½ÐµÐ¿Ð¾Ð½": 2515,
      "ĠÐ¿ÑĢÐµÐ´Ñģ": 2516,
      "ĠÐ²Ð¾Ð»Ðº": 2517,
      "ĠÐ·ÐµÐ¼Ð»Ðµ": 2518,
      "ĠÑĤÐ¾ÑĢÐ¶ÐµÑģÑĤÐ²": 2519,
      "ĠÑħÐ¾Ð´Ð¸Ð»": 2520,
      "ĠÐºÐ½Ð¸Ð³Ð¸": 2521,
      "Ð¾Ð²Ð¾Ð»ÑĮÑģÑĤÐ²": 2522,
      "ĠÐ¢Ð¾Ð»Ð¿ÐµÐ½": 2523,
      "ĠÑħÐ°ÑĢÐ°ÐºÑĤÐµÑĢ": 2524,
      "ĠÐ¿ÑĢÐ¾Ð³": 2525,
      "ĠÐ½ÐµÐ¾Ð±": 2526,
      "Ð½Ð¸ÑĨÑĭ": 2527,
      "ĠÐ»Ð¾ÑĪ": 2528,
      "ĠÐ¶Ð°ÑĢ": 2529,
      "ĠÐ¿Ð¾ÑģÑĤÑĥÐ¿": 2530,
      "ĠÑģÐ²Ð¸Ð´": 2531,
      "ĠÑģÐ²ÐµÐ¶": 2532,
      "ĠÐ¡Ð¿": 2533,
      "ĠÐ¸Ð·Ð±": 2534,
      "ÑĭÐ²Ð°Ð»ÑģÑı": 2535,
      "ĠÐ¾Ð´Ð½Ð¸Ð¼": 2536,
      "ĠÐ±ÑĥÐ´ÑĥÑĤ": 2537,
      "ĠÐ¿ÑĢÐ¾Ð¸Ñģ": 2538,
      "ĠÐ£Ð¶Ðµ": 2539,
      "ĠÑħÐ¾ÑĩÐµÑĤ": 2540,
      "ĠÑģÑĤÐ¾ÑıÐ»Ð°": 2541,
      "Ð½ÑĥÐ²ÑĪÐ¸ÑģÑĮ": 2542,
      "ĠÐ½Ð°Ð³": 2543,
      "ĠÑĤÐµÑĤ": 2544,
      "ĠÐ¼ÐµÐ»ÑĮ": 2545,
      "ÐµÑĤÐ°": 2546,
      "ÐµÐ²Ð°Ð»": 2547,
      "ĠÐĲÐ²": 2548,
      "ĠÐ¢Ð¾Ð³Ð´Ð°": 2549,
      "Ð°Ð³Ð°Ð½": 2550,
      "ĠÐ§ÐµÑħÐ¾Ð²Ñĥ": 2551,
      "Ð°Ð²ÑĪÐ¸Ðµ": 2552,
      "ĠÐ²ÐµÑĢÐ¾ÑıÑĤÐ½Ð¾": 2553,
      "ĠÐ´ÐµÐ²ÑĥÑĪ": 2554,
      "ĠÐ¿Ð¸ÑģÐ°ÑĤÐµÐ»Ñı": 2555,
      "ĠÐŁÐ°ÑĢÐ¼ÐµÐ½": 2556,
      "ĠÐ¼ÑĥÐ·Ñĭ": 2557,
      "ĠÑģÐºÐ²Ð¾Ð·ÑĮ": 2558,
      "ĠÐľÐ¸ÑĤÑĢÐ¾ÑĦÐ°Ð½": 2559,
      ".,": 2560,
      "ÑĢÐµÐ¼": 2561,
      "ĠÑģÐµÐ´": 2562,
      "ĠÑģÐ¾ÑģÑĤÐ°Ð²": 2563,
      "ĠÐ±ÑĥÑĢ": 2564,
      "ĠÐ¼Ð¾Ð½": 2565,
      "ĠÐ½ÐµÐ¾Ð¶": 2566,
      "ĠÐ½Ð°ÑģÑĤÑĢÐ¾": 2567,
      "Ð½Ð¸ÐºÐ¾Ð¼": 2568,
      "ĠÐ»Ð¸Ñĩ": 2569,
      "Ð±Ð°": 2570,
      "Ð¾ÑĤÑĭ": 2571,
      "ĠÑģÑĤÑĥÑĩ": 2572,
      "Ð¸Ð¼ÑģÑı": 2573,
      "ĠÐĿÐ¾Ð²": 2574,
      "Ð°ÑĢÑĭÐ³": 2575,
      "ĠÐºÑĢÑĭÑĪ": 2576,
      "ĠÐļÐ°Ñĩ": 2577,
      "ĠÐ´ÑĢÑĥÐ³Ð¾": 2578,
      "ĠÐķÐ²": 2579,
      "ĠÐ½Ð°ÑĩÐ¸Ð½Ð°": 2580,
      "ĠÐ·Ð°Ð¿Ð°Ñħ": 2581,
      "ĠÐŁÐµÑĤÑĢÐ¾Ð²Ð¸ÑĩÐ°": 2582,
      "ĠÐĲÐ»ÐµÐºÑģÐµÐ¹": 2583,
      "ĠÑĩÐµÑĤÑĭÑĢ": 2584,
      "ĠÐ¿Ð»Ð°Ñĩ": 2585,
      "ĠÐ¾Ð±ÑĬÑıÑģÐ½": 2586,
      "ÑİÑĪÐºÐ°": 2587,
      "Ð½Ð°Ðº": 2588,
      "Ð»Ð¸ÑģÑĮ": 2589,
      "ĠÑģÑĥÑĢ": 2590,
      "ÑĩÐ°ÑĤ": 2591,
      "ĠÐºÐ°Ð·Ð°Ð»": 2592,
      "ÑĪÐ¸Ð±": 2593,
      "ĠÐ´ÐµÐ»Ð°": 2594,
      "ĠÐ¼ÐµÑĪ": 2595,
      "ĠÐ¿ÑĢÐ¸Ð¼": 2596,
      "Ð¾Ð´Ð¸Ð»": 2597,
      "ĠÐµÑħ": 2598,
      "ĠÑĥÑĩÐ°ÑģÑĤ": 2599,
      "ĠÐ±ÑĭÑģÑĤÑĢ": 2600,
      "ĠÐ»Ð¾Ð²": 2601,
      "Ð¸Ð²Ð°Ð»Ð°": 2602,
      "ĠÑįÐº": 2603,
      "ÐµÐ³Ð¾ÑģÑı": 2604,
      "ĠÑĪÐ¿": 2605,
      "Ð¾Ð²Ð¾ÑĢÐ¸Ð»": 2606,
      "ĠÐ³ÑĢÑĥÑģÑĤ": 2607,
      "ÑĥÐ²Ð¾ÑĢ": 2608,
      "ĠÐ±Ð»Ð¸Ð¶": 2609,
      "ĠÐ»Ð¸ÑĨÐµ": 2610,
      "ĠÐ½Ð°Ð¿ÑĢÐ°Ð²": 2611,
      "ĠÐ¿Ð¾Ð·Ð´Ð½Ð¾": 2612,
      "ĠÐ·Ð°Ð²ÑĤÑĢÐ°": 2613,
      "ĠÐĿÐ¸ÐºÐ¾Ð»Ð°": 2614,
      "ĠÐ»ÐµÐ³ÐºÐ¾": 2615,
      "ĠÐ¨Ð°ÑĢÑĭÐ³": 2616,
      "________": 2617,
      "ĠÑģÐ¾Ð·Ð½Ð°": 2618,
      "ĠÐ½ÐµÐ·Ð½Ð°ÐºÐ¾Ð¼": 2619,
      "ĠÑħÑĥÐ´Ð¾Ð¶": 2620,
      "ĠÐ¾ÑģÑĤÐ¾ÑĢÐ¾Ð¶Ð½Ð¾": 2621,
      "ĠÐĿÐ¾ÑĢÐ´ÐµÐ½": 2622,
      "ĠÐ½ÐµÐ¾Ð¶Ð¸Ð´": 2623,
      "Ð¾ÑģÑĤÑĮÑİ": 2624,
      "ÑĮÐµ": 2625,
      "ĠÐ¾ÑĦÐ¸ÑĨ": 2626,
      "Ð¼Ð¸ÑĤ": 2627,
      "Ð¾Ð²Ð¸": 2628,
      "ÐµÐ»Ñİ": 2629,
      "ĠÐ¼Ð°Ð¼Ð°": 2630,
      "ĠÑĢÑĥÐ³": 2631,
      "ĠÐ³ÑĥÑģÑĤ": 2632,
      "Ð¾ÑĤÐµ": 2633,
      "Ð°Ð½Ð¾Ð²Ð¸Ñĩ": 2634,
      "ĠÐĴÐ°Ð»Ñı": 2635,
      "ÑıÑĤÑģÑı": 2636,
      "ĠÐ¿Ð¾Ð´ÑĢ": 2637,
      "ĠÐ§Ð¸ÑģÑĤ": 2638,
      "ĠÐ¿ÐµÑĢÐµÐ²": 2639,
      "ÑĭÑħÐ°Ð»": 2640,
      "Ð¾ÑĪÐ»Ð°": 2641,
      "ĠÐ¿ÑĢÐ¸ÑıÑĤ": 2642,
      "ĠÑģÐ°Ð¼Ð¾Ðµ": 2643,
      "ĠÑĤÑĢÐµÐ²": 2644,
      "ĠÐ¾ÐºÐ¾Ð½Ñĩ": 2645,
      "ÐµÑģÑĤÐ²Ð°": 2646,
      "ĠÐ¿Ð¸ÑģÐ°ÑĤÐµÐ»ÑĮ": 2647,
      "ĠÑĩÐ°ÑģÐ¾Ð²": 2648,
      "ĠÑģÐ»ÑĥÑĩÐ°": 2649,
      "ĠÐ·ÐµÐ¼Ð»Ñİ": 2650,
      "Ð¾ÑīÐ°Ð´": 2651,
      "ĠÑģÐ¸Ð»Ñĭ": 2652,
      "ĠÑģÐ¸Ð»ÑĮÐ½Ð¾": 2653,
      "ĠÐ·Ð°Ð¼ÐµÑĤÐ¸Ð»": 2654,
      "ĠÐ²Ð·Ð´Ð¾Ñħ": 2655,
      "ĠÑĦÐ¾Ð½Ð°ÑĢ": 2656,
      "ĠÐ¿Ð»Ð°ÑĤÑĮÐµ": 2657,
      "Ð¯": 2658,
      "Ð»Ð¸Ðº": 2659,
      "ĠÐ¿ÑĥÐ³": 2660,
      "ÑĩÐµÑĢÐ°": 2661,
      "ĠÐ´Ð¾Ð¶Ð´": 2662,
      "ĠÑĩÐ°Ð¹": 2663,
      "ĠÐ·Ð¾Ð»": 2664,
      "ĠÐ·Ð°Ð¶": 2665,
      "ÑĨÐµÐ¼": 2666,
      "Ð¾Ð½ÐµÑĩ": 2667,
      "Ð½ÑĥÐ»Ð¸": 2668,
      "ÐµÑħÐ°Ð»": 2669,
      "ĠÑĢÐ°Ð·ÑĢ": 2670,
      "ĠÐ¢Ð¸Ð¼Ð¾": 2671,
      "Ð»Ð°ÑĪ": 2672,
      "ĠÐ¾Ð´Ð½Ð¸": 2673,
      "Ð¾Ð¿ÑĭÑĤ": 2674,
      "Ð¸ÑĢÐ¾Ñģ": 2675,
      "ĠÐ»Ð¸ÑĪ": 2676,
      "ĠÐ´Ð²ÐµÑĢ": 2677,
      "ĠÑĤÑĢÐ°Ð²": 2678,
      "ĠÑĩÐµÑĢÐ½ÑĭÐµ": 2679,
      "ÑĦÐ¾ÑĢ": 2680,
      "ĠÐĵÐ°ÑĢ": 2681,
      "ĠÐĹÐ½Ð°": 2682,
      "ĠÐ³Ð¾Ð»Ð¾Ð²Ñĭ": 2683,
      "ĠÐ²Ð¾Ð»Ð½": 2684,
      "ĠÑĥÐ´Ð¾Ð²Ð¾Ð»ÑĮÑģÑĤÐ²": 2685,
      "ĠÑĢÐ°ÑģÑģÐºÐ°Ð·ÑĭÐ²Ð°Ð»": 2686,
      "ĠÐ´ÑĥÑĪÐµ": 2687,
      "ĠÐ¸Ð´ÑĤÐ¸": 2688,
      "ĠÐ»ÐµÐ¶Ð°Ð»": 2689,
      "ĠÐŀÐ´Ð¸Ð½": 2690,
      "ĠÑĥÐ»Ð¸ÑĨÐµ": 2691,
      "ĠÑĤÑĢÑĥÐ´Ð½Ð¾": 2692,
      "ĠÐķÐ»ÐµÐ°Ð·Ð°ÑĢ": 2693,
      "ĠÐ½ÐµÐ»ÐµÐ¿": 2694,
      "ĠÐĵÐ¾ÑģÐ¿Ð¾Ð´": 2695,
      "ĠÐļÐ°ÑĩÐµÑĢ": 2696,
      "Ðĵ": 2697,
      "Ð°ÑĪÐµ": 2698,
      "ĠÐ¿Ð¾Ð¹Ð´": 2699,
      "ĠÐ½ÐµÐ³": 2700,
      "Ð°Ð»Ðµ": 2701,
      "ĠÑĤÑĥÐ¼": 2702,
      "Ð¾Ð»Ðº": 2703,
      "ÐµÑĢÐ²Ð°": 2704,
      "ĠÐ¼ÐµÑĤ": 2705,
      "ĠÐ¼Ð½Ð¾Ñİ": 2706,
      "Ð¾Ð³ÑĢÐ°ÑĦ": 2707,
      "Ð°Ð½Ðµ": 2708,
      "Ð¾ÐºÐ°": 2709,
      "ĠÑģÐ²ÐµÑĩ": 2710,
      "ĠÐºÑĢÑĥÐ¿": 2711,
      "ÐµÐ½Ð½Ð¾ÑģÑĤÑĮ": 2712,
      "ĠÐ¯ÐºÐ¾Ð²": 2713,
      "ĠÑģÐ°Ð¼ÑĭÐ¹": 2714,
      "ĠÑĢÑĥÐºÐ°": 2715,
      "ĠÐ¾ÐºÑĢÑĥÐ¶": 2716,
      "ĠÐ¾Ð¿ÑĥÑģÑĤ": 2717,
      "Ð°ÑĩÐµÐ¼": 2718,
      "ĠÐ·Ð²ÑĥÐº": 2719,
      "ĠÐ¥Ð¾ÑĢÐ¾ÑĪ": 2720,
      "ĠÐ¸ÑģÐºÑĢ": 2721,
      "ĠÐ¸ÑģÑĤÐ¾ÑĢ": 2722,
      "ĠÐ±Ð¾ÑĢÐ¾Ð´": 2723,
      "ĠÐ·Ð°ÑĤÐµÐ¼": 2724,
      "ĠÐĳÐ°ÑĢÐ³Ð°Ð¼": 2725,
      "ÑĤÑı": 2726,
      "ĠÑģÐ¶": 2727,
      "ĠÑģÐ°Ð¼Ð¸": 2728,
      "ĠÐ¾Ð²": 2729,
      "ĠÐ¼ÐµÑģÑĤÐµ": 2730,
      "Ð¾Ð¼Ðµ": 2731,
      "ĠÐ·Ð¾Ð²": 2732,
      "ĠÐ»ÐµÑģÑĤ": 2733,
      "ĠÑģÑĤÐ¾Ð½": 2734,
      "Ð³Ð°": 2735,
      "ĠÐ¿Ð¾ÑģÑĤÐ°Ð²": 2736,
      "ÐµÑģÑģ": 2737,
      "ĠÐ¾Ð±ÑıÐ·": 2738,
      "ĠÐ¡Ð°Ð¼": 2739,
      "ĠÑģÐ»Ð°Ð²": 2740,
      "ÐºÐ¸Ð½Ð°": 2741,
      "ĠÐ¢ÑĥÑĤ": 2742,
      "ĠÐ¯Ð»": 2743,
      "ĠÑĨÐµÐ»Ð¾Ð²": 2744,
      "ĠÑģÑĤÑĢÐ¾Ð³Ð¾": 2745,
      "ĠÐ¾ÐºÐ½Ð¾": 2746,
      "ĠÐ¼Ð¾ÐµÐ³Ð¾": 2747,
      "ĠÐ·Ð²ÑĥÐºÐ¸": 2748,
      "ĠÐ¾ÑĤÐ²ÐµÑĤÐ¸Ð»Ð°": 2749,
      "ĠÐ¼Ð°Ð»ÐµÐ½ÑĮÐºÐ¸Ð¹": 2750,
      "ĠÐ¼Ð¾Ð»Ð¾Ð´Ð¾Ð¹": 2751,
      "ĠÑģÐ¾ÑģÐµÐ´": 2752,
      "ĠÐ¾ÑĤÑĤÐ¾Ð³Ð¾": 2753,
      "ĠÑĨÐµÑĢÐºÐ²": 2754,
      "ĠÐ¡Ð°ÑĪÐºÐ°": 2755,
      "ĠÐ¿Ð°Ð¿Ð¸ÑĢÐ¾Ñģ": 2756,
      "ÑĦÐµÐµÐ²Ð¸Ñĩ": 2757,
      "ĠÐľÐ¸ÑħÐ°Ð¹": 2758,
      "ĠÐ®ÑĢÐ°ÑģÐ¾Ð²": 2759,
      "Ð°Ð³Ð°Ð½ÑĢÐ¾Ð³": 2760,
      "),": 2761,
      "Ð¾Ñı": 2762,
      "Ð¸ÑĤÐ¾": 2763,
      "ĠÑģÑĥÐ´ÑĮ": 2764,
      "ĠÐ¿ÑıÑĤÑĮ": 2765,
      "ĠÐ¿ÑĥÐ±Ð»": 2766,
      "ĠÐ²Ð²ÐµÑĢ": 2767,
      "ÐµÐ½ÑĤÐ°": 2768,
      "ÐµÑĢÐ´": 2769,
      "Ð¾ÑĢÐ±": 2770,
      "Ð°Ð½Ð½ÑĭÑħ": 2771,
      "Ð¾ÐºÑĢ": 2772,
      "ĠÐĴÐ°Ð¼": 2773,
      "ÐµÐ¶Ð½Ð¾": 2774,
      "ĠÑĢÑĥÐºÐ°Ñħ": 2775,
      "ĠÐ±Ð¾Ð»ÑĮÐ½Ð¾": 2776,
      "ĠÐ±ÐµÐ·Ð·": 2777,
      "Ð»Ð¸Ð²ÑĭÐ¹": 2778,
      "ĠÑĦÐ°Ðº": 2779,
      "ĠÐ¾Ð¿ÑĢÐµÐ´ÐµÐ»": 2780,
      "ÐµÑģÑĤÐ²Ð¾": 2781,
      "ĠÐ·Ð°ÐºÑĢÐ¸Ñĩ": 2782,
      "ĠÐ¶ÐµÐ»ÑĤ": 2783,
      "ĠÐ·Ð°Ð±ÑĭÐ»": 2784,
      "ĠÐºÐ¾ÑĢÐ¸Ð´": 2785,
      "ĠÐºÑĢÐ¸ÐºÐ½ÑĥÐ»": 2786,
      "ĠÑģÐ»ÐµÐ·Ñĭ": 2787,
      "ĠÐ³Ð¾ÑģÐ¿Ð¾Ð´Ð¸Ð½": 2788,
      "ĠÐ¿Ð¾ÑģÑĤÐ¾ÑıÐ½Ð½Ð¾": 2789,
      "ÑĥÐºÑĥÑĪ": 2790,
      "ĠÑĥÐ³ÑĢÑİÐ¼": 2791,
      "ĠÐ´ÑĢÑĥÐ³Ð¾Ðµ": 2792,
      "Ġ*": 2793,
      "Ð°Ð½Ð°": 2794,
      "Ð»Ð°Ð²": 2795,
      "ÑĮÐ¼Ð¸": 2796,
      "Ð¼ÐµÑĪ": 2797,
      "ĠÐ¼Ð¸Ð¼Ð¾": 2798,
      "Ð½Ð¸ÐµÐ¼": 2799,
      "ĠÐ¾ÑĤÐ½Ð¾Ñģ": 2800,
      "ĠÐŁÐ¾Ð»": 2801,
      "Ð¾Ð±Ñī": 2802,
      "ĠÑĤÐ°ÐºÐ¾Ð³Ð¾": 2803,
      "ÐµÐºÐ°": 2804,
      "ĠÐ¾Ð±Ð²": 2805,
      "ĠÐľÐµÐ»": 2806,
      "ĠÑĪÐ»Ð¸": 2807,
      "ĠÐ¿ÑĢÐ¸ÑģÑĤÐ°Ð²": 2808,
      "ĠÐ¼Ð¾Ð¸Ñħ": 2809,
      "ĠÐ·Ð½Ð°ÑĩÐ¸ÑĤ": 2810,
      "ĠÐĹÐ°ÑĩÐµÐ¼": 2811,
      "Ð¸Ð²ÑĪÐ¸Ð¹": 2812,
      "ĠÐ¾Ð³Ð¾Ð½ÑĮ": 2813,
      "ĠÐ¿Ð¾ÑĢÑıÐ´": 2814,
      "ĠÐ²Ð¾ÑģÑĤÐ¾ÑĢ": 2815,
      "ĠÑģÐ¼ÐµÑıÐ»ÑģÑı": 2816,
      "ĠÐľÐ¾ÑģÐºÐ²Ñĥ": 2817,
      "ĠÐµÐ´Ð²Ð°": 2818,
      "ĠÐ¿Ð»Ð°ÐºÐ°Ð»": 2819,
      "ĠÐ¿ÑĢÐ¾Ð´Ð¾Ð»Ð¶Ð°Ð»": 2820,
      "Ð½ÑİÑİ": 2821,
      "ĠÐ¾Ð¶Ð¸Ð´Ð°": 2822,
      "ĠÐ½ÐµÐ¸Ð·Ð²ÐµÑģÑĤ": 2823,
      "ĠÐ´Ð¾Ð²Ð¾Ð»ÑĮÐ½Ð¾": 2824,
      "ĠÐ·ÐµÐ»ÐµÐ½": 2825,
      "ĠÐ§Ð¸ÑģÑĤÑı": 2826,
      "Ð°Ð½Ñĭ": 2827,
      "Ð»Ð¸Ð·": 2828,
      "ĠÐ¿ÑĥÑģÑĤÐ¾": 2829,
      "ĠÐ½Ð¾Ð¶": 2830,
      "ĠÐ¾Ð·": 2831,
      "Ð´Ð¸": 2832,
      "ĠÑĤÐ²": 2833,
      "ĠÐ¼ÐµÐ½": 2834,
      "ÑģÑıÑĤ": 2835,
      "Ð¾ÑģÑģ": 2836,
      "Ð°Ð²Ð°Ð»": 2837,
      "Ð¸Ð²Ð°Ð»Ð¸ÑģÑĮ": 2838,
      "Ð·Ð´": 2839,
      "ĠÐ¾ÑĤÐ²ÐµÑĢ": 2840,
      "ĠÑħÑĢ": 2841,
      "ĠÑħÐ¾ÑħÐ¾ÑĤ": 2842,
      "ĠÐŀÑĩ": 2843,
      "ĠÐ·Ð°ÑģÑĤÐ°Ð²": 2844,
      "ĠÐļÑĥÐºÑĥÑĪ": 2845,
      "ĠÐ¿Ð¾Ð»Ñĥ": 2846,
      "ĠÐ¿ÑĢÐ¸ÑıÑĤÐ½Ð¾": 2847,
      "ĠÐ»ÑİÐ±Ð¸ÑĤ": 2848,
      "ĠÐ¸Ð¼ÐµÐ»": 2849,
      "ĠÐ¿Ð¾Ð½ÑıÑĤÑĮ": 2850,
      "ĠÐ²Ð¾ÑģÐºÑĢÐµÑģ": 2851,
      "ĠÑģÐ´ÐµÐ»Ð°ÑĤÑĮ": 2852,
      "ĠÐ¡ÐµÑĢÐ³ÐµÑı": 2853,
      "ĠÐ³ÑĥÐ±Ñĭ": 2854,
      "ĠÐ²Ð·Ð³Ð»ÑıÐ½ÑĥÐ»": 2855,
      "ĠÑĢÐ°Ð²Ð½Ð¾Ð´ÑĥÑĪÐ½Ð¾": 2856,
      "ĠÐĳÑĭÐ»Ð¾": 2857,
      "ĠÐĺÐ³Ð½Ð°ÑĤÐ¸Ð¹": 2858,
      "ĠÐ¡ÑĤÐµÐ¿Ð°Ð½Ð¾Ð²Ð¸Ñĩ": 2859,
      "ĠÐ½ÐµÐ¾Ð±ÑħÐ¾Ð´": 2860,
      "ĠÐľÐµÐ»Ð¸Ñħ": 2861,
      "--": 2862,
      "90": 2863,
      "ÐĽ": 2864,
      "ĠÐ²ÑħÐ¾Ð´": 2865,
      "ĠÐ¾ÑĪÐ¸Ð±": 2866,
      "ÑĪÐµÐ¹": 2867,
      "ĠÐ±Ð¸Ð»": 2868,
      "ĠÐ´Ð¾Ð¿": 2869,
      "ĠÐ¼Ð¾Ð·": 2870,
      "ĠÑĢÐ°Ð±": 2871,
      "ĠÑĢÑĥÐ±Ð»": 2872,
      "Ð½Ð¸ÐºÐµ": 2873,
      "ĠÑĥÑĪÐµÐ»": 2874,
      "Ð¾ÑĤÐµÐ»": 2875,
      "ĠÐ¾ÑĤÐ´ÐµÐ»": 2876,
      "Ð°Ð½Ð½Ð¾Ðµ": 2877,
      "ĠÐŁÐµÑĤÑĮ": 2878,
      "ĠÑħÐ¾Ð»": 2879,
      "Ð¾Ð·Ð¼": 2880,
      "ĠÐºÑĢÐ°Ð¹": 2881,
      "ĠÐºÐ¾ÑĤÐ¾ÑĢÐ¾Ð¼Ñĥ": 2882,
      "Ð¾ÑĩÐºÑĥ": 2883,
      "Ð¸ÑĤÐµÐ»ÑĮÐ½ÑĭÐ¼": 2884,
      "ĠÑģÑĤÑĢÐ¾Ð³": 2885,
      "ĠÐ·Ð½Ð°ÑĤÑĮ": 2886,
      "ĠÐºÐ¾Ð»ÐµÐ½Ð¸": 2887,
      "ĠÐ³Ð¾Ð»Ð¾ÑģÐ¾Ð¼": 2888,
      "ĠÑĢÐ°Ð´Ð¾ÑģÑĤÐ¸": 2889,
      "ĠÑĥÐ»ÑĭÐ±Ð½ÑĥÐ»ÑģÑı": 2890,
      "ĠÐ´ÐµÐ½ÑĮÐ³Ð¸": 2891,
      "ĠÐķÐ³Ð¾ÑĢ": 2892,
      "ĠÐ¿ÑĢÐ¸Ð²ÑĭÑĩ": 2893,
      "ĠÐºÑĢÐ¸ÑĩÐ°Ð»": 2894,
      "ĠÐ·Ð°Ð½ÑıÑĤ": 2895,
      "ĠÐ·ÑĥÐ±Ñĭ": 2896,
      "ĠÐ·Ð°Ð³Ð°Ð´Ð¾Ñĩ": 2897,
      "ĠÐ¿Ð°Ð¼ÑıÑĤ": 2898,
      "ĠÑĦÐ¸Ð³ÑĥÑĢ": 2899,
      "ĠÐ»Ð¾ÑĪÐ°Ð´": 2900,
      "ĠÐ¢Ð¸Ð¼Ð¾ÑĦÐµÐµÐ²Ð¸Ñĩ": 2901,
      "Ġ2": 2902,
      "ÑģÐµÐ³Ð´Ð°": 2903,
      "ĠÐ¾ÑħÐ²Ð°ÑĤ": 2904,
      "ĠÐ±ÐµÐ¶": 2905,
      "ĠÑĤÐ¾Ð±": 2906,
      "ĠÑĤÐ°Ð¹": 2907,
      "ĠÐ´Ð¸Ð²": 2908,
      "ĠÑĥÑĢ": 2909,
      "Ð±Ðµ": 2910,
      "Ð¾ÑĤÑĮ": 2911,
      "Ð¸Ð²Ð°ÐµÑĤÑģÑı": 2912,
      "Ð¸Ð²Ð°ÑıÑģÑĮ": 2913,
      "ĠÑħÐ²Ð°ÑĤ": 2914,
      "ĠÑģÐ²ÑıÐ·": 2915,
      "Ð°Ð¶Ð¸": 2916,
      "ĠÐ¾Ð±Ð¾ÑĢ": 2917,
      "ĠÐ¡Ð¼Ð¾ÑĤÑĢ": 2918,
      "ĠÐºÑĢÐ¾Ð¼Ðµ": 2919,
      "ĠÐ³Ð¾ÑĢÐ¾Ð´Ð°": 2920,
      "ĠÐĳÑĥÐ´": 2921,
      "ĠÐ¼Ð¾Ð³Ð»Ð¸": 2922,
      "ĠÐ·Ð½Ð°Ð»Ð°": 2923,
      "Ð°Ð²ÑĪÐ°Ñı": 2924,
      "ĠÐ±Ð¾Ð»ÑĮÑĪÐ¸Ðµ": 2925,
      "ĠÐ´ÐµÐ»Ð°Ð»": 2926,
      "ĠÐ¿Ð¾Ð·Ð½Ð°ÐºÐ¾Ð¼": 2927,
      "ĠÐ½ÐµÐ´Ð¾": 2928,
      "ĠÐ¶ÐµÐ½ÑīÐ¸Ð½": 2929,
      "ĠÑĤÐ¾ÑĤÑĩÐ°Ñģ": 2930,
      "ĠÐ·ÐµÐ¼Ð»Ð¸": 2931,
      "ĠÐ½Ð°Ð²ÐµÑĢ": 2932,
      "ĠÐ²Ð·Ð³Ð»ÑıÐ´Ð¾Ð¼": 2933,
      "ĠÐĲÐ½Ð´ÑĢÐµ": 2934,
      "ĠÐ½ÐµÐ¿ÑĢÐ¸ÑıÑĤ": 2935,
      "ĠÐ¿Ð¾Ð¶Ð°Ð»ÑĥÐ¹ÑģÑĤÐ°": 2936,
      "ĠÐĵÐ°ÑĢÐ°ÑģÑĮ": 2937,
      "ĠÑģÐµÐº": 2938,
      "ĠÑģÑħÐ²Ð°ÑĤ": 2939,
      "ĠÐ¸ÑģÑĤ": 2940,
      "ĠÐºÑĥÑħ": 2941,
      "ĠÑĤÐµÐ½Ð¸": 2942,
      "ĠÐ´ÑĭÑĪ": 2943,
      "Ð¾Ð¹ÑĤÐ¸": 2944,
      "ĠÐ³Ñĥ": 2945,
      "Ð°Ð²Ð½Ð¾": 2946,
      "ÐµÐ´Ñĥ": 2947,
      "ĠÐºÐ°ÐºÐ¾Ð³Ð¾": 2948,
      "ĠÐºÐ°ÐºÑĥÑİ": 2949,
      "ĠÐ¾Ð±ÑĭÑĩ": 2950,
      "ĠÑĤÐ¾Ñĩ": 2951,
      "ĠÐ¿ÐµÑĢÐµ": 2952,
      "ĠÐ´ÑĢÑĥÐ·": 2953,
      "ĠÐĶÐ¼Ð¸ÑĤ": 2954,
      "ĠÐ»Ð¸ÑĪÑĮ": 2955,
      "ĠÑģÐ°Ð¼Ð¾Ð¼Ñĥ": 2956,
      "ĠÐ³Ð¾ÑĢÑĮ": 2957,
      "ĠÐķÑīÐµ": 2958,
      "ĠÐķÐ¼Ñĥ": 2959,
      "Ð½ÑıÑı": 2960,
      "ĠÐ·Ð²Ñĥ": 2961,
      "ĠÑģÐ²ÐµÑĤÐµ": 2962,
      "ĠÑħÐ¾ÑĢÐ¾ÑĪÐ¸Ð¹": 2963,
      "ĠÐ²Ð¾Ð¾Ð±ÑīÐµ": 2964,
      "ĠÐ¾ÑģÑĤÐ°Ð»ÑģÑı": 2965,
      "ÑĤÑĢÐ¸": 2966,
      "ĠÐ´ÑĥÑĪÐ¸": 2967,
      "ĠÐŀÑĤÐµÑĨ": 2968,
      "ĠÑģÐ¼ÐµÑıÐ»Ð¸ÑģÑĮ": 2969,
      "ĠÑģÑĤÐµÐ½Ñĭ": 2970,
      "ĠÐ¼ÑĥÐ¶Ñĩ": 2971,
      "ĠÐ³Ð»ÑıÐ´Ñı": 2972,
      "ĠÐŁÐ¾ÑģÐ»Ðµ": 2973,
      "ĠÐ¿Ð»Ð°ÐºÐ°ÑĤÑĮ": 2974,
      "ĠÑģÑĤÑĢÐ°ÑħÐ°": 2975,
      "ĠÐ¶ÑĥÑĢÐ½": 2976,
      "ĠÐ¾ÑĤÐ¿ÑĢÐ°Ð²": 2977,
      "ĠÐ²Ð¾ÑģÐ¿Ð¾Ð¼Ð¸Ð½Ð°Ð½Ð¸Ñı": 2978,
      "ĠÐ²ÑģÐ¿Ð¾Ð¼Ð½Ð¸Ð»": 2979,
      "ĠÐ¾ÑīÑĥÑī": 2980,
      "ĠÐ¾ÑģÐ²ÐµÑī": 2981,
      "ĠÐ²Ð½ÐµÐ·Ð°Ð¿Ð½Ð¾": 2982,
      "ĠÐ´Ð¾Ð³Ð°Ð´": 2983,
      "ĠÐ¢Ð¾Ð»Ð¿ÐµÐ½Ð½Ð¸ÐºÐ¾Ð²": 2984,
      "Ð½Ð°ÐºÐ¾": 2985,
      "ÑıÐ½ÑĮ": 2986,
      "ÑĭÑģÐº": 2987,
      "ÑĮÐ¸": 2988,
      "ĠÑģÐ¾Ð´": 2989,
      "ĠÑģÐ°Ð¿": 2990,
      "ĠÐ½ÐµÐº": 2991,
      "ĠÐºÑĥÐ»": 2992,
      "ĠÐ´ÑĭÑħ": 2993,
      "Ð¾ÑĢÑĭ": 2994,
      "ÑĨÐ¾Ð²": 2995,
      "Ð¾Ð³Ð¸": 2996,
      "ĠÐ¶Ð°Ð´": 2997,
      "Ð°ÑĢÐ¾Ð²": 2998,
      "ÑĥÐ¶Ðµ": 2999,
      "ĠÐĲÐ»": 3000,
      "ĠÐ¢Ð¾": 3001,
      "Ð¾ÑĩÑĮ": 3002,
      "Ð¾ÑĩÐºÐ¸": 3003,
      "ÐºÑĥÑģ": 3004,
      "ĠÐ¿Ð¾ÐºÐ°Ð·Ð°Ð»Ð¾ÑģÑĮ": 3005,
      "ĠÑĨÐµÐ½": 3006,
      "ĠÑģÑĤÑĢÐµÐ¼": 3007,
      "ĠÐ²Ð¾Ð·Ð»Ðµ": 3008,
      "ÐµÐ½ÑĮÐºÐ°Ñı": 3009,
      "ÐµÐ½ÑĮÐºÐ¸Ðµ": 3010,
      "ĠÑģÐ¾Ð±ÑĢ": 3011,
      "ĠÐ½Ð¸ÐºÐ¾Ð³Ð¾": 3012,
      "ĠÐ¿ÑĢÐµÐ´Ð»Ð¾Ð¶": 3013,
      "ĠÑģÐ²ÐµÑĤÐ°": 3014,
      "ĠÐ·Ð°Ð¿Ð»Ð°Ðº": 3015,
      "ĠÐ¿Ð¾Ð·Ð´": 3016,
      "ĠÐ´ÑĥÑĪÐ°": 3017,
      "ĠÐ½Ð¾Ð³Ð°Ð¼Ð¸": 3018,
      "ÑĭÐ»ÑĮ": 3019,
      "ĠÐ¿Ð¾Ð¼Ð¾Ð³": 3020,
      "ĠÐ¸ÑģÐ¿ÑĭÑĤ": 3021,
      "ĠÑħÐ¾Ð»Ð¾Ð´Ð½Ð¾": 3022,
      "ĠÑĥÐ·Ð½Ð°Ð»": 3023,
      "ĠÐ¿Ð°Ð»ÑĮÑĤÐ¾": 3024,
      "Ð½ÑĥÑĤÑĮÑģÑı": 3025,
      "ĠÐ²ÐµÑĩÐµÑĢÐ¾Ð¼": 3026,
      "ĠÐ¿Ð¾Ð»ÑĥÑĩÐ¸Ð»": 3027,
      "ĠÐ¾ÑģÑĤÐ°Ð½Ð¾Ð²Ð¸Ð»ÑģÑı": 3028,
      "ĠÐºÐ¾Ð»Ð¾ÐºÐ¾Ð»": 3029,
      "ĠÐ¿Ð»Ð¾ÑħÐ¾": 3030,
      "ĠÑģÑĩÐ°ÑģÑĤÑĮÐµ": 3031,
      "ĠÑĤÐ¾ÑĢÐ³Ð¾Ð²": 3032,
      "?..": 3033,
      "ĠÑģÐ¸Ñı": 3034,
      "ĠÐ²Ð°Ð¼Ð¸": 3035,
      "ÑĤÐ¾ÑıÑĤÐµÐ»ÑĮ": 3036,
      "ĠÑĤÐ°Ð½ÑĨ": 3037,
      "ĠÐ¼ÐµÑģÑı": 3038,
      "ĠÐ·Ð²ÐµÑĢ": 3039,
      "ĠÐ¿ÑĢÐµÐ·": 3040,
      "ĠÐ½ÐµÑİ": 3041,
      "Ð¾ÑģÐ¾Ð±": 3042,
      "Ð¾ÑĢÐ¾Ð½": 3043,
      "Ð¿Ð°ÑĤ": 3044,
      "ÑĨÐµÐ²": 3045,
      "Ð½Ð°ÑĩÐµ": 3046,
      "ĠÐ¾ÑĤÐ±": 3047,
      "Ð°Ð½Ð½Ð°Ñı": 3048,
      "ÐµÐ·Ð´Ð°": 3049,
      "Ð¸ÐºÐ¾Ð¼": 3050,
      "ÐµÐºÐ¸": 3051,
      "Ð¾Ð·Ð¾Ð²": 3052,
      "ĠÐ¡ÑĥÐ²Ð¾ÑĢ": 3053,
      "ĠÐ¿Ð¾Ð´Ð»": 3054,
      "ĠÑģÐºÑĢÐ¸Ð¿": 3055,
      "ĠÐºÑĢÐµÑģÑĤ": 3056,
      "ÑĭÐ²Ð°ÐµÑĤÑģÑı": 3057,
      "ĠÐ¾Ð´Ð½Ð°Ð¶Ð´Ñĭ": 3058,
      "Ð¾Ð²Ð°Ð½Ð¸Ðµ": 3059,
      "ĠÐ³Ð¾Ð»Ð¾Ð´": 3060,
      "ĠÐ¿ÑĢÐ¸ÑģÑı": 3061,
      "Ð¸ÑĤÐµÐ»ÑĮÐ½Ð¾Ð¹": 3062,
      "Ð¸ÑĤÐµÐ»ÑĮÐ½Ð¾Ðµ": 3063,
      "ĠÐ¿Ð¾ÐºÐ°Ð·": 3064,
      "ĠÐ³Ð¾Ð²Ð¾ÑĢÑıÑĤ": 3065,
      "ĠÐ¾Ð¿Ð°Ñģ": 3066,
      "ĠÐ¿ÑĢÐ¾Ñī": 3067,
      "ĠÐ·Ð½Ð°ÐµÑĪÑĮ": 3068,
      "ĠÑĢÐ°ÑģÑģÐºÐ°Ð·Ð¾Ð²": 3069,
      "ĠÐ¿Ð¾Ð·Ð²Ð¾Ð»": 3070,
      "ĠÑģÑĤÐ¾ÑĢÐ¾Ð¶": 3071,
      "ĠÐ½Ð¾Ð²ÑĭÐµ": 3072,
      "ĠÐ¿ÑĢÐ¸ÑħÐ¾Ð´Ð¸Ð»Ð¾ÑģÑĮ": 3073,
      "ĠÑĤÐ°Ð¸Ð½ÑģÑĤÐ²": 3074,
      "ĠÐ¾ÑĤÑĤÑĥÐ´Ð°": 3075,
      "ĠÐ¿Ð¾Ð²ÑĤÐ¾ÑĢÐ¸Ð»": 3076,
      "ĠÐ½ÐµÐ¿Ð¾Ð´Ð²Ð¸Ð¶Ð½Ð¾": 3077,
      "ĠÐ²Ð½Ð¸Ð·Ñĥ": 3078,
      "ĠÐ»ÑİÐ±Ð¾Ð²ÑĮ": 3079,
      "ĠÐ½Ð°ÑģÑĤÐ¾Ð¹": 3080,
      "ĠÐ±ÐµÑģÐºÐ¾Ð½ÐµÑĩ": 3081,
      "Ð¼Ð¾Ð»Ð²": 3082,
      "},": 3083,
      "Ð½Ð°Ð´": 3084,
      "ÑĥÑĢÐ°": 3085,
      "ĠÑģÐ¸Ð½": 3086,
      "ĠÑģÑĬ": 3087,
      "ĠÐ¿ÐµÐ»": 3088,
      "ĠÐ²Ð¾Ð²": 3089,
      "ĠÐºÐ°Ñģ": 3090,
      "ĠÐºÐ²Ð°ÑĢ": 3091,
      "Ð¾Ð²Ð°ÑĤÑĮÑģÑı": 3092,
      "ÐµÐ½Ðµ": 3093,
      "ĠÑĤÑĥÑģÐº": 3094,
      "ĠÐ´Ð¾Ð½": 3095,
      "ĠÐ´Ð¾Ð¼Ñĥ": 3096,
      "ĠÐ¼Ð³": 3097,
      "Ð°ÑĤÑĭÐ¹": 3098,
      "ĠÐ½Ð°ÑĪÐµÐ»": 3099,
      "ĠÐ½Ð°ÑģÑĤÑĥÐ¿": 3100,
      "ĠÐ¾ÑĤÑĢÑĭÐ²": 3101,
      "Ð¸ÑģÑģ": 3102,
      "ĠÐĿÐ¸Ñĩ": 3103,
      "Ð¾Ð¶Ð°Ð»": 3104,
      "ĠÑĤÐ°ÐºÑĥÑİ": 3105,
      "ĠÐ¾Ð±Ð»": 3106,
      "Ð¾Ð·Ð²": 3107,
      "ĠÐŀÑģ": 3108,
      "ĠÐļÐ¾ÑĢ": 3109,
      "Ð¸ÑĢÐ°Ð»": 3110,
      "ĠÐ¿ÑĢÐ¸ÑģÑĤ": 3111,
      "ĠÐ»ÑİÐ±Ð¾Ð¿ÑĭÑĤ": 3112,
      "ĠÐ¿Ð¾ÑĤÐ¾Ð»": 3113,
      "ĠÐ½Ð°ÑĩÐ°Ð»Ð°": 3114,
      "ĠÐĹÐ´": 3115,
      "ĠÑģÐ¾Ð±Ð°ÐºÐ°": 3116,
      "ĠÑĩÐµÐ»Ð¾Ð²ÐµÐºÐ¾Ð¼": 3117,
      "ĠÑĤÐµÐ¿Ð»": 3118,
      "ĠÐ¿Ð¾Ð¿Ð¸Ðº": 3119,
      "ĠÐºÐ¾Ð¼Ð½Ð°ÑĤÑĭ": 3120,
      "ĠÐ³Ð¾Ð´Ñĭ": 3121,
      "ĠÑħÐ¾ÑĩÐµÑĤÑģÑı": 3122,
      "ĠÑģÐ»ÐµÐ´ÑĥÑİÑī": 3123,
      "ĠÐ¿Ð¾Ð½Ð¸Ð¼Ð°Ð»": 3124,
      "ĠÐ¿Ð¾ÑģÑĤÐµÐ»Ð¸": 3125,
      "ĠÐ²ÑĭÑģÐ¾ÐºÐ¸Ð¹": 3126,
      "ĠÐ±Ð¾ÑıÐ»ÑģÑı": 3127,
      "ĠÑĤÐµÐ»ÐµÐ³": 3128,
      "ĠÐ½Ð°ÑĩÐ¸Ð½Ð°Ð»": 3129,
      "ĠÑıÐ·Ñĭ": 3130,
      "ĠÑģÑİÐ´Ð°": 3131,
      "ĠÑħÐ»Ð¾Ð¿": 3132,
      "ĠÐ²Ð¿ÐµÑĩÐ°ÑĤÐ»ÐµÐ½Ð¸Ðµ": 3133,
      "ĠÐ°Ð½Ð³ÐµÐ»": 3134,
      "ĠÐ¾ÑĦÐ¸ÑĨÐµÑĢ": 3135,
      "ĠÐĶÐ¼Ð¸ÑĤÑĢÐ¸": 3136,
      "Ð»Ð°ÑģÑĮ": 3137,
      "ÑĢÐµÐ¼ÐµÐ½": 3138,
      "ĠÐ¸Ð½Ð°ÑĩÐµ": 3139,
      "Ð²ÐµÐ¹": 3140,
      "Ð²Ð°Ð½Ð¾Ð²": 3141,
      "ĠÐ´Ð½ÐµÐ¼": 3142,
      "ĠÑĩÐµÑģÑĤ": 3143,
      "ĠÐ¿ÑĢÐ¾Ð¼": 3144,
      "Ð°ÑĤÐµÐ»Ð¸": 3145,
      "ĠÑĢÐµÑģ": 3146,
      "ĠÐ»ÐµÑĩ": 3147,
      "Ð¸Ð¼ÑĭÐ¹": 3148,
      "ÑĤÐ¾ÑĢÐ¾Ð½": 3149,
      "ĠÐĺÐ²Ð°": 3150,
      "ĠÐ¿Ð¾Ð´Ð²": 3151,
      "ÑĥÑİÑģÑı": 3152,
      "ĠÐ¾Ð´Ð¸Ð½Ð¾Ñĩ": 3153,
      "ĠÐ¿ÐµÑĢÐµÐ±": 3154,
      "Ð¾ÑĪÐ»Ð¾": 3155,
      "ĠÐ´Ð²Ð¾ÑĢ": 3156,
      "ĠÐ¿Ð¾ÐºÐ°Ð·ÑĭÐ²": 3157,
      "ĠÐ³Ð¾Ð²Ð¾ÑĢÑİ": 3158,
      "ÑĤÐ¸Ñı": 3159,
      "ĠÐ±ÐµÐ·Ð´": 3160,
      "ĠÐ±ÐµÐ·Ð½Ð°Ð´": 3161,
      "Ð°ÑİÑīÐ¸Ñħ": 3162,
      "Ð°ÑİÑīÐ¸Ð¹": 3163,
      "ĠÑĥÐ³Ð¾Ð»": 3164,
      "ĠÐ¾ÑĤÐºÑĢÑĭÐ²": 3165,
      "ĠÑħÐ¾ÑĩÐµÑĪÑĮ": 3166,
      "ĠÑĢÐ°Ð±Ð¾ÑĤÑĭ": 3167,
      "Ð¼Ð¾ÑĤÑĢÑı": 3168,
      "ĠÐ½ÐµÐ±Ð¾Ð»ÑĮÑĪ": 3169,
      "ĠÑĢÐµÑĪÐ¸Ð»": 3170,
      "ĠÑĢÐµÑĪÐ¸ÑĤÐµÐ»ÑĮÐ½Ð¾": 3171,
      "ĠÐ¸Ð·Ð²Ð¾Ð·": 3172,
      "ĠÐºÐ½Ð¸Ð³Ñĥ": 3173,
      "ÐµÐ²ÑĪÐ¸Ð¹": 3174,
      "ĠÑģÐ¸Ð»Ñĥ": 3175,
      "ĠÐ¿ÑĢÐ¸ÑĪÐ»Ð¾ÑģÑĮ": 3176,
      "ĠÐ±Ð»Ð¸Ð·ÐºÐ¾": 3177,
      "ĠÐºÑĢÐµÐ¿ÐºÐ¾": 3178,
      "ĠÐ¶ÑĥÑĢÐ½Ð°Ð»": 3179,
      "ĠÐ·Ð°ÑģÐ¼ÐµÑıÐ»ÑģÑı": 3180,
      "ĠÐ§Ð¸ÑģÑĤÑıÐºÐ¾Ð²": 3181,
      "Ð½ÐµÐ»": 3182,
      "ÑĢÐ¸ÑĤ": 3183,
      "ĠÐ²ÑĢÐ°Ñĩ": 3184,
      "ĠÐ²ÑĩÐµÑĢÐ°": 3185,
      "Ð²Ñĭ": 3186,
      "ĠÐºÐ°Ð·": 3187,
      "ĠÐºÐ¾Ð¼Ñĥ": 3188,
      "ÐµÐ½Ð½Ð¾Ð¼": 3189,
      "ĠÑĤÑĥÑĩ": 3190,
      "ĠÑĤÑĥÐ¿": 3191,
      "ĠÐ´Ðµ": 3192,
      "ĠÐ¼Ð¾ÐºÑĢ": 3193,
      "Ð°ÑĤÑĭ": 3194,
      "ĠÑĢÐ¾Ð¼": 3195,
      "Ð°Ð·Ð¾Ð½": 3196,
      "ÑģÐºÐ¾Ðµ": 3197,
      "Ð¸Ð¼Ð¾Ð¼Ñĥ": 3198,
      "ĠÐŁÑĢÐ°Ð²": 3199,
      "ĠÐ¾Ð±ÑīÐµÑģÑĤÐ²": 3200,
      "ĠÐºÐ¾ÑģÑĤ": 3201,
      "ĠÐ¸Ð·ÑĥÐ¼": 3202,
      "ĠÐ¢Ð°Ð³Ð°Ð½ÑĢÐ¾Ð³": 3203,
      "ĠÐľÐ¾Ð¶": 3204,
      "ÐµÐ¶Ð´Ð°": 3205,
      "Ð¸ÑĢÐ¾Ð²": 3206,
      "ĠÐ¿Ð¾Ð»Ð¾Ð²": 3207,
      "Ð¸Ð¼Ð¸ÑģÑı": 3208,
      "ÐµÑĨÐºÐ¸Ð¹": 3209,
      "ĠÐ²ÐµÑĢÐ½ÑĥÐ»ÑģÑı": 3210,
      "Ð»ÐµÐ½Ð½ÑĭÐµ": 3211,
      "ĠÐļÐ°ÐºÐ¾Ð¹": 3212,
      "ĠÐ·Ð°Ð´ÑĭÑħ": 3213,
      "ĠÑģÐ»ÑĥÑĩÐ¸Ð»Ð¾ÑģÑĮ": 3214,
      "ĠÐ¿ÑĢÐ¸Ð²ÑĭÐº": 3215,
      "ĠÐ¸Ð³ÑĢÐ°": 3216,
      "ĠÐ±ÐµÑģÑģÐ¸Ð»ÑĮ": 3217,
      "ĠÑģÐ´ÐµÑĢÐ¶": 3218,
      "ĠÐ³Ð¸Ð¼Ð½Ð°Ð·Ð¸Ð¸": 3219,
      "Ġ188": 3220,
      "ĠÐ°Ð²ÑĤÐ¾ÑĢ": 3221,
      "ĠÑĤÐ²Ð¾ÑĢÑĩ": 3222,
      "ĠÐ¿Ð¸ÑĪÐµÑĤ": 3223,
      "ĠÐ¿Ð¾ÑĨÐµÐ»Ð¾Ð²": 3224,
      "ĠÑģÑĤÑĭÐ´Ð½Ð¾": 3225,
      "ÐłÑĥÑģ": 3226,
      "ĠÐ¿ÑĢÐ¸ÐµÑħÐ°Ð»": 3227,
      "ĠÐ±Ð»ÐµÑģÑĤÑıÑī": 3228,
      "ĠÐ¾ÑģÐºÐ¾ÑĢÐ±": 3229,
      "ĠÐ¿ÑĢÐ¾Ð¸ÑģÑħÐ¾Ð´": 3230,
      "ĠÑģÐ»ÑĥÑĩÐ°Ðµ": 3231,
      "Ð¸ÑīÐµ": 3232,
      "ÑĢÐµ": 3233,
      "ÑıÑı": 3234,
      "ÐºÐ°Ð¼": 3235,
      "ĠÐ²Ð»Ð°": 3236,
      "ĠÑĤÐ¾Ð¿": 3237,
      "ĠÐ¼Ð¾ÑģÑĤ": 3238,
      "ĠÑĩÐ¸ÑģÑĤÐ¾": 3239,
      "Ð¾Ð³Ñĥ": 3240,
      "Ð¸Ð²Ð°ÑİÑĤ": 3241,
      "ĠÐ¶Ð°Ð»ÑĮ": 3242,
      "ĠÑģÑĤÑĥÐ¿": 3243,
      "Ð¸Ð¼Ð°Ñı": 3244,
      "Ð¸Ð½ÐºÐ¸": 3245,
      "ĠÐºÐ°ÐºÐ¸Ñħ": 3246,
      "ĠÐĺÐ½": 3247,
      "ĠÑģÐ²Ð¸ÑģÑĤ": 3248,
      "ĠÐ²ÑĭÐ²": 3249,
      "ĠÐ¾Ð±Ñģ": 3250,
      "ĠÐ¿Ð¾Ð´Ð¾Ð±": 3251,
      "Ð°Ð»ÑĮÐ½ÑĭÐµ": 3252,
      "ĠÐ»Ð¸ÑģÑĤ": 3253,
      "Ð¸Ð±Ð¾": 3254,
      "ĠÐ»Ð¸ÑĨÑĥ": 3255,
      "Ð°Ð²ÑĪÐ¸Ñħ": 3256,
      "ĠÑģÐ¾Ð±Ð°Ðº": 3257,
      "ĠÑĢÐ°ÑģÑģÐºÐ°Ð·Ñĭ": 3258,
      "ĠÐĿÐ°ÑģÑĤ": 3259,
      "ĠÐ¶Ð¸Ð·Ð½ÑĮÑİ": 3260,
      "ĠÐ¿Ð¾Ð¼Ð¾Ñī": 3261,
      "ĠÐ¼Ð°Ð»ÐµÐ½ÑĮÐºÐ°Ñı": 3262,
      "ĠÐ²ÑģÑıÐºÐ¸Ð¹": 3263,
      "ÑİÑīÐ¸Ð¹": 3264,
      "ĠÐ»ÐµÐ¶Ð°Ð»Ð°": 3265,
      "ĠÑģÐ»ÑĭÑĪÐ°Ð»": 3266,
      "ĠÐ²Ð¼ÐµÑģÑĤÐ¾": 3267,
      "ĠÐ³Ð»ÑıÐ´ÐµÐ»": 3268,
      "Ð¼ÑĭÑģÐ»": 3269,
      "ĠÐ´ÐµÑģÑıÑĤÑĮ": 3270,
      "ĠÐ¿Ð°Ð»ÑĮÑĨÐ°Ð¼Ð¸": 3271,
      "ĠÐĵÐ¾ÑĢÑĮ": 3272,
      "ĠÑģÐ¿ÑĢÐ¾ÑģÐ¸Ð»Ð°": 3273,
      "ĠÐ½ÐµÐ¿Ð¾Ð½ÑıÑĤ": 3274,
      "ĠÐ¨Ð°ÑĢÑĭÐ³Ð¸Ð½": 3275,
      "ĠÐ·Ð¾Ð»Ð¾ÑĤ": 3276,
      "ĠÑĨÐµÑĢÐºÐ²Ð¸": 3277,
      "ĠÐ¸Ð·Ð²Ð¾Ð·ÑĩÐ¸Ðº": 3278,
      "ÑģÐ¸ÑĤ": 3279,
      "Ð»Ð°Ð·": 3280,
      "ÑıÐ²ÑĪ": 3281,
      "ĠÐ½ÐµÐ»Ð¾Ð²": 3282,
      "ÐºÐ½ÑĥÐ»": 3283,
      "Ð²ÑĥÑĩ": 3284,
      "ĠÐºÐ°ÑĤ": 3285,
      "ĠÑĤÐµÑģ": 3286,
      "ĠÑĤÐµÐ½ÑĮ": 3287,
      "ĠÑĤÐµÐ»Ð°": 3288,
      "ĠÐ¼ÑĢÐ°Ñĩ": 3289,
      "ĠÐ·ÐµÑĢÐº": 3290,
      "ĠÐ¿ÑĢÐ¸ÑĢ": 3291,
      "ĠÐ½ÐµÑĥÐ´": 3292,
      "ĠÑĢÐ°Ð½": 3293,
      "Ð½Ð¸Ð²ÐµÑĢ": 3294,
      "ĠÑĥÐ½Ð¸Ð²ÐµÑĢ": 3295,
      "Ð¾ÑĤÐ½Ð¾": 3296,
      "Ð°Ð½Ð½Ð¾Ð¹": 3297,
      "ÐµÐ²ÐµÐ»": 3298,
      "Ð¸ÐºÐµ": 3299,
      "ĠÑħÑĥÐ¶Ðµ": 3300,
      "Ð¸Ð´Ð½Ð¾": 3301,
      "ĠÐ¾Ð±Ð¾": 3302,
      "ĠÐ¡Ð°Ð·Ð¾Ð½": 3303,
      "ÐµÐ½ÑĮÐºÐ°": 3304,
      "ĠÐ¿Ð¾Ð´Ð¿": 3305,
      "ĠÐ¸Ð·Ð¼ÐµÐ½": 3306,
      "ĠÐ¿ÐµÑĢÐ¸": 3307,
      "ÐµÑģÑĤÑĢ": 3308,
      "ĠÑģÐ¿Ð°Ð»": 3309,
      "ĠÑģÐ¿Ð°Ñģ": 3310,
      "ĠÐ¿Ð¾Ð»Ð¾Ñģ": 3311,
      "ĠÐ³Ð¾Ð²Ð¾ÑĢÐ¸Ð»Ð°": 3312,
      "ĠÑģÑĤÑĢÐ°ÑģÑĤ": 3313,
      "ĠÐ·Ð½Ð°ÐµÑĤÐµ": 3314,
      "ĠÐ½Ð°Ð¿ÐµÑĩÐ°ÑĤ": 3315,
      "Ð°ÑĪÐ°": 3316,
      "ĠÑģÐ¾Ð¾Ð±Ñī": 3317,
      "ÐµÑģÑĤÐ²Ðµ": 3318,
      "ĠÑģÐ¼Ð¾ÑĤÑĢÐµÐ»Ð¸": 3319,
      "ĠÐ±ÐµÐ»ÑĭÐµ": 3320,
      "ĠÐ½ÐµÐ²ÐµÐ´Ð¾Ð¼": 3321,
      "ĠÐ²ÐµÐ»Ð¸Ñĩ": 3322,
      "ĠÑĢÐ°Ð±Ð¾ÑĤÑĥ": 3323,
      "ĠÑĢÐ°Ð·Ð³Ð¾Ð²Ð°ÑĢ": 3324,
      "ĠÐ´Ð¾Ð»Ð¶Ð½Ð¾": 3325,
      "ĠÑĢÐ°Ð²Ð½Ð¾": 3326,
      "ĠÑģÐºÐ¾ÑĢÐµÐµ": 3327,
      "ĠÑĥÑĤÐ¾Ð¼": 3328,
      "ĠÑĥÑģÐ¿Ð¾ÐºÐ¾": 3329,
      "ĠÐ¿Ð¸ÑģÑĮÐ¼Ð°": 3330,
      "ĠÐ¾ÑĤÐºÑĢÑĭÑĤ": 3331,
      "ĠÐ¾Ð±ÑĢÐ°Ð·Ð¾Ð¼": 3332,
      "ĠÐ¼ÐµÑģÑĤÐ°": 3333,
      "Ð²Ð¸Ð´Ð¸Ð¼Ð¾Ð¼Ñĥ": 3334,
      "ĠÐļÐ°ÑĩÐµÑĢÐ¸Ð½": 3335,
      ").": 3336,
      "14": 3337,
      "ÑĤÐµÑģÑĮ": 3338,
      "Ð»ÐµÐ¶": 3339,
      "ĠÐ²Ð¸Ð¶Ñĥ": 3340,
      "ÐµÐ½Ð¾Ðº": 3341,
      "ÐµÑĢÑĭÐ²": 3342,
      "ĠÐ¼ÐµÐ½ÑĮ": 3343,
      "ĠÑĩÐ°ÑģÑĤ": 3344,
      "Ð¸ÑĤÐµÑģÑĮ": 3345,
      "ĠÑĥÑģÑĤÑĢÐ¾": 3346,
      "ĠÐ»ÐµÐ½": 3347,
      "ÑĨÐ¸": 3348,
      "ĠÐ¶Ð¸Ð»Ð¸": 3349,
      "ÑģÐºÐ¸": 3350,
      "ÐµÐ²ÑĭÑĢ": 3351,
      "ĠÑģÐ¼ÐµÐ»": 3352,
      "ĠÑģÐ°Ð¼ÑĭÑħ": 3353,
      "ĠÐ´ÑĢÑĥÐ³Ð¾Ð³Ð¾": 3354,
      "ĠÐĳÐ°Ð±": 3355,
      "ĠÐ±ÐµÐ·Ð¼Ð¾Ð»Ð²": 3356,
      "ÐµÐ½Ð¸ÑıÑħ": 3357,
      "Ð°Ð²ÑĪÐµÐ³Ð¾": 3358,
      "ĠÐºÐ¾Ð½ÑĨÐ°": 3359,
      "ĠÐ¿ÑĢÐµÐ´Ð¿": 3360,
      "Ð¸Ð²ÑĪÐ¸Ð¹ÑģÑı": 3361,
      "ĠÐ½ÐµÐ²Ð¸Ð´": 3362,
      "ĠÐ¿Ð¾Ð¼ÐµÑī": 3363,
      "ĠÐ¼Ð°Ð»ÐµÐ½ÑĮÐºÐ¸Ðµ": 3364,
      "ĠÐ¿Ð¾Ð³Ð¾Ð²Ð¾ÑĢ": 3365,
      "ĠÐºÐ½Ð¸Ð¶": 3366,
      "ĠÐ²Ð¾Ð´ÐºÐ¸": 3367,
      "ĠÐ²ÑģÐµÐ¼Ð¸": 3368,
      "ĠÐ´Ð¾ÐºÑĤÐ¾ÑĢÐ°": 3369,
      "ĠÐ¨ÐµÐ²ÑĭÑĢ": 3370,
      "ĠÐºÐ¾Ð¼Ð¿": 3371,
      "ĠÑģÑĤÐ¾ÑıÐ»Ð¸": 3372,
      "ĠÑģÐµÑĢÑĮÐµÐ·Ð½Ð¾": 3373,
      "ĠÐ½Ð°Ð¿Ð¸ÑģÐ°Ð»": 3374,
      "ĠÑĢÐµÑĩÐ¸": 3375,
      "ĠÐ²Ð¾Ð·Ð¼Ð¾Ð¶": 3376,
      "ĠÑģÐ²Ð¸Ð´ÐµÑĤÐµÐ»ÑĮ": 3377,
      "ĠÐ¼ÐµÐ½ÐµÐµ": 3378,
      "ĠÐŀÑĩÐµÐ½ÑĮ": 3379,
      "ĠÐ½ÐµÐ´Ð¾ÑĥÐ¼": 3380,
      "ĠÐºÐ²Ð°ÑĢÑĤÐ¸ÑĢ": 3381,
      "ĠÐĶÐ¼Ð¸ÑĤÑĢÐ¸ÐµÐ²Ð¸Ñĩ": 3382,
      "ĠÑĥÐ½Ð¸Ð²ÐµÑĢÑģÐ¸ÑĤ": 3383,
      "ÑĢÐµÑĤ": 3384,
      "ĠÑģÐ¾Ð¼Ð½": 3385,
      "ĠÑģÐ¾Ñħ": 3386,
      "ĠÐºÐ°": 3387,
      "Ð¾Ð²ÑĥÑİ": 3388,
      "ĠÐ´Ð°ÑĤÑĮ": 3389,
      "ĠÐ·Ð°Ð±Ð¾ÑĤ": 3390,
      "Ð°Ð¼ÐµÐ½": 3391,
      "ĠÐ»Ð¾Ð¼": 3392,
      "ĠÐ»Ð°Ð´": 3393,
      "ĠÐ¶Ð´Ð°Ð»": 3394,
      "ĠÑģÑĤÐ¸Ñħ": 3395,
      "ĠÐŁÐ¾Ð¹Ð´": 3396,
      "ĠÐ²ÑģÐµÐ¼Ñĥ": 3397,
      "Ð»ÑıÑı": 3398,
      "ĠÐĲÐ±": 3399,
      "ĠÐ¾Ð±ÐµÑĢ": 3400,
      "Ð¾Ð·ÑĢ": 3401,
      "ÐµÐ¿ÐµÐ½Ð½Ð¾": 3402,
      "ĠÑģÐ»Ð¾Ð¶": 3403,
      "ĠÐ¿Ð¾Ð´Ð´": 3404,
      "ĠÐ§ÐµÑĢÑĤ": 3405,
      "Ð¾ÑĩÐµÐº": 3406,
      "ĠÐĶÐ»Ñı": 3407,
      "Ð°ÑİÑģÑĮ": 3408,
      "ĠÐ´Ð²Ð°Ð´ÑĨÐ°ÑĤÑĮ": 3409,
      "ĠÐ´ÑĢÑĥÐ³ÑĥÑİ": 3410,
      "ĠÐ¾Ð¿ÑĢÐ°Ð²": 3411,
      "ĠÐ¸Ð¼Ñı": 3412,
      "ĠÐºÐ¾Ð½ÑĨÐµ": 3413,
      "ĠÑģÐ¼Ð¾ÑĤÑĢÐ¸ÑĤ": 3414,
      "Ð»ÐµÐ´ÑģÑĤÐ²": 3415,
      "ĠÑģÐµÑĢÐ´Ð¸ÑĤÐ¾": 3416,
      "ĠÐ²Ð¾Ð´Ñĭ": 3417,
      "ĠÐ´Ð¾Ð»Ð¶Ð½Ñĭ": 3418,
      "ĠÐ¼Ð¾ÑĢÐµ": 3419,
      "ĠÑĨÐµÐ»ÑĭÐ¹": 3420,
      "ĠÐ¿ÑĢÐ¸ÑģÐ»": 3421,
      "ĠÑĩÐ¸ÑĤÐ°ÑĤÑĮ": 3422,
      "ĠÐ¿Ð¾Ð´Ð½ÑıÐ»": 3423,
      "ĠÑĢÐµÐ´Ð°Ðº": 3424,
      "ĠÐ±Ð¾Ð»ÐµÐ·Ð½Ð¸": 3425,
      "ĠÐ¿ÑĢÐ¸Ð³Ð»Ð°ÑĪ": 3426,
      "Ð¾Ð·Ð¼Ð¾Ð¶Ð½Ð¾": 3427,
      "ĠÐĲÐ½Ð´ÑĢÐµÐ¸Ñĩ": 3428,
      "ĠÐĿÐ¸ÑĩÐµÐ³Ð¾": 3429,
      "Ð»Ð¸Ð¶": 3430,
      "ÑĥÑģÑĮ": 3431,
      "ÑĥÐµÑĤÑģÑı": 3432,
      "ĠÐ¿Ð¸ÑĤÑĮ": 3433,
      "ĠÐ²Ð¸Ð½": 3434,
      "Ð¾Ð²Ðµ": 3435,
      "ĠÐµÐ¶": 3436,
      "ĠÐ½Ð°Ñħ": 3437,
      "Ð¾ÑĢÐ¾Ð´": 3438,
      "ĠÐ»ÐµÐº": 3439,
      "Ð¾ÑĤÐ¸Ð²": 3440,
      "ÐµÐ²Ð°ÑĤÑĮ": 3441,
      "ÐµÐ·Ð´Ðµ": 3442,
      "Ð»ÑıÐµÑĤ": 3443,
      "ĠÑģÐºÑĢÐ¾Ð¼": 3444,
      "ÑĥÑĤÑģÑı": 3445,
      "ĠÐļÑĢ": 3446,
      "ĠÑĢÐ°Ð·Ð¼": 3447,
      "ÐµÑĪÐ½Ð¾": 3448,
      "ĠÐ¿ÐµÑĢÐµÑħ": 3449,
      "ĠÐĶÑĢÑĥÐ³": 3450,
      "Ð½ÑĥÐ»Ð¸ÑģÑĮ": 3451,
      "ĠÑĤÑĢÐ¾Ð³": 3452,
      "ĠÐ´ÑĢÑĥÐ³Ñĥ": 3453,
      "Ð¸Ð³ÑĢ": 3454,
      "...\"": 3455,
      "ĠÐ§ÐµÑħÐ¾Ð²Ðµ": 3456,
      "ĠÐ±ÐµÑģÐµÐ´": 3457,
      "ĠÑģÑĤÐ°ÑĢÐ¸Ðº": 3458,
      "Ð¸ÑıÑħ": 3459,
      "Ð»ÐµÐ½Ð°": 3460,
      "Ð»ÐµÐ½Ð½ÑĭÐ¹": 3461,
      "Ð¸Ð¿Ð¿": 3462,
      "ĠÐ±Ð¾Ð»ÑĮÑĪÐ¸Ð¼": 3463,
      "ĠÐ·Ð°Ð¼ÐµÑĢ": 3464,
      "ĠÐ±Ð¾Ð»Ð¸": 3465,
      "ĠÑĢÐ°Ð´Ð¾ÑģÑĤÑĮ": 3466,
      "ĠÐ½ÐµÐ´Ð¾ÑģÑĤ": 3467,
      "ĠÑģÑĤÐ¾Ð»Ð°": 3468,
      "ĠÑĥÐ»ÑĭÐ±Ð°Ð»ÑģÑı": 3469,
      "ĠÑĥÐ¿Ð¾ÑĢ": 3470,
      "ĠÐ·Ð°Ð±Ñĭ": 3471,
      "ĠÑģÐµÑĢÐ´ÑĨÐ°": 3472,
      "ĠÑĥÐ±Ð¸Ð¹": 3473,
      "ĠÐ·ÐµÐ¼Ð»Ñı": 3474,
      "ĠÐ²ÑģÐ¿Ð¾Ð¼Ð¸Ð½": 3475,
      "ĠÐ¿Ð¾ÑģÐ»ÐµÐ´Ð½Ð¸Ð¹": 3476,
      "ĠÐ¼Ð¸Ð»ÑĭÐ¹": 3477,
      "ĠÐ¼Ð¸Ð»ÐµÐ½ÑĮÐºÐ¸Ð¹": 3478,
      "ĠÐ¿ÑĢÐ¸Ð½Ð°Ð´": 3479,
      "ĠÑĥÐ»Ð¸ÑĨÑĭ": 3480,
      "ĠÑģÐ¾ÑģÑĤÐ¾Ñı": 3481,
      "ĠÑģÐ°Ð´Ñĥ": 3482,
      "ĠÐ¾ÑĤÐºÑĢÑĭÐ»": 3483,
      "ĠÐ²Ð½Ð¸Ð¼Ð°ÑĤÐµÐ»ÑĮÐ½Ð¾": 3484,
      "ĠÐ¤Ð¸Ð»": 3485,
      "ĠÐ»ÐµÑģÑĥ": 3486,
      "ĠÐ¿Ð¾Ð²ÐµÑĢÑħ": 3487,
      "Ð§ÐµÑħÐ¾Ð²": 3488,
      "ĠÐ¼Ð¾Ð»ÑĩÐ°Ð»Ð¸Ð²": 3489,
      "ĠÑģÑĭÐ½": 3490,
      "ĠÐĿÐ°Ð´Ð¾": 3491,
      "Ð½Ð¸ÑĨÐµÐ¹": 3492,
      "ĠÐŁÐµÑĤÐµÑĢÐ±ÑĥÑĢÐ³Ðµ": 3493,
      "ĠÐ±Ð»Ð°Ð³Ð¾ÑĢÐ¾Ð´": 3494,
      "ĠÐ¿Ð¾ÑĨÐµÐ»": 3495,
      "ĠÑħÐ¾Ð·ÑıÐ¹": 3496,
      "ĠÑģÐ²ÑıÑĤÐ¾Ð¹": 3497,
      "ĠÑĨÐµÑĢÐºÐ¾Ð²ÑĮ": 3498,
      "ĠÐ¿ÑĢÐµÐ´ÑģÐµÐ´": 3499,
      "ĠÐ±Ð»Ð¸Ð¶Ðµ": 3500,
      "ĠÐĵÐ¾ÑģÐ¿Ð¾Ð´Ð¸": 3501,
      "ĠÐľÐ¾Ð¶ÐµÑĤ": 3502,
      "ĠÑĥÐ¹": 3503,
      "ĠÑİÐ¼": 3504,
      "Ð°ÑĤÐ¾": 3505,
      "Ð»Ð°ÑĤ": 3506,
      "Ð»ÐµÐ½Ð¸Ð¸": 3507,
      "ÑĢÐ¸Ð¹": 3508,
      "ÑĭÑģÐ»": 3509,
      "ĠÑģÑħÐ¾Ð´": 3510,
      "ĠÐ¿ÐµÑĤ": 3511,
      "ĠÐ¿Ð¸Ð»": 3512,
      "ĠÐ¿Ð¾Ð²Ð¾ÑĢ": 3513,
      "ĠÐ²Ð¸Ð·": 3514,
      "ĠÐ²ÑģÑĤÐ°Ð²": 3515,
      "ĠÐ²Ð¾Ð´Ð°": 3516,
      "ĠÐ²Ð¾ÑĪÐµÐ»": 3517,
      "Ð²Ð°ÑĤÑĮ": 3518,
      "Ð´ÐµÑĤ": 3519,
      "ÑĪÐµÐ´": 3520,
      "ĠÐ±Ñĥ": 3521,
      "ÐµÐ»ÐµÐ¹": 3522,
      "ÐµÑĢÐ¾": 3523,
      "Ð¸Ð»Ñı": 3524,
      "ĠÐ½ÐµÑħ": 3525,
      "ĠÑĢÐ¾Ñģ": 3526,
      "Ð¸ÑĤÑĭÐ¹": 3527,
      "ĠÐ½Ð°Ð¸Ð²": 3528,
      "Ð½Ð¸ÐºÑĥ": 3529,
      "ĠÐ»Ð¾Ð´": 3530,
      "Ð¾Ð½Ð°": 3531,
      "Ð°Ð½Ð½ÑĭÐ¼": 3532,
      "ÑģÐºÐ¾Ð¼Ñĥ": 3533,
      "ĠÐŁÐ¾Ðº": 3534,
      "ĠÐŁÐ¾Ð¿": 3535,
      "ÑĥÐ¶Ð½Ð¾": 3536,
      "ĠÐ²ÑĭÑģÑĤÑĥÐ¿": 3537,
      "ÐµÐ»ÑĮÐ½Ð¾": 3538,
      "ĠÐ¾Ð±ÑĢ": 3539,
      "ĠÐ¡ÑĤÑĢ": 3540,
      "ĠÑģÐ»Ð°Ð´": 3541,
      "ĠÐ¿Ð¾Ð´Ð±": 3542,
      "ĠÐ·Ð°ÑĪ": 3543,
      "ÑĥÑĤÑĭÐ»": 3544,
      "ĠÐļÐ°ÑĢÐ°": 3545,
      "ĠÐļÐ¾Ð»Ð¾Ñģ": 3546,
      "ĠÐ³Ð»Ð°Ð´": 3547,
      "ĠÑģÐ°Ð¼Ð¾": 3548,
      "ĠÐ²Ð¸Ð´ÐµÐ»Ð¸": 3549,
      "ĠÐ²Ð·Ð´ÑĢ": 3550,
      "ĠÑģÐ¾Ð²ÑĢÐµÐ¼ÐµÐ½": 3551,
      "ĠÐ´ÑĥÐ¼Ð°Ð»Ð°": 3552,
      "ĠÐ¿Ð¾Ð¿ÑĢÐ°Ð²": 3553,
      "ĠÑģÑĤÐ¾Ð»Ðµ": 3554,
      "ĠÐ½Ð¾Ð²ÑĭÐ¹": 3555,
      "ĠÑĥÐ±ÐµÐ´": 3556,
      "ĠÑĤÐµÐ°ÑĤ": 3557,
      "ÐµÐ½ÑĤÐ¸Ð¹": 3558,
      "ĠÐ¿ÐµÑĩÐ°ÑĤ": 3559,
      "ĠÑĥÐ·Ð½Ð°": 3560,
      "ĠÑĥÐ¶Ð°ÑģÐ½Ð¾": 3561,
      "ĠÐ¿Ð¾ÑģÐ»ÐµÐ´Ð½Ð¸Ðµ": 3562,
      "ĠÐ³ÑĢÐ¾Ð¼Ð°Ð´": 3563,
      "ĠÐ¿Ð°Ð»ÑĮÑĨÑĭ": 3564,
      "ĠÐŁÐ¾ÑģÐ»ÑĥÑĪ": 3565,
      "ĠÐ¿ÑĢÐ¸ÑĪÐ»Ð°": 3566,
      "ĠÐ¿ÑĢÐ¸ÐºÐ°Ð·": 3567,
      "ĠÐ¾Ð¶Ð¸Ð´": 3568,
      "ĠÐ´ÑĮÑıÐ²Ð¾Ð»": 3569,
      "ĠÐºÑĢÑĥÐ³Ð¾Ð¼": 3570,
      "ĠÐ±Ð¾Ð³Ð°ÑĤ": 3571,
      "ĠÑģÐºÑĥÑĩÐ½Ð¾": 3572,
      "ĠÑĥÑģÐ»ÑĭÑĪ": 3573,
      "ĠÑĢÐµÐ²Ð¾Ð»ÑĮ": 3574,
      "ĠÐ´Ð¾ÑģÑĤÐ¾": 3575,
      "ĠÐ½Ð°Ð¹ÑĤÐ¸": 3576,
      "ĠÐĽÐ°Ð²ÑĢÐµÐ½ÑĤÐ¸Ð¹": 3577,
      "ĠÐ´ÐµÐ½ÐµÐ³": 3578,
      "ĠÐĳÐ°ÑĢÐ³Ð°Ð¼Ð¾ÑĤ": 3579,
      "ĠÐ²Ð²ÐµÑĢÑħ": 3580,
      "ĠÐ·Ð°ÐºÑĢÐ¸ÑĩÐ°Ð»": 3581,
      "ÐĹ": 3582,
      "ÑĤÐ¾Ð¶": 3583,
      "Ð¸ÑĦ": 3584,
      "Ð»ÐµÐ¿": 3585,
      "ĠÑģÐ³": 3586,
      "ĠÑģÐ¸Ñħ": 3587,
      "ĠÑģÑĥÐ´Ð°": 3588,
      "ĠÐ²Ð¸Ð½Ð°": 3589,
      "Ð¾Ð²Ð½Ð°": 3590,
      "ĠÑĤÐ°Ð½": 3591,
      "ĠÐ´Ð°Ð¼": 3592,
      "ĠÐ¼Ð¾Ð¼": 3593,
      "ÑİÑĩ": 3594,
      "ÐµÑĤÐ½Ð¾": 3595,
      "Ð°ÑĤÐµ": 3596,
      "ĠÐ³ÑĢÐ°": 3597,
      "Ð¾ÑĢÐ¸ÑģÑĤ": 3598,
      "ÑĨÐ¾Ð¼": 3599,
      "ĠÐ¾ÑĤÑĢÐ°Ð¶": 3600,
      "ĠÑģÑĤÐ°Ð²": 3601,
      "ĠÐŁÐ¾ÑĤ": 3602,
      "ĠÐ²ÑĭÑĤ": 3603,
      "ĠÐ²ÑĭÑĪÐµ": 3604,
      "Ð»ÑıÐ¿": 3605,
      "Ð»ÑıÐµÑĤÑģÑı": 3606,
      "Ð¾Ð·Ð´": 3607,
      "ĠÐŀÐ¿": 3608,
      "ĠÐľÐ¾Ð»Ñĩ": 3609,
      "ĠÐ¾Ð´ÐµÑĤ": 3610,
      "ĠÑĪÐµÑģÑĤÑĮ": 3611,
      "ĠÐ¿ÐµÑĢÐµÐº": 3612,
      "ÐµÐ½Ð½Ð¾ÑģÑĤÐ¸": 3613,
      "Ð¾Ð²Ð°Ð½Ð¸Ñı": 3614,
      "Ð°Ð¹ÐºÐ¾": 3615,
      "ĠÐ¿Ð¾ÑģÐ¿": 3616,
      "ĠÐ¿Ð¾ÑģÐµÑī": 3617,
      "ĠÑĢÑĥÐºÐ¾Ñİ": 3618,
      "ĠÐ¿Ð»Ð¾ÑīÐ°Ð´": 3619,
      "ĠÐ²Ð¸Ð´Ñĥ": 3620,
      "ÑĤÐ¸ÑģÑĤ": 3621,
      "ĠÑĦÐ°Ð¼": 3622,
      "ĠÐ¼Ð¾Ð³ÑĥÑĤ": 3623,
      "ĠÐ¿ÑĢÐ¾Ñħ": 3624,
      "Ð°Ð²ÑĪÐ¸ÑģÑĮ": 3625,
      "ĠÑĥÐ¼Ð¸ÑĢÐ°": 3626,
      "ĠÐ»ÑİÐ´ÑıÐ¼": 3627,
      "ĠÐ»ÑİÐ´ÑĮÐ¼Ð¸": 3628,
      "ĠÐ¿Ð¾ÑĩÑĤ": 3629,
      "ĠÐ±ÑĢÐ°ÑĤÑĮ": 3630,
      "Ð°ÑİÑīÐ¸Ð¼": 3631,
      "Ð°ÑİÑīÐ¸Ðµ": 3632,
      "ĠÑĥÐ»ÑĭÐ±ÐºÐ¾Ð¹": 3633,
      "ĠÑĥÐ¿Ð°Ð»": 3634,
      "ĠÐ½ÐµÐ±Ð°": 3635,
      "ĠÐ´Ð¾Ð»Ð¶Ð½Ð°": 3636,
      "Ð°Ð½ÑĮÐºÐ°": 3637,
      "ĠÐŀÐ´Ð½Ð°Ð¶Ð´Ñĭ": 3638,
      "ĠÐ¿ÑĢÐ¸Ð½ÐµÑģ": 3639,
      "ĠÐ¿ÑĢÐ¸ÑģÑĥÑĤÑģÑĤÐ²": 3640,
      "ĠÐ¼Ð½Ð¾Ð¶ÐµÑģÑĤÐ²": 3641,
      "ĠÐºÑĢÐ¾Ð²ÑĮ": 3642,
      "ĠÐķÐ³Ð¾ÑĢÐ¾Ð²Ð¸ÑĩÐ°": 3643,
      "ĠÐ±ÑĢÐ°ÑĤÐ°": 3644,
      "ĠÐ²Ð¾ÑĢÐ¾ÑĤ": 3645,
      "ĠÐ¿Ð»Ð°ÑĩÐµÑĤ": 3646,
      "ĠÐ´Ð²Ð¸Ð¶ÐµÐ½Ð¸Ñı": 3647,
      "ĠÑĤÐ²ÐµÑĢÐ´Ð¾": 3648,
      "ĠÐ´ÐµÑģÑıÑĤ": 3649,
      "Ġ189": 3650,
      "ĠÐ¿Ð¾ÑģÐ¼Ð¾ÑĤÑĢÐµÐ»": 3651,
      "ĠÐºÐ¾Ð»Ð¾ÐºÐ¾Ð»ÑĮ": 3652,
      "ĠÐ½ÐµÐ¾Ð±ÑĭÐºÐ½Ð¾Ð²ÐµÐ½Ð½Ð¾": 3653,
      "ĠÐ¾ÑģÑĤÐ°Ð½Ð°Ð²Ð»Ð¸Ð²": 3654,
      "ĠÐ±ÑĥÐ¼Ð°Ð³Ð¸": 3655,
      "ĠÐ·Ð°ÑīÐ¸ÑĤ": 3656,
      "ĠÐŁÐ¾Ð¹Ð´ÐµÐ¼": 3657,
      "ĠÑĢÐµÐ²Ð¾Ð»ÑĮÐ²ÐµÑĢ": 3658,
      "Ð¥": 3659,
      "ÐµÐ¾Ð´": 3660,
      "Ð¸ÑĪÐµ": 3661,
      "Ð½ÐµÐ¼Ñĥ": 3662,
      "Ð»ÐµÐ½Ð¸ÐµÐ¼": 3663,
      "ÑĢÐ¸Ð½": 3664,
      "ÑĮÐµÐ²": 3665,
      "ĠÑģÐ¾Ð¿": 3666,
      "ĠÐ¿ÑĭÑĤ": 3667,
      "ĠÐ½Ð¾Ð¼ÐµÑĢ": 3668,
      "ĠÐ²ÐµÐ¶": 3669,
      "ĠÐºÑĥÑģ": 3670,
      "ĠÐºÐ°Ð·Ð°Ð»ÑģÑı": 3671,
      "ĠÐ¼Ð°Ð¼": 3672,
      "ĠÐ³Ð¾Ð½": 3673,
      "Ð¾ÑģÐ»ÐµÐ´ÑģÑĤÐ²": 3674,
      "ĠÑģÑĤÑĥÐº": 3675,
      "Ð¾ÐºÐ¸": 3676,
      "ĠÐŁÑĥÑģÑĤÑĮ": 3677,
      "ĠÐĴÐ»Ð°Ð´": 3678,
      "ÑģÑĤÐ²Ñĥ": 3679,
      "ĠÐ°Ð´": 3680,
      "Ð»ÑıÑĤ": 3681,
      "ĠÐ¾Ð±Ð½": 3682,
      "ĠÐ¾Ð±Ð¼Ð°Ð½": 3683,
      "ÐµÐ½ÑĮÐºÐ¾Ðµ": 3684,
      "ĠÑĢÐ°Ð·Ð°": 3685,
      "ĠÑĢÐ°Ð·ÑĥÐ¼": 3686,
      "ĠÑĢÐ°Ð·Ð´ÑĢ": 3687,
      "ĠÑģÐ¿ÑĢ": 3688,
      "ĠÑģÐ¿ÐµÑĢÐ²Ð°": 3689,
      "ĠÐ¿Ð¾Ð»Ðµ": 3690,
      "ĠÑģÐ°Ð¼ÑĭÐ¼": 3691,
      "ĠÐ²Ð¸Ð´Ð¸Ð¼Ð¾": 3692,
      "ĠÑĦÑĢÐ°Ð·": 3693,
      "ĠÐĽÐµÐ¹": 3694,
      "ĠÐ£Ð¶": 3695,
      "ĠÑģÑĤÐ°ÑĢÑĭÐ¹": 3696,
      "ĠÑģÑĤÐ°ÑĢÐ°Ð»ÑģÑı": 3697,
      "ĠÐłÐ°Ñģ": 3698,
      "ĠÐłÐ°Ð¹ÐºÐ¾": 3699,
      "ĠÐŁÑĢÐ¸ÑĪ": 3700,
      "ĠÐ´ÐµÐ»Ðµ": 3701,
      "ĠÑĩÐ°ÑģÑĭ": 3702,
      "ĠÑĥÐ³Ð»Ñĥ": 3703,
      "ĠÑĤÐ¾Ð»Ðº": 3704,
      "ĠÐ³Ð»ÑĥÐ±Ð¾ÐºÐ¾": 3705,
      "ÐµÑĢÐ°ÑĤÐ¾ÑĢ": 3706,
      "ĠÐ¿ÑĢÐ¾ÑģÑĤÑĢÐ°Ð½": 3707,
      "ĠÐ±Ð¾ÑĢÑĮ": 3708,
      "ĠÑģÐ¾Ð·Ð´": 3709,
      "ĠÑħÑĥÐ´Ð¾Ð¶ÐµÑģÑĤÐ²": 3710,
      "ÐµÐ·Ð¶Ð°Ð»": 3711,
      "ĠÑĩÐ°ÑģÑĤÐ¸": 3712,
      "ĠÐ¼Ð½Ð¾Ð³Ð¸Ðµ": 3713,
      "ĠÐ¿ÑĢÐµÐ¶Ð´Ðµ": 3714,
      "ĠÐĿÐµÐ¼Ð¾Ð²": 3715,
      "ĠÐºÐ°Ð·Ð°Ð»Ð¸ÑģÑĮ": 3716,
      "ĠÑĪÐ¿Ð¸Ð¾Ð½": 3717,
      "ĠÐĿÐ¸ÐºÐ¾Ð»Ð°ÐµÐ²Ð¸Ñĩ": 3718,
      "ĠÐľÐ¸ÑħÐ°Ð¹Ð»": 3719,
      "ĠÑĢÑĥÐ±Ð»ÐµÐ¹": 3720,
      "ĠÐĺÐ½Ð¾Ð³Ð´Ð°": 3721,
      "ĠÐ¼ÐµÐ½ÑĮÑĪÐµ": 3722,
      "Ð¾ÑģÐ»ÐµÐ´ÑģÑĤÐ²Ð¸Ð¸": 3723,
      "ĠÑİÐ±": 3724,
      "ĠÐ½Ñĥ": 3725,
      "ĠÐ½Ð°ÑĤ": 3726,
      "ĠÐ²Ð¸Ð½Ð¾Ð²": 3727,
      "ĠÐ²Ð°ÑĪÐµ": 3728,
      "ĠÐºÐ»Ð°Ð´": 3729,
      "ÑĪÐ¸Ð¼": 3730,
      "ÑĪÐ°Ñı": 3731,
      "ĠÐµÑģÑĤ": 3732,
      "Ð¾ÑĢÐ¾Ð¼": 3733,
      "Ð°Ð²Ð°Ð»Ð¸": 3734,
      "Ð±Ð¾": 3735,
      "Ð·Ð°Ð´Ð¸": 3736,
      "ÐµÐ´Ð¸Ð½": 3737,
      "Ð°Ð½Ð½Ð¾Ð³Ð¾": 3738,
      "ĠÑģÑĤÐ°ÑĤÑĮ": 3739,
      "Ð¸Ð¼ÑĭÐ¼": 3740,
      "ÐµÑģÐµÐ»": 3741,
      "Ð¸ÐºÑĥ": 3742,
      "ÐµÑħÐ°Ð»Ð¸": 3743,
      "ĠÐŀÑģÑĤ": 3744,
      "ĠÐ³ÑĢÐ¾Ð±": 3745,
      "ÑĪÐµÐµÑģÑı": 3746,
      "ĠÐ¿Ð¾ÐºÐ°Ð·Ð°Ð»": 3747,
      "ĠÐ²Ð¸Ð´Ðµ": 3748,
      "ĠÑĩÐµÑĢÐ½Ð°Ñı": 3749,
      "ÑĢÐ°Ð²ÐµÐ´": 3750,
      "ĠÐ½Ð°Ð¿Ð¾Ð»Ð½": 3751,
      "ĠÐ²ÐµÑĢÑħ": 3752,
      "ĠÐ·Ð°Ð¿Ð¸Ñģ": 3753,
      "ĠÐ½Ð°ÑģÐ¼ÐµÑĪ": 3754,
      "ĠÐ½ÐµÐ´ÐµÐ»Ñİ": 3755,
      "ĠÑģÐ¸Ð´ÐµÐ»Ð¸": 3756,
      "Ġ190": 3757,
      "ĠÑĢÐ°ÑģÑģÐ¼Ð°ÑĤÑĢ": 3758,
      "ĠÐ·Ð½Ð°ÐºÐ¾Ð¼ÑĭÑħ": 3759,
      "ĠÐ¿Ð¾ÑģÑĤÐµÐ»ÑĮ": 3760,
      "ĠÑģÑĤÐ°Ð½Ð¾Ð²Ð¸ÑĤÑģÑı": 3761,
      "ĠÐĲÐ»ÐµÐºÑģÐµ": 3762,
      "ĠÐ½Ð°Ð²ÑģÐµÐ³Ð´Ð°": 3763,
      "ĠÑĥÐ»Ð¸ÑĨÑĥ": 3764,
      "ĠÐ¾ÑĤÑĩÐµÐ³Ð¾": 3765,
      "ĠÐµÐ´Ð¸Ð½ÑģÑĤÐ²": 3766,
      "ĠÐ´Ð¾ÑĢÐ¾Ð³Ðµ": 3767,
      "ĠÐ¿ÑĢÐµÐ´ÑģÑĤÐ°Ð²Ð»ÑıÐ»": 3768,
      "ĠÐ²Ð½Ð¸Ð¼Ð°Ð½Ð¸Ðµ": 3769,
      "ĠÐ¿ÑĢÐ¸Ð·Ð½": 3770,
      "ĠÐ½Ð°Ð±Ð»Ñİ": 3771,
      "ĠÐºÐ°Ð¿Ð¸ÑĤÐ°Ð½": 3772,
      "ĠÐ²Ð¾Ð»Ð¾ÑģÑĭ": 3773,
      "ĠÐ³Ð¸Ð¼Ð½Ð°Ð·Ð¸ÑģÑĤ": 3774,
      "ĠÐ»Ð¾Ð¶ÑĮ": 3775,
      "ĠÐ½Ð°ÑĢÐ¾ÑĩÐ½Ð¾": 3776,
      "Ð¸Ð½Ð¾ÑĩÐºÐ°": 3777,
      "ĠÐ±Ð¾Ð»ÐµÐ·Ð½ÑĮ": 3778,
      "ĠÑĤÐµÐ¼Ð½Ð¾ÑĤÐµ": 3779,
      "ĠÐ¿ÑĥÑĤÐ¸": 3780,
      "ĠÐ¿ÑĢÐ¸Ð¿Ð¾Ð´": 3781,
      "ĠÐ¾ÑĤÑĩÐ°ÑıÐ½": 3782,
      "ĠÐ²ÐµÑĤÐµÑĢ": 3783,
      "ĠÐ¶ÐµÑģÑĤÐ¾Ðº": 3784,
      "ĠÐ¿ÑĢÐ¾Ð½Ð¸Ðº": 3785,
      "ĠÑĢÑĥÐºÐ¾Ð¿": 3786,
      "ĠÐ¿Ð¾ÐºÐ¾ÑĢÐ½Ð¾": 3787,
      "ĠÐ½Ð°Ð¿ÑĢÑıÐ¶": 3788,
      "ĠÑĢÐµÐ±ÐµÐ½ÐºÐ°": 3789,
      "ĠÑĥÐ¿ÑĢÐµÐº": 3790,
      "ĠÐ»Ð°ÑģÐºÐ¾Ð²Ð¾": 3791,
      "ĠÐĿÐ¾Ð²Ð¸ÐºÐ¾Ð²": 3792,
      "ĠÐ¥Ð¾ÑĢÐ¾ÑĪÐ¾": 3793,
      "ĠÐļÑĥÐºÑĥÑĪÐºÐ¸Ð½": 3794,
      "ĠÐŁÐµÑĤÑĮÐºÐ°": 3795,
      "ĠÑģÐµÐºÑĥÐ½": 3796,
      "ĠÐ½ÐµÐ»Ð¾Ð²ÐºÐ¾": 3797,
      "ĠÐļÐ°ÑĢÐ°ÑĥÐ»": 3798,
      "ĠÐļÐ¾Ð»Ð¾ÑģÐ¾Ð²": 3799,
      "ĠÑĢÐ°Ð·Ð´ÑĢÐ°Ð¶": 3800,
      "ĠÐľÐ¸ÑħÐ°Ð¹Ð»Ð¾Ð²Ð¸Ñĩ": 3801,
      "30": 3802,
      "ĠÐ¦": 3803,
      "ÑģÑİ": 3804,
      "Ð»ÑĭÐµ": 3805,
      "ĠÑģÐ¸Ð»Ð°": 3806,
      "ĠÐ¸Ñī": 3807,
      "ÑĪÐµÐ¼": 3808,
      "ĠÐ´ÑĭÐ¼": 3809,
      "Ð¾Ð»Ð¸": 3810,
      "ĠÑĩÐµÑħÐ¾Ð²": 3811,
      "ĠÐ·Ð»Ð¾Ð²": 3812,
      "ĠÐµÐ·Ð´": 3813,
      "Ð¾ÑģÐºÐ¾Ð²": 3814,
      "ĠÑĥÑħÐ¾Ð´Ð¸Ð»": 3815,
      "ÑĨÐ°ÑĢ": 3816,
      "Ð¾Ð½Ð¸": 3817,
      "Ð¾Ð½ÑĤÐµ": 3818,
      "ĠÐĿÐ¸": 3819,
      "ĠÐ¿Ð¾ÑįÑĤ": 3820,
      "ÐµÑģÐ¿": 3821,
      "ĠÑħÐ¼ÑĥÑĢ": 3822,
      "ĠÐ²ÑĭÑĢÐ°Ð·": 3823,
      "ÐµÐºÑĤ": 3824,
      "ÑĢÐ°ÑĩÐ½Ð¾": 3825,
      "ĠÐŀÐº": 3826,
      "ĠÐ¿Ð¾Ð´ÑĤ": 3827,
      "ĠÐ¿Ð¾Ð´Ð¾Ð·ÑĢ": 3828,
      "ĠÐ¸Ð·Ð¼": 3829,
      "ÑĭÐ²Ð°ÑİÑĤ": 3830,
      "ĠÑĪÐ»Ð°": 3831,
      "ĠÑĪÐµÑİ": 3832,
      "ĠÑĢÐ°ÑģÑģÐº": 3833,
      "ĠÐ´Ð²ÑĥÐ¼": 3834,
      "ĠÐ´ÑĢÑĥÐ³Ð¸Ð¼": 3835,
      "ĠÐ»ÑİÐ±ÐµÐ·": 3836,
      "ĠÑĦÐ¸Ð·": 3837,
      "ĠÐ¼Ð¾Ð³Ð¸Ð»": 3838,
      "ĠÐ¸Ð¼ÐµÐ½Ð¸": 3839,
      "ĠÐ·Ð½Ð°Ð»Ð¸": 3840,
      "ĠÑģÐ¾Ð²ÐµÑĤ": 3841,
      "ĠÑħÐ¾ÑĤÐµÐ»Ð°": 3842,
      "Ð¸Ð²ÑĪÐ°Ñı": 3843,
      "ĠÐ²Ð¿Ð¾Ð»": 3844,
      "ÑĢÐ¸ÑģÑĤÐ¸": 3845,
      "Ð¸ÑĩÐµÑģÐºÐ¸Ðµ": 3846,
      "ĠÐ½ÐµÑģÐ¼Ð¾ÑĤÑĢÑı": 3847,
      "ĠÑĥÑģÐ¸Ð»": 3848,
      "ĠÐ¾ÑĤÐ´ÑĭÑħ": 3849,
      "ĠÑħÐ¾Ð´Ð¸ÑĤÑĮ": 3850,
      "ĠÐ¼Ð¾ÑĢÑī": 3851,
      "ĠÑĥÑĤÑĢÐ°": 3852,
      "Ð»ÐµÑĤÑĢÐ¸ÑģÑĤ": 3853,
      "ĠÐ·Ð»Ð¾Ð±": 3854,
      "ĠÐ²Ð½Ð¸Ð¼Ð°Ð½Ð¸Ñı": 3855,
      "ĠÐ½ÐµÐ¶Ð½Ð¾": 3856,
      "ĠÐ»Ð°Ð²ÐºÐµ": 3857,
      "ĠÑĤÐµÑĢÐ¿": 3858,
      "Ð¸ÑĤÐµÐ»ÐµÐ¹": 3859,
      "ĠÐ¿ÑĢÐ°Ð·Ð´Ð½Ð¸Ðº": 3860,
      "ĠÑģÐ¿ÑĢÐ°ÑĪÐ¸Ð²Ð°Ð»": 3861,
      "ĠÐ²ÑĤÐ¾ÑĢÐ¾Ð¹": 3862,
      "ĠÑĨÐ²ÐµÑĤÑĭ": 3863,
      "ĠÐ¿ÑĢÐ¾Ð¸Ð·Ð²ÐµÐ´": 3864,
      "ĠÑħÐ»ÐµÐ±": 3865,
      "ÐµÑĢÐ²ÑĭÐµ": 3866,
      "ĠÐ´Ð¾Ð²ÐµÑĢ": 3867,
      "ĠÑĤÐ¸ÑĪÐ¸Ð½Ð°": 3868,
      "ĠÐºÐ°Ð±Ð¸Ð½ÐµÑĤ": 3869,
      "ĠÐĲÐ»ÐµÑĪ": 3870,
      "ĠÐ¿ÑĢÐµÐ·ÑĢ": 3871,
      "ĠÐŁÑĢÐ°Ð²Ð´Ð°": 3872,
      "Ð¸Ð½Ð°Ñı": 3873,
      "ÑıÐ±": 3874,
      "ÑĮÑĤÐµ": 3875,
      "ĠÐ¿ÑĥÑĪ": 3876,
      "ĠÐ¿Ð¾Ð»ÑĮÐ·": 3877,
      "ĠÐ²Ð½Ðµ": 3878,
      "ĠÐºÑĢÐ°": 3879,
      "Ð¾Ð²Ð¸Ñī": 3880,
      "ĠÐ±ÑĥÑĤÑĭÐ»": 3881,
      "ĠÑĤÑı": 3882,
      "ĠÑĤÑī": 3883,
      "ĠÑĤÐ°Ð±": 3884,
      "ÐµÐ»Ðµ": 3885,
      "ĠÐ¼Ð¸Ð³": 3886,
      "ĠÐ¿ÑĢÐ¾Ð²Ð°Ð»": 3887,
      "ĠâĢ¦": 3888,
      "ĠÐ»Ð¶": 3889,
      "ĠÑģÑĤÐ°Ð½": 3890,
      "ĠÐºÐ°ÐºÐ¾Ð¼": 3891,
      "ÐµÐ²Ð¸Ð´Ð½Ð¾": 3892,
      "ĠÐĴÐ¸Ð´": 3893,
      "ĠÐĺÐ²Ð°Ð½Ð¾Ð²": 3894,
      "ĠÑĤÐ°ÐºÐ¸Ð¼Ð¸": 3895,
      "ĠÐ¾Ð±ÐµÑī": 3896,
      "ĠÑģÐ»ÐµÐ¿": 3897,
      "Ð°Ð»Ð¸ÑģÑĤ": 3898,
      "ĠÐ¸Ð·Ð´Ð°": 3899,
      "Ð¸Ð·Ñĥ": 3900,
      "ĠÐ§ÐµÑĢ": 3901,
      "ĠÐĶÐ°Ð¶Ðµ": 3902,
      "ĠÑģÐ²Ð¾ÐµÐ¼Ñĥ": 3903,
      "ĠÐ¿Ð¾ÑģÐµÑĤ": 3904,
      "ĠÑģÐ°Ð¼Ð°Ñı": 3905,
      "ĠÐ²Ð¸Ð´Ð¸ÑĤ": 3906,
      "ĠÐ¾ÑĩÐµÑĢ": 3907,
      "ĠÐ¶ÐµÐ½Ñĭ": 3908,
      "ĠÐ³Ð¾Ð»Ð¾Ð²Ð¾Ñİ": 3909,
      "ĠÐŁÑĢÐ¾": 3910,
      "ĠÐ´ÑĥÐ¼Ð°ÐµÑĤ": 3911,
      "Ð»ÐµÐ½Ð½ÑĭÑħ": 3912,
      "ĠÐ¿Ð¾ÑĢÑĤ": 3913,
      "ĠÑģÐ¼Ð¾ÑĤÑĢÐµÐ»Ð°": 3914,
      "ĠÐ¿Ð¾Ð¿Ð°Ð´": 3915,
      "ĠÑģÑĤÐ¾Ð»Ð¾Ð¼": 3916,
      "ĠÐ¿ÑĢÐ¾ÑĤÑıÐ³": 3917,
      "Ð¸ÑĩÐµÑģÐºÐ¸Ñħ": 3918,
      "ĠÐ½Ð¾Ð²Ð¾Ðµ": 3919,
      "ĠÐ²ÐµÑĩÐµÑĢÐ°": 3920,
      "ĠÐºÐ°ÑĢÐ¼Ð°Ð½": 3921,
      "ĠÐ¸ÑģÐºÐ°Ð»": 3922,
      "ĠÐ´Ð¾ÑĢÐ¾Ð¶": 3923,
      "ĠÑģÑĤÐ°Ð½Ð¾Ð²Ð¸Ð»ÑģÑı": 3924,
      "ĠÐ´ÐµÑĢÐµÐ²ÑĮÑı": 3925,
      "ĠÐ®ÑĢÐ°": 3926,
      "ĠÑĩÐ¸ÑĤÐ°Ð»": 3927,
      "ĠÐ½ÐµÐ·Ð°Ð¼": 3928,
      "ĠÑĤÑĢÑĥÐ´Ð¾Ð¼": 3929,
      "Ð¾Ð½ÑĮÐºÐ¾": 3930,
      "ĠÑģÐ±Ð¾ÑĢ": 3931,
      "ĠÑıÐ·ÑĭÐº": 3932,
      "ĠÐ¿Ð°Ð»ÑĮÑĨÐµÐ¼": 3933,
      "ĠÑĢÐ°Ð´Ð¾ÑģÑĤÐ½Ð¾": 3934,
      "ĠÐ¼ÐµÑĢÐµ": 3935,
      "ĠÐ¿ÑĢÐ¸Ð¶Ð¸Ð¼": 3936,
      "ĠÐ´Ð²ÐµÑĢÐµÐ¹": 3937,
      "ĠÐĿÐ°ÑģÑĤÐ°ÑģÑĮ": 3938,
      "ĠÐ¿ÐµÑĢÐ¸Ð¾Ð´": 3939,
      "15": 3940,
      "ĠH": 3941,
      "Ð»ÐµÐ²": 3942,
      "ÑĢÐµÐ±": 3943,
      "ÑıÐµÑĤ": 3944,
      "ĠÑģÐ¸": 3945,
      "ĠÑģÐ¾ÑĢ": 3946,
      "ĠÐ¿ÐµÐ²": 3947,
      "ĠÐ½Ñĭ": 3948,
      "ÑĩÐµÐ³Ð¾": 3949,
      "ÐºÐ°Ð»Ð¸": 3950,
      "ĠÐºÐ°Ð»": 3951,
      "Ð¾Ð²Ð°Ð»Ð¾": 3952,
      "ÑĪÑĥÐ¼": 3953,
      "ĠÐ±ÑĢÐ¾ÑģÐ¸Ð»": 3954,
      "ĠÐ´Ð°Ð¼Ð°": 3955,
      "Ð¾Ð»Ñı": 3956,
      "ĠÐ¼Ð°ÑģÑĤ": 3957,
      "ĠÐ¿ÑĢÐµÑģ": 3958,
      "ĠÑĢÐ¾Ð¶": 3959,
      "ĠÐµÐ»": 3960,
      "ĠÑĥÑģÑĤÑĢ": 3961,
      "Ð¸Ð²Ð°Ð»Ð°ÑģÑĮ": 3962,
      "ĠÐ¶Ð³": 3963,
      "ĠÐ¾ÑĤÐ·": 3964,
      "Ð°Ð½ÑĤÐ°": 3965,
      "ĠÑģÑĤÐ°Ð½ÑĨ": 3966,
      "Ð¸Ð¼Ð¾Ð¹": 3967,
      "Ð´Ð°Ñı": 3968,
      "Ð´Ð°ÑİÑī": 3969,
      "ĠÐŁÐ¾Ð¼Ð½": 3970,
      "ĠÐ²ÑĭÐ¹": 3971,
      "ĠÐ¿Ð¾Ð´ÑħÐ¾Ð´": 3972,
      "ĠÐļÐ°Ð¶Ð´": 3973,
      "ĠÐľÐ¸Ð»": 3974,
      "Ð¾ÑĩÐµÐ¼": 3975,
      "ĠÑĪÐ»ÑıÐ¿": 3976,
      "ĠÐ¿Ð¾ÑģÐ»ÑĥÑĪ": 3977,
      "ĠÑĤÑĢÐµÐ¿ÐµÑĤ": 3978,
      "ĠÐ´ÑĢÑĥÐ³Ð¾Ð¼": 3979,
      "ĠÐ¿Ð»Ð¾Ñģ": 3980,
      "ĠÑĩÐµÑĢÐ½ÑĭÐ¹": 3981,
      "ĠÑĩÐµÑĢÐ½ÑĥÑİ": 3982,
      "ĠÐ»ÑİÐ±Ð¸ÑĤÑĮ": 3983,
      "ĠÐºÐ¾Ð½ÐµÑĨ": 3984,
      "ĠÐłÐ¾ÑģÑģ": 3985,
      "ĠÑģÐµÑĢÐµÐ±": 3986,
      "Ð»ÐµÐ½Ð½Ð°Ñı": 3987,
      "ĠÐºÐ¾Ð»ÐµÑģ": 3988,
      "ĠÐ·Ð°ÐºÐ»ÑİÑĩ": 3989,
      "Ð°ÑİÑīÐµÐ¹": 3990,
      "ĠÐ¿ÑĢÐ¾ÑģÐ¸Ð»": 3991,
      "Ð¸ÑĩÐµÑģÐºÐ¾Ð¹": 3992,
      "ĠÐ¸ÑģÐ¿Ð¾Ð»Ð½": 3993,
      "ĠÐ¿Ð¾Ð½Ð¸Ð¼Ð°Ñİ": 3994,
      "ĠÐľÐ¾ÑģÐºÐ²Ñĭ": 3995,
      "ĠÐ´Ð¾Ð±ÑĢÐ¾": 3996,
      "ĠÐ½Ð°ÐºÐ»Ð¾Ð½": 3997,
      "ĠÐ´Ð¾ÑĢÐ¾Ð³Ñĥ": 3998,
      "ĠÑĪÐ¸ÑĢÐ¾ÐºÐ¾": 3999,
      "ĠÑģÐ¾Ð·Ð½": 4000,
      "ĠÐ²Ð¾Ð·Ð´ÑĥÑħÐµ": 4001,
      "ĠÑĩÑĥÐ¶Ð´": 4002,
      "Ð§Ð°Ð¹": 4003,
      "ĠÐ±ÑĥÐ¼Ð°Ð¶": 4004,
      "ĠÐ¾ÑĤÐ²ÐµÑĩÐ°Ð»": 4005,
      "ĠÐ¾Ð±ÑĭÐºÐ½Ð¾Ð²ÐµÐ½Ð½Ð¾": 4006,
      "ĠÐ¿Ð¾ÑģÐ»ÑĭÑĪ": 4007,
      "ĠÐ²ÑģÑĤÐ°Ð»": 4008,
      "ĠÑĢÐ°ÑģÑĤÐµÑĢ": 4009,
      "ĠÑĤÑĭÑģÑıÑĩÐ¸": 4010,
      "ĠÐ¿ÑĢÐ¾Ð·ÑĢÐ°Ñĩ": 4011,
      "ĠÑĢÑĥÐ±Ð°ÑĪ": 4012,
      "ĠÐ±ÐµÑĢÐµÐ³Ñĥ": 4013,
      "ĠÐ¼ÑĥÐ·ÑĭÐºÐ°": 4014,
      "ĠÑģÑĥÑĢÐ¾Ð²": 4015,
      "ĠÐĵÐ°ÑĢÐ°ÑģÑĮÐºÐ°": 4016,
      "ĠÐ¼Ð³Ð½Ð¾Ð²": 4017,
      "ÑĢÐ¸ÑĤÑıÐ½": 4018,
      "ĠÐ¨ÐµÐ²ÑĭÑĢÐµÐ²": 4019,
      "Ð°ÑĤÐ¾ÑĩÐ½Ð¾": 4020,
      "ĠÐĴÐ»Ð°Ð´Ð¸Ð¼": 4021,
      "Ð¸Ð½Ð¸": 4022,
      "Ð½ÐµÑĢ": 4023,
      "ĠÑģÐ°Ð½Ð¾Ð²": 4024,
      "ĠÑģÐ·Ð°Ð´Ð¸": 4025,
      "ĠÐ¿Ñģ": 4026,
      "ĠÐ²ÐºÑĥÑģ": 4027,
      "ĠÐ¾Ð³Ð¾ÑĢ": 4028,
      "ÑĪÐ¸Ð½": 4029,
      "ÑĪÑĥÑİ": 4030,
      "ÐµÐ½Ñĥ": 4031,
      "ÐµÐ½Ð½Ð¾Ð¼Ñĥ": 4032,
      "ĠÐ±Ð°Ñģ": 4033,
      "ĠÑĤÐµÐ½": 4034,
      "ĠÑĤÐµÑĩ": 4035,
      "Ð¾Ð»Ð·": 4036,
      "ĠÐ¼Ð°ÑģÑģ": 4037,
      "Ð¾Ð´Ð½Ð¾": 4038,
      "ĠÑĢÐ¾ÑģÑĤ": 4039,
      "ÐµÐ¼ÐµÐ½Ð½Ð¾": 4040,
      "Ð°Ð²Ð°ÑĤÑĮ": 4041,
      "ĠÐ¾ÑĤÑĨÑĥ": 4042,
      "Ð¾ÐºÐ¾Ð²": 4043,
      "Ð°ÑıÐ²": 4044,
      "ĠÐĺÐ»Ð¸": 4045,
      "ĠÑħÑĢÐ¸Ð¿": 4046,
      "ĠÐ²ÑĭÑĢ": 4047,
      "ĠÐ¾Ð±Ð¸Ð¶": 4048,
      "ĠÐļÑĥÑģ": 4049,
      "ĠÐºÐ¾ÑĤÐ¾ÑĢÑĭÐ¼Ð¸": 4050,
      "ĠÐ§ÐµÐ³Ð¾": 4051,
      "ĠÐ¢ÐµÐ±Ðµ": 4052,
      "ÑīÐµÑģÑĤÐ²Ð°": 4053,
      "ĠÑĪÐ²ÐµÐ¹": 4054,
      "ĠÐ¿ÐµÑĢÐµÑĪ": 4055,
      "ÑĥÑĪÐºÑĥ": 4056,
      "ĠÑģÐ¿Ð¾ÑģÐ¾Ð±": 4057,
      "ĠÐ¿Ð¾Ð»ÐµÐ·": 4058,
      "ĠÑĤÑĢÐµÑĤ": 4059,
      "ĠÑĢÑĥÐºÐµ": 4060,
      "Ð¼ÑĥÑī": 4061,
      "ĠÐ±Ð¾Ð»ÑĮÐ½Ð¾Ð¹": 4062,
      "Ð»Ð¸Ð²Ð¾Ð¹": 4063,
      "ĠÐĵÐ°Ð²ÑĢ": 4064,
      "ĠÐ²Ð¾Ð·Ð±": 4065,
      "ĠÑĤÐµÐ¼Ð½Ð¾Ð¹": 4066,
      "ĠÑģÐ¾Ð±Ð°ÐºÐ¸": 4067,
      "ĠÐ·Ð²ÐµÐ·Ð´": 4068,
      "ĠÐ´ÑĥÐ¼Ð°Ñİ": 4069,
      "ĠÐ±Ð¾Ð»ÑĮÑĪÐ°Ñı": 4070,
      "ĠÐ±Ð¾Ð»ÑĮÑĪÐ¾Ðµ": 4071,
      "ĠÐ¿ÑĢÐ¾ÑĤÑı": 4072,
      "Ð¸ÑĩÐµÑģÐºÐ¸": 4073,
      "ĠÐ½Ð°Ð·Ð½Ð°Ñĩ": 4074,
      "ĠÑģÐ¸Ð´Ð¸ÑĤ": 4075,
      "ĠÑģÑĤÐ¾ÑĢÐ¾Ð½Ðµ": 4076,
      "ĠÐ¶Ð°Ð»ÐºÐ¾": 4077,
      "ĠÑģÐ¼ÐµÑıÑĤÑĮÑģÑı": 4078,
      "Ð»ÑıÐ»Ð¸ÑģÑĮ": 4079,
      "ĠÐ¾ÑĤÐ´Ð°Ð»": 4080,
      "Ð°ÑĤÐµÐ»Ñı": 4081,
      "ĠÐ½Ð°ÑĪÐ¸": 4082,
      "ĠÐ¸Ð´Ð¸": 4083,
      "ĠÑĥÐ´Ð¸Ð²Ð¸Ð»ÑģÑı": 4084,
      "ĠÐ¼Ð¸Ð½ÑĥÑĤÑĭ": 4085,
      "ĠÐ¿ÑĢÐ¾ÑĪÐµÐ»": 4086,
      "ĠÑĥÐ»Ð¸ÑĨ": 4087,
      "ĠÑģÑĤÐµÐ½Ðµ": 4088,
      "ĠÑıÑĢÐºÐ¾": 4089,
      "Ð¾Ð¹Ð´ÐµÑĤ": 4090,
      "ĠÐ¿Ð»Ð°ÐºÐ°Ð»Ð°": 4091,
      "ĠÐ¾Ð¶Ð¸Ð²": 4092,
      "ĠÐ´ÑĢÐ¾Ð¶Ð°Ñī": 4093,
      "ĠÑĥÑĩÐµÐ½": 4094,
      "ĠÐ²Ð¿ÐµÑĢÐµÐ´Ð¸": 4095,
      "ĠÐ½ÐµÑĢÐµÑĪ": 4096,
      "ĠÐ½ÐµÐºÐ¾ÑĤÐ¾ÑĢÑĭÐµ": 4097,
      "ĠÐ¿Ð¾Ð¹Ð´Ñĥ": 4098,
      "ĠÐ°ÐºÑĤÐµÑĢ": 4099,
      "ĠÐ´ÑĢÑĥÐ¶ÐµÑģÐº": 4100,
      "ÑĥÐ»ÑĮÑĤ": 4101,
      "ÐķÐ¶": 4102,
      "ĠÐ²ÐµÑīÐ¸": 4103,
      "ĠÑģÐ¼ÑĥÑĤÐ½Ð¾": 4104,
      "ĠÐ¿ÑĥÑģÑĤÑĭÐ½": 4105,
      "ĠÐ¿Ð°Ð¼ÑıÑĤÐ¸": 4106,
      "ĠÑĤÐ¾Ð±Ð¾Ð¹": 4107,
      "ĠÐ½Ð°ÑģÑĤÐ¾Ð¹ÑĩÐ¸Ð²Ð¾": 4108,
      "ĠÐ²Ð¾Ð²ÑģÐµ": 4109,
      "ĠÐĹÐ´ÐµÑģÑĮ": 4110,
      "ĠÐ¡Ð°Ð·Ð¾Ð½ÐºÐ°": 4111,
      "ĠÐĲÐ±ÑĢÐ°Ð¼": 4112,
      "ĠÐ¿ÑĢÐ¸Ð½Ð°Ð´Ð»ÐµÐ¶": 4113,
      "ĠÑģÐ¾Ð²ÑĢÐµÐ¼ÐµÐ½Ð½Ð¸ÐºÐ¾Ð²": 4114,
      "ÑĥÐºÐ°": 4115,
      "ĠÑģÐ¾ÑĤ": 4116,
      "ĠÐ¿ÐµÑĤÑĮ": 4117,
      "ĠÐ¿ÑĥÑģÑĤÑĮ": 4118,
      "ĠÐ½Ð°Ð¼Ð¸": 4119,
      "ĠÐ½ÐµÐ³Ð¾Ð´": 4120,
      "ĠÐ²Ð¸Ñģ": 4121,
      "ÑĤÐ¾Ñİ": 4122,
      "ÑĪÐ¸ÑĢ": 4123,
      "Ð¾Ð»Ð¾Ð²": 4124,
      "ĠÐ¼ÑĢÐ°Ðº": 4125,
      "ĠÑĩÐµÐ¼Ñĥ": 4126,
      "ĠÐ·ÑĢ": 4127,
      "ĠÐ·Ð°ÑıÐ²": 4128,
      "ĠÐ¿ÑĢÐ¸Ð³Ð¾": 4129,
      "Ð¾Ð´Ñĭ": 4130,
      "ĠÐ½ÐµÑģÐº": 4131,
      "ĠÑĢÐ¾Ð±": 4132,
      "ĠÐ³Ð½": 4133,
      "Ð½Ð¸Ð½": 4134,
      "Ð¾Ð³Ð°": 4135,
      "Ð¸Ð²ÑĭÐ¹": 4136,
      "ĠÐ¶ÑĥÑĤ": 4137,
      "ĠÐĿÐ°Ð¿": 4138,
      "ĠÑįÐ¿": 4139,
      "ĠÑģÐ²Ð¸Ð½": 4140,
      "Ð»ÑıÐ½": 4141,
      "Ð»ÑıÐ»Ð¸": 4142,
      "ĠÐ¾Ð±ÑĢÐ°Ð´": 4143,
      "ĠÐ¡Ð¾": 4144,
      "ĠÑģÐºÐ²ÐµÑĢ": 4145,
      "ĠÐºÑĢÐ¸ÑĤ": 4146,
      "ĠÐºÑĢÐ¸Ð²": 4147,
      "ĠÐºÑĢÑĭÐ»": 4148,
      "ĠÐ¾Ð´Ð½Ð°ÐºÐ¾": 4149,
      "Ð¾Ð¿Ð¾Ð»": 4150,
      "ÐµÐ¶Ð´Ñĭ": 4151,
      "ĠÑģÐ¿Ð¸Ð½Ñĥ": 4152,
      "ĠÐ¿Ð¾Ð»Ñı": 4153,
      "ĠÐ¿Ð¾ÑģÑĤÐ¾ÑĢÐ¾Ð½": 4154,
      "ĠÑĩÐµÑĢÐ½": 4155,
      "ĠÐ¼Ð¾Ð»Ð¸ÑĤ": 4156,
      "Ð¸Ð±Ð»Ð¸": 4157,
      "ĠÐ»ÑİÐ±Ð¸Ð»Ð°": 4158,
      "ĠÐ¾ÑĤÐ²ÑĢÐ°Ñī": 4159,
      "Ð½ÑıÐ»Ð¸": 4160,
      "ĠÑĤÐµÐ¼Ð½ÑĭÐµ": 4161,
      "ĠÑĥÐ¼Ð¸ÑĢ": 4162,
      "ĠÐ·Ð²Ð°Ð»Ð¸": 4163,
      "ĠÐ¾Ð³Ð½": 4164,
      "ĠÐ¾Ð³Ð»ÑıÐ´ÑĭÐ²": 4165,
      "ĠÐ¿Ð¾Ð¿ÑĭÑĤ": 4166,
      "ĠÑĩÑĥÐ²ÑģÑĤÐ²Ð°": 4167,
      "ĠÐ¾ÑĤÐ²ÐµÑĤÐ°": 4168,
      "ĠÑĩÐ°ÑģÐ°": 4169,
      "ĠÐ²Ð¾ÑģÐº": 4170,
      "ĠÐ±ÐµÐ»Ð»ÐµÑĤÑĢÐ¸ÑģÑĤ": 4171,
      "ĠÑĥÐ²Ð»ÐµÐº": 4172,
      "ĠÐ¿ÑĢÐ°Ð²Ð´Ñĥ": 4173,
      "ĠÐ½ÐµÐ²Ð¾Ð»ÑĮ": 4174,
      "ĠÐ½Ð¾Ð²Ð¾Ð¹": 4175,
      "ĠÐ»ÐµÑĤÐ¾Ð¼": 4176,
      "ĠÐĿÐ¸ÐºÐ¾Ð»Ð°Ñı": 4177,
      "ĠÐ¾ÑĤÐ´ÐµÐ»ÑĮ": 4178,
      "Ð°ÑĤÐµÐ»ÐµÐ¹": 4179,
      "ĠÐ»ÐµÐ¶Ð°Ð»Ð¸": 4180,
      "ĠÐ²ÐµÑģÑĮÐ¼Ð°": 4181,
      "ĠÑģÐ»ÑĭÑĪÐ½Ð¾": 4182,
      "ĠÑģÐ¾Ð»Ð½ÑĨÐ°": 4183,
      "ĠÐ¿ÑĢÐ¸ÑģÐ»ÑĥÑĪ": 4184,
      "ĠÑĥÑģÐ¿ÐµÐ»": 4185,
      "ĠÐ²ÐµÑģÐµÐ»ÑĭÐ¹": 4186,
      "ĠÐ±ÐµÑģÑģÐ¼ÑĭÑģÐ»": 4187,
      "ĠÐ¿Ð»ÐµÑĩÐ°Ð¼Ð¸": 4188,
      "ĠÐ½ÐµÐ¿ÑĢÐµÐ¼ÐµÐ½Ð½Ð¾": 4189,
      "ĠÑĤÐµÐ»Ð¾Ð¼": 4190,
      "ĠÑĥÐ´Ð°ÑĢÐ¸Ð»": 4191,
      "ĠÐ²ÑĭÑĢÐ°Ð¶ÐµÐ½Ð¸Ðµ": 4192,
      "ĠÐ´ÐµÐ¹ÑģÑĤÐ²Ð¸ÑĤÐµÐ»ÑĮÐ½Ð¾ÑģÑĤÐ¸": 4193,
      "ĠÑĩÐ°ÑīÐµ": 4194,
      "ĠÑĢÐµÐ´ÐºÐ¾": 4195,
      "ĠÐ»ÑİÐ±Ð¾Ð²ÑĮÑİ": 4196,
      "ĠÑģÐ»ÑĥÑĪÐ°Ð»": 4197,
      "Ð¸ÑĤÐ°Ð½Ð°": 4198,
      "ĠÐ²Ð¾Ð·Ð¼Ð¾Ð¶Ð½Ð¾": 4199,
      "ĠÑĢÐµÐ·ÐºÐ¾": 4200,
      "ĠÐ¼Ð°Ð»ÑĮÑĩÐ¸ÐºÐ°": 4201,
      "ĠÐ´Ð°ÑĩÑĥ": 4202,
      "ĠÑİÐ½Ð¾ÑĪ": 4203,
      "ĠÐ°ÑĢÑĤÐ¸ÑģÑĤ": 4204,
      "ĠÐ¿ÑĢÐ¸ÑĤÐ²Ð¾ÑĢ": 4205,
      "ĠÐ¿ÑĢÐµÐ²Ð¾Ñģ": 4206,
      "ĠÐ½ÐµÐ½Ð°Ð²Ð¸": 4207,
      "ĠÐºÐ»Ð°ÑģÑģÐ°": 4208,
      "ĠÑĩÐµÑĤÑĭÑĢÐµ": 4209,
      "ĠÐµÑħÐ°ÑĤÑĮ": 4210,
      "ĠÐ½ÐµÐ³ÑĢÐ¸ÑĤÑıÐ½": 4211,
      "ĠÐºÐ¾ÑĢÐ¸Ð´Ð¾ÑĢ": 4212,
      "ĠÐ¾Ð±ÑģÑĤÐ¾ÑıÑĤÐµÐ»ÑĮ": 4213,
      "17": 4214,
      "Ġ________": 4215,
      "ÐµÑıÐ»Ð¾": 4216,
      "Ð°ÑģÑĤÑĮ": 4217,
      "ÑĢÐµÐ¶": 4218,
      "ĠÑģÐ¸Ð¼": 4219,
      "ĠÐ¿ÑĤÐ¸": 4220,
      "ÑĩÐ¸Ñģ": 4221,
      "ÐºÐ¾ÑĢ": 4222,
      "ĠÐ²Ð¾ÑģÑĮ": 4223,
      "ĠÐ²ÑģÑĤÑĥÐ¿": 4224,
      "Ð²Ð¾Ð»ÑĮ": 4225,
      "ĠÐºÐµÐ¼": 4226,
      "ĠÐºÐ¸Ñģ": 4227,
      "ĠÐºÐ»Ð¸": 4228,
      "ĠÐºÐ°Ð¶": 4229,
      "Ð¾Ð²Ñĥ": 4230,
      "ÑģÑĤÐµÐ¹": 4231,
      "ÐµÐ½ÐµÑĢ": 4232,
      "ĠÐ´ÑıÐ´": 4233,
      "ĠÐ¼ÐµÐ¼Ñĥ": 4234,
      "ÑİÑģÑĮ": 4235,
      "ĠÐ·Ð°Ð¼Ð¸": 4236,
      "ĠÐ·Ð°Ð³Ð¾": 4237,
      "Ð¾Ð´Ñĥ": 4238,
      "Ð¾Ð´Ñı": 4239,
      "ĠÑĢÑİÐ¼": 4240,
      "ĠÐ»ÑĮ": 4241,
      "ĠÐ»ÐµÐ´": 4242,
      "ĠÐ»ÐµÐ²": 4243,
      "ĠÐ»ÑĭÑģ": 4244,
      "Ð¾ÑĤÐ°Ð»": 4245,
      "Ð°Ð½Ñı": 4246,
      "Ð³Ð»ÑıÐ´ÑĭÐ²": 4247,
      "ĠÐĴÐ°ÑĪ": 4248,
      "ĠÑħÑĢÐ¸ÑģÑĤÐ¸": 4249,
      "ÐºÐ°Ñĩ": 4250,
      "ĠÐ¡Ð²": 4251,
      "ĠÐ¡ÐµÐ¼": 4252,
      "ĠÑģÐºÐ»Ð¾Ð½": 4253,
      "ĠÐ¿ÐµÑĢÐµÐ¶": 4254,
      "ÑĥÑĪÐºÐ¸": 4255,
      "ĠÐ¿ÑĢÐ¸Ð¾Ð±ÑĢ": 4256,
      "ĠÑĤÑĢÐµÑĤÑĮ": 4257,
      "ĠÐ±ÑĥÐ´ÑĥÑī": 4258,
      "ĠÐĳÐµÐ·": 4259,
      "ĠÐ¾ÑĩÐ°ÑĢÐ¾Ð²": 4260,
      "Ð²ÐµÑĢÐ¶": 4261,
      "Ð½ÑıÐ¼Ð¸": 4262,
      "ĠÑĥÐ¼ÐµÑĢÑĪ": 4263,
      "ĠÑĩÐµÐ»Ð¾Ð²ÐµÐºÑĥ": 4264,
      "Ð°ÑĤÐµÐ»ÑĮÐ½ÑĭÐ¹": 4265,
      "ĠÐ¿Ð¾Ð½ÑĢÐ°Ð²": 4266,
      "ĠÐ²ÐµÑĢÑģÑĤ": 4267,
      "ĠÐ¿Ð¾Ð¿ÑĢÐ¾ÑģÐ¸Ð»": 4268,
      "ĠÑĩÑĥÐ²ÑģÑĤÐ²ÑĥÑı": 4269,
      "ĠÐ·Ð°ÐºÐ¾Ð½": 4270,
      "ĠÐ²Ð¿ÐµÑĢÐ²ÑĭÐµ": 4271,
      "ĠÑĤÐ¸ÑħÐ¸Ð¹": 4272,
      "ĠÑĥÐ±ÐµÐ¶Ð´": 4273,
      "ĠÐ¼Ð°Ð»ÐµÐ½ÑĮÐºÐ¾Ð¹": 4274,
      "ĠÐ¼Ð¾Ð»ÑĩÐ°Ð»Ð¸": 4275,
      "ĠÐŀÑĤÑĩÐµÐ³Ð¾": 4276,
      "ĠÑĢÐ°Ð±Ð¾ÑĤÐ°Ð»": 4277,
      "ĠÐ²Ð¾Ð´Ñĥ": 4278,
      "ĠÐ½ÐµÑģÐ¾Ð¼Ð½": 4279,
      "ĠÐ¿ÑĥÑģÑĤÑı": 4280,
      "Ð»ÐµÐ½Ð½Ð¾Ðµ": 4281,
      "ĠÑģÐ¸Ð»Ð¾Ð¹": 4282,
      "ĠÐ¼Ð¾ÑĢÐ¾Ð·": 4283,
      "ĠÑģÐ¾Ð»Ð½ÐµÑĩ": 4284,
      "______": 4285,
      "ĠÑĥÑĤÐµÑĪ": 4286,
      "ĠÑģÐ»ÐµÐ·Ð°Ð¼Ð¸": 4287,
      "ĠÐ±ÐµÑĢÐµÐ·": 4288,
      "ĠÐ»Ð°Ð²ÐºÑĥ": 4289,
      "ĠÐ¿Ð¾Ð»Ð¾Ð¶Ð¸Ð»": 4290,
      "ĠÑĪÐµÐ¿ÑĤÐ°Ð»": 4291,
      "ĠÑĩÑĥÐ´ÐµÑģ": 4292,
      "ĠÐ¿Ð¾ÑĪÐ»Ð°": 4293,
      "ĠÑĥÑĤÑĢÐ¾": 4294,
      "ĠÑĢÐµÑĩÑĮ": 4295,
      "ĠÑģÑĩÐ¸ÑĤÐ°Ð»": 4296,
      "ĠÐ¾ÑĤÑģÑĥÑĤÑģÑĤÐ²": 4297,
      "ĠÑįÐºÐ·": 4298,
      "ĠÐ²Ð¾ÑģÑĤÐ¾ÑĢÐ³": 4299,
      "ĠÑĢÐ°Ð·Ð¼ÑĭÑĪ": 4300,
      "ĠÑĤÐµÐ°ÑĤÑĢÐ°": 4301,
      "ĠÐ¼Ð°ÑģÑĤÐµÑĢ": 4302,
      "ĠÐ¾Ð³Ð¾ÑĢÑĩ": 4303,
      "ĠÐ¿ÑĢÐµÐ²Ð¾ÑģÑħÐ¾Ð´": 4304,
      "Ġ______________": 4305,
      "!\"": 4306,
      "16": 4307,
      "18": 4308,
      "ÑĤÐµÐ»": 4309,
      "ÑĤÐ¾Ð³Ð¾": 4310,
      "Ð»ÐµÐ¼": 4311,
      "Ð»Ð°Ð¶": 4312,
      "Ð»ÐµÑģÐº": 4313,
      "ÑĢÐ¾Ð±": 4314,
      "ĠÐ²ÐµÐ´": 4315,
      "ĠÐ¸Ð´Ñĥ": 4316,
      "ĠÐºÑĥÑĩ": 4317,
      "ÑĪÐ°": 4318,
      "ĠÐ±Ð°Ð»": 4319,
      "ĠÐ±Ð¾Ð´": 4320,
      "ĠÐ±ÑĥÐ»ÑĮ": 4321,
      "ĠÐ¿ÑĢÐ¾Ð»": 4322,
      "Ð¾Ð´Ð¸": 4323,
      "Ð¾ÑģÐ½Ð¾Ð²": 4324,
      "Ð¾ÑĢÐµÑĩ": 4325,
      "ÑīÐ¸Ðº": 4326,
      "ĠÑģÑĤÐ¾Ð»ÑĮÐºÐ¾": 4327,
      "Ð¸Ð½ÑĥÐ²": 4328,
      "Ð°ÑĢÐ¾Ð¼": 4329,
      "ĠÐĴÐµÑĢÐ°": 4330,
      "ĠÐ²ÑĭÑģÐ»": 4331,
      "ÑĭÐ²Ð°Ð»Ð¾": 4332,
      "ÑĭÐ²Ð°Ð»Ð¸ÑģÑĮ": 4333,
      "ĠÐľÐµÐ½Ñı": 4334,
      "ÐµÑģÑĤÐ½Ð¾": 4335,
      "ĠÑģÐ¿Ð¾ÑĢ": 4336,
      "ĠÑģÐ¿ÑĥÑģÑĤ": 4337,
      "Ð°Ð»ÑĮÐ½Ð¾Ð¹": 4338,
      "Ð°Ð»ÑĮÐ½Ð¾Ðµ": 4339,
      "ĠÐ³ÑĢÐµÑħ": 4340,
      "ĠÑĤÑĢÐ¾Ð½": 4341,
      "ĠÐ²Ð·ÑıÑĤÑĮ": 4342,
      "ĠÐ³Ð¾ÑĢÐµ": 4343,
      "ĠÐĳÐ¾Ð¶Ðµ": 4344,
      "ĠÑĩÐµÑĢÐ½Ð¾Ð¹": 4345,
      "Ð¸Ð³Ð¸Ð½": 4346,
      "ĠÑĨÐµÐ¿": 4347,
      "ĠÐ²ÑĢÐ°Ð¶Ð´": 4348,
      "ĠÐ²ÑĢÐ¾Ð´Ðµ": 4349,
      "ĠÐ²Ð¾Ð·Ð¼ÑĥÑī": 4350,
      "ĠÐ¼Ð¾Ð³ÑĥÑĩ": 4351,
      "ÐµÐ½ÑĮÐºÐ¾Ð¹": 4352,
      "ĠÑĥÐ¼Ð°": 4353,
      "ĠÑħÐ¾ÑĤÐ¸ÑĤÐµ": 4354,
      "ĠÐ±ÐµÑģÑĪÑĥÐ¼": 4355,
      "ĠÐ´Ð¾Ð¼Ð¾Ð²": 4356,
      "Ð¸Ð²ÑĪÐ¸Ðµ": 4357,
      "ĠÐ¾Ð³Ð»Ñı": 4358,
      "ĠÑģÐ²ÐµÑĤÐ¾Ð¼": 4359,
      "ĠÐºÑĢÐ°ÑģÐ¸Ð²Ð°Ñı": 4360,
      "ĠÐ´ÐµÐ»Ð°ÐµÑĤ": 4361,
      "ĠÐĲÐ½ÑĤÐ¾Ð½Ñĥ": 4362,
      "ĠÐ·Ð°ÐºÑĢÑĭÐ²": 4363,
      "ĠÑģÐ»Ð¾Ð²Ð°Ð¼Ð¸": 4364,
      "ĠÐ½ÐµÐ²Ð¾Ð·Ð¼Ð¾Ð¶Ð½Ð¾": 4365,
      "ĠÐ¶Ð¸Ð²Ð¾Ð¹": 4366,
      "ĠÐ²ÑĭÑģÐ¾ÐºÐ¾": 4367,
      "ĠÐ¿ÐµÑĢÐ²Ð¾Ðµ": 4368,
      "ĠÐºÐ°Ð¶Ð´ÑĥÑİ": 4369,
      "ĠÑĢÐ°Ð±Ð¾ÑĤÐ°": 4370,
      "ĠÐ½Ð°ÑĪÐµÐ¹": 4371,
      "ĠÐ¸Ð´ÑĥÑĤ": 4372,
      "ĠÑĢÐ°ÑģÑģÐ¼Ðµ": 4373,
      "ÐµÐ²ÑĪÐ¸Ðµ": 4374,
      "ĠÐŀÐ´Ð½Ð°": 4375,
      "ĠÐ±ÑĭÐ²Ð°Ð»": 4376,
      "ĠÑĥÑģÐ¿ÐµÑħ": 4377,
      "ĠÐ´Ð¾ÑĢÐ¾Ð³Ð¸": 4378,
      "ĠÑĪÐ°Ð³Ð¸": 4379,
      "ĠÐºÑĢÐ¾Ð²Ð°ÑĤÑĮ": 4380,
      "ĠÐ½Ð°ÑĩÐ°Ð»Ðµ": 4381,
      "Ð°Ð´ÑĨÐ°ÑĤÐ¸": 4382,
      "ĠÐ´ÐµÑĢÐ¶Ð°Ð»": 4383,
      "ĠÐ¿ÑĢÐµÐºÑĢÐ°ÑģÐ½Ð¾": 4384,
      "ĠÐĳÑĭÑĤÑĮ": 4385,
      "ĠÐ¿Ð¸ÑģÐ°ÑĤÐµÐ»ÐµÐ¹": 4386,
      "ĠÑģÐ¼ÐµÑħÐ¾Ð¼": 4387,
      "ĠÑĥÑĤÑĢÐ¾Ð¼": 4388,
      "ĠÐ¿Ð»Ð°ÑĤÐ¾Ðº": 4389,
      "ĠÐĲÐ½Ð´ÑĢÑİÑĪÐºÐ°": 4390,
      "ĠÐ²ÑĭÑĪÐ»Ð°": 4391,
      "ĠÐ·Ð°ÑħÐ¾ÑĤÐµÐ»": 4392,
      "ĠÐ²Ð¾Ð·Ð²ÑĢÐ°ÑīÐ°Ð»ÑģÑı": 4393,
      "ĠÐ½ÐµÑĩÑĤÐ¾": 4394,
      "ĠÐ¼ÐµÑĩÑĤ": 4395,
      "ĠÑĢÐ¸ÑģÑĥÐ½": 4396,
      "ĠÐĽÐµÐ²Ð¸ÑĤÐ°Ð½": 4397,
      "ĠÐ½Ð°ÑģÑĤÑĢÐ¾ÐµÐ½Ð¸Ðµ": 4398,
      "ĠÑģÐ¾Ð·Ð½Ð°Ð½Ð¸Ðµ": 4399,
      "ĠÑĤÐ²Ð¾Ð¹": 4400,
      "ĠÑĢÐ°Ð±Ð¾Ñĩ": 4401,
      "ĠÐ´ÑĭÑħÐ°Ð½Ð¸Ðµ": 4402,
      "ĠÐ¿ÑĢÐ¸ÑģÑıÐ¶": 4403,
      "ĠÐ±ÑĥÐºÐ²": 4404,
      "ĠÐ½ÐµÑģÐºÐ¾Ð»ÑĮ": 4405,
      "Ð»ÑĭÐ¼": 4406,
      "ÑĢÐ¾ÑģÑĤ": 4407,
      "ÑĢÐ¾ÑĪ": 4408,
      "ÑĥÐ»Ð°": 4409,
      "ĠÑģÑĥÐ±": 4410,
      "ĠÐ¿Ð¸ÑĢ": 4411,
      "ĠÐ²Ð¾ÑĪ": 4412,
      "ĠÐ²Ð½Ð¾Ð²": 4413,
      "Ð¼Ð¾Ð½": 4414,
      "ĠÐ±Ð°ÑĤ": 4415,
      "Ð¾Ð»ÐµÐ¿": 4416,
      "ĠÐ¼ÑĢÐ°ÑĩÐ½Ð¾": 4417,
      "Ð°ÐºÑģ": 4418,
      "ĠÐ¿ÑĢÑıÑĤ": 4419,
      "ĠÐ¿ÑĢÑĭÐ³": 4420,
      "Ð¾Ð´Ð¸ÑĤ": 4421,
      "Ð°ÑĤÑĭÐµ": 4422,
      "ĠÑĢÐµ": 4423,
      "ĠÐ³Ð¸Ð±": 4424,
      "Ð¾ÑĢÐ¾": 4425,
      "ĠÑĥÐ»": 4426,
      "ÑĨÐ²ÐµÑĤ": 4427,
      "Ð¸Ð²Ð°": 4428,
      "Ð¸Ð²Ð°ÑĤÑĮÑģÑı": 4429,
      "Ð°Ð½Ð´Ð°": 4430,
      "Ð°Ð½ÐºÐ°": 4431,
      "Ð°Ð½ÑĮÑı": 4432,
      "Ð¸Ð¼ÐµÑĢ": 4433,
      "ĠÐŁÐµÑĢÐµÐ´": 4434,
      "ĠÐĿÑĥÐ¶Ð½Ð¾": 4435,
      "ĠÐĴÐ¾Ð½": 4436,
      "ĠÐĴÐµÑģÑĮ": 4437,
      "ĠÑģÐ²ÑıÑī": 4438,
      "ĠÐ°Ð»": 4439,
      "ÑĥÐ´ÑĢ": 4440,
      "ĠÐ¡Ð¾Ð²": 4441,
      "ĠÐ¡ÐµÐ½Ð¸": 4442,
      "ĠÑģÐ»ÑĭÑħÐ°Ð»": 4443,
      "ĠÐ¿Ð¾Ð´Ð¾ÑĪÐµÐ»": 4444,
      "ÑĥÑĤÐ¸Ð»": 4445,
      "ĠÐļÐ¾ÑģÑĤ": 4446,
      "ĠÐļÑĥÐ´Ð°": 4447,
      "ĠÑĢÐ°Ð·Ñĥ": 4448,
      "ĠÐ¢ÑĢ": 4449,
      "ÐµÐ³Ð°Ð»": 4450,
      "ĠÑĤÑĢÑĥÐ¿": 4451,
      "Ð¸ÑĤÐµÐ»ÑĮÐ½ÑĭÐµ": 4452,
      "ĠÐ±ÑĥÐ´ÐµÐ¼": 4453,
      "ĠÐ±Ð¾Ð»ÑĮÐ½ÑĭÑħ": 4454,
      "ĠÐ¿Ð¾ÐºÐ»Ð¾Ð½": 4455,
      "ÑĦÐ¾Ð½": 4456,
      "Ð´ÐµÑģÑıÑĤ": 4457,
      "ĠÑĦÐ°Ð»ÑĮ": 4458,
      "ĠÐ¾Ð¿Ð¸Ñģ": 4459,
      "ĠÐ¼Ð¾Ð³Ð»Ð¾": 4460,
      "ĠÐ¾ÑĤÐ²ÑĢÐ°ÑĤ": 4461,
      "Ð°Ð²ÑĪÐµÐ¹": 4462,
      "ĠÐĹÐ°Ð²": 4463,
      "ĠÐ¿Ð¾Ð½ÑıÑĤ": 4464,
      "Ð»ÑıÐ´ÐµÐ»": 4465,
      "ĠÐŁÐµÑĤÑĢ": 4466,
      "ÑĢÐµÐ´ÐºÐ°": 4467,
      "ĠÐ²Ð¾Ð¾Ð±ÑĢÐ°Ð¶": 4468,
      "ĠÐ²Ð¿Ð¾ÑģÐ»ÐµÐ´ÑģÑĤÐ²Ð¸Ð¸": 4469,
      "ĠÐŁÐ°Ð²Ð»Ð¾Ð²Ð¸ÑĩÑĥ": 4470,
      "ĠÐ½ÐµÑĤÐµÑĢÐ¿": 4471,
      "ĠÑģÑĤÑĢÐ°ÑĪÐ½Ð¾Ðµ": 4472,
      "ĠÐ½Ð¾Ð³Ñĥ": 4473,
      "ĠÑģÐ¸Ð´ÐµÐ»Ð°": 4474,
      "ĠÐ¼Ð°Ð»ÐµÐ½ÑĮÐºÐ¸Ñħ": 4475,
      "ĠÑħÐ¾Ð»Ð¾Ð´Ð½Ð¾Ð¹": 4476,
      "ĠÐºÐ°Ð¶Ð´ÑĭÐ¼": 4477,
      "ĠÑĢÐ°Ð±Ð¾ÑĤÐ°ÑĤÑĮ": 4478,
      "ĠÐ³Ð»ÑĥÐ±Ð¾ÐºÐ¾Ð¹": 4479,
      "ĠÐºÐ»ÐµÑĤ": 4480,
      "ĠÐ¡ÑĤÐ°ÑĢ": 4481,
      "ĠÐ¸Ð·Ð²Ð¸Ð½": 4482,
      "ĠÐ¼Ð¾ÑĢÑı": 4483,
      "ĠÐ´Ð¾Ð±ÑĢÐ¾Ð´ÑĥÑĪ": 4484,
      "ĠÐ¿ÑĢÐ¾ÑĤÐ¸Ð²Ð¾ÑĢÐµÑĩ": 4485,
      "ĠÐ¼Ð¸ÑĢÐµ": 4486,
      "ĠÐ¿Ð»ÐµÑĩÐ¾": 4487,
      "ĠÐ¿Ð»ÐµÑĩÐ¸": 4488,
      "ĠÑĤÐ¾ÑģÐºÐ¸": 4489,
      "ĠÐ¼ÑıÐ³ÐºÐ¾": 4490,
      "ĠÐ¾ÑģÑĤÐ¾ÑĢÐ¾Ð¶": 4491,
      "ĠÐ½ÐµÐ¿ÑĢÐ¸ÑıÑĤÐ½Ð¾": 4492,
      "ĠÐ²ÑĭÐ´ÐµÑĢÐ¶": 4493,
      "ĠÑĤÑĮÐ¼Ð°": 4494,
      "ĠÐ¿ÐµÑĢÐµÑģÑĤÐ°Ð»": 4495,
      "ĠÐ½ÑĢÐ°Ð²Ð¸ÑĤÑģÑı": 4496,
      "ĠÑĤÐ¾ÑĢÐ¾Ð¿Ð»Ð¸Ð²Ð¾": 4497,
      "ĠÐ½ÐµÐ½Ð°Ð²Ð¸Ð´": 4498,
      "ĠIII": 4499,
      "ĠÐ½Ð°ÑĩÐ¸Ð½Ð°ÐµÑĤ": 4500,
      "ĠÑĤÑĢÐµÐ²Ð¾Ð¶": 4501,
      "ĠÑĤÑĥÐ¼Ð°Ð½": 4502,
      "ĠÐ¸ÑģÐºÑĢÐµÐ½": 4503,
      "ĠÐ¶ÑĥÑĢÐ½Ð°Ð»Ð°": 4504,
      "ĠÐ½ÐµÑħÐ¾ÑĢÐ¾ÑĪ": 4505,
      "ĠÐ´Ð²ÑĥÐ¼Ñı": 4506,
      "ĠÐ²Ð¿Ð¾Ð»Ð½Ðµ": 4507,
      "ĠÐ§ÐµÑĢÐµÐ·": 4508,
      "ĠÑĢÐ°ÑģÑĤÐµÑĢÑıÐ½": 4509,
      "ĠÐ²Ð½Ð¾Ð²ÑĮ": 4510,
      "19": 4511,
      "?!": 4512,
      "Ð¤": 4513,
      "ĠV": 4514,
      "ĠÐ©": 4515,
      "Ð¾Ð¸": 4516,
      "ÑĤÐµÐ¿": 4517,
      "Ð»ÐµÐ·": 4518,
      "ĠÑģÐ½Ð°": 4519,
      "ĠÑģÑĢÐ°Ð²": 4520,
      "ĠÑģÑĭÑĢ": 4521,
      "ĠÐ¿Ð°Ñģ": 4522,
      "Ð¼ÐµÑħ": 4523,
      "Ð¾Ð²ÐµÑĢ": 4524,
      "ÑĪÐ¸ÑģÑĮ": 4525,
      "ÐµÐ½Ð¾Ð³": 4526,
      "ÐµÐ½ÐºÐ°": 4527,
      "ÐµÐ½ÐºÐ¸": 4528,
      "Ð¾Ð»ÐµÐ½": 4529,
      "ĠÐ¼Ð°Ð³": 4530,
      "ÑİÐ´Ð°": 4531,
      "ÐµÑĤÑĭ": 4532,
      "ĠÑĩÑĢÐµÐ·": 4533,
      "ĠÐ¿ÑĢÐµ": 4534,
      "ĠÐ½ÐµÐ¾Ð¿": 4535,
      "ĠÐ½ÐµÑģÐ»": 4536,
      "ĠÑĢÐ°": 4537,
      "ĠÑĢÐ¾Ð»ÑĮ": 4538,
      "ĠÑĢÐµÐ¿": 4539,
      "Ð¸ÑĤÑĢ": 4540,
      "Ð¸ÑĤÐ°Ð»": 4541,
      "Ð¸ÑĤÑĥÑĤ": 4542,
      "ĠÐ³Ð°ÑĢ": 4543,
      "ĠÐ³ÐµÑĢÐ¾": 4544,
      "Ð¾ÑĢÑıÐ´": 4545,
      "ĠÑĥÐ½Ñĭ": 4546,
      "ĠÐ»Ðµ": 4547,
      "ÑĨÐ¸Ñı": 4548,
      "Ð±Ð¾Ð¹": 4549,
      "Ð°Ð½Ð½ÑĭÐ¼Ð¸": 4550,
      "Ð¸Ð¼Ð¾Ðµ": 4551,
      "Ð¸Ð½ÑĤÐµÑĢÐµÑģ": 4552,
      "ĠÐŁÐ¾ÑģÑĤ": 4553,
      "ĠÐŁÐµÑĢÐ²": 4554,
      "ĠÐĿÐ°Ðº": 4555,
      "ĠÐ¿Ð¾ÑħÐ¾Ð´": 4556,
      "ÐµÐ²Ð¾": 4557,
      "ÐµÐ²ÐµÑĢ": 4558,
      "ĠÐĴÐ´ÑĢÑĥÐ³": 4559,
      "ĠÑħÐ¾Ñħ": 4560,
      "ĠÑģÐ²Ð¸Ð´Ð°": 4561,
      "ÑģÑĤÐ²ÐµÐ½Ð½Ð¾": 4562,
      "ĠÐ²ÑĭÐº": 4563,
      "Ð»ÑıÐ»Ð°": 4564,
      "Ð»ÑıÐ½ÑĥÐ»": 4565,
      "Ð»ÑıÐ²ÑĪ": 4566,
      "Ð°Ð¶Ñĥ": 4567,
      "Ð¾Ð·Ð½": 4568,
      "ĠÑģÐºÑĢÑĭÐ»": 4569,
      "ĠÑĢÐ°Ð·Ð½Ð¾": 4570,
      "ÐµÐ³Ð°Ð»Ð¸": 4571,
      "ĠÑģÐ¼ÐµÑĢÑĤ": 4572,
      "ĠÑģÐ¼ÑĥÑī": 4573,
      "Ð¸ÑĢÐµÐº": 4574,
      "ĠÑĢÐ°ÑģÑģÑĤ": 4575,
      "ĠÐ´Ð²Ð¾Ðµ": 4576,
      "ĠÑĤÑĢÑĥÐ±": 4577,
      "Ð¸ÑĤÐµÐ»ÑĮÐ½Ð¾Ð³Ð¾": 4578,
      "ĠÐ²Ð·ÑĢÐ¾Ñģ": 4579,
      "ĠÐ³Ð¾ÑĢÐ½Ð¸Ñĩ": 4580,
      "ĠÐĳÐ¾Ð»ÑĮÑĪ": 4581,
      "ĠÐĵÐ¾Ð²Ð¾ÑĢ": 4582,
      "ĠÐ²ÑĢÐ°Ð³": 4583,
      "ĠÐ¾ÑĤÐ²Ð¾ÑĢ": 4584,
      "ĠÐ²ÐµÑģÐµÐ»ÑĮ": 4585,
      "ĠÐ½Ð°Ð¿Ð¾Ð¼Ð¸Ð½": 4586,
      "ĠÐ½Ð¸ÐºÐ¾Ð¼Ñĥ": 4587,
      "ÐµÑĪÑĮÑģÑı": 4588,
      "ĠÐ±ÑĢÐ¾Ð²Ð¸": 4589,
      "Ð¸Ð²ÑĪÐµÐ³Ð¾": 4590,
      "ĠÐ´ÑĥÐ¼Ð°Ð»Ð¸": 4591,
      "ĠÐŁÐ°Ð²Ð»Ñĥ": 4592,
      "ĠÑģÐ½ÐµÐ¶": 4593,
      "Ð°ÑİÑīÐ°Ñı": 4594,
      "ĠÐ½ÐµÐ´ÐµÐ»Ð¸": 4595,
      "ĠÑĥÐ³Ð»Ð°": 4596,
      "ĠÐ±ÐµÐ»ÑĭÐ¹": 4597,
      "ĠÑĥÐ²Ð°Ð¶": 4598,
      "ĠÑĤÐ¸ÑħÐ¾Ð½ÑĮÐºÐ¾": 4599,
      "Ð¸ÑĩÐµÑģÐºÐ¾Ð³Ð¾": 4600,
      "Ð¸ÑĩÐµÑģÐºÐ¸Ð¹": 4601,
      "ĠÐºÐ°Ð¶Ð´Ð¾Ð¼": 4602,
      "ĠÐºÐ°ÑĢÑĤÐ¸": 4603,
      "ĠÐ·Ð°Ð³Ð¾Ð²Ð¾ÑĢÐ¸Ð»": 4604,
      "ĠÐ²ÑģÐ¿Ð¾Ð¼Ð¸Ð½Ð°": 4605,
      "ĠÑģÐ»ÐµÐ´Ñĭ": 4606,
      "ĠÐ¼Ð¸Ð»Ð»Ð¸": 4607,
      "ĠÐ¾ÑģÑĤÐ°Ð²Ð°Ð»Ð¾ÑģÑĮ": 4608,
      "ĠÐ·Ð½Ð°ÐºÐ¾Ð¼ÑĭÐµ": 4609,
      "ĠÐ¿Ð¾ÑģÑĤÐµÐ¿ÐµÐ½Ð½Ð¾": 4610,
      "ĠÐ³Ð¾ÑĢÐ¾Ð´Ðµ": 4611,
      "ĠÐ¿ÑĢÐ¾ÑĪÐ»Ð¾": 4612,
      "ĠÑģÑĤÐµÐ½Ñĥ": 4613,
      "ĠÐ»Ð¸ÑĤÐµÑĢÐ°ÑĤÐ¾ÑĢ": 4614,
      "ĠÑĤÑıÐ¶ÐµÐ»ÑĭÐ¹": 4615,
      "ĠÐºÐ°Ð¼ÐµÐ½ÑĮ": 4616,
      "ĠÐ¤ÐµÐ½Ð¾Ð³": 4617,
      "ĠÐ¸Ð³ÑĢÐ°ÑĤÑĮ": 4618,
      "ĠÑıÐ²Ð¸Ð»ÑģÑı": 4619,
      "ĠÐ»Ð¸ÑĤÐµÑĢÐ°ÑĤÑĥÑĢÐ½Ð¾Ð¹": 4620,
      "ĠÐ¿ÑĢÐ¸ÑĪÐ»Ð¸": 4621,
      "ĠÐ½ÐµÐ½ÑĥÐ¶": 4622,
      "ĠÑģÐ²ÐµÑĢÑħÑĥ": 4623,
      "ĠÑĢÐ°Ð·Ð³Ð¾Ð²Ð¾ÑĢÐ°": 4624,
      "ĠÐ¼ÑĥÑĩÐ¸ÑĤÐµÐ»ÑĮÐ½Ð¾": 4625,
      "ĠÑĢÐµÐ±ÑıÑĤ": 4626,
      "ĠÑģÑĥÐ¼Ð°Ñģ": 4627,
      "ĠÐ¾ÐºÐ¾Ð»Ð¾ÑĤÐ¾Ñĩ": 4628,
      "ĠÐ´Ð¾Ð±ÑĢÐ°": 4629,
      "ĠÐ½Ð°ÑģÑĤÐ¾Ð»ÑĮÐºÐ¾": 4630,
      "ĠÑģÑĤÑĭÐ´": 4631,
      "Ð»ÑıÑĤÑĮÑģÑı": 4632,
      "ĠÑĤÐ¾Ð»Ð¿Ð°": 4633,
      "ĠÐľÐ¸ÑħÐ°": 4634,
      "ĠÑģÑĩÐ°ÑģÑĤÑĮÑı": 4635,
      "ĠÐĽÐ°Ð²ÑĢÐµÐ½": 4636,
      "ĠÑģÐ»ÑĥÑĩÐ°Ð¹Ð½Ð¾": 4637,
      "ĠÑģÐµÑģÑĤÑĢÐ°": 4638,
      "ĠÐ±ÐµÑģÐ¿Ð¾ÐºÐ¾Ð¹Ð½Ð¾": 4639,
      "ĠÑĥÐ·Ð½Ð°ÑĤÑĮ": 4640,
      "ĠÐ²Ð½ÑĥÑĤÑĢ": 4641,
      "ĠÐĲÐ²ÑĢÐ°Ð¼": 4642,
      "ĠÐ³ÑĢÑĥÑģÑĤÐ½Ð¾": 4643,
      "ĠÐĹÐ½Ð°ÑĩÐ¸ÑĤ": 4644,
      "ĠÐ¾Ð²Ð»Ð°Ð´": 4645,
      "ĠÑĥÐ³ÑĢÑİÐ¼Ð¾": 4646,
      "ĠÐ½ÐµÐ¾Ð±ÑħÐ¾Ð´Ð¸Ð¼Ð¾": 4647,
      "ĠÐ¿Ð¾Ð´Ð»ÐµÑĨ": 4648,
      "ĠÐ¿Ð¾Ð³Ð¾Ð²Ð¾ÑĢÐ¸ÑĤÑĮ": 4649,
      "ĠÑģÐ¾ÑħÑĢÐ°Ð½": 4650,
      "ĠÑİÐ¼Ð¾ÑĢÐ¸ÑģÑĤ": 4651,
      "ĠÑĦÐ°Ð¼Ð¸Ð»Ð¸": 4652,
      "ĠÑģÐ¿ÑĢÑıÑĤ": 4653,
      "ĠÐĿÐµÐ¼Ð¾Ð²ÐµÑĨÐºÐ¸Ð¹": 4654,
      "ĠÐµÑģÑĤÐµÑģÑĤÐ²": 4655,
      "ĠÐŁÐ¾Ð¼Ð½Ñİ": 4656,
      "ĠÐ²ÑĢÐ°Ð¶Ð´ÐµÐ±": 4657,
      "\"...": 4658,
      "10": 4659,
      "Ġ8": 4660,
      "Ð½Ð¾Ð³": 4661,
      "Ð»ÐµÐ¹": 4662,
      "ÑĢÐ¾Ð½": 4663,
      "ÑĮÐµÑĤ": 4664,
      "ĠÐ¿ÑĭÐ»ÑĮ": 4665,
      "ĠÐ½Ð¸Ð¶": 4666,
      "ĠÐ½ÑıÐ½ÑĮ": 4667,
      "ÐºÐ°ÑĢ": 4668,
      "ÐºÐ¾Ð¼Ñĥ": 4669,
      "ĠÐ¸Ñİ": 4670,
      "ĠÐ¾ÑģÑĤÑĢÐ¾": 4671,
      "ÑĪÐ¸Ð¼Ð¸": 4672,
      "ĠÐ´ÐµÐº": 4673,
      "ÐµÑĢÑĭ": 4674,
      "ĠÐ¼ÑĥÑħ": 4675,
      "Ð°ÐºÐ°Ð½": 4676,
      "ĠÑĩÐ¸Ð½Ð¾Ð²": 4677,
      "ĠÐ¿ÑĢÐµÑģÑĤ": 4678,
      "Ð°ÑĤÐ¾Ð¹": 4679,
      "ĠÑĢÐ¾Ð·Ð¾Ð²": 4680,
      "Ð¾ÑĢÑī": 4681,
      "Ð°Ð²Ð°Ñı": 4682,
      "Ð½Ð¸Ñİ": 4683,
      "ÑīÐ¸ÐºÐ°": 4684,
      "ÑĨÐ¸Ñİ": 4685,
      "ĠÐŁÐ¾Ð¼": 4686,
      "ĠÐŁÐ¾Ð½": 4687,
      "Ð°ÑĢÑĤ": 4688,
      "ĠÐĴÐ¾Ñģ": 4689,
      "ĠÐĴÐ·": 4690,
      "ĠÐĴÐ¾Ð·": 4691,
      "Ð¸ÑĩÐ½Ð¾": 4692,
      "ĠÐ°Ð¿": 4693,
      "ĠÐ²ÑĭÐ¶": 4694,
      "ĠÐ¡Ð»Ð¾Ð²": 4695,
      "ÐµÑħÐ°ÑĤÑĮ": 4696,
      "ĠÐºÐ¾ÑĪ": 4697,
      "ÐµÐ½ÑĮÐµ": 4698,
      "ĠÐ¿Ð¾Ð´Ð¼": 4699,
      "ĠÐ¿Ð¾Ð´ÑĭÐ¼": 4700,
      "ĠÐ¸Ð·ÑĢÐµÐ´ÐºÐ°": 4701,
      "ĠÑģÐºÐ¾Ð»ÑĮÐ·": 4702,
      "Ð»Ð°Ñĩ": 4703,
      "Ð¾ÑĩÐ¸Ð»": 4704,
      "ĠÐĶÐ¾": 4705,
      "ĠÐĶÐ¾Ðº": 4706,
      "ĠÐ¿Ð¾Ð»Ð½Ð¾": 4707,
      "ĠÐ¿Ð¾Ð»Ð·": 4708,
      "ĠÐ¿Ð¾Ð»Ð¸ÑĨ": 4709,
      "ĠÑģÐ°Ð¼ÑĭÐµ": 4710,
      "ĠÐ¿Ð¾ÐºÐ¾Ñı": 4711,
      "ĠÐ³Ð¾Ð²Ð¾ÑĢÐ¸ÑĪÑĮ": 4712,
      "ĠÑĩÐµÑĢÑĤÐ°": 4713,
      "ĠÐ¾ÑĩÐµÐ²Ð¸Ð´Ð½Ð¾": 4714,
      "Ð°Ð½Ð¸Ñİ": 4715,
      "ĠÐĵÐ»": 4716,
      "ÑĮÑıÐ¼Ð¸": 4717,
      "ĠÐ¸Ð¼ÐµÑĤÑĮ": 4718,
      "ĠÑģÑĤÐ°ÑĢÐ¸Ñĩ": 4719,
      "Ð¾Ð²Ð°Ð»Ð°ÑģÑĮ": 4720,
      "ĠÑħÐ¾ÑĢÐ¾ÑĪÐµÐ³Ð¾": 4721,
      "ĠÑĩÑĥÐ²ÑģÑĤÐ²Ð¾Ð¼": 4722,
      "ĠÐ±Ð¾Ð»ÐµÐ½": 4723,
      "ĠÑĥÐ´Ð°Ð»Ð¾ÑģÑĮ": 4724,
      "ĠÐ¾ÑģÑĤÐ°Ð»Ð¾ÑģÑĮ": 4725,
      "ĠÐ·Ð°ÐºÑĢÑĭ": 4726,
      "ĠÐ¿ÑĢÐ¾ÑģÑĤÐ¾ÑĢ": 4727,
      "ĠÐ³Ð¾Ð»Ð¾ÑģÐµ": 4728,
      "ĠÐ¿ÑĢÐ°Ð²Ð¾": 4729,
      "ĠÐ¿ÑĢÐ°Ð²Ð´": 4730,
      "ĠÐ½Ð¾Ð³Ð¾Ð¹": 4731,
      "ĠÐ½ÐµÐ²Ð¸Ð½": 4732,
      "ĠÐ¿ÐµÑĢÐ²Ð¾Ð³Ð¾": 4733,
      "ĠÑĥÐ±ÐµÐ¶": 4734,
      "ĠÐ¿Ð¾Ð³Ð°Ñģ": 4735,
      "ĠÐ¼Ð¾Ð»ÑĩÐ°Ð»Ð°": 4736,
      "ĠÑģÑĤÑĢÐ°Ð½Ð½Ð¾Ðµ": 4737,
      "ĠÐ·Ð°ÑģÐµÐ´": 4738,
      "ĠÑĥÐ¶Ð°ÑģÐ°": 4739,
      "Ð°ÑģÑĤÑĭÑĢ": 4740,
      "Ð°Ð½ÑĮÐµ": 4741,
      "Ð½Ð¾ÑģÐ¸Ð»": 4742,
      "ĠÐ²ÑģÑİÐ´Ñĥ": 4743,
      "ĠÐ±ÑĭÐ²Ð°Ð»Ð¾": 4744,
      "ĠÐ¾ÑĤÑĩÐµÑĤ": 4745,
      "ĠÐ·Ð°ÑĤÑĭÐ»": 4746,
      "ĠÐ²Ð¾Ð·Ð´ÑĥÑħÐ°": 4747,
      "ĠÐ³ÑĥÐ±Ð°Ð¼Ð¸": 4748,
      "ĠÑģÐ»Ð°Ð±Ð¾": 4749,
      "ĠÐ½Ð°ÑħÐ¾Ð´Ð¸Ð»ÑģÑı": 4750,
      "ĠÐ´Ð¾ÑģÑĤÐ°ÑĤÐ¾ÑĩÐ½Ð¾": 4751,
      "ĠÐ´Ð°Ð»ÑĮÐ½ÐµÐ¹": 4752,
      "ĠÐ¿ÑĢÐ¸Ð±Ð»Ð¸Ð¶": 4753,
      "ĠÐ¼ÐµÑĢÑĤÐ²ÐµÑĨ": 4754,
      "ĠÑģÑĭÐ½Ð°": 4755,
      "ĠÐ½ÐµÑĢÐ°Ð·": 4756,
      "ĠÑģÐ¼ÐµÑħÐ°": 4757,
      "ĠÐºÑĥÑĢÑģ": 4758,
      "ĠÐºÐ¾ÑĢÐ¾ÑĤÐºÐ¾": 4759,
      "ĠÑģÑĥÐ¼ÐµÑĢ": 4760,
      "ĠÐ¿Ð¾Ð¹Ð¼": 4761,
      "ĠÐ·Ð°Ð´ÑĥÐ¼ÑĩÐ¸Ð²Ð¾": 4762,
      "ĠÑĢÑĭÐ¶": 4763,
      "ĠÑģÑİÑĢ": 4764,
      "ĠÐ½Ð¸ÐºÐ°ÐºÐ¾Ð³Ð¾": 4765,
      "ĠÑģÐµÐ¼ÑĮÐ¸": 4766,
      "ĠÑĤÐµÐ°ÑĤÑĢÐµ": 4767,
      "ĠÐĵÑĢÐ¸Ð³Ð¾ÑĢÐ¸Ð¹": 4768,
      "ÑĢÐµÐ¼ÐµÐ½Ð½Ð¾": 4769,
      "ĠÐķÐ²Ð³": 4770,
      "ĠÑĩÐµÑĤÑĭÑĢÐµÑħ": 4771,
      "ĠÐ±ÐµÐ·Ð·Ð°Ð±Ð¾ÑĤ": 4772,
      "ĠÐľÐµÐ»Ð¸ÑħÐ¾Ð²Ðµ": 4773,
      "ĠÐ¿ÐµÑĢÐµÑĥÐ»": 4774,
      "ĠÐ´ÐµÑıÑĤÐµÐ»ÑĮ": 4775,
      "ĠÐ¤Ð¸Ð»Ð¸Ð¿Ð¿": 4776,
      "ĠÐŀÐ¿ÑıÑĤÑĮ": 4777,
      "ĠÐ¿ÑĢÐ¸Ð¿Ð¾Ð´Ð½": 4778,
      "ĠÑģÐµÐºÑĥÐ½Ð´Ñĥ": 4779,
      "ĠÐ¿ÑĢÐµÑģÐ»ÐµÐ´": 4780,
      "ĠÐ¶Ð³ÑĥÑĩ": 4781,
      "ĠÑĤÑĢÐµÑĤÐ¸Ð¹": 4782,
      "ĠÐ¿ÑĢÐ¸Ð³Ð¾ÑĤÐ¾Ð²": 4783,
      "Ð¾Ð¿Ð¾Ð»ÑĥÑĩ": 4784,
      "ĠÐ¼ÐµÐ¼ÑĥÐ°ÑĢ": 4785,
      "Ð¸ÑĨÐ°": 4786,
      "ÑģÐµÐ³": 4787,
      "Ð»ÐµÐ½Ð¸Ñİ": 4788,
      "ÑĢÐµÑĪ": 4789,
      "ÑĢÐµÑģÑĤ": 4790,
      "ÑĭÐ»Ð¸": 4791,
      "ÐºÐ°Ð»": 4792,
      "ĠÐ²Ð»ÑİÐ±": 4793,
      "ĠÐ¸Ð±Ð¾": 4794,
      "Ð²Ð°Ð»Ð°": 4795,
      "ĠÐºÐ°ÑĪ": 4796,
      "Ð¾Ð²ÐµÐ´": 4797,
      "ĠÐ±Ð¾Ð¹": 4798,
      "ĠÐ±Ð¸Ð±Ð»Ð¸": 4799,
      "ÐµÐ»Ð¸Ð²Ð¾": 4800,
      "Ð¾Ð»ÐºÐ¾Ð²": 4801,
      "Ð¾Ð»ÑİÐ±": 4802,
      "Ð¾Ð»ÐµÐ½ÐºÐ¾": 4803,
      "ĠÐ¼Ð¸ÑĢÐ°": 4804,
      "ĠÐ¼Ð¾ÑģÐºÐ¾Ð²": 4805,
      "ĠÐ·Ð½Ð°Ñı": 4806,
      "Ð¾Ð´Ð¸ÑĤÑĮ": 4807,
      "Ð¾Ð´Ð¸Ð»Ð¸": 4808,
      "ĠÐ½ÐµÑĥÐ¼": 4809,
      "ĠÐ½ÐµÐ¾ÑħÐ¾ÑĤ": 4810,
      "Ð°ÑĤÑĥ": 4811,
      "ĠÑĢÐµÐ¿ÐµÑĤ": 4812,
      "ĠÐ³Ð°Ð´": 4813,
      "ĠÐ³ÐµÐ½ÐµÑĢ": 4814,
      "ÑīÐ¸Ñħ": 4815,
      "ĠÑĥÑģÑĤÐ°Ð²": 4816,
      "ÑĨÐ°Ð¼Ð¸": 4817,
      "Ð½Ð°Ð½": 4818,
      "Ð°Ð½Ð½ÑĥÑİ": 4819,
      "ÑģÐºÐ¸Ð¼Ð¸": 4820,
      "Ð¸Ð¼Ð¾Ð³Ð¾": 4821,
      "Ð¸Ð¼Ð¾ÑģÑĤÐ¸": 4822,
      "Ð°Ð´ÑĮ": 4823,
      "ÑĥÐ¶ÐµÐ»Ð¸": 4824,
      "ÑĢÐ°Ð½Ð¸Ñĩ": 4825,
      "ĠÐ¿Ð¾Ð´Ñģ": 4826,
      "ĠÐļÐ°ÑĢ": 4827,
      "ĠÐļÐ°Ð¶ÐµÑĤÑģÑı": 4828,
      "ĠÐ¢Ð¾ÑĩÐ½Ð¾": 4829,
      "ĠÐľÐ°Ð»": 4830,
      "ÑĥÑĩÐ¸": 4831,
      "ĠÐ¾Ð´Ð½Ð¾Ð¼Ñĥ": 4832,
      "ĠÑģÐ¼ÑĭÑģ": 4833,
      "ĠÐ´ÑĢÐ°Ð¼": 4834,
      "ĠÐĶÐ¾Ð¼": 4835,
      "ĠÐĶÐ°Ð²": 4836,
      "ĠÐĶÐµÐ»Ð¾": 4837,
      "ĠÐ´Ð²ÐµÐ½": 4838,
      "ĠÐ¿Ð¾Ð»ÑİÐ±": 4839,
      "ĠÐ¿ÑĢÐ¸ÐµÐ¼": 4840,
      "ĠÑĤÑĢÐ°Ðº": 4841,
      "ĠÐ²Ð¸Ð´Ð¾Ð¼": 4842,
      "ĠÐĳÑĭÐ»": 4843,
      "ĠÐĵÐ´Ðµ": 4844,
      "ĠÐ¾Ð¿ÑĥÑģÐº": 4845,
      "ĠÐ¸Ð¼Ðµ": 4846,
      "Ð°Ð²ÑĪÑĥÑİ": 4847,
      "Ð°Ð²ÑĪÐ¸Ð¹ÑģÑı": 4848,
      "Ð°Ð²ÑĪÐ¸ÐµÑģÑı": 4849,
      "ĠÑĥÐ¼Ð½ÑĭÐ¹": 4850,
      "ĠÐ£Ð¼ÐµÑĢ": 4851,
      "ÑģÐ»Ð¾Ð²": 4852,
      "Ð¾ÑİÑģÑĮ": 4853,
      "Ð»ÐµÐ½Ñĭ": 4854,
      "ĠÐ·Ð°Ð¿ÐµÑĢÑĤ": 4855,
      "ĠÐ±Ð¾Ð»ÑĮÑĪÑĥÑİ": 4856,
      "ĠÐºÐ¾Ð»ÐµÐ±": 4857,
      "ĠÑģÐ½ÑıÐ»": 4858,
      "ĠÑĢÐ°Ð´Ð¾ÑģÑĤÑĮÑİ": 4859,
      "ĠÐĴÑĭÑģ": 4860,
      "ĠÑģÑĤÐ¾Ð»Ð¾Ð²Ð¾Ð¹": 4861,
      "ĠÐ¿ÑĢÐ¾ÑĤÑıÐ½ÑĥÐ»": 4862,
      "ĠÐ½ÐµÐ²Ñĭ": 4863,
      "ĠÑĥÐ»ÑĭÐ±ÐºÐ°": 4864,
      "ĠÐ¶Ð¸Ð²Ð¾ÑĤ": 4865,
      "Ð¸ÑĩÐµÑģÐºÐ¾Ðµ": 4866,
      "ÑıÑīÐ¸Ñħ": 4867,
      "ÑıÑīÐ¸Ð¹": 4868,
      "ĠÐ¿ÐµÑĢÐ²ÑĭÐµ": 4869,
      "ĠÐºÐ°Ð¶Ð´Ð¾Ð³Ð¾": 4870,
      "ĠÐºÐ°Ð¶Ð´Ð¾Ðµ": 4871,
      "ĠÐ¸ÑģÐºÐ»ÑİÑĩ": 4872,
      "ĠÐ¿ÑĢÐ¸Ð²ÐµÑĤ": 4873,
      "ĠÐ±ÐµÑģÐ¿Ð¾ÑĢÑıÐ´": 4874,
      "ĠÐ¿Ð¾Ð½Ð¸Ð¼Ð°ÐµÑĤ": 4875,
      "ĠÑĤÑıÐ¶ÐµÐ»Ð¾Ð¹": 4876,
      "ĠÑĪÐ°Ð³Ð¾Ð²": 4877,
      "ĠÐ³Ð¾ÑģÐ¿Ð¾Ð´Ð°": 4878,
      "ĠÐ¸Ð³ÑĢÐ°Ð»Ð¸": 4879,
      "ĠÐ±Ð¾ÑıÐ·": 4880,
      "ĠÐ½ÐµÐ¿ÑĢÐµÑĢÑĭÐ²": 4881,
      "ĠÐ¿ÑĢÐ¾ÑĩÐ¸Ð¼": 4882,
      "Ð§ÐµÑħ": 4883,
      "ĠÑģÐ²ÐµÑĢÐºÐ°": 4884,
      "ĠÑģÐ¼ÐµÑĪÐ½Ð¾Ð¹": 4885,
      "ĠÐ¿ÑĮÑıÐ½": 4886,
      "ĠÐ¿ÑĢÐ¸Ð±Ð°Ð²": 4887,
      "ĠÑģÐ²Ð¾Ð±Ð¾Ð´Ð½Ð¾": 4888,
      "ĠÐ½ÐµÐºÐ¾ÑĤÐ¾ÑĢÐ¾Ðµ": 4889,
      "ĠÐ²ÑģÐºÐ¾ÑĢÐµ": 4890,
      "ĠÑĥÑģÐ»Ð¾Ð²": 4891,
      "ĠÐ¶Ð´ÐµÑĤ": 4892,
      "ĠÐ³Ð»ÑĥÑħÐ¾": 4893,
      "ĠÐĴÐµÑĢÐ¾ÑıÑĤÐ½Ð¾": 4894,
      "ĠÐ²Ð¾ÐºÐ·": 4895,
      "ĠÐķÐ»ÐµÐ°Ð·Ð°ÑĢÐ°": 4896,
      "ĠÐ¿Ð°Ð¼ÑıÑĤÑĮ": 4897,
      "ĠÐ½Ð°Ð¿ÑĢÐ¸Ð¼ÐµÑĢ": 4898,
      "ĠÐ³Ð»Ð°Ð²Ð½Ð¾Ðµ": 4899,
      "ĠÐ¿Ð°ÑħÐ»Ð¾": 4900,
      "ĠÑĥÑħÐ¾": 4901,
      "ĠÑģÐ¾ÑĩÐ¸Ð½": 4902,
      "ĠÐºÐ°Ð±Ð¸Ð½ÐµÑĤÐµ": 4903,
      "ĠÐ¿Ð¾ÑĤÑĢÐµÐ±": 4904,
      "ĠÑĢÐ¾Ð²Ð½Ð¾": 4905,
      "ĠÐ¼Ð¾Ð½Ð°ÑģÑĤÑĭÑĢ": 4906,
      "ĠÐ´Ð¾Ð¶Ð´ÑĮ": 4907,
      "ĠÑĥÐ´Ð¾Ð²Ð¾Ð»ÑĮÑģÑĤÐ²Ð¸ÐµÐ¼": 4908,
      "ĠÐ·Ð¾Ð²ÑĥÑĤ": 4909,
      "ĠÐ¯Ð»ÑĤÐµ": 4910,
      "ĠÐ¡Ð¼Ð¾ÑĤÑĢÐ¸": 4911,
      "ĠÐ¾ÑĤÐ¿ÑĢÐ°Ð²Ð¸Ð»ÑģÑı": 4912,
      "ĠÐĺÐ²Ð°Ð½Ñĭ": 4913,
      "ĠÐ±ÐµÐ·Ð½Ð°Ð´ÐµÐ¶Ð½Ð¾": 4914,
      "ĠÑĥÐ½Ð¸Ð²ÐµÑĢÑģÐ¸ÑĤÐµÑĤ": 4915,
      "ĠÐ¾Ð¿ÑĢÐ°Ð²Ð´": 4916,
      "ĠÐ¸Ð·Ð¼ÑĥÑĩ": 4917,
      "ĠÑĢÐ°ÑģÑģÐºÐ°Ð·Ð°Ð»": 4918,
      "ĠÐĴÐ»Ð°Ð´Ð¸Ð¼Ð¸ÑĢ": 4919,
      "ĠÑĪÐ²ÐµÐ¹ÑĨÐ°ÑĢ": 4920,
      "ĠÐ·Ð°ÑħÐ¾ÑĤÐµÐ»Ð¾ÑģÑĮ": 4921,
      "ĠÐ»ÐµÑĤÐ¾": 4922,
      "ÑģÐµÐ³Ð´": 4923,
      "13": 4924,
      "22": 4925,
      "ÐŃ": 4926,
      "Ð¾ÑĤÐ¾Ñĩ": 4927,
      "Ð¸Ð½ÑĭÐ¼": 4928,
      "Ð»Ð°Ñı": 4929,
      "Ð»ÑĭÐ¼Ð¸": 4930,
      "ÑĥÑīÐµÑģÑĤÐ²": 4931,
      "ÑĮÑģÑı": 4932,
      "ĠÑģÑĩÐµÑĤ": 4933,
      "ĠÑĤÑİ": 4934,
      "ĠÐ´Ð¾Ñĩ": 4935,
      "ĠÐ´ÐµÑĪ": 4936,
      "ĠÐ´Ð½ÐµÐ²": 4937,
      "Ð¾Ð»Ñİ": 4938,
      "ÐµÑĢÐ¾Ð¼": 4939,
      "ĠÐ¼ÐµÐ±": 4940,
      "Ð°ÐºÐ¾Ð²": 4941,
      "ĠÐ¿ÑĢÐµÐ»": 4942,
      "ĠÑĢÐ¾Ð¶Ð´": 4943,
      "ĠÑĢÐ°Ð½Ð¾": 4944,
      "ĠÐ³ÑĥÐ»": 4945,
      "Ð¾ÑĢÐ¾Ð¶": 4946,
      "ĠÐ»Ð°Ðº": 4947,
      "Ð±Ð¾Ð¼": 4948,
      "Ð¸Ð²Ð°Ð»Ð¾ÑģÑĮ": 4949,
      "ÐµÐ´Ð»ÐµÐ½Ð½Ð¾": 4950,
      "ĠÑıÐ´": 4951,
      "ĠÐĿÐ¸ÑĨ": 4952,
      "Ð³ÑĥÑģÑĤ": 4953,
      "ĠÐ¿Ð¾ÐµÑħÐ°Ð»": 4954,
      "ĠÐĴÐ¿": 4955,
      "ĠÐĺÑħ": 4956,
      "ÐµÐ·Ð³": 4957,
      "ÑģÑĤÐ²ÐµÐ½": 4958,
      "ĠÐ²ÑĭÑĢÐ°ÑģÑĤ": 4959,
      "Ð»ÑıÐ»Ð¾": 4960,
      "Ð¶Ð°Ð»": 4961,
      "ÐµÑĩÑĥ": 4962,
      "Ð°Ð¶Ð°": 4963,
      "ĠÐŀÑģÑĤÐ°Ð²": 4964,
      "ĠÐ¿Ð¾Ð´Ð°Ð²": 4965,
      "ĠÐ¿Ð¾Ð´ÑĬ": 4966,
      "ÑĭÐ²Ð°Ñİ": 4967,
      "ĠÐľÐ¾Ð»": 4968,
      "ĠÑĪÐ°Ð¿": 4969,
      "ÐµÑĪÐµÑģÑĤÐ²": 4970,
      "ĠÐ¿ÐµÑĢÐµÐ³": 4971,
      "ĠÐ´ÑĢÐ°Ð³Ð¾": 4972,
      "Ð¾Ð²Ð°ÑĤÐ¾": 4973,
      "Ð°Ð¹Ð½Ð¾": 4974,
      "Ð°Ð¹ÑģÑı": 4975,
      "ĠÐĶÐµÐ²": 4976,
      "ĠÐĶÐ¾Ð»Ð³Ð¾": 4977,
      "Ð°Ð»ÑĮÐ½ÑĭÐ¹": 4978,
      "Ð°Ð»ÑĮÐ½ÑĭÑħ": 4979,
      "ĠÐ³ÑĢÑĥ": 4980,
      "Ð½ÑĥÐ»Ð¾": 4981,
      "ĠÑĤÑĢÐ¾Ðµ": 4982,
      "Ð¸ÑĤÐµÐ»ÑĮÐ½ÑĭÑħ": 4983,
      "ÑģÑĤÑĢÐµÐ»": 4984,
      "ĠÐ¿Ð¾ÐºÑĢÐ°Ñģ": 4985,
      "ĠÐ´ÑĢÑĥÐ³Ð¸Ð¼Ð¸": 4986,
      "ĠÐ²Ð·Ð¾ÑĢ": 4987,
      "ĠÐ³Ð¾ÑĢÑı": 4988,
      "ÐµÐ½Ð¸ÑıÐ¼Ð¸": 4989,
      "ĠÑĦÐµÐ»ÑĮ": 4990,
      "ĠÐ¿ÑĢÐ¾ÑĦ": 4991,
      "ĠÐ¸Ð¼Ð¿": 4992,
      "ĠÐ²ÐµÑģÐµÐ½": 4993,
      "ĠÐ¶ÐµÐ½Ñĥ": 4994,
      "ÑĢÑĭÐ·": 4995,
      "ĠÐĽÐ¸Ð»": 4996,
      "ĠÐ½Ð°ÑĩÐ°Ð»ÑĮ": 4997,
      "ĠÐĹÐ²": 4998,
      "Ð´ÑĢÐµÑģ": 4999,
      "ĠÑģÑĤÐ°ÑĢÐ°ÑıÑģÑĮ": 5000,
      "ĠÑĤÐµÐ¿Ð»Ð¾": 5001,
      "Ð»ÐµÐ½Ð¸Ð¹": 5002,
      "ĠÐ¿Ð¾ÑĢÑĭÐ²": 5003,
      "ĠÐ±Ð¾Ð»ÑĮÑĪÐ¾Ð³Ð¾": 5004,
      "ĠÑģÑĤÑĢÐ°ÑĪÐ½ÑĭÐ¹": 5005,
      "ĠÑĥÐ¿ÑĢÐ°Ð²": 5006,
      "ĠÐ½Ð¾Ð²Ð¾Ð³Ð¾": 5007,
      "ĠÐ½Ð°Ð·Ð²": 5008,
      "ĠÐ¿ÐµÑĢÐ²ÑĭÑħ": 5009,
      "ĠÐ²ÑģÑıÐºÐ¾Ð³Ð¾": 5010,
      "ĠÐ³Ð¾Ð´Ð¾Ð²": 5011,
      "ĠÐºÐ°ÑĢÑĤÑĭ": 5012,
      "ĠÑģÐ»ÑĥÑĩÐ°Ñı": 5013,
      "ĠÐ·Ð°Ð³Ð¾Ð²Ð¾ÑĢ": 5014,
      "ĠÐ´Ð¾ÐºÐ°Ð·": 5015,
      "ĠÑĥÑģÐ¼ÐµÑħ": 5016,
      "ĠÐ²ÑģÐ¿ÑĭÑħ": 5017,
      "ĠÐ¿Ð¾ÑħÐ¾ÑĢÐ¾Ð½": 5018,
      "ĠÐ»ÐµÐ¶Ð¸ÑĤ": 5019,
      "ĠÐ¿ÑĥÑģÑĤÐ¾Ð¹": 5020,
      "ĠÑģÐ»ÐµÐ´ÑĥÐµÑĤ": 5021,
      "ĠÐľÐ¾ÑģÐºÐ¾Ð²": 5022,
      "ĠÐ³ÑĢÐ¾Ð¼ÑĩÐµ": 5023,
      "Ð¼Ð°Ð½Ñĭ": 5024,
      "ĠÐ´Ð¾Ð±ÑĢÑĭÐ¹": 5025,
      "ĠÑıÑĢÐ¾ÑģÑĤ": 5026,
      "ĠÐ¿Ð¸ÑģÑĮÐ¼Ðµ": 5027,
      "ĠÐ²ÐµÑģÐµÐ»ÑĭÐµ": 5028,
      "ĠÐŁÐ¾ÑģÐ»ÐµÐ´": 5029,
      "ÐĴÐ¾ÑĤ": 5030,
      "ĠÐ¼ÑĭÑģÐ»ÐµÐ¹": 5031,
      "ĠÐ¿Ð¾Ð²ÐµÑĢÐ½ÑĥÐ»ÑģÑı": 5032,
      "ĠÑģÐ¼ÐµÑĪÐ½Ð¾": 5033,
      "ĠÐ¿ÐµÑĩÐ°Ð»ÑĮÐ½Ð¾": 5034,
      "ĠÑĤÐ¾Ð²Ð°ÑĢÐ¸ÑīÐµÐ¹": 5035,
      "ÐŀÑģÐº": 5036,
      "ĠÑģÐ»ÑĥÑĪÐ°ÑĤÑĮ": 5037,
      "Ð½Ð°ÑĩÐ°Ð»Ðµ": 5038,
      "ĠÐ¾ÑĢÐ¸Ð³Ð¸Ð½": 5039,
      "ĠÐ·Ð°Ð´ÑĥÐ¼ÑĩÐ¸Ð²": 5040,
      "ĠÐ¸Ð·Ð²ÐµÑģÑĤÐ½Ð¾": 5041,
      "ĠÐ²ÑĭÑĪÐ»Ð¾": 5042,
      "ĠÐºÐ°ÑĢÑĤÐ¸Ð½": 5043,
      "ĠÑĤÐµÑĤÑĢÐ°Ð´": 5044,
      "ĠÐ½ÐµÐ¾Ð¶Ð¸Ð´Ð°Ð½Ð½Ð¾": 5045,
      "Ð»Ð¸ÐºÐ½ÑĥÐ»": 5046,
      "ĠÐ»ÐµÑģÑĤÐ½Ð¸ÑĨÐµ": 5047,
      "ĠÑĦÐ°ÐºÑĤ": 5048,
      "----": 5049,
      "ĠÐ´ÑĢÑĥÐ·ÐµÐ¹": 5050,
      "ĠÐ¼ÐµÑģÑıÑĨ": 5051,
      "ĠÐ¿ÑĢÐ¾Ð¸ÑģÑħÐ¾Ð´Ð¸Ð»Ð¾": 5052,
      "ĠÐ¿ÑĢÐµÐ´ÑģÐµÐ´Ð°ÑĤÐµÐ»ÑĮ": 5053,
      "ĠÑĥÐ¹ÑĤÐ¸": 5054,
      "ĠÐºÐ»Ð°Ð´Ð±": 5055,
      "ĠÐļÐ°ÑĢÐ°ÑĥÐ»Ð¾Ð²Ð°": 5056,
      "ĠÐĿÐ°ÑģÑĤÐ°ÑģÑĮÑı": 5057,
      "ĠÑĥÑģÑĤÑĢÐµÐ¼": 5058,
      "ĠÐ¼Ð¸Ð»Ð»Ð¸Ð¾Ð½": 5059,
      "ĠÐ½ÐµÐ¾ÑħÐ¾ÑĤÐ½Ð¾": 5060,
      "ĠÐ´ÑĢÐ°Ð³Ð¾ÑĨ": 5061,
      "Ð½Ð°Ð¼Ð¸": 5062,
      "Ð»Ð¾Ð¿": 5063,
      "Ð»Ð¾Ðµ": 5064,
      "ÑĢÐ°Ð»": 5065,
      "ÑĢÑĭÐ²Ð°Ð»": 5066,
      "ĠÑģÐ¾ÑĤÑĢ": 5067,
      "ĠÐ¿Ð°": 5068,
      "ĠÐ¿Ð¸Ð»Ð¸": 5069,
      "ĠÐ¿ÐµÐ»Ð¸": 5070,
      "ÑĩÐµÑĢ": 5071,
      "ÑĩÐ¸Ð½": 5072,
      "ÐºÐ°Ð·": 5073,
      "ĠÐ²Ð¸Ð½Ð¾": 5074,
      "ĠÐ²Ð³Ð»ÑıÐ´ÑĭÐ²": 5075,
      "ÑĤÐ¾Ð¸ÑĤ": 5076,
      "ĠÐºÑĥÑģÑĤ": 5077,
      "ĠÐ±Ð¸ÑĤÑĮ": 5078,
      "ĠÐ±ÐµÑĪ": 5079,
      "ĠÐ´Ð°ÑİÑĤ": 5080,
      "Ð¸Ð»ÐµÑĤ": 5081,
      "ĠÐ¿ÑĢÐ¾ÑģÑĮ": 5082,
      "Ð¸ÑĤÐ¾Ð¹": 5083,
      "Ð¸ÑĤÐµÐ»Ð¸": 5084,
      "ĠÐ³Ð½Ñĥ": 5085,
      "ĠÐ½Ð°ÑĥÑĩ": 5086,
      "ĠÐ½Ð°ÑģÐ»": 5087,
      "ĠÑĥÑİÑĤ": 5088,
      "ĠÐ»Ð¾Ðº": 5089,
      "ĠÐ»Ð¾Ð±": 5090,
      "ĠÐ¾ÑĤÐ»Ð¸Ñĩ": 5091,
      "ĠÑģÑĤÑĥÐ»": 5092,
      "ĠÐŁÐµÑĢ": 5093,
      "ĠÐĿÐµÑģ": 5094,
      "Ð¾Ð¶Ð°": 5095,
      "Ð¾Ð»ÑĮÑĪÐµ": 5096,
      "ĠÐĴÐ°Ð»": 5097,
      "ĠÐĺÐ¿Ð°ÑĤ": 5098,
      "ĠÐ²ÑĭÐ´ÐµÐ»": 5099,
      "ÐµÐºÐµ": 5100,
      "Ð¶Ñĥ": 5101,
      "ĠÐ·Ð°ÑħÐ¾Ð´": 5102,
      "ĠÐ·Ð°ÑħÐ²Ð°ÑĤ": 5103,
      "ĠÐºÑĢÐ¾ÑĤ": 5104,
      "ĠÐļÐ¾Ð½": 5105,
      "ĠÑĢÐ°Ð·Ð¾ÑĢ": 5106,
      "ĠÑĢÐ°Ð·ÑĬ": 5107,
      "ĠÐ¢Ð¾ÑĤ": 5108,
      "ĠÐľÐ¾Ð»Ð¾Ð´": 5109,
      "ÐµÐ¶Ð´Ðµ": 5110,
      "ÑıÐ»Ð¾ÑģÑĮ": 5111,
      "ĠÐĶÐ²": 5112,
      "ĠÐ»Ð¸ÑģÑĤÑĮ": 5113,
      "ĠÐ²Ð¸Ð´Ð¸ÑĪÑĮ": 5114,
      "ĠÑĩÐµÑĢÐ½Ð¾Ðµ": 5115,
      "ĠÐ±ÐµÐ·Ð³": 5116,
      "ÑĥÐ²ÐµÑĢ": 5117,
      "Ð»Ð¸Ð²ÑĭÐ¼": 5118,
      "ĠÑģÑĤÑĢÐ¾Ð¹": 5119,
      "ĠÑĦÐ¾ÑĤ": 5120,
      "ĠÐ¾ÐºÐ¾Ð½": 5121,
      "ĠÐ¸Ð¼Ð¸": 5122,
      "ĠÐ¸Ð¼ÐµÐ½": 5123,
      "ĠÐ¾ÑģÐµÐ½": 5124,
      "Ð½ÑıÐ»Ð°": 5125,
      "ÑĥÑģÑĤÐ¸Ð»": 5126,
      "ĠÐ±ÑĢÐ°Ð½": 5127,
      "ĠÐ±ÑĢÐµÐ·Ð³": 5128,
      "ĠÑģÐ²ÐµÑĤÐ»Ð¾": 5129,
      "ĠÐļÐ°ÐºÐ°Ñı": 5130,
      "ĠÐ½Ð¾ÑĩÐ°Ð¼": 5131,
      "ĠÐŃÑĤÐ¾ÑĤ": 5132,
      "ĠÐ¼Ð°Ð»ÐµÐ½ÑĮÐºÐ¾Ðµ": 5133,
      "ĠÐ¿Ð¾Ð·Ð°Ð±": 5134,
      "ĠÑģÐ»Ð¾Ð²Ð¾Ð¼": 5135,
      "ĠÐ½Ð¾Ð²ÑĥÑİ": 5136,
      "ĠÐ¶ÐµÐ½ÑīÐ¸Ð½Ñĥ": 5137,
      "ĠÐ¼Ð°Ð»ÐµÐ½ÑĮÐºÑĥÑİ": 5138,
      "ĠÐ¿Ð¾Ð³Ð¸Ð±": 5139,
      "ĠÐ²ÐµÑĩÐ½Ð¾": 5140,
      "ĠÐºÐ°Ð¶Ð´Ð¾Ð¹": 5141,
      "ÑİÑīÐ¸Ñħ": 5142,
      "ĠÐºÐ»ÑĥÐ±": 5143,
      "ĠÑħÐ¾Ð´Ð¸Ð»Ð¸": 5144,
      "ĠÐ¾ÑģÑĤÐ°Ð²Ð°Ð»ÑģÑı": 5145,
      "ĠÑģÑĤÐ°Ð½Ð¾Ð²Ð¸Ð»Ð¸ÑģÑĮ": 5146,
      "ĠÐ´Ð¾ÐºÑĤÐ¾ÑĢÑĥ": 5147,
      "ĠÐ±ÑĭÐ²Ð°ÑİÑĤ": 5148,
      "ĠÐ¿Ð¾Ð±Ð»ÐµÐ´": 5149,
      "ĠÐ³ÑĢÑıÐ·Ð¸": 5150,
      "ĠÐ²ÐµÐ»Ð¸ÐºÐ°Ð½": 5151,
      "ĠÐ¸Ð½ÑĤÐµÑĢÐµÑģÐ½Ð¾": 5152,
      "ĠÐ¿ÑĢÐ¸Ð´ÐµÑĤ": 5153,
      "ĠÐ¿ÑĢÐ¾ÑĩÐµÐ»": 5154,
      "ĠÑģÑĤÑĢÐ°ÑħÐ¾Ð¼": 5155,
      "ĠÑĪÐµÐ¿Ð¾ÑĤÐ¾Ð¼": 5156,
      "ĠÑĩÑĥÐ´Ð¾Ð²Ð¸Ñī": 5157,
      "ĠÑĥÐ¼ÐµÑĢÐµÑĤÑĮ": 5158,
      "ĠÐ¿Ð¾ÑħÐ¾Ð¶Ð¸Ð¹": 5159,
      "ĠÑĤÐ¾Ð»ÑģÑĤÑĭÐµ": 5160,
      "ĠÐ¿ÑĢÐ¾ÐºÑĥÑĢ": 5161,
      "ĠÐ½Ð°ÑĢÑĥÑĪ": 5162,
      "ĠÐ¿ÑĢÐ°Ð·Ð´Ð½Ð¸Ñĩ": 5163,
      "ĠÐ·ÑĥÐ±Ð°Ð¼Ð¸": 5164,
      "ĠÐ¿Ð°Ð´Ð°Ð»": 5165,
      "ĠÐ·Ð´Ð¾ÑĢÐ¾Ð²ÑĮÐµ": 5166,
      "ĠÐ¿ÑĥÑĤÐµÑĪÐµÑģÑĤÐ²": 5167,
      "ĠÐ³Ð¾ÑģÑĤÐ¸Ð½": 5168,
      "ĠÐ¾ÑĤÐ½Ð¾ÑĪÐµÐ½Ð¸Ðµ": 5169,
      "ĠÑĥÐ²ÐµÑĢÐµÐ½": 5170,
      "ĠÐ²ÐµÑīÑĮ": 5171,
      "ĠÐ¾ÑģÑĤÐ°Ð½ÐµÑĤÑģÑı": 5172,
      "ĠÑĢÐµÐ±ÐµÐ½Ð¾Ðº": 5173,
      "ĠÑĤÐ²Ð¾Ñı": 5174,
      "ĠÐ¶Ð°ÑĢÐºÐ¾": 5175,
      "ĠÐ´ÐµÐ²ÑĥÑĪÐºÐ¸": 5176,
      "ĠÐºÐ°Ð·Ð°Ð»Ð°ÑģÑĮ": 5177,
      "ĠÐ¿Ð¾Ð´ÑĢÐ¾Ð±Ð½Ð¾": 5178,
      "ĠÑĢÐ°Ð·ÑĢÐµÑĪ": 5179,
      "ĠÐ¾ÑĤÐ½Ð¾ÑģÐ¸Ð»ÑģÑı": 5180,
      "ĠÐ¶Ð°Ð´Ð½Ð¾": 5181,
      "ĠÐ»ÑİÐ±Ð¾Ð¿ÑĭÑĤÑģÑĤÐ²Ð¾Ð¼": 5182,
      "ĠÐ¿Ð¾ÑĤÐ¾Ð»Ð¾Ðº": 5183,
      "ĠÑĢÐ¾Ð¼Ð°Ð½": 5184,
      "ĠÐ¢Ð°Ð³Ð°Ð½ÑĢÐ¾Ð³Ðµ": 5185,
      "ĠÑĤÐ²Ð¾ÑĢÑĩÐµÑģÑĤÐ²Ð°": 5186,
      "ĠÐ½Ð°ÑħÐ¼ÑĥÑĢ": 5187,
      "ĠÑĥÐ¿Ð¾ÑĢÐ½Ð¾": 5188,
      "ĠÐ¿Ð¾ÑĨÐµÐ»Ñĥ": 5189,
      "ĠÐ¿Ð¾Ð´Ð±Ð¾ÑĢÐ¾Ð´": 5190,
      "ÐµÐ¾Ð´Ð¾Ñģ": 5191,
      "ĠÐ¿Ð¾ÑģÐ»ÑĭÑĪÐ°Ð»ÑģÑı": 5192,
      "ĠÑģÐ°Ð½Ð¾Ð²Ð½Ð¸Ðº": 5193,
      "ĠÑĤÐµÑĩÐµÐ½Ð¸Ðµ": 5194,
      "ĠÐ²Ð¾ÑģÑĮÐ¼": 5195,
      "ĠÐ½ÐµÑģÐ¾Ð¼Ð½ÐµÐ½Ð½Ð¾": 5196,
      "ĠÑģÑĥÐ±Ð±": 5197,
      "ĠÐ½ÐµÐ¾Ð¿ÑĢÐµÐ´ÐµÐ»": 5198,
      "ĠÐĶÐ¾ÐºÑĤÐ¾ÑĢ": 5199,
      "ĠÐ±Ð¸Ð±Ð»Ð¸Ð¾ÑĤ": 5200,
      "ĠÐ½ÐµÐ²ÑĭÐ½Ð¾Ñģ": 5201,
      "?\"": 5202,
      "ÐµÐ¸": 5203,
      "ÑĤÐ°Ðº": 5204,
      "Ð¸Ð¾Ð³ÑĢÐ°ÑĦ": 5205,
      "Ð»ÑĭÑħ": 5206,
      "ÑıÑıÑģÑĮ": 5207,
      "ÑĭÐ»Ð°": 5208,
      "ĠÑģÑģ": 5209,
      "ĠÑģÐ°Ð½": 5210,
      "ĠÑģÑĥÑī": 5211,
      "ÑĩÐ¸": 5212,
      "ÐºÐ¾Ð²Ð°": 5213,
      "ĠÐ²Ð»Ð¸": 5214,
      "ĠÐ²ÑıÐ»": 5215,
      "ĠÐ²Ð»Ð°Ð´": 5216,
      "Ð´ÐµÐ½Ð°": 5217,
      "Ð¼Ð°ÑĤ": 5218,
      "Ð¾Ð²Ð°Ð»Ð¸ÑģÑĮ": 5219,
      "ÐµÐ½Ñī": 5220,
      "ĠÑĤÑıÐ½ÑĥÐ»": 5221,
      "ĠÐ´Ð°Ð»Ð¸": 5222,
      "ĠÐ´Ð°Ð»Ð°": 5223,
      "ÐµÐ»Ð¸ÑģÑĮ": 5224,
      "ÐµÐ»Ð°Ð³": 5225,
      "ĠÐ¼Ð°Ð½": 5226,
      "ĠÐ¼Ð°ÑĢ": 5227,
      "Ð¾Ð¼Ð¾Ñī": 5228,
      "ĠÐ¿ÑĢÐ¾Ð¶": 5229,
      "ĠÑĢÐ°Ð¼": 5230,
      "ÐµÐ¼Ð½": 5231,
      "ÑīÐ¸Ð¼": 5232,
      "ĠÑĥÑĩÐ°": 5233,
      "ĠÑĥÑĩÐ¸ÑĤ": 5234,
      "ĠÐ»ÐµÐ·": 5235,
      "ĠÐ»Ð¸Ð¿": 5236,
      "ÑĨÐ¸Ð¾Ð½": 5237,
      "Ð¾ÑĤÑı": 5238,
      "Ð½Ð°Ñħ": 5239,
      "ĠÐ¾ÑĤÑģÑĤÑĥÐ¿": 5240,
      "ĠÑģÑĤÐ°ÐºÐ°Ð½": 5241,
      "Ð¾ÐºÑĥ": 5242,
      "Ð¾ÐºÐ¾Ð»": 5243,
      "Ð¸Ð½Ð¾Ð¼": 5244,
      "ĠÐŁÐ¾Ð³": 5245,
      "ĠÐŁÐµÐ»Ð°Ð³": 5246,
      "Ð¾Ð¶Ñĥ": 5247,
      "ĠÐ°Ð´ÑĢÐµÑģ": 5248,
      "Ð»ÑıÐ²": 5249,
      "ĠÐĲÑĢ": 5250,
      "Ð°Ð¶Ð¸ÑĤÐµ": 5251,
      "ĠÐ¾Ð±Ðµ": 5252,
      "ĠÐ¾Ð±Ð»Ð°Ð´": 5253,
      "ĠÐŀÐ½Ð¾": 5254,
      "ĠÐ¿Ð¾Ð´Ð¶": 5255,
      "ĠÐ¸Ð·ÑĥÑĩ": 5256,
      "ĠÐ¸Ð·Ð¾Ð±ÑĢÐ°Ð¶": 5257,
      "ĠÑĪÐµÐµ": 5258,
      "ĠÑĪÐµÐ²ÐµÐ»": 5259,
      "ĠÑĢÐ°ÑģÑħÐ¾Ð´": 5260,
      "ĠÑĢÐ°ÑģÑĩÐµÑĤ": 5261,
      "ĠÑĤÑĢÐµÑħ": 5262,
      "ĠÐ±ÑĥÐ´ÐµÑĪÑĮ": 5263,
      "ĠÐ³Ð¾Ð²Ð¾ÑĢÑı": 5264,
      "ĠÐ´ÑĢÑĥÐ³Ð°Ñı": 5265,
      "ĠÐ»ÑİÐ±Ð¸Ð»Ð¸": 5266,
      "Ð»Ð¸Ð²ÑĭÐµ": 5267,
      "ĠÑģÑĤÑĢÐ¾ÐºÐ¸": 5268,
      "ĠÑĦÑĢÐ°Ðº": 5269,
      "ĠÐ±Ð»Ð°Ð¶": 5270,
      "ĠÐ²Ð¾Ð·ÑĢÐ°Ð¶": 5271,
      "ĠÐ§ÐµÑħÐ¾Ð²ÑĭÑħ": 5272,
      "ĠÐ¸Ð¼ÐµÐµÑĤ": 5273,
      "ĠÐ¾ÑģÐ»ÐµÐ¿": 5274,
      "ĠÑĤÐµÐ¼Ð½ÑĭÑħ": 5275,
      "ĠÑĤÐµÐ¼Ð½Ð¾Ðµ": 5276,
      "ĠÐ¶ÐµÐ½Ðµ": 5277,
      "ÑĢÑĭÐ³": 5278,
      "ĠÐ½Ð°ÑĩÐ°Ð»Ð¸": 5279,
      "ÐµÑĤÑĮÑģÑı": 5280,
      "ĠÐ½ÐµÐ¿ÑĢÐ°Ð²": 5281,
      "ĠÐ£Ð±": 5282,
      "Ð»ÑıÐ´ÑĭÐ²Ð°Ð»": 5283,
      "ĠÐ²ÑĢÐµÐ¼ÐµÐ½Ð°": 5284,
      "Ð¸Ð»ÑĮÐ½Ð¾": 5285,
      "ĠÐŃÑĤÐ°": 5286,
      "ĠÑģÐ¾Ð¾Ð±ÑĢÐ°Ð¶": 5287,
      "Ð¸Ð²ÑĪÐµÐ³Ð¾ÑģÑı": 5288,
      "ĠÐŁÑĢÐ¾ÑģÑĤ": 5289,
      "ĠÐ´ÑĥÐ¼Ð°ÐµÑĪÑĮ": 5290,
      "ĠÐ¾Ð´Ð¸Ð½Ð¾ÐºÐ¾": 5291,
      "ĠÐļÐ°ÐºÐ¸Ðµ": 5292,
      "ĠÑĥÐ´ÐµÑĢÐ¶": 5293,
      "ĠÐ·Ð°ÐºÑĢÑĭÑĤ": 5294,
      "ĠÐ¿Ð¾Ð·Ð¶Ðµ": 5295,
      "Ð°ÑİÑīÐµÐ³Ð¾": 5296,
      "ĠÐ´ÐµÑĢÐ·": 5297,
      "ĠÐ±ÐµÐ»ÑĭÐ¼Ð¸": 5298,
      "Ð»ÐµÐºÑĤÑĢ": 5299,
      "ĠÐ±ÑĥÐ´ÐµÑĤÐµ": 5300,
      "ÑĩÐ¸ÐºÐ¸": 5301,
      "Ð¸ÑĩÐµÑģÐºÐ°Ñı": 5302,
      "ĠÐ½Ð¾Ð²ÑĭÐ¼": 5303,
      "ĠÐ·Ð°Ð´Ð°Ñĩ": 5304,
      "ĠÐ¼Ð¾Ð»ÑĩÐ°Ð½Ð¸Ðµ": 5305,
      "ĠÐ²Ð¾Ð´Ð¾Ð¹": 5306,
      "ĠÐ³Ð»ÑĥÐ±Ð¸Ð½Ðµ": 5307,
      "ÑİÑīÐ¸Ð¼": 5308,
      "ĠÐ·Ð°ÑģÑĭÐ¿": 5309,
      "ÑĢÐ°ÑĤÐ½Ð¾": 5310,
      "ĠÐ¿Ð¾ÑħÐ²Ð°Ð»": 5311,
      "ĠÐĴÐ°ÑģÐ¸Ð»": 5312,
      "ĠÐ±ÐµÑģÐ¿Ð¾Ð¼Ð¾Ñī": 5313,
      "ĠÑīÐµÐ½Ð¾Ðº": 5314,
      "Ġ12": 5315,
      "ĠÐ¿Ð¾Ð½Ð¸Ð¼Ð°ÐµÑĤÐµ": 5316,
      "ĠÑģÑĤÐ°Ð½Ð¾Ð²Ð¸Ð»Ð°ÑģÑĮ": 5317,
      "ĠÐ¿ÑĢÐ¸ÑħÐ¾Ð´Ð¸ÑĤ": 5318,
      "ĠÐ¿ÑĢÐ¾ÑĪÐµÐ¿": 5319,
      "ĠÐ¿ÑĢÐ¾ÑĪÐ»Ð°": 5320,
      "ĠÑģÐ¾ÑģÑĢÐµÐ´": 5321,
      "ĠÐ¼ÑĥÐ¶Ð°": 5322,
      "ĠÐ¿Ð¾Ð±ÐµÐ´": 5323,
      "ĠÐ¿ÑĢÐ¾Ð¸Ð·Ð½ÐµÑģ": 5324,
      "ĠÐ´ÐµÑĢÐµÐ²ÑıÐ½": 5325,
      "ĠÐ´ÐµÑĢÐµÐ²ÑĮÐµÐ²": 5326,
      "ĠÐ²ÐµÐ»Ð¸ÐºÐ¾Ð»ÐµÐ¿": 5327,
      "ĠÐ»Ð¸ÑĤÐµÑĢÐ°ÑĤÑĥÑĢÐµ": 5328,
      "ĠÐ¼Ð°ÑĤÐµÑĢ": 5329,
      "ĠÐ³ÑĥÐ±ÐµÑĢ": 5330,
      "ĠÐ´Ð²ÐµÑĢÑĮÑİ": 5331,
      "ĠÐ¿ÑĢÐ¸Ð·ÑĢÐ°Ðº": 5332,
      "ĠÐ±Ð»Ð°Ð³Ð¾Ð¿Ð¾Ð»ÑĥÑĩ": 5333,
      "Ð½ÑĥÑĤÑĭÐ¹": 5334,
      "ĠÐ½Ð°Ð¿Ð¸ÑģÐ°ÑĤÑĮ": 5335,
      "Ð¸ÑģÐºÑĥ": 5336,
      "ĠÐ·Ð°Ð»Ðµ": 5337,
      "ĠÐ¿Ð¾Ð²ÑĤÐ¾ÑĢÑıÐ»": 5338,
      "ĠÐ³Ð¾ÑĢÑıÑĩÐ¾": 5339,
      "ĠÑĤÐ¾Ð²Ð°ÑĢÐ¸ÑīÐ¸": 5340,
      "ĠÐ¼Ð°Ð»ÑĮÑĩ": 5341,
      "ĠÐ´Ð»Ð¸Ð½Ð½ÑĭÐ¹": 5342,
      "ĠÑģÐ²ÐµÑĤÐ»ÑĭÐµ": 5343,
      "ĠÐ¿Ð»Ð°ÑĤÑĦÐ¾ÑĢ": 5344,
      "ĠÐ³Ð°Ð·ÐµÑĤÐµ": 5345,
      "ĠÐ³Ð»ÑĥÐ¿Ð¾": 5346,
      "ĠÑģÐ¿ÑĢÐ°ÑĪÐ¸Ð²Ð°ÐµÑĤ": 5347,
      "ĠÐ³Ð»ÑĥÑħÐ¾Ð¹": 5348,
      "ĠÑĥÑĪÐ»Ð°": 5349,
      "ĠÐ¾ÑĤÐ½Ð¾ÑĪÐµÐ½Ð¸Ñı": 5350,
      "ĠÐ±ÐµÑģÐºÐ¾Ð½ÐµÑĩÐ½Ð¾": 5351,
      "ĠÑģÐºÐ°Ð¶Ð¸": 5352,
      "ĠÑģÐºÐ°Ð¶Ñĥ": 5353,
      "ĠÐ½ÐµÑģÑĩÐ°ÑģÑĤÐ½ÑĭÐ¹": 5354,
      "ĠÑīÐµÐºÐµ": 5355,
      "Ð»Ð°Ð³Ð¾Ð´Ð°ÑĢ": 5356,
      "ĠÑģÑĨÐµÐ½Ñĭ": 5357,
      "ĠÑģÑĥÑħÐ¾Ð¹": 5358,
      "ĠÐļÐ°ÑĤÑı": 5359,
      "ĠÐ¾ÑħÐ¾ÑĤÐ½Ð¾": 5360,
      "ĠÑĥÑģÑĤÐ°Ð»Ð¾ÑģÑĤÐ¸": 5361,
      "ĠÐ¸ÑģÐºÑĥÑģÑģÑĤÐ²Ð°": 5362,
      "ĠÐ´ÑĥÑħÐ¾Ð²": 5363,
      "ĠÑĥÑĩÐ°ÑģÑĤÐ¸Ðµ": 5364,
      "ĠÑįÐºÐ¸Ð¿": 5365,
      "ĠÑħÑĥÐ´Ð¾Ð¶Ð½Ð¸Ðº": 5366,
      "ĠÐ¯ÐºÐ¾Ð²Ð»": 5367,
      "ĠÐ¼Ð¾Ð·Ð³": 5368,
      "ĠÐ²Ð¾ÑģÐ¿Ð¾Ð¼Ð¸Ð½Ð°Ð½Ð¸ÑıÑħ": 5369,
      "ĠÐļÐ¾ÑĢÐ¾Ð»ÐµÐ½ÐºÐ¾": 5370,
      "ĠÐ°Ð½Ð³ÐµÐ»Ð¾ÑĩÐºÐ°": 5371,
      "ĠÐŁÐ¾ÑģÐ»ÑĥÑĪÐ°Ð¹ÑĤÐµ": 5372,
      "ĠÐ½Ð°Ð±Ð»ÑİÐ´": 5373,
      "ĠÐ·Ð»Ð¾Ð²ÐµÑī": 5374,
      "ĠÐ½ÐµÐ·Ð°Ð¼ÐµÑĤÐ½Ð¾": 5375,
      "ĠÐ´ÑıÐ´Ñı": 5376,
      "ĠÐ¤ÐµÐ½Ð¾Ð³ÐµÐ½": 5377,
      "ĠÐ³Ð½ÑĥÑģ": 5378,
      "ĠÑĦÐ¾ÑĤÐ¾Ð³ÑĢÐ°ÑĦ": 5379,
      "*.": 5380,
      "27": 5381,
      "33": 5382,
      "ĠÑĥÐ³Ð¾": 5383,
      "ÑģÑĭ": 5384,
      "Ð»Ð¾ÑĤ": 5385,
      "Ð»Ð¾Ð²Ð°": 5386,
      "Ð»Ð¸Ð±Ð¾": 5387,
      "ÑĢÐµÐ¹": 5388,
      "ÑıÐ¹": 5389,
      "ĠÑģÐ½Ð¸Ð¼": 5390,
      "ĠÑģÐ¾ÑĪÐµÐ»": 5391,
      "ĠÐ¿Ð°ÑģÑģ": 5392,
      "ĠÐ²ÑħÐ¾Ð´Ð¸Ð»": 5393,
      "Ð²Ð¸Ð½": 5394,
      "Ð²Ð°Ð»ÑģÑı": 5395,
      "Ð²ÑĭÑĩ": 5396,
      "ÑħÐ¾": 5397,
      "ÑħÐ°": 5398,
      "ĠÐºÐ¾ÑĤ": 5399,
      "Ð¾Ð²Ð¸ÑĤ": 5400,
      "Ð¾Ð²Ð¾Ð³Ð¾": 5401,
      "Ð¾Ð²Ð»ÐµÑĤ": 5402,
      "ĠÐ±Ð¾ÑİÑģÑĮ": 5403,
      "ĠÑĤÐµÐº": 5404,
      "ĠÐ´Ð¸ÑĢÐµÐº": 5405,
      "ÐµÐ»Ð¸Ð³": 5406,
      "ĠÐ¼Ð°Ñħ": 5407,
      "ĠÑĩÐ»ÐµÐ½": 5408,
      "ĠÐ·Ð°ÑĤÑĢ": 5409,
      "ĠÐ¿ÑĢÐ¾ÑĢ": 5410,
      "ĠÐ½ÐµÐ¾Ñģ": 5411,
      "ĠÐ½ÐµÑģÐ¿": 5412,
      "ÑīÐ¸Ð¹": 5413,
      "ĠÑĥÐµÐ·Ð¶": 5414,
      "ĠÐ»Ð°Ð¿": 5415,
      "ĠÐ¾ÑĤÐ¼": 5416,
      "ĠÐ¾ÑĤÑħÐ¾Ð´": 5417,
      "ĠÐ¾ÑĤÐ¾Ð·Ð²": 5418,
      "Ð¾ÐºÐ¸Ð¹": 5419,
      "Ð°Ð´Ð¾ÑģÑĤ": 5420,
      "Ð°ÑĢÑĮ": 5421,
      "ĠÐ¿Ð¾ÐµÐ·Ð´Ð°": 5422,
      "ÐµÐ²Ð°Ð»Ð°": 5423,
      "ĠÐĴÑģÑı": 5424,
      "ĠÐĴÐ¿ÑĢ": 5425,
      "ĠÐ²ÑĭÑģÑĤÐ°Ð²": 5426,
      "ÑĢÐ°Ñħ": 5427,
      "ÑĢÐ°Ð½Ð¸": 5428,
      "ĠÐ¡ÐµÐ¹ÑĩÐ°Ñģ": 5429,
      "ĠÐ¡Ð°Ð½ÑĮÐºÐ°": 5430,
      "ÑĥÐ³Ð°": 5431,
      "ĠÐ¿Ð¾Ð´Ðº": 5432,
      "ĠÐ¿Ð¾Ð´Ð°ÑĢ": 5433,
      "ĠÐ¸Ð·Ð³": 5434,
      "ĠÑģÐºÐ»Ð°Ð´": 5435,
      "ĠÑģÐºÑĢÑĭÑĤ": 5436,
      "ĠÐļÑĢÐ°Ñģ": 5437,
      "ÑĭÐ²Ð°ÑıÑģÑĮ": 5438,
      "ĠÑĪÐº": 5439,
      "ĠÐ¿ÐµÑĢÐµÐ¼ÐµÐ½": 5440,
      "ÐµÐ½Ð½Ð¾ÑģÑĤÑĮÑİ": 5441,
      "Ð¾ÑģÑĤÐµÐ¹": 5442,
      "ĠÑģÐ¿Ð°Ð»ÑĮ": 5443,
      "Ð¸ÑĢÐ°Ñı": 5444,
      "ĠÐĶÑĥÐ¼": 5445,
      "ĠÑĢÐ°ÑģÑģÐµ": 5446,
      "ĠÐ³ÑĢÐ¾ÑħÐ¾ÑĤ": 5447,
      "ĠÑģÐ°Ð¼Ð¾Ð²Ð°ÑĢ": 5448,
      "ĠÐ¿Ð»Ð°Ð²": 5449,
      "ĠÐ²Ð·Ð²Ð¾Ð»": 5450,
      "Ð°Ð»Ð¾ÑģÑĤÑĮ": 5451,
      "ĠÐķÐµ": 5452,
      "ĠÐķÐ¹": 5453,
      "ĠÐĳÐµÐ½": 5454,
      "ĠÑĩÐµÑĢÐµÐ¿": 5455,
      "Ð»Ð¸Ð²ÑĭÑħ": 5456,
      "ĠÐ¼ÑĭÑģ": 5457,
      "ĠÐ¼ÑĭÑĪ": 5458,
      "ĠÐ¾ÐºÐ°Ð·": 5459,
      "ĠÐ¾ÐºÐ°Ð·ÑĭÐ²": 5460,
      "ĠÐ¼Ð¾ÐµÐ¼": 5461,
      "ĠÐĽÐ¸ÑĨ": 5462,
      "Ð°Ð²ÑĪÐ¸Ð¼": 5463,
      "ĠÑĥÐ¼Ð¸Ð»": 5464,
      "ĠÑĥÐ¼Ð¾Ð»Ðº": 5465,
      "Ð°ÑĤÐµÐ»ÑĮÐ½ÑĭÐ¼": 5466,
      "ĠÐ¿Ð¾Ð½ÐµÑģ": 5467,
      "ĠÐ·Ð²Ð°Ð»": 5468,
      "ĠÐ²ÑĢÐµÐ¼ÐµÐ½": 5469,
      "Ð¸Ð²ÑĪÐµÐ¹": 5470,
      "Ð¸Ð²ÑĪÐµÐ¹ÑģÑı": 5471,
      "ĠÐ²ÐµÑĢÐ½Ð¾": 5472,
      "Ð»ÐµÐ½Ð½Ð¾Ð¹": 5473,
      "ĠÐ¿Ð¾ÑĢÐ°Ð·": 5474,
      "ĠÐ¿Ð¾ÑĢÑĤÑĢ": 5475,
      "ĠÐ±Ð¾Ð»ÑĮÑĪÐ¸Ð¼Ð¸": 5476,
      "ĠÐºÐ¾Ð»ÐµÐ½": 5477,
      "ĠÐ¿Ð¾Ð¿Ð°Ð»": 5478,
      "ĠÑħÐ¾ÑĢÐ¾ÑĪÐ¸Ð¼": 5479,
      "ĠÐ´ÐµÐ»Ñĥ": 5480,
      "ĠÐ±Ð¾Ð»ÑĤ": 5481,
      "ĠÑĢÐ°ÑģÑģÐºÐ°Ð·Ð°": 5482,
      "ĠÑģÑĤÑĢÐ°ÑĪÐ½Ð¾Ð¹": 5483,
      "ĠÐ½ÐµÐ´Ð°Ð²Ð½Ð¾": 5484,
      "ĠÑĥÐ²Ð»ÐµÑĩ": 5485,
      "ĠÐ½Ð¾Ð³Ð°Ñħ": 5486,
      "ĠÐ·Ð°Ð±Ð¾Ð»": 5487,
      "ĠÐ·Ð°Ð±Ð°Ð²": 5488,
      "ĠÐ¶Ð¸Ð²ÑĥÑĤ": 5489,
      "ĠÐ¥ÑĥÐ´": 5490,
      "ĠÐ¥Ð¾Ñĩ": 5491,
      "ÑıÑīÐµÐ³Ð¾": 5492,
      "ĠÐ·Ð°Ð²ÑģÐµÐ³Ð´": 5493,
      "ĠÑħÐ¾Ð»Ð¾Ð´Ð½ÑĭÐ¹": 5494,
      "ĠÐ¶Ð°Ð»Ð¾Ð²Ð°Ð»ÑģÑı": 5495,
      "ĠÐ¿ÑĢÐ¸Ð²ÐµÐ·": 5496,
      "ĠÐ±ÐµÑģÐ¿Ð¾ÑīÐ°Ð´": 5497,
      "ĠÑĢÐ°ÑģÑģÐ¼Ð¾ÑĤÑĢ": 5498,
      "ĠÐ¿ÑĢÐ¸ÑħÐ¾Ð´Ð¸Ð»": 5499,
      "ĠÑģÐ¾Ð»Ð½ÑĨÐµÐ¼": 5500,
      "ĠÑģÐºÐ¾ÑĢÐ±": 5501,
      "ĠÑģÐ¸Ð»ÑĮÐ½ÑĭÐ¹": 5502,
      "ĠÑĤÑıÐ¶ÐµÐ»Ð¾Ðµ": 5503,
      "ĠÐ¿ÑĢÐ¾Ð¸Ð·Ð¾ÑĪÐ»Ð¾": 5504,
      "ĠÐºÑĢÐ¾Ð²Ð°ÑĤÐ¸": 5505,
      "ĠÑĤÐ¾Ð½ÐºÐ¸Ðµ": 5506,
      "ĠÐ¤ÐµÐ´": 5507,
      "ĠÐ²Ð·Ð³Ð»ÑıÐ´Ð°": 5508,
      "ĠÐ²Ð°ÑĪÐ¸": 5509,
      "ÐĳÐ¾Ð³Ñĥ": 5510,
      "ĠÑģÑĥÐ´Ð¾ÑĢ": 5511,
      "Ð¿ÑĢÐ°ÐºÑģ": 5512,
      "ĠÐ¾Ð±ÑĬÑıÑĤ": 5513,
      "ĠÐ¾Ð±ÐµÐ´Ð°": 5514,
      "ĠÐ²Ð¾Ð»Ð¾ÑģÐ°Ð¼Ð¸": 5515,
      "ĠÑĤÐ¾Ð»ÑģÑĤÐ°Ñı": 5516,
      "ĠÑĤÐ¾Ð»ÑģÑĤÑĭÐ¹": 5517,
      "Ð¸Ð¾Ð½Ð¾Ð¼": 5518,
      "Ð¸ÑĤÐµÐ»Ñı": 5519,
      "ĠÐĿÐ°Ð´Ñı": 5520,
      "ĠÐ²ÑģÐºÑĢÐ¸Ðº": 5521,
      "ĠÐ³Ð»ÑĥÐ±Ð¾ÐºÐ¸Ðµ": 5522,
      "ĠÐ¿Ð°Ð¿Ð°": 5523,
      "ĠÐľÐ°ÑĢÐ¸Ñı": 5524,
      "ĠÐ´ÑĥÑĢÐ°Ðº": 5525,
      "ĠÐ²Ð¾Ð·Ð¼ÑĥÑĤ": 5526,
      "ĠÐ²ÑģÐ¿Ð¾Ð¼Ð½Ð¸ÑĤÑĮ": 5527,
      "ĠÐ¶Ð´Ð°ÑĤÑĮ": 5528,
      "ĠÐ³ÑĢÐ¾Ð·Ð½Ð¾": 5529,
      "ĠÐ²ÑģÑĤÑĢÐµÑĤÐ¸Ð»": 5530,
      "ĠÑģÑĤÐµÐ¿Ð¸": 5531,
      "ĠÑĤÑĢÐµÐ±Ð¾Ð²Ð°Ð»": 5532,
      "ĠÐ¼Ð°ÑĤÐµÑĢÐ¸Ð°Ð»": 5533,
      "ĠÐ²ÑĭÐ´ÑĥÐ¼": 5534,
      "ĠÑĤÑĮÐ¼Ñĥ": 5535,
      "Ð¸Ð½ÑĥÐ»ÑģÑı": 5536,
      "ĠÐ¡Ð»ÑĭÑĪ": 5537,
      "ĠÐ½Ð¸ÐºÐ°ÐºÐ¸Ñħ": 5538,
      "ĠÐ´Ð°ÑĩÐµ": 5539,
      "ĠÐ±ÐµÐ·ÑĥÐ¼Ð½Ð¾": 5540,
      "ĠÐ½ÐµÑĩÐµÐ³Ð¾": 5541,
      "ĠÐ¿ÑĢÐ¸Ð½Ð¸Ð¼Ð°Ð»": 5542,
      "ĠÐºÐ°ÑĢÑĤÐ¸Ð½Ñĥ": 5543,
      "ĠÐ¿ÑĮÐµÑģÑĥ": 5544,
      "ĠÐ·Ð°ÑīÐ¸Ñī": 5545,
      "ĠÐ±Ð»Ð°Ð³Ð¾Ð´Ð°ÑĢÑı": 5546,
      "ĠÐķÐ²Ð¿ÑĢÐ°ÐºÑģ": 5547,
      "ĠÑģÑĥÑĢÐ¾Ð²Ð¾": 5548,
      "ĠÑĢÐ°Ð·ÑĢÑĥÑĪ": 5549,
      "ĠÐ¾Ð±ÑıÐ·Ð°Ð½": 5550,
      "ĠÑħÐ¾Ð»Ð¾Ð´Ð°": 5551,
      "ĠÑģÐ¾Ð´ÑĢÐ¾Ð³": 5552,
      "ĠÐĺÐ²Ð°Ð½Ð°": 5553,
      "ĠÐ±ÐµÐ·Ð½Ð°Ð´ÐµÐ¶": 5554,
      "ĠÐ²Ð¾Ð·Ð¼Ð¾Ð¶Ð½Ð¾ÑģÑĤÐ¸": 5555,
      "ĠÐ¾Ð±ÐµÑĢÐ½ÑĥÐ»ÑģÑı": 5556,
      "ĠÐ¾Ð¶Ð¸Ð´Ð°Ð»": 5557,
      "ĠÐ´Ð¾ÑģÑĤÐ¾Ð¸Ð½": 5558,
      "ĠÐ¼Ð¾Ð¼ÐµÐ½ÑĤ": 5559,
      "ĠÐ¿Ð¾ÑģÐ¿ÐµÑĪÐ½Ð¾": 5560,
      "ĠÐ²ÐµÐ¶Ð»Ð¸Ð²Ð¾": 5561,
      "ĠÐ¾Ð±Ð½Ð°Ð¶": 5562,
      "ÑĢÐ°Ð²ÐµÐ´Ð»Ð¸Ð²Ð¾": 5563,
      "ĠÐ¿Ð¾ÑįÑĤÐ¾Ð¼Ñĥ": 5564,
      "ĠÐĲÐ»ÐµÑĪÐ°": 5565,
      "ĠÐłÐ¾ÑģÑģÐ¸Ð¸": 5566,
      "ĠÑģÐµÑĢÐµÐ±ÑĢÑı": 5567,
      "ĠÐ²Ð¾Ð·Ð±ÑĥÐ¶Ð´": 5568,
      "ĠÐ½ÐµÐ²Ð¾Ð»ÑĮÐ½Ð¾": 5569,
      "ÐºÐ¾ÑĢÐµÐµ": 5570,
      "ĠÐ±ÑĥÐ»ÑĮÐ²Ð°ÑĢ": 5571,
      "ĠÐ²ÑĭÑģÐ»ÑĥÑĪ": 5572,
      "ĠÐ¼Ð°Ð³Ð°Ð·": 5573,
      "ĠÐĽÐ°Ð²ÑĢÐµÐ½ÑĤÐ¸Ñı": 5574,
      "ĠÐ¾ÑģÑĤÑĢÐ¾ÑĥÐ¼": 5575,
      "ĠÐĺÐ²Ð°Ð½ÑĭÑĩ": 5576,
      "Ð¾Ð²Ð»ÐµÑĤÐ²Ð¾ÑĢ": 5577,
      "ĠÐĴÐ¿ÑĢÐ¾ÑĩÐµÐ¼": 5578,
      "ĠÐĽÐ¸ÑĨÐ¾": 5579,
      "\"?": 5580,
      "20": 5581,
      "24": 5582,
      "Ġ3": 5583,
      "Ġ5": 5584,
      "ÑĤÐµÐ»ÑĮ": 5585,
      "Ð»Ð¸Ð³": 5586,
      "ÑıÑĤÐ¾": 5587,
      "ĠÐ¿Ð»Ñı": 5588,
      "ĠÐ¿ÑĥÑĤÑĮ": 5589,
      "ÑĩÐµÐ½ÐºÐ¾": 5590,
      "ĠÐ²Ð¾Ð½": 5591,
      "ĠÐ²ÐµÐ´Ð¾Ð¼": 5592,
      "Ð²Ñĥ": 5593,
      "ĠÐ¾ÑĤÐ¾": 5594,
      "Ð¼ÐµÐ½Ð°": 5595,
      "ĠÐ±ÐµÐ¶Ð°Ð»": 5596,
      "ĠÐ´ÐµÑĤÑĮ": 5597,
      "ÐµÑĢÑĥ": 5598,
      "ĠÐ¼Ð»Ð°Ð´": 5599,
      "Ð°ÐºÑĤ": 5600,
      "ĠÑĩÐ¸Ñģ": 5601,
      "ĠÑĩÑĥÑĤ": 5602,
      "ĠÐ¿ÑĢÐ¸Ð¹": 5603,
      "ĠÐ³ÑĥÐ´": 5604,
      "ĠÐµÑİ": 5605,
      "Ð°Ð²Ð°ÐµÐ¼": 5606,
      "ÑĨÐµÐ½": 5607,
      "Ð¸Ð²ÑĭÐµ": 5608,
      "ĠÐ¾ÑĤÐ½ÐµÑģ": 5609,
      "Ð°Ð½Ð´": 5610,
      "ĠÑģÑĤÐµÐ½Ð°": 5611,
      "Ð¸Ð½ÑģÐºÐ¾Ð³Ð¾": 5612,
      "ĠÐŁÐ¸ÑģÑĮ": 5613,
      "Ð¸ÑģÐ¸": 5614,
      "Ð³Ðµ": 5615,
      "Ð³Ð°Ð»": 5616,
      "ÑĤÐ¾ÑĢÐ¾Ð¶": 5617,
      "ÐµÐ²Ð°Ñı": 5618,
      "ÐµÐ²Ð°ÐµÑĤ": 5619,
      "ĠÐĴÐ¼": 5620,
      "Ð¸ÑĩÐ½ÑĭÐ¹": 5621,
      "ĠÐ²ÑĭÑģÐº": 5622,
      "ĠÐ²ÑĭÑģÐºÐ°Ð·": 5623,
      "ĠÑģÐ»ÑĥÑħ": 5624,
      "ÐµÑħÐ°Ð»Ð°": 5625,
      "ĠÐļÑĢÐ¾Ð¼": 5626,
      "ĠÑĢÐ°Ð·Ð²ÐµÑĢ": 5627,
      "ĠÑĢÐ°Ð·Ð»Ð¸Ñĩ": 5628,
      "ĠÑĢÐ°Ð·Ð¼Ð°Ñħ": 5629,
      "ÑĭÐ²Ð°ÑĤÑĮÑģÑı": 5630,
      "ĠÐľÐ°Ð¼Ð°": 5631,
      "Ð¾ÑĩÐºÐµ": 5632,
      "ĠÑĪÐ°ÑĢ": 5633,
      "ĠÐ¿ÐµÑĢÐµÐ»": 5634,
      "ĠÐ¿ÐµÑĢÐµÑģ": 5635,
      "ÐµÐ¶Ð°Ð»Ð°": 5636,
      "ĠÐ´ÑĢÑıÐ½ÑĮ": 5637,
      "Ð¸ÑĢÐµÐ¿": 5638,
      "Ð°ÑİÑīÐµÐµ": 5639,
      "ĠÑĢÐ°ÑģÑģÐ¿": 5640,
      "ĠÐ´Ð²Ð¾ÑĢÐµ": 5641,
      "ĠÐ¿Ð¾ÑģÑĭÐ»": 5642,
      "ĠÑĤÑĢÑı": 5643,
      "Ð¸ÑĤÐµÐ»ÑĮÐ½Ð°Ñı": 5644,
      "ĠÐ±Ð¾Ð»ÑĮÐ½ÑĭÐµ": 5645,
      "ĠÐ²Ð¸Ð´ÐµÐ»Ð°": 5646,
      "ĠÐ³Ð¾ÑĢÑĭ": 5647,
      "ĠÐķÑģÑĤÑĮ": 5648,
      "ĠÐĳÐµÐ´": 5649,
      "ĠÑĩÐµÑĢÐ½ÑĭÐ¼Ð¸": 5650,
      "ÑĥÐ²ÑĪÐ¸Ð½": 5651,
      "ĠÑģÑĤÑĢÐ¾": 5652,
      "ĠÐ½Ð°Ð´Ð²Ð¸Ð³": 5653,
      "ĠÐĵÐ¸Ð»Ñı": 5654,
      "ĠÐ¾ÐºÐ°Ð·Ð°Ð»Ð¾ÑģÑĮ": 5655,
      "ĠÐ¾ÐºÐ°Ð·Ð°Ð»ÑģÑı": 5656,
      "ĠÐ²ÑĢÐµÐ´": 5657,
      "Ð½Ð¸Ð¼Ð¸": 5658,
      "ĠÐ²Ð¾Ð·Ð»ÑİÐ±": 5659,
      "âĢ¦Â»": 5660,
      "ĠÐ¼Ð¾ÐµÐ¼Ñĥ": 5661,
      "ĠÐ¾ÑģÐ½Ð¾Ð²": 5662,
      "ĠÑĤÐµÐ¼Ð½ÑĭÐ¹": 5663,
      "ÑĥÑģÑĤÐ¸ÑĤÑĮ": 5664,
      "ÐµÐ»Ð°ÐµÑĪÑĮ": 5665,
      "Ð°Ð²ÑĪÐµÐ¼Ñĥ": 5666,
      "ĠÐ¼Ð¾Ð¶ÐµÑĪÑĮ": 5667,
      "ĠÐ¿ÑĢÐµÐ´ÑĥÐ¿": 5668,
      "ĠÑģÑĤÐ°ÑĢÑĥÑħ": 5669,
      "ÐµÑģÑĤÐ²Ñĥ": 5670,
      "ĠÐŁÑĢÐ¾Ðº": 5671,
      "ĠÑģÐµÑĢÐµÐ´": 5672,
      "ĠÐ²ÐµÑĢÐµÐ²": 5673,
      "ĠÐ¿Ð¾ÑĢÐ°": 5674,
      "ĠÐ¿Ð¸ÑģÐµÐ¼": 5675,
      "ĠÐºÐ¾Ð»ÐµÐ½Ñı": 5676,
      "ĠÐ´ÐµÐ»Ð°Ð»Ð¸": 5677,
      "ĠÐ¾ÑģÑĤÐ°Ð»Ð¸ÑģÑĮ": 5678,
      "ĠÐ¾ÑģÑĤÐ°Ð»Ð°ÑģÑĮ": 5679,
      "ÑĤÑĢÐ¸Ñģ": 5680,
      "Ð½Ð¸ÐºÐ¾Ð²Ð°": 5681,
      "ĠÐ¢Ð°ÐºÐ¾Ð¹": 5682,
      "ĠÐ±ÐµÐ»Ð°Ñı": 5683,
      "ĠÐ±ÐµÐ»ÑĭÑħ": 5684,
      "ĠÐ½Ð¸ÑĩÑĤÐ¾Ð¶": 5685,
      "ÐŁÐµÑĤ": 5686,
      "ĠÐ¶ÐµÐ»Ð°Ð½Ð¸Ñı": 5687,
      "ĠÐ¶Ð¸Ð²Ð¾Ð³Ð¾": 5688,
      "ĠÐ´ÐµÑĤÑģÑĤÐ²Ðµ": 5689,
      "Ð¾Ð²Ð°ÑĢÐ¸Ð²Ð°Ð»": 5690,
      "ĠÑģÐ¸Ð´ÐµÑĤÑĮ": 5691,
      "ĠÐ²ÑģÑıÐºÐ¸Ñħ": 5692,
      "ĠÑĤÐ¾Ð³Ð´Ð°ÑĪ": 5693,
      "ĠÑģÑĤÑĢÐ°Ð½Ð½ÑĭÐ¹": 5694,
      "ĠÑģÑĤÑĢÐ°Ð½Ð½ÑĭÐ¼": 5695,
      "ĠÑģÑĤÐ¾ÑĢÐ¾Ð½Ð°Ð¼": 5696,
      "ĠÐ²Ð¾Ð´Ðµ": 5697,
      "ĠÐ²Ð¾Ð´ÐºÑĥ": 5698,
      "ĠÐ³Ð»ÑĥÐ±Ð¸Ð½Ñĥ": 5699,
      "ĠÐ¼Ð¾Ð»Ð¾Ð´Ð°Ñı": 5700,
      "ĠÑģÐ¼ÐµÑıÑģÑĮ": 5701,
      "ÑİÑīÐµÐ¹": 5702,
      "ÑİÑīÐ¸Ðµ": 5703,
      "ÑĩÐ¸Ð²ÑĭÐ¹": 5704,
      "ĠÑģÐ´ÐµÐ»Ð°Ð»Ð°": 5705,
      "ĠÐ¿ÑĢÐ¸ÑħÐ¾Ð¶": 5706,
      "ĠÐ½Ð°ÑĪÐµÐ³Ð¾": 5707,
      "ĠÐ¿Ð¾ÑħÐ¾Ð¶Ðµ": 5708,
      "Ð¸ÑĪÑĮÑģÑı": 5709,
      "Ð¡ÑĤÐµÐ¿": 5710,
      "ĠÑĥÐ²Ð¸Ð´ÐµÐ»Ð°": 5711,
      "ĠÑģÐ»ÑĭÑĪÐ¸ÑĤ": 5712,
      "ĠÐºÐ½Ð¸Ð³Ð°": 5713,
      "ĠÐ¼ÐµÐ´Ð¸ÑĨ": 5714,
      "ĠÑĢÐ°ÑģÑģÐµÑĢÐ´": 5715,
      "ĠÐ½Ð¾ÑģÐ¾Ð¼": 5716,
      "ĠÐ²ÑĭÐ¿Ð¸Ð»": 5717,
      "ĠÐºÐ°Ð¼Ð½Ð¸": 5718,
      "ĠÐ±ÑĭÐ²Ð°Ð»Ð¸": 5719,
      "ĠÑĥÑĤÐ²ÐµÑĢÐ¶": 5720,
      "ĠÑĥÑģÐ¿Ð¾ÐºÐ°": 5721,
      "ĠÑĢÐ°ÑģÐ¿ÑĢÐ¾ÑģÑĤ": 5722,
      "ĠÑģÐµÐ¼ÑĮÑı": 5723,
      "ĠÐ¸Ð³ÑĢÐ°Ð»Ð°": 5724,
      "ĠÑĩÑĥÐ¶Ð¾Ð¹": 5725,
      "ĠÐ»ÐµÑģÐ°": 5726,
      "ÑĥÑİÑīÐ¸Ðµ": 5727,
      "ĠÑĢÐ°Ð·Ð±ÑĥÐ´": 5728,
      "ĠIV": 5729,
      "ĠÑĤÐ¾ÑģÐºÐ°": 5730,
      "ĠÐĺÐ²Ð°Ð½Ð¾Ð²Ð¸ÑĩÐ°": 5731,
      "ĠÐ¿ÑĢÐ¸Ð±Ð»Ð¸Ð·": 5732,
      "ĠÐ±Ð¾Ð³Ñĥ": 5733,
      "Ð¿ÑĢÐµÐ¶": 5734,
      "ĠÐ½Ð°ÑĩÐ¸Ð½Ð°Ð»Ð¸": 5735,
      "ĠÑĩÑĥÐ´Ð¸Ð»Ð¾ÑģÑĮ": 5736,
      "ĠÑĩÑĥÐ²ÑģÑĤÐ²Ð¾Ð²Ð°Ð»Ð¾ÑģÑĮ": 5737,
      "ĠÐ¿ÑĢÐ¾ÐºÐ»Ñı": 5738,
      "ĠÐ±Ð°ÑĢÑĭÑĪ": 5739,
      "ĠÐ³Ð»ÑĥÐ¿ÑĭÐ¹": 5740,
      "ĠÐĴÐ°ÑģÐ¸Ð»ÑĮÐµÐ²Ð¸ÑĩÐ°": 5741,
      "Ð°Ð¼Ð¿Ð°Ð½": 5742,
      "ĠÐ°ÐºÑĤÑĢÐ¸Ñģ": 5743,
      "ĠÐ²Ð¾ÑģÐ¿Ð¾Ð¼Ð¸Ð½Ð°Ð½Ð¸Ð¹": 5744,
      "ĠÐ¼Ð°ÑģÐ»Ð¾": 5745,
      "ĠÐ¿ÑĢÐ¾Ð½ÐµÑģ": 5746,
      "ĠÐ²Ð¿ÐµÑĩÐ°ÑĤÐ»ÐµÐ½Ð¸Ñı": 5747,
      "ĠÐ½Ð°Ð¹Ð´": 5748,
      "ĠÐ¿ÑĢÐ¾Ð·Ð²ÑĥÑĩ": 5749,
      "ĠÑĩÐµÑĤÐ²ÐµÑĢÑĤ": 5750,
      "ĠÐ¿ÑĮÐµÑģÑĭ": 5751,
      "ĠÐļÐ°ÑĤÐµÑĩÐºÐ°": 5752,
      "ĠÑĥÑħÐ°Ð¶": 5753,
      "ĠÐºÐ¾Ð¿ÐµÐ¹": 5754,
      "ĠÑģÐ¾ÑĩÑĥÐ²ÑģÑĤÐ²": 5755,
      "ĠÐ³ÑĢÑĥÐ±Ð¾": 5756,
      "ĠÐ³ÑĥÑģÑĤÐ¾Ð¹": 5757,
      "ĠÐ²Ð·Ð´Ð¾ÑħÐ½ÑĥÐ»": 5758,
      "ĠÐ±Ð¾ÑĢÐ¾Ð´Ñĥ": 5759,
      "ĠÐľÐµÐ»Ð¸ÑħÐ¾Ð²Ð¾": 5760,
      "ĠÑĦÐ¸Ð³ÑĥÑĢÑĭ": 5761,
      "ĠÐ»Ð¾ÑĪÐ°Ð´ÑĮ": 5762,
      "ĠÐ¡Ð¼Ð¾ÑĤÑĢÐ¸ÑĤÐµ": 5763,
      "ĠÑĨÐµÐ½Ð·": 5764,
      "ĠÐ¿ÑĢÐµÐ´Ð»Ð¾Ð¶Ð¸Ð»": 5765,
      "ĠÐ·Ð°Ð¿Ð»Ð°ÐºÐ°Ð»": 5766,
      "ĠÐ¿Ð¾ÐºÐ°Ð·Ð°ÑĤÑĮ": 5767,
      "ĠÐŀÑģÐ¾Ð±": 5768,
      "ĠÐ¿Ð¾ÑĨÐµÐ»Ð¾Ð²Ð°Ð»": 5769,
      "ÐłÑĥÑģÑģÐºÐ¾Ð¹": 5770,
      "ĠÐ²Ð·Ð´ÑĢÐ°Ð³": 5771,
      "ĠÑģÐ³Ð¸Ð±": 5772,
      "ĠÐ¿Ð»Ð¾ÑīÐ°Ð´ÐºÐµ": 5773,
      "ĠÑĦÐ¸Ð·Ð¸Ð¾Ð½Ð¾Ð¼": 5774,
      "ĠÐ½ÐµÑĢÐµÑĪÐ¸ÑĤÐµÐ»ÑĮÐ½Ð¾": 5775,
      "ÐķÐ¶Ð¾Ð²": 5776,
      "ĠÐ½ÐµÐ³ÑĢÐ¸ÑĤÑıÐ½Ð¾Ðº": 5777,
      "ĠÑģÐ¸Ð¼Ð¿Ð°ÑĤ": 5778,
      "ĠÐ±ÐµÑģÑĪÑĥÐ¼Ð½Ð¾": 5779,
      "ĠÑĢÐ°ÑģÑģÐ¼ÐµÑıÐ»ÑģÑı": 5780,
      "ĠÐŁÐµÑĤÑĢÐ¾Ð²Ð°": 5781,
      "ĠÑĩÑĢÐµÐ·Ð²ÑĭÑĩ": 5782,
      "ĠÐ³Ð°ÑĢÐ¼Ð¾Ð½": 5783,
      "ĠÐ´ÐµÑĤÑĮÐ¼Ð¸": 5784,
      "ĠÐļÑĢÐ¾Ð¼Ðµ": 5785,
      "26": 5786,
      "29": 5787,
      "34": 5788,
      "?Â»": 5789,
      "Ð£": 5790,
      "Ð½ÐµÐ»Ð¸": 5791,
      "Ð½ÐµÑĢÐ³": 5792,
      "Ð»Ð¾Ð¹": 5793,
      "Ð»Ð¾Ð³Ð¾": 5794,
      "Ð»Ð¾Ð±": 5795,
      "ÑĢÑıÐ¼": 5796,
      "ÑĭÐ´": 5797,
      "ÑĭÐ¶": 5798,
      "ĠÑģÐ¾Ð¶Ð°Ð»": 5799,
      "ĠÐ¿ÐµÑģÑĤÑĢ": 5800,
      "ÑĩÐ°Ð»": 5801,
      "ĠÐ²Ðº": 5802,
      "ĠÐ²ÐµÐº": 5803,
      "Ð²ÐµÐ´": 5804,
      "Ð°Ð»ÐµÐºÐ¾": 5805,
      "Ð¼ÐµÐ½Ð½Ð¾": 5806,
      "Ð¼ÐµÑĢÑĤ": 5807,
      "Ð¾Ð²ÑĭÑħ": 5808,
      "ÑĪÐµÐ¼Ñĥ": 5809,
      "ĠÑĤÐµÐ¼Ñĥ": 5810,
      "ĠÐ¼Ð°ÑĪ": 5811,
      "ĠÐ¼ÑĥÐ´ÑĢ": 5812,
      "ÐµÑĤÐ¸": 5813,
      "ĠÑĩÐ°Ñİ": 5814,
      "Ð¾Ð´Ð¸Ð»Ð°": 5815,
      "ĠÐ½ÐµÐ¾Ð´": 5816,
      "ĠÑĢÐ¾": 5817,
      "Ð¸ÑĤÑĭÐ¼": 5818,
      "Ð°Ð·Ð°ÑĢ": 5819,
      "ĠÐ½Ð°ÑĢÑĥÐ¶": 5820,
      "Ð½Ð¸ÑĪÑĮ": 5821,
      "ĠÑĥÐ½Ð¸Ñĩ": 5822,
      "ĠÑĥÐµÑħÐ°Ð»": 5823,
      "ĠÐ»Ñĥ": 5824,
      "ĠÐ»Ð¾Ð³": 5825,
      "ĠÐ¶Ð¸Ð»Ð°": 5826,
      "Ð¸Ð¼ÑĭÑħ": 5827,
      "Ð´Ð°Ð½Ð¸Ñı": 5828,
      "ÐµÐ¹Ð¼ÐµÑĢ": 5829,
      "ĠÐŁÐ¸Ñģ": 5830,
      "ĠÐŁÐ¾Ð·": 5831,
      "ĠÐŁÑĥÑĪ": 5832,
      "ĠÐŁÐ¾Ð¶Ð°Ð»": 5833,
      "Ð°Ð´Ñĭ": 5834,
      "Ð°Ð´Ð°Ð»": 5835,
      "ĠÐºÐ°ÐºÐ¸Ð¼Ð¸": 5836,
      "ĠÐĿÐ¾Ñģ": 5837,
      "ĠÑįÐ»ÐµÐºÑĤÑĢ": 5838,
      "Ð°ÑĢÑħ": 5839,
      "ĠÐ¿Ð¾ÑİÑĤ": 5840,
      "Ð¾Ð¶Ð¸Ð»": 5841,
      "Ð¾Ð¶Ð´Ðµ": 5842,
      "ĠÐ²ÑģÐ»ÐµÐ´": 5843,
      "ĠÐĴÑģ": 5844,
      "ĠÐĺÐ´Ð¸": 5845,
      "Ð¸ÑħÐ°": 5846,
      "Ð¸ÐºÐ¾Ð¹": 5847,
      "ÑģÑĤÐ²Ð¾Ð²Ð°Ð»": 5848,
      "ÑĥÐ¶Ð´ÐµÐ½": 5849,
      "ÐµÑĩÑĮ": 5850,
      "Ð¸Ð·Ð°": 5851,
      "ĠÑģÐºÑĢÑĭÐ²": 5852,
      "ĠÐºÑĢÐµÑģ": 5853,
      "ÑĭÐ²Ð°Ð»Ð°ÑģÑĮ": 5854,
      "ĠÑĤÐ¾ÑģÐºÐ¾Ð¹": 5855,
      "ĠÐ§Ð°Ñģ": 5856,
      "ĠÐ¢Ð°Ð½Ñı": 5857,
      "Ð¾Ð¿Ð¾Ð»Ð¾Ð¶": 5858,
      "ĠÑĪÑĤ": 5859,
      "ĠÑĪÐ°Ð¼Ð¿Ð°Ð½": 5860,
      "ĠÐ¿ÐµÑĢÐµÐ½": 5861,
      "Ð¾Ð²Ð°Ð½Ð¸Ð¸": 5862,
      "Ð¸ÑĢÐ°ÑĤÑĮ": 5863,
      "ĠÐĶÑĥ": 5864,
      "Ð¾ÑĪÐ»Ð¸ÑģÑĮ": 5865,
      "ĠÐ³ÑĢÐµÑĪ": 5866,
      "ĠÐ³ÑĢÐ°Ð±": 5867,
      "ĠÐ¿Ð¾Ð»Ð½Ð¾Ð¹": 5868,
      "ĠÐ¿Ð¾Ð»ÑĩÐ°Ñģ": 5869,
      "ĠÐ¿ÑĢÐ¸ÐµÐ·Ð¶": 5870,
      "ĠÑĤÑĢÑĥÑģ": 5871,
      "ĠÐ¿Ð¾ÐºÑĢÐ¾Ð²": 5872,
      "ĠÐ¿Ð»Ð°Ð¼": 5873,
      "ĠÐ²Ð¸Ð´Ð°Ð»": 5874,
      "ĠÐĳÑĥÐ´ÑĮ": 5875,
      "ĠÑĩÐµÑĢÐ½ÑĭÐ¼": 5876,
      "ĠÑĩÐµÑĢÐ½ÑĭÑħ": 5877,
      "ĠÐ±ÐµÐ·ÑĢÐ°Ð·": 5878,
      "ĠÑĨÐµÐ»ÑĮ": 5879,
      "ĠÐ½Ð°Ð´ÐµÐ¶Ð´Ñĭ": 5880,
      "Ð¸Ð¶Ð½Ñı": 5881,
      "ĠÑĦÑĢ": 5882,
      "Ð²ÐµÑĢÑħÑĥ": 5883,
      "ĠÐ±Ð»ÐµÑģ": 5884,
      "ĠÐĵÐ¾Ð»": 5885,
      "ĠÐ¾ÐºÐ½Ð¾Ð¼": 5886,
      "ĠÐ²Ð¾Ð·ÑĮ": 5887,
      "ĠÐ¿ÑĢÐ¾ÑĨ": 5888,
      "ĠÐ¼Ð¾Ð¸Ð¼": 5889,
      "ÑĩÐ°ÑģÑĤÑĮÑİ": 5890,
      "ĠÑĤÐµÐ¼Ð½ÑĥÑİ": 5891,
      "ÐµÐ½ÑĮÐºÑĥÑİ": 5892,
      "Ð°Ð²ÑĪÐ¸ÑħÑģÑı": 5893,
      "Ð°Ð²ÑĪÐµÐ¹ÑģÑı": 5894,
      "ĠÐ·Ð½Ð°ÑİÑĤ": 5895,
      "ĠÑĥÐ¼ÐµÑİ": 5896,
      "ĠÐ½Ð°Ð¿Ð¾Ð»": 5897,
      "ĠÐ¿ÑĢÐµÐ´Ð»Ð°Ð³": 5898,
      "ĠÑģÑĤÐ°ÑĢÐ°Ñı": 5899,
      "ĠÑģÑĤÐ°ÑĢÑĭÐµ": 5900,
      "ĠÐłÐµÐ¹Ð¼ÐµÑĢ": 5901,
      "ĠÐ±ÑĢÐ¾ÑĪ": 5902,
      "Ð¸Ð²ÑĪÐ¸ÑħÑģÑı": 5903,
      "ĠÐŁÑĢÐµÐ´": 5904,
      "ĠÐŁÑĢÐ¸Ð´": 5905,
      "ĠÐ¾Ð³Ð½Ð¸": 5906,
      "ĠÐ¿Ð¾ÑĢÑĥÑĩ": 5907,
      "ĠÑģÐ¼Ð¾ÑĤÑĢÐ¸": 5908,
      "ĠÑģÐ¼Ð¾ÑĤÑĢÑıÑĤ": 5909,
      "ĠÐºÐ¾Ð»ÑĭÑħ": 5910,
      "ĠÑħÐ¾ÑĢÐ¾ÑĪÐ¸Ðµ": 5911,
      "ĠÐ·Ð°Ð¼ÑĥÐ¶": 5912,
      "ĠÑĩÑĥÐ²ÑģÑĤÐ²ÑĥÑİ": 5913,
      "ĠÐ·Ð°ÐºÑĢÑĭÐ»": 5914,
      "ĠÑĢÐ°ÑģÑģÐºÐ°Ð·Ð°ÑĤÑĮ": 5915,
      "ĠÐĿÐ¸ÐºÐ¾Ð³Ð´Ð°": 5916,
      "ÑĥÑīÐ¸Ñħ": 5917,
      "ĠÐ±ÐµÐ»Ð¾Ð¹": 5918,
      "ĠÐ´ÑĥÑĪÐµÐ²": 5919,
      "ĠÑĤÐ¸ÑħÐ¸Ðµ": 5920,
      "ĠÐ¿ÑĢÐ°Ð²Ð´Ñĭ": 5921,
      "Ð¸ÑĩÐµÑģÐºÑĥÑİ": 5922,
      "ĠÐ¥Ð¸Ð¶Ð½Ñı": 5923,
      "ÑıÑīÐ¸Ð¼": 5924,
      "ÑıÑīÐ¸Ðµ": 5925,
      "ĠÐ¿ÐµÑĢÐ²Ð¾Ð¹": 5926,
      "ĠÐ¿ÐµÑĢÐ²ÑĥÑİ": 5927,
      "ĠÐ¸ÑģÐ¿Ð¾ÑĢ": 5928,
      "ĠÑģÑĤÑĢÐ°Ð½Ð½Ð¾Ð¹": 5929,
      "ĠÑģÑĤÑĢÐ°Ð½Ð½Ð°Ñı": 5930,
      "ĠÑĢÐ°Ð±Ð¾ÑĤÐµ": 5931,
      "ĠÑĥÑģÐ¸Ð»Ð¸": 5932,
      "ĠÐ´Ð¾ÑĢÐ¾Ð³Ð¾": 5933,
      "ĠÐ´Ð°Ð²Ð°Ð»": 5934,
      "ĠÑĥÐ¶Ð°ÑģÐ¾Ð¼": 5935,
      "ĠÐºÐ»Ð°Ð½": 5936,
      "ÑĥÐ¹ÑĤÐµ": 5937,
      "ÐµÐ²ÑĪÐµÐ¹": 5938,
      "ĠÑģÐ¸Ð»Ð¾Ñİ": 5939,
      "ĠÑĩÐµÑĢÑĤÑĥ": 5940,
      "ĠÐ¿ÑĢÐ¸ÑħÐ¾Ð´Ð¸Ð»Ð°": 5941,
      "ĠÐ¿ÑĢÐ¸ÑħÐ¾Ð´Ð¸Ð»Ð¸": 5942,
      "ĠÑĨÐµÐ»ÑĭÐµ": 5943,
      "ĠÑģÐ¸Ð»ÑĮÐ½ÐµÐµ": 5944,
      "ĠÐ±Ð¾ÑĢÐ¼": 5945,
      "ĠÐ¿Ð¾Ð´ÑĥÐ¼Ð°ÑĤÑĮ": 5946,
      "ĠÐ¿ÑĢÐ¸Ð´ÐµÑĤÑģÑı": 5947,
      "ÐĿÐµ": 5948,
      "ĠÐºÑĢÐ¸ÑĩÐ°ÑĤÑĮ": 5949,
      "ĠÐºÑĢÐ¸ÑĩÐ°Ð»Ð¸": 5950,
      "ĠÐ²ÑģÑĤÑĢÐµÑĩÐµ": 5951,
      "ĠÐºÑĢÐ°ÑģÐ¸Ð²Ð¾Ðµ": 5952,
      "Ð°Ð´ÑĨÐ°ÑĤ": 5953,
      "ĠÐ¿Ð¾Ð¼Ð½Ð¸Ð»": 5954,
      "ĠÐ½Ð°ÑħÐ¾Ð´Ð¸ÑĤÑģÑı": 5955,
      "ĠÐ²Ð°ÑĪÐµÐ¹": 5956,
      "ÐĳÑĢÐµÐ·": 5957,
      "ĠÐ´Ð¾ÑģÑĤÐ°Ð²": 5958,
      "ĠÑĤÐ¾ÑģÐºÐ¾Ñİ": 5959,
      "ĠÐ¿ÑĮÑıÐ½ÑĭÐ¹": 5960,
      "ĠÐ¾Ð³ÑĢÐ¾Ð¼Ð½ÑĭÐµ": 5961,
      "ĠÐ´Ð²Ð¸Ð¶ÐµÐ½Ð¸ÐµÐ¼": 5962,
      "ÐŀÐĴ": 5963,
      "ĠÐ²ÑĭÑħÐ¾Ð´Ð¸ÑĤ": 5964,
      "ĠÐ²ÑĭÑħÐ¾Ð´Ð¸Ð»Ð¾": 5965,
      "ĠÐ¡Ð°ÑĪÐ°": 5966,
      "ĠÐ¿ÑĢÐ¾ÐºÐ°Ð¶": 5967,
      "ĠÑĩÐ°ÑģÑĤÑĮÑİ": 5968,
      "ĠÐ±Ð»ÐµÐ´Ð½ÑĭÐ¹": 5969,
      "ĠÐ±Ð¾Ð»ÐµÐ·Ð½": 5970,
      "ĠÐľÐ°ÑĢÑĮÑı": 5971,
      "ĠÐ·Ð°ÑĢÐ°Ð±Ð¾ÑĤ": 5972,
      "ĠÑĢÐ°ÑģÐºÑĢÑĭÐ²": 5973,
      "ĠÐ¡ÐµÐ¼ÐµÐ½Ð¾Ð²Ð¸Ñĩ": 5974,
      "ĠÐ¶Ð´Ð°Ð»Ð°": 5975,
      "ĠÐ°Ð²ÑĤÐ¾ÑĢÐ°": 5976,
      "ĠÐ·Ð½Ð°ÑĩÐµÐ½Ð¸Ðµ": 5977,
      "ĠÐ·Ð½Ð°ÑĩÐ¸ÑĤÐµÐ»ÑĮÐ½Ð¾": 5978,
      "ĠÐ¿Ð¾ÑģÐ¼Ð¾ÑĤÑĢÐµÑĤÑĮ": 5979,
      "ĠÐ²ÑģÑĤÐ°Ð»Ð°": 5980,
      "ĠÑģÑĤÑĥÐ´ÐµÐ½ÑĤÑĭ": 5981,
      "ĠÐĿÐ¾ÑĢÐ´ÐµÐ½Ð°": 5982,
      "ĠÑīÐµÐºÐ¸": 5983,
      "ĠÐ·Ð°ÑģÐ¼ÐµÑıÐ»Ð°ÑģÑĮ": 5984,
      "ĠÑģÑĨÐµÐ½Ðµ": 5985,
      "ĠÑĢÑĥÑģÑģÐºÐ¾Ð¹": 5986,
      "ĠÐ¿Ð¾ÑĤÐµÑĢÑıÐ»": 5987,
      "ĠÐ¿ÑĢÐµÐ²ÑĢÐ°Ñī": 5988,
      "ĠÐ½Ð°ÑĢÐ¾Ð´Ñĥ": 5989,
      "ĠÐ¾Ð±ÑĢÐ°ÑĤÐ½Ð¾": 5990,
      "ĠÐ²Ð½ÑĥÑĤÑĢÐ¸": 5991,
      "ĠÐ¿Ð¾Ð¹Ð´ÐµÑĤ": 5992,
      "ĠÑģÐ²ÐµÑĩÐ¸": 5993,
      "ĠÑģÐ¶Ð¸Ð¼": 5994,
      "ĠÐ¿Ð°Ð¿Ð¸ÑĢÐ¾ÑģÑĥ": 5995,
      "ĠÐ½ÐµÐ¸Ð·Ð²ÐµÑģÑĤÐ½Ð¾": 5996,
      "ĠÑħÑĢÑĥÑģÑĤ": 5997,
      "ĠÐ¼Ð¾Ð·Ð³Ñĥ": 5998,
      "ĠÑĤÐ¾Ð±Ð¾Ñİ": 5999,
      "ĠÑģÐ°Ð¿Ð¾Ð³": 6000,
      "ĠÐ±ÐµÑģÑģÐ¸Ð»ÑĮÐ½Ð¾": 6001,
      "ĠÐ²Ð»Ð°ÑģÑĤ": 6002,
      "ĠÑģÐ¾Ð±Ð°ÐºÑĥ": 6003,
      "ĠÐĵÐ¾ÑĢÑĮÐºÐ¸Ð¹": 6004,
      "ĠÐļÑĢÑĭÐ¼": 6005,
      "ĠÐ²ÑģÐ¿Ð¾Ð¼Ð¸Ð½Ð°Ð»": 6006,
      "ĠÐ»Ð¾Ð´ÐºÑĥ": 6007,
      "ĠÐ´ÑĮÑıÐ²Ð¾Ð»Ð°": 6008,
      "ĠÐ¼Ð½Ð¾Ð¶ÐµÑģÑĤÐ²Ð¾": 6009,
      "ĠÐºÐ°ÑĢÐ¼Ð°Ð½Ðµ": 6010,
      "ĠÐ½ÐµÐ½Ð°Ð²Ð¸ÑģÑĤÑĮÑİ": 6011,
      "ĠÐ»ÐµÐ´Ñı": 6012,
      "ĠÐĿÐ°ÐºÐ¾Ð½ÐµÑĨ": 6013,
      "ĠÑģÑĥÐ¼Ð°ÑģÑĪÐµÐ´": 6014,
      "Ð§ÐµÑħÐ¾Ð²Ð°": 6015,
      "ĠÑģÐ¾ÑģÑĢÐµÐ´Ð¾ÑĤÐ¾Ñĩ": 6016,
      "ĠÐ¯ÐºÐ¾Ð²Ð»ÐµÐ²Ð½Ð°": 6017,
      "ĠÐ²Ð·Ð²Ð¾Ð»Ð½Ð¾Ð²": 6018,
      "ĠÐ¿ÑĢÐ¸Ð¹ÑĤÐ¸": 6019,
      "Ð¿ÑĢÐµÐ¶Ð½ÐµÐ¼Ñĥ": 6020,
      "28": 6021,
      "ÐµÑģÑĤÑĮÑİ": 6022,
      "ÑĤÐ¾Ð¹": 6023,
      "Ð½ÑĩÐµ": 6024,
      "Ð»Ð°Ð±": 6025,
      "Ð»Ð¸Ð¿": 6026,
      "ÑĢÐ°Ð³": 6027,
      "ÑĢÐ¾ÑĤÐ¸Ð²": 6028,
      "ĠÑģÐ¾Ðº": 6029,
      "ĠÑģÐµÐ»Ð°": 6030,
      "ĠÐ½Ð¾ÑĤ": 6031,
      "ÑĩÐ¾Ð½": 6032,
      "ĠÐ²Ð¾Ð¹": 6033,
      "Ð²Ð°Ñĩ": 6034,
      "Ð´ÑĪ": 6035,
      "Ð´Ð¸Ð½": 6036,
      "ÑħÐ»Ð¸Ð¿": 6037,
      "ĠÐºÐ¾Ð²": 6038,
      "ÑģÑĤÐ°Ð½Ð¾Ð²": 6039,
      "ÐµÐ½ÑģÐº": 6040,
      "ĠÐ±Ð°Ð³": 6041,
      "ĠÑĤÐ°ÑĢ": 6042,
      "ĠÐ´Ñĥ": 6043,
      "ĠÐ´Ð°ÐµÑĤ": 6044,
      "Ð¾Ð»Ð¾Ð³": 6045,
      "ÐµÑĢÐ½Ð¾": 6046,
      "ÐµÑĢÐµÐ¶": 6047,
      "ÐµÑĢÐ½ÑĥÐ»": 6048,
      "ĠÐ¼Ñĥ": 6049,
      "Ð°ÐºÐµ": 6050,
      "ĠÐ¿ÑĢÑıÑĩ": 6051,
      "ĠÐ½ÐµÑĥÐº": 6052,
      "Ð°ÑĤÐµÐ¼": 6053,
      "ĠÑĢÐµÐ»ÑĮ": 6054,
      "ĠÑĢÐµÐ»Ð¸Ð³": 6055,
      "Ð¸ÑĤÑĥ": 6056,
      "Ð¸ÑĤÐ°Ñı": 6057,
      "ÐµÐ¼ÑĮ": 6058,
      "Ð¾ÑĢÑĤÐµÑĢ": 6059,
      "Ð°Ð²ÑĪÐµÐµ": 6060,
      "ĠÐ»ÐµÐ¿": 6061,
      "Ð¾Ð³Ð»Ð°Ñģ": 6062,
      "Ð¸Ð²Ð°Ð»Ð¾": 6063,
      "ĠÐ¶ÐµÑĢÑĤÐ²": 6064,
      "Ð·Ð°Ð²": 6065,
      "ĠÐŁÑĢÐ¾Ñģ": 6066,
      "ĠÐĿÐ°Ñģ": 6067,
      "ĠÐĿÐµÐ¿": 6068,
      "ĠÐĿÐ¸Ð½Ð¾ÑĩÐºÐ°": 6069,
      "Ð³Ð°Ð½": 6070,
      "ĠÑįÐ½ÐµÑĢÐ³": 6071,
      "ÐµÐ²Ñĥ": 6072,
      "ĠÐ²ÑģÑħÐ»Ð¸Ð¿": 6073,
      "ĠÑħÐ°": 6074,
      "ĠÑħÐ¾ÑĢ": 6075,
      "ĠÑģÐ²Ð°Ð»": 6076,
      "ĠÐ°ÑĤ": 6077,
      "Ð»ÑıÑħ": 6078,
      "Ð¸Ð´ÐµÑģÑı": 6079,
      "ĠÐ¾Ð±Ð½Ð¸Ð¼": 6080,
      "ĠÐ¾Ð±Ð»Ð°Ðº": 6081,
      "ĠÐ¡Ð²Ð¸Ð´": 6082,
      "ĠÐºÐ¾Ðµ": 6083,
      "Ð¸Ð·Ð¼": 6084,
      "ĠÑģÐºÐ°ÑĤ": 6085,
      "ĠÐºÑĢÐ°Ñı": 6086,
      "ĠÐļÑĥÐ²ÑĪÐ¸Ð½": 6087,
      "ÑĥÑİÑīÐµÐµ": 6088,
      "ĠÐľÐ¾Ð¶Ð½Ð¾": 6089,
      "Ð¾ÑĩÐµÑĤ": 6090,
      "ĠÑĪÐ°Ð»": 6091,
      "ĠÑģÐ¼ÑĭÑģÐ»": 6092,
      "ĠÐ¿ÐµÑĢÐµÑĩ": 6093,
      "ĠÐ³Ð»Ð¾ÑĤ": 6094,
      "ĠÑģÐ¿Ð¸ÑĤ": 6095,
      "ĠÐĶÐ°Ð¹": 6096,
      "ĠÐ³ÑĢÐ¾Ñħ": 6097,
      "ĠÐ¿Ð¾Ð»ÐµÑĤ": 6098,
      "ĠÐ¿Ð¾ÑģÐºÐ¾ÑĢÐµÐµ": 6099,
      "ĠÐ§ÐµÑħÐ¾Ð½ÑĤÐµ": 6100,
      "ĠÑĤÑĢÐµÐ·": 6101,
      "ĠÐ±ÑĥÐ´ÑĥÑĩÐ¸": 6102,
      "ĠÐ²Ð¸Ð´Ð¸ÑĤÐµ": 6103,
      "ĠÐ²Ð·Ð²": 6104,
      "ĠÐ³Ð¾ÑĢÐµÐ»Ð°": 6105,
      "ĠÐķÐ´": 6106,
      "Ð»Ð¸Ð²Ð¾Ðµ": 6107,
      "ĠÐ½Ð°Ð´Ð¾Ð»Ð³Ð¾": 6108,
      "ĠÐ¾ÐºÐ½Ñĥ": 6109,
      "ĠÐ¼Ð¾Ñī": 6110,
      "ĠÐ¾ÑģÐ½": 6111,
      "Ð½ÑıÐ²ÑĪ": 6112,
      "ĠÐ½Ð°ÑĩÐ°Ð»Ð¾": 6113,
      "ĠÐĹÐ¸Ð½Ð¾ÑĩÐºÐ°": 6114,
      "ĠÑģÐ¾Ð±Ð»Ð°Ð·": 6115,
      "ĠÑħÐ¾ÑĤÐµÐ»Ð¸": 6116,
      "ĠÐ½Ð°Ð¿Ð¸ÑĪ": 6117,
      "ĠÐ£ÑģÐ¿": 6118,
      "ÑģÐ»ÐµÐ´": 6119,
      "Ð¸Ð²ÑĪÐ¸ÐµÑģÑı": 6120,
      "ĠÐ²ÐµÑĢÐ¸Ð»": 6121,
      "ĠÐ¿Ð¾Ð²ÐµÐ»": 6122,
      "ĠÐ¾Ð³Ð½ÐµÐ¼": 6123,
      "ĠÐºÐ¾Ð»ÑİÑĩ": 6124,
      "ĠÐ´ÐµÐ»Ð¾Ð¼": 6125,
      "ĠÐ½Ð°ÑģÑĤÐ¾Ñı": 6126,
      "ÑĢÐ°ÑģÐ½Ð¾": 6127,
      "ĠÑģÐºÐ°Ð·Ð°Ð»Ð¸": 6128,
      "ĠÐĿÐ¸ÐºÐ¸ÑĤÐ°": 6129,
      "ĠÐ±ÐµÐ»ÑĭÐ¼": 6130,
      "ĠÐ¿ÑĢÐ¾ÑĤÑıÐ¶": 6131,
      "ÑĩÐ¸ÐºÐ°": 6132,
      "Ð¸ÑĩÐµÑģÐºÐ¸Ð¼": 6133,
      "ĠÐ½Ð¾Ð²ÑĭÑħ": 6134,
      "ĠÐ´ÐµÑĤÑģÑĤÐ²Ð°": 6135,
      "ĠÐ½Ð°Ð·Ð²Ð°Ð»": 6136,
      "ĠÐ¿ÐµÑĢÐ²ÑĭÐ¼": 6137,
      "ĠÐ·Ð°Ð²ÐµÐ´": 6138,
      "ĠÐ²ÑģÑıÐºÐ¾Ð¼": 6139,
      "ĠÑħÐ¾Ð»Ð¾Ð´Ð½ÑĥÑİ": 6140,
      "ĠÑģÐ¼ÐµÐµÑĤÑģÑı": 6141,
      "ĠÐ¿Ð¾Ð¶Ð¸Ð»": 6142,
      "ĠÑĥÑģÑĭ": 6143,
      "ĠÐ»ÐµÐ³ÑĩÐµ": 6144,
      "ĠÐ»ÐµÐ³ÐºÐ¸Ð¼": 6145,
      "ĠÐ´ÐµÐ²Ð¾ÑĩÐºÐ°": 6146,
      "Ð°Ð½Ð¸ÑıÑħ": 6147,
      "ĠÐ¿Ð¾ÑģÐ»ÐµÐ´Ð½Ð¸Ð¼": 6148,
      "ĠÐ¿Ð¾ÑģÐ»ÐµÐ´Ð½ÐµÐµ": 6149,
      "ĠÑģÐ»ÐµÐ´Ð¾Ð²": 6150,
      "ĠÑīÐµÐ»": 6151,
      "ĠÑĥÐ²Ð¸Ð´ÐµÑĤÑĮ": 6152,
      "ĠÐ·Ð½Ð°ÐºÐ¾Ð¼ÑģÑĤÐ²Ð°": 6153,
      "ĠÑĩÐµÑĢÑĤÑĭ": 6154,
      "ĠÐ²ÑĭÐ¿Ð¸ÑĤÑĮ": 6155,
      "ĠÐ³Ð¾ÑĢÐ¾Ð´Ð¾Ð²Ð¾Ð¹": 6156,
      "ĠÑĥÑģÑĤÐ°": 6157,
      "ĠÑĤÑıÐ¶ÐµÐ»ÑĭÐµ": 6158,
      "ĠÑĢÐ°ÑģÐ¿Ð¾Ð»Ð¾Ð¶": 6159,
      "ĠÐµÐ´Ð¸Ð½": 6160,
      "ĠÐ´Ð¾ÑĢÐ¾Ð³Ð°Ñı": 6161,
      "ĠÑĪÐ¸ÑĢÐ¾ÐºÐ¾Ð¹": 6162,
      "ĠÐ¿ÑĢÐ¾ÑĤÐ¸Ð²Ð¾Ð¿Ð¾Ð»Ð¾Ð¶": 6163,
      "ĠÑĪÐ°Ð³Ð°Ð¼Ð¸": 6164,
      "ĠÐ²ÑĭÑģÐ¾ÐºÐ°Ñı": 6165,
      "ĠÑĢÐ¾Ð´Ð¸Ð»ÑģÑı": 6166,
      "ĠÐŁÐ¾ÑģÐ¼Ð¾ÑĤÑĢ": 6167,
      "ĠÑģÐ²Ð¾ÐµÑİ": 6168,
      "ĠÐºÑĢÐ¾Ð²ÑĮÑİ": 6169,
      "ĠÐ»Ð¸ÑĤÐµÑĢÐ°ÑĤÑĥÑĢÐ½ÑĭÑħ": 6170,
      "ÐºÑĢÐ°Ð´": 6171,
      "ĠÐ»Ð°Ð²ÐºÐ¸": 6172,
      "ĠÐ¿ÑĢÐ¸ÐºÐ¾ÑģÐ½Ð¾Ð²": 6173,
      "ĠÐºÑĢÐ°ÑģÐ¸Ð²Ð¾": 6174,
      "ĠÐĴÐ°ÑģÐ¸Ð»ÑĮÐµÐ²Ð½Ð°": 6175,
      "ĠÐ²Ð·Ð³Ð»ÑıÐ½ÑĥÐ»Ð°": 6176,
      "ĠÐ¾Ð±ÑĢÐ°Ð·Ð¾Ð²": 6177,
      "ĠÑģÐ²ÐµÑĢÐº": 6178,
      "ĠÐ²Ð·Ð´Ð¾ÑĢ": 6179,
      "ĠÐ¿Ð¾Ð´Ð½ÑıÐ»ÑģÑı": 6180,
      "ĠÐ´ÐµÑĢÐ¶Ð°ÑĤÑĮ": 6181,
      "ĠÐ¿ÐµÑĩÐ°Ð»ÑĮÐ½ÑĭÐ¹": 6182,
      "ĠÑģÐ²ÐµÑĤÐ»Ð¾Ðµ": 6183,
      "ĠÐ±Ð°ÑĢÐ¸Ð½": 6184,
      "ĠÐ½ÐµÐ¾Ð±ÑĭÑĩ": 6185,
      "ĠÐ¿Ð°Ð´Ð°Ð»Ð¸": 6186,
      "ĠÐ°ÐºÐºÑĥ": 6187,
      "ĠÐ·Ð°Ð´ÑĥÐ¼Ð°Ð»ÑģÑı": 6188,
      "ĠÑĤÐ°Ð»Ð°Ð½ÑĤÐ°": 6189,
      "ĠÐ´Ð¾Ð±Ð°Ð²Ð¸Ð»": 6190,
      "ĠÐ³Ð¾ÑģÑĤÐµÐ¹": 6191,
      "ĠÑĥÑĪÐ°Ñħ": 6192,
      "Ð¾Ð»ÑĩÐ°Ð»": 6193,
      "ĠÑħÐ¾Ð·ÑıÐ¸Ð½Ð°": 6194,
      "ĠÐĵÐ¾ÑĢÐ¾Ð´": 6195,
      "ĠÑĤÐ¾Ð»Ð¿Ñĭ": 6196,
      "ĠÐ¡Ð»ÑĥÑĩ": 6197,
      "ĠÐ³Ð°Ð·ÐµÑĤÑĭ": 6198,
      "ĠÑĦÐ¾ÑĢÐ¼": 6199,
      "ĠÐ´Ð²Ð¸Ð³Ð°Ð»ÑģÑı": 6200,
      "ĠÑĥÐ¿ÑĢÑıÐ¼": 6201,
      "ĠÑģÐ¾Ð³Ð»Ð°ÑģÐ¸Ð»ÑģÑı": 6202,
      "ĠÐ½Ð¸Ð·ÐºÐ¾": 6203,
      "ĠÐºÐ°ÑĩÐµÑģÑĤÐ²Ðµ": 6204,
      "ĠÐ¼Ð¾Ð½Ð°Ñħ": 6205,
      "ĠÐ¸ÑģÑĤÐ¾ÑĢÐ¸Ñı": 6206,
      "ĠÐľÐ¸ÑħÐ°Ð¹Ð»Ð¾Ð²": 6207,
      "ĠÐ¾Ð¶Ð¸Ð´Ð°Ð½Ð¸Ñı": 6208,
      "ĠÐ¾Ð·Ð°ÑĢ": 6209,
      "ĠÐ¾Ð±Ð¾ÑĢÐ°Ñĩ": 6210,
      "ĠÐ¼ÑĥÐ¶ÑĩÐ¸Ð½": 6211,
      "ĠÑģÐ¾Ð´ÐµÑĢÐ¶": 6212,
      "ĠÑģÐ°Ð¿Ð¾Ð³Ð¸": 6213,
      "ĠÑĢÐµÑģÑĤÐ¾ÑĢ": 6214,
      "ĠÐ¾Ð´Ð¸Ð½Ð¾ÑĩÐµÑģÑĤÐ²Ð°": 6215,
      "ĠÐ½ÐµÐ±Ð¾Ð»ÑĮÑĪÐ¾Ð¹": 6216,
      "ĠÑĥÑģÑĤÑĢÐ¾Ð¸ÑĤÑĮ": 6217,
      "ĠÐ·Ð°Ð¼ÐµÑĢÐ·": 6218,
      "ĠÐ¿Ð¾Ð²Ð¾ÑĢÐ°Ñĩ": 6219,
      "ĠÐ²Ð¸Ð·Ð³": 6220,
      "ĠÐ½Ð°Ð¸Ð²Ð½Ð¾": 6221,
      "ĠÐ²Ð·Ð´ÑĢÐ¾Ð³": 6222,
      "ĠÐ´Ð¾ÑģÑĤÐ¾Ð¸Ð½ÑģÑĤÐ²": 6223,
      "ĠÐ³Ð¾Ð½Ð¾ÑĢ": 6224,
      "ĠÑĢÑĥÐºÐ¾Ð¿Ð¸ÑģÑĮ": 6225,
      "ĠÐºÐ°Ð»Ð¾ÑĪ": 6226,
      "ĠÐ±Ð¾Ð´ÑĢ": 6227,
      "ĠÑģÐ²ÑıÑīÐµÐ½": 6228,
      "ĠÐļÐ¾ÑģÑĤÑİ": 6229,
      "ĠÐľÐ¸ÑħÐ°Ð¸Ð»": 6230,
      "ĠÐ¿ÑĢÐµÑģÑĤÑĥÐ¿": 6231,
      "ĠÑģÑĤÐ°ÑĢÐ¸ÑĩÐ¾Ðº": 6232,
      "ĠÐķÐ²Ð³ÐµÐ½Ð¸Ñı": 6233,
      "ĠÐ³ÐµÐ½ÐµÑĢÐ°Ð»": 6234,
      "ĠÑĤÑİÑĢÑĮ": 6235,
      "ÐµÐ¾Ð´Ð¾ÑģÐ¸Ð¹": 6236,
      "ĠÐ¿ÑĢÐµÐ´ÑĥÐ¿ÑĢÐµÐ´": 6237,
      "ĠÑĩÑĢÐµÐ·Ð²ÑĭÑĩÐ°Ð¹Ð½Ð¾": 6238,
      "ĠÑĥÐ½Ð¸ÑĩÑĤÐ¾Ð¶": 6239,
      "ÐĳÑĢÐµÐ·Ðµ": 6240,
      ".)": 6241,
      "Ðĸ": 6242,
      "Ð¾ÑĦ": 6243,
      "Ð°ÑģÑĤÐ¸": 6244,
      "Ð¸ÑĨÑĭ": 6245,
      "Ð¸Ð½Ð¾Ñİ": 6246,
      "Ð»ÐµÑģ": 6247,
      "Ð»ÑĭÐ²": 6248,
      "Ð»ÑĥÐ±": 6249,
      "ÑĢÐ¾Ðº": 6250,
      "ÑĢÐ°ÑĤÑĮ": 6251,
      "ÑĢÐ°Ð»Ð°": 6252,
      "ÑĢÐ¾Ð¿": 6253,
      "ÑĢÑĥÐ·": 6254,
      "ÑĢÐ¸ÑģÑĤÐ¾": 6255,
      "ÑĥÑıÑģÑĮ": 6256,
      "ĠÑģÐ¾Ð±Ñĭ": 6257,
      "ĠÑģÐ³Ð¾ÑĢ": 6258,
      "ĠÐ¿ÑĭÑĪ": 6259,
      "ĠÐ¿Ð°ÑĤÑĢ": 6260,
      "ĠÐ½ÐµÐºÑĢÐ°Ñģ": 6261,
      "ÐºÑĢÐ°Ñģ": 6262,
      "ĠÐ²ÐµÑģÑĤ": 6263,
      "ĠÐ²ÐµÐ·Ð´Ðµ": 6264,
      "ÑĤÐ¾ÑıÐ»": 6265,
      "ĠÐºÐ¾Ð»ÑĮ": 6266,
      "ÑģÑĤÐ°Ð»": 6267,
      "ÐµÐ½ÑĭÐ¹": 6268,
      "ĠÐ±ÐµÐ»ÑĮ": 6269,
      "ĠÐ±Ð¸Ð»Ð¸": 6270,
      "ĠÐ±Ð¸Ð¾Ð³ÑĢÐ°ÑĦ": 6271,
      "ĠÐ´Ð°ÑĢ": 6272,
      "ĠÐ´ÐµÐ»Ð¾Ð²": 6273,
      "ÐµÐ»ÐµÑĨ": 6274,
      "ĠÐ¼ÑĢ": 6275,
      "Ð¾Ð¼ÐµÐ½": 6276,
      "Ð¸Ð»Ð¸Ð½": 6277,
      "ĠÐ·Ð°Ð·": 6278,
      "ĠÐ½ÐµÑģÑĤ": 6279,
      "ĠÑĢÐµÐ¼": 6280,
      "ĠÐ³Ð¸Ð³": 6281,
      "ĠÐ½Ð°ÑĪÐµ": 6282,
      "Ð¾ÑĢÐ¾ÑĤ": 6283,
      "Ð°Ð²Ð°": 6284,
      "Ð½Ð¸Ñģ": 6285,
      "ĠÐ¶Ð¸Ð´": 6286,
      "ÐµÐ´ÐµÑĤ": 6287,
      "Ð¾Ð½ÐµÐº": 6288,
      "ĠÐ¾ÑĤÑĭÑģÐº": 6289,
      "ĠÐ¾ÑĤÑĨÐ¾Ð¼": 6290,
      "ĠÐŁÐ¾Ð¼ÐµÑĢ": 6291,
      "ĠÐĿÐµÐ²": 6292,
      "ĠÐĿÐ°Ñĩ": 6293,
      "Ð¾Ð±ÐµÐ´": 6294,
      "ĠÐĴÐµÑĩ": 6295,
      "ĠÐĴÐ¾Ð»Ð¾Ð´": 6296,
      "Ð¸ÐºÐ°Ð¼Ð¸": 6297,
      "ĠÐ°Ñģ": 6298,
      "ĠÐ°Ð»ÑĮ": 6299,
      "Ð»ÑıÑĢ": 6300,
      "Ð»ÑıÑİÑĤÑģÑı": 6301,
      "ÐµÑĩÐºÐ¸": 6302,
      "ĠÐ¡Ð¾Ð±": 6303,
      "ĠÐ¡ÐµÐ³Ð¾Ð´Ð½Ñı": 6304,
      "ĠÐ¿Ð¾Ð´Ð¾Ð»": 6305,
      "Ð¸Ð·Ð½": 6306,
      "ĠÑģÐºÐ°Ð»": 6307,
      "ĠÐºÑĢÐµÑģÑĤÑĮ": 6308,
      "ĠÐļÐ½": 6309,
      "ĠÑĢÐ°Ð·Ð½ÑĭÐµ": 6310,
      "ĠÑĢÐ°Ð·Ð½ÑĭÑħ": 6311,
      "ĠÑĢÐ°Ð·Ð´ÐµÐ»": 6312,
      "ÑīÐµÑģÑĤÐ²Ð¾": 6313,
      "Ð¾Ð¿ÑĢÑĭ": 6314,
      "ĠÑĪÐ»ÐµÐ¼": 6315,
      "ĠÐ´ÑĢÐµÐ¼": 6316,
      "ÐµÑģÑĤÐ°": 6317,
      "ĠÑģÐ¿Ð¸Ñĩ": 6318,
      "ĠÑģÐ¿Ð°Ð»Ð¸": 6319,
      "Ð°Ð¹ÑĤÐµÑģÑĮ": 6320,
      "Ð¸ÑĢÐ°Ð»ÑģÑı": 6321,
      "Ð¸ÑĢÐ¾Ð²Ð°Ð»": 6322,
      "ĠÐĶÑĥÑĢ": 6323,
      "Ð°Ð³Ð°Ð»": 6324,
      "ĠÑĤÑĢÐµÐ¿": 6325,
      "ĠÑĤÑĢÐ¾Ð¿": 6326,
      "Ð¸ÑĤÐµÐ»ÑĮÑģÑĤÐ²Ð¾": 6327,
      "ÑģÑĤÑĢÐµÑĩÑĥ": 6328,
      "ĠÐ±Ð¾Ð»ÑĮÐ½Ð¾Ð³Ð¾": 6329,
      "ĠÐ¿Ð¾ÐºÑĢÑĭÑĤ": 6330,
      "ĠÐ¿Ð¾ÐºÐ°Ð·Ð°Ð»ÑģÑı": 6331,
      "ĠÐ³Ð¾ÑĢÐ°Ð·Ð´": 6332,
      "ĠÐ±ÐµÐ·Ð¾Ð±ÑĢÐ°Ð·": 6333,
      "ĠÑĨÑĭÐ¿": 6334,
      "ÐµÑģÐºÑĥ": 6335,
      "ĠÐ½Ð¸ÑģÐºÐ¾Ð»ÑĮÐºÐ¾": 6336,
      "ĠÐ½Ð°Ð´ÐµÐ¶Ð´": 6337,
      "Ð¾Ð¼Ð½Ð¸ÑĤÑĮ": 6338,
      "ĠÐ¿ÑĢÐ¾ÑıÐ²": 6339,
      "ĠÐ¾ÑģÐµÐ½ÑĮ": 6340,
      "Ð½ÑıÐ²": 6341,
      "ĠÑĤÐµÐ¼Ð½Ð°Ñı": 6342,
      "ĠÐ·Ð½Ð°Ð¼ÐµÐ½": 6343,
      "ĠÐ½Ð°ÑĩÐ°Ð»Ð¾ÑģÑĮ": 6344,
      "ĠÑĥÐ¼ÐµÐ»": 6345,
      "ĠÐĹÐ°Ð¿": 6346,
      "ĠÐĹÐ°ÑĤÐµÐ¼": 6347,
      "ĠÐ½ÐµÐ¿Ð¾Ñģ": 6348,
      "ĠÐºÐ¾Ð½ÑĦ": 6349,
      "ĠÐºÐ¾Ð½ÑĨÑĥ": 6350,
      "ĠÐ¿ÑĢÐµÐ´Ð¼ÐµÑĤ": 6351,
      "ĠÑģÑĤÐ°ÑĢÐ¾Ð³Ð¾": 6352,
      "ĠÑģÑĤÐ°ÑĢÐ¸ÐºÐ°": 6353,
      "Ð¸ÑĤÐµÐ»ÑĮÐ½Ð¾ÑģÑĤÑĮÑİ": 6354,
      "Ð¸Ð²ÑĪÐ¸Ñħ": 6355,
      "ĠÐ²ÐµÑĢÑĤ": 6356,
      "ĠÐ½ÐµÐ¼ÐµÐ´Ð»ÐµÐ½Ð½Ð¾": 6357,
      "Ð»ÐµÐ½Ð½ÑĭÐ¼": 6358,
      "ĠÐĿÐµÑĥÐ¶ÐµÐ»Ð¸": 6359,
      "ĠÐ²Ð¾Ð»Ð½Ð¾Ð²": 6360,
      "ĠÑĩÑĥÐ²ÑģÑĤÐ²ÑĥÐµÑĤ": 6361,
      "ĠÑģÐ½Ð¸Ð·Ñĥ": 6362,
      "ĠÐ¾ÑģÑĤÐ°ÑĤÑĮÑģÑı": 6363,
      "ĠÐ¿ÐµÑĢÐµÐ´Ð¾": 6364,
      "Ð½Ð¸ÐºÐ°Ð¼Ð¸": 6365,
      "ĠÐ¼Ð°Ð»ÑĭÐ¹": 6366,
      "Ð°ÑİÑīÐ¸Ð¹ÑģÑı": 6367,
      "ĠÑģÑĤÑĢÐ°ÑĪÐ½Ð°Ñı": 6368,
      "ĠÐ½ÐµÐ´Ð¾Ð²Ð¾Ð»ÑĮ": 6369,
      "ĠÑĥÐ³Ð¾Ð´Ð½Ð¾": 6370,
      "ĠÐ±ÐµÐ»Ð¾Ð³Ð¾": 6371,
      "ĠÐ¾ÑĤÐºÑĢÐ¾Ð²": 6372,
      "ĠÐ¶ÐµÐ»Ð°Ñı": 6373,
      "ĠÑģÑĤÐ¾Ð»Ñĥ": 6374,
      "ĠÑģÑĤÐ¾Ð»Ð¾Ð²ÑĥÑİ": 6375,
      "ĠÑĥÐ»ÑĭÐ±Ð½ÑĥÐ»Ð°ÑģÑĮ": 6376,
      "ĠÐ¶ÐµÐ½ÑīÐ¸Ð½Ðµ": 6377,
      "ĠÐºÐ¾Ð¼Ð½Ð°ÑĤÐ°": 6378,
      "ĠÐ½Ð°Ð·ÑĭÐ²Ð°ÐµÑĤÑģÑı": 6379,
      "Ð¾Ð²Ð°ÑĢÐ¸Ñī": 6380,
      "ĠÐ¼Ð°Ð»ÐµÐ½ÑĮÐºÐ¾Ð³Ð¾": 6381,
      "ĠÐ¸ÑģÐ¿ÑĢÐ°Ð²": 6382,
      "ĠÐ³Ð»ÑĥÐ±Ð¶Ðµ": 6383,
      "ĠÑĢÐµÑĪÐµÑĤ": 6384,
      "ĠÐ»ÐµÐ³Ð»Ð°": 6385,
      "ĠÑĥÐ¶Ð°ÑģÐ½Ð¾Ðµ": 6386,
      "ĠÐ¿Ð¾Ð½Ð¸Ð¼Ð°ÐµÑĪÑĮ": 6387,
      "ĠÑģÐ»ÑĭÑĪÐ°ÑĤÑĮ": 6388,
      "ĠÐŀÐ´Ð½Ð¾": 6389,
      "ĠÐ¿Ð¾ÑģÑĤÐ°Ð½Ð¾Ð²": 6390,
      "ĠÑģÐ¿Ð¾ÐºÐ¾Ð¹Ð½ÑĭÐ¹": 6391,
      "ĠÐ¿ÑĢÐ¸Ð½ÑıÑĤÑĮ": 6392,
      "ĠÑĨÐµÐ»ÑĥÑİ": 6393,
      "ĠÐ½Ð°Ð²ÑģÑĤÑĢÐµÑĩÑĥ": 6394,
      "Ġ(\"": 6395,
      "ĠÐ¿Ð°ÑĢÐ¸Ðº": 6396,
      "ĠÑģÐ°Ð´Ð°": 6397,
      "ĠÑģÐ°Ð´Ð¸Ð»ÑģÑı": 6398,
      "ĠÐ¿Ð»Ð°ÐºÐ°Ð»Ð¸": 6399,
      "ĠÐºÑĢÐ¾Ð²Ð¸": 6400,
      "ĠÐºÑĢÐ¾Ð²Ð°Ð²": 6401,
      "ĠÐ²Ð½Ð¸Ð¼Ð°ÑĤÐµÐ»ÑĮ": 6402,
      "ĠÑģÐµÐ¼ÐµÐ¹": 6403,
      "ÐĿÐ¾Ð²": 6404,
      "ĠÐ²Ð¾ÑĢÐ¾Ñĩ": 6405,
      "ĠÐĸÐµÐ½Ñī": 6406,
      "ĠÑģÑĤÐ¾ÑıÐ²ÑĪ": 6407,
      "ĠÐ¿Ð»ÐµÑĩÑĥ": 6408,
      "ĠÐ·Ð°Ð¼ÐµÑĤÐ¸Ð»Ð¸": 6409,
      "Ð´Ð°Ð»ÐµÐºÐ°": 6410,
      "ĠÐ¾Ð±ÑĢÐ°Ð·Ñĭ": 6411,
      "ĠÐ´ÑĢÐ¾Ð¶Ð°Ð»": 6412,
      "ĠÐ´ÑĢÐ¾Ð¶Ð°Ð»Ð¸": 6413,
      "Ð½ÑĥÑĤÐ¾Ð¹": 6414,
      "ĠÑĩÐ¸ÑģÑĤÑĭÐ¹": 6415,
      "ĠÐ´Ð²Ð¸Ð¶ÐµÐ½Ð¸Ðµ": 6416,
      "ĠÐºÑĥÐ¿Ð¸ÑĤÑĮ": 6417,
      "ĠÐ¿Ð¾ÑħÐ¾Ð¶Ð¸": 6418,
      "ĠÐ½ÐµÐºÐ¾ÑĤÐ¾ÑĢÑĭÑħ": 6419,
      "ĠÐ¿Ð¾ÑĪÐ»Ð¸": 6420,
      "ĠÐ·Ð°Ð½Ð°Ð²": 6421,
      "ĠÑģÐ»ÑĥÐ¶Ð±Ñĭ": 6422,
      "ĠÐ¿Ð¾Ð¹ÑĤÐ¸": 6423,
      "ĠÐ¾ÑĤÐ²ÐµÑĩÐ°ÐµÑĤ": 6424,
      "ĠÐ¿Ð°Ð»ÐµÑĨ": 6425,
      "ĠÐ¿Ð°Ð»ÐºÐ¾Ð¹": 6426,
      "ĠÐ½ÐµÐ¸Ð·Ð±": 6427,
      "ĠÐ¾ÑĤÑĩÐ°ÑıÐ½Ð¸Ñı": 6428,
      "ĠÐ¿ÑĢÐ¸Ð³Ð»Ð°Ñģ": 6429,
      "ĠÐ¸ÑģÐ¿ÑĥÐ³Ð°Ð½Ð½Ð¾": 6430,
      "ĠÐ¶Ð´Ð°Ð»Ð¸": 6431,
      "ĠÑģÐ½ÐµÐ³Ð¾Ð¼": 6432,
      "ĠÐ¿Ð¾ÑģÐ»Ð°Ð»": 6433,
      "Ð¢Ð¾Ð²Ð¸ÑĤ": 6434,
      "ĠÑĢÐµÐºÐµ": 6435,
      "ĠÑĢÐµÐºÐ¸": 6436,
      "ĠÐ¿ÐµÑģÐ½Ð¸": 6437,
      "ĠÐ²ÑĭÑĪÐ»Ð¸": 6438,
      "ĠÑĤÑĢÐµÐ±Ð¾Ð²": 6439,
      "ĠÐ³Ð°Ð·ÐµÑĤÑĥ": 6440,
      "ĠÑģÐ¾Ð»Ð¸Ð´": 6441,
      "Ð³ÑĥÐ½ÑĮ": 6442,
      "ĠÐĳÐ¾Ð³Ñĥ": 6443,
      "ĠÐ·Ð¸Ð¼Ñĥ": 6444,
      "ĠÑħÐ²Ð¾ÑģÑĤÐ°": 6445,
      "ĠÐ½Ð°ÑģÑĤÐ¾ÑıÑīÐµÐ³Ð¾": 6446,
      "ĠÐĵÑĢÐ¸Ð³Ð¾ÑĢÑĮ": 6447,
      "ĠÐ¿ÑĢÐ¾ÑħÐ¾Ð´Ð¸Ð»Ð¸": 6448,
      "ĠÑģÐ¾Ð±Ð¸ÑĢÐ°Ð»Ð¸ÑģÑĮ": 6449,
      "ĠÑĤÐ¾ÑĢÐ¶ÐµÑģÑĤÐ²ÐµÐ½Ð½Ð¾": 6450,
      "ĠÑģÐ²Ð¸Ð´ÐµÑĤ": 6451,
      "ĠÐ´ÐµÐ²ÑĥÑĪÐºÑĥ": 6452,
      "ĠÐ¿ÑĢÐ¸Ð¼Ð¸ÑĢ": 6453,
      "ĠÐµÑħÐ°Ð»": 6454,
      "ĠÑĥÑĩÐ°ÑģÑĤÐ¾Ðº": 6455,
      "ĠÐ¿Ð¾Ð´ÑĢÐ¾Ð±": 6456,
      "ĠÐ¾ÐºÐ¾Ð½ÑĩÐ°ÑĤÐµÐ»ÑĮÐ½Ð¾": 6457,
      "ĠÑĥÐ´Ð¾Ð²Ð¾Ð»ÑĮÑģÑĤÐ²Ð¸Ðµ": 6458,
      "ĠÐ±ÐµÐ¶Ð°ÑĤÑĮ": 6459,
      "ĠÑģÑħÐ²Ð°ÑĤÐ¸Ð»": 6460,
      "ĠÐºÐ¾Ð»Ð¾ÐºÐ¾Ð»Ð°": 6461,
      "ĠÐ´Ð¾Ð½Ð¾Ñģ": 6462,
      "ĠÐ¿ÑĢÐ¸ÑģÑĤÐ°Ð»ÑĮÐ½Ð¾": 6463,
      "ĠÐ¸Ð³ÑĢÐ°ÐµÑĤ": 6464,
      "ĠÐ»ÐµÐ½Ð¸Ð²Ð¾": 6465,
      "ĠÐºÐ°ÑĦ": 6466,
      "ĠÐ»ÐµÐºÐ°ÑĢ": 6467,
      "ĠÑĤÑĢÐ¾Ð³Ð°ÑĤÐµÐ»ÑĮ": 6468,
      "ĠÐ¿ÐµÑĤÐµÑĢÐ±ÑĥÑĢÐ³": 6469,
      "ĠÐ¼Ð¾Ð¼ÐµÐ½ÑĤÐ°": 6470,
      "ĠÐ²ÑĭÑĤÑıÐ³": 6471,
      "ĠÐ¾ÑĤÑĩÐ°ÑıÐ½Ð½Ð¾": 6472,
      "ÑģÑİÐ´Ñĥ": 6473,
      "ĠÐŀÐºÐ¾Ð»Ð¾": 6474,
      "ĠÐ¿Ð¾Ð´ÑĤÐ²ÐµÑĢÐ´": 6475,
      "ĠÐ¿ÑĢÐµÐ·ÑĢÐ¸ÑĤÐµÐ»ÑĮÐ½Ð¾": 6476,
      "ĠÐ²Ð½ÐµÑĪ": 6477,
      "ĠÑģÑĤÐ°Ð½ÑĨÐ¸Ð¸": 6478,
      "Ð½ÐµÑĢÐ°Ð´Ð¾ÑģÑĤ": 6479,
      "ĠÐ´ÑĢÑĥÐ¶ÐµÑģÐºÐ¸": 6480,
      "ĠÑĤÑĢÐ¾Ð½ÑĥÐ»": 6481,
      "ĠÑĦÐ°Ð»ÑĮÑĪ": 6482,
      "ĠÐĹÐ°Ð²ÑĤÑĢÐ°": 6483,
      "ĠÑģÑĢÐ°Ð²Ð½": 6484,
      "ĠÑģÐ¼ÐµÑĢÑĤÐµÐ»ÑĮ": 6485,
      "ĠÐ´ÐµÑĪÐµÐ²": 6486,
      "ĠÐ¼ÐµÐ±ÐµÐ»ÑĮ": 6487,
      "ĠÑģÐ¾ÑĤÑĢÑĥÐ´": 6488,
      "ĠÐ¿ÑĢÐ¾ÑĪÐµÐ¿ÑĤÐ°Ð»": 6489,
      "ĠÐ¿Ð°ÑģÑģÐ°Ð¶": 6490,
      "ĠÐºÐ¾Ð»ÐµÐ½ÑıÑħ": 6491,
      "ĠÐ¿Ð¾Ð»ÑĩÐ°ÑģÐ°": 6492,
      "ĠÐ±ÐµÐ·ÑĢÐ°Ð·Ð»Ð¸Ñĩ": 6493,
      "Ð¾Ð¿ÑĢÑĭÐ³ÑĥÐ½ÑĮ": 6494,
      "ĠÐ³Ð¾ÑĢÐ°Ð·Ð´Ð¾": 6495,
      "âĦ": 6496,
      "ÐµÐµÑĤÑģÑı": 6497,
      "ÑĤÐµÐ¼": 6498,
      "ÑĤÐ¸ÑģÑĮ": 6499,
      "Ð¸ÑĤÐ¾ÑĢ": 6500,
      "ÑģÐ°": 6501,
      "Ð»Ð¸Ð»": 6502,
      "Ð»ÑĥÐ¶": 6503,
      "Ð»ÐµÐ±": 6504,
      "Ð»Ð°Ð¼Ð¸": 6505,
      "ÑĭÐ±": 6506,
      "ÑĭÑĤÐ°": 6507,
      "ĠÑģÐ¸Ð³": 6508,
      "ĠÑģÐ½Ð¾Ð¼": 6509,
      "ĠÐ¿ÑĥÑħ": 6510,
      "ĠÐ¿ÑıÑĤÐ½Ð¾": 6511,
      "ĠÐ¿ÑĥÑģÐº": 6512,
      "ÑĩÑĥÐ²ÑģÑĤÐ²": 6513,
      "ĠÐ²Ð»Ð°Ð¶": 6514,
      "ĠÐ¸ÐºÐ¾Ð½": 6515,
      "ĠÐ¸ÑĢÐ¾Ð½": 6516,
      "Ð²Ð°Ð»Ð¸": 6517,
      "ĠÐºÐ°Ð½": 6518,
      "ĠÐºÐ¸ÑĢ": 6519,
      "ĠÐºÑĥÐ·": 6520,
      "ĠÐºÑĥÐº": 6521,
      "ĠÐºÐ²ÐµÑĢÑħÑĥ": 6522,
      "Ð¾Ð²ÐµÑĤ": 6523,
      "ĠÐ±Ð°Ð½": 6524,
      "ĠÑĤÐ¸Ð¿": 6525,
      "ÐµÐ»Ð°ÑģÑĮ": 6526,
      "ÐµÑĢÐµ": 6527,
      "ĠÐ¼Ð¾Ð»ÑĮ": 6528,
      "ĠÐ¼ÑĢÐ°Ð¼": 6529,
      "ĠÐ¼Ð¸ÑģÑģ": 6530,
      "ĠÐ·Ð°Ð¹": 6531,
      "ĠÐ·Ð¼Ðµ": 6532,
      "ĠÐ¿ÑĢÐµÐ¿": 6533,
      "ĠÐ³ÑĢÐ°ÑĦ": 6534,
      "ÐµÐ¼ÑģÑı": 6535,
      "Ð¾ÑĢÐ³": 6536,
      "Ð°Ð²Ð°Ð»Ð¾ÑģÑĮ": 6537,
      "Ð½Ð¸ÑģÑĤ": 6538,
      "ĠÐ±ÑĭÐ²ÑĪ": 6539,
      "ĠÐ»Ð¸Ðº": 6540,
      "ĠÐ»Ð¾Ñħ": 6541,
      "ÑĨÐ°ÑĤÑĮ": 6542,
      "ÑĨÐµÐ¿": 6543,
      "Ð¾Ð³Ðµ": 6544,
      "Ð¸Ð²ÑĭÐ¼": 6545,
      "ĠÐ¾ÑĤÑĬ": 6546,
      "Ð°Ð½Ñģ": 6547,
      "ĠÑģÑĤÑĥ": 6548,
      "ĠÑģÑĤÐ°Ð²Ð¸Ð»": 6549,
      "Ð¸Ð¼ÑĥÑİ": 6550,
      "ĠÐĿÐµÐ´": 6551,
      "ĠÐ²ÑģÐµÐ½": 6552,
      "ĠÐĴÑģÐ¿": 6553,
      "ĠÐĺÐ´": 6554,
      "ĠÑħÐ¸ÑĤÑĢ": 6555,
      "ĠÑģÐ²Ð¸ÑĢÐµÐ¿": 6556,
      "ĠÐ°Ð¿ÑĢ": 6557,
      "ĠÑĤÐ°ÐºÑĤ": 6558,
      "ĠÐ¾Ð±Ñĭ": 6559,
      "ĠÐ¾Ð±Ð½Ð°": 6560,
      "ĠÐ¾Ð±ÑīÐµÑģÑĤÐ²Ð°": 6561,
      "ĠÐ¾Ð±Ð¼Ð°Ð½Ñĭ": 6562,
      "ĠÑģÐ»Ð¾Ð±Ð¾Ð´": 6563,
      "ĠÐ¿Ð¾Ð´ÐµÐ»Ð°ÐµÑĪÑĮ": 6564,
      "ĠÐļÑĥÐ¿": 6565,
      "ĠÐ§ÑĤ": 6566,
      "ĠÐ¢ÐµÐ¼": 6567,
      "ĠÐ¢Ð°Ð½ÑĨ": 6568,
      "ĠÐ¢Ð¾Ð²Ð°ÑĢÐ¸Ñī": 6569,
      "ÑĥÑĩÐºÐ°": 6570,
      "ĠÐ¾Ð´Ð¾Ð±ÑĢ": 6571,
      "Ð¾ÑĩÐºÐ°Ñħ": 6572,
      "ĠÑĪÐµÑĢ": 6573,
      "ĠÑĪÐ°ÑĤ": 6574,
      "ĠÐ´ÑĢÐ¾Ð³": 6575,
      "ÑĥÑĪÐºÐµ": 6576,
      "ĠÑģÐ¿ÑĥÑģÐº": 6577,
      "ÑĥÐ¿Ð°Ð¹": 6578,
      "ĠÐĶÐ°Ð¹ÑĤÐµ": 6579,
      "Ð°Ð»ÑĮÐ½Ð¾Ð³Ð¾": 6580,
      "ĠÑĢÐ°ÑģÑĪÐ¸ÑĢ": 6581,
      "ĠÐ³ÑĢÐµÑĩÐµÑģÐº": 6582,
      "ĠÐ¿Ð¾Ð»Ð½ÑĭÐ¹": 6583,
      "ĠÑģÐ°Ð¼ÑĥÑİ": 6584,
      "ĠÑĤÑĢÑĥÐ´Ð°": 6585,
      "ÑģÑĤÑĢÐ°Ð½": 6586,
      "ĠÐ¿Ð»Ñİ": 6587,
      "ĠÐ¿Ð»Ð¾ÑĤ": 6588,
      "ĠÐ²Ð·Ð±": 6589,
      "ÑĤÐ¸ÑĢÐ°": 6590,
      "ÑĦÐ°Ð»ÑĮ": 6591,
      "ÐµÑĢÑĮÑİ": 6592,
      "ĠÑĨÐµÐ»Ð¸": 6593,
      "ĠÐ»ÑİÐ±Ð¸ÑĤÐµ": 6594,
      "ĠÑģÑĤÑĢÐµÐ»ÑĮ": 6595,
      "ĠÐ½Ð°Ð´ÐµÐ¶Ð´Ð°": 6596,
      "ĠÐ¶Ð¸Ð·Ð½ÐµÑĢÐ°Ð´Ð¾ÑģÑĤ": 6597,
      "ĠÐ¿Ð¾ÑĤÑĥÑħ": 6598,
      "ĠÐĵÐ»Ð°Ð·": 6599,
      "ĠÐ¾ÐºÐ°Ð·Ð°Ð»": 6600,
      "ĠÐ¿ÑĢÐ¾ÑħÐ¾Ð´Ð¸Ð»": 6601,
      "ĠÐ¸Ð¼ÐµÐ»Ð¸": 6602,
      "ĠÑĤÐµÐ¼Ñĭ": 6603,
      "ĠÐ¶ÐµÐ½Ð¸Ð»ÑģÑı": 6604,
      "ĠÑģÐ¾Ð²ÐµÑģÑĤÐ½Ð¾": 6605,
      "ĠÑħÐ¾ÑĤÑıÑĤ": 6606,
      "ĠÐ·Ð²ÐµÐ½": 6607,
      "ĠÐłÐ¾Ð¶Ð´Ðµ": 6608,
      "ĠÐŃÑħ": 6609,
      "ĠÐ±ÑĢÐµÐ´": 6610,
      "ĠÐŁÑĢÐ¸Ñħ": 6611,
      "ĠÐ´ÑĥÐ¼Ð°Ñı": 6612,
      "ĠÐ¾Ð´Ð¸Ð½Ð½": 6613,
      "ĠÐ¾Ð³Ð¾Ð½ÐµÐº": 6614,
      "ĠÐ¿Ð¾ÑĢÑĥ": 6615,
      "ĠÑģÐ²ÐµÑĤÑĥ": 6616,
      "ĠÐ±Ð¾Ð»ÑĮÑĪÐ¸Ñħ": 6617,
      "ĠÐºÐ¾Ð»Ð¸Ñĩ": 6618,
      "ĠÐ¿Ð¾Ð¿ÑĢÐ¾Ð±": 6619,
      "ĠÐ´ÐµÐ»Ð°Ð»Ð¾": 6620,
      "ĠÐ´ÐµÐ»Ð°ÑİÑĤ": 6621,
      "ĠÑģÐ½ÑıÑĤÑĮ": 6622,
      "ĠÐĲÐ½ÑĤÐ¾Ð½Ð¾Ð²Ð¸Ñĩ": 6623,
      "ÑĤÑĢÐ°Ðº": 6624,
      "ĠÑĢÐ°ÑģÑģÐºÐ°Ð·Ðµ": 6625,
      "ĠÐ¿ÑĢÐ¾ÑģÐ½ÑĥÐ»ÑģÑı": 6626,
      "ĠÐ³Ð¾Ð»Ð¾ÑģÐ¾Ð²": 6627,
      "ĠÑĢÐ°Ð´Ð¸": 6628,
      "ĠÐ½ÐµÐ´Ð°Ð²": 6629,
      "ĠÐ¼Ð½Ð¾Ð³Ð¾ÑĩÐ¸Ñģ": 6630,
      "ÑĥÑīÐ¸Ð¹": 6631,
      "ÑĢÐ¸ÑıÑĤ": 6632,
      "ĠÐ¶Ð¸Ð²ÑĭÑħ": 6633,
      "ĠÐ½ÑĥÐ¶ÐµÐ½": 6634,
      "ĠÐ·Ð°Ð´ÐµÑĢÐ¶": 6635,
      "ĠÐºÐ¾Ð¼Ð½Ð°ÑĤÐ°Ñħ": 6636,
      "ĠÐ½Ð°Ð·ÑĭÐ²Ð°Ð»Ð¸": 6637,
      "ĠÑģÐ¸Ð´Ñı": 6638,
      "ĠÐ·Ð°Ð²ÑıÐ·": 6639,
      "ĠÐ³Ð¾Ð´Ð°Ñħ": 6640,
      "ĠÑģÑĤÐ¾Ð¸Ð»Ð¾": 6641,
      "ĠÑģÐ»ÑĥÑĩÐ°Ð»Ð¾ÑģÑĮ": 6642,
      "ĠÐŁÐµÑĤÑĢÐ¾Ð²Ð¸ÑĩÑĥ": 6643,
      "ÐµÐ½ÑĤÑĭ": 6644,
      "ĠÐ¶Ð°Ð»ÐµÐ»": 6645,
      "ĠÐ¶Ð°Ð»Ð¾Ð±": 6646,
      "ĠÐ¶Ð°Ð»Ð¾Ð±Ð½Ð¾": 6647,
      "ĠÐ¼Ð¾Ð»Ð¾Ð´Ð¾Ð³Ð¾": 6648,
      "ĠÑģÐ¼ÐµÑıÐ»Ð°ÑģÑĮ": 6649,
      "ĠÑĢÐµÑĪÐ¸Ð»Ð°": 6650,
      "ĠÐ¿Ð¾Ð¶ÐµÐ»": 6651,
      "Ð»ÑıÐ»Ð°ÑģÑĮ": 6652,
      "ĠÐ¿Ð¾ÑģÐ»ÐµÐ´Ð½ÐµÐ¹": 6653,
      "ĠÐ¿Ð¾ÑģÐ»ÐµÐ´Ð½ÐµÐ³Ð¾": 6654,
      "ĠÐ½Ð°ÑĪÐ°": 6655,
      "ÑıÐ³Ñĩ": 6656,
      "ĠÐ¼Ð¸Ð»ÑĥÑİ": 6657,
      "ĠÑĢÐ°Ð·Ð²ÑĢÐ°ÑĤ": 6658,
      "ĠÐ¾ÑģÑĤÐ°Ð²Ð¸Ð»": 6659,
      "ĠÐ·Ð½Ð°ÐºÐ¾Ð¼ÑĭÐ¼": 6660,
      "ĠÑĥÑģÑĤÐ°Ð½Ð¾Ð²": 6661,
      "ĠÑĥÐ»Ð¸ÑĨÐ°": 6662,
      "ĠÐºÐ°Ð¼Ð½Ñı": 6663,
      "ĠÐ¿Ð¾Ð±ÐµÐ¶Ð°Ð»": 6664,
      "ĠÐ´Ð¾ÑĢÐ¾Ð³Ð¾Ð¹": 6665,
      "ĠÐ¿ÑĢÐ¾ÑĤÐ¸Ð²Ð½Ð¾": 6666,
      "Ð¾Ð¹Ð´Ñı": 6667,
      "ĠÐ¿ÑĢÐµÐ´ÑģÑĤÐ°Ð²Ð¸ÑĤÑĮ": 6668,
      "ĠÐ·Ð°ÑĤÐ¸Ñħ": 6669,
      "ĠÐ³Ð»ÑıÐ´ÐµÐ»Ð¸": 6670,
      "ĠÐ´ÐµÑĢÐµÐ²Ð½Ðµ": 6671,
      "ĠÐºÑĢÐ¸ÐºÐ½ÑĥÐ»Ð°": 6672,
      "ĠÐ¸Ð³ÑĢÐ°Ð»": 6673,
      "ĠÑĩÑĥÐ¶Ð¸Ðµ": 6674,
      "ĠÐ½Ð°Ð¼ÐµÑĢ": 6675,
      "ĠÐ²ÑģÑĤÑĢÐµÑĩÐ°Ð»": 6676,
      "ĠÑĢÐ°Ð·Ð±Ð¾Ð¹": 6677,
      "ĠÑĢÐ°Ð·Ð±ÑĢÐ¾Ñģ": 6678,
      "ĠÐºÑĢÐ°ÑģÐ¸Ð²ÑĭÐ¹": 6679,
      "ĠÐ½ÐµÐ¿ÑĢÐ¸Ð²": 6680,
      "ĠÐ²Ð·Ð³Ð»ÑıÐ½ÑĥÑĤÑĮ": 6681,
      "ĠÑĥÑĩÐ¸ÑĤÐµÐ»ÑĮ": 6682,
      "ĠÐ¿Ð¾Ð»Ð¾Ð¶ÐµÐ½Ð¸Ðµ": 6683,
      "ĠÑĤÐ¾ÑģÐºÑĥ": 6684,
      "ĠÐ²Ð¾Ð¿ÑĢÐ¾ÑģÑĭ": 6685,
      "ĠÐ¿Ð¾Ð´Ð½ÑıÑĤ": 6686,
      "ĠÑĤÐµÑĢÑĢÐ°Ñģ": 6687,
      "ĠÑģÑĤÑĥÐ´ÐµÐ½": 6688,
      "ĠÑģÑĤÑĥÐ´ÐµÐ½ÑĤÐ°": 6689,
      "ĠÐ¡ÐºÐ¾ÑĢÐ¾": 6690,
      "ĠÑĪÐµÐ¿Ð¾ÑĤ": 6691,
      "ĠÐ¿Ð¾Ð´Ð½Ð¸Ð¼Ð°ÐµÑĤÑģÑı": 6692,
      "ĠÐ²ÑĭÑĢÐ°Ð¶ÐµÐ½Ð¸ÐµÐ¼": 6693,
      "ĠÐ²Ð¾Ð·Ð²ÑĢÐ°ÑĤ": 6694,
      "ĠÐ½ÐµÑĢÐ²": 6695,
      "ĠÐ½ÐµÐºÐ¾ÑĤÐ¾ÑĢÑĭÐ¼": 6696,
      "ĠÐ´Ð»Ð¸Ð½Ð½ÑĭÐµ": 6697,
      "ĠÐ¿ÑıÑĤÐ½Ð°": 6698,
      "ĠÐ¿ÑĢÐ¾ÐºÐ»ÑıÑĤ": 6699,
      "ĠÐĲÐ½ÑĤÐ¾ÑĪÐ¸": 6700,
      "ĠÐ¾ÑģÑĤÐ°Ð½Ð¾Ð²Ð¸Ð»Ð°ÑģÑĮ": 6701,
      "ĠÐ¶ÐµÐ»ÐµÐ·Ð½Ð¾Ð¹": 6702,
      "ĠÐ¶ÐµÐ»ÐµÐ·Ð½ÑĭÐµ": 6703,
      "ĠÑĢÐ°Ð·Ð´ÑĥÐ¼": 6704,
      "ĠÐ²ÑģÐºÐ¾ÑĩÐ¸Ð»": 6705,
      "ĠÐ¿Ð°Ð»Ð°ÑĤÐµ": 6706,
      "ĠÐ¾ÑĢÐ³Ð°Ð½": 6707,
      "ĠÐ²ÑĭÐ·Ð´": 6708,
      "ĠÐ´ÑĥÑĢÐ½Ð¾": 6709,
      "ĠÐŁÐ°ÑĢÐ¼ÐµÐ½Ð°": 6710,
      "ĠÐŁÐµÑĤÐµÑĢÐ±ÑĥÑĢÐ³Ð°": 6711,
      "ĠÐ´Ð¾Ð±Ð°Ð²": 6712,
      "ĠÐ²ÐµÑĤÑĢÐ°": 6713,
      "ĠÐ²Ð°Ð¶Ð½Ð¾": 6714,
      "ĠÐ¾ÑĤÐ½Ð¾ÑĪÐµÐ½Ð¸Ð¸": 6715,
      "ĠÐ¿Ð¸ÑĪÑĥ": 6716,
      "ĠÑĢÐµÐºÑĥ": 6717,
      "ĠÐ¿ÐµÑģÐ½Ñı": 6718,
      "ĠÑĢÐµÐ²Ð¾Ð»Ñİ": 6719,
      "ĠÑģÑĤÐµÐ¿ÑĮ": 6720,
      "ĠÑģÑĤÐµÐ¿ÐµÐ½Ð¸": 6721,
      "ĠÐ¿Ð»Ð°ÑĤÑĮÑı": 6722,
      "ĠÑĤÑĭÑģÑıÑĩÑĥ": 6723,
      "ĠÐ¼ÑĥÐ·ÑĭÐº": 6724,
      "ĠÐ¿ÑĢÐ¸ÐµÑħÐ°Ð»Ð¸": 6725,
      "ĠÐ·Ð°ÑģÑĤÑĭÐ²": 6726,
      "ĠÐ¿Ð°ÑħÐ½ÐµÑĤ": 6727,
      "ĠÐ¿ÑĢÐµÐ²ÑĢÐ°ÑĤ": 6728,
      "ĠÐ¾Ð±Ð¸Ð´Ð½Ð¾": 6729,
      "ĠÐ¾Ð±ÑĢÐ°ÑĤÐ¸Ð»ÑģÑı": 6730,
      "ĠÐ¿Ð¾ÐºÐ°ÑĩÐ°Ð»": 6731,
      "ĠÑĦÐ¸Ð³ÑĥÑĢÐ°": 6732,
      "ĠÑģÑĤÐµÐºÐ»ÑıÐ½": 6733,
      "ĠÑģÐ¾Ð³Ð»Ð°ÑģÐ½Ñĭ": 6734,
      "ĠÑĢÑĥÑĩÐºÑĥ": 6735,
      "ĠÐ¿Ð¾ÑĤÑĢÑıÑģ": 6736,
      "ĠÐ²Ð½ÑĥÑĪ": 6737,
      "ĠÐ²Ð°Ð³Ð¾Ð½Ð°": 6738,
      "ĠÐ½ÐµÐ¿Ð¾Ð½ÑıÑĤÐ½Ð¾": 6739,
      "ĠÑħÑĥÐ´Ð¾Ð¶Ð½Ð¸ÐºÐ°": 6740,
      "ĠÑĦÐ¾Ð½Ð°ÑĢÑĮ": 6741,
      "ĠÐ´Ð¾Ð¶Ð´Ñı": 6742,
      "ĠÐ´Ð²ÐµÑĢÑıÑħ": 6743,
      "ĠÐ²Ð¾Ð»Ð½ÐµÐ½Ð¸Ñı": 6744,
      "ĠÐ¸ÑģÑĤÐ¾ÑĢÐ¸Ñİ": 6745,
      "ĠÐ¾Ð±Ð²Ð¸Ð½": 6746,
      "ĠÐ¿Ð¾ÑĢÑıÐ´ÐºÐµ": 6747,
      "ĠÑĤÐ²Ð¾Ðµ": 6748,
      "ĠÐ²Ð¾ÑģÐºÑĢÐµÑģÐµÐ½ÑĮÐµ": 6749,
      "ĠÐ¿Ð¾Ð·Ð½Ð°ÐºÐ¾Ð¼Ð¸Ð»ÑģÑı": 6750,
      "ĠÐ´ÑĢÑĥÐ·ÑĮÑı": 6751,
      "ĠÐ¶ÑĥÑĢÐ½Ð°Ð»Ð¸ÑģÑĤ": 6752,
      "ĠÐ¾ÑīÑĥÑīÐµÐ½Ð¸Ðµ": 6753,
      "ĠÑĤÑĥÑģÐºÐ»Ð¾": 6754,
      "ĠÐ¾Ð±Ð»ÐµÐ³": 6755,
      "ĠÑıÐ·ÑĭÐºÐ¾Ð¼": 6756,
      "ĠÐºÐ²Ð°ÑĢÑĤÐ¸ÑĢÐµ": 6757,
      "ĠÐ¿Ð¾Ð´Ð´ÐµÑĢÐ¶": 6758,
      "ĠÐ·Ð°Ð±ÑĭÑĤÑĮ": 6759,
      "ĠÑģÐ¾ÑģÑĤÐ¾ÑıÐ½Ð¸Ð¸": 6760,
      "ĠÐ¿ÑĢÐ¾ÑģÑĤÑĢÐ°Ð½ÑģÑĤÐ²Ð¾": 6761,
      "ĠÐ½Ð°ÑģÐ¼ÐµÑĪÐ»Ð¸Ð²Ð¾": 6762,
      "ĠÐºÑĢÐ°Ñİ": 6763,
      "ĠÐ½ÑĭÐ½ÑĩÐµ": 6764,
      "ĠÐ±Ð°ÑģÐ¾Ð¼": 6765,
      "ĠÐ·Ð²ÐµÐ·Ð´Ñĭ": 6766,
      "ĠÐ·Ð°ÑıÐ²Ð¸Ð»": 6767,
      "ĠÑįÐ¿Ð¸Ð·": 6768,
      "ĠÐ¼Ð¾Ð»Ð¸ÑĤÐ²": 6769,
      "ĠÐºÐ°Ð¶Ð´Ð°Ñı": 6770,
      "ĠÐ·Ð°Ð³Ð¾ÑĢ": 6771,
      "ĠÐ½ÐµÑģÐºÐ¾Ð»ÑĮÐºÐ¸Ñħ": 6772,
      "ĠÐ¡Ð¾Ð²ÑģÐµÐ¼": 6773,
      "ĠÐ´Ð¾Ð±ÑĢÐ¾Ð´ÑĥÑĪÐ½Ð¾": 6774,
      "ĠÐ¶ÑĥÑĢÐ½Ð°Ð»Ð°Ñħ": 6775,
      "ĠÑģÐ²Ð¸Ð´Ð°Ð½Ð¸Ñı": 6776,
      "ĠÐ²ÐµÑģÐµÐ»ÑĮÑı": 6777,
      "ĠÐĶÐ¾Ð¼Ð°": 6778,
      "ĠÐ´Ð²ÐµÐ½Ð°Ð´ÑĨÐ°ÑĤÑĮ": 6779,
      "ĠÐ³ÑĢÑĥÑģÑĤÑĮÑİ": 6780,
      "ĠÑĥÑģÐ¼ÐµÑħÐ½ÑĥÐ»ÑģÑı": 6781,
      "ĠÐ±ÐµÑĪÐµÐ½": 6782,
      "ĠÐĺÐ¿Ð°ÑĤÐ¾Ð²": 6783,
      "ĠÐ±ÑĢÐµÐ·Ð³Ð»Ð¸Ð²Ð¾": 6784,
      "ĠÑģÑĥÐ±Ð±Ð¾ÑĤÑĥ": 6785,
      "ĠÐ¼Ð°Ð»ÑĮÑĩÐ¸ÑĪ": 6786,
      "ĠÑĢÐ°ÑģÑģÐ¼Ð¾ÑĤÑĢÐµÑĤÑĮ": 6787,
      "ĠÐ¾ÑĤÐ¾ÑĪÐµÐ»": 6788,
      "ĠÐŁÐ¸ÑģÑĮÐ¼Ð¾": 6789,
      "ĠÐ¿Ð°ÑĢÐ¸ÐºÐ¼Ð°Ñħ": 6790,
      "âĦĸ": 6791,
      "23": 6792,
      "25": 6793,
      "ĠâĦĸ": 6794,
      "ÑĤÐ¸Ð²": 6795,
      "Ð½Ð¾Ð´": 6796,
      "Ð½ÑıÐ»": 6797,
      "ÑĢÐµÑĩ": 6798,
      "ÑĥÑģÑĤÐ¸": 6799,
      "ÑıÐº": 6800,
      "ĠÑģÑĥÐµÑĤ": 6801,
      "ĠÑģÑĩÐ°ÑģÑĤÑĮÑİ": 6802,
      "ĠÐ½Ð¸ÑĤ": 6803,
      "ĠÐ½ÐµÐ±Ðµ": 6804,
      "ÐºÐ½ÑĥÐ»ÑģÑı": 6805,
      "ĠÐ²Ð°Ð»": 6806,
      "ĠÐ²Ð°ÑĢ": 6807,
      "ĠÐ²ÐµÐ·": 6808,
      "ĠÐ²ÑĢÐ°": 6809,
      "ĠÐ²ÑıÐ»Ð¾": 6810,
      "ĠÐ²Ð¾ÑĪÐ»Ð°": 6811,
      "ĠÐ¸Ð´Ðµ": 6812,
      "Ð²Ð¾Ð¹": 6813,
      "Ð´Ð¸Ð²": 6814,
      "Ð°Ð»Ð»": 6815,
      "Ð°Ð»ÐµÐ¹": 6816,
      "Ð¼Ð°ÑĢ": 6817,
      "ĠÐºÐµÑĢ": 6818,
      "ĠÐºÐ¸Ð¿": 6819,
      "ÑĪÐ¸": 6820,
      "ÑģÑĤÐ°ÑĤÐ¸": 6821,
      "ĠÐ±Ð°Ðº": 6822,
      "ĠÐ±Ð¾Ð³Ð¾": 6823,
      "ĠÐ±Ð¾Ð¶ÐµÑģÑĤÐ²": 6824,
      "ĠÐ±ÐµÐ½Ðµ": 6825,
      "ĠÐ´Ð°Ð¹": 6826,
      "ĠÐ´Ð¾ÑĩÑĮ": 6827,
      "ÐµÐ»Ð¸Ñĩ": 6828,
      "Ð¾Ð»ÐµÐµ": 6829,
      "ĠÐ¼Ð°Ñı": 6830,
      "ĠÐ¼ÑĥÑĤ": 6831,
      "ĠÐ¼ÑıÑģ": 6832,
      "ÑİÐ´Ð¸": 6833,
      "Ð¾Ð¼Ð¸Ð½Ð°Ñı": 6834,
      "Ð¸Ð»Ð¾Ñģ": 6835,
      "ĠÐ·Ð»Ð¾": 6836,
      "ĠÐ¿ÑĢÐµÐº": 6837,
      "Ð¾Ð¹ÑĤÐ¸ÑģÑĮ": 6838,
      "ĠÐ½ÐµÑĥÐ´Ð°": 6839,
      "Ð°ÑĤÐ°Ñı": 6840,
      "ĠÑĢÑĥÐ¶": 6841,
      "ĠÑĢÑĤÐ°": 6842,
      "Ð½ÑĭÑĪ": 6843,
      "Ð¸ÑĤÑĭ": 6844,
      "ĠÐ½Ð°ÑģÐº": 6845,
      "ĠÐ½Ð°ÑģÑĤÐ°": 6846,
      "Ð¾ÑģÑģÐµ": 6847,
      "Ð¾ÑĢÐ°Ð´": 6848,
      "Ð¾ÑĢÑıÐ¶": 6849,
      "Ð°ÑģÑģÐµ": 6850,
      "Ð°Ð²Ð°Ð»Ð¸ÑģÑĮ": 6851,
      "Ð¿Ð¸Ñĩ": 6852,
      "Ð¿Ð¸ÑģÑĮ": 6853,
      "Ð½Ð¸ÑıÐ¼Ð¸": 6854,
      "ÑīÐ¸Ðµ": 6855,
      "ÑīÐµÐ³Ð¾": 6856,
      "ĠÐ»Ð±Ñĥ": 6857,
      "Ð¸Ð²Ð°ÐµÐ¼": 6858,
      "ĠÐ¾ÑĤÐ³": 6859,
      "ĠÐ¾ÑĤÐ¼ÐµÑĤ": 6860,
      "ĠÑģÑĤÐ°": 6861,
      "Ð¾ÐºÐ¾Ð½": 6862,
      "Ð¸Ð¼ÑĭÐµ": 6863,
      "Ð´Ð°ÐµÑĤ": 6864,
      "ĠÐŁÐ¾ÐºÐ°": 6865,
      "Ð°Ð´Ðµ": 6866,
      "Ð°Ð´Ð¾Ð»Ð³Ð¾": 6867,
      "Ð³Ð¾ÑĢÐ¾Ð´": 6868,
      "Ð¸ÑģÐ¾Ð²": 6869,
      "ĠÐĿÐ°ÑĪ": 6870,
      "Ð³Ð»Ð¸": 6871,
      "ĠÐ¿Ð¾ÑıÑģÐ½": 6872,
      "ĠÐ¿Ð¾ÐµÑħÐ°Ð»Ð¸": 6873,
      "Ð¾Ð»ÑĮÑĤÐµ": 6874,
      "ĠÐĴÐ½": 6875,
      "Ð¸ÑĩÑĮ": 6876,
      "ĠÑħÑĢÐ°Ð½": 6877,
      "ÑģÑĤÐ²Ð¸Ðµ": 6878,
      "ĠÐ²ÑĭÑħÐ¾Ð´Ð¸Ð»": 6879,
      "ĠÑĤÐ°ÐºÐ¾Ð¼": 6880,
      "Ð»ÑıÐ¼Ð¸": 6881,
      "Ð»ÑıÑıÑģÑĮ": 6882,
      "ÐµÐºÐ´": 6883,
      "ĠÐ¾Ð±ÑĢÑĭÐ²": 6884,
      "ĠÐ¡Ð¸Ð´": 6885,
      "ĠÐ¿Ð¾Ð´Ð²Ð¸Ð³": 6886,
      "ĠÐ¿Ð¾Ð´ÑĩÐ¸Ð½": 6887,
      "ĠÐ·Ð°Ð¸Ð½ÑĤÐµÑĢÐµÑģ": 6888,
      "ĠÐ¸Ð·Ð´Ð°Ð»ÐµÐºÐ°": 6889,
      "ĠÑģÐºÐ°Ð¼": 6890,
      "ĠÐļÐ°Ð·Ð°Ð»Ð¾ÑģÑĮ": 6891,
      "ÑĭÐ²Ð°Ð»Ð¾ÑģÑĮ": 6892,
      "ĠÑĤÐ¾Ñİ": 6893,
      "ĠÐ¾Ð´ÐµÑıÐ»Ð¾": 6894,
      "ĠÑįÑĤÐ¸Ð¼Ð¸": 6895,
      "ĠÑĪÑĥÑĢ": 6896,
      "ĠÑĪÐ¸Ð¿": 6897,
      "ÐµÐ³Ð°Ð»Ð°": 6898,
      "Ð°Ð±ÑĢ": 6899,
      "ĠÐ¿ÐµÑĢÑĩÐ°ÑĤ": 6900,
      "ĠÑģÐ¿Ð»": 6901,
      "ĠÑģÐ¿ÑĢÐ°Ð²": 6902,
      "ĠÑģÐ¿Ð»ÐµÑĤ": 6903,
      "ĠÑģÐ¿Ð¸Ð½Ð¾Ð¹": 6904,
      "Ð¸ÑĢÐ°ÑıÑģÑĮ": 6905,
      "ĠÐĶÐµÑĤÐ¸": 6906,
      "ĠÐ´Ð²Ð¾Ð¹": 6907,
      "ĠÐ¿Ð¾Ð»Ð°Ð³": 6908,
      "ĠÐ¿Ð¾ÑģÐ¸Ð´": 6909,
      "ĠÐ¿ÑĢÐ¸ÐµÐ·Ð¶Ð°Ð»": 6910,
      "ĠÐ±ÑĥÐ´ÑĮ": 6911,
      "ĠÐ³Ð¾ÑĢÐ¸Ð·": 6912,
      "ĠÐ³Ð¾ÑĢÐµÐ»Ð¸": 6913,
      "ĠÐĳÐ°Ð¼": 6914,
      "ĠÑĩÐµÑĢÐ½Ð¾Ð¼": 6915,
      "ĠÐ³Ð»Ð°Ð·Ð°Ð¼": 6916,
      "Ð°Ð½Ð¸ÑıÐ¼Ð¸": 6917,
      "ÑĢÐ¾ÑģÐ¸ÑĤÑĮ": 6918,
      "Ð»Ð¸Ð²Ð¾Ð³Ð¾": 6919,
      "Ð»Ð¸Ð²Ð¾ÑģÑĤÐ¸": 6920,
      "ĠÑģÑĤÑĢÑĥ": 6921,
      "ĠÑģÑĤÑĢÐµÐ»": 6922,
      "ĠÐ½Ð°Ð´ÐµÐ»": 6923,
      "ÐµÑĨÐ¸": 6924,
      "Ð¸ÑģÑĤÑĭÐ¹": 6925,
      "ĠÑĤÐµÐ¼Ð½Ð¾Ð³Ð¾": 6926,
      "ĠÐĽÐ°Ð²": 6927,
      "ĠÑĥÐ¼Ðµ": 6928,
      "ĠÐ»ÑİÐ´ÑıÑħ": 6929,
      "ĠÐºÐ¾Ð½ÑĤÐ¾ÑĢ": 6930,
      "ĠÐ±ÐµÑģÑĦÐ¾ÑĢ": 6931,
      "ĠÐ´Ð¾Ð¼Ð°ÑĪ": 6932,
      "ĠÑģÑĤÐ°ÑĢÑĭÑħ": 6933,
      "ĠÐ±ÑĢÑİ": 6934,
      "ÑĥÐ»Ð¾Ð²": 6935,
      "Ð´ÑĥÐº": 6936,
      "ÑıÐ¶ÐµÐ»": 6937,
      "ĠÐļÐ°ÐºÐ¾Ðµ": 6938,
      "ĠÐ²Ð¾Ð»Ð¸": 6939,
      "ĠÑĩÑĥÐ²ÑģÑĤÐ²Ð¾Ð²Ð°ÑĤÑĮ": 6940,
      "ĠÐ²Ð¾Ð¾Ð±ÑĢÐ°Ð·": 6941,
      "ĠÐ¼Ð°Ð»ÐµÐ¹": 6942,
      "ĠÐ¿Ð¾Ð·Ð¾ÑĢ": 6943,
      "ĠÑĩÐ°ÑģÐ°Ð¼": 6944,
      "ĠÑĩÐ°ÑģÐ°Ð¼Ð¸": 6945,
      "Ð°ÑİÑīÐ¸ÐµÑģÑı": 6946,
      "ĠÑģÑĤÑĢÐ°ÑĪÐ½ÑĭÐµ": 6947,
      "ĠÑģÑĤÑĢÐ°ÑĪÐ½ÐµÐµ": 6948,
      "ĠÑĥÐ³Ð°Ð´": 6949,
      "ĠÐ±ÐµÐ»Ð¾Ðµ": 6950,
      "ĠÐ¾ÑĤÐºÐ°Ð·ÑĭÐ²": 6951,
      "ĠÐ½Ð¸ÑĩÐµÐ¼": 6952,
      "ĠÑĤÐ¸ÑħÐ°Ñı": 6953,
      "ĠÐ¶ÐµÐ»Ð°Ð½Ð¸Ðµ": 6954,
      "ÑĮÑİÑĤ": 6955,
      "ĠÐ¼Ð¾Ð¶ÐµÑĤÐµ": 6956,
      "ĠÐ¶Ð¸Ð²ÐµÑĤ": 6957,
      "ĠÐ¥ÑĢÐ¸ÑģÑĤ": 6958,
      "ÑıÑīÐ°Ñı": 6959,
      "ĠÐķÐ³Ð¾ÑĢÐ°": 6960,
      "ĠÐ½Ð°Ð·ÑĭÐ²Ð°Ð»": 6961,
      "ĠÐ·Ð°Ð²Ð¸Ð´": 6962,
      "ĠÐ¿Ð¾Ð³Ð¾Ð´Ð°": 6963,
      "ĠÐ¿Ð¾Ð³ÑĢÐµÐ±": 6964,
      "ĠÐ¶Ð°Ð»Ð¾ÑģÑĤÐ¸": 6965,
      "ĠÐ¼Ð¾Ð»Ð¾Ð´ÑĭÐµ": 6966,
      "ĠÐ½ÐµÐ±Ñĥ": 6967,
      "ĠÐ·Ð°Ð³Ð»ÑıÐ½ÑĥÐ»": 6968,
      "ĠÐ¸ÑģÐºÐ°ÑĤÑĮ": 6969,
      "ĠÐ·Ð°ÑģÐ½ÑĥÐ»": 6970,
      "ĠÑĤÐ¾ÑĢÑĩ": 6971,
      "ĠÐ¸Ð³ÑĢÑĭ": 6972,
      "ĠÐ¿Ð¾ÑģÐ»ÐµÐ´Ð½ÑİÑİ": 6973,
      "ĠÐ½Ð°ÑĪÑĥ": 6974,
      "ĠÐºÐ»Ð°ÑģÑģÐµ": 6975,
      "ĠÐ±ÐµÑģÐ¿Ð¾ÐºÐ¾": 6976,
      "ĠÑīÐµÑĤ": 6977,
      "ĠÑĥÐ´Ð¸Ð²Ð¸ÑĤÐµÐ»ÑĮÐ½Ð¾": 6978,
      "ĠÐ¿ÑĢÐ¾ÑģÑĤÐ¸ÑĤÑĥÑĤ": 6979,
      "ĠÐ²ÑĭÐ¿ÑĢÑıÐ¼": 6980,
      "ĠÐ³Ð¾ÑĢÐ¾Ð´Ñĥ": 6981,
      "ĠÐ¨ÑĥÑĢ": 6982,
      "ĠÑĤÑıÐ¶ÐµÐ»ÑĭÐ¼": 6983,
      "ĠÑıÑĢÐºÐ¸Ð¹": 6984,
      "ÑĤÐ¾ÑĩÐºÐ°": 6985,
      "ĠÐ¼ÑĥÐ¶Ð¸Ðº": 6986,
      "ĠÐ²ÑĭÑģÐ¾ÐºÐ¾Ð³Ð¾": 6987,
      "ĠÐ²ÑĭÑģÐ¾ÐºÐ¸Ðµ": 6988,
      "ĠÐ³Ð»ÑıÐ´ÐµÑĤÑĮ": 6989,
      "ĠÐ´ÐµÑĢÐµÐ²Ð¾": 6990,
      "ĠÐ¾ÑĤÐºÑĢÑĭÑĤÐ¾": 6991,
      "ĠÐ¾ÑĤÐºÑĢÑĭÑĤÑĮ": 6992,
      "ĠÑģÐ²Ð¾ÐµÐ¾Ð±ÑĢÐ°Ð·": 6993,
      "ĠÐ³ÑĢÑıÐ·ÑĮ": 6994,
      "ĠÐ²ÐµÐ»Ð¸ÐºÐ¸Ð¹": 6995,
      "ĠÑĤÐ°Ñī": 6996,
      "Ð¸ÑĢÐ°ÐµÑĤ": 6997,
      "ĠÐ¿ÑĢÐ¸Ð´ÑĥÐ¼": 6998,
      "ĠÐ»Ð¸ÑĤÐµÑĢÐ°ÑĤÑĥÑĢÐ½ÑĭÐµ": 6999,
      "ÑĥÑİÑīÐ¸Ð¼": 7000,
      "ĠÐ²ÑģÑĤÑĢÐµÑĩÐ¸": 7001,
      "ĠÐ¿ÑĢÐ¸Ð·ÑĭÐ²": 7002,
      "ĠÑģÐ²ÐµÑĢÑħ": 7003,
      "ĠÑĢÐ°Ð·Ð³Ð¾Ð²Ð¾ÑĢÐ¾Ð²": 7004,
      "ĠÐ½Ð°ÑħÐ¾Ð´Ð¸Ð»Ð°ÑģÑĮ": 7005,
      "ĠÐºÑĢÐµÐ¿ÐºÐ¸Ð¼": 7006,
      "ĠÐ¼ÐµÐ»Ð¾Ñĩ": 7007,
      "Ð¸ÑģÐºÐ¸": 7008,
      "ĠÐºÐ¾Ð½ÑĩÐ¸Ð»Ð¾ÑģÑĮ": 7009,
      "ĠÐ¡ÐºÐ¾Ð»ÑĮÐºÐ¾": 7010,
      "ĠÑĪÐµÐ¿ÑĤ": 7011,
      "ĠÐĳÑĭÐ»Ð°": 7012,
      "ĠÐ¾ÑģÑĤÑĢÑĭÐ¹": 7013,
      "Ð°ÐµÑĪÑĮÑģÑı": 7014,
      "ĠÑģÐ´ÐµÐ»Ð°": 7015,
      "ÑİÑĪÐºÐ¸": 7016,
      "ĠÑĥÑĤÑĢÐ°Ð¼": 7017,
      "ĠÑĩÐ°ÑģÑĤÑĮ": 7018,
      "ĠÐ¢Ð¾Ð»ÐºÐ°Ñĩ": 7019,
      "ĠÐ·Ð°Ð¼ÐµÑĩÐ°ÐµÑĤ": 7020,
      "ĠÐ°Ð½ÐµÐºÐ´": 7021,
      "Ð»Ð¾Ð¶Ð¸Ð»": 7022,
      "ĠÑĢÐ°ÑģÐºÐ°Ð»": 7023,
      "ĠÑĢÐ°ÑģÐºÑĢÑĭÐ»": 7024,
      "ĠÐ´Ð¸ÐºÐ¾Ð¹": 7025,
      "ĠÐ¿ÑĢÐ¸Ð¿Ð°Ð´": 7026,
      "ĠÐ¾ÑĤÑĩÐ°ÑıÐ½Ð¸Ðµ": 7027,
      "ĠÐ²Ð°Ð¶Ð½ÑĭÐ¼": 7028,
      "ĠÑĢÐµÐ·ÑĥÐ»ÑĮÑĤ": 7029,
      "ĠÑĥÐºÐ°Ð·": 7030,
      "ĠÑĪÑĥÑĤÐºÑĥ": 7031,
      "ĠÐ¼Ð°ÑģÐ»Ð°": 7032,
      "ĠÑĢÐµÐºÐ°": 7033,
      "ĠÑħÐ¾Ð·ÑıÐ¸Ð½": 7034,
      "ĠÑģÑĤÑĥÐ´ÐµÐ½ÑĤÐ¾Ð²": 7035,
      "ÑĩÐµÑģÐºÐ¾Ð¹": 7036,
      "ĠÐ±Ð°Ð±Ð°": 7037,
      "ĠÐ¿ÑĢÐ¸ÑĩÐµÐ¼": 7038,
      "ĠÑĩÐµÐ»Ð¾Ð²ÐµÑĩÐµÑģÐºÐ¾Ð¹": 7039,
      "ĠÐ³Ð½ÐµÐ²Ð°": 7040,
      "ĠÐ¸ÑģÑĩÐµÐ·Ð»Ð°": 7041,
      "ĠÐ´Ð²Ð¸Ð³Ð°Ð»Ð¸ÑģÑĮ": 7042,
      "ÐµÑĤÐµÐ»ÑĮÐ½Ð¸ÑĨÐ°": 7043,
      "ĠÐ³Ð¾Ð»ÑĥÐ±ÑĩÐ¸Ðº": 7044,
      "ĠÑģÐµÑģÑĤÑĢÑĭ": 7045,
      "ĠÑģÑĤÐµÐºÐ»Ð°": 7046,
      "ĠÐ²Ð°Ð³Ð¾Ð½Ðµ": 7047,
      "ĠÐ·Ð°Ð¿Ð°ÑħÐ¾Ð¼": 7048,
      "ĠÐ¾Ð±ÑĬÑıÑģÐ½Ð¸ÑĤÑĮ": 7049,
      "ĠÐ½ÐµÐ·Ð½Ð°ÐºÐ¾Ð¼ÑĭÐµ": 7050,
      "ĠÑĢÑĥÐ³Ð°ÑĤÐµÐ»ÑĮ": 7051,
      "ĠÐĵÐ¾ÑģÐ¿Ð¾Ð´Ð¸Ð½": 7052,
      "ĠÐ¿Ð¾Ð¹Ð´ÐµÐ¼": 7053,
      "ĠÐ¸ÑģÐºÑĢÐµÐ½Ð½Ð¾": 7054,
      "ĠÐ¸ÑģÑĤÐ¾ÑĢÐ¸Ð¸": 7055,
      "ĠÐ¾Ð²ÑĢÐ°Ð³": 7056,
      "ĠÐ¾Ð±ÑıÐ·Ð°ÑĤÐµÐ»ÑĮÐ½Ð¾": 7057,
      "ĠÑĨÐµÐ»Ð¾Ð²Ð°Ð»": 7058,
      "ĠÐ¿Ð°Ð¿Ð¸ÑĢÐ¾ÑģÑĭ": 7059,
      "ĠÐ¾ÑĤÐ²ÐµÑĢÐ½ÑĥÐ»ÑģÑı": 7060,
      "ĠÐ±Ð¸Ð»ÐµÑĤ": 7061,
      "ĠÑĢÑĥÐ±Ð»ÑĮ": 7062,
      "ĠÐºÑĢÐ°Ð¹Ð½ÐµÐ¹": 7063,
      "ĠÐ´Ð¸Ð²Ð°Ð½": 7064,
      "ĠÐ¾Ð±Ð¾ÑĢÐ²Ð°Ð½": 7065,
      "ĠÐĳÑĥÐ´ÐµÑĤ": 7066,
      "ĠÐºÑĥÑħÐ½Ðµ": 7067,
      "ĠÐºÑĥÐ»Ð°ÐºÐ¾Ð¼": 7068,
      "ĠÐ¸ÑģÐ¿ÑĭÑĤÑĭÐ²Ð°Ð»": 7069,
      "ĠÐ·Ð²ÐµÑĢÑı": 7070,
      "ĠÐ´Ð¾Ð½ÐµÑģ": 7071,
      "ĠÐ½Ð°ÑģÑĤÑĥÐ¿Ð¸Ð»Ð°": 7072,
      "ĠÑĤÐµÐ»ÐµÐ³ÑĢÐ°Ð¼": 7073,
      "ĠÐ¼Ð¾ÐºÑĢÑĭÐµ": 7074,
      "ĠÐ·Ð°Ð´ÑĭÑħÐ°ÑıÑģÑĮ": 7075,
      "ĠÐĵÐ¾ÑĢÑĮÐºÐ¾Ð³Ð¾": 7076,
      "ĠÐ¸Ð·Ð²Ð¾Ð·ÑĩÐ¸ÐºÐ°": 7077,
      "ĠÑģÐ¾Ð¾Ð±ÑīÐ¸Ð»": 7078,
      "ĠÐ²ÐµÐ»Ð¸ÑĩÐ°Ð²": 7079,
      "ĠÐ¿ÑĢÐµÐ´Ð¿Ð¾Ð»Ð¾Ð¶": 7080,
      "ĠÐºÐ½Ð¸Ð¶ÐºÑĥ": 7081,
      "ĠÐ²Ð¾Ð·Ð¼Ð¾Ð¶Ð½Ð¾ÑģÑĤÑĮ": 7082,
      "ĠÑģÑĤÐ¸ÑħÐ¸": 7083,
      "ĠÑĢÐµÐ´Ð°ÐºÑĨÐ¸Ð¸": 7084,
      "ĠÐ³ÑĢÐ°Ð½Ð¸ÑĨÑĥ": 7085,
      "ĠÐ¿ÑĢÐ¾ÑħÐ¾Ð¶": 7086,
      "ĠÐłÐ°ÑģÑģÐºÐ°Ð·": 7087,
      "ĠÐ¿Ð¾ÐºÐ°Ð·Ð°Ð»Ð°ÑģÑĮ": 7088,
      "ĠÑģÑĤÐ°Ð½ÐµÑĤ": 7089,
      "ĠÐ¾ÑĤÐ·ÑĭÐ²": 7090,
      "ĠÐļÐ°Ð¶Ð´ÑĭÐ¹": 7091,
      "ĠÐ¼Ð³Ð½Ð¾Ð²ÐµÐ½Ð¸Ðµ": 7092,
      "ĠÐļÑĥÑģÐ°ÐºÐ°": 7093,
      "ĠÐĵÐ°Ð²ÑĢÑİÑĪÐºÐ°": 7094,
      "ĠÐ¿ÑĢÐ¾ÑĤÑıÐ½ÑĥÐ»Ð°": 7095,
      "ĠÐ¾Ð±ÑĢÐ°Ð´Ð¾Ð²Ð°Ð»ÑģÑı": 7096,
      "ĠÐ¾ÑĤÐ²ÑĢÐ°ÑīÐµÐ½Ð¸ÐµÐ¼": 7097,
      "ĠÐ²Ð¾ÑģÐºÐ»Ð¸ÐºÐ½ÑĥÐ»": 7098,
      "ĠÑİÐ½Ð¾ÑĪÐ°": 7099,
      "ĠÐ¡ÐµÐ¼ÐµÐ½Ð°": 7100,
      "ĠÐ¿ÑĢÐ¸Ð¾Ð±ÑĢÐµÑĤ": 7101,
      "ĠÑĢÐ¸ÑģÑĥÐ½Ð¾Ðº": 7102,
      "ĠÐ²Ð¾ÑĪÐ»Ð¸": 7103,
      "Ð°Ð½Ð´Ð°ÑĢ": 7104,
      "ĠÐ½ÐµÑħÐ¾ÑĢÐ¾ÑĪÐ¾": 7105,
      "ĠÑĢÐµÐ¿Ð¾ÑĢÑĤÐµÑĢ": 7106,
      "ĠÑĢÐ°Ð·Ð½Ð¾Ð¾Ð±ÑĢÐ°Ð·": 7107,
      "ĠÐ³Ð¾ÑĢÐ½Ð¸ÑĩÐ½Ð°Ñı": 7108,
      "ĠÐĲÐ²ÑĢÐ°Ð¼Ð¾Ð²": 7109,
      "ĠÐ½Ð¸Ð¶Ðµ": 7110,
      "ĠÐĴÐ¾ÑģÐºÑĢÐµÑģ": 7111,
      "ĠÐĴÐ·Ð³": 7112,
      "ĠÑĥÐ±ÐµÐ¶Ð´ÐµÐ½": 7113,
      "ĠÐ½ÐµÑĥÐ¼Ð¾Ð»": 7114,
      "ĠÐ´Ð¾ÑĩÐµÑĢÐ¸": 7115,
      "ĠÐ¿ÑĢÐ¾ÑĦÐµÑģÑģ": 7116,
      "ĠÐĽÐ¸Ð»ÐµÑĩÐºÐ°": 7117,
      "ĠÑģÐ»ÑĥÑĩÐ°ÑıÑħ": 7118,
      "ĠÐ½Ð°ÑģÐ»Ð°Ð¶Ð´": 7119,
      "ĠÐ¾ÑĤÐ¾Ð·Ð²Ð°Ð»ÑģÑı": 7120,
      "ĠÑģÑĥÐ´Ð¾ÑĢÐ¾Ð¶Ð½Ð¾": 7121,
      "ĠÐķÐ²Ð¿ÑĢÐ°ÐºÑģÐ¸Ñı": 7122,
      "ĠÑĢÐ°ÑģÐ¿ÑĢÐ¾ÑģÑĤÑĢÐ°Ð½": 7123,
      "ĠÐĶÑĥÐ½Ñı": 7124,
      "ĠÐ¥Ð¸Ð¶Ð½ÑıÐºÐ¾Ð²": 7125,
      "ĠÑĤÐ°ÑĢÐµÐ»": 7126,
      "ĠÐļÑĥÐ²ÑĪÐ¸Ð½Ð½Ð¸ÐºÐ¾Ð²": 7127,
      "ĠÑģÐ¾Ð±Ð»Ð°Ð·Ð½": 7128,
      "ĠÐļÐ¾ÑģÑĤÑİÑĢÐ¸Ð½": 7129,
      "ÑĢÐ¸ÑģÑĤÐ¾Ñģ": 7130,
      "Ð¸Ð»Ð¸Ð½Ð´ÑĢ": 7131,
      "ĠÐ½ÐµÑģÑĤÐµÑĢÐ¿": 7132,
      "ĠÐ³Ð¸Ð³Ð°Ð½ÑĤ": 7133,
      "ĠÐŁÐ¾Ð¼ÐµÑĢÐ°Ð½ÑĨ": 7134,
      "ĠÐºÐ¸ÑĢÐ¿Ð¸Ñĩ": 7135,
      "ĠÐ¾Ð±Ð½Ð°ÑĢÑĥÐ¶": 7136,
      "ĠÐ²ÑĢÐ°ÑĩÐ°": 7137,
      "ĠÐºÐµÑĢÐ¾Ñģ": 7138,
      "Ñĳ": 7139,
      "ÑĤÑĭÑħ": 7140,
      "Ð¸ÐµÐ¹": 7141,
      "ÑģÐ¾Ð½": 7142,
      "Ð½Ð¾Ðº": 7143,
      "Ð½Ð¾Ð¶": 7144,
      "Ð»ÑĥÑħ": 7145,
      "ÑĢÐ¾Ð¹": 7146,
      "ÑĢÐ¸Ð²": 7147,
      "ÑĢÑıÐ´": 7148,
      "ÑĭÑĪÐµ": 7149,
      "ĠÑģÐ°ÑĢ": 7150,
      "ĠÑģÐ¾Ð¶": 7151,
      "ĠÑģÑĥÑĤ": 7152,
      "ĠÑģÐ½Ðµ": 7153,
      "ĠÑģÐ¾ÑģÑĤ": 7154,
      "ĠÐ¿Ð°Ðº": 7155,
      "ĠÐ¿ÐµÐ¹": 7156,
      "ĠÐ¿ÐµÐ½Ð¸Ðµ": 7157,
      "ĠÐ¿ÑĥÐ·": 7158,
      "ÐºÐ°ÑĤÑĮ": 7159,
      "ĠÐ²ÑıÐ·": 7160,
      "ĠÐ²Ð½Ð°ÑĩÐ°Ð»Ðµ": 7161,
      "ĠÐ¾ÑĤÐ¾ÑĢ": 7162,
      "Ð´ÑĥÐ¼": 7163,
      "Ð°Ð»Ð¸Ð¼": 7164,
      "Ð¼Ð¾Ð¹": 7165,
      "ÑĤÐ¾ÑĪÐµ": 7166,
      "ÑħÐ¸": 7167,
      "ĠÐºÐ°Ð½Ð¸": 7168,
      "Ð¾Ð²ÑģÑİÐ´Ñĥ": 7169,
      "ÐµÐ½ÐºÑĥ": 7170,
      "ĠÑĤÐ¸ÑĪÐµ": 7171,
      "Ð¾Ð»ÐµÑĤ": 7172,
      "ÑİÑīÐµÐµ": 7173,
      "ĠÐ¿ÑĢÐ°ÐºÑĤ": 7174,
      "Ð°ÑĤÐ¾Ð¼": 7175,
      "ĠÑĢÑı": 7176,
      "ĠÑĢÐ¾Ð»Ð¸": 7177,
      "ĠÐµÐ²": 7178,
      "Ð°Ð·ÑĥÐ¼": 7179,
      "ÐµÐ¼Ð¾Ð½": 7180,
      "Ð°Ð²Ð°Ð»ÑģÑı": 7181,
      "ĠÑĥÑĤÐ¾Ð½": 7182,
      "ĠÑĥÑģÑĤÑĥÐ¿": 7183,
      "ĠÑĥÐ»Ð¸Ñĩ": 7184,
      "ĠÐ»ÑĥÐ¶": 7185,
      "Ð¾ÑĤÐ¾Ð¹": 7186,
      "Ð¸Ð²Ð°Ñİ": 7187,
      "ĠÐ¶Ð¸ÑĢ": 7188,
      "ĠÐ¶Ð°Ð¶Ð´": 7189,
      "Ð·Ð¸ÑĢ": 7190,
      "Ð¾Ð½Ð°Ñħ": 7191,
      "ĠÐ¾ÑĤÑĢÐ°Ð²": 7192,
      "Ð°Ð½Ð½Ð¾Ð¼": 7193,
      "ĠÑģÑĤÐ°ÑĤ": 7194,
      "Ð¸Ð½ÐºÐ°": 7195,
      "ĠÐŁÑĥÑģÑĤ": 7196,
      "ĠÑıÑī": 7197,
      "Ð³ÑĢ": 7198,
      "Ð°ÑıÐ½": 7199,
      "ĠÐ¿Ð¾Ñī": 7200,
      "ÐµÐ²Ð°Ð»Ð¸": 7201,
      "ÐµÐ²Ð°Ð»ÑģÑı": 7202,
      "ÐµÐ²ÑĪÐµÐµ": 7203,
      "Ð¾Ð»ÑĮÑĨÐµÐ²": 7204,
      "Ð½ÑĥÑģÑĮ": 7205,
      "Ð¸ÑħÐ¾": 7206,
      "ÐºÐ¾ÑĪ": 7207,
      "Ð¶ÐµÑĤ": 7208,
      "ĠÐ¾Ð±ÑħÐ¾Ð´": 7209,
      "Ð¾Ð·Ð°": 7210,
      "ĠÐ¡ÑĥÐ´": 7211,
      "ĠÐ¡Ð¾Ð³Ð»Ð°Ñģ": 7212,
      "ĠÑģÐ»Ñİ": 7213,
      "ĠÑģÐ»Ð¾Ð¼": 7214,
      "ĠÐ½Ð¾ÑıÐ±": 7215,
      "ÐµÐ½ÑĮÐºÐ¸": 7216,
      "ĠÐ¿Ð¾Ð´Ð»Ð¸Ð½": 7217,
      "ĠÐ¿Ð¾Ð´ÑħÐ¾Ð´Ð¸Ð»": 7218,
      "ĠÐ¿Ð¾Ð´Ð¾ÐºÐ¾Ð½": 7219,
      "ĠÐ·Ð°ÑĤÐ¾": 7220,
      "ĠÐºÑĢÐ¸ÐºÐ°": 7221,
      "ĠÐļÑĢÐ°Ð²": 7222,
      "ĠÐļÐ¾Ð»Ñı": 7223,
      "ĠÑĢÐ°Ð·Ð¾ÑĪÐ»Ð¸ÑģÑĮ": 7224,
      "ĠÐ§ÐµÐ¼": 7225,
      "ĠÐ¢ÐµÐ±Ñı": 7226,
      "ĠÐ¢Ð¾Ð¶Ðµ": 7227,
      "ĠÐ¾Ð´Ð½Ð¾Ð²": 7228,
      "Ð¾Ð¿ÑĭÑĢ": 7229,
      "Ð¾ÑĩÐ½ÑĭÐ¹": 7230,
      "ĠÑĪÐµÑģÑĤ": 7231,
      "Ð°Ð±Ð¾Ñĩ": 7232,
      "ĠÑģÐ¼ÑıÐ³Ñĩ": 7233,
      "ĠÐ¿ÐµÑĢÐµÐ¼": 7234,
      "Ð¾ÑģÑĤÐ¸Ð¶": 7235,
      "ĠÑģÐ¿Ð¸Ñģ": 7236,
      "Ð¸ÑĢÐ°Ð»Ð¸": 7237,
      "ĠÐĶÐ²Ð°": 7238,
      "ĠÐĶÐ½ÐµÐ¼": 7239,
      "Ð°Ð»ÑĮÐ½Ð°Ñı": 7240,
      "Ð°Ð»ÑĮÑĪÐµ": 7241,
      "ĠÑĢÐ°ÑģÑħ": 7242,
      "ĠÐ¿Ð¾Ð»Ð½ÑĭÐµ": 7243,
      "ĠÐ¿Ð¾Ð»Ð½Ð¾Ðµ": 7244,
      "ĠÐ¿ÑĢÐ¸Ñī": 7245,
      "ĠÑĤÑĢÐµÑī": 7246,
      "Ð¸ÑĤÐµÐ»ÑĮÐ½ÑĥÑİ": 7247,
      "Ð¸ÑĤÐµÐ»ÑĮÐ½ÐµÐµ": 7248,
      "Ð°ÑħÐ°Ð»": 7249,
      "ĠÐ¿Ð¾ÐºÑĢÑĭ": 7250,
      "ĠÐ²Ð¸Ð´Ñı": 7251,
      "ÐµÐ»Ð¾Ð²ÐµÐº": 7252,
      "ĠÐ³Ð¾ÑĢÐ±": 7253,
      "ÑĤÐ¸Ñİ": 7254,
      "Ð¾ÑĤÑĢÐµÐ±": 7255,
      "ĠÐ¾ÑĩÐµÑĢÑĤ": 7256,
      "ÑĦÑĥ": 7257,
      "ĠÑĨÐ¸Ð»Ð¸Ð½Ð´ÑĢ": 7258,
      "ĠÐ»ÑİÐ±Ð¸ÑĪÑĮ": 7259,
      "Ð»Ð¸Ð²Ð°Ñı": 7260,
      "ÑĥÑħÐ¾Ð²": 7261,
      "ĠÑĦÐ»Ð¸Ð³": 7262,
      "ĠÐ±Ð»ÐµÑģÐº": 7263,
      "ĠÐ¾Ð¿ÑĥÑī": 7264,
      "ÑĮÑıÐ½": 7265,
      "ĠÐ¸Ð¼ÐµÑİ": 7266,
      "ĠÑĤÐµÐ¼Ð¸": 7267,
      "ÐµÐ½ÑĮÐºÐ¸Ð¼": 7268,
      "ÐµÐ½ÑĮÐºÐ¸Ñħ": 7269,
      "ĠÑģÑĤÑĢÐ°Ð½Ð¸ÑĨ": 7270,
      "Ð°ÑĩÐºÐ°": 7271,
      "ĠÐĽÐ¸Ð´": 7272,
      "ÑĢÐ°Ð·Ð´": 7273,
      "ĠÑĥÐ¼Ð¸ÑĢÐ°Ð»": 7274,
      "ĠÑĥÐ¼ÑĢÐµÑĤ": 7275,
      "ĠÐĹÐ°ÑĢ": 7276,
      "ĠÑģÐ¾Ð±ÑĢÐ°": 7277,
      "ĠÑĩÐµÐ»Ð¾Ð²ÐµÐºÐµ": 7278,
      "ĠÐ½Ð¸ÐºÑĥÐ´Ð°": 7279,
      "ĠÐºÐ¾Ð½ÑĮÑı": 7280,
      "Ð°ÑĪÐºÑĥ": 7281,
      "ĠÐ¿Ð¾Ð½ÑıÑĤÐ½Ð¾": 7282,
      "ĠÐ¿Ð¾Ð½ÑıÐ»Ð°": 7283,
      "ĠÐ±ÑĢÐ¾Ð²": 7284,
      "ĠÐ±ÑĢÐ¾Ð½": 7285,
      "Ð¸Ð²ÑĪÐ¸Ð¼": 7286,
      "Ð¸Ð²ÑĪÑĥÑİÑģÑı": 7287,
      "ĠÐ½ÐµÐ¼ÐµÑĨ": 7288,
      "ÑĥÑģÑĤÐ¾ÑĪ": 7289,
      "ĠÐºÑĢÐ°ÑģÐ½ÑĭÐ¼": 7290,
      "ĠÑħÐ¾ÑĢÐ¾ÑĪÐ°Ñı": 7291,
      "ĠÐ´ÐµÐ»Ð°Ð»Ð¾ÑģÑĮ": 7292,
      "ĠÐĲÐ½ÑĤÐ¾Ð½Ð¾Ð¼": 7293,
      "ĠÐ·Ð°ÐºÑĥÑģ": 7294,
      "ĠÑĢÐ°ÑģÑģÐºÐ°Ð·ÑĭÐ²Ð°Ð»Ð°": 7295,
      "ĠÐŁÐ°Ð²Ð»Ð¾Ð²Ð¸ÑĩÐµÐ¼": 7296,
      "ĠÐ¿Ð¾Ð·Ð²Ð°Ð»": 7297,
      "ĠÐ²Ð¾ÑģÐºÐ¾Ð²": 7298,
      "ĠÐ´ÐµÑĢÐ³": 7299,
      "ĠÑģÑĤÑĢÐ°ÑĪÐ½ÑĥÑİ": 7300,
      "ĠÑĢÐ°Ð´Ð¾Ð²Ð°Ð»ÑģÑı": 7301,
      "ĠÑģÑĤÐ¾Ð»Ð±": 7302,
      "ĠÐ¿ÑĢÐ¾ÑĤÐµÑģÑĤ": 7303,
      "ĠÐ½ÐµÐ²ÑĭÑģ": 7304,
      "ĠÑĥÐ»ÑĭÐ±Ð°ÐµÑĤÑģÑı": 7305,
      "ĠÑĥÐ»ÑĭÐ±Ð°ÑıÑģÑĮ": 7306,
      "ĠÐ¶Ð¸Ð²Ð¾": 7307,
      "Ð¸ÑĩÐµÑģÐºÐ¾Ð¼": 7308,
      "ĠÐºÐ¾ÑĢÐ¾Ð±": 7309,
      "ĠÐ½ÑĥÐ¶Ð½Ð°": 7310,
      "ĠÑģÐµÑĢÐ´ÑĨÐµÐ¼": 7311,
      "ĠÐ¿ÐµÑĢÐ²Ð¾Ð¼": 7312,
      "ĠÐ²ÑģÑıÐºÐ¾Ð¹": 7313,
      "ĠÑħÐ¾Ð»Ð¾Ð´Ð½ÑĭÐ¼": 7314,
      "ĠÑħÐ¾Ð»Ð¾Ð´Ð½Ð°Ñı": 7315,
      "ĠÐ¼Ð¾Ð»ÑĩÐ°Ð½Ð¸Ñı": 7316,
      "ĠÑģÑĤÑĢÐ°Ð½Ð½ÑĭÐµ": 7317,
      "ĠÐŀÑĤÐºÑĥÐ´Ð°": 7318,
      "ĠÐ½ÐµÐ±ÐµÑģ": 7319,
      "ĠÑģÐ¼ÐµÑİÑĤÑģÑı": 7320,
      "ÑİÑīÐµÐ³Ð¾": 7321,
      "ĠÐ¿ÐµÑĩÐ°Ð»Ð¸": 7322,
      "ĠÑģÐ´ÐµÐ»Ð°Ð²": 7323,
      "ĠÑģÐ´ÐµÐ»Ð°Ð»Ð¾ÑģÑĮ": 7324,
      "ĠÐ¡ÐµÑĢÐ³Ðµ": 7325,
      "ĠÐ½Ð°ÑĪÐ»Ð¸": 7326,
      "ĠÐ»ÐµÐ¶Ð°ÑĤÑĮ": 7327,
      "ĠÐ¡ÑĤÑĥÐ¿Ð°Ð¹": 7328,
      "ĠÐ¼Ð¸Ð»ÑĭÑħ": 7329,
      "ĠÑħÐ¾Ð´Ñĥ": 7330,
      "ĠÑĥÐ²Ð¸Ð´Ð¸ÑĤ": 7331,
      "ĠÐºÐ½Ð¸Ð³Ðµ": 7332,
      "ĠÑĢÐ°ÑģÑģÑĭÐ¿": 7333,
      "ĠÐ¾ÑģÐ¾Ð±ÐµÐ½Ð½Ð¾Ð¹": 7334,
      "ÐµÐ²ÑĪÐµÐ³Ð¾": 7335,
      "ĠÐ·Ð½Ð°ÐºÐ¾Ð¼ÑģÑĤÐ²Ð¾": 7336,
      "ĠÑĥÐ´Ð¸Ð²Ð¸Ð»Ð°ÑģÑĮ": 7337,
      "ĠÑĥÐ´Ð¸Ð²Ð»ÐµÐ½Ð½Ð¾": 7338,
      "ĠÑĥÐ´Ð¸Ð²Ð»ÐµÐ½Ð¸ÐµÐ¼": 7339,
      "ÑĢÐ°ÑĪÐ¸Ð²Ð°Ð»": 7340,
      "ĠÐ¿ÑĢÐ¸Ð½ÑıÐ»": 7341,
      "ĠÑĨÐµÐ»ÑĭÐ¼": 7342,
      "ĠÐ½Ð°ÐºÐ°Ð·": 7343,
      "ĠÐºÐ°Ð¼ÐµÐ½Ð½ÑĭÑħ": 7344,
      "ÑĤÐ¾ÑĩÐºÐ¸": 7345,
      "ÑĤÐ¾ÑĩÐºÑĥ": 7346,
      "ĠÑĢÐ°ÑģÐ¿Ð¾ÑĢÑıÐ¶": 7347,
      "ĠÐµÐ´ÐµÑĤ": 7348,
      "ĠÐ²ÐµÑģÐµÐ»Ð¾Ð¹": 7349,
      "ĠÐ²ÐµÑģÐµÐ»ÑĭÐ¼": 7350,
      "ĠÐ¿ÑĢÐµÐ´ÑģÑĤÐ°Ð²Ð»ÐµÐ½Ð¸Ðµ": 7351,
      "ĠÐ²ÑĭÑģÐ¾ÐºÐ¸Ñħ": 7352,
      "ĠÐ³ÑĢÑıÐ·Ð½ÑĭÐµ": 7353,
      "ĠÐ·Ð»Ð¾Ð±Ð½Ð¾": 7354,
      "ĠÐºÐ¾Ð¼Ð¼ÐµÑĢ": 7355,
      "ĠÐ±Ð¾ÑıÐ»Ð°ÑģÑĮ": 7356,
      "Ð¸ÑĢÐ°ÐµÑĤÑģÑı": 7357,
      "ĠÐ»Ð¸ÑĤÐµÑĢÐ°ÑĤÑĥÑĢÑĭ": 7358,
      "ĠÐ²Ð¾ÑĢÐ°": 7359,
      "ĠÐ¼ÑĭÑģÐ»ÑĮÑİ": 7360,
      "ĠÐ½ÐµÐ¶Ð½Ð¾ÑģÑĤÑĮÑİ": 7361,
      "ĠÐ¿Ð»Ð°ÑĩÐ°": 7362,
      "ĠÐºÑĢÐ°ÑģÐ¸Ð²ÑĭÐµ": 7363,
      "ĠÐ¿ÑĢÐ¸Ð·Ð½Ð°": 7364,
      "ĠÐ¿Ð¾Ð»ÑĥÑĩÐ¸Ð»Ð°": 7365,
      "ĠÑģÐ»Ð°Ð±ÑĭÐ¹": 7366,
      "ĠÑĢÐ°Ð·Ð³Ð¾Ð²Ð¾ÑĢÑĭ": 7367,
      "ĠÐ±ÑĢÐ¾ÑģÐ¸Ð»ÑģÑı": 7368,
      "ĠÐ¼ÐµÑģÑĤÑĥ": 7369,
      "ĠÐ²Ð°ÑĪÑĥ": 7370,
      "ĠÐ²Ð·Ð´ÑĭÑħ": 7371,
      "ĠÑĥÑĩÐ¸Ð»Ð¸": 7372,
      "ĠÐ¿ÑĢÐ¾Ð²ÐµÐ»": 7373,
      "ĠÐ¿ÑĢÐ¾Ð²Ð¸Ð½": 7374,
      "ĠÐºÐ°Ð¿ÐµÐ»ÑĮ": 7375,
      "ĠÐ¿ÑĢÐµÐºÑĢÐ°ÑģÐ½Ð°": 7376,
      "ĠÐ±Ð¾Ð³Ð¾Ð¼": 7377,
      "ĠÐ¿Ð¾Ð´Ð½Ð¸Ð¼Ð°Ð»ÑģÑı": 7378,
      "ĠÐ¾Ð±ÐµÐ´Ð½Ð¸": 7379,
      "ĠÐ¾Ð±ÐµÐ´Ð°ÑĤÑĮ": 7380,
      "ĠÐ³Ð¾ÑĢÑıÑĩÐ¸Ð¹": 7381,
      "ĠÐ¾ÑģÑĤÑĢÐ¾Ð¹": 7382,
      "ĠÐ¶ÐµÐ»ÐµÐ·Ð½Ð¾Ð´": 7383,
      "Ð¸ÑĤÐµÐ»ÐµÐ¼": 7384,
      "ĠÐ·Ð°Ð¼ÐµÑĩÐ°Ð»": 7385,
      "ĠÐ³Ð»ÑĥÐ±Ð¾ÐºÐ¾Ð³Ð¾": 7386,
      "ĠÐ´ÐµÑģÑıÑĤÐ¸": 7387,
      "ĠÐ¾ÑĤÑĩÐ°ÑıÐ½Ð¸Ð¸": 7388,
      "ĠÐ¸ÑģÐ¿ÑĥÐ³Ð°Ð»Ð°ÑģÑĮ": 7389,
      "ĠÐ³Ð¾ÑģÑĤÐ¸Ð½Ð¾Ð¹": 7390,
      "ĠÑĥÐºÐ°Ð·ÑĭÐ²": 7391,
      "ĠÐ¾Ð±ÑĭÐºÐ½Ð¾Ð²ÐµÐ½Ð¸Ñİ": 7392,
      "ĠÐ¼Ð½Ð¾Ð³Ð¸Ñħ": 7393,
      "ĠÑģÐ½ÐµÐ³Ð°": 7394,
      "ĠÐ¿ÑĢÐ¾Ð¸Ð·Ð²Ð¾Ð´": 7395,
      "ĠÐ»Ð°Ð¼Ð¿Ð°": 7396,
      "ĠÐ»Ð°Ð¼Ð¿Ñĭ": 7397,
      "ĠÐ¿ÑĢÐ¸Ð»Ð¸Ñĩ": 7398,
      "ĠÑĥÑħÐ¾Ð´Ð¸ÑĤ": 7399,
      "ĠÑĥÑħÐ¾Ð´Ð¸ÑĤÑĮ": 7400,
      "ĠÐºÑĢÑĥÐ¶Ð¸Ð»Ð¸ÑģÑĮ": 7401,
      "ĠÐ³Ð¾ÑĢÐ´Ð¾": 7402,
      "ĠÑģÐµÐ¼ÑĮÐµ": 7403,
      "ĠÑĦÐ¾ÑĢÐ¼Ñĥ": 7404,
      "ĠÐ³Ð½ÐµÐ²Ð¾Ð¼": 7405,
      "ĠÑģÐµÐ»ÐµÐ´": 7406,
      "ĠÐ±ÑĥÐ¼Ð°Ð³Ñĥ": 7407,
      "ĠÐ²Ð´Ð¾Ð»ÑĮ": 7408,
      "ĠÐ´ÑĮÑıÐºÐ¾Ð½Ð°": 7409,
      "ĠÐ¾ÑĤÑģÑİÐ´Ð°": 7410,
      "ĠÐ±ÐµÑĢÐµÐ³Ð°": 7411,
      "ĠÑħÐ²Ð¾ÑģÑĤÐ¾Ð¼": 7412,
      "ĠÑĨÐ°ÑĢÐ°Ð¿": 7413,
      "ĠÐĽÐµÐ²Ð¸ÑĤÐ°Ð½Ð°": 7414,
      "ĠÐĴÐ¾Ð¾Ð±ÑīÐµ": 7415,
      "ĠÐ¿ÑĢÐ¾ÑħÐ¾Ð´Ð¸Ð»Ð°": 7416,
      "ĠÐ¸Ð·Ð±Ð°Ð²": 7417,
      "ĠÐ¼ÑĥÐ·ÑĭÐºÑĥ": 7418,
      "ĠÑģÑĤÑĥÑĩÐ°Ð»Ð¸": 7419,
      "ĠÐºÑĢÑĭÑĪÐ¸": 7420,
      "ĠÐ¼ÐµÑĤÐ°Ð»Ð»": 7421,
      "ÑĤÑıÐ±": 7422,
      "ĠÐ·Ð¾Ð²ÐµÑĤ": 7423,
      "ĠÐ¿Ð¾ÑģÑĤÐ°Ð²Ð¸Ð»": 7424,
      "ĠÑģÐ»Ð°Ð²Ð°": 7425,
      "ĠÑĦÐ¸Ð³ÑĥÑĢÑĥ": 7426,
      "Ð¾ÑĤÑĮÑģÑı": 7427,
      "Ð°Ð²ÑĪÐ°ÑıÑģÑı": 7428,
      "ĠÐºÑĥÑħÐ°ÑĢ": 7429,
      "ĠÐ·Ð²ÑĥÐºÐ¾Ð²": 7430,
      "ĠÐ¼ÑĥÐ¶ÑĩÐ¸Ð½Ñĭ": 7431,
      "ĠÐ·Ð°Ð¿Ð»Ð°ÐºÐ°Ð»Ð°": 7432,
      "ĠÐ¿Ð¾Ð·Ð´ÑĢÐ°Ð²": 7433,
      "ĠÑĤÐ°Ð½ÑĨÐµÐ²Ð°ÑĤÑĮ": 7434,
      "ĠÐ¡ÑĥÐ²Ð¾ÑĢÐ¸Ð½Ð°": 7435,
      "ĠÐ¾ÑĤÑĢÑĭÐ²Ð¸ÑģÑĤÐ¾": 7436,
      "Ð¾Ð·Ð²Ð¾Ð»ÑĮÑĤÐµ": 7437,
      "ĠÑģÐ»ÐµÐ´ÑĥÑİÑīÐ¸Ð¹": 7438,
      "ĠÑģÐ»ÐµÐ´ÑĥÑİÑīÑĥÑİ": 7439,
      "ĠÑĢÐµÑģÐ½Ð¸ÑĨ": 7440,
      "ĠÐºÐ¾ÑģÑĤÑİÐ¼": 7441,
      "ĠÑĤÐµÑģÐ½Ð¾": 7442,
      "ĠÐ·ÐµÑĢÐºÐ°Ð»Ð¾": 7443,
      "ĠÐ½ÐµÑĥÐ´ÐµÑĢÐ¶": 7444,
      "ĠÐ¾Ð±Ð¾Ð¸Ñħ": 7445,
      "ĠÑĢÐ°Ð·Ð³Ð¾Ð²Ð°ÑĢÐ¸Ð²Ð°Ð»Ð¸": 7446,
      "ĠÐ½ÐµÐ´Ð¾ÑģÑĤÐ°ÑĤ": 7447,
      "ĠÑģÐ¾ÑģÑĤÐ¾ÑıÐ½Ð¸Ðµ": 7448,
      "ĠÐ¡ÑĤÑĢÐµÐ»ÐµÑĨ": 7449,
      "ĠÑĥÐ·Ð½Ð°ÐµÑĤ": 7450,
      "ĠÐŁÐ¾ÑģÐ»ÑĥÑĪÐ°Ð¹": 7451,
      "ĠÐ¿Ð¾ÑĩÑĤÐ¸ÑĤÐµÐ»ÑĮÐ½Ð¾": 7452,
      "ĠÐ±ÑĢÐ°ÑĤÑĮÑı": 7453,
      "ĠÐ¿ÑĢÐ¸ÑģÑĥÑĤÑģÑĤÐ²Ð¸Ð¸": 7454,
      "ĠÐ¾ÑģÑĤÐ°Ð½Ð°Ð²Ð»Ð¸Ð²Ð°Ð»ÑģÑı": 7455,
      "ĠÐºÑĥÑģÐ¾Ðº": 7456,
      "ĠÐĽÐµÐ¹ÐºÐ¸Ð½Ð°": 7457,
      "ĠÐŁÑĢÐ¸ÑĪÐµÐ»": 7458,
      "ĠÐ±Ð¾ÑĢÑĮÐ±Ñĭ": 7459,
      "ĠÑĢÐ°ÑģÑģÐ¼Ð°ÑĤÑĢÐ¸Ð²Ð°Ð»": 7460,
      "ĠÑħÐ¼ÑĥÑĢÐ¾": 7461,
      "Ð¸Ð²ÑĪÐ°ÑıÑģÑı": 7462,
      "ĠÑħÐ»ÐµÐ±Ð°": 7463,
      "ĠÐ¿ÑĥÑĪÐ¸ÑģÑĤ": 7464,
      "ĠÑĤÑıÐ³Ð¾": 7465,
      "ĠÑģÑĤÐ°Ð½Ñĥ": 7466,
      "ĠÐĴÐ¸Ð´Ð¸ÑĪÑĮ": 7467,
      "ĠÐ²ÑĭÐ¹ÑĤÐ¸": 7468,
      "ĠÐľÐ¸Ð»ÑĭÐ¹": 7469,
      "ĠÑĢÐ¾ÑģÑĤÐ°": 7470,
      "ĠÐ±ÐµÑģÑģÐ¼ÑĭÑģÐ»ÐµÐ½Ð½Ð¾": 7471,
      "ĠÑħÑĢÐ¸ÑģÑĤÐ¸Ð°Ð½ÐºÐ°": 7472,
      "ĠÑĤÑĢÐµÑĤÑĮÐµÐ³Ð¾": 7473,
      "ĠÐ¾ÑĩÐ°ÑĢÐ¾Ð²Ð°ÑĤÐµÐ»ÑĮ": 7474,
      "ĠÐ¿Ð¾Ð½ÑĢÐ°Ð²Ð¸Ð»Ð¾ÑģÑĮ": 7475,
      "ĠÐ¿ÑĥÑģÑĤÑıÐºÐ¸": 7476,
      "ĠÐ¾Ð³Ð»ÑıÐ½ÑĥÐ»ÑģÑı": 7477,
      "ĠÐ¡ÐµÐ½Ð¸ÑģÑĤ": 7478,
      "ĠÐ¸ÑģÐºÑĢÐµÐ½Ð½Ðµ": 7479,
      "ĠÑģÐºÑĢÑĭÐ»ÑģÑı": 7480,
      "ĠÐ²Ð½ÑĥÑĤÑĢÐµÐ½": 7481,
      "ĠÐ¡Ð»Ð¾Ð²Ð½Ð¾": 7482,
      "ĠÐ·Ð°ÑĤÑĭÐ»Ð¾Ðº": 7483,
      "ĠÑĢÐµÐ¿ÐµÑĤÐ¸ÑĨ": 7484,
      "ĠÑĤÑĢÐ°ÐºÑĤÐ¸ÑĢ": 7485,
      "ĠÐĶÐµÐ²ÑĥÑĪÐºÐ°": 7486,
      "ĠÑĦÐµÐ»ÑĮÐ´ÑĪ": 7487,
      "ĠÐºÐ»Ð°Ð´Ð±Ð¸ÑīÐµ": 7488,
      "ĠÐĴÐ°Ð»Ñİ": 7489,
      "ĠÑģÑĥÑīÐ½Ð¾ÑģÑĤÐ¸": 7490,
      "ĠÐ¥Ð¾ÑĩÐµÑĪÑĮ": 7491,
      "ĠÐ¿ÑĢÐ¾ÐºÐ°Ð¶ÐµÐ½Ð½ÑĭÐ¹": 7492,
      "ĠÐ¡Ð²Ð¸Ð´ÐµÑĤÐµÐ»ÑĮÐ½Ð¸ÑĨÐ°": 7493,
      "ĠÑĤÑĢÐµÐ·Ð²": 7494,
      "ĠÐ°ÑģÑĦÐ°Ð»ÑĮ": 7495,
      "ĠÐ§ÑĤÐ¾Ð±Ñĭ": 7496,
      "Ð¸Ð»Ð¾ÑģÐ¾ÑĦ": 7497,
      "ĠÑĪÑĥÑĢÑĪ": 7498,
      "ĠÐĴÐ¾ÑģÐºÑĢÐµÑģÐµÐ½ÑģÐº": 7499,
      "ĠÐºÐ°Ð½Ð¸ÐºÑĥ": 7500,
      "ĠÐ¾Ð´Ð½Ð¾Ð²ÑĢÐµÐ¼ÐµÐ½Ð½Ð¾": 7501,
      "ĠÐ¶ÐµÐ»ÐµÐ·Ð½Ð¾Ð´Ð¾ÑĢÐ¾Ð¶": 7502,
      "Ð¨": 7503,
      "Ð¾ÑħÐ¾Ð´": 7504,
      "Ð¸Ð¾Ð·": 7505,
      "Ð½Ð¸Ð»": 7506,
      "Ð½ÑıÑĤ": 7507,
      "Ð½ÐµÐ»Ð°": 7508,
      "Ð»Ð¸Ð¹": 7509,
      "Ð»ÑĥÑĩ": 7510,
      "Ð»Ð°Ð³Ð¾": 7511,
      "ÑĢÐµÐ¿": 7512,
      "ÑĢÐ°Ð¼Ð¸": 7513,
      "ÑıÑİ": 7514,
      "ÑıÐµÑĤÑģÑı": 7515,
      "ÑĭÐ´Ð½Ð¾": 7516,
      "ÑĮÐµÐ¼": 7517,
      "ĠÑģÑĭÐ³": 7518,
      "ĠÑģÐ½Ð¸Ñģ": 7519,
      "ĠÐ¿ÑĤ": 7520,
      "ĠÐ²Ðµ": 7521,
      "ĠÐ²Ð¸": 7522,
      "ĠÐ²Ð¾Ð¹ÑĤÐ¸": 7523,
      "ĠÐ¸Ð½Ð¾": 7524,
      "Ð²Ð°ÑĢÐ°": 7525,
      "ĠÐ¾ÑĨÐµÐ½": 7526,
      "Ð°Ð»Ð¾Ð¼": 7527,
      "ĠÐºÐ¾Ð³": 7528,
      "ĠÐºÑĥÑĪ": 7529,
      "Ð¾Ð²Ð°Ñı": 7530,
      "Ð¾Ð²Ð°Ð½Ð½ÑĭÐ¹": 7531,
      "ÑģÑĤÑĭÐ¹": 7532,
      "ĠÐ±Ð¾ÑĤ": 7533,
      "ĠÐ±ÑĥÐ±": 7534,
      "Ð¾Ð»Ðµ": 7535,
      "Ð°ÐºÑĥ": 7536,
      "Ð¸Ð»ÐµÐ¹": 7537,
      "ĠÑĩÐ°Ñħ": 7538,
      "ĠÑĩÐµÑģÑĤÑĮ": 7539,
      "ĠÑĩÑĮÐ¸": 7540,
      "ĠÐ¿ÑĢÑı": 7541,
      "ĠÐ½ÐµÑĥÐ»Ð¾Ð²": 7542,
      "ĠÑĢÐµÐ¶": 7543,
      "ĠÑĢÐ¾Ð´Ð°": 7544,
      "ĠÐ½Ð°ÑģÐºÐ¾Ð»ÑĮÐºÐ¾": 7545,
      "ĠÐ½Ð°ÑħÐ¾Ð´Ð¸Ð»": 7546,
      "Ð¾ÑģÐ°": 7547,
      "Ð¾ÑĢÑĥ": 7548,
      "Ð¾ÑĢÐ¾Ð³": 7549,
      "Ð°Ð²ÑĪÐµÐµÑģÑı": 7550,
      "Ð½Ð¸ÐºÐ°Ñħ": 7551,
      "ÑĨÐ°Ð¼": 7552,
      "ÑĨÐ°Ñħ": 7553,
      "Ð±Ð¾Ñİ": 7554,
      "ĠÐ¶Ð°Ð½Ð´Ð°ÑĢ": 7555,
      "ÐµÐ´ÑĪÐ¸Ð¹": 7556,
      "ĠÐ¾ÑĤÑģÑĤÐ°Ð²": 7557,
      "ĠÐ¾ÑĤÑĩÐ°": 7558,
      "ĠÐ¾ÑĤÑĢÐ¸": 7559,
      "Ð¾Ð³Ð¾Ñİ": 7560,
      "Ð°Ð½Ñĥ": 7561,
      "ĠÑģÑĤÐ¾Ð»ÑĮ": 7562,
      "ĠÑģÑĤÐµÑģ": 7563,
      "ĠÑģÑĤÐ²Ð¾Ð»": 7564,
      "Ð¸Ð½ÑĤ": 7565,
      "Ð¸Ð½ÑģÐºÐ¸Ð¹": 7566,
      "Ð¸Ð½ÑĮÑģÑı": 7567,
      "ĠÐŁÐ°Ñģ": 7568,
      "ĠÐĿÐµÐ»ÑĮÐ·Ñı": 7569,
      "ĠÐĿÐ¸Ð½Ð¾Ñĩ": 7570,
      "Ð°ÑĢÐµÑĤ": 7571,
      "Ð¾Ð¶Ð¸Ð²": 7572,
      "ÐµÐ²ÑĢ": 7573,
      "ÐµÐ²ÐµÐ»ÑĮ": 7574,
      "ĠÐ²ÑģÐ»ÑĥÑħ": 7575,
      "ĠÐĴÑĩÐµÑĢÐ°": 7576,
      "ÐµÐ·Ð¾Ð½": 7577,
      "Ð¸ÐºÐ¾": 7578,
      "ĠÑħÐ¾": 7579,
      "ĠÑħÐ²Ð°Ð»": 7580,
      "ÑģÑĤÐ²Ð¾ÑĢ": 7581,
      "ÑģÑĤÐ²ÑĥÐµÑĤ": 7582,
      "ĠÐ²ÑĭÑĤÑı": 7583,
      "ĠÑĤÐ°ÐºÐ¾Ñİ": 7584,
      "Ð»ÑıÑİÑĤ": 7585,
      "ĠÐ¾Ð±Ð¼": 7586,
      "ĠÐ¾Ð±ÐµÐ·": 7587,
      "ĠÐ¾Ð±ÐµÑģÐ¿": 7588,
      "ĠÐ¾Ð±ÑĪÐ¸ÑĢ": 7589,
      "ĠÐ¡ÑĢÐµÐ´": 7590,
      "ĠÐ¡Ð¾Ð»Ð½": 7591,
      "ĠÐ¡Ð»ÑĥÑĪ": 7592,
      "ĠÐ¿Ð¾Ð´Ð²ÐµÑĢ": 7593,
      "ĠÐ¿Ð¾Ð´ÑħÐ²Ð°ÑĤ": 7594,
      "ĠÐºÑĢÑĭÑģ": 7595,
      "ĠÐļÐ°Ð¿": 7596,
      "Ð½ÐµÑģÑĤÐ¸": 7597,
      "ĠÐ¢Ðµ": 7598,
      "ĠÑĪÐ¾ÑģÑģÐµ": 7599,
      "ĠÑģÐ¼Ð¾ÑĢÑī": 7600,
      "ĠÑģÐ¿ÑĥÑĤ": 7601,
      "ĠÐĶÐµÐ¹ÑģÑĤÐ²": 7602,
      "Ð¾ÑĪÑĥ": 7603,
      "Ð°Ð»ÑĮÑĩÐ¸Ðº": 7604,
      "ĠÑĢÐ°ÑģÑģÑĤÐ°Ð²": 7605,
      "ĠÐ³ÑĢÑĥÐ·": 7606,
      "ĠÐ¯Ð²Ð¾ÑĢ": 7607,
      "Ð½ÑĥÐ»Ð¾ÑģÑĮ": 7608,
      "ĠÐ¿Ð¾ÑģÐ²": 7609,
      "ĠÐ¿Ð¾ÑģÐµÐ»": 7610,
      "ĠÐ¿Ð¾ÑģÑĥÐ´": 7611,
      "ĠÑģÐ°Ð¼Ð¾Ð»ÑİÐ±": 7612,
      "ĠÑĤÑĢÐ¸Ð´": 7613,
      "ÑģÑĤÑĢÐ¾Ð¹": 7614,
      "ĠÐ±Ð¾Ð»ÑĮÐ½ÑĭÐ¼": 7615,
      "ĠÐ±Ð¾Ð»ÑĮÐ½Ð¸ÑĨÐµ": 7616,
      "ĠÐ³Ð¾Ð²Ð¾ÑĢÐ¸ÑĤÐµ": 7617,
      "ĠÐ´ÑĢÑĥÐ³Ð¾Ð¼Ñĥ": 7618,
      "ĠÐ¿Ð»Ð¾Ñī": 7619,
      "ĠÐŁÐ°Ð²Ð»Ñı": 7620,
      "ĠÐ²Ð·ÑıÑĤ": 7621,
      "ĠÐ³Ð¾ÑĢÐµÐ»": 7622,
      "ĠÐĳÐ»Ð°Ð³Ð¾Ð´Ð°ÑĢ": 7623,
      "ĠÐ¾ÑĩÐºÐ¸": 7624,
      "ĠÑĨÑĭÐ³": 7625,
      "ÐµÐ½Ð¸ÑıÐ¼": 7626,
      "ĠÑģÑĤÑĢÐ¸Ð¶": 7627,
      "ĠÐ½Ð°Ð´Ð¼": 7628,
      "ĠÑĦÐ¸Ð»Ð¾ÑģÐ¾ÑĦ": 7629,
      "ĠÑĦÐµÐ²ÑĢ": 7630,
      "Ð¸Ð½Ð°Ñħ": 7631,
      "ĠÐĵÐ¾Ð²Ð¾ÑĢÐ¸Ð»": 7632,
      "ĠÐ¾ÐºÐ½Ð°Ð¼Ð¸": 7633,
      "ĠÐ¾Ð¿ÑĭÑĤ": 7634,
      "ĠÐ²Ð¾Ð·ÑĢÐ°ÑģÑĤ": 7635,
      "ÑĮÑıÑĢ": 7636,
      "Ð¸ÑģÑĤÐ°": 7637,
      "Ð¸ÑģÑĤÐ¾Ð²": 7638,
      "ĠÐ¸Ð¼ÐµÐ»Ð°": 7639,
      "ĠÐ¾ÑģÐ¼Ð¾ÑĤÑĢ": 7640,
      "ĠÐ¾ÑģÐ¼Ð°ÑĤÑĢ": 7641,
      "Ð»ÐµÑīÐµ": 7642,
      "ĠÐ½Ð°ÑĩÐ¸Ð½Ð°Ñı": 7643,
      "Ð°Ð²ÑĪÐ¸Ð¼Ð¸": 7644,
      "ĠÑģÐ¾Ð²ÐµÑģÑĤÐ¸": 7645,
      "ĠÐĹÐ°Ðº": 7646,
      "ĠÐ½Ð°Ð¿ÑĥÐ³": 7647,
      "ĠÐºÐ¾Ð½ÑĨÐ¾Ð²": 7648,
      "ĠÐºÐ¾Ð½Ð´ÑĥÐº": 7649,
      "ÑģÐ»Ð°Ð²": 7650,
      "Ð¸Ð²ÑĪÐ¸Ð¼ÑģÑı": 7651,
      "ÐµÑģÑĤÐ²ÐµÐ½Ð½Ð¾": 7652,
      "ĠÑģÐµÑĢÐ¾Ð¹": 7653,
      "Ð½Ð¾Ð²Ð¾Ð»Ð¾Ñģ": 7654,
      "ĠÐ¿Ð¾Ð²Ð¾Ð´Ñĥ": 7655,
      "ĠÐŁÐ°Ð²Ð»Ð¾Ð²Ð½Ð°": 7656,
      "Ð»ÐµÐ½Ð¾": 7657,
      "Ð»ÐµÐ½Ð½Ð¾Ð³Ð¾": 7658,
      "ĠÐ¾Ð´Ð¸Ð½Ð°Ðº": 7659,
      "ĠÐ¾Ð³ÑĢ": 7660,
      "ĠÐ¿Ð¾ÑĢÐ°Ð¶": 7661,
      "ĠÐºÑĢÐ°ÑģÐ½ÑĭÐ¹": 7662,
      "ĠÐºÑĢÐ°ÑģÐ½Ð¾Ðµ": 7663,
      "ĠÐ±Ð¾Ð»ÑĮÑĪÐ¾Ð¼": 7664,
      "ĠÐ¿Ð¾Ð¿ÑĥÐ³": 7665,
      "ĠÑĩÑĥÐ²ÑģÑĤÐ²Ð¾Ð²Ð°Ð»Ð°": 7666,
      "ĠÐ½Ð¾ÑĩÐ½Ð¾Ð¹": 7667,
      "ĠÐ¾ÑģÑĤÐ°Ð»ÑĮÐ½ÑĭÐµ": 7668,
      "ĠÐ·Ð°ÐºÐ¾Ð»": 7669,
      "ĠÐ·Ð°ÐºÑĥÑĢ": 7670,
      "ĠÐ¿ÐµÑĢÐµÐ´Ð°Ð»": 7671,
      "ĠÐ¿ÐµÑĢÐµÐ´Ð½ÐµÐ¹": 7672,
      "ĠÑĢÐ°ÑģÑģÐºÐ°Ð·ÑĭÐ²Ð°ÐµÑĤ": 7673,
      "ĠÐ¾ÑĤÐ²ÐµÑĤÑģÑĤÐ²": 7674,
      "ĠÐ²Ð¾ÑģÐµÐ¼ÑĮ": 7675,
      "ĠÐĿÐ°ÑģÑĤÑĥÐ¿": 7676,
      "ĠÑģÐºÐ°Ð·Ð°Ð½Ð¾": 7677,
      "ĠÐ½ÐµÑĤÑĥ": 7678,
      "ĠÐĿÐ¸ÐºÑĤÐ¾": 7679,
      "ĠÐ½ÐµÐ´Ð¾Ð²ÐµÑĢ": 7680,
      "ĠÐ¼Ð½Ð¾Ð³Ð¾Ðµ": 7681,
      "ÑĥÑīÐµÐ¹": 7682,
      "ÑĥÑīÐ°Ñı": 7683,
      "ÑĥÑīÐ¸Ðµ": 7684,
      "ĠÐ±ÐµÐ»Ð¾Ð¼": 7685,
      "ĠÐ¾ÑĤÐºÐ°Ð·": 7686,
      "ĠÐ¾ÑĤÐºÐ°Ð·Ð°Ð»ÑģÑı": 7687,
      "ĠÐ´ÑĥÑĪÐ¾Ð¹": 7688,
      "ÐŁÑĢ": 7689,
      "ÐŁÐµÑģÑĤÑĢ": 7690,
      "ĠÐ¿ÑĢÐ°Ð²Ð¸Ð»ÑĮ": 7691,
      "ĠÑĥÐ»ÑĭÐ±ÐºÐ¸": 7692,
      "ĠÐ·Ð°Ð±ÑĢÐ¾ÑĪ": 7693,
      "ĠÐ´ÐµÑĤÑģÐºÐ¾Ð¹": 7694,
      "ĠÐºÐ¾ÑĢÑĢ": 7695,
      "ĠÐºÐ¾ÑĢÐ¼": 7696,
      "ĠÐ¥Ð°": 7697,
      "ĠÐ¥Ð¾ÑĤÑĮ": 7698,
      "ĠÐºÐ¾Ð¼Ð½Ð°ÑĤÐ°Ð¼": 7699,
      "ĠÑĥÐ±Ð¸ÑĤÑĮ": 7700,
      "Ð¸ÑīÐ°": 7701,
      "Ð¸ÑīÑĥ": 7702,
      "ĠÑħÐ¾Ð»Ð¾Ð´Ð¾Ð¼": 7703,
      "ÐµÐ½ÑĤÐ¾Ð¼": 7704,
      "ĠÐ¼Ð¾Ð»Ð¾Ð´ÑĭÑħ": 7705,
      "ĠÐ¼Ð¾Ð»Ð¾Ð´Ð¾ÑģÑĤÐ¸": 7706,
      "Ð²Ð°ÑģÑĤ": 7707,
      "ÑİÑīÑĥÑİ": 7708,
      "ĠÑĢÐµÑĪÐµÐ½Ð¸Ðµ": 7709,
      "ĠÐ¿Ð¾Ð¶Ð°ÑĢ": 7710,
      "ĠÐ¿ÑĢÐ¸Ð²ÑıÐ·": 7711,
      "ĠÑģÐ´ÐµÐ»Ð°Ð»ÑģÑı": 7712,
      "ĠÐ¾ÑĤÐ´Ð°ÑĤÑĮ": 7713,
      "ĠÐ¾ÑĤÐ´Ð¾Ñħ": 7714,
      "ĠÐ¡ÐµÑĢÐ³ÐµÑİ": 7715,
      "ĠÐ¿Ð¾ÑģÐ»ÐµÐ´Ð¾Ð²Ð°Ð»": 7716,
      "ĠÐ¿Ð¾ÑģÐ»ÐµÐ´Ð½Ð¸Ñħ": 7717,
      "Ð°ÑĤÐµÐ»Ñİ": 7718,
      "Ð½Ð¸ÑĩÐµÑģÐº": 7719,
      "ĠÑģÐ»ÐµÐ´ÑĥÑİÑīÐµÐµ": 7720,
      "Ġ19": 7721,
      "ĠÐ¼Ð¸Ð»Ð°Ñı": 7722,
      "ĠÑħÐ¾Ð´Ð¸ÑĤ": 7723,
      "ĠÑģÐ»ÑĭÑĪÐ°Ð»Ð°": 7724,
      "ÑĥÐ¹ÑģÑĤÐ°": 7725,
      "ĠÐŀÐ´Ð½Ð°ÐºÐ¾": 7726,
      "ÑĢÐ°ÑĩÐ¾Ðº": 7727,
      "ĠÐ½Ð¾ÑģÐ°": 7728,
      "ĠÐ½Ð¾ÑģÑĥ": 7729,
      "ĠÐ½Ð¾ÑģÐ¸Ð»": 7730,
      "ÐµÑĢÐµÐ´Ð¸": 7731,
      "ĠÐ¿ÑĢÐ¾ÑģÑĤÐ¾Ð¹": 7732,
      "ĠÑĨÐµÐ»ÑĭÑħ": 7733,
      "ĠÐ¿ÑĢÐ¾ÑĪÑĥ": 7734,
[...]
